#version: 0.2
Ġ d
e s
Ì ģ
Ġ l
e n
o n
r e
Ġ p
Ġd e
Ġ a
Ġ s
a n
Ġ c
t e
t i
Ġ e
o u
Ì Ģ
q u
i s
l e
i n
e r
en t
a r
Ġl a
n e
Ġ m
o r
u r
Ġl e
Ġe t
i e
i t
i l
Ġ f
qu e
o m
ti on
r a
Ġ en
Ġ t
m e
Ġd es
Ġ u
u s
Ġl es
Ġ re
c e
a l
m ent
ou r
an t
r o
v e
Ġd u
es t
Ġp ar
Ġ L
Ì Ĥ
Ġ n
Ġ qu
a u
Ġ v
s e
on t
Ġa u
Ġ 1
d e
c h
an s
r i
Ġ Â
s i
g e
r es
Ġ C
t a
a s
Ġ b
Ġs e
Ġ est
a i
p e
o l
a tion
Ġc om
Ġu n
Ġ S
i te
Ġ (
Ġp l
Ġd ans
Ġc on
a is
Ġ P
Ġ M
Ġu ne
Ġ g
â Ģ
Ġ que
a t
Ġc e
m p
c i
l le
o i
Ġ A
Ġ j
Ġp our
l i
u e
Ġqu i
h e
Ġ B
Ġ in
r an
âĢ Ļ
ĠÂ »
l es
te r
Ġp re
u n
Ġp ro
Ġs ur
u x
Ġ D
Ġ 2
d i
er s
Ġpl us
Ġ1 9
t re
ĠÂ «
Ġ E
a le
Ġm e
a c
Ġc h
in e
f f
u l
ur s
Ġ ou
Ġp e
0 0
a g
a it
o s
il le
u i
Ġ I
a b
u re
Ġ T
Ġs on
u t
Ġ R
en d
Ġ F
Ġa n
ch e
i c
Ġ G
Ġ :
Ġ h
is e
Ġ r
Ġ il
i g
Ġs ont
a m
qu es
ve c
or t
o c
Ġ ne
Ġ J
a in
Ġp as
o p
ĠL e
Ġd i
Ġa vec
v i
on s
t es
u ne
t te
a p
i que
o is
a ge
b re
ai re
Ġs u
ou s
Ġ N
r ie
Ġ H
or s
p re
Ġs a
Ġe x
ou v
au x
t s
c es
i en
in s
Ġ te
l a
Ġ ra
an d
i m
c tion
i er
i r
ent re
on n
p o
u is
Ġa v
Ġcom me
Ġm o
ĠL a
Ġpar ti
) ,
Ġ o
ou ve
en ce
b le
is t
Ġt ra
Ġp r
Ġ V
o g
Ì §
Ġau x
an ce
e l
ĠI l
ti que
or d
Ġm ais
Ġt ou
on ne
Ġde ux
t r
u b
p ar
Ġn om
Ġs es
m es
Ġcon s
t res
ĠL es
ar d
Ġcom m
oi r
e t
Ġpre m
r it
t u
Ġt r
i mp
Ġcom p
i v
Ġc ont
Ġa c
en s
Ġa r
Ġa l
a y
i on
d u
u m
Ġf or
o t
on d
ĠE n
a ce
Ġp er
Ġ entre
a d
Ġ1 8
o re
Ġa p
en te
o it
a v
our s
ĠC h
a te
Ġm ar
c le
si on
) .
Ġ W
ment s
Ġn o
ti n
oi re
Ġf ait
ation s
ale ment
ant s
Ġ2 00
Ġ ;
Ġ K
us e
Ġf in
Ġ2 0
Ġl ui
ti f
ĠC e
Ġm on
Ġg ran
Ġce tte
Ġp o
Ġd is
c t
an te
Ġ ont
Ġc he
Ġ 3
tion s
il l
Ì Ī
Ġ ter
ĠÂ» .
l les
Ġle ur
ti e
in g
ĠÂ» ,
Ġj e
Ġs ie
d es
n es
s ent
e x
Ġ ro
o y
c u
in si
L e
Ġ O
Ġt ro
us si
ab le
is te
ran c
ĠP ar
Ġ ge
Ìģ ,
p h
Ġf e
i re
o b
Ġc ar
Ġ es
Ġc l
ai res
ti s
ĠD e
i de
in t
i ques
or te
er t
, .
Ġ X
Ġ imp
Ġp ers
Ġre c
r ent
Ġ20 1
Ġnom bre
b e
Ġa s
t en
Ġd ont
ff e
ci p
tr u
Ġa ussi
t ra
Ġpe u
Ġn ouve
m b
t ant
Ġal ors
r is
te ur
a mp
m an
Ġ res
Ġp uis
end ant
v er
Ġan ne
o le
Ġ or
L a
Ġm il
Å ĵ
Ġa insi
v en
ur es
a ine
U n
ta it
an g
Ġm a
Ġc es
ou p
ĠM ar
m i
r on
ri c
Ġs er
Ġs ous
s er
f e
ti l
c l
me t
al es
en ne
. .
g alement
Ġt re
on g
u er
Ġ y
Ġe lle
ti ques
Ġl ors
Ġtro is
m in
Ġde r
Ġ 4
ig ne
p p
Ġpr in
ran ce
f in
t h
Ġc ol
er ta
Ġin s
ti ve
Ġ ti
en se
l s
Ġprem ie
ag es
Ġj us
as s
Ġf il
po se
le ment
ie u
p uis
Ġc re
i ent
Ġs ou
Ġp os
Ġ âĢ
Ġt he
1 9
i f
l o
Ġ 5
Ġa pre
E n
ol i
ouv er
ĠJ e
ou e
c on
Ġv ille
Ġpe ut
al ite
Ġj u
ĠR e
as se
mp s
Ġa t
i b
ol og
ub li
l ie
Ġc o
v es
Ġ19 9
a re
Ġin ter
qu i
m bre
d ent
Ġf ranc
Ġtra v
is s
ay s
m ble
I I
v ent
Ġs i
Ġm an
Ġo b
t on
Ġs y
l an
Ġr en
Ġtou t
Ìģ .
j e
ie urs
00 0
m ment
it s
ĠF rance
ag ne
Ġder n
Ġ %
or m
c rit
r ou
Ġa d
i d
Ġb e
Ġparti e
Ġc our
ai ent
Ġs ans
Ġre p
Ġ ve
Ġpers onn
Ġcont re
L es
o pe
e mp
al is
al le
om me
in es
ĠA n
c a
ta t
Ġ 000
m a
Ġb ien
ti tu
Ġb a
Ġprem ier
Ġen c
ch es
Ġt our
t ure
u es
Ġc erta
Ġ he
ch er
u v
om e
Ġac c
o ci
ra tion
te urs
Ġcon n
l on
Ġp ays
g l
n ent
Ġg ra
ve l
Ġs it
ra l
Ġgran d
Ġv ers
Ġde puis
Ġper met
Ġpl ace
Ġ ri
on c
ont re
Ġa b
c ul
Ġav ant
Ġplus ieurs
g es
l u
au t
i es
g ne
Ġc ou
Ġcon c
Ġc or
v ant
Ġ on
Ġcomm un
ĠPar is
ain t
Ġre pre
g re
Ġ oc
Ġch a
ci en
ie ux
Ġau t
n er
Ġse c
Ġm in
Ġcon f
Ġex p
ti t
Ġan s
o de
Ġ 9
op ul
Â «
al l
Ġ 6
ĠâĢ Ķ
Ġjus qu
Ġno ta
ĠS e
u d
Ġl ong
Ġp h
ol u
ĠA l
Ġc ap
m is
Ġp oli
g an
Ġtr ans
end re
il les
te ment
v is
Ġau tres
Ġque l
Ġprin cip
ou te
Ġf ois
Ġas s
b ut
i ers
Ġp opul
Ġ19 8
ig n
ou t
po si
ain s
Ġ1 7
Ġte mps
Ġc a
Åĵ uv
Ġu til
Ġenc ore
uer re
Ġf ut
o d
lle ment
Ġle urs
Ġn ation
ĠN e
Ġ 7
vi ent
t ro
r u
is se
ce p
si de
om p
Ġn i
t o
le r
ouv ent
Ġp ubli
Ġpro f
c ri
Ġ k
i ci
in te
us es
p er
f ois
Ġv ie
Ġpro du
Ġs ui
r en
a ille
Ġj oue
v al
Ġce l
i a
z e
Ġimp ort
Ġnota mment
li g
Ġpro p
Ġm us
Ġ im
is me
s te
re c
Ġqu at
v ite
Ġv is
Ġap p
an e
s ente
Ġdi ffe
is ation
Ġmon de
j et
Ġf aire
Ġ 8
Ġ U
an n
Ġe ff
d re
Ġmo ins
vel op
u g
d er
Ġf on
ĠJ o
di tion
Ġm ai
ĠP e
il s
Ġp ri
at ure
Ġ [
Ġj our
a me
m er
Ġ19 7
u le
Ġc ul
ais on
Ġo ff
Ġm al
Ġt ous
Ġre mp
e lle
p endant
ais e
A n
qui pe
en ti
Ġp ouv
ar t
au te
og ra
Ġ Y
ri que
al ise
Ġs pe
g i
Ġd om
ri b
ien s
Ġa me
Ġs oit
Ġr om
ction s
on e
u it
ist oire
Ġ19 6
Ġ Q
ab it
Ġcel ui
ta b
Ġcons tru
re ment
li er
ne ment
ĠS aint
au tres
ra i
Ġn on
Ġce lle
Ġgran de
an ne
Ġfor me
Ġcon side
Ġl igne
Ġap par
Ġm en
ar ge
ur ant
ĠD ans
ĠCe tte
ur ope
m pe
Ġm ort
v ers
Ġtou te
Ġ Un
r y
oc ie
Ġres te
ar i
Ġ19 4
at s
ta tion
a de
Ġ1 5
ĠE lle
Ġs p
Ġsu c
po que
.. .
t ent
ro s
ou l
ĠT he
Ġmil li
2 0
Ġ ent
Ġc ours
Ġv er
Ġav oir
v o
s es
Ġfil m
ĠM e
g er
it es
m o
Ġo f
Ġp ie
Ġ1 6
ant es
Ġv i
ta ts
Ġm at
u te
rou pe
Ġd onne
Ġav ait
ag n
ĠB e
Ġd onc
m on
Ġin te
Ġs ol
a z
l us
Ġra p
ue l
Ġse p
Ġc ro
Ġme t
Ġil s
t y
Ġje u
g ion
Ġparti r
velop pe
re r
ent s
Ġf er
ien ne
la ce
Ġf ac
g ue
ais s
i ch
ogra ph
Ġc in
Ġm ont
Ġc as
ĠA u
Ġf re
at h
Ġg uerre
Ġdi ff
Ġquat re
Ġ19 3
1 8
Ġa ff
Ġ z
Ġutil ise
Ġquel ques
ĠA r
Ġl ieu
Ġf am
Ġse lon
f or
ĠJe an
Ġ1 0
ain es
an c
Ġra pp
ra it
k e
l l
f ic
Ġnouve au
m ar
o v
an ge
Ġ op
Ġp res
I S
m and
Ġl i
Ġs ce
olu tion
Ġd ro
Ġmo y
ist or
i x
Ġch amp
Ġc an
Ġin di
Ġnombre ux
X e
ĠG ran
f s
Ġm es
ac te
Ġs ouvent
Ġpar t
Ġc ent
Ġtr ouve
c s
s u
ti ne
Ġ19 5
p he
a vi
Ġcl ub
Ġp ort
si te
Ġap pe
Ġsu ite
Ġh om
Ġpoli tique
ri ode
ĠC ar
is tes
B N
ta ient
Ġe mp
j ours
ĠCh ar
r ise
Ġv ol
an de
Ġc ri
is on
il ite
Ġh abit
Ġche z
Ġcont ra
Ġsit ue
o se
b les
Ġou v
ĠI n
I e
Åĵuv re
Ġeff et
ĠG e
Ġl iv
il i
oc ca
Ġau tre
Ġex emp
ic t
A r
a k
op h
a h
Ġdern ier
Ġcon se
Ġn ature
ate ur
g ra
ĠX V
Ġg ouver
par t
ti er
le x
ĠP our
Ġs oci
ra ge
Ġin c
it te
Ġor gan
si ons
au l
o in
or ite
ti en
Ġpas se
Ġl oc
qu er
Ġf ond
Ġpouv oir
t he
Ġ Z
IS BN
t al
posi tion
Ġm is
Ġg roupe
Ġro i
y p
om b
ri ve
oi res
Ġd ou
o te
as si
Ġin f
ex p
ĠT h
y ant
j a
Ġs aison
vi er
Ġfe m
Ġ1 3
Ġre f
li que
Ġpe ti
Ġ Ċ
Ġre tr
D e
ab les
Ġtou jours
er n
ti vite
au c
Ġen f
en e
ur ent
ier re
Ġnouve lle
h n
an ces
Ġp orte
ĠS ch
Ġa ur
Ġv oit
Ġsu b
tif s
c k
Ġpubli c
s ence
a il
Ġmat ch
n ation
ac c
Ġp endant
p s
Ġcerta ins
vi ron
r ence
Ġc entre
man de
ap p
d us
Ġsu d
Ġni ve
Ġd oit
Ġro y
ch n
Ġre t
Ġcar acte
Ġa lle
Ġ1 4
Ġr est
c la
d ie
iv er
Ġre lig
Ġa g
rie ur
Ġr ou
a ti
ie l
our g
Ġn ord
i ce
Ġt o
it aire
Ġpar c
Ġse ul
am b
ĠF ranc
Ġcol le
Ġren c
ĠU ne
Ġ1 2
Ġsy ste
Ġpas s
h istoire
ri er
Ġ -
con om
Ġa fin
ra s
Ġt ard
Ġmo de
Ġcomm une
r ant
Ġsec ond
r end
ic k
Ġt en
Ġh um
Ġde v
c ur
l and
Ġm ain
s on
Ġs ta
i le
ig ine
ra le
Ġg ar
m ine
Ġde vient
il es
Ġcomp te
Ġpo int
ĠC es
Ġp ra
Ġm ois
on ce
Ġdern ie
7 8
l in
Ġce ux
y n
o w
c is
ti me
oup es
ol es
au me
Ġv oi
ille t
Ġpopul ation
Ġcom b
Ġdes s
Ġcin q
li c
Ġnombre uses
au v
si ble
si dent
Ġm ouve
b er
Ġes s
v olution
Ġsuc ce
Ġcon tin
Ġmar que
s y
Ġmilli ons
Ġexemp le
di tions
is tre
Ġc amp
Ġa m
ti ent
Ġparti cu
Ġcl asse
r il
a ur
e au
Ġan n
Ġju in
ĠO n
Ġme ille
Ġcons er
j our
Ġqu ar
Ġti tre
ti c
and is
Ġcap it
ct ure
Ġpeu vent
on de
im ite
Ġes pe
Ġn ous
Ġte chn
du it
Ġter rit
Ġd urant
Ġtou tes
Ġfor m
ĠX I
ces s
Ġdeux ie
su ite
Ġs ign
Ġce t
Ġc oup
at ri
Ġl ang
ĠD es
Ġb ut
se mble
Ġpro te
ort s
ĠM ais
ui re
g n
Ġa yant
Ġf ig
Ġcul ture
Ġre g
Ġcomm er
i ons
en c
u me
Ġse u
Ġcha que
pe c
ate urs
Ġhom mes
or ta
ĠC l
d s
Ġr end
Ġpos se
i k
ĠS h
ĠS t
Ġ19 1
g ie
au tre
tive ment
i tion
aiss ance
i onn
un es
Ġe ffe
ĠP h
con de
ou is
Ġnive au
v in
Ġpers onne
Ġparti cul
i an
il li
Ġs our
Ġpo e
Ġj an
olog ie
Ġfon ction
Ġpersonn es
ĠIl s
Ġdi re
I n
Ġj ours
Ġv oy
auc oup
5 0
Ġmon di
Ġf ai
Ġgouver nement
s ie
Ġs ocie
in f
Ġt ant
Ġp a
A u
di c
Ġsu pp
t out
Ġde ven
tit ue
Ġ19 2
rit ann
ou se
Ġb ou
Ġj am
ri ge
Ġa tte
Ġh istor
Ġfil s
it al
ci dent
i ti
Ġf ont
Ġfam ille
ĠNe w
ub lie
tion ne
Ġpl an
Ġche val
ĠJo hn
Ġser vi
d ite
Ġc ite
p ond
Ġv iv
te mbre
Ġdi rec
en n
al if
Ġ1 1
Ġpar fois
Ġdis p
ri te
Ġra ison
v ie
Ġrap ide
t ri
ar ch
ul te
Ġtra ite
Ġpo si
Ġrom an
l y
Ġd onn
h ui
Ġcom pose
ue lle
Ġp u
en ces
Ġpl u
Ġmar s
t rie
iv ers
Un is
ur b
Ġsi x
Ġsep tembre
Ġret our
to bre
Ġes p
o k
Ġp ublie
ve ment
Ġjam ais
Ġjan vier
g le
Ġce pendant
on es
Ġm ontre
or i
Ġpr end
res sion
ĠH e
Ġju illet
... ]
Ġt andis
qu ent
le ve
Ġbe aucoup
Ġb as
ar ie
p end
Ġau c
Ġl ie
Ġsur tout
Ġba se
Ġ[ ...]
Ġdi x
a ff
r in
Ġprem iers
D ans
Ġm y
or igine
ĠS on
Ġparticu lier
p ubli
Ġf ra
Ġen suite
que lle
Ġd oc
ce mbre
ĠChar les
que l
Ġtrav ail
p pe
is er
Ġf ace
el les
Ġcor ps
a ch
om m
v oir
re ur
Ġtra dition
Ġparticul ie
ar s
Ġan d
Ġm ise
ĠJ ac
Ġs c
Ġla quelle
Ġan im
in ter
Ġat t
Ġv ict
occa ta
Ġp al
Ġcon te
in ts
ar me
ac tion
l or
se au
Ġrenc ontre
Ġav ril
Ġl arge
en de
Ġs or
Ġmus ique
en nent
cu pe
gl ise
Ġoc tobre
or k
Ġgrand s
ap on
c o
Ġte x
s t
u ve
Ġe lles
Ġche v
lu ence
Ġb ar
ĠS i
ci de
Ġcomp le
Ġm er
Ġca use
ĠQ u
ĠI I
c ar
Ġre cher
Ġrec onn
mb l
es s
res se
ve mbre
Ġse mble
que t
Ġinter nation
m ie
ĠP re
Ġtrois ie
te mps
ĠA insi
al y
Ġb lan
ĠR ob
Ì Ħ
Ġs ite
ta ge
Ġpersonn ages
a ve
Ġnom me
Ġs imp
av ant
ver se
si onne
Ġ( Â«
ap re
Ġaur ait
o ie
te au
ĠB el
oy e
Ġnation al
ĠB ar
ac re
c te
l ac
ĠC ol
ai r
ĠA pre
veloppe ment
ĠGe or
Ġa ou
Ġno vembre
h o
Ġ Ġ
es p
Ġaut our
Ġ i
Ġre la
Ġoff ic
Ġretr ouve
Ġre l
Ġv en
ne y
Ġv a
Ġmo der
a x
ord re
mb res
vis ion
n ie
able ment
Ġc ir
ser ve
, ,
el on
ĠGran d
Åĵ ur
or ter
Ġseu lement
Ġd ist
Ġcons titue
Ġpro ble
Ġpr is
Ġ3 0
jour d
d am
Ġsit u
Ġcou le
ĠN ord
Åĵuv res
ĠI s
Ġje une
ĠB re
A l
Ġm or
ĠG re
Ġvi ol
g ent
o x
b ert
Ġc al
Ġprof es
Ġliv re
ĠC on
p es
ĠR oy
Ġappe le
d a
Ġs al
Ġ18 9
rent s
Ġpuis s
Ġtrav ers
un i
vo que
it h
Ġman ie
je ts
t ran
or de
u ment
Ġje unes
ou pe
Ġhabit ants
i me
Ġ2 5
g on
Ġf ais
isse ment
Ġk m
Ġf our
Ġt able
ique ment
Ġconstru ction
p le
Ġl itte
Ġe ux
Ġen viron
tu di
b all
Ġs oi
ĠXI Xe
d o
Ġpro jet
ag it
Ġan gl
dus trie
Ġcont ro
Ġtro p
Ġcol l
c ta
Ġde mande
ĠM al
ci pe
a us
Ġd ate
Ġm om
Ġdis par
tab l
Ġj ou
rie ure
es tion
Ġde vant
Ġm oi
res si
Ġch arge
Ġmar i
or ie
c re
i che
Ġ19 0
Ġins t
du ction
Ġce la
Ġdi rige
Ġmouve ment
l am
ris es
t tes
ĠG u
v re
ĠL ouis
au d
Ġm use
C e
di f
Ġenf ants
v rier
Ġdi vers
Ġrapp ort
Ġre ven
ut o
Ġc ad
Ġle t
at t
. ,
y pe
ac t
Ġprodu ction
m en
Ġpar mi
Ġs ty
Ġme mbres
ille urs
a di
l ant
Ġsu pe
mp ire
ense mble
Ġpo ints
Ġ9 78
Ġnation ale
s s
Ġ w
Ġgran des
Ġor ig
a e
Ġplu part
u f
ct ue
ti ers
Ġma j
ĠXV II
I l
c an
ti ves
Ġch ar
Ġp il
al iste
Ġch er
Ġcerta ines
Ġcons titu
en nes
c ole
ra lement
ab ord
r ont
le y
ten ir
min ist
ri es
Ġpro pre
ar de
Ġat ta
g a
ĠCe pendant
1 7
ĠC ons
o tes
p ort
si d
Ġch ange
v ol
Ġpr om
Ġ 0
ter re
Ġan ci
ro che
ac es
Ġar tis
Ġs ens
Ġpra tique
h i
Ġe urope
it aires
ĠC an
Ġas se
g age
Ġan cien
Ġse conde
as te
o e
ĠM ont
Ġmil ieu
Ġlong ue
1 0
Ġf ort
ĠP aul
ui fs
Ġcommun aute
ĠF e
Ġsy mb
cep tion
1 6
Ġpe tit
for me
Ġcomm ence
o ge
Ġ18 6
in i
ici le
Ġchamp ionn
Ġb on
Ġg rec
ograph ie
ra in
titu de
Ġpersonn age
is sent
ouv ert
u til
c les
a ci
o ise
Ġb ritann
Ġv ing
ai te
ĠH en
Ġ200 6
cri p
Ġz one
Ġterrit oire
Ġ Åĵuvres
Ġp le
Ġa illeurs
Ġg en
ic ation
au che
Ġsy n
Ġe u
Ġse in
Ġpl uto
onne ment
Ġacc ue
Ġimport ant
ou est
ĠD is
ĠH ar
Ġmoy enne
Ġfem mes
f orm
ĠL u
Ġchev aux
g u
g ul
en tie
Ġb i
Ġ ide
Ġn oir
ĠP ierre
Ġfin alement
Ġse ule
o ot
Ġce lles
Ġsui vant
l oi
Ġl ib
Ġqu alif
, ,.
ĠD u
ac ite
olog ique
Ġd it
ĠC om
Ġprop rie
Ġmes ure
qu ant
Ġcour se
Ġconn ai
ol y
ir me
an ci
Ġorgan ise
Ġtrav aux
3 0
h er
Ġcom pe
tu de
Ġrapide ment
Ġmom ent
ĠS a
ĠB er
1 5
m agne
Ġre v
Ġpro g
vi r
rib u
Ġs cien
ĠF re
Ġjour n
ar es
Ġpro pose
Ġmondi ale
ÌĢ -
Ġqu and
li m
ĠY ork
es ti
c tif
Ġv ue
Ġmar che
Ġsitu ation
s ul
or gan
Ġjoue urs
Ġvoy age
rent es
Ġver sion
Ġv ill
Ġar me
Ġdis tin
a tive
le ction
ie le
Ġter re
gra m
i ble
p are
le ct
ĠL ors
Ġ18 8
Ġche f
Ġpos sible
om be
Ġac tivite
Ġres p
C h
tu des
Ġfor ce
Ġm uni
ĠS te
Ġh y
pe lle
t t
Ġs us
ou le
Ġf le
Ġt ri
ĠS p
ig nes
Ġimport ante
Ġpro ce
Ġasse z
Ġ Åĵuvre
res pond
ig ue
Ġba ta
ĠT e
d uire
Ġc ine
Ġh au
y s
ta ire
ĠJ u
Ġlors que
Ġ ran
an ti
qu ie
ĠL ond
Ġser ait
Ġm ag
du c
rib ue
sy ch
s us
ais se
Ġtr oupes
Ġ200 8
cu p
d it
r ist
ri me
ĠSch iele
Ġs t
in c
Ġt ype
t end
Ġs tat
Ġser a
Ġli be
Ġfem me
Ġlang ue
Ġv illes
os er
iss ant
Ġent rai
o ff
Ġ is
us ion
ĠI er
1 3
Ġcol on
Ġdiff ic
ra ture
ard s
r om
s p
ut es
ĠV e
k i
in dre
res s
Ġjoue ur
Ġsign if
d is
m oi
Ġ iss
Ġn avi
av or
n age
Ġl ance
Ġp ense
Ġch ans
Ġter me
Ġl imite
Ġv ale
Ġg r
Ġ200 7
ĠI II
ay e
7 0
Ġau jourd
ĠS ud
Ġac t
ol l
Ġmil itaire
Ġservi ce
an tin
Ġ2 2
Ġma je
ric ain
Ġcor respond
orta il
Ġt ot
Ġpro b
Ġconn u
E mpire
Ġdes tine
Ġh aut
Ġex iste
Ġappar ai
Ġoffic ie
Ġa j
Ġte mp
Ġsui v
Ġfon de
Ġre j
ĠM on
Ġ2 4
est re
au g
Ġcomp agn
Ġparti cip
Ġspe cta
i ge
cla re
b es
ti cle
Ġla isse
Ġmais on
a che
Ġqu alite
ais es
Ġpe int
Ġc y
Ġfin ale
ĠX Xe
ren ces
mo ins
ri r
c y
g yp
Ġ ?
Ġb ois
Ġcl assi
te l
ĠP ro
ĠM an
Ġentre p
ĠW al
Ġdro it
Ġr ue
tis me
Ġalle mand
a si
Ġv oir
ri ch
aille urs
Ġd ra
er ne
Ġposi tion
E urope
Ġf ore
Ġorig in
d ro
Ġm ul
Ġfor te
ib li
Ġchampionn at
ĠLond res
1 4
Ġb at
Ġremp orte
Ġf urent
ous se
i o
p is
Ġm ate
ri g
ins t
oci ation
p ire
orm ais
ĠDis ney
ĠC o
ĠD ick
onn es
b ourg
h y
s ormais
es pe
Ġ200 5
Ġremp lace
Ġsty le
Ġl ut
it y
ĠP er
ĠG uerre
mpe reur
Ġmuni cip
Ġ urb
lle magne
Ġpour s
t or
Ġp sych
Ġa che
le v
alis tes
r us
Ġet c
Ġ200 0
ĠC he
Ġar rive
publi que
Ġc it
en si
ĠR o
oc k
f ense
es te
ou re
ent es
et h
oot ball
ĠS elon
Ġpro gram
alis ation
Ġpr endre
Ġex pe
Ġs tru
ti tion
Ġle quel
at ta
Ġnouve lles
Ġresp ons
Ġre mar
r s
ais sent
os s
1 2
ĠK e
Ġving t
ra tions
conom ique
Ġfig ure
on y
an im
Ġcommun es
Ġprincip alement
l it
Ġs ort
Ġ2 8
ag er
b um
qu is
di a
h omme
Ġs au
Ġc ra
Ġb re
Ġpeu ple
Ġvict oire
Ġt ent
ort h
Ġacc omp
Ġpeti te
f ace
i res
Ġ id
Ġrecher che
Ġf avor
Ġt end
Ġpro che
n o
y si
Ġes time
Ġcri tique
n a
ar a
ĠP ortail
en f
Ġf aut
tal ie
v a
ĠC or
alis me
r un
Ġfe u
Ġ201 0
Ġp ian
2 00
Ġg l
h am
Ġ !
Ġt aille
ro i
Ġh omme
par tement
gle terre
c al
v ise
Ġs om
ra ges
Ġcommer ci
P ar
v ille
v ain
Ġau g
Ġpri x
Ġz ones
en ter
Ġte mpe
Ġdire ction
ĠP ri
. -
b y
Ġqu ant
un is
gul ie
I s
Ġc er
ĠS ur
Ġ18 4
Ġcomb at
Ġen v
Ġch ois
Ġ200 9
Ġmoi tie
Ġvis ite
Ġl oin
Ġ199 0
ma tique
Ġab and
oc ra
Ġk il
c ie
Ġsu per
d uis
ou n
Ġn u
ran ch
Ġ2 6
Ġ5 0
Ġcad re
c ouver
p i
al og
Ġcom posi
ĠS ta
Ġman if
ti ce
ad es
ĠCh a
Ġprincip al
o des
s ist
ra e
Ġb ord
oi vent
Ġpe in
Ġad ap
Ġrep ro
cess aire
P our
Ġa mp
c it
e ff
in ation
vi ennent
tab li
se ur
di que
Ġmet tre
Ġcapit ale
O u
Ġp atri
Ġp ont
ĠT er
Ġconser ve
Ġc iv
Ġin de
Ġ18 5
mis sion
Ġte ls
Ġ201 1
Ġsou h
Ġtradition ne
c or
Ġde me
Ġr oute
Ġcomm ande
ra ire
ue llement
Ġ5 00
Ġju ge
ĠJo se
Ġauc un
Ġquar tier
re g
Ġ2 3
tr on
aly se
Ġs enti
Ġpri ve
Ġtoute fois
lex and
O r
an a
oi x
Ġprop os
ĠRob ert
n aire
Ġ ord
Ġs im
Ġv arie
Ġo pe
ĠMar quet
Ġpos te
Ġmal gre
enti el
ti m
ang er
Ġd oute
Ġdu re
ĠM er
ĠJ uifs
ill on
Ġ201 2
ser v
ĠDick ens
b ilite
y e
an moins
Ġcon cl
Ġsu jet
ten u
Ġsp or
A pre
m ont
Ġrelig ie
Ġdom aine
it re
ap pe
Ġsuc ces
ap par
Ġangl ais
er te
ĠâĢ ĵ
ĠD ieu
Ġpoli tiques
Ġroy aume
ar re
Ġf ille
Ġqu estion
Ġsu ff
a w
Ġse m
ol d
v it
Ġlors qu
Ġpass age
at ur
sent ant
Ġri en
' s
Ġ1 00
Ġou tre
Ġgen re
' Â«
m or
Ġje ux
Ġcar rie
ass in
Ġdou ble
illi am
Ġles que
ta gne
Ġch ac
Ġh uit
Ġav aient
Ġar re
av oir
crit s
Ġass ure
Ġprof onde
b res
ne ments
Ġcom te
ĠS am
ard in
Ġprodu it
Ġprofes sionne
Ġscien tif
at es
Ġac cep
Ġquel que
us tra
Ġb al
Ġar ch
Ġbritann ique
c ol
k a
Ġs igne
ĠE urope
ĠG ra
Ġnouve aux
Ġmoder ne
a ill
Ġ ital
is ant
Ġv ic
Ġter mine
Ġ17 9
s ur
ot he
sent ent
g ique
au de
Ġdis c
olog iques
ĠPh ili
Ġs tation
Ġg auche
ci f
Ġmul ti
l oit
pe ct
ĠP lus
am es
ĠA me
Ġch asse
Ġmen e
on te
Ġsep t
Ġemp l
o od
Ġl oi
Ġs ais
Ġv oie
vi le
Ġfai ble
v ic
ment ation
Ġ2 7
Ġ2 9
ric ains
m ente
us s
Ġ2 1
imp ort
ric aine
Ġform ation
Ġkil ome
a se
Ġ /
ti enne
Ġpar ce
Ġanim aux
c teurs
ĠC oupe
ĠB al
avi d
p ute
gi ons
Ġfour n
Ġbata ille
Ġl og
Ġn our
di re
Ġvoi x
ĠS u
ouv re
Ġno te
Ġph il
ĠM c
Ġparti cipe
Ġsec re
ĠD i
fin i
Ġdiffic ulte
Ġs tra
Ġb le
ĠT ro
Ġ201 6
Ġtrav aille
ur os
ta le
ue ls
ic a
ĠW e
tif ie
Ġtour ne
h abit
ite r
Ġcomp orte
Ġoc cupe
iche l
Ġf l
ĠF ran
Ġfilm s
Ġpres que
iver site
p l
u ments
Ġ ir
Ġau teurs
Ġin dustrie
ĠF er
Ġcomp lex
ven tion
Ġmeille ur
Ġv alle
ĠI V
Ġpermet tant
Ġdonn er
Ġfais ant
Ġinst alle
Ġd yn
Ġse mbl
Ġin iti
un g
ain te
el l
ĠO r
ten ant
Ġ200 3
Ġ201 3
Ġsour ce
ar c
Ġn ume
Ġj ui
Ġpro vin
rie l
Ġcontra ire
Ġpeti ts
au re
s age
ar rive
Ġre le
Ġv ous
ter ne
Ġdis pose
m ique
Ġen fin
ĠS er
ĠÂ» )
ĠG al
Ġ198 0
Ġsta de
reg istre
ai x
Ġph ysi
ol ique
Ġcons acre
Ġhe ures
Ġmin utes
tis te
ĠX II
Ġdern iers
r endre
os se
sent ation
oute fois
Ġpopul aire
ig h
Ġpermet tent
Ġcap acite
Ġl um
Ġv oire
Ġch ai
Ġsuiv ante
c er
ne ur
Ġv ide
ci ence
Ġ200 4
Ġt aux
ĠM o
titu le
a j
o int
s semble
Ġpr ise
ĠW illiam
cu le
tis se
U ne
an che
ti r
Ġpour rait
Ġm ieux
ĠD avid
ag nes
Ġmaj orite
Ġpian o
d ats
ti re
Ġman que
ĠJac ques
Ġprob ablement
i ra
and es
6 0
R e
Ġte l
Ġins tru
k s
Ġc i
ĠB en
ĠJ apon
Ġfor ces
h an
Ġc ath
ĠS tra
Ġg ros
Ġ4 0
Ġmatch s
cis ion
e ux
l is
m ain
ur g
ro p
ter n
ograph ique
Ġann once
Ġpal ais
Ġlet tre
d y
i ff
Ġp ol
Ġsur face
Ġad op
Ġliv res
Ġf ootball
Ġau pre
Ġdiff icile
c ise
Ġv ient
ĠT ra
ĠT our
ĠT occata
Ġ18 7
Ġres pec
Ġlong temps
Ġtechn ique
d on
ri ques
ille r
ĠN ap
Ġsou ff
Ġcon ditions
ĠB ro
ob jet
Ġmoy en
Ġcamp agne
ĠGeor ge
Ġtot al
c teur
Ġdes c
Ġn uit
Ġr u
ĠEn fin
Ġinter pre
si gne
Ġb es
oi le
Ġcomp rend
Ġauc une
x e
li ge
Ġprincip aux
Ġconte mp
i ze
ĠC erta
ĠAn dre
Ġmin istre
Ġcher che
Ġvill age
4 0
onn er
Ġ197 0
Ġdro its
Ġch re
Ġmus ic
Ġindi vi
Ġgr oupes
Ġs alle
Ġen semble
ĠQ ue
Ġvale ur
Ġl ignes
Ġre lie
Ġb onne
ĠP ort
Ġan ti
Ġ201 7
Ġres s
Ġsour ces
Ġstru cture
ĠS y
ĠF in
Ġatte int
Ġv u
ord s
en ir
at oire
Ġmari age
2 2
ou x
ar ite
Ġt occata
Ġv ain
Ġme ur
minist ration
J e
p t
Ġv ari
as h
Ġch oix
Ġr endre
Ġ201 5
crip tion
o ce
Ġb ru
Ġim pe
ĠGran de
Ġf ou
Ġref use
c in
u ge
y th
Ġcon fe
Ġcerta ine
cur ite
entie llement
or ation
ch ant
Ġin titule
Ġr is
am bre
Ġra is
Ġim m
gi me
Ġli bre
occa sion
Ġinf luence
Ġdoc ument
Ġl im
Ġl iste
Ġl ieux
Ġin fe
oy en
Ġ201 4
f rique
Ġa mb
ar n
Ġen tie
Ġen gage
ĠS c
li ers
ĠE d
a tique
Ġac ce
qui pes
alis er
Ġag ric
ti an
ti ment
Ġf ranch
Ġt a
Ġn os
Ġau tant
Ġb r
Ġ200 2
Ġmil itaires
Ġ199 9
Ġd oivent
in d
ĠC el
ĠM or
ist ence
ĠV ienne
ad a
Ġpres se
e mpereur
ĠC omp
man n
Ġdirec tement
c ons
k y
o ta
Ġl y
Ġa mi
ab ilite
Ġins pire
19 9
Ġaut or
Ġpuiss ance
Ġid en
Ġa ra
or me
ra ient
Ġj apon
Ġprin ce
Ġaut om
Ġaut orite
Ġeffe ctue
h um
Ġl it
en ant
Ġa it
Ġc Åĵur
Ġb an
ĠV al
Ġdro ite
Ġmulti p
Ġc av
Ġm assi
ĠS al
Ġpro x
8 0
x te
es se
Ġs orte
Ġdu c
ci er
ĠR en
Ġrou ge
ra ux
Ġre tra
Ġtr ouver
Ġrel ations
g ers
ĠÂ» ),
ĠR ich
tru ction
Ġoc cident
Ġass ocie
Ġim me
Ġran g
Ġc at
ale rie
Ġdi ver
po the
Ġpos si
Ġprodu its
mo ine
Ġprox imite
f ort
p ol
us se
Ġb les
Ġter rain
Ġti ent
Ġfer me
ĠCons t
Ġm i
Ġf ron
ten tion
Ġexp lique
Ġphil os
2 5
s bourg
Ġv ois
Ġsou tien
Ġt yp
Ġt ombe
tr uire
Ġpopul ations
Ġcri tiques
Ġlib erte
ment aires
ĠB os
Ġter res
Ġanci ens
ĠPri x
Ġs ouver
Ġc la
Ġv al
Ġh ar
Ġex tra
du ite
Ġblan c
ĠXVII Ie
Ġprogram me
i z
en viron
Ġaband onne
in a
ar ra
Ġh istoire
ĠN ation
ĠN ouve
des sus
Ġmen ace
ber g
n om
Ġde mi
Ġdi vision
Ġ200 1
ing s
Ġsor tie
Ġdivers es
ĠHen ri
ĠT outefois
ĠR ome
ĠF or
Ġil lus
Ġsimp le
b us
i des
Ġar ticle
Ġper d
Ġt ente
ĠD an
Ġra ce
Ġar che
ict or
Ġstra te
Ġp at
Ġa li
ĠM ontre
ĠN o
Ġhistor ique
Ġprog ressi
Ġchans on
is ent
Ġm auv
Ġqu itte
Ġv end
ĠC re
ti ments
qu ence
Ġm ine
di en
Ġmo t
Ġder rie
Ġren for
Ġpubli que
Ġcommer ce
n ant
iv al
ĠCh rist
Ġpo se
Ġche min
inf luence
Ġtex te
p ouse
Ġp ens
le t
igne ment
lon ge
Ì Į
ĠB ra
u de
Ġra di
Ġ18 0
ore r
Ġrelig ieux
Ġl oge
in er
ĠA b
Ġcomm enc
ass es
Ġ196 0
avant age
Ġtable au
Ġpein tre
Ġcontemp or
f ie
Ġm as
ĠB on
ĠRe d
u il
an cien
Ġn aissance
ate au
Ġtechn iques
vir onnement
Ġs ang
ri d
ran d
oc cup
Ġconstru it
arch ite
Ġfron tie
Ġv it
ca de
Ġtex tes
M ar
Ġh o
Ġh ors
1 1
ra ble
Ġsa voir
Ġgar de
A ut
f re
f ait
Ġpar le
ue lles
ĠE lles
Ġtr ouvent
Ġ201 8
ari o
mon te
p it
Ġen se
ta ires
ul ture
ĠMar ie
te ments
Ġla c
ĠB ien
Ġfor tement
Ġcerta in
Ġp he
Ġpas ser
Ġper mis
Ġciv il
l oc
ĠC ro
ĠP l
Ġpro t
Ġparti es
Ġfor mes
Ġrep rend
Ġqualif ie
Ġaj oute
o ch
Ġt rib
Ġcon duit
Ġg ue
ĠB ern
Ġmo teur
Ġcomm and
An gleterre
ch ent
ol ie
Ġpl ane
Ġch ap
Ġsoci ale
Ġprote ction
Ġcoule urs
n is
ĠC et
Ġin tro
Ġtr ou
f aite
u les
Ġde mand
Ġc li
ĠA d
os ent
oci ations
ke y
Ġcompagn ie
Ou est
o ti
ÌĢ ,
le c
Ġf ab
ĠCh amp
use ment
Ġri ches
ug us
Ġconse il
g ation
Ġd oll
ar gent
ment aire
Ġex e
ct ures
ĠDe ux
Ġpuis que
tran ge
Ġ18 3
Ġconn ue
Ġstat ut
2 8
A llemagne
Ġfin anc
Ġmon te
Ġrec ons
fic ation
ov ie
pend ance
2 9
Ġt ue
our ge
ĠM a
ĠB o
Ġ199 8
Ġve ut
ĠSt ar
ĠPhili ppe
Ġf ant
Ġcom par
ĠT ou
titu tion
Ġclub s
Ġlarge ment
c ent
Ġa e
om as
al d
Ġb ibli
ĠDe puis
lan de
Ġcour ant
Ġph ot
Ġess entiellement
I talie
ur i
ter ie
Ġaccomp agne
Ġpar vient
Ġma tie
rou le
Ġmont agne
Ġv oul
os es
Ġex tre
Ġrev anche
couver te
Ġdeme ure
b ar
m y
x im
en sion
Ġpro ven
ac k
ib les
Ġdoll ars
E sp
b o
p lace
Ġp oi
al i
ĠJ ane
Ġo ise
ot h
ma tiques
Ġsit es
Ġcent rale
Ġsim il
a f
p in
ĠL i
os ant
rit able
Ġrep rises
ĠAl bert
Ġquat rie
Ġref us
conom ie
g or
au teur
ri en
tif ic
Ġconc erne
Ġcul te
esp ace
A me
on ique
Ġp auv
ai de
ĠG ar
Ġdi min
ĠH ug
Ġcan di
Ġatt ribue
ouvert ure
n ome
t ur
Ġp ap
Ġc m
Ġe mpe
sist ance
C L
Ġcon dam
ĠA vec
ĠF orm
onne ur
Ġ6 0
vite r
ern ant
Ġsoi ent
Ġnavi re
Je an
de la
ĠÂ» ).
sid ence
Ġanci enne
ĠM i
ĠB ay
Ġin cl
ac ce
Ġno tre
ex pe
land ais
Ġdess ine
lic ation
dif ie
Ġclassi que
c omp
Ġf au
as t
ol a
ĠR ou
ĠG i
ĠV er
Ġcontin u
Ġcoule ur
7 5
y on
âĢ ĵ
âĢ Ķ
Ġmar ch
Ġrec ense
Ġprincip ale
Ġprof it
Ġoff ici
ĠXVII e
organ isation
2 3
p u
ti ens
Ġe mb
Ġou ver
ag ner
Ġex cl
Ġte lle
ĠV ictor
Ġtrans p
Ġjour ne
fic ie
Ġconser v
a el
Ġl ois
Ġm ur
oy er
Ġconf lit
cri te
Ġouv ert
Ġmanif est
Ġsouh aite
ĠConst antin
l ent
u ff
in o
Ġf ix
Ġqu asi
ter min
Ġsu g
and s
Ġ3 5
Ġob jets
lev age
L ors
a illes
is es
ri che
ta che
ĠA us
ĠRich ard
Ġs tudi
ĠA lexand
Ġparti s
ĠMar tin
qui p
Ġempl oye
p ital
Ìģ -
Ġm ille
ĠC omme
ĠB r
Ġh aute
Ġ3 1
Ġob tient
ici ens
Ġmouve ments
k o
Ġ Î
ĠR om
Ġvol onte
Ġrenc ont
Ġs ac
ĠÂ», .
mon ie
ĠGeor ges
vic es
Ġlum ie
Ġd at
Ġs cul
ti le
in dustrie
Ġb ande
ĠCe la
be c
ĠNap ole
E st
S e
g ner
Ġ â
an o
ra t
ic tion
cri re
Ġcent ral
util isation
en g
Ġf ront
im age
Ġab s
ĠRoy aume
Ġlet tres
b a
is ter
Ġg agne
Ġpour tant
ul aire
ĠT re
am i
Ġhe ure
Ġpours ui
Ġpatri moine
l d
n i
Ġa ffe
Ġn av
ch estre
Ġun ique
ĠP al
ĠH er
Ġter min
Ġman us
ner gie
Ġsol dats
Ġeffe c
sul tats
le ctions
Ġv ites
ĠM oyen
âĢ İ
ab eth
che cs
Ġra c
av ait
Ġor ient
Ġimport ants
Ġpie d
Ġjou er
Ce tte
Ġpeint ure
l ine
Ġs ante
Ġs aint
ti se
Ġen ne
ri ence
ĠM ich
ĠF C
Ġr yth
ĠH ol
Ġcontin ue
ĠMal gre
2 4
f ord
Ġen registre
Ġpar tage
lo tte
Ġ199 6
Ġsec teur
oly mp
Ġlut te
CL C
c oles
w e
ĠM us
ac tivite
og ne
ren ant
Ġvis ion
ati ves
Ġdeven ir
u y
Ġv rai
ĠR ac
Ġar ri
Ġjus te
Ġ195 0
Ġpeti tes
Ġmy th
Ġconte xte
y z
Ġ olymp
Ġc rise
is c
in de
la y
Ġtra it
crit ure
Ġinternation ale
b il
p on
Ġf aci
Ġcon ver
ab sence
ien nes
Ġtra verse
Ġimport antes
Ġchac un
Ġphilos oph
m age
s h
z z
Ġl ire
end o
ris tian
Ġad minist
isse ments
7 6
ol as
ĠM use
li quer
os phe
aire ment
Ġter mes
Ġ199 5
import ance
as c
Ġacc ord
Ġcro iss
Ġdess in
Ġinternation al
Ġaccep te
h istor
ĠS ocie
li re
Ġpro ches
Ġpr on
ĠâĢ ¢
Ġri vie
Ġmort s
ĠNation al
8 9
h ou
Ġp aix
Ġv ou
ĠR us
Ġmais ons
Ġob je
Ġcomposi teur
ĠStra sbourg
l as
Ġp or
Ġv olu
ĠN ic
ad ministration
Ġclasse ment
ĠJose ph
b or
i ance
u c
Ġf ide
ĠE gon
ab b
ex istence
Ġy eux
Ġdom es
2 6
n aires
Ġp ierre
ĠL iv
ag ue
ĠUn ivers
Ġmoy ens
ĠCl ub
c tes
m ocra
Ġtr ouv
Ġcou pe
Ġsui vi
Ġ193 0
Ġdev ait
c ou
Ġv ir
ic s
rie ures
Ġav ance
ĠPar mi
Ġadop te
h ors
m at
x es
ĠL igue
Ġg re
Ġpro voque
Ġme mbre
ĠT ur
par ation
Ġrec ue
Ġri che
Ġpri vile
Ġreg ard
duc ation
Ġs ert
ĠJ us
Ġob serve
ru p
publi c
e uros
Ġre ce
Ġqu it
ch i
ri gue
Ġne uf
ĠSe conde
Ġ8 0
De puis
Ġrela tivement
d ou
Ġe aux
ri ent
ĠS es
ĠM il
rai res
m ise
r ans
ĠE t
ĠR os
cl ope
Ġseul s
ribu tion
Ġhau teur
b as
Ġre vient
Ġex te
ĠJe ux
iel d
esti val
Ġsug ge
e mb
m s
Ĥ ¬
ch ange
ĠB ou
Ġprincip ales
Ġpil ote
Ġnavi res
Ġcomplex e
Ġdyn as
6 5
Ġen vers
Ġpar ai
Ġcom position
ĠM ichel
Ġg al
Ġsur p
ort ent
Ġex ist
Ġconf irme
Ġoff re
Ġindi que
Ġartis tes
tt om
Ġphysi que
Ġf ro
om ie
uis se
sent s
cu te
Ġti re
Ġtrans port
ĠTh omas
Ġcolle ction
tic les
Ġhistor iques
ĠTer re
Ġreligie use
3 5
9 0
P ierre
l ite
Ġtou che
Ġser vices
ĠRac ing
w n
Ġd ur
an alyse
Ġch ante
ris tiques
Ġrap pe
Ġmes ures
Ġmeille urs
Ġdisc ours
di ens
Ġr ares
Ġte lles
po le
ĠCon se
Ġjourn al
Ġarch ite
2 1
a ta
Ġs omme
Ġv ite
ĠP rin
ran che
Ġch ose
Ġar mes
Ġpersonn alite
Ġdom in
ĠXV Ie
Ġaccue ille
gyp te
l li
n omme
o ins
in aire
ar y
Ġt omb
Ġqu in
ĠS ainte
Ġdi men
Ġex er
Ġper du
Ġap pre
Ġaff irme
loit ation
] .
s il
Ġf ave
Ġpl aces
ĠM ad
Ġch ute
Ġh ab
am ment
ĠH or
ing ton
Ġconf ie
ĠAl ors
Ġesp agn
c om
Ġp ousse
ti mes
il la
Ġg uer
ens es
Ġal bum
th ur
ud ge
cur ie
lic ite
esp rit
2 7
Ġc op
Ġcon cep
ot t
Ġmon ument
int endo
ven ir
Ġpoli ce
posi tions
Ġloc aux
Ġc ate
ĠL ib
ĠB ritann
Ġpr ennent
ub e
tin g
Ġcar re
Ġpuis qu
ense ignement
Ġconc ur
Ġrest ent
8 5
C l
g in
r ome
Ġqu anti
ol k
Ġun iquement
ĠA lle
Ġin aug
ĠV II
Ġcons ta
Ġprin cipe
Ġop pose
8 4
a ment
e k
Ġf us
ul t
ĠCh ine
gl ome
Ġrelig ion
Ġvoi es
Ġreg roupe
Ġdeven u
ĠBre tagne
s enter
Ġd an
Ġ4 5
Ġbut s
Ġpil otes
ĠCerta ins
A S
our ces
Ġse ction
ĠP ays
di ate
ul g
Ġal lie
Ġsoci al
Ġloc ale
Ġatta que
Ġadminist ra
F ranc
er man
ĠC our
ĠN intendo
Ġra ssemble
iv es
Ġoc ca
Ġexp lo
Ġmal ad
Ġ194 4
Ġviv ant
tabl issement
pis ode
on ie
it z
Ġg ou
ole il
Ġmen tionne
Ġcro ise
Ġpres sion
moi gn
Ġlesque ls
Ġfinanc ie
Ġoise aux
ĠForm ule
3 6
O n
b el
Ġp ois
ent rai
Ġra con
ob ile
Ġcour onne
Ġapp orte
Ġcir cul
Ġsem aines
Ġvites se
A frique
r est
Ġt ar
at re
li min
ĠO u
Ġsy mp
emp le
Ġtrans forme
Ġdirec teur
Ġrel ation
Ġadap te
3 4
d ra
u ves
Ġa i
Ġm aire
Ġqu oti
ĠS an
Ġcon ception
Ġg estion
Ġpro longe
Ġch in
Un ion
Ġcha pelle
Ġvoit ure
anci enne
Ġentrep rises
Ġpossi bilite
Ġfave ur
a ie
Ġa ide
Ġb out
Ġb ras
ĠP ress
Ġsu is
Ġal l
Ġrec ord
Ġconc ernant
Ġeffe ts
Ġrais ons
] ,
Ġde hors
Ġc os
Ġb el
Ġcom ment
Ġg ens
Un i
aul t
tien nent
Ġbes oin
19 4
Ġroy ale
Ġstat ue
S i
h ar
o ts
is tique
ri ers
ĠÂ °
Ġse igne
Ġun ivers
ĠD ar
Ġch iff
am our
Ġdi vin
Ġtr ente
tis tes
Ġ199 3
Ġdisp ute
Ġlongue ur
Ġtemp le
8 3
b it
Ġv ont
Ġv oc
Ġpro s
ab e
ĠV ie
Ġcomp ris
Ġ3 00
cl ar
Ġ199 7
lan c
Ġfam illes
ck s
Ġterrit oires
aus se
Ġpours uit
Ġmeur t
Ġprogressi vement
ĠMich ael
ĠConse il
Ġe r
Ġt ours
Ġv aste
Ġch ambre
ĠT om
Ġma ch
Ġtrans form
Ġrapp orte
acc ord
Ġcontin ent
ĠCan ada
8 7
S elon
g is
h in
or a
ĠL o
Ġqu oi
oul ouse
uel ques
Ġmis sion
Ġquar tiers
m oire
Ġc ant
Ġm os
Ġb asse
Ġra t
Ġcons omm
Ġcons truire
Ġma xim
Ġprop res
Ġcontra t
Ġrej oint
alog ue
b an
h a
ou che
Ġla tin
ur ation
Ġf it
ol f
ĠM aur
ure r
rie urs
Ġex cep
ay er
Ġces se
Ġph ase
anc er
Ġcir cu
Ġnour rit
c ite
w ay
z a
al bum
ĠC al
ĠE x
Ġh os
ĠMar y
Ġti tres
Ġpublic ation
cess us
ĠBel gique
Ġsom met
Ġprot est
Ġpoi ds
i p
Ġm ains
it an
Ġv ra
ĠM ag
un ite
Ġtra ce
Ġcomm is
ten ue
Ġ199 2
Ġmus ul
Ġouv rages
Ġpersonne l
Ġmondi al
ĠCel ui
i ant
Ġl our
Ġpar alle
ta lement
Ġb ron
oir s
Ġ201 9
19 5
Ġim ag
Ġrom aine
Ġinf orm
Ġhum aine
Ġmaje ur
Ġenv oye
Ġris que
Ġquanti te
g ence
n ov
ce l
Ġg are
ĠA s
ĠB u
Ġin ten
Ġpro cessus
Ġch ron
Ġra re
Ġtra in
Ġ199 4
oin dre
Ġdou ze
ony me
tabli r
l ab
is mes
Ġre ine
Ġpar ois
Ġpar ents
ĠP y
ci ent
Ġch au
ĠJ ames
Ġex pose
Ġdis cip
Ġdisp on
Ġ "
Ġen g
Ġv in
ĠC ap
Ġcom e
ĠM in
ir it
ĠV ille
Ġren ouve
Ġcour t
cri vain
Ġdom ine
Ġalle mande
8 6
g al
m ier
Ġd ieu
Ġs auv
ĠA t
Ġ19 20
ag ers
ĠT unis
ces site
Ġmo ts
mi le
Ġ% ,
Ġcoup le
Ġspecta teurs
d ente
m m
on ge
ti les
le ur
ta ble
ĠP as
Ġpe ine
Ġ199 1
Ġsupp le
Ġrecher ches
Ġaug mente
Ġscientif ique
f er
s ta
Ġt al
us age
Ġse x
di r
Åĵ urs
ath er
Ġcapit aine
V e
l age
p asse
ti es
in tes
ĠW h
Ġmon op
Ġoc cup
Ġchamp ion
Ġsub s
Ġesp rit
Ġcoll ab
Ġple in
H e
a que
Ġs Åĵur
Ġt op
ce au
Ġun ite
at te
ĠB ourg
ĠG au
Ġnom s
Ġconc ert
Ġfle uve
uss it
Ġprovin ce
Ġbles se
P e
Ġd os
Ġen vis
Ġb udge
un d
tes te
Ġimp os
Ġor igine
cl in
Ġti ers
Ġ15 0
arch ie
Ġrespons able
F rance
Ġp ot
Ġc ab
it ation
Ġpar lement
he ure
ĠD el
par avant
Ġper c
Ġprin ces
ass ociation
Ġ198 9
Ġlang ues
g les
r ente
v u
w ood
re t
Ġs te
Ġt her
Ġu l
Ġv o
si onn
ouv enir
olog ue
Ġob serv
Ġdiff use
Ġfra g
Ġchans ons
Ġofficie llement
Esp agne
. ),
N otes
g nent
Ġs ovie
au tant
ta tions
ĠM r
Ġg la
Ġcont act
ĠJac k
Ġdist ance
ĠHen ry
3 3
B re
d en
Ġpar is
ĠL im
Ġn ai
ĠS m
Ġj au
li en
Ġdi vise
Ġtour n
Ġ194 0
atri ce
ĠNouve lle
Ġmalad ie
6 3
b on
o z
qu ences
Ġv ote
as ser
ci alise
un iversite
Ġch oses
Ġsu p
ric k
met tre
az ine
Ġappe l
Ġmeille ure
Ġple ine
Ġgl ob
ĠFran k
a tiques
v an
Ġs ait
Ġt on
Ġb assin
Ġcon que
Ġg ui
ĠPar ti
Ġins titu
Ġpouv ait
7 4
d action
s ant
v ue
is h
ar che
ta pe
ĠD urant
entre p
ill aume
Ġgra ph
Ġcin quie
sul tat
Ġrenfor ce
a ter
Ġf u
Ġt onnes
Ġre monte
op he
Ġsu it
ĠX X
Ġprin temps
ton e
Ġapp ro
Ġcro y
inf orm
tionne lle
Ġsimp lement
Ġnoir s
ustra lie
D es
ti lle
is ser
om pe
Ġt est
Ġn orm
Ġg lace
Ġmon uments
Ġ3 2
Ġconn aissance
Ġpermet tre
Ġmin iste
Ġ7 0
Ġrest aur
Ġvict oires
Ġmaj or
Ġhy pothe
Ġsenti ment
Ġryth me
h iver
m ond
n ario
s or
Ġc lim
Ġv ien
de c
ĠS ou
Ġpl ac
Ġin e
di es
ord es
ĠW il
Ġma tin
Ġrom ans
H en
c enn
g ende
s en
ĠD on
ĠE li
Ġdi z
ir m
Ġ4 00
Ġjus tice
Ġ198 8
Ġfut ur
Ġport es
inst alle
v olu
Ġ ici
Ġl ende
Ġm asse
Ġdes tin
ĠA llemagne
ĠD ou
ab y
Ġfin it
Ġob tenir
Ġ194 5
Ġouv rage
Ġautor ise
Ġbibli othe
Ġs il
is ion
or n
ra m
ran e
ĠN ous
ĠTro is
occup ation
Ġcondam ne
Ġdynas tie
Ġracon te
h ic
k er
Ġcon vain
ĠT oulouse
ĠH am
im m
ĠV en
emp loi
ĠAn ge
Ġreconn ai
Ġsymb ole
Ġaccue illi
duis ent
Ġsucces si
Ġsembl ent
Ġly ce
ĠAus ten
Ġscul p
Ġlende main
S C
Ġc am
ar te
at ures
Ġpro je
Ġsa tis
Ġo ttom
ĠV ers
omm un
Ġtable aux
Ġancien nes
archite cture
h onneur
Ġd on
ra c
Ġv ia
ri m
ĠC as
ol s
li r
Ġper man
Ġno bles
aut om
Ġpouv ant
ĠPh il
Ġtraite ment
ĠBer lin
ĠNo tre
Ġinaug ure
A t
N e
Ġp iste
ti v
pre uve
ĠCh am
sent ations
Ġser ont
Ġremp lac
Ġsp ort
Ġatte indre
Ġchange ment
Ġsignif ie
ĠPlus ieurs
Ġchap itre
Ġexcl us
, âĢİ
Ġs oir
our n
Ġb yz
ĠP endant
ĠB l
Ġch an
Ġcomp are
Ġimp ose
Ġfil les
Ġemp run
Ġsymb ol
atta que
Ġmassi f
6 7
m ite
w s
qu ite
ra les
ra ine
Ġt ort
Ġpar ler
Ġ7 5
ĠPe ter
exp loitation
Ġjapon ais
Ġtyp es
d om
o f
o que
z abeth
Ġ ordre
Ġl u
Ġa mis
Ġn arra
Ġv ert
ĠC le
Ġb omb
ĠA m
li gne
Ġr entre
ĠK ar
ĠAn ne
Ġ198 7
ĠPre mie
vol ue
Ġgrec que
Ġscientif iques
ĠUnivers ity
d in
i ve
Ġd avantage
Ġp oly
Ġb er
Ġex ce
Ġfon ctions
ĠZ e
Ġsupp orter
Ġdat ant
Ġp ure
ou rage
che c
che lle
ort ant
ĠN or
Ġjeunes se
dis p
Ġlesque lles
ĠHug o
Ġcroiss ance
. )
Ġs h
qu in
me l
Ġg ard
ir ent
ĠAl l
Ġpass ant
Ġsc ore
ĠSu per
igh t
s se
Ġd ote
Ġp ou
Ġp ous
Ġs ing
Ġn or
Ġv ieux
ri f
Ġpl ans
ĠD iv
Ġcont en
Ġpeu p
Ġeff ic
Ġrapp roche
Ġfai te
Ġdistin gue
Ġfix e
l ante
is ations
Ġt u
Ġv esti
ĠD om
Ġmo bil
tu die
Ġsp irit
Ġdess ins
Ġfai bles
Ġviv re
ly mp
dif ice
Ġsouver ain
ĠAlle mand
T he
g h
g uer
l os
z ie
om mes
our t
ri mer
ta il
ag glome
ces sion
ay ant
th ode
Ġrep rise
Ġconstru ite
Ġmont agnes
f end
s ous
y a
Ġnouve l
Ġca che
Ġ197 5
ogra phe
vo ie
Ġinte lle
Ġnature l
ĠWal t
Ġcath olique
Ġcandi d
abb aye
Ġu s
Ġau teur
Ġch im
op le
lan ge
Ġbien s
tit ut
Ġ9 0
Ġca fe
ressi onn
Ġiss us
tisse ment
Ġenvis age
Ġclim at
3 9
p ression
s ons
Ġs in
al titude
Ġv on
Ġb loc
ĠP ra
ĠP at
ĠA ugus
ĠLe ur
ir s
Ġtra fic
Ġma re
th i
Ġob lige
Ġri v
Ġcap ture
Ġ198 2
Ġpubli cs
Ġto tale
Ġto talement
Ġpris onn
Ġreligie uses
Ġvic times
6 4
c ore
m osphe
s a
z on
Ġa ctions
er ts
Ġen dro
Ġre b
Ġv ente
ĠS uisse
Ġcon j
Ġsur ve
di um
ul ation
ĠN av
ang es
ĠMar c
lan tique
Ġcolle c
ĠCl aude
dite r
Ġanim al
Ġrej oindre
ĠBos ton
ĠRus sie
c ouv
e ffe
g en
g end
Ġd ite
Ġp anne
ra ins
Ġre de
Ġg az
un ion
ĠH av
Ġra l
og es
id er
Ġconn aiss
Ġport ant
Ġappe lle
Ġmain tenant
Ġsal les
loi gne
Ġdesc end
pon se
3 8
L ouis
a vec
Ġm u
Ġn az
he im
ĠB an
ĠB lac
di ction
am a
Ġconc ent
Ġmin im
Ġ198 5
velop per
enti te
Ġrom ain
Ġnature lle
anim ation
Bre tagne
P lus
Q u
b ute
d ont
Ġl ar
or es
Ġen vir
Ġv an
ĠC onc
ĠS im
ĠG er
Ġfait s
Ġmet tent
Ġroy al
ĠGu y
Ġbritann iques
entie lle
Ġremar qu
Ġvain que
O rient
S aint
i pp
j ou
Ġv ent
Ġau paravant
ĠC at
ter nes
Ġ198 6
acc omp
Ġsta tions
Ġconstitu ent
Ġloge ments
diate ment
Ġbron ze
Ġl ien
in di
Ġf i
ad ap
ill ot
ten us
ser ver
Ġtrav aill
Ġgra ve
Ġmen tion
lec tron
b ie
z er
Ġp ages
qu oi
ur a
di fic
ig nent
Ġ3 4
ric ulture
Ġ% .
Ġrap pelle
ograph iques
Ġenf ant
iver se
tri ce
Ġsais ons
8 1
A b
E x
G e
b at
d rome
g ard
Ġs acre
ar ts
ar ticle
Ġpl ateau
ĠE l
ĠI talie
ĠH it
ĠV an
Ġad vers
Ġ6 00
to ine
Ġpri m
Ġpie ds
pec ts
ĠIs rae
Ġdispar ai
tabl issements
Ġorigin ale
Ġcommand ant
7 7
i tie
Ã ¦
Ġs olution
se urs
Ġcon ne
ĠH istoire
ĠW ar
Ġfe me
Ġpuis se
ren nent
Ġhum ain
Ġcomb ats
Ġsau ve
Ġjui ve
ourge ois
c ure
d ation
g lement
p ent
Ġ +
Ġ orth
re ux
Ġf lotte
Ġin ves
ĠR am
Ġne tte
Ġmo difie
og er
Ġper form
Ġab rite
but s
Ġ197 9
Ġouv re
Ġnive aux
Ġsecond es
Ġpra ti
Ġfais ait
ĠGu illaume
Ġmaje ure
Ġcy cl
Ġtent ative
Ġradi o
C es
F A
r oup
Ġde viennent
Ġs ouvenir
an ie
Ġe ut
Ġf ru
Ġv ole
ĠM os
Ġab ou
Ġcap able
Ġpa pe
Ġsc ol
Ġprofessionne l
6 8
p our
s olution
Ġs cience
an i
Ġpar u
Ġn ot
as tique
Ġcon tient
ĠA ut
ĠA ss
Ġj uifs
ĠF lor
Ġsu jets
Ġcours es
conom iques
Ġvoi ent
Ġfig ures
Ġdeven ue
Ġdoc uments
tran ger
Ġdispar u
Ġcath ol
Ġindivi d
Ġrencont res
ĠAllemand s
m ans
ar tiste
ve re
ĠC amb
ĠS ar
ĠB ill
Ġpro jets
Ġtra duction
ron te
Ġinter ne
Ġ198 3
Ġim age
Ġ196 8
Ġcan al
Ġvol can
Ġinf lu
Ġmoder nes
tran gers
Ġmauv ais
3 2
w a
re urs
Ġc le
Ġre d
ri ce
Ġj ardin
Ġin vite
ran ge
di ge
ĠE r
ic o
ĠN oe
Ġar rie
ond es
Ġins crit
for mes
exp ression
Ġhum ains
Ġfra ppe
Ġangl aise
ĠAlexand re
Ġâ Ĥ¬
rup tion
p and
ti tions
qu ier
ta s
Ġb ure
ĠT im
Ġsa v
Ġra dic
Ġter r
ĠAn ton
Ġloc ales
Ġrend u
Ġhistor iens
Ġi ran
Ġoffic iel
Ġdispar ition
Ġprom o
Ġrespec tivement
Ġretra ite
Ġstudi o
7 9
d ant
f ique
qu ante
our ne
ĠC a
pe l
at oires
Ġan tique
Ġpr ison
Ġcont ribue
tin s
int ro
Ġconc entre
od ox
Ġmilli on
Ġmont rent
Ġaff aires
Ġfam ili
Ġretr ouver
nage ment
Ġurb aine
Ġsuff is
Ġpauv re
Ġmanus crit
ather ine
6 2
l ot
m as
{ \
Ì ĥ
te aux
ou ille
ar g
ĠM iss
ĠA mer
Ġsur vi
di as
Ġan ime
vi de
gl ais
An ne
ĠXV e
Ġvill ages
Ġble u
Ġillus tre
Ġoffici ers
ĠNic olas
3 7
y er
Ġa te
Ġs en
Ġf une
ta in
ĠP o
li ance
Ġin se
Ġan alyse
Ġr it
vi d
ĠN orm
Ġfor ment
Ġcl o
ug by
Ġsp ati
Ġmilli ers
Ġrou tes
Ġviol ence
ĠFre ud
duis ant
ĠSta de
P h
i cien
l lig
r ond
ti te
qu ival
ĠL ille
Ġcon dition
ĠP ie
di enne
ĠT out
ĠR ay
ĠV ir
ing uis
cl am
ib al
ĠâĢĶ ,
Ġass ociations
Ġim ages
ĠBe at
ĠAr t
Ġport ent
Ġfond s
Ġalle r
ĠFranc is
cre t
lect rique
Ġquit ter
D ame
en is
en vironnement
ĠL or
Ġpl ais
Ġg ro
Ġ19 00
ĠE m
Ġan te
og ue
Ġ20 20
ĠO s
Ġprop or
tionne l
Ġdonn ent
Ġesp ace
Ġcat he
Ġconsomm ation
Ġnourrit ure
5 8
a tif
c os
s ar
z i
ur y
ci ers
ĠE s
Ġch ant
ct ares
Ġsou ligne
Ġexp rime
tro it
gi ment
Ar t
Ġloc al
Ġpris es
Ġreven us
Ġenne mis
B C
m ontre
p ro
t to
ent ure
om bre
ĠP an
ĠM ace
un s
di er
ĠH o
Ġar ts
ĠEn tre
ill age
ĠPar k
ric aines
Ġfranc s
emp ire
An ti
Ġ193 9
Ġsoci ales
Ġservi r
pi ration
fini tivement
Ġiden tifie
M e
O CLC
Ġm m
Ġau ton
Ġcom ite
Ġin v
Ġmo des
ĠCe lle
Ġat teste
Ġri ve
Ġconc ours
Ġ197 7
ĠQ uelques
Ġop p
Ġvol ont
h or
m it
Â °
Ġp on
Ġau quel
ch ai
ĠB ri
ers on
Ġno tes
Ġfin ance
ex position
Ġbe au
Ġbe lle
Ġcommun ication
Ġ196 6
Ġent end
Ġ191 2
dite ur
Ġmy the
Ġtend ance
enf ant
appar ition
Ġjui f
ash ington
ĠMaur ice
l ais
en che
Ġm and
Ġb il
ĠP S
Ġch ale
op position
tru it
olog ues
Ġis ole
Ġrespons abilite
Ġremar que
Ġcommande ment
Ġinstru ments
Ġbudge t
7 1
A d
c ro
l ation
m ons
Ġl ic
Ġp an
Ġm onn
Ġf oi
ĠL ou
ĠC entre
ĠR a
ic al
ist an
Ġcons ul
Ġfor mer
ĠAn gleterre
Ġacc orde
Ġ197 2
vol te
Ġmunicip alite
Ġpron once
5 5
9 6
d rale
Ġp y
Ġa ve
Ġa ction
Ġs ensi
or g
it ant
Ġre tire
ĠP aci
ĠM ax
Ġg agner
ĠB at
ĠT ri
ĠG o
ĠG ame
Ġex ternes
Ġra y
Ġtra ces
Ġser aient
Ġhe ctares
Ġconn us
Ġpubli ques
Ġmus iciens
Ġ196 5
Ġport rait
ĠIn ter
Ġ191 4
ĠPre mier
Ġven ir
Ġinst all
Ġprofonde ur
ĠBern ard
r ouve
Ġa f
Ġc ui
Ġc uis
Ġm ic
ra se
me ment
Ġqu es
ĠC alif
Ġb u
pe au
ĠG rec
ier ge
um b
av ance
ill ant
Ġcar te
Ġacc use
ign on
Ġ197 8
Ġcir cons
ĠDu cks
Ġact uel
ĠXII Ie
Aut riche
J ac
l ore
t ures
Î ¿
Ġ Åĵ
Ġp ale
Ġde gre
ĠL os
ch an
Ġun iverse
Ġcon gre
ĠB ru
ter mine
ĠF ab
ic ations
Ġaux que
ot o
ĠEn cy
tif ier
Ġimp lique
gi le
Ġblan che
Ġconstitu tion
Ġchange ments
Ġtravaille r
Ġmultip les
Ġcivil isation
4 9
6 1
8 8
A lexand
Ġpl antes
ĠM y
ĠM as
li orer
ĠE sp
), .
um a
ĠW ashington
ex te
ob e
man ie
Ġ196 4
Ġcent aines
Ġpra tiques
Ġsyn the
Ġsouh ait
Ġsem aine
Ġpens er
diter rane
us ta
ch a
ri enne
ĠS av
ĠG l
Ġmo indre
Ġfin anci
Ġ8 00
Ġ16 0
Ġpass agers
ras se
Ġdire ct
Ġdonn ant
Ġdirige ants
pis odes
Ġvien nent
A ss
M al
M arie
S ur
e mpe
qu ili
que ment
Ġdes truction
ĠC ent
ĠM ic
Ġpour quoi
un t
ux elles
ul sion
Ġtra its
Ġtra duit
Ġcons cience
Ġper te
ex e
19 0
iss ue
Ġcan adi
Ġmy ste
Ġsuivant es
Ġiss u
Ġache ve
Ġcomporte ment
histor ien
Ġcircu it
quili bre
7 3
9 5
g orie
m ins
u p
Ġp ne
Ġc ous
Ġm ass
our ir
ĠS k
ĠM el
ĠA ra
ĠB as
ĠG ue
op p
sent ants
ob serv
ĠJo e
Ġ197 4
inter pre
Ġparticip ation
Ġress ources
Ġcommenc ent
thi op
6 6
A m
c us
f ug
n at
v oi
Î ¹
Ġp orter
qu are
Ġm urs
ur ie
il ie
Ġqu art
ĠP au
ĠB our
ine t
ĠF al
ex tre
ls ace
Ġob lig
ies el
Ġ198 4
tro pole
Ġ197 3
Ġmet tant
men ter
Ġscien ces
Ġaj ou
Ġsimil aire
Ġvolu me
rigue ux
ĠDiv ision
7 2
w ard
Ì Ĭ
er c
Ġf estival
ra its
ĠS eth
ĠM et
ĠB i
Ġpro vo
ĠD ie
Ġou b
Ġr ues
Ġal lant
Ġpos ses
Ġ194 8
Ġcro is
ĠSt an
Ġdirec te
urb an
Ġagric oles
Ġara be
8 2
Ġa vi
Ġc ordes
qu ente
in ge
ne l
or ld
Ġt ur
Ġb us
Ġcon duite
Ġpro duire
ĠD ra
ĠF I
Ġex ige
Ġac ces
ĠK h
Ġjus que
lo ie
Ġ196 7
Ġ196 9
Ġmilli ards
Ġinc onn
ax e
crip tions
Ch ar
Ġmag azine
Ġconcl ut
Ġfou illes
ĠConstantin ople
Ġfaci lement
Ġdivin ite
S S
Ġc ime
in ique
Ġm ou
Ġm ent
Ġf lam
Ġre pe
ch o
ter s
Ġch ance
Ġou est
ag riculture
and ie
Ġche fs
ten sion
Ġapp are
Ġmat he
ll ent
Ġten u
Ġsign ale
Ġchois i
Ġci vile
Ġagric ole
pu tation
ĠPrin ce
Ġguer res
Ġdan se
Hen ri
ĠHit ler
A s
C omme
b i
c cident
g ar
Ġdes ser
ĠT ex
tra d
iss ait
Ġpopul aires
Ġ198 1
Ġviol on
inst all
Ġchac une
Ġvrai ment
f ici
j i
r ue
de ux
ri ale
ĠC ont
ta ils
ĠM u
un ivers
Ġh a
op old
ĠV ol
sent es
Ġas pect
ris tique
Ġcour te
ĠAn glais
gl ises
Ġnation aux
Ġvis age
Ġ196 2
Ġcent res
cla me
Ġofficie lle
pl om
Ġdyn am
ĠGrec s
l ing
v ac
Ġp ur
in n
Ġm ig
as es
Ġb ap
ĠM aison
ĠA g
ĠB elle
Ġcons iste
Ġcomp os
tif ication
Ġter rains
ph ie
Ġrec om
Ġ4 4
tab ilite
Ġ193 2
ox y
anim al
Ġfranch ise
Ġoccident ale
fre d
A cade
c osse
Ġ os
Ġd o
Ġc iel
ti rer
it a
Ġt oile
Ġre je
ĠL yon
si ris
res ser
ĠC ong
ta ges
ĠA li
Ġ2 50
di ques
ĠT ous
Ġar bres
ct or
ven tions
Ġti r
Ġinter dit
ĠSe ine
An dre
Ġappar tient
Ġpouvoir s
Ġaur aient
Ġsymb olique
Ġjourn aliste
Ġmanifest ations
ĠBr uxelles
or ne
ci al
ĠG ui
Ġdi plom
ist oires
Ġas pects
Ġat tire
Ġren omme
Ġvis ible
ĠY ou
Ġappar aissent
app ro
ĠQu ant
Ġw e
Ġst and
Ġvale urs
ĠXII e
Ġcla vec
Ġcime tie
l aires
re ction
Ġp ati
Ġs ent
Ġf oule
Ġpar f
ĠP ic
ĠB oc
che ts
Ġh ui
Ġtra m
Ġcomp renant
Ġmar ie
Ġpo le
ex ception
Ġpays age
Ġutil iser
Ġfac ilite
gra de
Ġretr ouvent
ĠQu and
ĠĠ ĠĠ
Ġartis tique
Ġinstru ment
Jac ques
f our
f lex
f ield
h ib
j o
j an
r ari
s me
Ġen d
au f
se aux
ĠM rs
Ġin ge
Ġsur nomme
ul tes
Ġne ige
im ag
ob s
Ġcl asses
ĠMar k
aut orite
to iles
Ġprodu ctions
Ġdom aines
Ġhom mage
Ġfond ament
Ġrela tive
Ġurb ain
Ġital ien
Ġolymp iques
Ġquin ze
Ġsup pose
ĠAnge les
c ad
y m
Ġl ou
en ue
er a
ar que
Ġla isser
Ġf al
Ġv ise
ĠP uis
ĠM at
Ġj uri
ĠB orde
ĠD al
op ota
ouv rage
ĠW iesel
Ġor chestre
th le
Ġat tra
lon e
Ġutil isant
Ġimport ance
Ġdom ination
Ġ194 2
Ġent oure
Ġvoit ures
Ġis rae
rid ge
Ġproven ant
Ġouver te
Ġconcep t
Ġrat tache
c art
c tifs
f i
i vement
l ins
t oile
y o
Ġ ign
Ġd en
Ġd ieux
our ce
Ġv entes
ans ion
ĠC am
ta is
Ġb ra
ĠM ac
Ġpour raient
ĠB ob
Ġpre uve
ag o
ĠT itan
ĠG ab
Ġr ugby
Ġ3 9
Ġro is
ĠO li
Ġrec ru
Ġco de
Ġpays ans
Ġexp loit
Ġsui vre
... )
Ġsoci aux
Ġgar c
Ġculture l
Ġbou le
Ġpu its
ĠBel fort
pare r
ĠJu les
Ġact uellement
Ġallemand s
ĠCha que
Ġmas cul
Ġaffe cte
Ġinstitu tions
Ġques tions
6 9
c ouvert
f le
s ki
t z
Ġl inguis
in ion
ur al
Ġf lu
Ġf ene
se ille
Ġ1 20
ri ens
Ġb aisse
ĠP ont
Ġr usse
Ġar t
Ġres ter
ven u
je ctif
Ġmin ute
az z
ty le
Ġquar ante
ĠRoy al
Ġatta ques
ĠLors que
ĠBay onne
Ġchin ois
Ġrestaur ation
Ġpeup les
P aul
c ouvre
g ues
p ert
es ter
en gage
re y
in iti
it t
il ier
Ġen vironnement
ri odes
Ġg ri
ĠB lan
ĠR ene
Ġh ie
Ġtr oupe
Ġpartie llement
Ġ6 4
Ġsui vent
Ġ196 1
Ġfac teurs
ras tru
Ġcamp agnes
Ġcite r
Ġdiffic iles
Ġcy cle
Ġsuper ficie
Ġir re
Ġcontraire ment
ĠDan iel
Ġbomb arde
Ġsupporter s
Ġprisonn iers
ĠHav re
f r
v age
Ġ .
Ġl iens
en a
Ġa ient
Ġre li
ĠL ong
ĠC amp
Ġb ourg
ĠA the
ter dam
Ġpro vis
Ġmon aste
Ġma illot
dent s
onc er
aut or
Ġvi ce
ĠAr thur
anc tu
Ġpres ti
Ġmis es
Ġlang age
Ġreven ir
Ġcit oy
Ġvisite urs
Ġital ienne
Ġcav al
Ġcommis sion
Ġbyz antin
ĠBeat les
A vec
d ac
Ġ tis
Ġs oup
Ġle cteur
ra bles
Ġt h
ro port
ch amp
ĠC er
ĠM ons
ĠB ut
ale m
ĠR oger
Ġan g
ĠG il
ĠH istor
Ġac teurs
Ġtro phe
ph es
Ġes tim
Ġ194 1
gion al
lace ment
Ġrapp orts
ĠXI Ve
In de
Ġsor ti
Ġprofes seur
Ġvoyage urs
Ġmunicip al
k in
n alite
v oit
an es
te ll
it ations
Ġu sage
Ġre pose
ĠC atherine
ĠP a
ĠM ay
ĠA dam
Ġan aly
Ġac quis
Ġas si
ang le
olog ne
Ġve ille
Ġeff orts
gn ant
Ġsoi x
Ġjou ent
Ġis lam
Ġfavor able
cif ique
Ġautom obile
Ġtrib un
Ġmajor itaire
Ġsatis f
4 5
c its
j u
n on
s opota
Î ±
Ġ Ã
Ġc ouver
ou d
Ġm ac
or nie
ch al
si as
Ġun if
Ġpro position
Ġdi v
ĠH ill
ĠH all
Ġex ac
Ġac tes
Ġor gue
Ġsou le
Ġob tenu
Ġmin i
ign ant
Ġ194 3
Ġ193 7
Ġcoup s
Ġorig ines
Ġrev ue
ĠKe ats
Ġvic time
ĠMc C
Ġindustrie lle
Ġchiff re
ĠXX Ie
Ġclavec in
9 9
S D
Ġn oire
ri aux
ri tier
Ġb oi
di ci
ill ons
cu tion
Ġprincip es
ĠPe u
Ġsp he
Ġref le
aff aire
tudi ants
do ine
ĠFer rari
Ġconcur rence
Ġsen sible
I ran
M ais
r ants
an terie
Ġc oi
Ġla issant
or ge
it ent
Ġpar ten
ĠL enn
ch ap
Ġb ourgeois
ĠM ur
ĠE lie
Ġch anger
Ġch ristian
ag ent
os t
ab and
ic on
ĠH aute
ier res
Ġav ons
du ctions
ĠW orld
ex iste
Ġpers pec
ric ite
ĠRe ich
Ġgouver neur
Ġfonction nement
Ġmoder n
,, ,.
inc ent
inst ar
Ġiniti alement
Ġprovin ces
Ġindivi dus
Ġphilosoph ie
ĠSm ith
ĠBlac k
Ġle cture
ra y
ce mment
Ġg ris
Ġch at
ĠT rans
ins tru
Ġpo inte
ill ard
Ġrep ris
Ġprof ite
Ġfond ateur
Ġess ais
Ġ191 0
Ġmontre r
hy pothe
Ġcommerci al
Ġfourn it
ĠBro wn
Ġjau ne
inform ation
Ġvainque ur
Ġorth odox
C erta
c op
c tive
an y
ĠC op
Ġb rig
li ore
end ie
ic an
Ġdis position
Ġ5 5
Ġab ond
Ġ194 7
Ar me
Ġparc ours
Ġten ir
In s
Ġatta che
Ġlib res
Ġprofessionne ls
Ġnav ig
ĠEli zabeth
A ustralie
E d
w in
y r
on ard
Ġp un
an ique
it aine
que mment
ri on
si r
ai es
Ġg uit
os a
ig ner
oc key
ist res
Ġcomp tait
Ġro che
ĠMar cel
Ġpos t
Ġaut rich
Ġlong ues
Ġvi ande
Ġdiff usion
oph ie
Ġconse ille
Ġinc ar
Ġmain tenir
Ġ191 3
Ġsc and
Ġdist ribution
Ġreven u
Ġrepro duction
Ġrecense ment
Ġdomes tique
gis la
Ġinform ations
Ġexclus ivement
ĠCalif ornie
A ssemble
c oss
i onne
n once
p ie
x ford
Ġd anger
ar ia
ĠL ar
se y
Ġcom ics
at o
ise mbl
Ġcomp rendre
Ġcont ribu
ad er
ĠCh ris
tin a
Ġins uff
ient o
Ġtour isme
Ġpays ages
Ġconstru its
Ġ195 5
Ġdev rait
ĠRoy an
Ġpuiss ances
Ġcontempor ains
Ġpartis ans
ĠBorde aux
b u
d d
an ite
ar m
il a
ce aux
ĠC ra
ĠS ous
ĠM un
at tention
ĠH ong
pre uves
Ġper se
Ġper tes
Ġper for
ate aux
ĠW est
Ġ3 3
Ġcar b
Ġapp lique
ĠBe au
Ġten ue
ess entiel
Ġact uelle
Ġmanif este
Ġord res
Ġfab ric
Ġriches se
Ġconsta te
Ġocca sion
Ġbel ge
Ġimpos sible
vid ence
4 3
d aille
g o
g ale
i ale
i tions
l its
in age
Ġdu e
ch anges
ai gne
ĠS ue
Ġch o
ul a
ig re
ĠN ie
ist ocra
par tition
ĠK ir
Ġcl airement
Ġmil ieux
Ġrep rendre
Ġlong s
Ġ197 6
quipe ments
Ġ196 3
Ġ193 8
Ġorgan isation
Ġculture lle
Ġblan cs
moi gne
Ġtraditionne lle
ĠPort ug
Ġprinces se
autom ne
M ichel
S A
g ler
s ou
Ġpar ad
ĠS S
ĠP in
ĠE mpire
ap arte
ĠV I
tr ise
Ġcomp ter
Ġfin al
cher ini
Ġconn ues
Ġgar dien
tabl it
ini um
Ġcompagn ies
Ġtrou bles
Ġdimen sion
Ġexplo ite
Ġnette ment
ĠNorm andie
Anti quite
ĠLenn on
P endant
b ite
l lo
Ġp av
te in
ĠL oire
si gner
ĠS il
ĠP oe
ĠA c
li mine
ĠT o
che t
Ġ18 70
Ġ4 9
Ġdom icile
Ġ194 6
Ġcin quante
su me
Ġsta tu
Ġesp aces
Ġtemp les
Ġobje ctif
Ġfro id
Ġprolonge ment
Ġconten u
Ġperform ance
ĠBoc cherini
4 2
h u
l ong
p ous
r ing
u alite
v ait
} }
Ġl une
Ġl ancer
Ġs anctu
Ġc ole
Ġm agne
Ġf aute
Ġdes cription
ro is
ĠL une
ta ph
ĠS he
Ġg erman
ĠB ur
ĠB ir
di on
ul s
ĠT or
ĠR on
end ra
ĠJ er
ob tenir
Ġad j
Ġcou che
Ġ195 9
app u
Ġcolle cte
Ġten sion
Ġseu les
ĠCan adi
Ġclassi ques
ensi ve
ĠCerta ines
ĠFin alement
Ġlim ites
bus sy
Ġdimin ue
entrep rise
4 7
A ugus
B as
b urg
c omme
h uit
l est
t rique
z y
Ġp rie
Ġde l
Ġs oli
au mes
de cin
as tre
Ġb alle
ci ens
li a
ue il
ĠJ ones
ir mer
ex emple
Ġsou ter
lo ge
En fin
id ite
ĠAn d
ud isme
Ġvis ant
oul in
Ġviv ent
Ġmor ale
Ġspecta cle
Ġpauv res
ĠLiv re
S on
c ran
g alite
m oires
r ine
r omp
u ant
u ation
ar rie
Ġm ix
ro ge
au le
ch t
di aire
ag a
ĠI ran
ĠG ene
ond s
ĠK ra
Ġinter me
Ġba ie
Ġon ze
tro phe
Ġapp rend
tab il
Ġpass ages
Ġconser ver
Ġreg roup
Ġposi tions
Ġatt end
Ġsyn dic
Ġsus cite
Ġallemand es
Par mi
Ġenv ah
Or le
Ġbes oins
ĠBon aparte
comp ense
nov ation
Ġpromo tion
g os
h ab
k et
Ġs oleil
ĠL y
ch ille
ch appe
ri phe
Ġb ateau
ĠS atur
Ġcon ce
Ġin quie
ĠG en
Ġh istoires
ĠJ ung
op pose
Ġra ces
ĠV ierge
imp ression
um inium
Ġrec on
tra it
th odes
id en
ĠPe tit
Ġver sions
Ġfond ation
Ġsta tis
cess aires
Ġsor tir
Ġreconn aissance
Ġfort une
Ġ186 0
Ġfavor ise
dou ard
Ġpros pe
ĠPaci fique
4 4
P ro
c ors
m me
t ons
u fs
on i
Ġc ru
Ġn a
ri al
ĠA frique
ĠB ach
Ġh or
ĠN antes
du its
Ġco ope
Ġtrans fe
Ġass iste
Ġca de
agn os
Ġ195 4
nation al
Ġdix ie
Ġatt endre
Ġfle urs
Is le
Ġord onne
ĠRen aissance
Ġsauv age
ĠLim oges
E s
h t
en z
Ġp ierres
Ġa gre
qu ise
Ġt ap
Ġt oit
Ġt unis
ĠL in
Ġb o
Ġg am
Ġg alerie
ran de
ac ts
ĠG usta
ĠH a
Ġex ig
Ġra rement
Ġno tion
ill y
Ġ197 1
Ġ193 3
Ġess entiel
Ġform ule
Ġsus pend
Ġrespons ables
Ġcav alerie
Ġolymp ique
Ġtar di
Ġmos que
Ġmaxim um
Ġvra isembl
ĠTunis ie
ĠWh ite
Ġemprun te
Ġeffic ace
Ġcathol iques
A dam
L iens
j on
r ard
t our
Ġ om
Ġs ignes
ti cs
il ton
Ġre mont
Ġn atur
at on
ĠB es
Ġr us
Ġche mins
Ġcl air
ĠMar seille
ass urer
tro ite
Ġapp roche
Ġvi ole
dus tri
Ġcamp s
Ġterrit ori
Ġrend ent
lect or
rus alem
ĠMus ic
Ġdimen sions
3 1
A sie
n s
p aisse
Ġl un
or ies
ur t
ur ch
Ġpar cs
Ġpro ch
ac o
Ġpe au
ĠF ootball
ĠN ice
par tis
Ġtr onc
if ication
Ġren de
Ġsec ours
Ġ193 6
ber ge
Ġsix ie
Ġretour ne
ĠIII e
Ġparticip er
Ġmonop lace
ĠCong re
h r
Ġd a
Ġa ime
Ġe mble
Ġm ons
Ġf ie
Ġen que
Ġb onnes
ol le
ĠT w
ĠG arde
Ġmo tif
ĠDe bussy
ris on
ade l
Ġsp orts
Ġconse iller
Ġsoci aliste
Ġsecond aires
Ġdev int
Ġsenti ments
Ġspor tif
ĠComp agn
Ġdiver site
ĠPal ais
ĠBritann iques
Ġdiscip line
D urant
b b
s ol
z one
Ġl ente
Ġc ler
Ġc ouvert
in se
Ġm ous
Ġm orte
Ġf usion
Ġt ab
Ġn ations
ri ment
ĠP lay
ci ation
ci alistes
ĠA v
ul l
ĠJ an
Ġdi agnos
ĠV i
av is
Ġes cla
tra tion
man ces
Ġbe aux
Ġbe aute
ĠAl pes
Ġcul tures
Ġ193 1
Ġ193 4
ĠMon te
ĠWal ter
eff et
Ġassure r
Ġeffec tu
B ien
E R
O lymp
m il
al ie
ro g
ch in
ĠM onde
ran ches
ut s
ĠN i
ĠN orth
la ys
Ġmo teurs
Ġtra ditions
Ġ18 30
ĠW ings
Ġmon archie
Ġ4 2
ass ade
Ġ% )
Ġad mi
Ġutil isent
Ġcan ons
Ġcent aine
Ġdou ce
Ġsecond aire
orta tions
ĠCl ar
Ġlie ut
Ġiss ue
Ġprogram mes
couver tes
ĠSc ott
Ġintro duit
iction naire
Ġottom an
Mal gre
b ot
g ociations
p lac
u ent
en registre
Ġv endre
Ġse ize
ai tement
ĠP ol
ĠM ai
ĠB a
di fication
ĠH an
ins piration
Ġmo tifs
tr uis
Ġmar ine
ob i
Ġres pect
Ġser vent
Ġob jet
Ġconf iance
Ġtemp or
va sion
Ġsom bre
Ġchois it
raire ment
assin at
ĠIV e
Ġmauv aise
archite cte
Ġconserv ation
Ġmusul man
Ġremplac er
quival ent
fug ie
Char les
Ġperfor mances
Ġl ux
Ġa ise
Ġa thle
Ġla bor
Ġf ug
om o
Ġen tier
al ors
ve ux
ch oue
as pect
ĠS icile
mp h
ĠB onn
ĠI Ie
ĠF ont
Ġh on
Ġh er
ond ation
Ġper ce
Ġper dre
av age
ĠK al
Ġ3 8
ill ent
des sous
ĠDe gre
Ġas tron
Ġti t
Ġtour nant
Ġcul tive
Ġsep tie
Ġpart out
Ġbar re
Ġcomple t
Ġhau tes
oure ux
Ġvesti ges
Ġchristian isme
A C
A insi
B ains
c ence
f endre
h aus
v res
is si
ar ine
or is
or ges
ch en
ĠC ity
pe ur
ĠP orte
Ġch amb
Ġex am
Ġtra ins
ĠO xford
ob jectif
Ġsou mis
titu des
Ġenc ourage
Ġconstru ctions
Ġrapp ro
Ġ195 8
Ar ticles
inf anterie
Ġprob able
Ġsuiv ants
Ġtoccata s
Ġdemand er
Ġtransp orts
Ġarchite ct
Ġcant on
Ġnobles se
Ġbil an
4 6
i i
Ġ ze
Ġs an
Ġc ouv
le m
ar mes
or y
ch au
ta ine
Ġpl aine
Ġch oc
Ġan ce
Ġh iver
Ġdi ame
onn ais
Ġpr enant
av ie
ex er
Ġrec ours
Ġju dici
Ġob s
Ġconn aissent
Ġri g
Ġexp liquer
Ġ7 00
aiss ant
Ġli aison
oph one
oph ones
Ġnature lles
Ġto iles
ĠLu c
Ġfeu illes
Ġbles s
Ġense igne
ali mentation
Ġmarch ands
Ġrecue il
Ġcircul ation
Ġmusul mans
Ġpot entiel
umb ia
4 8
B ibli
G er
H istoire
e d
m iques
n y
p iter
Ê ¼
Ìģ )
is tait
ar it
om es
ce lle
ro id
au ph
Ġau tistes
si f
ĠM ex
ĠA f
ĠA y
Ġsur nom
Ġar ticles
du ites
av enture
ĠK o
Ġpo che
ĠO CLC
Ġsou tenu
ann y
Ġappar tenant
Ġ195 3
Ġ192 6
Ġpal udisme
Ġreconn u
Ġcal c
Ġcorrespond ance
ĠPer se
Ġpol on
Ġmusic ale
Ġhab ite
disp lays
Ġintelle ct
Ġpanne aux
dific es
Ġbure au
Ġmonn aie
ĠMic key
ĠDegre lle
displays tyle
B A
H er
l og
Ġd ange
Ġp es
ti ble
Ġm am
ro vi
ĠL am
ĠC in
Ġb andes
Ġest he
ĠS ans
ĠP en
Ġpro vient
ig ration
ĠJ im
Ġdi vis
Ġsu pre
rie ux
ĠCh urch
tra ction
Ġco he
uv ie
Ġgra tu
cul aire
Ġquat or
Ġ195 7
ĠIn s
app ui
Ġplu ie
ĠCol umbia
Ġ189 0
lect ricite
Ġsus p
ĠJu piter
Ġcolon ies
Ġparticip ent
tern ite
Ġara bes
quip age
Ġfaci le
Cl aude
moign ages
Ġcollab oration
Ġconcent ration
Ġsuffis amment
ĠPS G
Ġchale ur
Ġcitoy ens
N H
O ise
e llement
n ay
u ler
v ale
ar b
or gue
Ġen voie
Ġt ax
ve ille
ri o
ĠM ass
ĠE uge
ac tions
ĠI r
ĠF u
ĠG ir
oc cupe
Ġmo d
ence inte
ist ant
el s
fe ction
dent es
Ġass ociation
ann i
Ġmen er
Ġ194 9
ros s
Ġver se
ograph ies
Ġouv riers
Ġam ene
Ġ192 5
Ġbou lev
Ġstru ctures
Ġnu cle
Ġpossi bles
Ġproven ance
Ġexer ce
ĠBourg ogne
tille rie
Ġremarqu able
Ġinv ente
ĠStan ley
Ġparf aitement
5 2
A ix
c ope
k h
r ons
s is
Ġt or
Ġpar oles
Ġn oc
as tes
Ġb ro
Ġb iento
ais ons
li ques
he ur
ac cep
ul ent
os te
ĠG ren
Ġpas sent
ĠCe ux
Ġdis que
En tre
crit es
Ġhe lle
tab lie
Ġfer rovi
mar che
lic ations
Ġinternation aux
Ġven ant
lection ne
Ġ188 0
Ġcra te
Ġgl oire
Ġcommerci ale
Ġru p
Ġcandi dats
termin er
Ġstudi os
quip ier
dec ine
5 6
5 9
9 1
9 7
b ri
d ai
g oci
n ar
p ide
p enses
t ante
w is
an aly
Ġe au
Ġre leve
au ts
ri ger
res sions
ĠS pe
Ġra mes
Ġtr ompe
Ġac tive
Ġ3 6
cu les
Ġres se
Ġanne aux
til ite
Ġcol onnes
Ġat ti
Ġad ultes
ral ite
Ġ195 6
ĠCar avage
Ġinc ap
De ux
Ġmeille ures
Ġparticul arite
Ġhy dro
Is rae
cif iques
Ġpat ron
Ġcompar aison
Ġpap ier
cenn ie
Ġaccueilli r
A ra
A lsace
f t
l ites
n ik
t onne
Ī Ĵ
Ġd ic
Ġs che
Ġs tu
Ġs oins
ent ures
ur ale
ro d
Ġv ais
Ġb anc
ol and
Ġpl ante
Ġcon v
ĠP ers
ĠP ap
ĠB ert
ĠI tal
ĠT ar
ic ie
ap tiste
rie d
ĠH al
la de
onn ant
ist ance
rit age
Ġar tific
Ġas c
Ġma terne
cl enche
Ġco e
Ġcour ants
Ġph ases
Ġappar ition
ĠGran ds
Ġ195 2
ĠCar th
Ġcontra ste
Ġess ai
enc y
Ġfonction ne
ĠQu atre
Ġcal me
Ce pendant
Ġhau ts
Ġaug mentation
Ġ184 8
Ġorient ale
Ġnarra teur
quier t
Ġsoix ante
9 2
B e
p orte
re lle
ne urs
or chestre
Ġf lor
Ġre met
Ġre mis
Ġv ac
Ġv aut
se pt
ĠC ass
ta ille
Ġb ons
ci ale
li be
Ġou til
ap pre
Ġo ce
ĠV oy
tu me
ĠCe ci
ill ance
ĠPar lement
ph on
Ġimp orte
Ġser vant
ser ves
Ġavant age
Ġtrans f
Ġ195 1
Ġcolle ctions
Ġhum aines
Ġ192 9
ĠJohn son
Ġmor ceau
Ġjourn aux
Ġmag as
Ġpeint ures
Ġorigin al
rus se
Ġseigne ur
Ġtourn oi
Ġdestin ation
hic ules
intro duction
rastru ctures
ĠÃ Ĺ
H omme
I r
v ants
z ac
Ġ x
Ġa im
Ġs ainte
Ġt che
Ġt uer
ol is
ĠM ah
ĠB art
ĠB oul
ĠH ans
ĠH ouse
ĠK er
th er
ass ant
alis ateur
Ġsec teurs
Ġnation ales
Ġvie ille
Ġsui vie
Ġop us
tien nes
Ġaur a
aff aires
util iser
Ġgr ille
anim aux
Ġadap tation
ĠHor us
Ġdispon ible
chap per
Bibli ographie
h ouse
l aire
Î ½
Ġ &
Ġd oi
is lam
Ġet hn
Ġf ur
ra d
us er
ro ir
Ġdu quel
si er
Ġb rou
ĠS ol
ĠS oleil
ĠG and
ĠLe e
Ġsu isse
Ġra che
ĠLa dy
ist ent
el d
ub les
tres se
imp ose
Ġac cident
ond a
ĠCh ambre
Ġmar ins
Ġmon ter
ĠMar i
Ġti rer
olog ies
iss es
ĠAn toine
Ġconc erts
rib uer
Ar ts
ĠPour tant
Ġrou ges
omm age
Ġsom mes
Ġspor tives
arc tique
Ġrelie f
cin q
Ġquasi ment
ĠOu tre
Ġdiz aines
ibal di
c ieux
k ins
o o
o ble
u des
Ġp ul
Ġa ustra
Ġc ouverture
Ġf aux
ro v
si bles
Ġpl a
ĠP lan
Ġque ue
ĠA ux
ĠA ussi
un it
ĠE vere
ĠR oi
Ġr he
Ġdi p
ub is
Ġfait es
ĠX Ie
Ġtre ize
Ġad resse
Ġcommun iste
Ġnota bles
Ġpopul arite
Ġinte llig
Ġmis sions
Ġret ard
Ġparticu liers
ori z
inter vention
nie ur
Ġmari time
Ġcolon ie
Ġsau f
hum anite
Ġpoursui vre
ĠMuse um
Ġrece voir
moign age
Ġvoc ation
Ġdiz aine
At lantique
Ġcandid at
Ġinstall ations
ĠTitan ic
5 1
D u
D enis
a ou
c ents
h l
s ky
u ter
Ġ $
es cal
Ġre ve
al uminium
ve t
Ġpar ta
Ġb rise
ai b
ĠM olie
ue ux
ĠR ous
ĠH y
ins pire
Ġmo dif
Ġar c
Ġper pe
ĠCh ristian
min in
Ġins ur
Ġconf lits
cri vent
cri vant
Ġsol s
Ġsol aire
ĠCar ol
Ġconse ils
sident s
Ġfig ur
Ġva peur
Al bert
Ġsyn ag
Ġprog ression
Ġdistin ction
Ġran ge
Ġst ric
tend ue
Ġcorrespond ant
Ġamp li
Ġsucces sion
Ġcherche urs
Ġpois sons
clar ation
Ġesprit s
Ġgui de
Ġmic ro
Ġtram way
Ġtribun al
Ins titut
Ġlieut enant
Ġchamb res
A v
b ou
c ap
l m
u ite
Ġm ang
Ġre gre
our d
Ġpar viennent
ĠL NH
Ġv ague
ri ct
ta gon
Ġb ateaux
Ġpl onge
ĠP ou
ĠA ir
Ġpro long
Ġpe ur
ag nent
ab be
ĠR od
ĠF ort
ĠG as
Ġmo ines
ĠV itre
Ġdis per
Ġ3 7
alis ent
tro pol
Ġent ame
Ġexemp les
Ġ192 7
Al ors
act uelle
Ġcher cher
Ġcer cle
Ġcomposi teurs
ĠBo ok
Ġsimil aires
Ġvir tu
Ġexist ent
Ġdispon ibles
Ġsuccessi vement
Ġenvir ons
Ġconne xes
Ġfeme lles
ĠEr n
Ph ili
ĠSav oie
Ġprovis oire
Ġmajoritaire ment
Ġinsuff is
ĠCompagn ie
m al
v ous
w ell
Ï Ĥ
en v
en tin
Ġp ic
Ġp ayer
er ie
Ġla issent
Ġre mise
ro y
ĠL ang
Ġn ul
si ve
Ġpro gre
di o
ĠLe wis
ons cient
ien te
Ġro se
Ġcar t
Ġes cal
Ġmil it
ron ter
ass ine
Ġat tent
Ġfranc o
Ġsol ide
Ġcro ire
Ġfer met
Ġmes sage
Ġport raits
Ġemp loi
exp lique
aur ait
dic ation
arch i
leve urs
car te
sid entielle
Ġchampionn ats
Ġtent atives
appe l
Ġfourn ir
Ġvari ations
Ġris ques
Ġjapon aise
Ġfab rique
Ġrac c
Ġmos ai
Certa ins
ĠChurch ill
5 3
9 4
H o
R ess
p ic
t ente
v oc
w orth
Ġd ore
Ġl igue
an tine
ou b
in ves
Ġt y
Ġv igue
ri orite
res ses
ĠC enter
as tron
ĠS and
ĠA vant
ĠB ible
ĠB ulg
ĠT emple
ĠLe t
Ġac te
Ġal ent
du le
Ġmar bre
ĠK n
Ġcar tes
int en
Ġimp lante
ĠMar ia
min ine
fin ition
Ġcol onne
Ġhe ur
ĠAl ain
An cien
ll ation
avi er
Ġcri te
Ġhabit ant
Ġten nis
cis ions
Ġform ant
Ġ192 8
tudi er
Ġ190 9
Ġsecre t
habit ants
Ġrecons truction
Ġfant as
public ains
cenn ies
Ġendro its
Ġfru its
rond issement
Ġauxque ls
Alexand re
initi ative
Ġperspec tive
ĠMun ich
Ġdoi g
Ġvigue ur
9 3
D F
R oy
_ {
c ommun
i al
n us
u tion
Ġp one
Ġa ir
ti g
qu a
er landais
Ġla i
or ient
Ġf rom
Ġf isc
om ique
ĠS ir
ĠP ales
ĠT ours
ĠR est
ĠR ic
ĠF ant
Ġh ockey
Ġpas sion
ĠV ar
Ġcont enant
tru ite
tra ge
cl at
Ġad ulte
Ġcou ches
ĠAl fred
Ġmus icien
Ġvis ibles
mer ge
Ġremp orter
enti ne
ĠTh ess
Ġsub it
Ġcheval ier
pond re
Ġfra is
Ġcal end
ĠCom mission
quis ition
Ġspor tive
Ġnour ris
Ġabs olu
Ġarri vent
Ġobje ctifs
Ġvolu mes
Ġespagn ole
Ġquoti dienne
lab ore
Ġparois se
couv rir
Ġhui tie
ĠCanadi ens
4 1
Ġa ider
Ġc r
Ġc ense
Ġc ents
Ġla it
or mes
Ġf olk
est es
ĠL is
ĠL ord
se ud
ch ine
Ġb lo
ĠS tudi
Ġg ale
at mosphe
ĠB le
ĠB ibli
ĠF R
ĠF estival
el lo
ord on
par tements
Ġcomm iss
int ure
Ġor ne
ron e
Ġcre use
ĠJe anne
Ġco qu
je ct
out ent
Ġ17 0
Ġutil is
Ġk g
Ġprop ag
tab les
ĠBe aux
Ġaff irm
Ġmain tien
Ġfig urent
Ġ192 2
Ġ192 4
Ġfle ur
Ġtot alite
Ġpsych analyse
Ġempl ois
Ġvois ins
gor ies
ĠGar ibaldi
Ġchan tier
Ġconnaiss ances
Ġadvers aires
Ġterr estre
Ġmand at
Ġcircons t
ĠTex as
coss ais
Ġfermet ure
c ente
h ommes
n orme
p oux
v us
Ġp in
Ġa ire
Ġc ur
er g
ur o
ra k
ra teur
Ġen ce
Ġt ran
us tre
al ph
ĠL ac
Ġv ents
ch ou
ch ar
ĠC y
Ġg este
li quant
ĠB n
Ġsur monte
ĠD am
ab s
ĠR hin
ĠF ire
Ġra m
Ġcons ole
ad o
ĠCh at
Ġmar ais
ĠK lim
Un iversite
Ġsou tient
are t
Ġconf orme
velop pent
Ġchamp s
Ġchamp ions
Ġrest ant
Ġreg istre
Ġcal cul
can ique
Ġtent ent
Ġtransp orte
Ġtrouv ait
Ġsymp h
ĠPra gue
Plus ieurs
Ġmass acre
observ ation
ĠPortug al
5 4
E lle
c oute
d one
n am
z o
Ġa ne
Ġs Åĵurs
Ġc asse
Ġm it
Ġf ame
ant h
ĠL ie
Ġv ues
de l
ri a
ĠS ix
Ġin verse
ĠD ur
di ca
ul aires
Ġson ore
ĠF land
Ġdi man
tes se
ap h
ard ins
imp act
Ġal lus
ĠK ing
Ġas semble
Ġrep as
Ġtour istes
Ġacc ent
vel t
Ġfut ure
ren tis
Ġop position
ose velt
ĠIn de
Ġdev oir
Ġvoi le
Ġinternation ales
Ġviol once
adi es
ĠCons titution
ĠCom ite
dis h
Ġiss ues
ĠRo che
Ġremar quer
Ġpein tres
Ġmanus crits
Ġdomes tiques
Ġmach ine
Ġparis ien
chan til
Ġbap tise
sou dre
Phili ppe
ĠBn F
b out
d ans
l ines
s ang
t ang
Ġ =
Ġe c
ar o
Ġm ines
or tation
our ant
Ġv amp
ĠM ans
ĠB run
ĠF ou
ois es
ĠN a
Ġex position
Ġex positions
onn ent
ĠV incent
Ġmar quer
Ġdis posi
Åĵ il
ven ue
ang lais
mi fe
Ġju me
Ġca tas
mer gence
Ġcro ix
Ġaff lu
ĠCar re
Ġag ents
yn x
Ġpa que
Ġbou che
vie w
ori al
Ġsimp les
Ġfort es
Ġorigin aire
Ġjuge ment
aw a
Ġpol lu
Ġmusic al
Ġrenfor cer
Ġmyth ologie
Ġvou lu
din and
ĠVir gin
ĠFrancis co
Ġpropor tion
Ġstand ard
Ġrup ture
H or
J ose
b ats
c oule
w ick
en que
Ġs oire
or ce
ch ers
Ġpl ate
li ens
Ġ19 19
ĠF le
vi ce
Ġo re
Ġal tern
Ġentre r
ĠCh ic
Ġdis cre
Ġad he
Ġacc ords
Ġgra v
Ġri val
Ġcel lu
Ġremp ortent
ari at
Ġver tic
gion ale
ath ie
ĠZ hou
Ġrou x
ow er
Ġcontin uer
Ġpersonne lle
Ġ190 7
Ġving taine
Ġdra peau
Ou tre
Ġtrou ble
Ġcontinu ent
ĠRom ains
rat ures
Ġarri ver
Ġcop ie
rest res
Ġmach ines
Ġtransform ation
Ġeng endre
ĠHam ilton
accomp agne
install ation
Ġislam ique
Ġfabric ation
Ġresse mbl
A D
M ont
h ard
j us
m ire
u k
Ï Ħ
Ġd ign
ÌĢ .
Ġen de
Ġdu che
ĠC ite
ĠM es
Ġg oth
ĠB aby
ui r
ĠR ot
Ġh an
Ġh ausse
Ġpas sionne
Ġav is
el li
av al
Ġno y
Ġno ter
Ġrep ousse
emp lacement
Ġcou l
Ġconstru cteurs
ĠUn ion
Ġ193 5
ĠAr ts
Ġnature ls
omb res
Ġrest es
Ġculture lles
Ġ191 1
Ġblan ches
Ġven us
Ġconstitu er
Ġofficie ls
Par is
Ġ179 3
Ġlog ique
Ġindustrie l
Ġchante ur
ĠPy re
Ġobserv ations
Ġspati ale
ĠRay mond
Ġdynam ique
Ġlinguis tique
A vant
B aptiste
E S
c ond
d its
f aut
n it
r ud
t aux
is tiques
Ġla te
Ġla ve
Ġle cteurs
Ġen terre
Ġt un
ĠL and
Ġb our
Ġb ranche
ĠM ul
lle r
ran te
ĠR C
ĠF ay
ĠF anny
op inion
Ġsa tell
ĠW all
oy ant
ĠMar s
Ġ5 1
vent aire
ches se
uit es
Ġdev aient
Ġcomb in
volution naire
Ġann onc
Ġvoy ages
Ġdeven ant
ivers aire
Ġbas es
Ġdoc teur
Ġ189 6
att end
hi p
Ġmunicip ale
Ġoccident al
Ġhar mon
Ġcontempor ain
Mar tin
Ġquoti dien
har monie
Ġimag ine
Ġfu ite
ĠPhil adel
Ġgard er
ĠFlor ence
Ġate liers
Ġincar ne
Ġmam mife
U S
Z e
g arde
t endre
Ġs ab
Ġc ouvre
in al
in verse
ar ise
Ġf ins
Ġf ile
Ġt ac
ĠL ui
Ġun d
Ġun iversite
ĠS ab
ĠP le
ĠD o
ĠD en
ĠD um
ĠG ro
ĠH u
Ġex istence
Ġac tifs
Ġro be
man uel
Ġcol ons
Ġins iste
if ie
con que
orm is
Ġacc us
Ġph rase
Ġmal adies
vo quant
Ġsub st
Ġrest aure
Ġcolle ctif
Ġam our
Ġven u
ĠIs is
Ġpratique ment
Ġgen res
Ġcolon el
Ġentrep rise
ardin al
ĠWe b
Ġsembl able
tisse ments
Ġretra it
ĠChrist ophe
ĠGi ov
ĠJus tin
ĠMil an
Ġlour de
Ġendro it
Ġuniverse lle
Ġposses sion
gos la
ĠKlim t
ĠChic ago
S a
T h
c oupe
g lige
m mes
t ti
u ble
Å Ĵ
Ì £
Ġp i
Ġc ens
ar tillerie
Ġf oss
ĠL ab
ĠL amb
au tisme
Ġb ass
Ġse mi
ĠP russe
Ġque lle
li oration
ĠB oy
ĠJ ourn
Ġcons omme
Ġcomp rom
Ġmar iti
Ġro ches
oy ers
Ġpers u
ĠMar g
Ġju dai
Ġat mosphe
Ġ% ).
Ġvers ant
cri v
per nay
Ġprop he
Ġmai rie
ow n
Ġann uel
ik i
Ġ192 1
Ġprom en
Ġtraditionne l
Ġconcl usion
Ġsucces seur
habit at
ĠWilliam s
ĠSy ste
Ġbr ill
Ġsouver aine
ĠLi fe
Ġespagn ol
Ġunivers itaire
Ġtal ent
Ġplac er
ĠVers ailles
lectron ique
Ġparad ox
O siris
g ou
o tte
t us
re b
ra teurs
Ġv illa
ch est
si re
ĠC ommun
Ġg a
at ti
at rie
li x
ac teur
ag as
ĠF ern
ig u
ĠJ on
ĠH ow
ir ment
Ġcont este
um er
Ġ18 50
ing o
ĠO ccident
Ġsou lig
Ġsou tenir
Ġass assine
Ġca me
ĠQ ui
Ġcontra int
exp ansion
Ġrela tives
Ġchar ges
Ġchar bon
Ġbi ais
ĠCom ics
Ġsignif ica
Ġcy lin
Ġremplace ment
oure use
Ġprofessionne lle
ĠFer dinand
rop rie
Ġdocument aire
Ġmine ur
ĠMad rid
Ġchiff res
Ġauton ome
Ġpne us
Ġbrig ade
ĠCarth age
ĠJourn al
U R
f et
k ov
an at
it he
il m
ro it
ve y
Ġn age
Ġv ar
ĠA pol
Ġ19 18
ĠF ar
ĠF ra
ĠV in
ob iles
cl ine
cl op
cl aire
Ġ4 6
ass assinat
Ġtour nage
Ġconc re
Ġnota ble
Ġprodu cteur
Ġautre fois
Ġann uelle
Ġsupp ort
Ġmy s
lor ation
Ġdist rict
Ġsal on
Ġ190 5
Ġsymb oles
util ise
ĠSte ve
Ġst ock
ĠRo osevelt
fini tive
place ments
Ġchron ique
Ġsauv ages
dec ins
sen al
ĠEsp agne
Ass ociation
Ger main
Ġmariti mes
C C
P re
g ales
j am
l op
n ois
Ï Ģ
Ġp end
Ġs able
Ġm ens
Ġm agn
ro e
de mment
ĠC la
ĠC onn
Ġg ym
Ġj ardins
Ġch ien
Ġson de
ĠR es
ĠR oss
ĠR oland
Ġdi ale
Ġdi oce
ap ole
ĠH aw
Ġcons ac
ens er
ad is
av ais
Ġfin ir
ph y
ĠMar ine
Ġ4 8
pp i
th en
id entite
Ġrep roche
Ġenc ad
gan isation
ath an
Ġaff aire
ĠCar l
Ġexemp laires
ak i
acc ent
Ġrest re
Ġten ter
Ġcomb att
ume urs
Ġ191 7
Ġsc ru
Ġsyn drome
Ġbat tu
ĠChe val
pt ures
Ġbru it
Ġcertaine ment
Ġimm ense
Ġextra ord
ĠChamp agne
Ġvoul ait
Ġheure ux
Ġcab inet
Ġsil ence
ĠCham be
ĠKar l
ĠNav arre
ĠAss ociation
Ġsanctu aire
Ġquator ze
ĠThess al
h os
h ann
h ension
n ier
n ieurs
u al
v ange
Ġd resse
Ġl ion
Ġl anc
qu ide
le ver
ur ance
ri dion
as sent
ol ith
di an
ab ri
ĠR i
Ġan tiques
ĠH onda
Ġav entures
cu tif
Ġimp ressionn
alis ant
Ġtour istique
Ġcommun al
Ġmin istres
per ger
Ġpouv aient
mon ter
BN F
Ġvol ant
ĠBar b
Ġcontro verse
Ġjou ant
Ġgrec s
ĠLors qu
Ġrej oi
Ġbat tre
Ġurb ains
Ġcombat tre
Ġpont s
Ġtraditionne lles
Ġcomplex es
Ġbr ut
Ġlit tor
ĠFor ce
ĠBra b
ĠCro ix
ĠAugus te
Ġplais ir
Ġoub lie
Ġacces sible
flex ion
Ġstatu es
Ġboulev ard
Ġvais seau
Ġartific ie
Ġdip lo
ĠPales tine
Ġcalend rier
Jose ph
A T
F in
Q ue
k ans
l um
p a
s ulte
â Ĥ¬
Ġ ur
es cla
Ġp age
Ġa ile
er me
ur gie
Ġf all
Ġt ole
al a
est ation
Ġn auf
ta pes
Ġg ren
ci ce
ĠA fin
li on
ĠB ig
ag an
ut h
ĠH el
ĠH ob
po pe
tique ment
ub er
ĠW ood
cu per
ĠX e
ten ance
Ġ5 2
emp are
Ġcou rage
ĠAl lie
Ġmus iques
Ġmal ade
ĠAu jourd
Ġmes s
Ġloc alite
Ġsign ature
dite urs
Ġbas que
Ġ189 7
Ġ188 9
Ġache te
Ġid entite
Ġcomposi tions
Ġspor tifs
vit ation
ĠJapon ais
Ġsac ri
bas tien
ussit o
Ã¦ dia
Ġcui vre
Ġden site
Ġgam me
clop Ã¦dia
L ar
c entes
f unt
g ration
h en
i fe
m ou
n ateurs
Ġd ense
Ġs oin
Ġc enti
te ls
Ġe uros
in aires
Ġla cs
il d
ve u
ĠL ouvre
Ġn id
Ġv if
ĠM od
li ce
li enne
ĠB enne
Ġpro clame
ĠF l
ĠF ors
ig es
Ġne ut
ĠLe v
la h
ĠV it
tr y
Ġal titude
av enir
ĠW ater
Ġje te
oue tte
Ġcommun istes
Ġapp rouve
quipe ment
gi o
Ġrap ides
Ġcro it
ĠAu c
Ġinf rastructures
ck y
Ġ192 3
enn y
ĠJac ob
Ġmor ceaux
Ġcolon isation
Ġlut ter
Ġadap tations
ĠSam uel
lis abeth
place ment
Ġdimin ution
termin ation
Lors que
Ġsac rif
Ġeffec tifs
Ġconver sion
ĠCamb ridge
ĠEncy clope
Ġfinanci er
Ġrecom mand
Ġstatis tiques
ĠFR BNF
Ġdiman che
rentis sage
. ).
E r
G ar
i ro
p an
t ar
z aine
Ġp oul
Ġa xe
ne t
us ions
Ġv ul
ch age
ch arge
ĠS ant
ĠS par
ĠS ard
ite d
Ġ( ...)
Ġcon vient
Ġcon vers
ĠM aj
ĠT u
ĠR ose
ĠF ield
Ġh al
Ġh as
Ġne uvie
ap pelle
ouv oir
ay a
ex tension
ussi te
ser voir
fe cture
olog y
alle y
ma j
olu tions
Ġutil isation
Ġconstru ites
mo in
Ġindi quent
Ġport s
Ġcontra intes
lex is
Ġviv ants
Ġcoll ine
lect riques
off re
Ġlimite r
tor ique
tim ite
col te
Ġsouff le
fait es
Ġrencont rent
Ġtomb er
olk ien
ult ane
Ġul te
Ġexce ll
Ġminim um
Ġtravaill ent
Ġscol aire
ĠBut ton
sopota mie
dd h
Ġvraisembl ablement
paisse ur
ĠBibli othe
Ġec cle
Ġnauf rage
C om
I C
V oir
g ro
h ume
j oue
m ai
m ol
n ins
n ienne
t arctique
v ation
v oire
en di
Ġde vi
Ġf oyer
Ġf iction
ra el
us sion
ce lone
Ġn ar
ch at
ai le
Ġpl at
tte l
ĠN BA
Ġra me
po ol
Ġac ade
Ġfor ge
Ġmon e
ussi ons
cl ai
Ġjus tifie
vent ures
Ġrep os
ĠAn ti
Ġconf ronte
mis sions
Ġver tu
ĠChar le
Ar thur
acc ueil
hui le
Ġbas il
ĠBar celone
lac es
off ici
ress ant
Ġtraditionne llement
Ġru ine
Ġcat alogue
Ġcla vier
lec tr
Ġoffici er
Ġmanifest ation
ĠJus qu
Ġconvain cre
Ġrentre r
ĠPat rick
gend es
ĠRous seau
Ġalent ours
Ġcirconst ances
5 7
L oire
c ont
l ons
m ir
s pec
t om
v ence
y clope
Ï ħ
Ġ ,
Ġp istes
Ġs tri
ou ch
it o
Ġf asc
ĠL ap
Ġn us
Ġv aisse
ta mment
Ġb ov
ol fe
ĠS tu
ĠM ale
Ġj azz
ĠB ow
ĠB lanc
Ġin itie
ĠT olkien
ĠR ig
ĠF ord
ĠF ried
ĠN uit
ĠV is
ĠV ill
Ġcons tante
Ġche mine
ÌĪ ,
tis h
Ġimp re
Ġimp rime
Ġor iente
ven us
Ġ4 3
fin it
Ġti ennent
con c
ĠRe c
Ġrep rennent
Ġenc yclope
ral ise
Ġab sence
Ġconc er
Ġmin orite
Ġtrans ition
Ġ[ Â«
art ney
Ġmoy ennes
Ġindi c
Ġcri mine
Ġorgan isations
Ġ13 0
app roche
Ġdess us
Ġfonction naires
Ġbou cle
Ġfra pp
Ġpuiss ant
lim ard
Ġsus cep
moi gnent
Ġmunicip ales
Ġcommenc er
rable ment
Ġalbum s
Ġunivers itaires
Ġinten se
dom ad
Ġlar ges
Ġfeme lle
Ġorthodox e
ĠHong rie
M an
b domad
m und
p us
s in
s tes
y l
Î µ
Ġp ain
Ġs ain
or ique
it ude
Ġre tirer
ve au
Ġb orde
ĠS w
at ra
ĠD or
di ence
Ġch Åĵur
ĠG ri
Ġr endant
ĠN ik
Ġra vit
po re
ard o
Ġar istocra
Ġfor tifie
ot ype
ĠCh u
Ġdis si
Ġcar ic
Ġres semble
Ġins crits
Ġco ord
Ġren once
Ġconf usion
Ġmort alite
ath le
ĠChar lotte
Ġinc endie
Ġten ant
Ġtechn ologie
Ġsign al
In ter
Ġdoc tr
Ġrencontre r
Ġmor ph
att us
Ġbon heur
aug mentation
partement ale
Ġcommerci aux
alog ues
Ġsim ultane
Ġarch ives
ĠGal les
ĠGal limard
Ġphysi ques
ĠComp any
cons ulte
Ġvend u
ĠVictor ia
eng ager
ĠTur cs
public ain
AS A
Ġall ait
Ġmaxim ale
Ġparlement aire
disp ens
Ġintelle ctue
Ġreje te
ĠBlan che
Ġguit are
Ġcler ge
E mpereur
O M
f a
m ages
p ris
p orts
r archie
v ues
en berg
on tiers
Ġa ussito
ti bles
Ġf es
Ġf orts
Ġf oyers
Ġen chai
ch y
Ġb ival
ai me
ĠS A
Ġpl ai
ĠM ath
ĠA le
ĠA ff
ĠA ustralie
Ġpro duisent
ĠD er
ĠD un
ĠR ennes
ĠG old
vi a
Ġmo tiv
Ġche veux
ex emp
Ġman che
gre r
Ġconf ond
Ġph ara
ĠJo hann
An toine
rai rie
Ġvi rage
Ġsol de
Ġbou ddh
Ġ189 8
Ġsoi gne
Ġgrec ques
gyp tienne
Ġtraditionne ls
Ġrespec te
Ġdesc ente
Ġpens ent
Ġtrib us
ami tie
Ġfrag ments
ĠVen ise
Ġate lier
Ġescla ves
ĠMex ique
Ġferrovi aire
Ġtransf ert
E l
P S
d onne
l la
m ation
n ique
p asser
s ert
t ta
re z
Ġp aye
Ġs ue
Ġla bel
ur ait
Ġdes que
ĠL an
Ġv ins
ri ences
ĠM ille
Ġg u
Ġj al
Ġpro tagon
ĠD r
ĠI Xe
ĠG h
Ġne z
ĠN u
ens tein
Ġfor es
ad op
Ġmar ty
nes s
ex ce
Ġro ck
ĠO lymp
Ìģ, .
ten ues
ense igne
lo w
oli tion
ĠJe ff
Ġat titude
Ġtrav ailleurs
ma ti
Ġca uses
Ġprop oser
mon ies
Ġvol ontiers
Ġpublic ations
app lication
cla te
iver pool
Ġhum ides
cur ies
Ġgar an
volution naires
Ġcommer c
Ġdisp osent
pend ants
Ġreconn ue
Ġ189 5
oise aux
Ġjourn alistes
Ġciv ils
Ġindustrie ls
Ġru ines
Ġali mentaire
tific ations
Ġscul ptures
Ġenne mi
Ġrappe lant
sionn aires
Ġglob alement
ĠEncy clopÃ¦dia
ĠGab riel
aband on
instru ment
enregistre ment
Ġpolon ais
Ġdisposi tif
ĠPhiladel phie
A ux
F e
T A
c ontre
d ing
g nation
h im
n oc
o site
r illon
w itz
y re
Ġl ine
en aire
Ġp omme
Ġs aut
ur ales
il ien
Ġre ct
our ent
ant aine
ro sion
ch ait
ri ennes
Ġb lin
ĠS tre
Ġce ci
ĠB is
ĠÂ» ],
ine ux
ĠG ard
Ġr ent
Ġne veu
entre tien
Ġmo b
Ġcomp tent
ĠPar c
Ġcl aire
oue ment
Ġcour ts
Ġrep ous
Ġ6 5
val ue
ann a
Ġent hou
vo quer
Ġemp loie
Ġsoci alistes
exp lo
Ġculture ls
Ġsupp rime
ĠCol le
Ġven ue
Ġmor al
., âĢİ
ss is
Ġcommerci ales
Ġsuff rages
Ġble ue
ĠNouve au
Ġfant o
ĠSocie ty
mocra tie
Ġseigne urs
installe r
Ġpauvre te
Ġfinanci ers
Ġjuri dique
ĠThessal onique
maj or
nins ule
J us
a tie
c li
i um
m are
m ographique
n ite
t endant
x ic
ã ĥ
es ses
re au
Ġp orta
Ġs oie
in vasion
ar ri
Ġf ar
Ġf res
ĠL ud
au jourd
Ġb ot
Ġse xe
Ġcom ique
Ġun s
ĠS ophie
Ġpl age
ĠM ort
Ġg ame
ĠA ix
ĠA sie
Ġin dustri
Ġpro clam
ĠD ub
di at
ĠE st
ĠF ace
oc ke
ĠN ASA
Ġex il
av es
lo e
lo ts
alle r
od ore
Ġnation alite
Ġprof ond
Ġmont ant
Ġmont rant
ak istan
Ġnature llement
Ġrest a
Ġag ran
Ġcomb ine
Ġam ateurs
enc ontre
Ġtant o
ĠHe in
Ġsal aire
sid ences
oise au
ĠVe ttel
matique ment
Ġital iens
terne t
ĠSer bie
Ġ187 1
ĠCel tics
ĠDan ube
Ġvend us
Ġdat ent
ĠLiv ry
ĠDar cy
Ġcroy ance
Ġsculp te
of t
Ġriv alite
Ġcuis ine
ĠFI A
Ġassi mile
Ġhon or
Ġjudici aire
Ġcombatt ants
J o
M er
c tu
k k
n ig
p te
u en
v aux
v oile
ã Ĥ
Ġ iv
Ġd auph
Ġc ouvent
ti cul
in ois
Ġm anger
it ch
ve ur
Ġpar ole
se l
ch ante
Ġb run
Ġb ranches
ĠS C
ĠS au
Ġpl aque
Ġcon ven
ĠP et
ĠP ros
li k
li us
li quent
ĠB asse
Ġin forme
Ġpro viennent
ĠT an
ĠG ordon
ĠH art
ins on
Ġav enue
ĠV ale
tr us
ens is
Ġar g
ad j
ore au
av aient
tis ation
int rigue
Ġimp ro
Ġ4 1
Ġ4 7
Ġins criptions
Ġsou d
lie ue
Ġab rit
land aise
ik a
Ġ191 6
ionn at
enn ais
Ġposi tif
Ġ190 6
Ġ190 8
ĠHar rison
Ġbata illon
Ġmaje urs
ĠMan uel
Ġentrep rend
Ġsau ver
no tamment
eff ond
mor ph
ĠSam arit
ĠBal zac
Ġiniti ale
Ġban lieue
Ġphilos ophe
bar quement
pu ise
Ġchin oise
Ġcam ar
ressionn isme
ĠAmer ican
Ġoblig atoire
Ġnavig ation
ĠJer sey
ĠClar k
Ġcens ure
C ar
E gon
G ra
c tivite
d ait
e mble
g iques
h al
l ieu
y ro
y ste
ar is
ne ret
Ġle ve
il is
Ġn aiss
si a
ĠC ou
Ġse ctions
ĠS or
ĠS us
ci des
li oz
ĠB ac
ag re
ĠR u
ĠH aut
ist ote
Ġtra h
Ġdis cute
ill ie
ing er
cu ter
Ġrec ouver
lo va
asse mble
Ġinter venir
rou lent
Ġad mis
lu de
Ġph y
Ġapp u
ĠY e
tent rion
Ġver re
vo quent
ĠZ el
Ġroy aumes
ow ski
ber ger
Ġam ateur
andis es
Ġform at
Ġretour ner
Ġbar rage
Ġsal arie
Ġdirige ant
vol uer
her be
Ġ188 5
ĠSte ph
gyp tiens
Ġforte resse
Ġdeme urent
ĠNap les
ĠSc ro
Ġmultip lie
Ġrang s
ĠFor neret
ĠPl ut
Ġmarch andises
Ġtomb es
limin ation
adap tation
ĠTim es
Ġterr or
ĠCont rairement
Ġdivis ions
Ġnoc tur
Ġdisper se
Ġence inte
ĠFland re
ĠCarre four
Ġblin de
E X
I voire
b ouche
d t
f ant
x ion
Ġs olutions
ar th
ie use
ra mment
Ġt ranche
Ġre tenu
Ġpar venir
Ġqu ai
ge l
Ġb is
Ġcon vention
ci a
ci o
ĠA pp
ĠB us
Ġch iens
ag i
ĠR ub
oc le
oc at
bre u
ĠN on
ins crit
ĠLa urent
Ġtra ge
ĠV au
Ġcomp ortant
Ġar gu
ĠCh ron
ĠO ff
Ġti rs
Ġpos tes
lan col
alis ations
Ġtour ner
Ġcou ramment
Ġoff rent
ov ic
Ġten sions
Ġmain tient
Ġdess ous
ĠSh o
Ġ191 5
Ġroman tique
Ġqualif ication
ĠFre der
Ġsignif ication
Ġmaje ures
Ġofficie lles
Ġaug ment
cor ation
Or ganisation
ĠBal kans
Ġfl ot
onner ie
Ġtyp ique
Aut res
Ġfau ne
Ġfro ide
Ġoccup ent
Ġabou tit
Ġiran ien
ĠOli vier
lest at
Ġincap able
ĠRot terdam
ÅĴ uv
Lar en
0 4
9 8
E li
d use
f es
f ou
l ai
m ant
n iens
n iti
on ction
Ġp are
Ġs ages
Ġc rist
qu ait
in us
om i
ĠL iverpool
si gn
ĠC oun
Ġcom pre
ĠA ventures
Ġj oie
Ġin cident
Ġpro ies
ale r
ff er
ag issait
ĠI X
ab ou
ĠT op
ĠR usse
ous in
Ġsa me
Ġpr ouve
ub ert
tu mes
imp orte
Ġper dent
ĠK y
ĠK en
Ġro tation
ten ces
Ġsou tenue
Ġman ge
Ġman uf
Ġ9 00
Ġcap ables
Ġtrans mission
ĠU r
Ġfon te
Ġfac teur
mar ck
Ġinc omp
Ġsub i
ĠSh ak
inter me
Ġlarge ur
Ġ190 1
Ġcad av
lant ation
ga se
Ġartis te
Ġ186 7
Ġqualif ications
lim ente
Ġsignif iant
Ġcer tes
ĠMer ce
appar ai
Ġautom obiles
iz ie
ĠTou tes
bo ok
Ġconver tis
bas tian
Ġdur able
Ġhos pital
ĠGau le
Ġgraph ique
ĠSim on
indi vi
Ġsuspend u
Ġrappro cher
ĠCin q
ĠGiov anni
Ġcenti me
Ġvul ne
ĠCharle magne
0 7
d ale
f us
g uerre
l ock
n ue
n ages
o ol
r mel
x ie
z anne
Î ·
Ï ģ
Ġc oc
qu ants
ne lle
Ġm ourir
ie ur
Ġf ans
ra mique
al liance
ĠS at
ĠP ur
ĠM az
un ir
Ġsur vie
ĠD ictionnaire
ul se
ag on
og ie
Ġcont acts
Ġal ter
Ġal pin
ot her
ĠK enne
ĠO b
Ġimp act
cip itations
Ġat tention
Ġad mire
Ġve de
ĠAn g
Ġexp lor
Ġph are
od ie
Ġnation alistes
Ġpri mi
Ġver te
Ġver ts
ĠAr n
Ġcan on
occa tina
oin ts
Ġann iversaire
Ġform ations
ĠXI V
Ġnational iste
ĠCol lins
aus s
Ġreven dique
Ġpropre ment
Ġclassi fication
Ġdra matique
200 8
Ġiniti al
Ġiden tique
Ġcontempor aine
pit aux
ĠRou en
Ġcontinu ite
Ġsurp rise
ĠPy m
Ġgla ciers
Ġcroy ances
volu tions
Ġsing le
ĠDom inique
dific ations
Ge orges
Ġparu tion
Ġmodes te
Ġcanadi enne
Ġavi ons
ĠGui de
ĠMcC artney
ĠGusta v
Roy al
criv ains
ĠBrab ham
Ġravit aille
ĠScro oge
f orts
g r
g ies
m ad
p ine
p rouve
t an
Ġ '
Ġ {
Ġ 00
Ġa limente
Ġs am
Ġc ardinal
ti tre
Ġe mpereur
Ġm ante
Ġf ati
ra ham
Ġn oires
ri ces
ĠC ob
Ġb elles
ais ses
ĠA chille
Ġin ex
os si
ĠF ront
Ġh ipp
ĠJ am
ĠN ob
Ġex tension
Ġmo difications
og h
Ġac tif
Ġac teur
um ule
Ġ18 15
ĠK ong
ing t
ex il
ĠO rient
tra tions
amp h
mi di
igne ur
Ġ5 3
Ġren v
Ġad ministration
id o
Ġass y
tro is
An ton
Ġmen ac
Ġsuc re
Ġsep tentrion
Ġport ug
Ġhabit at
Ġinc ont
tal ons
auc un
ĠSch uma
Ġpublic ite
Ġatte ignent
ori zon
pend ante
ĠRob in
esp oir
Ġdist ribue
ront ent
ĠSte in
Ġlance ment
Ġspecta teur
Ġ184 9
ĠGal ile
ĠTra ite
ĠSy rie
ind ou
Ġloge ment
ĠTou quet
Ġvoul oir
Ġer reurs
Ġprim aire
Ġgro tte
Ġcaval iers
Ġconseille rs
Ġpav illon
Olymp ique
archi pel
ĠSchuma cher
G u
O N
a ffe
c oup
d al
l ous
m ais
m ens
n d
s oit
t ence
u aire
Ġd ame
Ġl oue
Ġp ai
Ġp ommes
Ġla tine
ne uf
or ig
Ġre m
Ġre jet
Ġre mettre
Ġqu ad
pe u
ĠM is
ĠM ade
mp er
ĠA ct
ĠE ast
ab et
ĠF ro
ĠG rant
Ġh oriz
am en
oc tobre
ĠN ations
im s
rit ables
av enue
ĠMar vel
19 18
Ġinter romp
titu er
Ġab orde
Ġass oci
Ġ7 2
inte llig
ils on
Ġpri orite
Ġremp l
Ġsol o
Ġaff iche
ak a
enc er
ik o
Ġbar b
ÌĦ ,
air s
Ġrel ais
Ġ190 4
ĠHar ry
Ġspecta cles
ĠChe z
ony mes
Ġrepro duit
ĠMc Laren
Ġmeur tre
ĠEd ward
Ġmi roir
Ġvois ine
Ġvois ines
ĠAlexand er
atte indre
Ġfaibles se
Ġnot orie
Ġinflu ences
Ġpon ctue
ĠBat man
Ġray onnement
Ġcous in
Ġign ore
Ġsoup c
Ġang lo
Ġexac tement
Ġgerman ique
ĠBes anc
Ġlun aire
Ġlux e
Ġlabor atoire
Ġoutil s
Ġmodif ier
inten tion
Ġgoth ique
ĠBenne t
Ġbival ves
M P
c ra
d ure
i us
m us
v as
w ards
Ġa po
Ġa iles
qu ation
le cteurs
ar abe
Ġf osse
Ġt ute
Ġv ig
Ġv astes
ĠC it
Ġb Åĵ
Ġse lle
ais er
at titude
ĠB au
ĠB ak
ĠB ourge
Ġin nov
ĠD oc
ĠE mble
ĠE iff
ag ir
Ġdi riger
ons o
ĠH il
im pe
Ġtra ductions
par gne
imp o
imp oser
ĠEn suite
Ġper fection
Ġmar ques
Ġdis solution
ĠO ne
ang ers
fin ie
Ġcol ore
Ġ5 6
Ġat ten
Ġinter vient
Ġcor re
Ġcor de
Ġexp ortations
Ġpubli er
Ġcul min
Ġaff aib
mar k
Ġinc or
Ġrou es
aur ation
ĠIs rael
Ġ189 3
Ġfour r
Ġmom ents
organ ise
ĠJu an
duc teur
Ġpsych ologie
Ġpsych analy
fense ur
Ġfavor iser
ĠMer lin
Ġchasse urs
import antes
Ġsecre ts
ĠMo z
ĠBen oi
Ġimm ob
ack er
Ġrefus ent
Ġmarch and
Ġphilosoph ique
Ġocca sionne
ĠBourg ui
Ġtest s
Ġperman ente
Ġsurvi vants
Ġfinance ment
ĠÅĵ il
Ġscand ale
appu yant
Ġdiagnos tic
plac er
ĠKal lir
Ġsynag ogue
Ġcomprom is
ĠFried rich
Ġconcer nent
ĠSamarit ains
ĠZel da
ĠMerce des
ĠEiff el
A P
O C
Q uelques
T e
c ts
m u
p lan
u a
u ki
Ġd ents
Ġl oy
Ġp entes
Ġp seud
Ġa us
Ġs ki
ur ite
ra is
Ġt ribu
me tte
Ġre manie
ant he
se e
ch ard
ĠC lo
Ġb ille
ai der
ĠP r
ĠP un
ĠP oli
ĠP lace
ĠM am
ĠA p
Ġj ur
ĠB yz
ran ces
Ġpro ie
ĠD ix
ĠF ondation
ĠG a
ĠG es
ĠJ ud
Ġdi alogue
ois sy
Ġra bb
onn ie
Ġparti tion
Ġal liance
ĠCh an
Ġmar ge
ĠO tto
ĠX avier
Ġimp o
fin ir
Ġsou ci
ib ilite
id dish
Ġcha pe
Ġexp licite
all ois
Ġass is
Ġprodu cteurs
enti elles
ari us
Ġvi ve
Ġmat urite
ĠAr ch
ĠCar n
Ġhabit uellement
ah an
Ġorgan ismes
Ġseu il
Ġurb aines
Ġpsych i
atta che
enf ance
oun d
ami ral
Ġgal lo
ĠPrin ces
Ġcop ies
Ġul tra
Ġvo tre
arche ve
ĠSou th
Ġadvers aire
ĠAmer ica
Ġinse ctes
assade ur
Ġmagas ins
Ġpropag ande
Ġpollu tion
Ġscru tin
Ġvaisse aux
ĠEmble m
E m
I F
I N
N E
S tation
a tifs
e p
s astre
w ig
y es
Ġl onge
on ix
Ġa qu
Ġc ure
ti a
ti mis
ou ra
qu ins
in ateur
ie ment
ra ction
ra pie
Ġre vi
ĠL O
ch on
ri k
ĠC li
Ġb ag
ĠS ie
ci le
ci clope
ĠA h
ĠB ab
Ġch ir
ab re
ĠT ok
ĠR iver
ĠG od
ĠN atur
ĠH ay
Ġpr it
ĠV ous
Ġcomp tes
Ġcont es
ĠEn gl
ate lier
Ġmar quis
ĠW in
tin ction
ob al
mb ourg
Ġor bite
min istre
ass an
Ġren verse
Ġgra ins
Ġcor ne
Ġcommun s
Ġconf re
ĠSe cond
ĠAl b
Ġprof iter
Ġapp rendre
Ġ8 5
Ġent endre
Ġrelig ions
Ġhum an
Ġcoup les
atri ces
Ġpersonne ls
rin diens
Ġbar oque
ess or
ĠCol omb
Ġ189 9
att an
ĠBer lioz
Ch a
Ġtri ple
inc onscient
Ġact uels
atta quer
Ġfeu ille
Ġautom atique
Ġprogressi ve
Ġlois irs
Ġadministra tif
Ġcroise ments
Ġgla ci
Ġsculp ture
Ġsymbol ise
ĠNor ve
Ġchim ie
Ġbloc s
itt le
Ġbombarde ments
Ġadj oint
Ġeffectu er
ĠItal iens
ĠGand hi
Ġviolonce lle
Ġdoctr ine
A the
B ern
C on
O de
O ccident
a pe
b ach
d ateurs
f ils
f aces
p ice
t ot
t urb
w ays
Ġp en
Ġp oule
Ġm ace
Ġn ie
res sent
ĠC D
ĠC omm
ol ing
Ġcom ble
Ġcon ces
ĠM id
ĠM ach
Ġpre uves
di aires
ĠF is
Ġan th
ic acite
ĠG alerie
Ġh onne
ig er
am oto
ĠJ ord
op s
Ġav er
Ġcomm andes
Ġcomp il
um age
ĠEn ciclope
Ġper ception
Ġno tice
Ġfin ances
Ġter restres
Ġcl arine
tra ges
ĠMar io
ches ter
Ġgra ines
Ġri di
Ġab at
Ġon cle
vis i
ren e
ame au
Ġmen ant
ros se
Ġcan zone
Ġcent rales
Ġfond er
Ġref uge
Ġenf ance
app are
dic al
Ġdonn ait
ach at
Ġvict or
arme ment
Ġsimp li
Ġsty les
Ġconstitu ant
Ġprom et
ĠSp orts
ĠPro vence
espe are
Ġsort es
enf ants
Is is
Ġchois ir
Ġindivi du
Ġban que
Ġvois in
fait s
Ġouvert ure
Ġgraph ismes
ĠWil d
ĠÅĵ ufs
ctor at
Ġwe ek
chau ffe
ĠBulg arie
Ġpaque bot
ĠFay ard
Ġsouveraine te
Ġlittor al
Ġbasil ique
ĠBis marck
A qu
d an
f ig
f ond
h ai
h ol
h rer
p lus
p aule
s ud
w ald
Ġ ille
Ġd orm
Ìģ ),
Ġl o
Ġs ion
Ġe l
ou tes
qu atre
in quie
Ġm ue
it ue
it ter
Ġre monter
ĠL ine
ĠL ion
Ġv ag
ri de
ĠC I
Ġb en
Ġpl ume
ĠP ubli
ĠP loe
ĠM iche
Ġg ent
Ġce inture
ĠA cade
ĠB BC
ĠD ire
ĠE ur
Ġch aud
ĠT V
ĠT r
ĠT al
ĠT el
ĠR adi
end res
op te
op je
ĠLe urs
ĠN ich
ĠV Ie
Ġcomp rennent
Ġar gent
Ġap erc
Ġmar gin
Ġpo in
tis ans
mi ers
Ġpos er
ĠRe ims
iss ante
Ġob sta
ral isation
cul aires
cri vit
ĠPe tite
ĠUn ited
Ġfac ulte
fic es
ov a
Ġindi ge
Ar g
Ġorgan is
exp loration
auc une
Ġcapit al
ĠCl assi
Ġvoy ant
Ġpa cif
pend amment
Ġbar rie
ĠBel grade
Ġi tine
ĠGre en
Ġpuiss ante
rieure ment
Ġinst aure
Ġ186 4
organ iser
ĠTe am
tend u
hy dro
ensi f
Ġcra inte
Ġaccep ter
Ġbal lon
ĠSer vice
Ġcivil isations
Ġcli ents
Ġabs ol
Ġtrouv ant
ĠMad ame
Ġer reur
Ġexcep tionne
Ġexcep tionnelle
Ġther mes
sionn aire
ĠCham onix
Ġsouvenir s
thiop ie
Ġajou tant
urban isme
Ġacces sibles
Ġpati ents
Ġreli ant
ĠHistor y
gisla tives
ĠBir d
Augus te
Ġexig ences
ĠPlay Station
Ġore illes
0 5
C an
b oy
c ale
c ologique
o di
o tique
t ue
y me
Ï ĥ
Ġs tabilite
ou in
le tte
Ġm oul
or ent
Ġf a
Ġf use
om iques
Ġen rich
Ġen tite
us ant
Ġpar tent
Ġpar aissent
Ġn er
ĠC end
ĠC ande
Ġb riques
ĠP ier
at or
ci aliste
ci dente
Ġj et
Ġj amb
ĠB ib
un a
Ġch ats
Ġch lor
ul ie
os ta
ĠT in
ĠR ud
Ġr oul
Ġr enseigne
ort z
Ġne ur
Ġmo dification
Ġcont ent
Ġac quiert
ĠCh er
Ġmar in
Ġmar quant
Ġno ble
ĠK u
ĠO ld
Ġanne xe
til ly
Ġob tiennent
Ġob server
Ġad oles
id ae
Ġcour ir
alle mand
ĠAn n
Ġgra ves
Ġcor rec
ĠSe pt
Ġprof il
Ġremp arts
An jou
rai ries
Ġent rent
ty m
Ġmont s
Ġli quide
ĠIn ternet
Ġloc alise
app rentissage
yn am
Ġdess ert
Ġess or
Ġconser vent
tri ment
tri ques
Ġsitu ations
Ġw ith
anci ers
Ġran donne
gyp tien
Ġfavor ables
Ġord onn
appe llation
Ġjui ves
ĠSy l
Ġouver tes
Ġtermin er
Ġdomin ante
ĠVII I
Ġcant ons
ĠTrois ie
hic ule
Ġpure ment
Ġtravaill ant
cos yste
ĠInter national
Ġauxque lles
Ġajou ter
Ġboule verse
autor isation
Ġcaval ier
Ġdiv ine
pous er
Ġsyndic at
Ġtap is
Ġremont ent
Ġcalc aire
phon se
Ir lande
Ġparta gent
Ġinsur ge
orient ation
Ġpersu ade
ĠFern and
ĠApol lo
olith ique
Ġindustri es
Eli zabeth
ĠShak espeare
A g
S N
b ois
b onne
c onn
d res
d at
f avor
f eld
k ing
m ac
m ag
o che
p al
p ir
s ch
Ġ vec
Ġd iction
Ġs o
Ġc ub
te il
qu ents
Ġm oulin
or ant
ro t
ĠL ittle
Ġv ib
ri ble
res c
ĠC F
ĠC av
ĠP la
Ġpour ra
Ġson s
Ġan onyme
Ġh ol
ins ur
tu alite
imp ulsion
Ġac cidente
ens on
Ġar bit
Ġfin issent
Ġdis ques
Ġcl andes
ole t
enne mi
Ġ5 9
Ġman ip
ral istes
Ġri gue
Ġab b
Ġavant ages
Ġass ie
ĠNe pt
Ġcin quant
Ġindi rec
gra dation
Ġgouver nements
Ġess aye
Ġ11 0
Ġatt ribu
ess ais
Ġdist ribu
Ġviol ente
Ġpuiss ants
tabl is
act uel
Ġprom ouvoir
ĠFre d
Ġdistin guer
Ġ188 8
rist an
Ġsignif ic
Ġbat terie
Ġ184 0
Ġpropos ent
Ġconcl u
ĠXII I
Ġgros ses
Ġengage ment
Ġsouver ains
Ġhar as
Ġali mentaires
ĠChrist oph
ĠCro is
Ġdemand ent
Ġcli matiques
Ġphot os
Ġvoul ant
ĠRom an
mat ographique
sil ien
Ġtransform er
ĠCa en
vide mment
ĠEm ma
ĠBri tish
ĠLou ise
Ġprovo quer
imag ination
ĠBrown ing
goci er
Ġfolk lore
jam in
Ġconvers ation
Ġdauph in
ĠCend rillon
O R
b al
c ut
h man
i as
l arg
n isme
n istes
p assant
t ois
Ì ĵ
Ġ Ä
Ġd ites
Ġa le
Ġs tabil
Ġc ible
ti o
in ventaire
er al
ur n
ra g
us ine
est ations
ch witz
Ġse l
Ġpl ant
Ġpl aines
ais ie
ĠP ub
ĠP ologne
ĠM ou
at al
ĠB ois
Ġin tri
Ġpro cure
ĠD j
ĠD re
ĠF am
ĠG uer
ĠG oul
Ġh onneur
Ġr onde
am er
ous s
ĠH igh
ouv ant
Ġra sse
ĠLa ff
Ġcomp lique
Ġcont our
Ġfor tifications
Ġ18 78
Ġ18 14
tin t
Ġfin ales
Ġinter vention
id s
Ġcour ante
ner ge
Ġexp lore
Ġ6 2
omp he
ste in
gi time
20 10
Ġmes se
ili ation
gra ph
Ġgar anti
Ġjan se
Ġroman cier
ok u
ĠGeor g
ho ven
men er
Ġbi ographie
ĠMon aco
asi le
Ġtend ances
habit ude
ĠAndre w
ĠRen aud
Ġoise au
Ġconserv ateurs
Ġrac ines
Ġcroiss ante
ult an
Ġcos tume
ĠPas cal
Ġsubs iste
Ġpleine ment
Ġbyz antine
Ġspirit uel
Ġsurve illance
ĠAnton io
Ġpne um
ĠMet roid
appu ie
Ġregroup ant
ĠSatur ne
Ġfug ue
Ġintellect uelle
Av ignon
Ġracc orde
Hor us
ĠMul house
ĠWeb ber
Ġfoss iles
Ġsacrif ice
ĠField ing
Ġmante au
intellig ence
A mer
D on
I B
O s
c ue
c ter
g as
v il
re lie
Ġp rieure
Ġa xes
qu alif
ar bre
ar iste
or ise
it res
om a
Ġu tile
Ġpar ent
ÌĤ ,
ĠC omb
ĠC FA
Ġb ai
ol o
ĠM agn
Ġg er
lle tin
li ent
he lm
ul ations
Ġpe indre
ĠT od
ĠT ime
ĠT ony
ĠG ol
Ġr omp
ĠH ard
ces seur
Ġra tion
Ġtra jet
el la
Ġcomm ente
Ġtr ous
Ġper mit
ĠK uns
Ġ3 50
Ġes timent
ert o
ven ant
Ġins cription
if ique
Ġ5 4
Ġju ments
Ġcor ruption
ĠParis iens
Ġph one
Ġprof ondes
Ġappar ente
Ġfer re
anc y
gn y
Ġrend us
illi r
Ġbas ket
inter diction
Ġreconn us
ĠCol or
Ġsal ue
Ġ186 5
off ice
Ġentrep ris
Ġbord s
tim ore
appar ence
Ġlibre ment
Ġta oi
Ġextra it
Ġfinanc er
Ġtransp orter
Ġrece ttes
ms terdam
Ġexist ant
Ġsomme ts
ĠLo ve
Ġquoi que
Ġrenouve le
Ġappro xim
guer ite
effe ctif
Ġrit uels
Ġpon tific
Ġentend u
Ġsensi bles
Ġsensi bilite
Ġappare ils
Ġna tale
ĠFont aine
Ġtit ulaire
Ġbless ures
ĠGas ton
ĠRest auration
ĠVin ci
clai rage
lectr ons
exemp laires
Ġrect ang
ĠStre et
ĠBourge t
E L
P DF
T outefois
U r
m ne
n ager
p onde
Ì ĩ
â ĪĴ
Ġ icon
es tern
Ġp omp
Ġde bout
Ġs trophe
Ġc endres
ou er
Ġm our
Ġle ader
Ġf asse
Ġre tenue
Ġpar as
ĠL ot
au ton
ch im
ans en
ĠC ome
ĠP C
ĠP i
Ġg ain
ci ales
Ġin dispens
ac cident
ĠT a
Ġh yp
op a
ĠLe on
Ġte llement
Ġtra i
Ġcons truis
Ġtr ent
Ġcomp tant
ex tinction
ĠO siris
Ġes cad
tis sent
ris er
Ġy ou
fin ale
Ġman Åĵuvre
Ġren voie
Ġ% ),
id a
Ġbe c
lu vi
Ġconf ig
Ġ6 7
Ġquel qu
Ġappar tiennent
Ġmen aces
... ).
Ġfer a
Ġz o
Ġcan ot
exp liquer
Ġsub sist
cis if
Ġann ule
jour ne
ĠJohn s
co ce
Ġ190 2
Ġ186 9
form ation
Ġqualif ier
Ġprog resse
Ġparticip ants
ache ve
200 5
Ġ185 7
Ġfl ore
Ġindustrie lles
aj ou
Ġdesc endant
Ġperd ue
Ġmine urs
Ġmas que
ĠTou jours
Ġincl uant
Ġmyth es
Ġrappe ler
Ġadministra tive
Ġcircul aire
Pe u
Ġobserv ateurs
Ġtourn ois
ĠFrank lin
Ġproje te
ĠAugus tin
Ġmu tation
ĠEm manuel
ĠĠĠĠ ĠĠĠĠ
Ġtis su
ĠGil bert
Ġcarb urant
Ġsoli d
Ġtardi ve
Ġrus ses
Ġdange reux
Ġsusp ension
Ġconv ul
Ġprolong ation
Ġblo que
Ġfame ux
Ġextraord inaire
Ġabsol ue
E C
E vere
P lage
S ous
c iel
d ois
e m
f ice
g g
i os
l ait
n oi
p lique
s olu
u z
x y
Ġ \
Ġd ie
Ġd il
Ġa de
Ġa si
Ġc ot
te xte
ent end
Ġm ol
Ġm ut
Ġle c
it ain
Ġt ome
Ġdes tru
Ġpar lant
ĠL SD
au rer
ont ane
de ur
ĠÂ £
ge ance
Ġb ie
ĠS in
ĠS yn
ci d
ci fic
oi ent
Ġpro positions
ĠD C
ĠD enis
ĠT i
ĠR y
ĠR ock
ĠG alle
Ġh ong
Ġr ites
ig ui
ĠN et
ĠH ab
ĠH ann
Ġra ff
im me
onn ier
Ġmo dule
Ġtra ject
Ġnom bres
ĠW at
ĠK han
Ġdis ait
ct rice
Ġcar oling
ang ent
Ġ5 7
Ġrep renant
Ġrep tiles
Ġve ulent
Ġacc ro
Ġri ves
ĠSe bastian
Ġca se
Ġprodu ite
Ġapp orter
Ġgrande ur
Ġsp ontane
Ġmet al
Ġemp ire
exp rimer
ene uve
Ġhum ide
Ġreg arde
dic ations
Ġdisp osant
tri ces
Ġreconn aiss
Ġdist ances
ĠIs land
ĠBre l
Ġtravers er
sid entiel
Ġartis tiques
Ġ186 6
ĠSp ir
Ġdra me
io site
Ġcra int
200 9
eff icacite
Ġfl ui
ĠFran ces
ĠBen jamin
lis h
Ġress ort
hum our
nom bre
Ġincl ut
Ġfau bourg
ĠRou b
Ġtermin us
ĠEx p
Ġrenouve au
Ġsex uelle
Ġconvain cu
Ġus ines
Ġpanne au
ĠVir gile
Ġvolont aires
Ġvolont airement
mons tration
ĠSk opje
Ġoub lier
Ġrecom mande
sias me
Ġcarb one
ĠRon champ
ĠSatur n
ĠAv ignon
ĠIns titu
ĠErn est
Ġhas ard
bdomad aire
ĠRusse ll
ĠLO SC
visi onnement
ĠNept une
A c
O I
S ite
b ris
c ot
c rase
f u
g s
g ate
g ations
l ux
m ith
m ayer
n gler
t os
t ales
u ille
Ġl ig
Ġp ira
Ġc ris
in car
Ġf ri
que tte
om or
Ġen leve
me utes
al s
ro se
Ġdu o
Ġv ign
se p
ri au
Ġcon duire
ĠM en
ĠM ene
Ġg ig
at us
ci alement
ĠA ure
ĠA lexis
ĠB y
ĠB od
Ġch ars
ĠT che
ĠT occatina
ĠT ristan
ĠR D
ĠF la
ĠF urt
che urs
ĠG ames
Ġne f
op ort
rie lle
Ġav enture
Ġmo ine
ĠLa w
Ġo be
onne ments
Ġcons cient
iv ern
Ġal ge
Ġal longe
av ril
ĠW ilson
Ġfin i
sent ait
Ġro chers
ob lig
mb er
Ġser p
Ġins tant
Ġti mbres
Ġat he
Ġco ff
je u
Ġtour istiques
Ġexp lication
Ġquel conque
od or
Ġmal heure
Ġsp ons
Ġaff ronte
Ġindi enne
avi on
ose x
Ġgouver n
Ġparc our
ĠSh er
Ġsupp ression
Ġ[...] .
ĠCon fe
da illes
Ġ189 1
ĠLu ke
gu lier
anci ens
Ġ188 3
Ġbata illes
Ġbat tant
200 4
Ġfl ux
aj outent
Ġsouff re
ĠRen ault
Ġtombe au
Ġali gne
ĠChamp ionnat
Ġphot ographie
Ġdimin uer
ĠHol lande
uy er
public aine
Ġdomin ant
ĠVII e
Ġcroise ment
Ġlour des
ĠVen ize
Ġsuccessi ves
Ġvert us
Ġmobil ise
adap ter
ĠMos cou
Ġcathol ic
ĠAnton y
ĠMiss issi
Am iens
oxy de
Ġfacilite r
sopota m
Ġlente ment
ĠAy mon
Ġgratu ite
Ġdoig ts
Gar gan
ĠAff aires
Ġtrent aine
ĠFurt wa
0 2
O S
V D
V al
b is
c en
c our
c ois
d ag
h orizon
j uge
k en
n iste
r um
w an
y rus
á ĥ
Ġp oit
Ġp ionn
Ġa re
an iques
Ġc ry
te chn
ti cule
qu estre
ar isation
Ġla b
Ġf ume
Ġf lanc
Ġre par
ro ce
ro ise
Ġpar a
Ġpar fait
Ġpar lent
ri fie
si fie
ta morph
Ġcom mentaires
Ġun ion
Ġpl as
ĠP ick
âĢ ²
ĠB or
ĠB avie
Ġin tr
Ġin ond
un ions
Ġpro se
Ġch rom
ille ment
ab elle
ĠR ap
ĠF lam
ic es
ic ale
ĠG un
Ġr umeurs
op us
ap tise
bre r
rie use
po int
Ġtra ction
Ġnom ination
Ġcomp ortent
ĠCh ac
ĠCh amb
ĠW er
tin ent
Ġdis s
Ġje ter
Ġcl inique
tru its
La urent
lo die
Ġren aissance
Ġpermet tait
Ġconf ront
ĠAl onso
tro le
Ġvis ites
ann once
Ġoff rant
ĠBe et
Ġop tim
Ġemp re
Ġorgan isent
Ġag ressi
ow s
Ġam oureux
Ġatt endant
Ġrela tif
Ġven ait
ĠBre ton
ga tive
Ġdistin ctes
Ġmag ique
rig ht
Ġpsych ologique
Ġcit oyen
ĠCor ne
Ġaug menter
oun g
Ġrepro duire
cessaire ment
eff ort
Ġ185 1
mor ency
han nes
Ġgros se
urg ence
Ġ187 2
Ġconfe ction
ĠRou manie
Ġnav ale
Ġconsta mment
dra u
Ġvra ie
ĠMag azine
ĠDon ald
ĠDou mer
imm igration
Ġnor ve
Ġspirit uelle
Ġprim aires
glement ation
Ġprati quer
Ġindivid uelles
Ġfamili ale
Ġray ons
Ġpale tte
urban isation
Ġend ommage
pert oire
exer cice
ĠGren oble
Ġtran qu
Ġgym n
Ġencad re
ĠPros t
Ġappu ye
Ġrasse mbl
auton omie
ĠInstitu te
L iste
a ac
a tivement
c il
d le
l ar
p lay
s uites
t ou
t nam
y ll
Ġd in
re lles
Ġp ales
Ġs ch
le ine
le ts
Ġm asses
ur ier
Ġle ver
Ġf an
ra trice
Ġt om
me d
Ġre que
Ġre me
au tique
ch it
ĠC ine
Ġb rie
ĠS o
Ġcon d
Ġcon duisent
ĠM ende
Ġg agn
Ġg agnent
at olie
ĠA lan
ĠB la
Ġin t
Ġsur faces
di oc
di ments
di mbourg
Ġch asser
ag ra
Ġson d
ĠR h
ĠR et
Ġh is
Ġne tt
ĠJ ou
ouv rir
la di
Ġmo tive
Ġtra duire
Ġpr ouver
tr um
Ġses sion
ĠCh ap
ĠW agner
ĠW ii
cu tions
ĠO l
ĠO ttom
ĠDe f
be lle
ten ait
Ġser v
ĠRe al
iss age
gl y
Ġri re
Ġaut obi
Ġexp ression
Ġ9 5
Ġ6 8
vis me
vis ible
An ge
mo tion
gion aux
fic tion
Ġindi quant
Ġemp orte
ĠXV I
Ġto x
Ġam ie
ĠSt ock
Ġdeven us
Ġbou c
Ġfont aine
Ġdisp oser
Ġreconn aissent
ĠCol mar
,, ,,.
port unite
Ġartis ans
Ġhy bri
Ġmag ist
Ġcolon iale
nage ments
rig ord
no ve
ham mad
Ġnu lle
tabli es
ĠBal timore
Ġlog o
Ġcomplex ite
Ġsouff rance
ĠBro ok
Ġouver ts
Ġorient al
Ġquit tent
ĠBritann ique
ĠVII Ie
Ġhos tile
Ġgla cier
ĠJack son
Ġparis ienne
Ġpous sie
Ġrapproche ment
effe ctue
Ġral lie
Ġremarqu ables
Ġscol aires
Ġcrois ade
Ġinconn ue
oxy ge
Ġbombarde ment
Ġpresti ge
Ġbourgeois ie
Ġorthodox es
chet nik
Ġtax es
Ġmilit ants
Ġpone ys
chantil lon
ĠBaby lone
ĠJustin ien
ĠConn aissance
Jus qu
Ġnoctur ne
ĠSpir ou
ĠMississi ppi
0 8
A chille
D i
N C
N ic
O uv
T out
f ier
g oire
m os
n onc
en o
on a
re use
Ġp rairies
an isme
or tait
Ġf irent
om an
al co
ro w
Ġpar faite
au be
ch ausse
si ers
ĠC ologne
Ġb ombe
ĠS un
ĠS ig
ĠS ain
ĠS enn
Ġpl omb
ĠP op
ĠM ist
ĠM ot
ĠM ouse
ĠM ess
Ġg olfe
mp es
ci da
lle y
Ġpour suite
ĠB ag
ran us
ĠD a
ĠD ay
di ct
Ġch utes
ag ence
ĠT est
Ġson ate
ĠR ho
ĠG ogh
Ġex istait
ins cription
ins titution
Ġra vage
ir on
ĠV oi
onne t
tr is
par ent
Ġar b
ay es
ente ment
ĠW ol
Ġpo ils
Ġdis ant
cu ler
ph al
tis er
Ġpuis sent
mi es
Ġy iddish
Ġ4 50
Ġco in
Ġinter nes
Ġsy ll
rou lement
Ġve uve
emp l
ĠAn th
Ġcommun ale
Ġmin er
ĠSe igneur
ign y
Ġ17 89
tro phes
Ġmal ades
Ġremp ortant
ĠY ello
Ġrom ains
Ġgrande ment
Ġmilli ard
Ġ10 1
Ġhom oge
Ġcri mes
ĠZ ola
ĠTh om
ck er
Ġroy aux
rant o
Ġparticu les
gn on
Ġsour is
Ġcheval iers
Ġposi tive
Ġrela te
Ġw h
Ġbi ologique
Ġtri omphe
aug menter
ĠPer ry
200 6
partement al
Ġbord ure
Ġ185 2
Ġsuff it
Ġdocument ation
Ġincl us
mocra tique
clar ant
Ġexcep tionnel
lab oration
Ġoccup ants
Ġther mique
Ġnorm ale
autom obile
Ġnaz is
ĠBan que
ĠWar ner
Ġrit uel
cos lova
Ġmascul in
Ġflu vi
pert orie
Ġparten ariat
ĠNie der
Ġstric tement
Ġconsac rer
escla vage
Ġmotiv ation
Ġphara on
adop tion
acker ay
ĠBourgui ba
Ġclarine tte
ĠRoub aix
A F
H y
I V
N ord
O re
^ {
a cide
b auche
k u
m ur
p ra
p au
p se
p ons
p ouille
Ġd ates
es time
Ìģ ).
Ġl istes
Ġp ut
Ġc orte
ar tis
or ations
Ġf rai
Ġu se
us ent
Ġre tient
Ġre viennent
Ġre dou
ve ments
ĠC ore
ĠC up
Ġb l
ĠS quare
ĠB h
Ġin u
Ġin tra
Ġin time
ĠE ll
ul f
ĠI t
ĠI mp
ĠF au
Ġan at
che ur
Ġpas ses
ĠLe ague
ĠN am
rie tte
ĠH amb
po ques
Ġmo tor
ĠLa ke
Ġpr ome
par ties
um ie
ĠW olf
ill ages
Ġter rible
ex cl
ph ore
Ġrec ouvert
mb les
ĠMar ti
ĠMar guerite
cl air
min ines
pp es
Ġ5 8
Ġinter dite
Ġacc roche
Ġgra vite
Ġab be
mis phe
Ġvie ill
Ġeff ort
enti r
Ġforme llement
ĠBe y
ograph es
Ġop inion
Ġindi ffe
Ġhabit ations
Ġouv rie
ĠIn des
Ġinc erta
Ġdou x
Ġag ent
Ġsta ble
Ġgar n
ume ur
Ġdisp uter
Ġtraite r
ĠHe y
Ġfais aient
Ġtable ttes
Ġ186 1
Ġdistin gu
inc endie
Ġcorrespond ent
Ġbre ton
ocra te
sist ants
Ġ185 3
terne l
ĠTour noi
Ġvari able
arn ais
Ġpat tes
Ġfab ri
ourge oise
Ġgal ax
Ġrassemble ment
Ġchan tiers
Ġnor mes
Ġmobil ier
Ex position
Ġvolcan ique
Ġgro ttes
Ġopp osant
ĠMax im
imag inaire
ĠKra us
troite ment
Ġproch aine
Ġbless ure
Ġrache te
escal ade
gosla vie
Ġrejoi gnent
Ġdissi m
Ġvede tte
ĠMoz art
Ġcinquant aine
ĠCrois ic
ĠBeet hoven
/ ,
A lle
B lanc
E M
S al
b ai
b ury
g ralite
m orial
n ais
p oli
r int
Î »
Ï ī
Ø §
Ġd ig
Ġl oup
en rich
Ġp ente
Ġp ire
Ġp ict
Ġs arc
or bite
Ġf av
Ġf aud
Ġf aill
om er
Ġdu es
ĠL omb
Ġv os
Ġv ulg
ans on
ĠC ode
Ġb ib
ol ence
Ġcon ventions
Ġg lor
ĠA C
Ġj ury
ĠB oe
ran des
un ification
ĠD ro
tre r
ac tualite
os o
end er
ĠF our
ĠG ib
Ġra yon
and re
ier ry
Ġmo le
ĠLa f
ĠV ieux
Ġnom mer
Ġcons ens
Ġcomp oser
Ġac que
Ġ18 00
ĠCh al
ĠW el
ĠK ai
Ġmon arch
Ġdis se
Ġimp ression
amp li
ver g
Åĵ ud
ĠMar oc
Ġser re
th ique
Ġren oncer
Ġcour tes
Ġrep osant
ral isme
Ġexp ansion
Ġ6 6
ĠAl ger
Ġtrans mis
ici lement
Ġvie il
val uation
ze ur
ug ue
ĠPe in
art he
gi timite
20 13
20 11
Ġent ra
gion ales
Ġdiff icilement
Ġaff irment
Ġcri me
Ġref let
acc ro
Ġdev ance
Ġtraite ments
Ġmer veille
ĠRob inson
Ġsitu ent
ĠCon te
Ġsus cit
duc teurs
off ensive
Ġcompagn ons
Ġciv iles
Ġ185 8
ĠMer cure
Ġdisc ussion
import ants
Ġrespec ter
ĠSy mph
Ġamb itie
Ġta ches
Ġoccident aux
Ġpublique ment
Ġdemand es
Ġphot ographies
Ġpap es
ĠGi use
Ġconserv ateur
Ġheure use
asc ension
Ġtal ents
Ġmonop laces
ĠWil helm
Ġtort ue
Ġpou dre
Ġdescend ants
Ġlic ence
ĠBru ins
install ent
Ġunif orme
burg h
ĠLin k
Ġpla ques
Ġampli fic
Ġheur te
Ġallus ion
Ġaccent ue
UR SS
Ġdevi endra
ĠSteph en
Ġhospital ier
Ġfati gue
Ġhoriz ont
Ġtute lle
Ġinnov ations
ĠPubli c
insur rection
" ,
2 000
C al
C he
D om
d or
d as
f ile
h ier
l ung
m ore
m ature
n alise
t uelle
v y
v ins
v ard
z en
Ì Ĩ
Ġd its
Ġs igner
in cl
er ce
ar di
ar istocra
ur ich
Ġf ausse
Ġf uir
Ġt este
al ition
ro b
Ġpar ts
Ġpar odie
ĠL ux
Ġn uis
Ġn ave
Ġn Åĵud
au tes
ri mente
ĠC ole
ĠC ice
ĠC aste
as hi
Ġb ains
Ġb ox
ĠS el
ĠS we
Ġcon vic
ĠP ass
ĠP akistan
Ġg au
ci us
ci der
ĠA mb
ĠB il
ĠB omb
ĠB rig
Ġin habit
Ġin acheve
ĠD in
ĠD av
ĠI b
ab ond
ĠT ru
ut ri
ĠR id
ĠR oissy
ĠF ir
ap o
ĠH un
Ġra ll
Ġcons ulte
rit z
Ġtr il
Ġcont ribution
Ġar bre
Ġar rondissement
ĠEn ter
ad resse
Ġ18 13
ph ant
tis sant
Ġrec ords
tru ites
amp leur
if ier
ĠRe g
ĠRe vue
Ġco te
ton es
alle t
Ġconn ait
Ġgra mm
Ġgra vitation
Ġab ords
Ġcommun ique
cien ces
Ġaut och
Ġ6 3
Ġ6 9
Ġprincip aute
Ġfut urs
Ġ7 9
Ġapp ris
Ġapp lication
Ġmal tais
ĠY ves
anne au
Ġmont age
Ġaff ronter
Ġemp ris
Ġvol s
Ġliv rer
Ġautre ment
acc roi
Ġgar diens
atri x
Ġcommer ces
Ġeffe ctif
ian o
quent es
Ġ189 4
Ġ190 3
att ente
can isme
Ġcher chent
Ġartis an
Ġ186 2
Ġ186 8
ĠLu cky
Ġtri om
ĠSp yro
Ġact uelles
ĠMan et
Ġorigin aires
fense urs
Ġbre tonne
Ġ185 6
Ġ179 0
habit ation
Ġamb ition
Ġoccident ales
ĠBo he
ĠStar r
Ġemb arque
ĠRom ain
Ġpor tait
Ġpois son
ban ais
SC O
Ġperman ence
Ġcandid ature
Ġsin on
ĠBlac ks
Ġvainque urs
ĠFlor ide
Ġspati al
Ġlic enc
ĠRa oul
ĠBour bon
ĠAli ce
rey fus
Ġmix te
iden tifier
Ġmusulman e
Ġdic tat
Ġmaterne lle
Ġvac ances
Ġescal ier
Ress ource
Ġaffirm ant
Ġcatas trophe
Ġgrav ure
Ġcellu les
elli gan
Ġtun nel
ĠFors ter
ĠSard aigne
ĠMille rand
Ġargu ments
tot alite
Ġtraject oire
ĠNieder mayer
F I
R T
R ob
U ru
W V
b ation
c ass
g li
g nes
i ac
l ise
m ence
n or
n ing
o dique
p rin
p oration
t ourne
es que
Ġp it
Ġp ath
Ġp ortail
te ction
ar l
ar rondissement
Ġle ctures
Ġf ine
Ġf ic
ra ses
ro ix
ve z
ĠL og
ĠL umie
Ġqu inte
Ġv acc
as tro
Ġb ann
ol phe
ĠS ing
ĠP res
ĠP he
ĠP ale
at he
ĠA lsace
ĠB oule
les s
Ġpro to
ĠD y
ĠE lli
Ġch air
ul teurs
ĠI o
ĠT ak
ut her
ĠR ick
end ance
ĠF ig
Ġan c
Ġan gle
ig le
ĠLe opold
Ġdi alogues
vi ers
ĠN aur
rie usement
ĠH on
ĠH um
Ġex ten
ĠLa ur
Ġtou lous
par ations
imp lantation
Ġar ra
Ġar range
Ġal te
Ġfor um
av a
ĠCh au
ĠW ill
Ġpo dium
ĠO t
if orme
Ġman Åĵuvres
Ġad met
Ġgra tte
Ġexp loitation
Ġ9 9
ĠSe uls
Ġtrans met
Ġnation alisme
Ġ7 8
ren ti
Ġapp ortent
Ġoff rir
Ġaff ron
IS SN
ĠGran des
Ġorgan iser
app ort
Ġ14 0
Ġrest ait
Ġquar antaine
Ġviv es
Ġdonn a
aff rontent
ĠJac ky
ĠRob ic
Al ain
Ġviol ents
Ġtravers ent
uni or
tudi ant
Ġdispar aissent
tabl issent
Ġreven dications
Ġpil o
ĠCan nes
ĠMont morency
Ġmag ie
Ġst ands
pis cop
200 7
Ġcer titude
Ġ185 5
Ġsembl ables
ĠSer ge
Ġdesc endre
Ġmusic ales
Ġvari ation
Ġfranch ir
ĠRen ard
bar que
ĠMi di
Ġâ ĪĴ
Ġpoursui vent
Ġtermin ent
Ġeffec tivement
ĠRos a
Ġarchite ctes
Ġguer riers
ĠBritann ica
Ġchau ffe
ĠAt lantique
Ġconcert o
Ġjau nes
Ġottom ane
Ġral en
Ġenvir onn
Ġconcentre r
Ġfamili al
Ġopp os
Ġinconn u
vac ue
Ġdiplom atique
Ġcouver te
Ġcontribu ent
taph ore
Ġbo ok
Ġterritori ale
Ġinsuffis ante
Ġdign ite
Ġsatell ite
ĠCheval ier
ĠHein rich
ÅĴuv res
Ġsages se
ĠKenne dy
Ġravitaille ment
Ġculmin ant
Ġanth rop
Ġrigue ur
Ġcatholic isme
Ġpoit rine
ĠOttom ans
H ar
M use
O L
O b
T V
c ourt
f ranc
g ons
g ences
g ames
h on
n ature
p onyme
v oy
Ġd us
Ġd ons
Ġl Ê¼
Ġl ynx
Ġp op
Ġs ombres
Ġc oupes
te ries
ti ca
le u
le man
in dique
ie uses
Ġf onc
que z
Ġen gl
Ġt oi
Ġt ons
Ġt ric
Ġt urb
ĠL ag
de au
Ġb oute
ĠS ong
ĠS are
Ġcon cession
ĠP N
ĠM oi
ĠM gr
Ġg he
ci aux
ci alite
ĠB ran
ĠB et
ĠB ata
ĠB asile
Ġin d
Ġin con
Ġsur vient
Ġch am
ui es
ĠT y
ĠT ay
ĠT rib
ĠR ab
Ġr ub
oc cuper
ap s
ois se
Ġsu me
ĠN ick
onn age
Ġav al
Ġpr en
tr ent
Ġcomp ren
Ġcomp atri
ĠK a
ob jets
Ġcar n
ĠDe uts
cip ro
amp es
Ġser be
Ġti mbre
ĠâĢ °
Ġob tenue
Ġren nais
ĠAn na
Ġbien ve
Ġgra d
ĠAl phonse
Ġtrans par
ici enne
Ġvie illes
Ġpri mor
Ġrom aines
ĠAr senal
Ġouv rir
Ar c
oph ane
Ġdou zie
exp rime
ĠTh or
Ġporte ur
Ġroy ales
cur rence
cis ive
Ġam ont
Ġam ende
Ġquar ts
Ġcapit alisme
ĠSh erman
Ġatte inte
aff iche
Ġatt ribuer
Al ge
ĠGre at
Ġcoll ines
Ġprom u
ache l
ĠKe y
Ġsort ant
Ġsucces seurs
ĠMo tte
tisse urs
ĠAndre a
Ġvain cu
Ġamb itions
199 9
Ġmassi fs
Ġchap itres
Ġcompar able
ĠLi be
ĠMi y
ĠÎ ¼
rat oire
Ġmyth ique
ĠJus tice
Ġsurp ris
limin er
Ġparois si
Ġdiscip lines
ĠJack ie
Ġrenforce ment
Ġtort ues
ĠAll en
ĠCat al
Ġave ug
Ġposses sions
Ġwe b
Ġgri mpe
Ġpresti gie
Ġsatisf ais
sias tiques
Ġautrich ien
ĠKir by
ĠTo zeur
Ġrende z
Ġda tation
ĠBoul ogne
Ress ources
Ġgale ries
ĠDen ver
Ġgame play
Ġdiction naires
Ġsignific ative
ĠÄ Ĳ
Ġbib lique
ĠGiuse ppe
' t
A pol
V ers
b rite
b orde
c do
f iance
v ente
Ë Ī
re te
Ġp ist
Ġp enche
Ġs ale
Ġs aga
Ġs ultan
an k
ti tes
le urs
in vention
ne ls
Ġm ondes
il y
Ġf is
Ġf oc
Ġf olie
om on
ra ce
Ġt uber
Ġre ti
est he
ĠC ant
ĠC ri
Ġpl ates
ĠP resses
ĠP IB
ci es
ĠA ub
li ca
li vre
ĠB lo
un ie
un ique
Ġch i
ff ert
ĠT s
ĠT as
ĠT am
ĠG ai
ĠG illes
ĠG ood
Ġh ormis
op er
ĠN ature
ces seurs
Ġpr ussi
par ant
par tie
Ġtr omp
Ġac quise
um ente
Ġentre tient
Ġdis positions
ing ue
oy a
ph one
ver sion
mi des
mi rov
Ġins titution
Ġjus tifier
ass aut
Ġfil iale
ĠJe une
Ġinter commun
Ġinter view
vent uellement
Ġcour be
ma tie
Ġexp orte
Ġexp rimer
od y
Ġ8 2
An g
ĠY oung
ade lle
20 18
ĠBe aucoup
Ġsol licite
Ġcro issant
Ġcas es
Ġfond ent
Ġfond ateurs
ĠZ urich
Ġenf erme
cis es
Ġfig urant
orta ble
Au tre
ly sse
Ġbase ball
Ġtex tile
ĠQu oi
quet tes
Ġsimp licite
ĠBel l
ĠIs lam
Ġprofes sion
Ġparticip ant
ensi ves
couver ts
Ġconcl usions
Ġlog is
ĠWe hr
don iens
ĠBro ad
Ġvari ables
Ġban ques
ĠConst ance
Ġrecense ments
riche llo
Ġâ Ĩ
zz le
mocra tes
Ġarchite cture
rest ation
limin atoires
ĠOu est
Ġsymp athie
Ġcircu its
sta ff
Ġul time
dom in
Ġchim iques
Ġprisonn ier
effe ctu
Ġsauve garde
Ġauton omie
ĠAra bes
Ġavi on
vac uation
appro visionnement
ĠAdam s
Ġsouter rain
Ġrende ment
Ġtac tique
ĠCommun aute
Ġmys tique
Ġfall ait
ĠMath ieu
Bern ard
ĠJord an
ĠRadi o
ĠJohns ton
ĠGalle ry
ĠPick wick
Ġpales tin
Ġconsens us
aristocra tie
1 78
3 00
C onc
O ff
c erne
g ine
i ros
l yn
m ante
n en
p ant
s iste
t osphe
Å Ĥ
Î º
Ġl ill
Ġa ires
an imite
an ime
ti de
ou i
ne au
Ġm ors
ra ment
ra peu
Ġt endre
Ġre z
Ġre ten
our is
ĠL au
si x
ĠC all
ta i
Ġb ic
Ġb oise
Ġb asses
pe aux
ol les
ĠS to
Ġdans es
Ġcon tiennent
ĠP it
ĠP ower
ĠM me
Ġg orge
ue d
ĠB amb
ĠB aule
Ġin attend
Ġpro duisant
ac trice
ĠT ib
ĠT oute
Ġson orite
end rait
Ġh it
Ġr oue
Ġr ural
ĠLe gend
ĠN SC
ĠN ansen
ĠN elligan
Ġex ception
Ġra mener
Ġcomme t
tr ant
Ġcomp rise
Ġper turb
ad he
ĠW ars
cu tives
Ġser ment
cl en
fin ies
ĠRe ine
iss on
II I
Ġad ministre
ma cht
aut o
Ġcha usse
Ġmin ie
Ġconf irmer
ĠSe ga
ign ons
Ġfon ce
Ġcul tes
Ġdom mages
Ġmat ches
Ġemp lacement
Ġexemp laire
aul d
aul ois
tal on
ĠTh oreau
ĠSch ool
Ġsub ir
Ġsub issent
land s
Ġess aie
Ġann uellement
ĠSh ar
Ġpa tin
Ġfont aines
ach a
ĠBar richello
do chine
Ġcher chant
aci er
lim ite
Ġhy per
ĠTe mps
rom aine
Ġorigin ales
ĠCo chin
Ġmunicip aux
Ġtend ent
Ġvisite r
Ġital iennes
Ġrele vant
Ġvari antes
Ġnos tal
ĠSal on
Ġimme ubles
Ġmauv aises
Ġ180 6
bo ard
ĠHug ues
Ġrac ont
Ġpor tion
Ġconcep ts
Ġcollab or
ram ide
Ne ige
ws tone
Ġpous ser
Ġnaz i
Qu and
opp oser
Ġcrois ie
Ġrecru te
dac teur
Ġcoi ffe
ĠGusta ve
Ġmons tre
Ġtempor aire
Ġcalc aires
Ġintellect uel
astron omie
ĠLamb ert
Ġbass ins
ĠMarg aret
Ġpromen ade
ridion ale
Ġmess ages
Ġsain ts
Ġintellectue ls
ĠPlut on
ĠFreder ick
Ġfourr ure
ĠChan tilly
NE SCO
Ġcompil ation
appare il
Ġvag ues
ĠPub lish
Ġconfig uration
ĠYello wstone
Ġprimor di
mirov sky
0 3
A f
G N
O li
b ule
c as
c rans
f un
f enses
g au
h om
n u
n ait
p os
Ġd og
Ġde tte
Ġs que
Ġc aisse
ti ver
ar tistes
it ale
Ġt ene
Ġre mer
al t
Ġdu chesse
Ġpar ame
ĠL as
Ġn ains
ch ie
si es
si reux
ĠC ulture
ta x
Ġb oue
Ġb las
ĠS ui
ĠS ub
ĠS um
ĠS cu
ĠS cience
Ġpl uies
ĠP am
ĠM ill
ĠM oun
ĠB ud
ĠB az
ĠD avis
di x
di ennes
ac quisition
ĠT on
ut ent
ĠF ore
ĠF onde
Ġh aine
Ġne w
ĠJ as
ĠN ight
rie ls
Ġsa chant
Ġex ile
ins truction
entre r
Ġo xy
Ġcomp osent
Ġcont ente
ot yp
Ġ18 20
Ġno v
Ġimp oser
be y
be au
Ġor chest
Un ivers
oli a
Ġju ger
Ġco que
Ġren fer
ĠAn ubis
Ġacc rue
Ġab ord
Ġcha peau
Ġexp ressi
Ġass urant
Ġass urent
tro p
ĠU S
ĠQ uel
20 16
Ġsol itaire
ĠAu tre
ĠGe off
Ġloc alement
Ġfond ations
ĠTh ackeray
aur a
Ġpersonne llement
In see
Ġvoy ait
ĠNew s
Ġfra gile
Ġreven di
Ġchar p
Ġpil iers
Ġconstitu tionnelle
Ġsens ation
util ite
ĠHar vey
Ġprog resser
ĠTe chn
Ġhau teurs
antin s
ĠWal ker
Ġdra gon
hy dra
Ġbre f
Ġcer veau
Ġbal k
ĠPhili p
Ġnour rir
ĠDi jon
ĠTro ie
pl oye
Ġmassi ve
ĠBos ch
ĠPl aton
Ġtrib une
ĠForm ula
Se ine
Ġabs or
Ġaffe ction
mocra te
Ġcarre four
Ġadministra tifs
Ġrat tra
Ġprotest ante
Ġlour ds
Ġther m
Ġparis iens
inform ations
Ġeffic aces
Ġmobil isation
Ġreb elles
Ġreb aptise
Ġfru it
Ġindivid uelle
Ġinterne t
Ġsurvi vre
ĠOs car
hor reur
Ġmonn aies
fici er
fici ent
Ġtoile ttes
Ġdiplom atiques
ĠYou goslavie
Ġpati ent
flex ions
hib iens
Ġrecru tement
Ġsatisf aire
Ġmini atures
ĠBonn ard
Ġarchitect ural
Ġregre tte
ĠVar zi
Ġnoy au
Ġparadox e
agas car
lop onne
ĠJeff erson
Ġproclam ation
Ġresta urant
Ġagran di
Ġsame di
Anton y
Ġapo ge
ortz iko
Ġsubsist ent
cific ite
Ġpara site
ĠThom son
ĠWehr macht
A ur
A us
C ont
C ap
E lie
P C
S es
g ieux
h indou
i ales
k ers
l itte
l aisse
m une
n ard
o tiques
p r
p ul
p rise
p loie
v alle
w ar
y le
É ª
en er
Ġp isc
Ġc une
Ġc aisses
qu aient
er v
al te
Ġpar ach
Ġv entre
Ġau then
ĠC i
ĠC ab
ĠC ah
ta tif
Ġb ale
pe int
ĠS T
ĠS tone
Ġcon duisant
ĠP oi
ĠP ron
ĠM ore
Ġg estes
at ar
ci r
ĠA BC
li ces
Ġin do
un issent
ĠD ingo
ac ade
Ġch arme
ĠR as
ĠR iv
ĠR io
ĠG are
ĠG rim
Ġh u
ig rants
Ġpas teur
vi dent
ĠH is
Ġsa vant
Ġex ces
Ġra chat
po des
og ues
Ġar rond
Ġal li
ond on
ĠEn f
Ġper tur
ad mi
Ġmar ches
Ġmar quent
ill ustre
sent aient
ex tra
Ġnouve aute
man e
Ġor ale
mi tisme
ser ie
min ins
Ġins crite
Ġsou mise
19 38
En fant
oli ve
ĠRe in
Ġco alition
Ġinter dis
Ġman quent
Ġab sent
all en
Ġph rases
Ġni che
Ġapp roprie
Ġpri me
... ),
Ġver be
ty que
Ġcas ino
Ġpres sions
Ġcan aux
Ġhom osex
oph ile
Ġmis sionnaires
Ġag glome
Ġsta des
sy che
Ġtechn ologies
Ġreg istres
Ġhistor iquement
Ġdisp os
pend ent
Ġpal mare
ĠSi ffert
Ġrel ance
Ġviol ent
Ġangl aises
Ġmari ages
att le
Ġsty lis
Ġchar ite
Ġaccue ill
Ġtri p
Ġcompagn on
Ġlut ris
200 3
Ġ179 1
Ġfourn i
Ġlum ineux
Ġ187 5
Ġ187 9
199 5
Ġjapon aises
pol is
Ġperd ure
Ġpat rie
Ġmine ure
ĠAb raham
Ġense ignement
Ġense mbles
ĠPl as
Ġ183 1
Ġ183 7
Ġrecons truit
Ġpartis an
ĠHer bert
emb ourg
Ġtomb ent
Ġespagn ols
Ġfus ionn
bel lion
Ġimag inaire
ĠAs perger
Ġparlement aires
irm ation
Ġsculp teur
zon a
Ġinves tissements
Ġcycl iste
Ġbure aux
Ġbus te
Ġappare mment
ĠGil games
Ġestim ations
ĠLar ry
Ġconce voir
Ġtunis ien
Ġremont ant
mil ation
Ġexam en
rio dique
Ġasc ension
ĠCarol ine
Ġmang a
ĠErn st
Ġcommiss aire
Ġcoul oir
Ġbov ins
Ġsuscep tibles
Ġfes tivite
Ġprotagon istes
Ġfores tie
indivi du
Ġportug ais
coup age
chauffe ment
Amer ican
Ġparas ites
ĠMene lik
chetnik s
Nic olas
Ġgarn ison
ĠPein tre
ĠGilgames h
A mb
A gence
D E
N I
N apole
R C
d ge
f il
g ang
h yp
l ou
n ien
p oser
s ailles
t all
t uel
Ġd igne
Ġl ent
Ġl its
Ġde ttes
Ġs oph
Ġs omm
an us
is ole
in cident
er be
ar in
Ġla pin
Ġf ier
Ġt aure
us cule
Ġre lier
est ent
ĠL oi
Ġn utri
Ġv Åĵ
se t
ch us
ch app
ĠC oul
Ġse izie
Ġpl af
Ġcon ge
ĠP ab
Ġg o
Ġg on
lle t
ĠA ustra
Ġj oye
ĠB ol
ĠB ron
Ġin noc
âĢĻ Â«
un ies
Ġsur pl
ĠD ak
di ctions
ĠE c
ĠE ss
Ġch oque
ul li
ab ulaire
Ġson ge
Ġan alog
ĠG et
Ġh are
Ġne t
ĠJ ardin
Ġsa tire
Ġra ge
and ball
ĠV ladi
Ġtou cher
ub a
ard ie
rit ablement
du ca
ĠEn viron
ĠCh ab
ĠW ords
tin es
Ġje tte
ob us
Ġces ser
ron ique
ass au
Ġpos th
Ġfranc ophones
Ġren ard
rou lant
emp orte
Ġgra s
ral dique
Ġcommun au
Ġconf es
Ġ7 6
Ġsui cide
Ġvis uels
elle r
Ġent rant
Ġent ourant
agn ol
Ġmont ure
ĠAr g
ĠAr me
anc ie
ix on
Ġappe llent
ĠCar ac
ĠCar cass
Ġouv rant
gra ve
Ġinc ur
Ġinc ite
Ġloc u
Ġloc omo
acc orde
amb iance
ras h
Ġvoi ci
Ġcoup able
Ġpa iement
Ġatte ignant
tionne ls
Ġplan ches
ly wood
Ġchev auche
Ġbar rages
ĠCol in
Ġprofes sionn
Ġchar te
ga tif
ĠMont ana
Ġaccue il
ĠCom ment
Ġrev end
Ġtri o
Ġst op
ĠMan h
Ġdra gons
Ġurb an
Ġache ter
Ġprogram mation
ĠSta te
Ġamp leur
Ġarch ai
cif iquement
ĠFran z
Ġanti se
Ġress or
ĠFin al
Ġlim ous
ĠEd gar
Ġmultip lient
Ġprot oc
ĠAd olf
ĠAus chwitz
Ġsomme il
ĠMad agascar
Ġfus ionne
Ġadministra tives
accord ent
ĠGau lle
Ġglob ale
Ġton alite
entrep rises
Ġsuccessi fs
Ġsatis fait
Ġchim ique
Ġriv aux
ĠNav y
ĠCat alog
Ġprati quant
Ġsav ants
Ġiran ienne
montre r
Ġuniverse l
ĠTex tes
Ġcompos ants
Ġreje tte
ĠOli ver
Ġexploit ations
engage ment
Ġanaly ses
Ġparten aires
ĠMur ray
ĠShe lley
Ġtunis ienne
Ġviole mment
Ġproch ain
Ġsan ction
ĠPers es
tropol itaine
ĠBook s
Ġvirtu ose
Ġpone y
ĠFant as
Ġsymph onique
Ġcellu le
Ġartificie lle
ĠVit ry
spec ta
ĠSho ah
Ġalter na
Ġincor pore
obal di
hydro ge
Ġjamb es
ĠBib er
Ġrenseigne ments
resc obaldi
Ġpneum atiques
Ġgig antes
cen aires
ĠHamb ourg
Ġfaill ite
verg ure
effectu er
ĠPron ger
A M
E FA
L uc
P as
R A
U NESCO
a ke
c q
e u
f l
f ra
g ien
g ocie
g rin
l ain
l issement
n ateur
n ormes
u an
z are
Ġd am
Ġd ictionnaire
es sence
Ġl ondon
on el
Ġs k
te ux
ou ge
qu ateur
in ations
Ġla p
Ġm Åĵurs
Ġf rise
Ġt axe
ĠL uis
Ġn apole
Ġv igne
ch is
si gnant
ĠC iv
ĠC elles
Ġb ain
ĠS che
ĠS la
ĠP atri
ĠP oly
ĠP oint
Ġg end
at z
ĠB ug
Ġin ta
ter ris
ĠD reyfus
Ġ2 20
ui f
ĠI re
Ġson ores
ĠR ie
ĠF i
ĠG ou
Ġr urales
oc ats
ĠN oirs
im es
po t
uis seau
Ġav oue
Ġav anc
ĠV alle
ĠV ik
par ti
Ġcons tant
Ġac tivement
Ġar m
du es
av er
cle r
ĠK im
ĠK ok
ex traction
ph a
Ġes qu
Ġcl an
Ġpos ent
ĠJe w
olog iquement
Ġco w
iss a
iss ance
Ġman ager
je ux
Ġconf ier
Ġconf orm
Ġpoli ciers
Ġass ister
ren a
Ġ8 9
Ġremp lir
ry s
fic it
ov ine
ĠCar los
Ġloc alisation
Ġdou zaine
ĠTh ierry
Ġretr ans
Ġrest aurer
Ġparc ourt
rend um
Ġcomb ien
Ġform ules
Ġpersonne lles
In dre
Ġsupp orte
ĠHe bre
aff irme
Ġdoc tor
Ġ189 2
ae us
Ġatta quer
Ġprom is
Ġprom ul
ĠMont pel
gu liers
Ġmesure r
anci a
gram me
Ġhy drau
ĠSp ring
inc ol
tend ent
lev ait
ĠCor ps
Ġconcl ure
ĠSam us
Ġbal ne
Ġ179 4
Ġrele ver
aj oute
Ġfranch ises
199 7
Ġsoutien nent
nom ination
Ġillus trations
Ġvend ue
Ġense ign
ĠChamp ions
ĠHug h
Ġempe reurs
ĠMi ke
Ġmur ailles
Ġtermin ant
Ġryth mique
Ġdomes tic
194 7
Ġprotest ants
Ġrestaur ants
ram iques
Ġproje ction
rimer ie
Ġcapture r
Ġcollec tive
Ġcollec tivite
zer bai
Ġvole r
pand ue
Ġradic al
ĠLor ient
Ġsensi bil
Ġcanadi en
Ġfestival s
Ġprovo quant
ĠMons ieur
Ġsatisf action
Ġballe t
Ġnatur aliste
ĠAf ric
Ġpul mon
escal ier
Ġregre t
Ġattent es
Ġcommiss aires
Ġcoqu ille
Ġvamp ire
Ġcombin aison
glige able
Ġcylin dre
Ġstock age
AT P
ĠAuc un
Ġrecommand ations
Ġpoul ains
ĠSant a
Ġnar ration
ĠNob el
ĠEast wood
Ġbille ts
pir ant
Ġgaranti r
Ġindispens able
Ġvign oble
Ġconfront ation
Ġfabri quer
Ġpit tor
ĠCatalog ne
A fin
F C
F F
F er
P A
T ra
U ranus
V ictor
V incent
b ons
c auld
h ire
h ame
k le
p as
y cle
Ġd urent
Ġd Ê¼
Ġde uil
an tisme
Ġc rue
qu ine
in ite
ar mer
Ġm ond
Ġm ira
Ġt amb
Ġre vers
ve il
Ġdu t
Ġdu el
Ġpar ente
ĠL ans
ĠL ancia
Ġv ass
Ġv ende
se ment
ont o
Ġ1 18
ch ir
si onner
si gnation
ĠC au
ĠC os
Ġb ac
Ġb and
Ġb oul
ĠS id
ĠS tal
Ġpl ur
Ġpl ats
at tent
ci mens
Ġj o
ĠB ah
ĠD id
ĠD ane
di ce
ac ture
Ġch ances
os ses
end roit
ĠF ilm
Ġh oule
Ġr uisseau
ĠJ obs
ap erc
ĠH as
ĠH auts
Ġex acte
ĠLa val
ĠV o
ĠV ent
ĠV ende
ĠLes car
et t
tu m
av ocat
ĠCh i
ĠW ork
ĠK i
cu tive
ĠPar alle
ob tention
ĠDe vant
Ġrec ouv
ver site
Ġti gre
Ġsou mettre
Ġat tirer
olog iste
lan e
rou te
cher ie
Ġpays an
Ġcor rige
Ġ6 1
ĠSe uil
Ġph al
Ġph arm
ĠAl lan
mis sionne
Ġtrans c
Ġtrans cription
Ġ7 67
Ġsui vis
aute l
ogra mmes
Ġspe c
Ġappar ue
Ġappar ence
ari os
mo dium
veloppe urs
Ġcas erne
Ġaff i
Ġaff ilie
Ġcontra inte
tal lique
Ġdou tes
acc um
Ġrou tier
Ġ12 5
Ġann uelles
tic al
Ġrend ue
illi ers
Ġmondi aux
Ġhistor ien
enn is
Ġsor cie
Ġbar on
,, ,
Al ger
da e
Ġtravers ant
ĠMal herbe
can iques
ga tifs
ĠFe der
ĠHar lem
ĠLond on
Ġsignif ier
Ġspecta culaire
ĠRo ad
va sions
Ġcommerci alise
ĠSta dium
Ġ187 6
Ġmusic aux
Ġami tie
Ġextra its
Ġpens ait
Ġfant astique
Ġvites ses
Ġtrouv aient
Ġarchite cte
ĠMag h
Ġinten tions
Ġnorm alement
Ġsin ce
Ġbloc us
ĠConc erto
tain ment
Ġvolont aire
Ġcui r
ĠFab er
Ġmass ac
Ġdesser vie
ĠBob et
Ġmascul ins
Ġsensible ment
Ġautrich iens
Ġvendre di
Ġlabor atoires
ĠKn ight
Ġsymph onie
Ġafflu ent
Ġsatell ites
Ġbrill ante
mou th
Ġexcell ente
offici er
Ġmorph ologie
Ġrepous ser
explo sion
ĠLud wig
lancol ie
Ġmanuf act
ossi bilite
Ġrabb in
Ġchape lles
Aqu itaine
Ġmoul ins
ĠRud olf
Ġroul ant
ĠGoul d
Don ald
ĠColor ado
ajou ter
alco ol
ĠSenn a
Ġtril ogie
Ġempris onne
Ġoppos ants
ĠPN L
ĠCarcass onne
ĠManh attan
ĠMontpel lier
. [
A p
H ipp
O pe
P at
T re
T rois
a taire
b au
b ration
c oul
d jan
g us
g ide
m aine
m igre
p ais
s ors
s ole
s ister
v ert
Â »
Ġl is
Ġl in
Ġl anciers
Ġa bre
Ġs iens
Ġc rain
te cte
ti ge
Ġe mm
ou illes
qu at
in aug
ar gue
or ia
or gie
Ġf lan
Ġf lex
Ġf irme
Ġdes crip
ro l
Ġau re
as ter
Ġb rique
Ġb oss
Ġcom ic
ĠS ok
ĠP sych
ĠP acha
ĠM ak
ĠM ira
li v
ĠB ad
ĠB ry
ĠB yr
Ġin ac
Ġin tention
ĠD ion
Ġme xic
ĠR ain
ĠR and
ĠR im
ĠG on
ĠJ i
ĠJ un
ĠH ag
Ġex age
Ġtra gique
et ta
Ġcomp lot
Ġmar ier
Ġgran di
ill o
ill ustra
ex termination
cu tifs
ph ane
Ġimp liquant
Ġrec ul
Ġres sent
Ġti rage
ass o
ass y
19 65
Ġju ges
Ġob tenus
Ġren forts
Ġcour antes
Ġacc umule
Ġexp ulse
Ġ9 2
ĠSe ule
Ġtrans it
Ġ17 58
val uer
ĠU l
der ia
pendant es
Ġconstru cteur
Ġappar u
Ġchamp agne
Ġindi ces
Ġcri min
Ġorgan es
tal liques
Ġdou leur
Ġretr ouv
ati se
Ġten ait
Ġdev raient
Ġprote ctorat
enc ad
ĠSh ah
In te
ly se
ĠBar ry
Ġven geance
Ġfour mis
ĠMal te
Ġcad ence
att ue
Ġw as
Ġ186 3
form er
Ġtri ang
ys se
Ġmag iques
Ġlance ur
ĠMan che
ĠCor n
Ġcer tific
Ġchois is
Ġnu ance
ĠTer rit
Ġ185 4
Ġ179 2
Ġ179 8
ĠDi dier
pl ore
Ġir landais
terne lle
ĠTra jan
Ġ187 7
don ienne
ĠQue en
ĠQue ens
Ġmi di
ĠBos nie
Ġval or
ĠChrist mas
uil ding
Ġsang u
occup ations
Ġdemand ant
Ġpoi gne
Ġrefus er
Ġorient ales
ĠHol mes
ĠRus ses
Ġregard er
ĠMil ton
ĠRos berg
ĠRos tom
Ġexist ants
Ġdur ablement
Ġtar dif
Ġsymp to
Ġvoc abulaire
Ġcontinent al
ĠBu lletin
Ġchron ologique
ĠWh it
Ġcab ine
Ġconvain c
rim ant
Ġexce llent
Ġnor mande
gend aire
Ġlar mes
ĠâĤ¬ ,
Ġmic ros
ĠFab re
voi ent
ĠFI FA
As perger
Ġtis sus
Ġsoli des
iden tification
Ġdiagnos tique
Ġcouv rant
ĠMass a
ĠIr lande
Ġhydro e
Ġparta ger
Ġvirtu osite
voc ation
Ġnourris sent
Ġabsolu ment
ĠStudi os
anth rop
chantil lons
ĠBrun o
Ġaltern ative
ĠLev ens
ĠAuc une
Ġdesque lles
Ġfres ques
Ġpseud o
Ġexplicite ment
Ġridi cule
oport raits
Ġserp ents
Ġinond ations
ĠHebre w
incol n
1 00
2 13
A pp
C o
C ons
N oti
T R
b ourne
c are
c od
c ott
f aire
f aill
g it
g ance
g lig
j ord
l ue
l orer
n iques
p en
r ui
s che
u li
w en
x i
Ġp ille
Ġp este
Ġa igu
an tie
ou rai
que til
ra tif
Ġen tiers
Ġu tiles
al an
ro be
ĠL at
ĠL incoln
au ne
ch iff
ri ter
ri des
ĠC onde
as p
Ġb aies
ol ine
ĠS acre
Ġcon voque
ĠP ay
ĠM au
ĠA z
li ard
ĠB un
ĠB ene
ĠB ian
ĠD ol
ĠD arius
ĠD VD
di ation
ĠE ric
Ġch ants
os h
os ch
ille tte
ab at
ĠT rente
ĠR av
ĠF ox
ic ales
ĠG or
Ġpas sions
bre ux
ĠN C
ĠN el
ĠN ot
ĠN ancy
la ine
Ġra f
Ġra ss
ĠV inc
ĠV erne
Ġcomp osant
Ġcont enter
Ġ18 12
ĠW y
ĠW ind
Ġter ti
Ġro s
tis s
tra le
man cip
Ġma quis
Ġfil ie
19 29
Ġfranc ophone
Ġve ine
Ġacc roi
lon ie
gl as
Ġpermet trait
Ġcou pole
Ġon e
Ġcommun aux
mis es
vis er
Ġca cher
Ġ7 1
Ġ7 4
cep tions
ler inage
cri min
Ġk e
Ġ8 8
Ġoff ert
Ġoff ice
ari um
Ġsuc c
Ġent ourage
Ġsol aires
ty pe
Ġaff irmer
Ġop tique
Ġpres s
ix e
Ġcent enaire
yp se
Ġrou tie
ras ser
Ġmain tenance
cis ant
Ġam oureuse
pec teur
ian i
arch ives
ori o
Ġmy ce
Ġdoc umente
ende l
mbl age
Ġcir que
Ġviol ences
Ġcal de
Ġrapport ent
att ribution
vol tes
gu mes
lect ro
Ġ188 2
Ġ188 6
Ġ188 7
ĠSte ven
ĠJu lien
off rir
Ġcolon ial
Ġlut h
Ġcit adelle
lit z
Ġsort ent
serv ation
Ġsais ir
ĠDi ane
Ġ187 4
Ġdiver sifie
Ġtyp iquement
Ġextra ter
Ġali ment
Esp rit
gor ith
Ġprofit ant
termin ant
Ġcollection neurs
Ġrappe llent
Ġocca sions
Ġcontinent ale
Ġgui des
Ġplac ent
Ġdon jon
Ġtort ure
Ġber ceau
Ġsing u
Ġconj oin
Ġclo cher
Ġsouhait ait
Am our
ĠFal staff
Ġmou ch
Ġchance lier
Ġos c
Ġinstrument ale
tz sche
autor oute
ĠCop pi
Ġparad is
Ġsanctu aires
ĠTor onto
Ġtardi vement
Ġstu d
Ġmagas in
Ġaim er
inves tissement
ĠStudi es
Ġallus ions
ĠMans field
ĠJon athan
Ġrestre int
ĠHob bes
Ġstri ct
ĠVill eneuve
Ġcaric ature
Ġmob ile
Ġnaiss ances
Ġchir urg
ĠEngl ish
ĠNich olas
ĠChristoph er
Ġsond age
ĠEnter tainment
ĠNaur u
Ġposth ume
Ġcrimin alite
E N
E P
M arc
N o
R ene
S te
U D
U F
a ques
b lac
b ack
c au
c ologie
f on
f auts
g res
i ographie
j oux
k ai
l isation
m ites
n os
p ens
p ave
s o
s ordre
t oire
t ole
u que
u tre
y cl
Ġ ranc
Ġl ot
Ġl ith
re uses
Ġp ant
Ġp ay
Ġs ure
Ġc ale
te h
le ton
Ġm ule
or um
or iques
ur aux
it udes
Ġf oires
ra ts
Ġre mb
Ġpar tant
Ġpar venu
ĠL en
Ġqu ais
Ġv oue
ĠC ir
ta ce
ta ins
Ġb ulg
ol ler
Ġun ies
ĠS ak
Ġcon quis
ĠP ad
ĠP enn
ĠM ol
ĠM oulin
âĢ Ŀ
ĠA sh
li es
ĠB ie
ĠB uff
ĠD im
di ff
ĠE is
Ġch ag
Ġch aude
ul ant
ĠI GN
ut to
ĠR uth
ĠF air
che min
ĠG P
Ġr ond
Ġr uisse
ĠJ ourd
Ġpas tor
ĠN y
ĠH ou
Ġte inte
la f
im ages
onn en
ĠV ic
Ġaux ili
imp ossibilite
Ġcomp ati
ond er
Ġ18 10
oit ou
ĠCh ili
ĠCh ardin
ĠK ent
ĠK as
ĠK am
ĠK az
ing ham
Ġrec re
Ġnouve llement
Ġor nement
Ġser pent
th a
th on
lo que
oli tique
con ise
Ġco des
Ġinter ventions
Ġinter roge
rou nd
id ou
Ġve ux
ĠAn quetil
Ġtour bie
Ġab us
Ġcou cher
Ġsec s
Ġconf on
Ġtrans mettre
Ġ7 7
Ġ7 50
tro ites
ler ins
Ġvis ent
Ġvis ages
Ġoff ensive
An d
An ubis
ĠY o
ĠQ in
ses pe
Ġfam ine
Ġop in
Ġli qui
Ġindi en
Ġindi quer
ĠCar ter
ĠCar lo
oph ages
Ġgouver ne
Ġinc ons
exp ortation
Ġaur ont
acc us
Ġhum or
Ġgar es
lic ate
Ġprote cteur
ĠSh ow
Ġfonction ner
dic aux
Ġdirec ts
Ġdisp ense
aff ronter
Ġanim ale
Ġmer cenaires
Ġrecher cher
ĠCon vention
Ġsal ut
do ise
Ġcad res
Ġ188 1
Ch rist
Ġcy cles
ĠMan chester
atta ques
orth odox
200 1
ĠGra d
Ġfourn issent
Ġcomporte ments
Ġci vi
Ġadop ter
Ġrelie fs
Ġfou ille
ĠSc ot
199 1
Ġlit res
ĠBra d
Ġ183 6
ĠTou raine
Ġprofit ent
Ġemb ar
ĠBr une
Ġdessin ateur
Ġexer cer
Ġall ures
Ġcos m
ĠDar k
Ġchron iques
Ġparois ses
Ġdos sier
Ġcam ion
Ġgard es
Ġnaz ie
Ġbu teur
Ġcircons cription
ĠDra gon
Ġfondament al
Ġmodern isation
Ġpun k
Ġroche ux
ĠNie tzsche
ĠAnd erson
Ġmix tes
ĠGen eral
Ġtempor airement
arb itre
Ġethn ique
Ġcur iosite
alph abet
Ġram ene
ĠVirgin ie
ĠSyste m
Ġvar ient
ual do
ĠEncyclope dia
ĠByz antins
ĠGes ualdo
Ġconces sions
ĠAcade my
ĠLot us
Ouv rages
Ġfav ori
ĠLux embourg
Ġgramm aire
Ġcompren ait
Ġfis cal
Off ice
hindou isme
admi ration
ĠPab lo
Ġlimous ine
Noti ces
Ġcalde ira
" .
B el
E uge
J ane
O P
b ran
b alle
c ast
g ents
g ager
g han
k ido
l iste
n ith
n arios
p rime
s ource
s ouris
v ine
w it
w art
z im
Ġ it
Ġd angers
Ġl andes
on iques
Ġs ap
Ġs cep
Ġs ignent
te int
qu itation
is che
ar bres
ar restation
ne ts
Ġm ad
il iers
Ġf oot
Ġt ables
Ġt ester
ro gly
est res
Ġn orme
ri x
ri an
ri ales
ri fication
si c
si le
si que
ĠC A
Ġb y
Ġb or
Ġb ul
Ġcom mentaire
ĠS ovie
ĠS axe
Ġcon voi
ĠP u
ĠP is
ĠP omp
ĠM organ
Ġg ene
lle rie
ĠA yant
ĠA msterdam
ĠB ux
ĠB and
ĠB ull
Ġin voque
Ġin jus
ale t
Ġpe aux
Ġpe inte
ab es
ĠT S
ĠT ch
ĠT andis
ĠT chetniks
Ġan cre
ĠG T
ĠG roupe
ĠG lor
Ġh ouille
oc aus
vi ens
vi enne
ous tique
ĠN az
ĠN ixon
ĠH ad
ors che
la ve
im a
onn iers
Ġav enir
ĠV illa
og o
Ġtou ches
tr one
rit es
Ġcont r
Ġfor cer
Ġper p
Ġ18 16
ore l
ore ille
ĠCh inois
tin i
Ġfin es
ct oire
Ġ3 60
Ġter rasse
ex amen
Ġro bes
ide ment
Ġnombre use
cip ite
tra ite
ris me
Ġor phe
cl asse
min iste
Ġjus tement
Ġsou met
Ġpos ture
ĠâĢ ľ
19 86
19 79
Ġman i
je ction
emp rise
Ġon zie
Ġcommun i
Ġcha uss
Ġconf ort
Ġexp ressions
Ġpoli cier
vis ation
tro i
Ġcel tique
Ġapp lications
Ġ8 6
ĠPe dro
gi ments
vers er
20 12
mo tions
Ġfer ait
Ġli aisons
Ġhom ologue
Ġcri ti
Ġhabit ue
Ġouv rier
Ġliv ra
Ġorgan isme
ĠZ am
Ġdou bles
Ġsub di
acc ords
Ġrou le
Ġcomb us
Ġcamp us
Ġcoup er
dic ale
hui tie
ĠHe ures
quent ation
ĠRoy aumes
tabl issant
ĠLu pin
gul arite
Ġbi joux
ĠBer g
Ġvoyage ur
Ġdistin cts
ombe y
Ġst ar
moi ries
ache ter
Ġdra matiques
Ġbat tent
rig ation
Ġtent ation
Ġgl isse
Ġcer cles
Ġaband onner
duis it
ĠCha pelle
Ġsenti ers
Or dre
vit ant
Ġdouble r
Ġ179 7
Ġdisc ussions
Ġpol aire
Ġvain cre
Ġfranch it
Ġdiver gences
ival di
loc u
Ġcli che
Ġcli ente
Ġriches ses
Ġ183 2
ĠBay ard
Ġpoursui vi
ni pre
ĠTur quie
Ġdomin ent
Ġsymp ath
194 5
clar ations
Ġhos tilite
Ġchau des
ĠDou glas
aby lon
Ġsymbol isme
ĠZe us
guer res
Ġconnaiss ait
ĠBan k
Qu oi
ĠConc ours
ĠAut riche
Ġvolcan iques
ĠLor raine
Ġpy ramide
chan el
Ġsouhait ent
ĠCent ral
vac uer
Ġpresti gieux
Ġperspec tives
Ġrecon ver
Ġessentiel s
Ġterritori ales
lector ale
Ġjudici aires
ĠLuc as
Ġmod estes
rod ynam
ĠVoy age
ĠBart ali
env oyer
dica ments
Ġhan dic
ĠLui gi
Fin alement
joue ur
ĠBow l
Ġdesque ls
Jo hn
Ġcamar ades
ĠSus an
Ġtrah ison
Ġaugment ent
Ġcadav res
Ġseptentrion ale
Ġrempl issage
Ġpsychanaly tique
tym ologie
Ġrectang ulaire
Ġcot on
ĠHann ibal
Ġraff ine
oblig ation
ĠTest ament
ĠBh utto
Che z
Ġautoch tones
Ġlicenc ie
Ġfonc ie
ĠBamb i
ĠDane mark
0 1
A N
C or
C ol
G al
H L
I mp
I tal
L ou
M S
P er
P ers
R S
T ous
a o
b ord
c f
c entre
f at
g ri
g ui
i ler
j ai
k owski
l istes
l oges
m enti
n in
o ver
s inte
s ax
u aires
v int
en chai
Ġs atra
Ġe mme
Ġm iti
Ġf aus
om mer
ra te
ra ctions
Ġen le
Ġdes ign
Ġu sur
us et
al o
our i
ri tiers
ge ant
ĠC ot
Ġb rus
ai gu
pe t
pe ction
ĠS und
Ġpl ain
ĠP ot
ĠP oitou
ĠM aine
Ġg orges
ĠA ma
Ġj ux
li an
he m
ĠB ure
ĠB aud
ĠD auph
di m
os oph
ĠF M
ĠF il
ĠF ul
ĠF itz
Ġan ge
Ġan gles
che ment
ĠG rasse
Ġh ivern
Ġr enseignement
Ġr onge
Ġr urale
am ille
ĠJ ulie
ĠLe igh
Ġdi ab
tte ment
ĠN il
ĠN ag
la v
ier i
Ġav ocats
ĠV and
Ġtou ch
imp ressionnisme
Ġcont enir
ad or
ad riel
Ġ18 29
ĠW ay
ĠK in
Ġdis ent
ĠÂ», ,.
ĠO ui
ĠMar x
mi d
ric on
cl os
Ġtre mble
fin ales
Ġins titue
19 39
Ġju ment
lan che
id on
Ġcour onnement
ĠAn s
Ġgra vement
Ġcou tumes
Ġcor pus
Ġoc tro
Ġoc cuper
cien nes
Ġexp liquant
Ġ9 1
mis tice
mis sionner
cri vait
ia de
Ġvis uelle
Ġeff ace
Ġcul mine
An gers
mo ise
Ġsol dat
az ar
Ġfer mes
aiss ait
Ġchamp ignons
avi ation
ĠIn diens
ah ar
Ġinf lige
Ġtechn ologique
ĠDes chanel
ĠSt ory
ĠPh illi
Ġfai m
Ġesp oir
Ġanim ations
Ġvict orie
Ġchev au
ĠQu ar
car pe
cta ve
can ismes
ĠLu cien
Ġresp ira
anti se
ache tte
asi a
Ġ184 4
Ġ184 5
Ġsuff rage
Ġ179 9
Ġparce lles
ĠSu ite
ĠMc G
Ġiniti ative
Ġ187 3
yth ag
Ġagric ulteurs
Ġiden tiques
Ġarche ve
Ġ180 4
Ġcontempor aines
och s
Ġintro duction
ĠMa tisse
bo ts
ĠMi h
ĠVer cors
ĠHol lywood
Ġtrait ant
Cl oud
Ġconsta ter
Ġracon ter
Ġtar if
Ġinform ation
Ġinten site
Ġchau ff
Ġsex uel
Ġorigine l
ĠLim ousin
Ġsil enc
Ġpous sent
Ġspirit ualite
couv rent
ĠMos ley
Ġindivid uel
Ġradic aux
Ġfamili ales
Ġclo ches
ĠPaci fic
quare lles
ĠMet z
Ġhui le
Ġfondament ale
Ġfal lu
Ġjuri diques
rastru cture
Ġcouver ts
Ġmini ature
Ġpun ique
Ġscand in
Ġcontribu tions
hab il
Ġexam ine
Ġatti rent
ĠBert rand
Ġintellig ence
Ġescal iers
ĠLet tres
rud its
Ġannonc ent
Ġfile t
alley rand
ouch ure
ĠLap ize
ĠChu zzle
ĠSat y
ĠMade leine
ĠbÅĵ uf
Ġdestru ctions
Ġfaubourg s
sep tie
Ġdistingu ent
Ġdictat ure
Ġghe tto
ĠTay lor
ĠCatal ana
Ġtene ur
ĠScu deria
ĠEnf ers
Ġdoctor at
hame d
Ġjux ta
ĠChuzzle wit
0 6
A z
D an
D uc
E t
G T
G uy
L iv
M us
M aur
O d
R hin
S ae
S ophie
T occata
Y ves
b rai
c d
e z
f action
g rand
l ouse
r he
s ans
s ter
s aison
w er
y ne
z be
Î ³
Ġ ...
Ġ osse
Ġ ÅĴuvres
Ġd urs
Ġl unes
re mment
Ġp iles
Ġs ti
Ġs ic
Ġs age
Ġs cri
Ġs ienne
Ġc rises
ti mer
Ġe urent
ou tre
er re
Ġm g
Ġm ers
Ġm out
Ġm iel
or ologiques
il iens
Ġf rus
ra ines
ra mides
Ġen j
Ġdes criptions
Ġre part
Ġre belle
Ġv as
Ġau dio
de mp
de rer
si en
si ves
si fs
ĠC aire
ta uration
Ġb oire
ol ent
ĠS ac
ĠS ad
ĠP roche
ĠP ip
Ġg ib
ĠA ud
Ġj un
Ġj adis
ue use
ĠB ing
ĠB ath
ĠB uilding
ran o
un animite
Ġpro cession
Ġsur re
ĠD ah
ĠE v
Ġme urent
Ġch ore
Ġch angent
ul us
ĠT rin
ĠT alleyrand
ĠR ox
ĠR ATP
ĠG asc
ĠG roup
Ġh andball
Ġr hin
Ġne utre
ĠJ uif
ĠN ar
ĠN assau
ĠH az
Ġex terne
Ġex cent
ts burgh
and in
ir onie
onn a
Ġav ois
Ġtra duite
ĠV el
ord onne
tr ans
ub es
Ġcons oli
Ġtr istes
Ġcomp ens
ens uit
Ġar bor
Ġal p
Ġal ph
ay rac
Ġper dus
ĠCh ester
Ġmon arque
Ġdis crimin
Ġro cher
ĠPar tisans
Ġcar ros
Ġes tiv
ĠDe my
int he
cl use
cl ara
pp en
th es
Ġsou mission
lo in
lo ve
qui ers
Ġsy me
lan ter
rou ille
Ġri te
Ġcou reurs
Ġcou tume
ner ie
Ġexp liquent
Ġ9 6
opul ation
ĠSe cret
Ġph os
Ġass istent
val les
Ġ8 3
ĠPe mber
An tarctique
anne xion
20 19
Ġ10 5
mar re
Ġhabit ude
Ġcontra cte
Ġouv rent
ĠIn dia
ak h
ah n
gra le
Ġref roid
ene z
cla rer
amb assadeur
Ġdire ctions
Ġdeven ues
inter roge
Ġsor ties
Ġreconn aissant
Al fred
Ġpil ier
aci ens
ĠBer ger
ĠSte ad
ĠJu de
Ġorigin aux
ĠChe lem
ager ie
ysi que
na se
ĠCor se
200 2
Par alle
Ġcombat tant
Ġenv oyer
Ġsenti er
Ġpropos ant
Ġlog istique
ĠMc Donald
fini tif
Ġinstru ctions
ĠTra duction
ĠPort rait
ĠSy d
Ġrais onn
ĠMor eno
Ġly rique
Ġmassi vement
ĠFor est
Ġprogressi f
ĠBra wn
ĠCro atie
Ġ183 4
Ġrecons truire
Ġouver tement
Ġmur aille
Ġorient ation
ĠUnivers alis
Ġtrouv a
emb ar
Ġdynas ties
Ġhab ile
Ġcomment ateurs
gis lation
Ġhos tiles
Ġrenouve llement
Ġsex ualite
aque duc
Ġorigine lle
Hen ry
Ġperman ent
Ġfaibles ses
ĠWar ren
Ġinves ti
Ġiran iens
mit age
ĠBri an
Ġave z
Ġpale t
ĠBru ce
Alexand rie
quare lle
Ġappare il
Ġmig ration
Ġlou tre
Ġmascul ine
Ġcouver tes
Ġunif ie
aband onner
ĠRon ald
ĠPen gu
ĠGir ard
accep ter
Ġty ran
Ġane cdo
Ġdign itaires
Ġsignifica tif
Ġsacri fices
ĠMod ern
enny son
ĠSpar te
ĠRec ords
exce ll
Ġmob iles
Ġsoud ain
amph ithe
ĠBak er
Ġglaci aire
Ġgent leman
Arg entine
relie fs
ĠFrances co
ĠChac un
ĠMaxim ilien
Ġnave tte
Ġlill ois
ĠPublish ing
otyp es
Ġpertur be
Ġplaf ond
ĠDak ota
ĠMagh reb
Ġemm ene
inaug uration
Ġsingu lier
Ġmiti ge
ĠPember ley
A ir
A lice
I ll
S er
T rans
X I
Y ork
d ites
g t
g oi
g ger
g ovine
i ane
k on
l ui
m use
n al
o ke
p assent
s accord
t onn
v ing
z ig
Ġ q
Ġd ot
es ques
Ġp aires
Ġp air
Ġs op
Ġs tim
Ġc og
te d
er on
or ti
or am
or chest
il ise
Ġen te
Ġt rie
Ġt asse
Ġt ache
Ġt uy
Ġt sar
est one
ĠL yn
ĠL ight
ĠL ynx
Ġn ue
Ġv us
Ġau dac
ch ique
si ens
si aste
ĠC are
ta h
Ġb illet
Ġcom tesse
ĠS ang
Ġpl ainte
Ġpl umage
ĠP av
ĠP ire
ĠP orsche
ĠM ap
ĠM iller
Ġg ise
âĢ Ĳ
ci enne
ci ola
ĠA wards
Ġpour vu
ĠB onne
ĠB all
Ġin visible
Ġin vasions
ter sbourg
un st
Ġsur nature
ĠD ombey
ff es
Ġpe ints
ag u
ag le
ĠT ennyson
ĠR ail
ĠR ingo
che l
ig o
op ol
op olis
ĠH ai
ĠH os
ĠH ome
ĠH achette
Ġex haus
ins tein
ir rigation
onn aires
Ġtou chant
Ġtou chent
par ts
Ġcont am
Ġar te
Ġar cs
Ġar moiries
Ġal s
ond o
Ġ18 28
ĠK it
Ġpo table
ĠO ut
ĠPar fois
ob y
ob ates
ob lige
mb ert
Ġor ange
Ġser vait
fe ctions
til l
pp er
Ġcre v
19 60
19 84
19 81
lo pe
Ġman ches
Ġcour rier
Ġrep orte
Ġrep oser
Ġrep osent
alis ateurs
ca pe
Ġgra in
Ġvers er
cul ture
ges tion
ĠAl ge
Ġcap tivite
Ġtrans g
vis ionn
ĠNe u
tro ph
isse urs
Ġapp liquer
gi ale
Ġforme lle
Ġ15 5
oul os
20 14
vo tion
ĠMe k
ĠBe ck
Ġsol enne
Ġsol lic
Ġmont agn
ĠAu di
ĠAr istote
Ġhabit uelle
Ġinc en
app liquer
Ġag ite
Ġdev ra
Ġdev ise
auv ais
aur ais
Ġcapit ales
ĠCl int
ĠSh ang
iti alement
ĠJohn ny
Ġplu mes
aff irmer
ĠRob erts
Ġva che
ax os
Ġpuiss antes
Ġfour neau
Ġjou it
cre ts
aud it
Ġaccue illent
gu ay
loi gner
ĠCom ne
ĠFre e
sul tant
Ġ188 4
Ch am
Ch aque
Ġdra peaux
ĠCo ch
ĠPer cy
ĠKe vin
Ġchois ie
Ġloin tain
Ġnu ages
Ġnu its
Ġsenti r
Ġprofessionne lles
onner re
Ġfranch i
Ġbr illant
Ġautor isation
Ġiden tifier
Ġhar pe
Ġmine ures
Ġ180 3
Ġcommand itaire
nis tique
Ġcli matique
Ġfant aisie
Ġbibli ques
bar rasse
ĠBay ern
Ġfau con
Ġouvert ures
ĠHer mann
zz i
histor ique
cou ter
cou blac
Ġrecue ils
Ġmonument ale
ĠLib erte
Ġprotest antisme
Ġlour d
Ġvo ila
Ġglob al
Ġpeup lement
fend u
Ġcollec tifs
gen tin
Ġral lier
Qu ant
ĠCat alogue
pand u
Î¿ ÏĤ
Ġprovo quent
Ġtur que
ĠMu hammad
Ġtram ways
Ġtroupe aux
Certa ines
Ġcade t
Ġtab ac
Oise au
nar iste
ĠCass ini
Ġattent ats
oub li
Ġdoig t
Ġsubst ance
empare r
servoir s
ĠRig as
Ġfrapp er
ĠColle ge
Ġfres que
Ġrecouver te
ĠApp le
Ġcadav re
Ġloy aute
ĠTok yo
assan ides
Ġraccorde ment
ĠKuns th
Ġmour ut
ĠBrook lyn
pau les
artis anat
Ġgalax ie
Alle mand
Cal ais
Ġtriom ph
Rob ert
ĠElli ot
Ġaffron tements
Ġpatin oire
ĠPlas modium
specta teurs
ĠJew ish
Ġenseign ants
ĠAfric an
armer ie
teh ude
Ġlivra ison
ĠPhilli ps
. âĢĲ
A de
B I
B ar
B enz
C et
H ug
O rs
P ays
S P
b s
b ell
f ensive
f ilm
i rique
k es
k ine
l at
n g
n ac
n ord
p il
p ense
r ary
t onnant
v ance
w ork
z ion
â ģ
Ġ ÏĢ
Ġd ol
Ġd ois
Ġd ors
on iennes
on ciation
Ġa ides
Ġa irs
Ġs aute
Ġc ors
qu it
er nes
Ġm ord
Ġm aires
Ġm iss
il as
Ġf aille
Ġf arine
ra ille
Ġt um
Ġdes po
us ai
ro te
ro drome
ve illes
Ġpar se
ĠL ow
Ġv int
Ġv ignes
Ġv ierge
Ġ1 000
ri om
ĠC N
Ġb oy
Ġb ourgeoise
Ġse g
ĠS ai
ĠS ut
ĠS ound
ĠP or
ĠP oul
ĠP oin
ĠM P
ĠB rie
ĠB ord
Ġin hume
Ġsur vol
ĠD ante
Ġ2 70
di de
ab i
ab u
ab olition
ĠT oy
ĠR alph
ĠF ils
ĠG amb
Ġh ame
oc al
oc currence
Ġdi agon
tte ur
ap oge
ĠN oir
ĠH ors
la teur
and ra
Ġmo que
Ġtra ve
Ġtra uma
ĠV es
ĠV iv
ĠV ari
Ġcomp as
um s
ĠCh anson
ĠW o
ĠW iki
Ġcar dia
Ġanne xes
ĠMar che
ĠMar celle
ron ic
ass a
Ġfil me
Ġsou fre
Ġsou tiens
19 12
19 33
Ġat titudes
Ġinter valles
Ġcontre partie
emp loie
ĠAn gers
titu tions
Ġtour nent
cher esse
lu ent
Ġmin u
Ġmin or
Ġconf id
Ġnota tion
but ant
ĠNe g
Ġ8 1
Ġ8 4
Ġ8 7
Ġoff randes
Ġrom ance
Ġappar tenu
vers es
20 17
Ġsol itude
veloppe ments
ĠAr tis
mar que
mar ins
ĠIn te
ĠIn done
Ar senal
Ġsoci alisme
Ġinc onscient
Ġpasse relle
Ġdou b
Ġsub ventions
ail li
app uyer
amb ition
Ġpass a
cur rent
gn ons
In done
ĠNew man
ĠFe li
ĠHen riette
ĠSp ace
dit ori
tend ues
Ġmul titude
ĠRo han
dia tique
partement ales
Ġsuper vise
pi rations
Ġpein tes
Ġ185 9
appe ler
Ġvic om
Ġsais it
Ġble us
Ġir onique
Ġlum ino
ĠPort o
Ġress enti
Ġlim it
Ġbr ux
199 0
199 8
Ġdiver tissement
arra is
ĠNouve l
Ġchap ite
Ġbibli ographie
Ġrefus ant
ĠRou ge
Ġlois ir
Ġfix er
tache ment
quip iers
Ġeffec tive
Ġphilosoph es
mat ographiques
Ġrappe le
Ġperdu es
ĠHor se
ĠLib rary
ĠCour onne
Ġrassemble r
Ġcos tumes
har mon
Ġprotest ant
Ġprotest ation
195 5
Ġtop onyme
volu ant
Ne w
Ġpoly techn
Ġber be
Ġnaz isme
ĠSar ah
ĠBill y
Ġcle f
ĠPo ke
Ġpropor tions
cro pole
Ġinstall ation
ĠMy ste
ĠMel un
opp osent
Ġsignale r
Ġlou tres
ĠCam argue
ĠBlan cs
Ġtroupe au
Ġparten aire
Ġstatis tique
ĠHa endel
Ġnoc es
ĠMari anne
Ġsynag ogues
tropol itain
Ġcoqu illes
abs traction
dica pe
hip po
Ġaccus ations
Ġmagn ifique
Com te
Ġcoord onne
Ġsoigne usement
Ġgu ise
kk ad
Ġarg ument
niti ens
Ġincident s
auss mann
ĠIsrael ites
ĠFis cher
Ġsimpli fie
ĠFernand o
Ġintri gues
ĠLaff ont
Ġapproxim ativement
Ġconstruis ent
ĠRy an
ĠExp ress
Ġbouc lier
Ġminer ai
Ġconvic tion
ĠPit tsburgh
fun ts
ĠByr d
Ġconjoin tement
Ġfoot balle
ĠMih ail
Ġrhin oce
ĠMek onnen
Ġlumino site
A L
B S
C ulture
C olle
D A
E ast
F L
F re
G C
I ls
N az
S u
c isme
c ke
d n
e urope
f ar
g ant
g ol
g ru
g alise
h m
l ats
m iss
m estre
m igration
n an
n ale
n cide
n urie
o inte
r onne
v ra
w at
z ar
Ã °
Ù Ħ
Ġd ent
es e
on ies
re tte
Ġp aire
Ġp ile
Ġp ension
Ġp illage
Ġde mie
Ġs un
Ġs crip
Ġc ig
te ctive
ou ches
ou gh
le in
in ale
ar gile
Ġla ine
Ġla ure
Ġla titude
Ġf as
Ġf ib
Ġf iance
ra illes
Ġen che
Ġen vie
Ġt es
Ġt orn
ro pe
Ġpar venus
ĠL t
ĠL ance
Ġn aine
Ġn appe
se ignement
ch s
ch io
ri tie
si astique
ĠC u
ĠC ur
ĠC ler
ol ation
ol at
ol ari
ĠS ul
ĠS imp
ĠS tern
Ġpl aint
Ġcon cile
ais ant
ĠP es
ĠP uy
ĠM ous
ĠM ouve
ĠM ik
ĠA ik
ĠB ros
les i
ĠD ave
di lection
Ġou i
ĠI gn
ĠT ort
Ġson ates
ĠR ien
ĠF A
ĠF aus
ĠF oun
ĠG ardin
Ġh ind
ig ie
ig ra
ĠLe b
ois y
Ġsu ites
ins tauration
Ġra se
Ġra ids
and a
Ġpr ud
ĠV il
ĠV ivaldi
et tes
imp r
ad oles
av y
ĠCh in
ĠK il
ĠK om
ĠK ings
ĠK urt
Ġmon ot
Ġ3 20
Ġcl oi
Ġrec ouvre
tra cteurs
ris ent
Ġres tituer
ong er
Ġcol lier
Ġsou vient
19 50
19 28
con tinent
olog istes
id feld
Ġpartie lle
Ġhe bdomadaire
lu des
Ġcor nes
Ġmin ce
all as
ud son
Ġ17 80
Ġca us
ĠNe uf
Ġ7 3
Ġprodu ites
Ġquat u
Ġapp ui
ann ing
velop pant
An atolie
Ġappar tements
Ġent ourent
agn ols
Ġli ons
Ġcontra dict
ak s
gra phie
Ġsoci o
Ġporte urs
Ġrest ri
ĠFranc s
Ġdev anc
cur seur
son ance
cis er
Ġdess iner
Ġess entielle
Ġclasse ments
tic o
ĠSh ack
ĠPh yll
Au jourd
Ġsupp oser
Ġjam be
ital ien
Ġ11 5
Ġposi tionne
ĠBar re
Ġmor ales
Ġviol entes
Ġw estern
hi o
ĠCan al
Ġbon te
Ġbon us
ĠSa w
ĠBer ne
ĠBer ry
Ġmuni tions
ĠSte f
ĠSp or
moi gner
ĠWal lace
Ġdra p
ĠPer cher
Ġfigure r
Ġaccomp li
Ġfavor isant
enf er
Ġ184 2
Ġaband on
Ou en
Ġpatri otes
Ġdeme ures
ĠJose f
Ġsuff isant
Ġaccep tent
Ġbal les
ĠGra m
ĠGra ham
ĠGal adriel
Ġadop tent
Ġrespec tives
Ġru de
Ġmeur tres
Ġimm igre
ĠVal entin
Ġvois inage
Ġvend ent
ĠBon o
Ġphot o
Ġfau visme
Ġrac ine
Ġrecue illi
Ġquin zaine
Ġconcep tions
Ġseigne urie
Ġtransform ant
ĠMin h
Ġpot entiellement
Ġvo ter
Ġsup ers
ĠFrank enstein
Ġgraph iques
Ġtest ament
Ġvia duc
Ġchan ter
Ġcompare r
Ġber ger
Ġus ine
Ġus ages
Ġvan ite
ĠGuy ane
adap te
Ġsauve tage
Ġprati quent
Ġcycl ables
Ġradic alement
Ġsuffis ante
Anne xes
Ad our
Ġaf ricain
thiop iens
ĠAg uri
Ġfal aises
ĠDal ayrac
Ġbourg ui
Ġth at
Ġestim ant
Ġanaly tique
icon ographie
any me
Ġautrich ienne
Ġom nis
Ġarchitect urale
Ġampli fie
Ġracc our
Ġfisc alite
Ġcr ues
aph ae
Ġvamp ires
Ġafflu ents
Ġhan dicape
Ġbour se
ĠRes e
Ġdiale ctes
Ġlanc ent
ĠRig aud
Ġprotagon iste
Ġbot anique
Ġiv oi
Gu illaume
ĠCarn ot
Ġobsta cle
dag og
Ġgymn astique
Ġgagn ant
Ġmerveille ux
Ġambitie ux
ĠIb n
ĠâĨ Ĵ
Ġnostal gie
Ġblas on
Ġpisc ine
Ġprofessionn alisme
Ġprotoc ole
ĠFantas y
Ġpromul gue
Ġaffi ches
Ġhumor istique
Ġhandic ap
Ġtouch d
habil itation
ĠSaty ricon
A mi
B en
D ieu
S tra
X V
a taires
c at
d ennais
h is
k an
k ar
k as
k uil
l able
n omb
o en
p tes
p po
p irent
q i
r ille
r antes
s k
t op
v ara
Ê »
Î ¼
Ġ ombres
Ġp ique
Ġp ompe
Ġa ler
Ġc ord
Ġc alif
Ġc uite
ti ces
ti gation
in ateurs
ar isme
Ġm ale
Ġm oule
or f
om sky
Ġt s
al u
al able
ro site
Ġdu rer
ĠL anc
Ġn aissent
Ġv ogue
ch os
ch af
ri os
si des
ĠC un
ĠC oc
ĠC ris
ĠC oup
ĠC ross
Ġb uis
Ġb av
Ġb ide
Ġb orne
Ġb rosse
Ġb riser
Ġun is
ais ser
ĠP UF
ĠM F
ĠM ine
ĠM ing
ĠM ode
Ġg lac
ci ente
ĠA de
ĠA ri
ĠA che
ĠA ward
ĠA rena
Ġj onction
li o
li fe
ĠB aude
les cope
Ġpro c
ĠD et
ĠD ry
ĠE lectron
Ġme ubles
Ġch aux
Ġch ano
Ġch Åĵurs
ag in
ĠR oth
ĠR ico
ĠF rom
ĠG am
ĠG ouver
Ġh onte
ous ton
ĠN oire
rie lles
ouv rages
la te
ĠV ict
ĠIl lus
Ġcons istant
tu es
iv a
Ġal co
Ġentre tien
Ġ18 25
av ent
ĠK el
ĠK iki
Ġche p
ÌĪ .
ex istent
Ġro bus
Ġimp osant
Ġrec ourir
man y
ver gne
ric ts
Ġder by
Ġins titut
ass ure
ass ins
Ġcre ve
if ic
En cy
En seignement
ĠRe cher
Ġsi ff
emp ar
Ġab sents
Ġcou reur
Ġoc cul
Ġconf irment
Ġ9 4
ĠAl fre
od ge
Ġ7 47
tro spec
ren cie
ĠPe au
ule ux
one y
Ġreste ra
Ġ15 7
Ġsp l
Ġrap idite
Ġfer mer
Ġz oo
ĠAr te
ov re
Ġsce lle
Ġdro gue
Ġindi ens
Ġemp are
Ġcontra ints
Ġcontra diction
Ġliv rent
Ar istote
ak u
exp lication
ĠTh er
Ġsub al
acc ue
ĠFranc k
ras ses
ow ns
lic opte
aur aient
tic ences
vin ce
ian a
Ġpa cifique
Au c
dic at
ĠHe idfeld
ach im
car b
ess ai
Ġcir cule
ĠIs aac
Ġprofes seurs
ith kuil
Ġcoll ision
lam ite
ĠCons tant
oe b
ĠHar ris
Ġbi ographe
Ġqualif ica
Ġtri angle
Ġhaut bois
gyp tiennes
Ġ? ]
atta quant
Ġbre tons
Ġtend res
enf uit
Ġpian iste
Is lam
Ġ184 3
ĠSta tes
ĠMer cur
ĠGra y
Ġstation ne
ĠTro yes
Ġiniti atives
ung en
igh ts
aj out
Ġvari ante
Ġamb assade
Ġval u
Ġhar ce
Ġali mentation
Ġ180 8
Ġcommand ants
Ġintro duire
Ġcli ent
ĠGar y
uff at
ĠBr est
we y
Ġarri va
pon du
sh ire
histor iographie
cou rage
rup tions
emb ouchure
Ġchante urs
ĠLib rairie
ting s
Ġconcur rent
Ġconcur rents
Ġexplo iter
Ġquoti diens
194 9
ĠVie ille
Ġeng ager
ĠVille loin
Ġsex uels
Ġfrag ilite
Ġcroy ait
Ġnorm al
Ġmu tations
Anne cy
ĠRa vel
ĠFal ls
Ġtur c
Ġtur cs
obs curite
Ġfondament aux
Ġrattache ment
ĠGab rie
Ġreli ques
ĠCer cle
Ġtribun aux
ju dice
Ġdiv orce
ĠElie zer
Ġabond ante
Augus tin
Ġregroup ent
Ġrecon que
Es coublac
Ġferrovi aires
Ġethn iques
ĠHy dro
Ġstric te
ĠRic ardo
Ġdiale cte
Ġneut ralite
offici ers
Ġindic ations
Inter national
ĠGold en
ON U
ĠbÅĵ ufs
ĠArch ives
Em ma
ĠColomb ie
Ġobsta cles
Ġsolid arite
Ġarra che
Ġaveug le
trop oles
ĠPoi tiers
ĠVladi mir
ĠWords worth
ĠCarac ciola
Ġlocomo tives
terris sage
ĠBian chi
ĠNel son
Ġbulg are
ĠSyd ney
riom ote
Ġminu tie
ĠGardin er
ĠRese arch
A BC
B lanche
C omp
C atherine
D el
E T
E ur
E ste
H ol
H istor
I A
M or
P ont
R ich
T ou
T ourn
V ille
b r
c ans
c ours
c ate
c asse
c roi
c iter
d ay
e ut
f ensif
h aw
h ouette
i ait
k ir
k lope
l ob
m ul
m ide
m oli
m ographie
n ne
n ations
n ides
o he
r arch
s ine
s ins
t le
v ingt
Í Ĥ
à ¤
Ġ ondes
Ġd ames
en voi
on ia
re d
Ġs n
Ġs omp
Ġs illage
qu age
qu iv
is taient
in titule
er ick
ent on
ie z
il ienne
Ġf ui
Ġf iss
Ġt arde
us te
us sie
ve te
Ġn ain
ch ot
ch ire
ri um
ri alisme
res sionne
ĠC assi
as ka
Ġb attus
Ġse xes
Ġun i
ĠS port
Ġcon ife
ĠP il
ĠP ow
ĠP ost
ĠM aure
Ġg ang
Ġg rise
at ou
ci ces
ĠA re
li ph
Ġin vent
ĠD je
ĠE le
ac er
ac que
ac tifs
Ġpe lot
ag isse
ab a
ĠT ito
ĠR ue
ĠR ex
ĠR ameau
ĠF ili
che lles
ic us
ic iel
ĠG our
ĠG org
am an
op portunite
ĠLe onard
vi o
ĠN er
ĠN axos
ĠH ipp
ĠH unt
ĠH ockey
ĠH ubert
Ġsa ti
la des
Ġra v
el in
tique tte
Ġcons tat
ard es
Ġac cess
ad vers
ĠW is
ĠW ins
ĠK ap
Ġter reur
ĠO h
ĠO rig
ĠO ctave
ussi r
Ġes c
ten tions
Ġres cape
ser te
min a
min ence
fin is
Ġcol omb
Ġjus tesse
ass oci
Ġsou tenant
Ġsou cieux
19 77
19 72
ĠRe yn
Ġinter rog
lan cer
crit ures
Ġgrand it
Ġab attus
Ġcommun ales
Ġexp erts
omp son
to ise
Ġpubli ent
Ġk o
ia vel
ze tte
Ġvis ions
Ġapp orts
Ġapp ortant
Ġcul tiv
Ġrom pre
uit ton
Ġappar tement
Ġmort es
Ġcro i
ich y
Ġcas que
ĠAr mand
Ġchamp ionne
avi ons
Ġappe ler
Ġhabit udes
ĠIn di
ĠZ h
assi que
exp loit
exp ulsion
ĠTh ib
nation ale
Ġret arde
Ġret ombe
Ġten us
land aises
sy l
ĠOn line
Ġreg agner
ĠCl y
ĠSh aw
ĠSt and
Ġmondi ales
pond ent
Ġposi tifs
Ġpu p
Ġ[...] ,
aff en
Ġfra cture
Ġanim ales
Ġanim ateurs
Ġbar ons
Ġbar be
Ġrel at
Ġven ger
ĠIs abelle
Ġmor tier
Ġdispar ue
Ġsty lise
sid ant
Ġprom esse
Ġprom esses
ĠLu cy
dit ation
Ġbat teur
ĠCo oper
Ġsau ter
Ġcra ignant
ĠCor fou
Pour tant
Or chestre
Ġord inaire
col m
Ġ179 5
Ġstation nement
ĠWe ber
ĠBro ck
Ġrais onnement
Ġimm igrants
Ġdocument aires
Ġamb igui
199 2
199 3
Ġcav ite
Ġhar monie
Ġperd ant
occup ant
pit he
ĠDeux ie
Ġ183 3
Ġphot ographe
Ġcondam nation
ĠTur in
ĠLib ye
ult ures
Ġbel ges
194 4
Ġchau ds
Ġmonop ole
Ġcollab ore
Ġappro fon
ĠDon key
Ġcam pe
Ġsurve ille
ĠRam se
pour vu
ĠCamb ace
Ġred dition
Ġsav ait
Ġradic ale
avance ment
bi han
inn oc
inn aeus
Ġrecru ter
Ġlinguis tiques
ĠCamp bell
Ġestim ation
Ġmodern ite
instru ments
Ġguit ariste
ĠLar ousse
ĠPortug ais
Ġsouter raines
Ġfie f
ĠTw ain
Ġastron omique
exer ce
Ġrig ide
Ġenseigne ments
Her ze
clenche ment
ĠBart he
Ġbrou illard
quisition ne
Ġgrav ures
Ġvertic ale
hard t
Th omas
Ì£ ÌĤ
Ġpromen ades
ĠHow ard
Ġsignifica tivement
Ġvar ier
Ġsuscep tible
Ġaristocra tes
mati cien
him a
Ġenthou siaste
sel f
Ġmanuf acture
Ġconvertis seur
ĠCit roe
Ġoccasionne llement
Ġaqu atiques
ĠMach iavel
fig ure
ĠTin tin
Ġcorrec tement
Ġarbit res
Ġabb ayes
Ġyou gosla
Ġcaroling ienne
omor ph
Ġspons ors
Ġtranqu ille
Ġrassembl ent
ĠAnth ony
Ore gon
ĠEll en
ĠWolf gang
Ġanc est
Ġprestigie use
iros hi
rapeu tique
ĠCochin chine
Oli vier
Cont rairement
isole ment
ĠStal ine
encad rement
ĠPomp idou
ĠTS V
ĠZam ora
Ġfaus ses
ĠDauph ine
Ġchauff age
Ors ay
ĠMihail ovic
Naz aire
ĠAik man
ĠFoun dation
Ġcontradict oires
ĠMercur y
C I
D S
D avid
G M
G o
I sp
P ort
P rin
T outes
U SD
] )
b ru
c ueil
d os
i ke
l en
m no
n est
n ia
p y
p ortation
r iste
s oci
s ote
s terre
w al
w ak
Î ¸
Ġd oue
en vis
Ġa igue
Ġc ue
Ġc rus
te x
ou til
ou ks
in alite
in dustri
er tes
or o
or ance
om en
Ġen n
Ġen chante
me urs
Ġre quin
Ġre tenus
Ġre quins
Ġpar agra
ĠL oc
Ġn aines
Ġn atures
Ġv otes
Ġau tiste
de ll
ĠC ow
Ġb acte
Ġb uff
Ġb ague
Ġest ampes
ĠS oci
ĠS ouvenir
ĠS itue
Ġ( +
Ġpl ages
Ġpl astique
ĠP s
ĠP ous
Ġg laces
Ġg aulois
Ġque relle
ci me
ĠA ge
li ant
ĠB ul
Ġin cul
Ġin vention
Ġpro di
ĠD au
ĠD uf
ĠE u
ĠE mer
ff re
ul o
ĠI de
ĠI rak
ĠT ype
ĠF ren
ic ite
ĠG allois
ĠG anyme
Ġh ome
ig g
ĠN ov
ĠH ain
Ġex ister
onn aire
onn alite
onn aise
Ġav ancer
ĠLa v
ĠV a
og un
tr iser
par d
Ġcont ribuer
Ġ18 18
Ġ18 21
ĠCh ant
Ġmar x
ĠW affen
Ġno tions
ĠK ie
ĠK id
Ġ3 30
ill usion
Ġro bot
Ġfe ux
ob sta
Ġcl os
ĠDe v
mb erg
ver y
Ġma mel
ĠMar ne
fe u
min ente
Ġti rent
ass istance
Ġsou pe
Ġsou cis
19 78
19 16
19 70
19 63
19 74
19 71
lo ise
Ġat tri
Ġinter dits
iss ing
Ġman oir
Ġman quer
rou ler
Ġcontre r
ĠAn tarctique
Ġtour mente
vel ock
Ġsit uer
Ġcor pore
Ġaut oportraits
Ġexp lications
all y
ĠSe ul
Ġph ar
ĠAl ber
Ġass ume
ĠNe ue
Ġk ine
ste ll
ĠJo an
dition ne
Ġpri mes
Ġappar ait
Ġappar itions
Ġsp i
20 15
gue il
Ġz ortziko
Ġcan ots
Ġmes urant
ĠCar ne
Ar ch
Ġinc roy
Ġmis sionnaire
ĠTh race
ĠTh ompson
Ġsub je
Ġess ayer
Ġann uels
Ġconser vant
tic us
Ġcapit aux
cess itent
Ġcoup ure
tionne lles
Ġviv aient
Ġdirec teurs
Ġdisp utent
Ġroman tiques
ok usai
aff luence
ĠBar on
ĠCon rad
ĠMal heure
Ġreven ant
can iciens
Ġlongue urs
gu ise
Ġfle uves
ĠTe le
aye tte
oll um
Ġbat teries
lev ages
Ġcit ation
ĠKe aton
no tice
ĠCor poration
cie use
Ġpatri arche
cor atif
Ġord inateur
appar ente
appar aissent
sur rection
Ġfourn issant
Ġlog iquement
ĠFran che
Ġsembl ant
ĠSer bes
ĠMo hamed
Ġgros sie
don ien
Ġsouff ert
ĠPort al
ĠMor ris
199 6
Ġautom ne
Ġmultip lication
ĠSal v
ĠSal onique
Ġval oir
Ġval ide
Ġali ments
Ġvend ues
Ġradi os
Ġ180 1
ĠAd rien
ĠChamp s
comp te
comp enses
Lors qu
ko zy
Ġpor c
Ġsuivi es
Ġgal op
Ġphysique ment
Ġchante use
Ġquin zie
Ġexer cice
Ġhab its
Ġmonument al
Ġcircul ent
Ġstatue tte
Ġtransform ations
Ġdiscip les
ĠAt las
Ġobserv ation
fend ue
zon i
Ġcollec ter
ĠConc orde
Ġfi able
ĠSar kozy
clam er
ĠHo h
Ġlic orne
ĠLou ison
Ġbu lle
Ġment alite
Ġviolon iste
Ġcompos antes
non ciation
Ġcade au
berge ment
Ġcouvert ures
ull man
Ġadmi ration
Ġhon ore
Ġcouv rir
Ġgratu it
Ġaustra lien
Ġinsur rection
Ġcart ouche
ĠBulg ares
ĠLis ieux
ĠLis bonne
ĠNa omi
Ġressembl ance
Ġbass on
Ġsoulig nant
Ġcrimine ls
Ġenthou siasme
cli pse
arri ver
Ġabrit ant
ĠYe ar
ĠKy oto
orig inalite
Ġhonne urs
boy s
ĠAnn ales
Ġordonn ance
Ġso bre
Ġaccidente llement
Ġplant ations
ĠDj er
graph ique
Ġdil ig
Ġhong rois
Ġpira tes
Ġcry pte
Ġchrom atique
pons es
Ġtaure au
Ġgend armerie
ĠKok osch
Ġdomestic ation
attent at
ĠTerrit oire
mancip ation
ghan istan
Ġchauss ures
Lou ise
Ġincen dies
Ġhame aux
ĠLt d
ĠMouve ment
ĠBaude laire
Isp ahan
sterre ich
ĠMalheure usement
ĠKokosch ka
B ois
E do
F SA
I riomote
O E
P G
P ic
T oulouse
a tis
a heim
b ras
c roche
d ar
d ul
d aient
f ax
g ier
g ens
g oth
h ad
k os
l ations
l isme
m atur
m lung
n ers
n ies
p un
r ill
v ang
z es
Ã ¸
ã ģ
Ġ ol
Ġ ion
Ġd ose
en ing
re aux
Ġp ans
Ġp iv
Ġp amph
Ġde c
Ġs is
Ġs he
Ġs quare
Ġs ocle
an iste
Ġc ore
Ġc ibles
ti al
ti ts
qu ations
le ttes
ent z
ent hou
Ġla me
ne aux
Ġm aux
or al
il de
Ġf oire
om et
Ġen veloppe
Ġre cule
ĠL er
Ġn oue
au er
Ġv ies
ch ats
ri rent
ri ple
ĠC is
ĠC ru
ĠC ave
ĠC rime
Ġcom tes
ĠS en
ĠS ah
Ġpl ay
ĠP rom
ĠP tole
ĠM it
ĠM are
Ġque relles
at tel
ĠA lesi
Ġj ac
li orations
Ġqui conque
he l
ĠB og
ĠD ord
Ġch ou
Ġch al
Ġou t
ag h
ĠI tine
ĠT ai
ĠR he
ĠR oll
ĠR angers
end s
ĠF ri
ĠF rescobaldi
ĠF BI
ic aux
ic ke
ĠG est
ĠG ino
ĠG erman
ort alite
ĠJ es
ĠJ enson
ĠLe fe
vi us
ous ie
rie t
ĠH ouston
Ġsa x
Ġsa urait
ouv riers
ins pirant
ir onde
Ġav ocat
ist o
Ġtra me
ĠV as
ĠV ard
ĠV ingt
ord onn
Ġcomp ression
Ġcont raires
Ġal gorith
Ġper cep
ad ou
Ġ18 19
Ġ18 11
ĠCh omsky
ĠK an
ĠK os
ĠK ad
tif ice
Ġdis cuter
ct uration
ct rices
Ġ3 000
ill us
ing en
sent a
oy d
Ġcar ton
Ġcl in
Ġcl ar
ĠDe wey
Ġimp ar
tra les
ris h
Ġmil lier
ĠMar sh
th od
th ane
Ġcol oration
Ġ5 50
En tente
Ġob ses
Ġsy l
Ġren om
je un
Ġenc er
uv olari
Ġconn aisse
cul a
Ġcor ve
Ġcommun isme
Ġsec te
Ġconf is
ĠSe la
ĠAl banais
Ġtrans vers
od er
to wn
Ġvie tnam
ren tie
Ġprop ice
Ġmus cles
Ġeff ra
Ġmai gre
Ġpri rent
ogra mme
Ġrom ancie
20 20
Ġvi des
Ġmat ri
Ġcro cod
Ġmet tait
Ġjeu di
Ġdiff user
Ġ10 4
Ġop te
Ġop port
Ġindi ce
Ġappe llation
Ġinc om
app rendre
Ġrest ru
Ġag it
Ġag ir
Ġag grave
ĠFranc fort
Ġten ues
pec te
Ġrend ait
In dochine
Ġatte le
Ġplan che
Ġplan ifie
Ġ11 1
Ġpal lier
Ġmer veilles
ĠQu in
Ġlivre t
Ġsal aires
Ġfour nie
Ġmuse au
ĠCons erv
ini ve
Ġving tie
ĠHar riet
gul ation
ĠCom te
oly te
Ġprog ress
lection neur
Ġhau tement
Ġtot alise
ĠMon et
Ġ24 0
Ġlut tes
Ġache mine
Ġtent ant
Ġchois issent
Ġbal ance
Ġlog iciel
ĠSer gio
Ġlim itation
Ġly onnais
hum idite
Ġlit urgie
Ġextra ites
Ġ180 5
Ġ180 7
Ġmas ques
Mar ne
Ġ183 9
Ġrecons titue
Ġrecons truite
Ġsimil itudes
Ġincl ine
Ġcontinu a
ĠAlexand rie
Ġnav al
Ġall oue
clar ent
Ġrat ta
Ġcommis sions
Ġperc ussion
Ġperc ussions
Ġsil houette
ĠBl ue
Ġnarra trice
Ġeffic acite
Ġsurve iller
Ġrede vient
Ġenvir onnements
Ġvan ille
lectron iques
Ab b
clam ant
Ġconsul ter
Ġpy re
Ġaf ro
Ġaf ricaine
ĠCalif orn
ĠEsp agnols
Ġcous ine
thiop ienne
ĠKh oi
deux ie
ĠCam ille
Ġexploit s
ĠPont oise
Ġestim ait
gisla tif
ĠAc c
tabil ise
ht ar
uts ch
plac ent
Ġtit ul
Ġcouv rent
Ġdange reuse
accep te
Ġaccident s
Ġfame use
ĠBoy s
Ġsoulig ner
Ġgym nase
hos tilite
Ġgren ouilles
ĠHob bit
Ġsacri fie
Ġfasc ine
Ġcrimine l
ĠNik ol
Ġbouddh isme
Ġgaran tie
ĠGard en
ĠVau ban
Ġcrist all
Ġexplor ateurs
affe ction
Ġautomatique ment
hol m
ĠLion el
Ġorganis ateurs
ĠClassi cs
Ġexceptionne lles
Ġadoles cents
ĠHard y
Ġasi atique
ĠBod in
ĠSher lock
Ġtom ate
Ġinu tile
Ġmotor ise
accro issement
abond ance
ĠBata ille
ĠDeuts che
Ġsque lette
Ġtrip tyque
Ġsoph istique
cler c
Ġpulmon aire
Ġphal ange
Ital ien
ĠSund gau
ĠBure au
ĠBing ley
Colle ctif
Ġchep tel
advers aire
ĠHain aut
0 9
A le
A ri
A kkad
B ay
H A
H z
H ong
I rak
M I
M T
P olitique
R en
R oger
U MP
U lysse
V oi
a q
d rique
d rich
f ille
g y
g ia
g ienne
h yn
i ante
i ration
l ag
m ig
n ous
o ter
p tion
r ds
s it
t est
z ard
Ġ ois
Ġd rain
Ġd iges
Ġl ich
Ġl omb
Ġl inge
re ct
Ġp ieux
an tique
Ġc ac
Ġc ancer
ti cien
le vant
in os
er ies
ent endre
ar ina
Ġm ouv
ur iers
ur gique
it ler
Ġf lots
ra p
ra tive
Ġt ante
ĠL us
ĠL apon
ĠL uther
Ġn um
au ban
ch u
ri ver
ri alise
si enne
Ġb ad
ĠS tr
ĠS use
ĠS ciences
Ġpl ateaux
Ġcon signe
ais ance
ĠP os
ĠM ut
ĠM ain
ĠM ir
ĠM all
ĠM assi
Ġg i
Ġg land
at tirer
at traction
Ġce int
ĠA qu
ĠA mis
Ġj ure
Ġpour cent
li ade
li ba
ue t
he ad
ĠB ack
Ġin duit
les te
les se
ĠD est
ĠD od
Ġ2 30
Ġpe ux
ĠI an
ĠT emp
ĠT igre
ĠR are
ĠF el
ĠF aure
Ġan ten
ĠG la
ĠG ues
Ġr umeur
am s
ĠN uvolari
ĠH in
Ġsa ou
Ġex act
Ġex hume
ins tabilite
Ġte intes
Ġo se
Ġpr estation
ord inateur
ub s
Ġcomp rime
iv ores
Ġar om
Ġal la
Ġfor c
ad ulte
Ġmar ines
Ġmar cher
tin ger
ĠK ans
ĠK reb
des c
oy le
ĠPar adis
ob server
Ġes sence
Ġes carpe
Ġrec omm
cip it
tru cture
ver te
ver ket
Ġor b
ven ues
ron autique
ass urance
Ġsou lage
19 83
19 37
19 61
19 69
olog ical
vent uelles
Ġob tenant
emp run
Ġpermet tra
cul ation
lu c
lu ge
Ġconc ilier
Ġcor p
Ġcommun ications
Ġaut o
Ġmin uscule
Ġ9 7
Ġ9 8
all ure
ĠSe id
but ent
Ġpopul arise
Ġ17 76
Ġ17 83
Ġca pe
Ġk ar
Ġim ite
Ġvis ionn
Ġapp r
velop pa
Ġpri ori
mer gent
Ġremp li
ĠMe ga
agn ac
Ġcro ient
Ġfac ture
Ġfac iles
Ġpres qu
Ġmes urent
Ġpolitique ment
ĠChar lie
ĠIn dien
Ġinc ohe
Ġfond ant
ĠTh u
ail y
app lique
cla ment
Ġrou tiers
Ġparc ourir
Ġ12 8
Ġpass ager
Ġdev oirs
Ġbut te
Ġpa use
Ġpa ternite
dic ace
Ġbou tique
Ġatte ign
Ġatte ints
aff aib
inter valle
car est
car ter
Ġreconn ues
ĠBar n
esp aces
Ġven aient
dif ier
Ġw ag
Ġple ure
ĠHar mon
ĠSte wart
ĠSp irit
anti quite
Ġst ocke
inc er
rom es
gyp t
Ġentrep rene
Ġpsych ique
ĠRo chelle
Ġremar ques
Ġaccomp agn
Ġ184 1
Ġ184 6
Ġaband onnent
Ġnu age
Ġamp hibiens
eff ace
Ġpatri mon
Ġquelque fois
col ter
col tes
ĠPhili pp
ĠSu ff
Ġir landaise
Ġinstalle r
Ġsembl ait
Ġpol icie
Ġsouff rir
Ġcherche ur
Ġbru talement
uge ot
Ġamb assadeur
ĠSc andin
ĠMor bihan
hum ain
nis tie
Ġintro duites
Ġcompar ables
Ġmyth ologiques
Ġdomin ic
com position
Ġguer rier
Ġregroupe ment
ĠCour t
Ġexplo se
Ġcos mique
Ġpros titue
Ġconsomm ateurs
ip po
ĠCap it
Ġsubs titution
volu ent
Ġperman ents
Ġ75 7
Ġlu car
Ġlu tins
Ġpure te
Ġsh ogun
Ġpou les
Ġriv age
sa ffe
Ġconcent rent
ĠConc ernant
Ġfi abilite
Ġcycl isme
Ġabou tir
Ġred oute
ĠâĤ¬ .
intro duire
arg ument
ĠNorm ands
ĠPan zer
Ġpy ramides
ĠBat z
Ġoblig ations
Ġinconn ues
ĠVol ub
Ġdo ter
hib ition
Ġjuri diction
Ġenvironnement ale
Ġsoix antaine
Ġom nipre
ĠBes son
Ġlun di
Ġcler cs
Ġpotentiel s
Ġpes ant
Ġdic te
Ġbanc s
ĠBoul onnais
kins on
ĠRod erick
inten site
Ġfisc ale
Ġressembl ant
Ġmens uel
IC N
conc iliation
Ġmarty r
puise ment
ĠPlut arque
ĠRub ens
ĠChron o
indivi dus
Ġassy rien
orig inal
ĠPun ch
ĠPrinces se
Em manuel
oura ger
Ġdorm ant
Ġmue t
Ġpoin teur
Ġvec teur
Ġhol landais
Ġindirec tement
Ġpomp iers
Ġlig ues
Ġintr inse
dioc re
Ġhybri de
ĠMist ra
Ġfaud ra
ampli fic
ĠConte mp
ĠCaste l
Ġrall ye
prin cip
cipro que
ĠThor pe
Apol lon
Ġremer cie
Ġbalk anique
ĠvÅĵ u
ĠGet z
Ġlocu teurs
Ġgigantes que
ĠBug atti
Ġspec tre
Ġflan cs
Ġopin ions
ĠWay ne
cd ote
demp tion
Ġjun gle
orchest ration
ĠPoin care
ĠWiki pe
ĠPhyll obates
Ġqualifica tif
Rich ard
syl van
Ġmamel ouks
enthou siasme
rds verket
ĠKreb s
A lexis
C roix
E uro
G au
H onneur
L in
M A
M on
M ari
R E
R IF
U l
V ie
b in
b our
b ien
b ah
c oll
d ures
d itaire
f orte
g ante
g ole
g oun
g rante
h ak
k is
l au
m ing
m ains
n ide
n ient
n oise
n agers
n oncer
o tisme
p res
p ers
p oir
p ays
p ines
r ins
r ues
y ork
Ġ Ø
Ġ ib
Ġ ombre
Ġd ater
es tement
Ġl and
Ġl uc
en h
en ay
on cle
Ġp ins
Ġp ond
Ġp ensi
Ġp anthe
Ġa be
Ġs tig
Ġc au
Ġc ock
Ġc umule
ou m
er ing
ar iser
ar bit
or iquement
ur ge
it ains
il h
Ġf ours
que ts
Ġen reg
Ġt onne
Ġre x
Ġre voir
Ġre mor
ro irs
ĠL l
ĠL ane
au teurs
au dience
Ġv ot
ch aux
ch ron
si gnent
ĠC O
ĠC ond
ĠC Åĵur
ĠC andes
ĠC aval
ta tique
ta dt
as ie
ai rie
ĠS I
ĠS util
ĠS illy
ĠS NC
ĠS assanides
ĠP on
ĠP aix
ĠM ys
ĠM EL
at um
at terrissage
ci m
ĠA P
ĠA i
Ġj ub
ĠB T
ĠB ai
ĠB oun
ĠB orne
Ġin he
Ġin done
ĠD ennis
di cis
os hi
ĠI ci
ure t
ĠT able
ĠR ai
ĠR ugby
ĠF a
ĠF leur
Ġan ges
Ġan gul
che f
che z
ĠG ru
ĠG az
ĠG ollum
Ġh isse
Ġh ameau
am is
am pe
ĠJ os
ĠJ enn
ĠJ unior
ain issement
op timis
Ġdi oxyde
tes ter
ap olis
ois onne
Ġsu isses
ĠN ES
ĠN FL
ĠH ur
ins tant
Ġte ll
la ves
Ġra j
Ġra ils
and ert
im al
ĠV ichy
ord inaire
tr ou
tr ui
et ton
rit ure
imp ro
imp osent
Ġcomp ense
Ġcomp ortait
Ġar thur
Ġal luvi
ion e
Ġfor fait
Ġper le
Ġper mission
ad al
Ġ18 22
Ġ18 23
Ġ18 24
av ons
ĠCh ira
ĠW ick
ĠW right
tin ation
ĠK on
ĠK ath
Ġfin issant
Ġpo il
Ġdis su
ĠÂ», ,
ĠO ce
ĠDe an
Ġpers an
Ġas te
ris sent
ver roe
La zare
ĠMar tine
ser re
Ġsou tenus
19 76
19 21
19 85
iss aient
vent uelle
Ġob se
Ġob tenues
Ġren fort
Ġrep li
Ġhe avy
Ġacc um
Ġgra de
Ġcor romp
Ġmin uit
Ġconf luent
Ġ9 3
Ġass ises
Ġfut ures
tro its
ru ple
Ġprodu ctivite
Ġprop ulse
Ġvis uel
ĠU SS
ann is
ĠJo hannes
Ġcul t
ĠY ap
oul is
ses poir
ĠMe morial
az ines
mar in
Ġop timis
Ġsce au
ĠChar te
Ġvol cans
gra d
Ġgouver ner
ĠZ ia
Ġinf anti
ĠTh orn
Ġenf er
Ġret ranche
Ġag ences
Ġcontin uellement
sy rie
Ġam ants
ĠCl aire
ds son
ouis sent
Ġfonction nalite
Ġsupp orts
ritann ique
Ġviv ante
Ġviv acite
ĠSon y
inter national
ĠSi oux
ĠQu int
ess ler
Ġva ches
Ġdist ricts
Ġpris ons
Al liance
ĠCon an
Ġsal ons
Ġtable tte
Ġsoi gner
Ġangl ophones
Ġcontro verses
Ġtrop icales
cta re
ĠMal colm
ĠGu ine
Ġatta quant
hi pp
util is
Ch amp
Ġmag azines
atta quent
Ġaccomp agnent
Ġcommerci alisation
Ġ184 7
cie uses
Ġrepro chent
Ġdeme urant
Or ly
aw ai
ĠGra ph
Ġchasse ur
ĠSu z
Ġphysi cien
ĠToccata s
Ġrespec tifs
Ġsouff rent
Ġvain cus
ĠEd mond
ĠCel tic
Ġtyp iques
ĠRome o
ĠAd olphe
Ġfant ais
bar rasser
af ael
Ġpap iers
Ġancienne ment
Ġfau ve
Ġexcl u
Ġpoursui vant
Ġconver tir
zz a
Ġpron onciation
Ġvou d
las quez
ĠLiv res
Ġrecue illir
ĠHor ace
moign ant
rest ations
Ġexcep te
Ġexcep tions
Ġvra is
ĠBu carest
Ġdiscip le
ĠAt ari
Ġoccup ation
Ġgui der
Ġvien nois
Ġproje tte
ĠPhil on
At lan
Ġexclus if
ĠBl ois
Ġgard ant
rif ier
loigne ment
Ġdescend ance
accomp agner
Ġmention nent
Ġabou ti
Ġinflu ent
ĠMiss ouri
vide o
Ph il
Ġauton omes
ĠGame S
Ġcuis in
Ġcous ins
ĠGue vara
fug ier
ĠBour bons
Ġmou les
Ġdesser vir
Ġfal ci
ĠMat th
ĠDal ton
ĠHistor ical
ĠHill s
ĠChris tine
Ġrus tique
lector al
Ġmons tr
ĠTw ist
ĠBonn y
Ġsan ctions
ĠAf ro
ĠJim my
orgue il
rio diques
Ġmod alite
Ġatti rant
Ġmaterne l
Ġdisper sion
Ġfantas tiques
Ġquotidienne ment
Ġpropag ation
ĠFou cauld
Ġjume lles
Ġharmon iques
ĠDum bo
ĠGro en
Ġaccus ation
Ġcylin dres
ridion al
ĠBarb ara
Ġfasc ination
ĠStu dy
Ġindic ation
ĠGri ff
Ġcaric atur
OM S
Ġfar ce
ĠDub ois
Ġimpro vise
effond re
Ġterror isme
ĠBus h
agi rait
Ġaugment ant
Ġprimi tif
Ġsam ourai
ĠCob ain
Ġrenv oye
Ġincont est
Ġbarb are
Ġbarb ares
ĠDoc teur
ĠMam m
ĠHay dn
ĠEngl and
Ġvictor ienne
favor able
sopotam ienne
Ġserv aient
Ġarb ore
Ġamplific ateurs
ĠFir st
Uru k
ĠSing ap
Ġcompatri ote
ĠMiy amoto
Conc ernant
Ġcharp ente
Cap itale
Ġarrond issements
Ġcommunau taire
Ġavanc ent
Pat rick
Ġinac ces
Ġcertific at
Ġextrater restres
Ġmouch oir
Ġruisse aux
Ġconfon dues
accus ation
Ġcivi ques
Ġtristes se
ĠCoch rane
ĠKunsth alle
Ġcompas sion
Ġvicom te
Ġomnis ports
Ġcreve ttes
Ġpelot on
attel age
ĠKhoi ak
ĠSeid man
Ġenreg ist
C E
C re
F ace
H itler
I mm
J ules
O TA
P R
S I
S M
S ch
S ans
S ources
a ussi
b ain
b et
c z
c omm
d ol
d ad
f amille
g ir
h il
h abilite
j ac
k t
m ait
m olition
n ich
p abilite
r ar
s itent
s agre
t ario
u lement
v aste
w est
} {
Ä §
É Ľ
Ġd or
Ġd ress
re l
Ġp ig
Ġp acte
Ġs ide
Ġs ho
Ġs trophes
Ġc rou
Ġc anne
ent ra
ar ticles
Ġla g
ur aient
us anne
us cules
Ġre quis
ant a
ro de
Ġdu rement
Ġdu cs
Ġpar ue
Ġpar ap
Ġpar ade
ĠL A
au berge
au dio
si tion
si fication
ĠC E
ta tive
Ġb ore
Ġb illard
ai gle
Ġun anime
ĠS oul
ĠS oph
ĠS ocrate
ĠP ent
ĠP ai
ĠP ac
ĠP resse
ĠP aco
ĠP CC
ĠM ise
ĠM ann
ĠA ls
ĠA my
Ġj oi
Ġj ung
li ennes
ue uses
he lle
he bdomadaire
ĠB id
ĠB oris
Ġin cess
Ġin dis
ter y
ĠD ig
ĠD ales
ĠD art
ĠD ern
ĠE dition
ac tive
ul tur
ĠI mag
ab ies
ab sor
ĠT ui
ĠR ing
ĠF ine
ĠF ritz
Ġan tic
ĠG r
ĠG os
Ġr use
Ġil lum
am ie
am ant
am mon
Ġne iges
ĠJ ak
ĠJ ava
op oulos
ĠLe m
ĠLe o
ĠLe moine
vi v
ĠN otes
ĠN OI
ĠN inive
ĠH ul
ĠH ut
ĠH end
ĠH amp
ins pecteur
Ġra tifie
Ġmo ind
ĠLa kers
Ġo tages
Ġpr ou
og a
par um
par atoires
Ġcons entement
Ġtr iste
imp rimerie
Ġcomp resse
Ġcomp licite
Ġcomp enser
Ġal lu
du m
du que
ot ti
ot tes
ĠEn hydra
ĠW ien
ĠW ard
ĠK ur
ĠK ob
ĠCe cil
Ġpo ite
Ġ3 40
Ġge l
Ġge le
ph ants
Ġcl aires
ide ur
Ġimp er
Ġas signe
Ġres titue
ver be
ang u
Ġma quette
Ġser vit
fe uille
cl estone
Ġtre izie
Ġy e
min ent
min istes
Ġsou leve
19 40
19 24
19 89
19 26
lo drome
oli o
ĠRe p
ib us
iss antes
vent uel
Ġob tint
Ġad verse
Ġbe agle
Ġrep lie
Ġcontre forts
alis a
ĠAn ciens
uv re
oci de
Ġconn ut
Ġvers ants
Ġsec oue
ĠSe ules
Ġ17 70
Ġ17 63
ler in
Ġpubli a
inte lle
Ġmal aria
ĠY am
Ġver b
Ġ16 00
Ġsol iste
Ġmont ent
Ġaff ich
ĠAr my
Ġ10 3
Ġ10 8
ll iste
IS A
Ġsce aux
Ġcan tine
Ġport uaires
Ġhabit ats
ĠIn itialement
ak er
oph iles
gra phe
Ġinc is
Ġorgan isant
tal la
Ġref onte
Ġsub ordonne
ps y
Ġdev in
Ġcapit ulation
Ġtechn ologiques
gn a
Ġreg ain
enc o
ĠCl air
Ġrend it
ĠSh ad
ĠSt ore
ok o
ĠHe ctor
aff ron
Ġmy r
publi ques
Ġsor tis
st an
Ġbar ric
ĠSi di
sionne l
ĠBel ve
ĠGeor gi
Ġrela tivite
ĠBre tons
ĠCon que
ĠMal tin
adi en
Ġ978 28
ctue ux
Ġchar nie
ĠMont auban
Ġgen til
ĠLu cius
ĠBer gen
Ġdistin ctions
ĠSte iner
Ġhy mne
Ġtri but
ĠSp orta
ĠVe re
Ġ22 5
hy mne
ĠRo essler
Ġbre ve
orth ographe
ĠPri est
Ġenv oient
pi des
Ġmanif estement
Ġinde m
cor ations
Ġspor adi
Ġfourn is
Ġprovin cial
ĠSer ies
Ġlum ine
ĠBen etton
rop orts
ĠAndre ws
Ġanti cipe
Ġrais onne
arn ier
Ġly riques
199 4
Ġcav es
Ġimme uble
Ġferme ment
Ġali menter
Ġradi oph
fie v
Mar quet
Mar cel
ĠCro w
Ġtrib unes
Ġintro duits
Ġ183 5
Ġ183 8
ĠMa a
Ġvoul aient
Ġpap yrus
ĠMi ro
ko fiev
ĠÎ µ
Ġphilosoph iques
Ġadminist rations
ĠNic ole
Ġvir us
ranche ment
Ġexer cices
Ġfus ille
Ġgou tte
ĠLo ches
ĠLo velock
Ġinten sive
fer ts
Ġoccup ant
Ġfrag ment
Ġglob e
Ġfu yant
rac lius
ĠCas tille
ws ki
Ġlu tin
Ġnarra tif
Ġbomb es
Ġpoly g
Ġpoly ch
ĠNor ris
Ġsin istre
Ġconj ug
Ex p
Ġconne xion
Ġindivid uels
Ġinflu enc
Ġclo che
ĠPie tro
ĠPan ama
ĠAra fat
Ġment ale
Ġflam me
Ġflam mes
Ġcompos ante
Ġexac erbe
osa ures
ĠHong rois
ĠBeau ne
ĠSil vers
pous es
zy k
Ġdel ta
Ġsouter rains
Ġregroup er
Ġcru cif
ĠHan ovre
Ġsoumis es
Ġquator zie
Ġboulev ards
ĠSpe cies
Ġincap ables
Ara gon
rod ote
Ġbanc aire
Ir goun
Ġintellig ent
Ġfigur ines
ĠAir lines
Ġfrom ages
Ġpin ceau
Ġcur ieux
ĠFou quet
Ġjume le
AD N
jus qu
Ġnoy aux
Ġsoulig nent
lum ie
Ġcoord ination
ĠDun ker
Ġgaran tit
Ġabrit ent
effond rement
ĠBac on
Ġphy sion
Ġcrist al
sign ol
ĠKen ya
ĠAng lo
Ġinex or
Ġpsychi at
itter rand
Ag riculture
Ġgrosses se
ĠHigh land
Ġhybri des
nonc ent
ĠnÅĵud s
ĠSwe dish
Ġexten sions
Ġtoulous ain
Ġpilo tage
Ġboute ille
Ġcommet tre
clen cher
ĠTon kin
Ġsurpl omb
fra cta
ĠVik ings
Ġcrain dre
ĠVinc ennes
Ġterti aire
ĠPenn sylvan
ĠBux tehude
ocaus t
Ġcommuni quer
Ġbrus quement
Ġscandin aves
Od ysse
Ġmout ons
ĠDah ut
Ġestiv ale
ĠShang hai
Ġcardia que
ĠFeli pe
ĠShack leton
Ġaler te
ĠElectron ic
Tou jours
Tourn oi
Ġparagra phe
Ġattri buts
Ġphar ma
ordonn ance
Hong rie
ĠKans as
ĠVolub ilis
ĠGetz laf
Ġfalci parum
ĠGroen land
ĠMamm oth
Ġmoind res
1 50
6 00
B os
C D
E u
L innaeus
M ars
P D
P atri
S itue
U ICN
b lo
c tives
f is
g are
h all
k ell
l onne
n ot
n ose
p oste
p igra
s pe
s um
u age
v ag
v aient
v oye
w are
É Ļ
Ġ ite
Ġ âĢĻ
Ġd oul
es cad
Ġl us
en b
en on
en ig
on ien
on ore
re van
Ġp ent
Ġp ion
Ġs qu
Ġs ar
Ġs ob
an on
te let
qu il
is ance
le dge
ar k
ar mistice
Ġla mpes
or ateur
or ps
ur us
it us
it oy
Ġf at
Ġf ir
ra ult
Ġen lever
Ġen sole
Ġt ube
me yer
Ġre table
Ġre lancer
al li
ro ws
Ġpar don
ĠL our
ĠL ure
ĠL ouv
ĠL ange
ĠL andes
Ġv ante
Ġv ases
ch ons
ch ants
ĠC ie
ĠC asc
ĠC uba
ta ves
as ta
Ġb la
ĠS R
ĠS qu
ĠS ens
ĠS car
ĠP ant
ĠP end
ĠP opul
ĠP ullman
Ġg olf
ĠA k
ĠA thle
ĠB ent
ĠB ore
Ġsur venue
di le
di ble
di quer
ĠE arth
ac aille
ul at
ul time
Ġpe ines
ag en
ĠT il
ĠT si
ĠT ot
Ġson des
ĠR un
ĠR og
ĠR ad
ĠR oute
ĠR ow
ĠF lo
ĠF ru
ĠG he
ĠG ay
ĠG all
ĠG ari
Ġh aies
Ġr ente
ort on
ĠJ a
ĠJ ura
ain si
Ġpas sif
Ġdi ad
vi dente
ĠN athan
ĠH ume
Ġsa vent
Ġra s
and j
ier ges
ir re
entre tenir
Ġmo tte
ĠLa usanne
Ġparti el
ble r
Ġpr ouvent
ĠV ig
og le
par able
par fois
Ġcons t
Ġcomp agne
Ġac quie
Ġac trice
Ġac trices
Ġal chim
Ġfor ger
Ġper les
ad ers
Ġ18 27
ĠW it
ĠW im
ĠW estern
Ġfin alite
Ġmon astique
ct ent
ill an
ill is
ill ante
ill ots
Ġter rib
sent ative
oy age
ĠPar me
ĠPar ad
ĠPar then
ert h
Ġimp osent
Ġimp ortations
be aux
Ġas yme
ten aient
ris s
Ġmil ice
Åĵ uf
Ġser vite
erta tion
Ġins crire
Ġins tabilite
Ġjus tif
ass ociations
Ġfil i
19 14
19 80
19 62
19 73
oli vier
ĠJe u
ĠRe view
ib bout
Ġinter diction
qui per
iss ants
Ġcour bes
Ġrep orta
Ġgra isse
vel and
Ġri ver
Ġcor rid
ner gies
vis ionne
Ġass istant
ign an
Ġ17 87
isse ur
cep tes
ler s
Ġprof its
lig ra
Ġmus cle
Ġcul pabilite
Ġremp lit
ĠY an
ĠQ ues
tab ase
Ġappar aissant
Ġvi vement
agn y
Ġrap atrie
Ġcro ches
Ġfer ont
Ġfac es
Ġfre inage
ĠAr rive
for ment
Ġ10 9
ll ations
mar ine
Ġop portunite
Ġport uaire
ĠIn dian
Ġref rain
Ġrou main
cur rents
lin i
lic at
Ġess entielles
aur us
Ġann oncer
Ġprote ctrice
ik h
ĠPh oen
inf lation
Ġdirec tes
vie ws
Ġroman tisme
Ġretour nent
ori cien
ach uset
Ġatt ente
ho ff
Ġrela tifs
Ġviol ons
Ġcal cule
Ġmari onne
ctue use
hi be
form ations
ĠLu ka
Ġbi ographique
Ġqualif ient
Ġrev ues
Ġvill as
Ch ristian
Ġgr illes
Ġtemp o
ige l
Ġbois son
ĠPro ductions
ĠWal den
Ġdra matur
ĠDisney land
ĠChe ÅĤ
Ġbre vet
Ġfavor is
cal age
Ġenv oya
Ġsuper be
Ġnu ances
Ġ26 0
alog ie
sist ant
appar tenance
Ġlog icie
ĠTro phe
Ġiniti ales
ĠOr le
Ġpol yn
Ġlim itant
Ġlim ousin
ĠEd win
ĠEd mund
Ġbr ille
Ġautor itaire
Ġiden tif
hum ation
Ġmassi ves
ĠMontre uil
ĠAb bey
Ġprot otype
och os
Ġintro duite
Ġrecons tituer
ĠMa o
Ġmontagne uses
ĠLi u
Ġconserv atoire
Ġpoursui vie
ĠPal a
ĠNational ency
Ġvir gin
Ġriche ment
ĠLib er
Ġconcur ren
Ġpoursuit es
Ġcircu ler
ĠCal ais
Ġprotest ations
195 1
195 3
Ġsubs titue
Ġtop onymes
Ġcab ines
ram me
Ġproje ctions
Ġsymbol iquement
ĠNor man
Ġsin us
Ġoblige ant
Ġconj ugue
ĠNav arrais
Ġral enti
ĠSim one
ĠRam one
ĠAut our
Ġcondition ne
ĠLor entz
Ġchale ure
Ġcanadi ens
Ġoblig ation
ĠMet rop
Ġexige ant
ĠVol taire
appro bation
Ġpati ence
Ġfondament ales
Ġcitoy enne
ĠCer tes
Ġang lic
Ġmodern ise
instru mentation
Ġabond amment
Ed gar
pie d
ĠKir k
Ġsouter raine
Ġattend u
Ġsyndic ats
Ġenvah issent
Ġcade aux
enz o
tour ner
Ġmons ieur
inse ctes
Ġmorte l
Ġeffectu ent
Ġadmi rable
truis ent
Ġastron autes
Ġrig oureux
ĠMex ico
Ġpoche tte
ĠLam ar
rad our
Ġbrou ille
Ġrache ter
Ġemploi ent
ĠRest a
Ġfolk lor
Ġcalcul s
Ġaltern ance
Ġressembl ent
ÏĦ Î¿
Ġtac tiques
Ġrestre inte
Ġhal te
ĠDor rit
ĠAle many
Ġmotiv ations
ĠPet rov
trus que
ĠCoun try
ĠArn old
ĠPoli ce
Ġchir urgie
Ġdorm ir
Ġdistribu teur
Ġromp t
Ġparcour u
Ġgratuite ment
Ġpionn ier
tamorph ose
ĠRap idement
ĠCorne ille
ĠRet our
Ġautobi ographique
ĠStock holm
ĠPop ov
ĠMist ral
coslova que
coslova quie
Hy dro
pra h
Ġfaud rait
ĠBoe ing
Ġamplific ateur
ĠDy son
ĠFig aro
voy ait
Ġbienve illance
Ġreti rent
ĠPam ir
ĠJas per
Ġrenfer me
Ġabsor be
chapp ent
Ġjoye use
ĠArg entine
Ġhydrau lique
coul ent
ĠPay ot
ĠJourd an
Ġperp endi
Pers onnalite
Ġvictorie use
Ġsti p
Ġgib ier
ĠEv ans
ĠRox ana
Ġrefroid issement
ĠPengu ins
Ency clope
empar ent
klope din
iroshi ge
ĠDord ogne
Ġpourcent age
ĠSuff olk
amplific ateur
ĠSilvers tone
ĠDunker que
ĠCasc ades
Ġdiad oque
achuset ts
ĠCheÅĤ mno
ĠNationalency klopedin
2 20
A zerbai
B ir
D is
I re
L u
P yre
S ta
S ud
T M
U P
U EFA
V er
b ox
c use
c ration
d j
d ui
f ri
f lu
f the
f ja
f rac
g aux
g rite
h me
h at
h iers
i ment
k at
k el
l atti
m ers
m ma
m od
n ume
n avant
o ques
p ont
p ique
p tique
p rises
r h
r or
t ton
v ole
v oue
w od
y en
y ons
z an
z io
Ì ¦
Ġ ours
Ġd enses
en ya
on ais
re lig
Ġp uni
Ġp akistan
Ġp syche
Ġp utsch
Ġa mer
Ġs per
Ġs cis
Ġc urs
Ġc ire
Ġc amb
Ġc Åĵurs
ti la
ti vision
Ġe lli
qu ar
qu ois
le my
in cline
in vente
it as
Ġf ich
Ġf osses
om s
om ac
ra f
Ġen jeu
Ġen jeux
Ġt ori
Ġdes se
us tin
us ole
Ġre tenir
Ġre quiert
ce lade
al th
al tern
ro ck
est ant
Ġpar king
Ġn ap
Ġn aissant
Ġv ant
se a
de urs
ch ance
si ode
si rs
ĠC H
ĠC r
ĠC onne
ta g
ta teur
ta xe
Ġb ur
Ġb esti
Ġb osse
ai mer
ol ini
Ġcom iques
ĠS ky
ĠS oft
ĠS FI
Ġdans er
ĠP ope
ĠP ok
ĠP ira
ĠP ompe
ĠP erson
ĠM ig
ĠM ile
Ġg age
Ġg endre
Ġg enti
Ġque ls
ĠA ur
ĠA wak
Ġj oint
Ġj oindre
Ġj unior
Ġpour ront
ĠB ase
Ġin ventaire
Ġpro ces
Ġsur git
Ġsur croi
ĠD res
ĠD ana
ĠD aily
di ent
di ane
di men
ers en
ac le
ac ter
ag inois
os ophie
ĠT ome
ĠT omb
ĠR N
ĠR ocke
ĠF ur
ĠF ame
ĠF rib
Ġan alogue
Ġh ard
Ġh alle
ort une
oc chio
ĠJ oue
ĠJ aure
op in
Ġdi asp
ap an
ĠN im
ĠN aus
ĠH ub
ĠH ot
ĠH imm
ins istance
Ġra ye
uis s
Ġmo quer
ĠV esp
ĠV alley
ĠV uitton
ord res
Ġtr u
imp lication
Ġac oustique
Ġal ie
ĠEn zyk
Ġentre tenir
Ġ18 26
ĠCh es
ĠCh allen
Ġmar ti
ĠW u
ĠW ell
ĠK ol
ĠK at
Ġfin esse
tif e
ĠCe le
Ġdis cret
Ġ3 70
ill ac
Ġter rasses
ing le
ex istait
Le ur
ĠO d
ĠO ur
ph onique
Ġcl ans
tis ta
ĠDe e
ĠDe ep
Ġimp ressionne
Ġpers iste
Ġrec ycl
Ġanne au
ang oisse
Ġma usole
Ġces sent
ĠMar ce
ĠMar ty
cl o
Ġy ards
min al
min aire
th enti
Ġcre user
19 20
19 11
19 75
19 32
if er
if ormes
En fer
Ġinter locu
vent uels
rou x
rou gh
ines s
ĠAn dy
ca k
vel l
Ġri z
Ġab i
Ġcou de
Ġcou teau
Ġexp orta
ĠSe p
ud o
Ġcap ter
Ġtrans ferts
vis tes
vis ions
ign ac
Ġprof onds
Ġapp ort
Ġapp rennent
mer sion
mer ger
Ġoff ensives
Ġmal ta
Ġrom ane
Ġver tes
ĠMe g
ĠBe ach
Ġinte ractions
az aki
Ġcro quis
rer s
Ġfre in
ĠAr ist
Ġfam ilier
Ġ10 2
Ġ10 6
mar ion
ĠChar cot
Ġhabit uels
Ġcontra ts
gra is
gra lement
Ġsoci ologie
Ġorgan iques
ote l
exp lor
Ġ13 5
Ġenf lam
acc oup
Ġroy aute
Ġrest ants
Ġpass ait
ras s
Ġmain tenu
Ġvoi rie
lic ates
Ġsign aux
gn ies
inf rastructure
pond ant
aff ranch
Ġfra ude
Ġfra ternite
quel ine
ach i
Ġanim ation
inter ro
co tte
sionne lle
ĠBar ra
ĠCol bert
Ġva se
Ġprofes sions
tran ges
agit ation
Ġmom ie
Ġinst ances
Ġatta quent
Ġsens ualite
ĠMont g
ĠMont agnes
Ġlongue ment
aci enne
Ġgen ou
Ġsyn cre
Ġaccue illant
ĠHar bor
Ġbi odi
anci er
Ġhy ste
Ġtri mestre
ĠSp a
ys me
ĠJu illet
Ġcorrespond ances
Ġfonde ments
ĠMon za
Ġcra ignent
Ġtend resse
Is lande
duis ait
Ġnu llement
pi ra
cit ation
cor ce
Ġpropos a
appe le
Ġprofonde urs
ĠPhili ps
uss issent
ĠSu pp
ĠMc K
fini ment
Ġfl ag
ĠFran quin
Ġir on
ell ois
ĠOr ly
Ġinfe cte
arn aise
Ġta illes
ĠSal omon
pol ation
Ġ180 2
ancien nes
occup ent
Ġincl use
Ġmarch ande
Ġfix es
quip ages
Ġenregistre ment
Ġarri vant
zz les
histor iques
Ġpron oncer
bor n
chi quier
ĠBou cher
Ġhab ille
ĠAlle gro
Ġexplo sion
limin aire
Ġmeurt rier
Ġlatin s
ĠMary land
195 6
195 7
195 9
ĠBu ck
Ġchron ologie
Ġoccup ait
Ġdos siers
Ġpot entielle
ĠDel hi
Ġsup ra
rick son
irm ingham
imm ortalite
Ġdon ation
Ġsymbol isant
ĠCle veland
Ġsing ulie
gh ien
Ġreb ond
Ġrede v
heim er
Ġfi anc
Ge orge
pand re
Ġiran iennes
Ġsurvi vant
ĠMas ter
ĠBi ograph
ĠBi ographie
Ġinconn us
initi ation
Ġprovis ions
Ġbyzantin s
Ġanaly ser
Ġsoule ver
Ġcoi ff
ĠCra w
ĠPin occhio
Ġpav illons
ĠLy dia
ĠTw o
Olymp ic
Ġdouce ur
Ġher b
goci ants
nar istes
ĠPap yrus
Ġmaterne lles
ĠVoy ager
Ġcart ouches
Ġattent at
astron ome
Ġfantas y
ĠRic ci
ĠBle us
Ġutilis ateurs
Ġence intes
char ne
ĠDam ien
ĠDur and
Ġpaque bots
Ġparadox alement
Ġga ze
Ġsignifica tifs
lop a
Ġbrut alite
cont entement
mati ciens
Ġrent rent
diat he
Ġhonor ifique
ticul ture
Ġsoud aine
ÅĴuv re
Ġsam arit
Ġimmob ilie
ĠClo chard
ĠNatur va
Cha pelle
Ġabat tu
Ġsion iste
Ġsion isme
relie f
solu ment
Ġmol lus
ĠSyn dicat
cid ence
ĠNet work
Ġflui de
ĠLaw rence
Ġinstant ane
Ġmalheure usement
ĠDa tabase
Ġsyll abes
Ġincerta ine
Ġdissim ule
ĠRid ley
Uru guay
Ġquinte tte
Ġbann ie
ĠHon ore
ĠTas manie
ĠCall isto
ued oc
Ġracont ant
Ġrattra per
ĠCah iers
ĠGrim ault
Ġdispos ait
Ġstylis tique
Ġlap ins
ĠCau ca
kai do
Ġpastor ale
Ġcompati ble
orthodox ie
Dan iel
ocal ypse
Ġlimit ro
Ġfootballe ur
Ġrestri ctions
Ġcalif orn
ĠDet roit
ĠAlfre dsson
ĠBrock haus
Ġyougosla ve
jeun er
Ġopport un
Ġlich ens
ĠSNC F
andert al
ĠChira c
ĠSingap our
Ġdevin rent
Ġphysion omie
ĠGari zim
ĠPhoen ix
Ġcitoyenne te
wod ros
Ġcurs us
ĠSFI O
ĠAwak ening
ĠHimm ler
ĠEnzyk lopa
thenti cite
Ġbiodi versite
1 18
A B
A li
A quin
A msterdam
C ine
G V
H aute
H arm
I liade
L B
L M
M ontre
N ation
N ouve
O ce
P uis
T er
X II
X avier
] ),
a en
b ul
c aire
c tique
c tation
c ombe
d z
e y
f ul
f ore
f iant
f onds
g art
g iens
g ary
h op
h ender
j ab
k ka
l ance
l ants
l ogue
o tage
p ressi
s b
s ue
s hi
v ar
v ens
v ante
y ton
Ì Ķ
Ð °
Ġ {\
Ġ Ø§
Ġl ier
re i
Ġp aille
Ġp ige
Ġp ayant
Ġs acc
Ġs ulf
an u
Ġc ister
te lier
te cter
ti ente
is ants
is ko
er o
er landaise
ent ourage
ar tifice
Ġla s
ne z
ne tt
or at
ur ne
Ġle ctorat
Ġf ige
Ġf ailles
ra bilite
al lie
ro ad
ve le
Ġdu nes
Ġpar oi
Ġpar aly
ĠL ola
Ġn at
Ġv and
se lon
Ġau di
ch re
ĠC ord
ĠC ontre
as is
as tiques
Ġb it
Ġun es
Ġun iques
ĠS om
ĠS ite
ĠS ante
ĠS itte
ite rature
ĠP ing
ĠP ieux
ĠP ia
ĠP opp
ĠM ant
ĠM ong
ĠM ack
Ġg est
Ġg allois
ci on
ci um
ĠA G
ĠA gne
ĠA ssemble
Ġpour vue
li de
he t
ĠB ot
ĠB urg
Ġin val
ran g
ĠD as
ĠD ir
ĠD ist
ĠD ivers
ĠD allas
di rent
di mentaires
ĠE rich
ĠE uro
Ġch en
urs t
ag li
os c
ille ur
ĠT F
ĠT ol
ĠT ab
ĠT ig
ĠT oc
ut ant
ĠR el
ĠR oux
ĠR ER
end es
ĠG ate
Ġh all
Ġh indou
ĠJ aya
op es
op tique
ap est
age ment
Ġsu zer
ĠN ak
ĠN ive
rie g
ĠH us
la me
la teurs
la ye
), ,.
Ġo deur
ĠV u
ĠV aug
ĠV illon
ĠV ita
tr ont
par ole
mes ure
Ġcons ol
tres s
imp lique
Ġcomp t
Ġcont acte
Ġar ticule
Ġal titudes
ay ashi
um i
Ġfor ma
Ġentre tenu
ĠCh ah
Ġmar ai
ĠW W
ĠW ats
Ġno ye
ĠK ota
ĠK aiser
Ġter rier
ex ode
ex per
Ġro ses
ĠO tti
Ġcar nets
Ġes cale
ĠDe velop
int o
Ġas pirations
Ġres titution
Ġma tine
mi dt
Ġins ol
Ġins piration
Ġti rant
ls en
ass assin
19 25
19 67
19 68
ĠJe unes
con fort
ĠRe e
Ġco ins
Ġman uel
Ġob lique
Ġad mettre
Ġcour tis
Ġve iller
Ġcontre b
Ġcontre bas
ĠAn atolie
ma ille
Ġenc aisse
Ġhe bdomad
Ġacc ole
onc ent
cul us
Ġconf ine
Ġconf irmation
Ġ6 50
Ġph on
ĠAl pha
Ġass aill
Ġca hier
Ġk aby
inte mps
per c
Ġprop age
Ġvis u
ĠU SA
ĠPe arl
ĠPe ugeot
ĠY v
ĠY ah
Ġdom iner
Ġmen tions
Ġver nac
ute uil
az i
ich n
Ġaff ranch
anc re
fic ations
Ġli fe
Ġindi rect
Ġappe ls
Ġhabit uel
ĠIn noc
assi milation
ĠSch o
ĠSch ubert
ck en
app roprie
Ġag ence
Ġmode le
Ġhum our
Ġdev ons
Ġgar age
Ġgar nis
Ġmarque ur
Ġam ant
Ġam ener
tic isme
ĠPh ara
Ġsupp rimer
tionne llement
Ġplan cher
enn ant
Ġ11 3
tri ers
Ġplu vi
Ġesp oirs
ok s
ori um
quent ent
Ġbas ant
rin aire
Ġfra ction
Ġchev alerie
Ġmer cure
ess ayer
ÌĦ .
ĠBel ge
ĠIs ab
Ġmor se
Ġcal ligra
Ġ25 6
Ġfais ceau
Ġjou ait
ĠLouis ville
Ġconstitu tionnel
Ġsens ations
Ġasse mblage
10 1
ĠHar di
gu in
ĠSa o
ĠBer ge
organ isme
Ġsus pecte
off rent
Ġcolon ise
ress ante
Ġaj outent
Ġtemp orel
ache ver
ĠPro g
ĠPro ject
rich ien
Ġforte resses
rig ourd
rus t
ĠRo cher
lit ude
Ġtend u
Ġtend ue
enf uir
Ġpian istique
Ġaband onnant
Ġkil ogrammes
Ġrepro ductions
vit ch
aude t
ĠPhili ppes
Ġmene ur
Ġsais i
ĠDi able
ĠDi ffe
uros awa
ica a
ĠWe ek
ĠTour ne
ĠFin ances
Ġbru te
Ġfou les
Ġamb iance
Ġlit urgique
Ġillus trent
Ġpens ant
iner ie
Ġdemand a
Ġcli p
Ġstatut s
ĠBo ard
Ġcompar ant
Ġcompar atif
Ġmontagne use
Ġcondam ner
ĠMi ami
ĠVer ts
ĠÎ ¿
industrie l
Ġcentral ise
eng ouement
Ġabs trait
ĠHol ocaust
Ġtrait ent
zz o
uc ci
cou ler
Ġexist antes
Ġdomin ants
ĠBritann ic
Ġdan ois
Ġseigne uri
ip zig
195 8
Ġimag inaires
Ġinform atique
ĠMin iste
ĠPas sion
Ġsex uelles
Ġorigine llement
clin aison
ĠDel porte
Ġobserv ateur
Ġcam ions
Ġperman entes
ĠZe ichn
Ġsh ow
Ġvesti ge
Ġcandid ate
sa cien
effe ts
indi ce
Ġmention ner
ĠEl ton
Ġinves tit
Ġvole t
Ġillustre r
Ġpropor tionnelle
Ġopp oser
hor loge
Ġpan oram
Ġpy lo
ĠTri poli
Ġaf ricains
Alexand er
Ġcanadi ennes
ĠDra cula
Ġflam ands
Ġdesser te
Ġdynam isme
ĠCong o
Ġchinois es
ĠMay otte
ju in
Ġexac tions
ĠMcC arth
Ġattache ment
Ġinsuff isant
Ġlune tte
Ġvraisembl able
Ġefficace ment
Ġnatur alisme
Ġmons tres
Ġmous ses
ĠPlay er
rog atives
Ġchoc olat
Ġobs cure
Ġpolon aise
log ie
Ġdange reuses
Ġpes e
ĠIns titut
Ġtax on
ĠMass achusetts
Ġasc end
Ġaustra lienne
Ġprovisoire ment
env ah
ĠLang uedoc
clat ent
Ġcr uel
ĠBle u
ĠCy rus
ĠDam as
tang s
Ġcatas trophes
Ġcatas troph
ĠDo om
Sa o
Er nest
Ġexcell ence
ĠStu art
ĠNik ko
Ġconfond us
tta wa
arri vent
Ġnaiss ante
Ġrecouver ts
Ġphy loge
Ġterror istes
lancol ique
Ġincomp le
Ġinterromp ue
cra ft
Ġaffaib li
ĠPr intemps
ĠPun cak
ĠByz ance
Ġpsychi atre
Ġhuman iste
ĠDire ctoire
Ġexceptionne llement
Ġchlor ure
ĠCav our
Ġmanip ule
ĠDre am
Ġbai gn
ĠĠĠĠĠĠĠĠ ĠĠĠĠĠĠĠĠ
Ġasi atiques
imme uble
incar nation
ĠBy ron
ĠChamb er
Ġserv ante
Ġautobi ographie
Ġtox ique
Ġrallie ment
ĠPublic ations
Ġbox e
Ġgau loise
gli ani
ĠHum an
piscop al
Ob jet
Ġcompatri otes
ĠMotte t
ĠMiy azaki
Ġcollabor ateurs
ĠSui vant
Ġparach u
Ġbale ine
ĠST IF
tall urgie
ĠEc clestone
Ġhare dim
Ġsanction ne
Ġpittor esque
Ġtamb our
Ġplur iel
ĠVent oux
Ġmassac res
ĠWind ows
ĠYo hannes
Ġsatra pes
ĠBaud ouin
ahar ienne
Ġraisonn able
Ġsop rano
ĠMap le
ĠHos pital
Ġparse me
ĠGamb etta
Ġchapite aux
East wood
gru ppe
ĠCler mont
ĠTort ue
ĠPercher on
Ġchano ines
accue illir
ĠGabrie li
kir ch
industri alisation
ĠSouvenir s
ĠCarne gie
ĠRoll ing
ĠConserv atoire
Abb aye
ĠGues clin
ĠMatth ieu
affron tement
Patri moine
Ġfili ation
ibbout z
ĠCraw ford
Harm attan
ĠMcCarth y
A ff
A val
A yant
A ustra
B o
C Åĵur
E E
E FF
M C
M D
M en
O tto
R ho
S y
S am
T ube
b ro
b rale
b io
b urn
c age
c amp
d un
f al
f endant
f onde
g ule
g rant
g agent
i h
k han
l t
l ages
m ud
m art
n oph
n ow
o h
p ur
p aud
t ane
t onnes
t anche
t sey
u cky
v ois
v aille
v ana
w i
w illiam
w oo
y ante
Ã Ł
Ë Ĳ
Ì Ľ
Ù Ĩ
Ġd ente
Ġd istor
es c
Ġl ign
Ġl ys
en vergure
Ġp is
Ġp ais
Ġp urent
Ġp oupe
Ġp itie
Ġs log
an er
an ais
an ien
an um
Ġc ouve
Ġc um
Ġc ube
te lles
ou a
is ches
is matique
in ent
in ot
er reur
ne uvie
Ġm au
or isation
or taient
Ġle x
it ta
il on
Ġf um
ra h
Ġen vergure
Ġt amp
Ġt ang
Ġt hy
Ġu t
ce le
ce lles
al om
al ier
ve urs
ĠL ig
ĠL oy
ĠL ind
Ġn ues
Ġv om
Ġv ienne
Ġv itre
de puis
ri gent
ĠÂ ±
si um
ĠC ai
ĠC az
ĠC BS
as on
Ġb ous
Ġb uv
Ġb ranch
Ġb abylon
pe ut
ol ph
ol iques
ol son
ĠS ier
ĠS uis
ĠS tation
ĠS of
ĠS umer
Ġcon duits
ĠP anthe
ĠM and
ĠM old
ĠM atte
at ore
ĠA lex
li p
ĠB oi
ĠB eth
ĠB assin
ĠB iz
Ġin novation
Ġin vasion
ter ling
ter litz
Ġpro le
Ġpro voc
ĠD ut
Ġ2 15
ers u
ĠE p
ĠE us
Ġme e
Ġme ts
ĠI mage
ĠI van
ab o
ĠT iv
ĠT ang
ĠR it
ĠR at
ĠR ousse
ĠR ichel
ĠR achel
ĠR aphae
end urance
ĠF o
ĠF ait
ĠF ille
ĠF oix
ĠF ayette
Ġan tagon
ic om
ic iles
ĠG las
ĠG arnier
Ġh ivers
oc y
oc ent
oc troi
Ġne g
ĠJ ar
ĠLe a
ĠLe vant
ĠLe clerc
Ġdi ra
bre ich
ĠN un
ĠN ova
ĠH our
ĠH at
ĠH ers
ĠH op
ĠH alle
ĠH enn
ĠH okusai
Ġte int
Ġra te
Ġra vi
Ġra tio
Ġmo bilite
Ġo vale
ist ants
ist ante
par a
Ġnom ades
Ġcons oles
et hn
imp ortation
Ġcomp lices
Ġcont estation
Ġar gentin
Ġal terne
um ann
ĠEn core
ace u
Ġper cer
Ġ18 17
Ġap ost
av entures
ĠCh en
ĠCh ou
Ġmar ges
ĠW i
ĠW ille
ĠW inter
ĠK re
ĠK ill
ĠK urosawa
Ġ20 7
Ġdis qualif
Ġ3 80
oy enne
ĠO de
ĠO uv
ob il
Ġcar go
ole ts
ĠMar ch
Ġser bes
til lon
min isme
fin issent
Ġins istent
ense ur
ls tone
19 87
oli es
Ġju ve
Ġju gent
Ġju lien
Ġat lantique
Ġinter ruption
vent ail
rou ge
ĠAn at
Ġhe ctare
ration nel
Ġgrand issante
Ġab sente
lu le
Ġcor n
ĠSe attle
ud ite
Ġtrans mise
vis uelles
but ants
Ġ17 5
od al
tro duction
cep te
inte raction
Ġjoue ts
Ġvis ibilite
Ġapp rentissage
Ġ8 50
ĠU SD
ann iversaire
ug en
der nier
dition naire
An n
Ġpouv ons
ĠY our
gi times
Ġappar ent
Ġ15 6
ĠThe odore
ĠMe in
ĠBe ta
mon de
az ote
Ġfre ins
ĠAr chi
Ġ10 7
Ġop tion
ix es
Ġhom onyme
Ġcontra stes
oph us
Ġloc ation
ĠZ ag
Ġdou ces
ick s
ick el
Ġpra g
cis ives
Ġquar ter
cess itant
atri um
Ġprote cteurs
gn ac
ĠSh i
ĠSt ran
ionn age
Ġvoy ager
inf il
dic ales
Ġdirec tives
Ġ11 2
gle mente
ĠHe arts
Ġbas ques
ĠSon ate
inter venir
inter romp
co ing
ĠPre judice
verse ment
Ġven ues
Ġcir con
Ġdist ante
Al b
Al ban
Ġdispar us
ressi vite
ĠLouis a
aud ine
att endre
att oirs
lant a
ley el
ĠMont s
Ġsyn onyme
Ġbi ot
ĠCom mon
Ġrev u
ĠJu ge
Ġmag ma
rom pre
Ġpense urs
ĠMon od
aug h
Ġparticip ations
ĠPro vidence
14 7
Ġ28 0
Ġcra ign
ĠCor an
by te
Ġcer f
Ġchois ies
Ġsuper pose
Ġmanif ester
Ġrepro ducteurs
ĠTer reur
Ġ23 3
Ġconcl uent
Ġsuff ixe
Ġarch ers
aill ard
Ġfaible ment
Ġparce lle
Ġnour ri
Ġfl ash
Ġdonner a
ĠOr gan
urg iques
rop ri
Ġress ource
Ġmeur trie
Ġami ral
Ġiden tification
hum ilite
Ġban lieu
ĠVal ois
Ġcat alan
ĠNation ale
Ġillus tra
Ġpat rons
Aut richien
ĠPl ine
ĠPl uto
Ġcommand itaires
Ġtrou b
Ġmontagne ux
ĠLi bre
gor ique
Ġincl uent
Ġoffici alise
Ġfront on
Ġnav ales
Ġenne ige
ĠFC M
ĠHol landais
Ġmyth ologique
Ġconver ti
Ġaccord er
Ġvou dra
Ġsuivi rent
cou lement
Ġvir ent
Ġvir tuelle
ĠTur ner
Ġsurp rend
Ġespagn oles
Ġfus ils
itz er
Ġchin ch
194 8
Ġstatue ttes
har ma
Ġvoc al
ĠVie tnam
Ġer rone
ĠCal gary
ĠEx per
195 4
Ġimag ination
lab orer
ĠCap ital
ĠPas teur
ĠPas tor
Ġtop ographie
Ġimpos ante
Ġappro fond
Ġmajor itaires
Ġvien noise
Ġnarra tive
ĠAm iens
ĠAnne cy
Ġreb onds
gen re
Ġdescend ante
ĠBan ja
Ġfi ches
gard er
Ġprim aute
Ġinves tisseurs
Ġinflu encer
Ġred onner
Ġsav ons
ĠCa pet
clam ation
Ġplais ante
Ġopp osent
Ġpan ier
Ġconsul tation
Ġcuis son
ĠGl ob
Ġ160 3
190 6
observ atoire
thiop ien
ĠFal aise
ĠDie go
Ġflam enco
ĠPrince ton
Ġdesser vi
Ġdiplom ate
Ġdiplom atie
ĠYou Tube
Ġstand ards
Ġsent ence
ĠMat the
Ġboule aux
Ġgri mper
Ġbyzantin es
Ġassi milation
Ġabond antes
coss aise
Ġstatu aire
Ġgerman iques
ĠGen ille
Ġtap isser
Ġexig ent
lector ales
Ġfie fs
Ġmous tiques
ĠNorth anger
Ġtempor aires
exer cer
ĠIr ving
Ara bie
ĠHal breich
Ġaim able
Ġsainte te
env ole
pic es
Ġaffirm ation
Ġjume lage
ĠWall abies
Ġharmon ique
ĠDum as
ĠGro ve
ĠMarg ot
agas aki
Ġimpressionn istes
escla ves
Ġnid s
Ġrecommand ation
pan ou
ĠAnti lles
conc ilier
pus cule
Ġintellectue lles
Ġconfond re
ĠOlymp ic
ĠSau ber
ĠVau cluse
ĠFreder ika
niti enne
ĠCoun cil
Ġsame dis
ĠJam ai
Ġvig il
Ġfourr ures
ua sion
ĠCli chy
Ġrenverse ment
Ġfa tale
ĠCF TR
Ġindirec te
ĠComb at
Ġescad ron
Ġcaroling ien
Ġaccro issement
Ġreconnaiss able
Ġgouvern ante
ĠWer ner
Ġdiss out
Ġempre inte
ĠBla ke
Ġnett oyage
ĠOl ga
Ġredou table
Ġinu tiles
ĠWel sh
Ġsuscit ent
ĠBrig ade
Ġgravitation nelle
ĠOt ton
Ġboute illes
Ġpren ait
ank el
Ġinattend ue
Ġperturb ations
Ġcollabor ateur
ĠBud apest
ĠQuel que
ĠRiv ie
Ġinterdis ant
NI EFF
Ġincur sions
Ġstop pe
grin d
Ġvass aux
Ġpharm ac
accum ulation
Ġaure us
faill ance
ĠNC IS
Ġauxili aires
ĠGrad grind
Ġbor nes
Ġbul les
Ġorphe lins
Ġsubdi vise
Ġusur p
ĠVand ales
Toccata s
Ġbrux ellois
Stra sbourg
ĠGouver nement
carb ures
Ġambassade urs
innoc ence
ĠFren ch
obsta cles
Ġincroy able
ĠSah ara
ĠGest apo
Ġrestru cturation
incer titude
princip alement
Ġabe illes
Ġraj oute
trou mp
ĠWick ham
ĠThorn ton
ammon iac
ĠKob ayashi
ĠPriest ley
Ġensole ille
ĠParthen ay
ĠLamar tine
Ġnap ol
ĠDres de
Ġdiasp ora
ĠSitte lle
ĠPopp ins
Ġgarnis ons
ĠPhara on
ĠSuis ses
ĠTiv oli
Ġbanlieu es
A ub
A um
B er
E G
E ss
F ont
G rand
I T
I b
L im
P oe
Q ui
R om
S mith
T our
V ent
b ins
c issement
c ologiques
c roule
f iques
f acts
g at
g la
g ow
g resse
g ociation
i able
j n
j ons
k ou
k si
k rit
l ass
l ma
m aire
m ot
m uros
m agnac
n orm
n ouement
p id
p lu
p lor
p ultures
s are
s wick
t oi
t chen
u ils
v ais
v ili
v oles
v ada
y am
y ama
} \
Î ´
Ï ĩ
Ġ *
Ġd ures
Ġd alle
Ġd resser
es qu
en port
on ienne
re e
re ll
Ġp ics
Ġp rairie
Ġp airs
Ġa quarelles
Ġs ature
an xie
Ġc u
Ġc rin
Ġc entie
Ġc ross
te inte
ti che
ti tivite
ti endra
le z
le ctif
le ep
in ant
in novation
Ġla by
or iciens
or raine
ur re
Ġle aders
Ġf auc
ra re
ra il
us t
ant ai
ro ph
ro phon
Ġpar ox
ĠL iz
ĠL iterature
Ġn ant
Ġqu o
Ġv aine
se ll
Ġau mo
Ġau dience
ch ois
ch aient
ri mentation
ge t
res te
ĠC lan
ĠC iel
ĠC ast
ĠC rash
as tres
as co
Ġb ol
ol in
ol lah
ĠS E
ĠS ons
ĠS omme
ĠS ables
ĠS ach
ĠS och
ĠS ato
Ġpl aus
Ġcon vo
Ġcon duites
Ġcon chy
Ġcon ducteur
ĠP age
ĠP rest
ĠM im
ĠM av
ĠM ia
ĠM oser
ĠM aug
ĠM ika
Ġg astron
ĠA T
ĠB res
ĠB elles
ĠB oss
ĠB iento
ĠB irmingham
âĢĻ ,
Ġpro li
ĠD ame
ĠD own
ĠD oyle
ers t
tre use
ĠE h
ĠE ver
ĠE ste
ac qu
ac teurs
ac ule
Ġch uter
os ges
ab dication
ĠT aur
ĠT rim
ut t
ĠR ondo
ĠF as
Ġan arch
che lon
ĠG ros
ĠG ian
ĠG igue
ĠG oth
Ġh av
Ġr ondes
am or
ĠLe d
ĠLe vi
ĠLe ipzig
Ġdi res
vi en
ique t
ĠN an
ĠN om
ĠN ure
ĠN igel
ĠN agasaki
ĠH off
ĠH ell
ĠH uy
la tif
Ġra id
im agerie
po de
ĠLa os
Ġpr omp
ĠV all
ĠV ital
ĠV illage
par atifs
et he
Ġcomp tabilite
iv oire
Ġcont ourne
Ġac cession
du chesse
ot hy
Ġper dit
Ġap te
ĠCh y
ate d
Ġmar ron
cle ment
ĠW ur
ĠW ande
ĠW ankel
ĠK ou
ĠK ab
Ġfin aliste
ct ant
nes ota
Ġro ver
ob ie
Ġcar di
Ġcl ois
Ġcl arte
ert z
ĠX box
Ġimp lantation
ris ation
Ġmil itant
aine m
Ġma qu
fe ller
uer bach
min isc
th ers
Ġcol oss
Ġins tin
Ġins table
ass ister
19 10
19 22
19 23
lo o
lo te
En celade
ĠRe quin
ĠRe agan
ib el
Ġinter dites
Ġman quant
ton ge
Ġcour onnes
Ġrep lier
Ġrep orter
cher a
ral iser
Ġconc ertation
Ġcha os
Ġconf iant
Ġconf irm
Ġconf ortable
Ġ6 40
ĠAl t
ĠAl gu
ĠAl fa
Ġtrans ge
Ġass ise
ign orance
Ġ17 65
Ġca hiers
cep teur
Ġni pp
ici de
ren cier
Ġjoue uses
lig ht
lig uen
Ġim itation
Ġapp renant
ĠU lysse
Ġeff ond
ug a
der by
Ġfon cier
ĠPe ut
Ġpri or
mer ce
Ġmal ga
Ġremp lie
enti er
ĠY u
Ġspe ct
ĠThe y
ĠThe atre
ĠThe odor
Ġent rain
ĠMe use
ĠMe mor
Ġ16 7
Ġ16 81
Ġrap aces
Ġfer tiles
Ġfer tilite
Ġfac il
Ġfac to
Ġfre ine
Ġaff luence
mar tre
Ġpres byte
Ġpart he
Ar mand
oph onie
ah r
Ġsoci ologue
Ġfond atrice
ĠTh ot
ĠTh iers
Ġ13 58
ene urs
ĠSch troump
ck le
acc use
app es
Ġroy alistes
Ġag ro
Ġrou ler
iel ds
Ġto xic
cur rente
Ġmain tes
Ġgar rot
ber ry
Ġam ours
Ġam usant
Ġcapit aliste
Ġtechn iciens
Ġsign ant
ĠCl isson
ik ko
ĠSh in
illi on
Ġfonction naire
inf rastructures
Ġsupp lante
Ġbou tiques
ĠNew ton
Ġviv ait
Ġ11 7
Ġroman esque
Ġpu ise
Ġpu zzles
ok a
Ġprend ra
aff irmation
inter nation
co ise
ĠSi be
Ġmer can
ĠQu inte
ess entiellement
ho f
esp agnol
esp ionnage
Ġoffic es
,, ,,
Al bre
Al pes
Ġmor alite
ĠGre gor
gent an
Ġtrop icale
Ġinst ants
Ġ978 0
ctue llement
ĠXVII I
Ġchar ger
Ġcher chait
sid entielles
ĠMont be
ĠFe derer
16 0
Ġple ins
ĠLu ci
ĠLu cie
Ġbi ologiques
Ġlib rairie
lect ric
ĠTe tris
ĠJu lia
ĠPro vin
rich ol
Ġposition nement
Ġpsych othe
oure uses
oure usement
ĠKe ith
ony mie
Ġaccomp agner
Ġaccomp lir
Ġfavor ablement
Ġfavor isent
Ġgl issement
oun t
Ġadap ter
eff orce
ĠTer ry
ĠJose p
Or phe
ĠRobert o
Ġord inateurs
mont rent
ĠSam mlung
ĠSu zanne
ĠTro y
Ġir onie
ĠMo en
ĠMo ore
Ġsouff lage
Ġvillage ois
ĠComp an
ĠComp ie
ĠComp uter
ĠVal ence
Ġcav ernes
Ġretra ce
Ġval idite
Ġrecons titution
Ġproven c
tur ages
Ġcondam nations
Ġmanifest ent
Ġsac er
Ġenregistre r
Ġobje ctive
ĠJeux video
ĠBou quins
Ġdur a
ĠPrin cip
Ġexer c
Ġexer cent
ĠHor n
Ġguer rie
Ġcarre aux
Cl aire
Ġdan seurs
Ġbras serie
Ġall aient
Ġvoc ale
Ġpros titution
ouche ment
Ġimag iner
ĠAs se
Ġchau ve
Ġdispon ibilite
Ġtal ib
Ġenvis ager
oz oi
Ġsentiment ale
ĠSou tine
ĠEli ot
ĠDou ble
Ne uf
ĠBl um
ĠNor bert
Ġgard ent
Ġnor dique
ĠDom en
Ġconj ure
Ġdescend ent
ĠGer bert
Ġtravaill ait
Ġsauve garder
ĠAut om
Ġsav oy
quival ente
ĠEs pe
Ġinv ari
ĠGo ogle
ĠCent ury
mins ter
ĠMel bourne
ĠFI DE
ĠVol tchen
Ġmig rants
Ġmig ratoire
ĠPic asso
Ġign orant
Ġden re
ĠCam eron
Ġbra hman
azz ini
ĠCer f
ĠMay ence
Ġfournit ure
ĠCop per
Ġfroid s
Ġlune ttes
ĠJer ry
ĠKra ainem
Ġenvah it
hab ite
Ġhor reur
Ġtoit ure
jon ction
Ġmous tique
ĠMai rie
Ġrespect ant
Ġrig idite
ĠLuc ques
sis tible
ĠPap a
Ġflor ins
ĠVoy nich
rov ing
Ġmodif ient
cap ite
ĠPou liguen
Ġprolong er
Ġty po
Ġfantas mes
ĠFant o
ĠFant asia
Ġnourris sant
Ġtran sept
alph abe
ĠDam on
abs tention
anth aster
ĠFou ge
Ġvertic ales
Ġsab re
Ġpi qu
Ġbrill ants
Ġbrill antes
gou ts
ĠCommun ications
ĠJon as
Ġchronique ur
ĠRi cher
Ġartificie lles
agan ah
ĠHel en
Îµ Î¹
ĠGh ana
Ġmarty re
explo iter
ĠHart mann
trus ques
Ġarg ente
ĠUr bain
Ġincomp ati
ĠSat an
ĠJam ais
Ġportug aise
Ġincont ourn
Ġquad ruple
Ġinterromp u
Ġponctue llement
cra ser
impo sition
Ġimmob ilier
Ġpseud onyme
ĠNatur a
ĠEur opa
Ġpacif iste
Ġner veux
Ġclandes tin
accident s
Ġescad rons
Ġconvul sionnaires
Ġade ptes
Ġhong roise
imme ubles
Ġmalheure ux
Ġrepar tir
ĠFlam marion
ĠGun dam
ĠChac une
Ġoptim ale
Ġint ui
ĠJou kov
ĠDef oe
ĠSain ts
ĠVoi ci
Ġfluvi al
Ġpict ural
Ġsarc ophages
ĠCole ridge
ĠDav enport
ĠBoule vard
ĠOt tinger
Ġenvironn ants
Ġenvironn antes
leu cide
Ġgrad ins
Ġsatisfais ante
Ġintercommun al
domin ance
mante le
Ġreten tissement
Ġprimordi al
bule use
ĠFonde ttes
Ġparach ute
Ġauthen tique
riodique ment
ĠAustra liens
Ġpittor esques
ĠWork s
Ġpharm aceu
cast le
Ġhivern ale
Ġronge urs
Ġtremble ment
Ġrespira toire
Ġtarif s
Ġscri bes
ĠGasc ogne
Ġphos ph
ĠVari ations
Ġminor itaires
Ġquatu or
ĠBarre tt
ĠStef an
ĠCun ard
Ġbav ar
Ġbide t
ĠMine ure
ĠIllus tra
trospec tive
Ġsati rique
Ġaccess oires
ĠStand ard
ĠNikol ai
ĠLapon ie
ĠMut ual
Ġgland es
Ġwag ons
ĠScandin avie
Ġib n
ĠRocke feller
ĠNaus icaa
clo sion
Ġmollus ques
ĠOtti gnies
Ġhebdomad aires
Ġkaby le
ĠSier ra
ersu ari
ĠGlas gow
Ġlaby rint
Ġconchy oline
ĠWande rers
ĠAlgu ersuari
) )
5 21
A uto
C ou
E sta
G P
H ad
H ome
H awai
I se
J ames
L y
L ang
L ong
M u
M ich
M ax
P ra
R ouge
S av
T S
V ieux
W e
W illiam
b ac
b ure
b ia
b iens
b ourn
c ation
c rop
d ieux
d ateur
d ina
f ensives
g aliser
g imes
h ie
h old
h ommage
i di
i bre
i ji
j ar
j ud
k raine
l ton
l omo
m ois
n ine
n ocide
o a
o tion
p or
p ignan
r ure
r ines
s he
s ouvent
s Åĵur
s accords
t ueux
t oient
v igne
v oyant
w ich
y u
Ä ±
Å ģ
Ê Ĭ
Ï Ĩ
Ġ ĠĊ
Ġ tisse
es ch
Ġl ue
en k
Ġp s
Ġp ag
Ġp onc
Ġa gi
Ġa ix
Ġa cides
Ġs at
Ġs ien
Ġs ill
Ġs oye
Ġs atur
Ġs tress
Ġc age
Ġc uve
Ġc auche
Ġc urie
te use
ou k
is a
le ries
ent oure
ar dier
Ġm ules
Ġm irent
Ġm ouille
or ama
ur ante
it ait
il o
Ġf roi
om ing
ra dication
ra him
Ġt w
us ter
us cade
ce vant
al lier
ro tique
ve use
Ġpar ace
ĠL ist
Ġn y
Ġn uls
Ġv aud
Ġv igner
se ill
Ġau tisme
de z
ri le
ri ons
ĠC ardinal
ĠC anning
as a
Ġb aisser
Ġse t
ol us
ol let
ĠS tive
ĠS ouvent
ĠS aul
ĠS adi
Ġcon quise
ĠP ul
ĠP od
ĠP ix
ĠP ik
ĠP seud
ĠP syche
ĠM att
Ġg lu
ci vil
ĠA venue
ĠA uerbach
li me
li qua
ue la
ĠB ue
ĠB rive
ĠB aie
ĠB ronte
ĠB ridge
Ġin finie
Ġin adapte
Ġsur vit
ĠD A
ĠD S
ĠD ul
ĠD aw
Ġ2 10
di gliani
Ġme uble
ac a
Ġpe lli
ag ran
ag onie
ĠI rish
ĠT rust
Ġson ne
ĠR A
ĠR ib
ĠR ah
ĠF ai
ĠF un
ĠF ac
ĠF ISA
ĠF ields
Ġan om
ĠG R
ĠG ob
ĠG ordes
Ġh ur
Ġh ang
Ġh ave
Ġh ache
Ġh ippo
Ġr on
ig an
am o
am on
ort es
oc las
ĠJ our
ĠJ oy
ĠJ esse
ĠJ azz
ĠJ enny
op ie
op ath
ĠLe y
ĠN ou
ĠN os
ĠN ombre
ĠH ale
ĠH one
ĠH atra
ĠH aganah
ins crivent
and ro
im ar
im itation
onn y
Ġav orte
ĠLa on
), ,
Ġo ver
ble don
Ġpr oue
ĠV illiers
og on
Ġcons piration
ard er
tu ation
Ġar restations
Ġal uminium
du les
du cs
um an
um ber
Ġfor mid
ĠEn d
Ġper che
Ġ18 1
Ġap r
ate uque
ĠK ui
ĠK ate
Ġfin ie
Ġ20 5
Ġgran ge
Ġdis gra
ct os
Ġro tatif
oy ne
ĠO thon
ussi a
Ġcar th
ide l
Ġimp lication
ris tes
man ant
Ġres pe
Ġres serre
Ġor bit
Åĵ ufs
ven tionne
Ġma ternite
ĠMar co
ser tion
ser vent
ser vant
ass ait
ass ocie
ass ainissement
Ġcre ux
Ġpos tale
19 30
19 13
19 34
19 82
lo dique
ĠRe y
ĠRe ad
Ġat yp
olog ien
Ġco cher
Ġco da
Ġco difie
Ġinter viennent
iss y
Ġob us
rou n
Ġbe y
Ġsans krit
Ġrep lace
emp orter
emp ortent
alle mande
ca illes
ration nelle
Ġri me
Ġab olition
Ġab attoirs
Ġcor beau
Ġoc cit
Ġsec ourir
Ġconf luence
Ġexp lorer
ode ur
all us
Ġcap ric
Ġtrans at
Ġtrans hum
vis uel
Ġass assinat
ign al
Ġ17 50
Ġ17 81
Ġca chal
ĠNe il
ĠNe ver
ĠNe vers
ĠNe ville
Ġvie illard
val ence
ĠU ru
ug u
ĠPe y
Ġcul tiver
Ġoff ertes
Ġmal heur
An th
ĠY ann
anne xe
Ġforme l
Ġappar ues
Ġsp rint
Ġver bes
Ġ16 87
ĠBe z
Ġfer miers
lace ments
Ġcas ser
Ġcas cade
Ġcas trum
18 84
Ġaff le
Ġz u
ĠAr se
Ġfam ilie
Ġli ce
Ġindi ennes
Ġmes urait
ĠCar pent
Ġemp lacements
Ġcontra ction
ili ce
Ar che
Ar mor
oph age
the z
ĠZ hu
Ġinf ir
Ġ13 8
Ġref ait
ĠSch war
Ġsub ventionne
Ġpublic itaire
Ġ14 2
Ġ14 6
Ġpass ants
Ġsecond s
Ġsta tique
ile y
lin aire
auv ille
Ġam orce
Ġform ats
Ġcoup ables
ĠSh lomo
Ġvoy aient
Ġvoy elles
Ġpa ve
Ġviv antes
ĠHe ad
aff ich
Ġbar que
Ġmer cre
car ts
resse ment
Ġsemble rait
lac k
ĠIs p
Ġcal cium
ĠCon side
Ġdispar ues
Ġreven dication
att ribue
adi er
Ġchar gent
Ġpropre te
Ġchange ant
ĠCan yon
ĠFe u
ĠFe lix
Ġple urer
Ġsyn taxe
Ġaccue illie
ĠHar as
Ġbi ographies
15 8
esti mation
Ġdistin cte
Ġresp iration
Ġsus pect
Ġsus citer
oule t
ĠSp ider
ĠJu lius
Ġvale t
cy dide
Ġbois sons
tel lig
rich iens
hy gie
ĠKe mal
Ġ28 8
ham med
ĠPri de
Is abelle
Is aac
ĠSur tout
ĠSur tsey
Ġ50 8
Ġrepro duisent
eff igie
Ġfille tte
mor ative
ĠSam is
Ġaccep ta
Ġaccep table
sur tout
Ġempl oyer
Ġble ues
Ġfl ou
ĠFran ches
ĠMo ins
ĠMo digliani
Ġru des
ĠFin landais
Ġimm un
Ġban quier
ĠVal en
ĠSal t
Ġillus trant
ĠAb u
Ġgue ule
ĠChamp ion
ĠTou lon
Ġpap aute
Ġemb auche
Ġconserv atrice
Ġmanifest ants
Ġfront s
Ġorient aux
ĠRus h
ĠNic o
mat ch
ĠMil ieu
Ġsurp ren
Ġmonument ales
Ġall ure
Ġquoi qu
Ġcant onne
ĠMaur iac
195 2
Ġchau ves
Ġeng ouement
ĠMin nesota
Ġsubs tra
Ġsubs titut
ĠGau tier
Ġconcert os
clin ent
Ġvo ilier
Ġfrag iles
Ġappro ches
inform atique
Ġrestaur ations
ĠWil kinson
Hen riette
imm ense
Ġdon ations
Ġdon jons
ĠCas ab
ĠAm al
Ġpou ces
Ġsing les
Ġconten us
Ġreb ord
Ġconj onction
Ġconj ointe
Ġcollec tives
Ġral entir
Ex tre
Ġadvers es
Ġnot ant
ĠCamb odge
Ġinscrit es
arg o
Ġgro tes
pro fes
Ġisole ment
Ġbu tin
Ġsouhait ant
ĠGl ass
ĠGl obal
ĠBas tille
observ ations
ĠPau la
Ġtur ques
Ġment on
Ġment or
Ġinstrument al
cad ence
Ġattra pe
Ġflu ctu
champ s
champ ion
Ġchat ons
cop es
Ed ward
gisla tive
bu ta
ĠWest minster
ĠBeau mont
ĠPin k
taph ysique
Ġattend ent
Ġna tation
enz oller
tour nement
Ġterritori al
lector aux
olle tt
Ġfug i
Ġher me
Ġrappro chant
Ġrappro chent
Ġarchitect uraux
appui ent
Ġbro de
Ġbro ch
Ġbro ye
ĠPers uasion
Be aucoup
cap it
Ġlai tier
ĠFire f
ĠKing dom
ĠRoche fort
Ġafflu ences
Ġvertic al
accompagne ment
Mont agnes
ÏĦ Î¹
ĠBaby lonie
Ġfile ts
ĠOccident aux
Ġextraord inaires
Ġfall ut
ĠMod a
ĠFors berg
Ġjal ousie
ĠMort on
Ġproclam er
ãĤ Ļ
Ġargu ant
Ġrenv oyer
ĠFro berger
encer clement
ĠBau er
Ġaus te
Ġrevi vre
ĠAlb in
ĠFis her
ĠEnciclope dia
Ġvictor ieux
ĠCI O
ĠMiche lin
ĠSyl ve
ĠSyl vie
Ġclandes tine
Ġattribu ent
larg issement
Ġstabil isation
ĠFam ille
Ġcontour nement
ĠGol der
Ġpontific ale
Ġrectang ulaires
chim ie
Ġconvul sions
ĠRD A
Ġspons or
Ġpionn iers
Ġagressi ve
dioc res
Ġcoin ce
excl usion
ĠHey drich
omer y
ĠLomb ardie
ĠDro od
Ġmonarch ique
ĠSymph onies
Dom inique
Ġnuis ibles
ĠRid ge
Ġrall yes
Ġpilo ter
Ġcarn aval
ĠKey nes
Ġpist on
Ġprussi enne
ĠBroad way
ĠMoun t
Ġauthen tiques
Ġalli ances
Ġstylis tiques
Ġfier te
Ġgon fle
duca tif
Ġsk ate
Ġmanufact ures
assy rienne
glig ence
Ġaliment ent
Ġchag rin
gri ffe
moise lle
Ġalph abet
Ġanecdo tes
Ġexhaus tive
Ġmiss iles
ĠToy ota
Ġdiagon ale
Ġprud ence
ĠSaw yer
ĠSpor ting
ĠGram mont
Ġbuis sons
Ġspl ende
ĠGorg one
elin ck
Ġinterrog ations
ĠCly des
Ġbuff le
ĠEmer y
ĠHoh enzoller
ĠJes u
rentie lle
Ġmatri mon
Ġtitul ature
Ġsaou dite
ĠThu cydide
ĠBarn aby
Gau lle
Ġcock pit
Ġremor que
ĠLl oyd
ĠBoun derby
ĠSuz uki
OTA N
intelle ct
ĠWim bledon
Ġcorrid or
Ġdramatur ge
Ġstip ule
Ġmalta ise
explor ateur
Ġenflam me
ĠMontg omery
Ġcoiff ure
ĠWats on
Ġvernac ulaire
ĠRichel ieu
ĠLea fs
ĠNure mberg
ĠChy pre
ĠDomen ico
Mich ael
Ġfroi des
ĠStive ll
ĠHohenzoller n
. (
C A
C in
C entre
H ann
K e
M c
M o
M ade
M ik
N orm
O ur
O xford
P opulation
R N
S ar
S ie
S ig
S im
S ante
a tivite
b ir
b ard
b rique
b rations
b run
b isc
b lanc
c que
c um
c ages
c ras
c ock
c ades
d ine
f ai
f ute
g ates
g atives
g round
h ra
h aut
h art
h oriz
j ik
k istan
l ois
l ven
l ature
l ables
l oser
m ut
m iste
m one
n t
n aud
p les
p osent
p osant
p aisses
r urier
s avantage
s auf
t arc
t ariat
u ch
v ales
v aut
v ail
y ss
z in
z et
Ê Ĵ
Ì ī
Ù ħ
â Ī
Ġ oi
Ġ ico
Ġ Åģ
Ġd al
Ġd ys
Ġd rui
Ġl ing
en ia
en sions
Ġp ures
Ġp ack
Ġp ythag
Ġa que
Ġa rides
Ġa charne
Ġs ka
Ġs terling
an tit
Ġc ass
Ġc endre
Ġc ann
Ġc yn
Ġc uites
ti lles
ou ins
ou iller
qu and
is ch
le vis
in vitation
in jection
er ves
ent worth
ar ritz
or mi
ie f
il an
Ġf un
Ġf oie
Ġf ailli
que ue
ra diation
Ġen ter
me ute
Ġu ke
us ure
Ġre mbl
Ġre quise
Ġre desc
al ge
ve lle
ve iller
est a
est ampes
Ġpar vint
ĠL oup
ĠL ys
Ġn it
Ġn as
Ġn ors
Ġn arre
Ġn udite
Ġqu enya
au thenticite
se ction
Ġ1 19
de t
ch oire
ch ner
ri cle
si ques
si xie
si gnes
ĠC ath
ĠC yr
ta mol
as pe
as con
Ġb ison
Ġb amb
Ġb aigne
ĠS D
ĠS G
ĠS ap
ĠS asse
ĠS ug
ĠS auv
ĠS AS
ite cture
Ġcon ducteurs
ĠP L
ĠP ig
ĠP ist
ĠP lon
ĠP atrice
ĠM ab
ĠM io
ĠM yth
ĠM itterrand
Ġg rie
at u
at tire
ci fication
ĠA th
ĠA less
Ġj aill
he urs
he ures
ĠB it
ĠB ard
ĠB ologne
Ġin to
Ġin verte
Ġsur monter
ĠD ru
ĠD rive
ĠD iver
di us
ĠE b
ĠE du
ĠE lectric
ac um
ac cession
ac roix
ul ser
ul mans
Ġpe louse
ag s
ab side
ĠT arn
ĠT ER
Ġson ner
ĠR K
ĠR an
ĠR ol
ĠR out
ĠR ice
ĠR aw
ĠR aj
Ġan onymes
che tte
ic z
ic ulture
ĠG le
ĠG av
ĠG olfe
Ġh ai
Ġh ad
Ġh aussmann
Ġr ing
am ine
oc ation
ĠJ r
ĠJ en
ĠJ ay
ĠJ ours
Ġdi able
Ġdi alog
Ġdi dac
vi ol
vi dentes
ĠN au
ĠN at
ĠN ames
ĠH z
ĠH elle
ĠH aye
Ġex otiques
ien ter
ins tigation
Ġra tions
and er
entre mise
Ġparti tions
Ġo des
Ġtra cer
Ġpr estations
ĠV aux
ĠV are
ĠV ars
ĠV oie
ĠV oge
par k
par tir
Ġnom ment
tres ses
Ġcomp rises
Ġcont ours
Ġar gile
Ġal sacien
Ġfor tification
ĠEn gine
Ġper ro
ad ie
Ġap la
ĠCh re
Ġmar ke
ĠW entworth
ĠK or
ĠK ane
ĠK aby
Ġ20 6
Ġmon oc
ÌĪ -
Ġje ts
ex pose
ĠO c
ĠO re
ĠPar ker
ph ia
Ġcar it
Ġes compte
tis si
ĠDe ad
ĠX i
Ġimp licite
Ġimp ulsion
Ġpers es
Ġpers ans
Ġrec ourt
Ġas tres
Ġas tro
amp ton
amp hibiens
man ach
Ġor ages
ang l
Ġma illots
ĠMar ina
ĠMar tha
ron de
ser ts
met tent
ong es
th ie
Ġcol or
Ġins u
Ġti mb
Ġti erce
Ġjus tification
Ġcre usement
19 27
19 64
lo quence
lo dra
lo of
En ghien
ib ou
Ġco eff
Ġco habit
iss able
Ġren verser
je ctifs
id ant
Ġve au
Ġenc ourager
Ġacc lame
ral iste
Ġab ol
cul ose
lu cin
Ġconc ord
Ġcor rob
Ġoc taves
Ġmin ier
Ġexp ress
Ġexp riment
all umage
ĠSe ulement
ĠAl ban
Ġcap te
Ġ17 6
Ġ17 86
Ġca ve
Ġca ta
od a
Ġprof ane
per on
lig a
Ġim man
Ġim minente
ĠU EFA
ĠJo achim
ĠPe lle
ĠPe tits
Ġmal aise
Ġremp lis
An glais
Ġpouv ais
Ġappar tenance
Ġ15 00
Ġsp in
oul d
20 4
Ġent raine
ĠBe cker
ĠBe auvais
Ġinte rag
Ġfer ment
Ġmont ants
ĠAu paravant
Ġfre u
18 50
18 48
Ġaff rontent
anc ourt
Ġcan yon
Ġcent raux
ĠCar mel
Ġemp oisonne
Ġhabit ent
ĠIn dochine
Ġgouver neurs
lex e
Ġsoci alement
Ġorgan ique
Ġgroupe ment
Ġdou leurs
Ġinf ru
Ġinf lam
exp ressionnisme
Ġ13 2
Ġ13 6
Ġref ou
ĠSch a
ĠSch midt
Ġsub til
Ġsub sistance
Ġret omb
ati ale
ice berg
amb assade
Ġcolle cteur
Ġ12 1
Ġ12 6
conom ies
ick y
Ġten ants
Ġten aient
lin or
Ġess aient
Ġcontin ents
Ġcontin gent
Ġcamp ing
Ġam as
Ġquar te
Ġtechn icien
Ġform ulation
Ġsign alisation
enc re
ĠCl ap
illi es
Ġsour ire
Ġfonction nant
In dus
In dro
Ġpa ie
Ġatte intes
Ġplan ification
Ġdisp ers
ly s
ly woo
Ġdonn aient
gle ments
aff lux
ach ie
ĠJac que
Ġsc in
Ġpal ustre
Ġsor cier
Ġcomple ts
ĠQu est
car tes
ave z
ĠCol l
ĠCol lection
Ġrela ti
ĠGrand in
Ġcal ibre
ĠCon ception
Ġangl ophone
Ġdirige ait
ĠGu ille
ĠGu adal
ĠLouis iane
Ġw all
can icien
Ġconstitu ait
Ġasse oir
ĠMont fort
ini tie
ĠDu c
30 5
Ch ris
Ġtri gon
Ġbata illons
ĠTe d
inc or
aye ur
Ġcorrespond ait
Ġfonde ment
ĠMon o
Ġspecta culaires
Ġcy pre
ĠPro fes
ĠWal lonie
Ġdra ft
Ġorigin alite
hy ste
ĠPer pignan
Ġpsych ologiques
Ġcit ations
ĠPri ce
Ġcer cueil
Ġcombat tu
Ġpatri ote
vit able
Ġbal lade
ĠGra f
Ġvic aire
uss ites
Ġlog er
ĠWe iss
pl ent
Ġir rite
ĠOr gueil
ĠMo hammed
cin quie
Ġimm obile
Ġlim itent
Ġamb igu
ĠEd die
ota tions
Ġara bo
Ġban quet
Ġban quiers
ĠSal man
Ġretra c
Ġcat alogues
Ġval ut
nom inations
ĠFor ces
ĠDan se
Ġpat he
ĠCre ed
Ġrenfor cent
Ġmas turb
Ġmas cotte
ĠBon if
rand t
Ġlac unes
ĠJane iro
ĠLi ve
ĠAlbert o
Ġdimin uent
Ġfau ves
Ġmur m
ĠÎ ±
eng agent
ĠMus ique
Ġaccord ent
Ġvir ul
Ġrece tte
Ġquin tes
com pose
com mande
dra les
194 1
194 2
itan ia
ĠBu en
Ġchron ome
Ġrare te
Ġeng end
ĠCap tain
Ġrenouve ler
gal ith
Ġcollab orer
ĠGau di
Ġvo iles
Ġdiffuse ur
Ġappro bation
Ġappro visionne
Ġclim ats
Ġottom anes
ĠBl ues
ĠCle mence
Ġpou ce
Ġpou tres
Ġpous sant
Ġsing ul
Ġtu iles
Ġvesti bule
jou it
Ġfi bre
ĠVan nes
Ġinves tir
Ġperform ant
Ġabou tissent
Ġscol arise
pour vue
ĠAut richiens
Ġsen i
ĠEm ily
Ġchant ent
mons trations
org ues
Ġinstall ent
ĠGl obe
190 9
ĠBi arritz
As syrie
Ġpur ge
Ġbap tiste
Ġattra it
ĠMac ron
ĠLong bourn
kin en
ĠMay enne
Ġacquis es
Ġassi mil
ĠReich s
Ġguit ares
Ġpost ales
Ġcontribu ant
Ġfaute uil
ĠAnd ronic
Ġhor loge
Ġcade ts
Ġtoit s
Ġexig ence
Ġproch aines
Ġmorte lle
riment ations
Ġadmi rateurs
Ġmusulman es
Ġher bes
Ġexpliquer ait
ĠKo enig
ĠCin quie
ĠIr landais
Ġhydro graphique
Ġstu pe
ĠCarth aginois
Ġfonctionne lle
Ġaustra liens
Ġcart ographie
Ġmilit ante
tente ur
Ġalent our
commun ications
Ġblo quer
Ġutilis aient
abs olu
Ġram asse
Ġaltern atives
Ġcoul oirs
rud it
Ġlourde ment
ĠApol lon
claire urs
Ġstock s
CC N
ĠHaw k
Ġur ne
Ġmess ager
Ġvif s
ĠWater s
ĠSard ou
Ġdevi enne
aile ron
Ġbov in
Ġfores tier
Ġporta ge
Ġhonor able
Ġiv re
Ġabrit ait
ĠSor bonne
Ġnoctur nes
aler te
ĠKenne th
Ġvede ttes
Ġatten tif
Ġaus tro
mette ur
Ġaqu atique
Ġglaci aires
Ġaver ti
ĠCher bourg
Ġcorrec te
sch ild
larg it
Ġintri gue
Ġprocure ur
Ġcontour ner
ĠTod d
ĠHab ib
Ġflui des
Ġcoff re
sopotam iens
Ġrassembl ant
lar gi
Ġsch iste
Ġtom ates
Ġmagist rat
ĠSig mund
ĠMot or
empl ois
Ġprome ut
Ġincerta in
Ġgalax ies
Ġinhabit uelle
Ġengl obe
Ġparoissi ale
Ġprestigie uses
Ġtuber culose
Ġtromp es
Af ghanistan
Ġoxy ge
Aus terlitz
Ġanalog ie
ĠVo ila
Ġmexic ain
Ġgrandi ose
illustra tion
Ġtriang ulaire
Ġsangu in
ĠWhit ney
Ġpant al
ĠBuff alo
ĠBrad ley
rogly phes
ĠGlor ieuses
Ġcontr arie
Ġcombus tion
rodynam ique
ĠNag ano
Ġosse ments
Ġtuy aux
Ġgise ment
Ġcontam ination
Ġmontagn ard
âģ ¡
Ġdors ale
Ġseg ments
Ġivoi rien
dagog ique
Ġts un
Ġproc urer
ĠRecher che
liph age
ĠWins ton
envis ager
Ġenn uis
ĠDuf our
stell ung
ĠDjer ba
vang ile
ĠLer oy
ĠMarsh all
Ġlucar nes
Lin ux
ĠLA H
absor ption
Ġillum ine
Ġallu me
Ġradioph onique
fracta ires
ĠBent ley
ĠRog ers
Ġservite urs
Ġriver ains
Ġlogicie ls
Ġpolyn o
Ġscis sion
ĠPira tes
Ġrecycl age
Ġapost olique
ĠMein au
ropri ation
Ġplaus ible
Ġconvo ite
ĠVital y
Albre t
Ġtalib ans
ĠIllustra ted
crop oles
Ġtranshum ance
ĠCarpent ras
ĠSchwar z
ĠFiref ox
Cin q
Ġcoeff ici
Indro is
ĠClemence au
' m
1 12
2 30
3 000
9 00
A A
A V
A y
A ure
B M
B rie
D ivers
D isc
E au
E mp
F N
G ene
H P
H udson
H aq
H onore
J u
M a
N ous
O hio
P N
S au
T ES
U N
W al
a qu
b os
b asse
b its
c ti
c ine
c oc
c rie
c lique
c ars
c Åĵur
d ore
e mme
f os
f ib
g ame
g roupe
g hi
h onne
h az
h ly
h ausse
h orn
i dent
j er
j ah
j ada
k ur
k kinen
m un
m ale
m ath
n l
o ine
o tation
o hn
p ure
p iques
p ron
p liques
p iano
r n
r ens
s out
s itant
s armement
t ous
u cks
v ap
w ing
w itch
x er
z t
z ot
} =
Í ¡
Ù Ī
Ù Ĭ
Ġ ond
Ġ _{
Ġl ents
Ġl isant
Ġl ots
en voie
en jeu
re k
re inte
Ġp esti
Ġp oll
Ġde main
Ġa gra
Ġa cide
Ġa cier
Ġa ride
an os
Ġc ing
te k
te ro
ti tif
Ġe m
qu ot
is ta
le tt
in timite
er xe
ent raine
ar ith
ar dian
Ġla ver
Ġm alle
Ġm audit
or ologique
Ġle ksi
it rice
Ġf ran
Ġf ous
Ġf ulg
Ġf atal
om y
om ment
ra cle
ra tifs
ra tives
Ġt an
Ġt as
Ġt ai
Ġt art
Ġt hi
me il
me aux
al im
al pin
ant an
ro tiques
ro ll
est uaire
Ġpar venant
Ġpar lait
Ġpar odique
ĠL ut
ĠL oir
ĠL id
ĠL oth
ĠL ast
ĠL ocke
ĠL ilas
ĠL oeb
Ġv ital
se x
ch anger
ch angent
ri as
ri pe
si o
si vement
si ennes
ĠC res
ĠC ry
ĠC ater
ĠC osta
ta ve
Ġb ours
Ġb if
Ġb aiser
Ġb attue
Ġse me
ai gre
pe urs
ol or
ol itan
Ġcom bles
Ġun ie
ĠS ic
ĠS ienne
ĠS ati
ĠS cal
ĠS RC
ĠS love
Ġpl ie
ĠP R
ĠP ict
ĠP lant
ĠP leyel
ĠM ang
ĠM oss
ĠM uss
ĠM oreau
Ġg ir
Ġg ains
Ġg ave
Ġg oe
Ġg iron
Ġque lles
at tra
oi gnant
ĠA D
ĠA x
ĠA ran
ĠA verroe
Ġj a
Ġj oy
Ġj olie
Ġpour par
li ons
he d
ĠB est
ĠB rit
ĠB ond
ĠB ris
ĠB ang
ĠB ade
ĠB rin
ĠB esse
ĠB ourne
ĠB attle
Ġin tes
Ġin ven
Ġin je
Ġin vain
Ġin vit
ran ger
un al
Ġpro the
Ġsur viennent
ĠD H
ĠD ic
ĠD ob
ĠD avi
ĠD iction
di mentaire
tre ux
ĠE do
ĠE icke
ĠE MI
ac tes
ac tique
Ġch ime
Ġch airs
ff on
ag ara
ag rand
os tra
ĠI m
ab il
ĠT ill
ĠT omm
ĠT ries
ĠT yr
ĠR T
ĠF ais
ĠF ly
ĠF osse
ĠF ourn
Ġan tif
Ġan tarctique
ĠG issing
Ġh ante
Ġh ug
ig ou
am ateur
am ena
ĠJ aime
op ard
Ġdi ac
Ġdi rigent
vi ane
ous t
ĠN in
ĠN BC
ĠH and
ĠH aus
ĠH esse
ĠH uns
ĠH ormis
pre mie
Ġsa che
Ġex al
Ġex alte
ins pection
ins pirent
ins talla
im b
ir isme
ir vana
ĠV ier
ĠV amp
ĠV anc
ĠV ati
ĠV osges
Ġnom en
Ġses sions
Ġcons omment
ĠLes ter
imp os
imp lanter
Ġcomp ile
Ġcomp orter
iv ie
Ġcont ester
Ġac tives
ens ui
Ġar ron
Ġper tin
Ġentre tiens
ĠCh opin
ate liers
Ġmar di
Ġmar nes
Ġmar teau
ĠW id
ĠW illy
ĠK le
ĠK eller
ĠK MT
Ġ20 8
Ġdis son
ct al
Ġche vel
Ġter ne
Ġter riens
sent atif
ĠO p
ĠO ued
ph iques
ob serve
Ġcar av
Ġcar tel
Ġcl och
ĠDe c
ĠDe ath
int h
orte ment
ert y
ĠX L
Ġimp ressions
Ġpers istance
Ġrec ti
Ġrec rues
tra l
mb lan
tant es
ris ant
ris tide
ver di
Ġor nements
Ġor atoire
Ġces sion
ron tie
ric o
fin issant
Ġti mide
Ġsou l
Ġpos ant
19 17
19 35
19 36
19 88
if iques
if iant
con tin
asse mblage
Ġat omique
Ġco teau
Ġinter de
Ġman e
Ġren nes
Ġren oue
Ġren ards
its u
Ġad ore
Ġrep rit
emp athie
alis able
ines burg
cher zo
Ġpays anne
Ġgra des
vel ot
Ġpermet taient
Ġab rup
cul ations
Ġcor riger
Ġoc t
cien tif
Ġconf u
Ġconf orte
Ġexp ans
Ġnota ire
ud d
Ġph re
mis me
Ġass assin
Ġ17 00
Ġ17 88
Ġutil ite
Ġni ches
Ġcel l
ia que
lig ion
Ġvis er
Ġapp l
ann on
ug awa
Ġfon ciers
ĠPe yo
ame la
ule use
Ġmal heurs
ĠY os
ĠY ame
Ġdom mage
Ġappar tenir
Ġappar tenait
Ġmen uis
Ġ16 5
Ġ16 10
ath or
18 97
for ce
anc rage
mar s
Ġdro ites
Ġmoy ennant
Ġcan ide
Ġcan ards
Ġemp rise
Ġcontra indre
ĠIn dispens
Ġinc arn
Ġfond re
ĠZ o
ĠZ NIEFF
omb es
Ġdou ane
exp lorer
ĠTh ai
Ġenf once
Ġsub vention
Ġsub lime
ck i
ail es
Ġroy aliste
Ġag issant
Ġ12 3
conom iste
conom istes
rend u
Ġmain tenue
Ġtechn iquement
ĠDes cartes
ĠMais ons
ĠSt utt
vin rent
In d
In f
Ġgouvernement ales
Ġbou cherie
pond it
Ġbas tion
Ġatt estent
Ġsor celle
Ġtex ture
Ġtex tiles
st ens
ĠQu ad
Ġi di
Ġrela ye
ĠGre g
ĠCon ti
cta ble
ĠMal don
ĠMal aisie
aus te
Ġinst ance
Ġdirige a
lam ites
Ġrapport ant
Ġmaj este
can al
Ġconstitu ante
ga wat
ĠCan ucks
gage ment
Ġcommence ment
Ġgen oux
ĠHar per
ĠHar old
ĠDu puis
Ġmoment ane
Ġrev it
Ġrev int
sul tent
organ e
organ is
organ isent
organ ismes
aisse ment
dit orial
tend us
tend ait
Ġmilitaire ment
Ġ22 6
Ġcorrespond re
ĠMon se
ĠMon ica
ĠDick son
atta cher
quis itions
Ġbre tonnes
Ġfeu illet
enter ie
Ġsuper vision
ĠSta tis
Ġrepro ches
Ġrepro duisant
Ġdouble ment
Ġbal con
Ġ179 6
ĠDi am
ĠMo hammad
ĠBen i
ĠTra vaux
Ġmusic ologue
ĠPort land
ĠSy mb
22 1
Ġfou dre
Ġamb ul
Ġengage ments
ĠEd ison
ĠEd dy
Ġagric ulture
Ġara b
Ġretra cer
Ġdiver gent
Ġmi roirs
Ġval orise
iz i
ĠFor um
Ġpat rou
Ġsang lante
Ġvit raux
Ġense ignes
Ġense igner
Ġdemand ait
ĠAd ministration
ĠAd vance
Ġvoul ais
Ġdemeure r
Ġpoi gn
af ricain
tur a
Ġfau tes
ĠGi ro
Ġsug ges
ĠAus tin
ĠRichard son
Ġrencont ra
Ġsac s
Ġabs tra
ni tien
Ġtermin ologie
Ġrac isme
Ġryth mes
ĠHol land
Ġconver sions
asc endance
Ġpor taient
Ġtrouv ailles
Ġrecue ille
Ġrece vant
Ġquit ta
Ġsurp renant
Ġexist ante
Ġrappe l
sil iens
Franc is
Ġrassemble ments
bel s
Ġai ment
Ġquoti diennes
Ġcos inus
194 6
ĠDar win
Ġcontinent ales
Ġlatin es
ĠBu ch
ĠAt lan
ĠDel acroix
ĠSm ollett
Ġconvain cus
Ġottom ans
ĠCas tro
Ġexclus ive
Ġsymbol iques
ĠPeter s
Ġtu ye
Ġspirit u
Ġus agers
Ġchim iste
ĠMarc us
Ġconnaiss ant
Ġconnaiss aient
accomp agn
Ġvole urs
pour vus
Ġinflu ents
pand ues
Ġfamili aux
Anne au
Ġspati ales
Ġplais irs
ĠBri and
Ġaction naire
ĠInter nationale
Ġaf ricaines
ĠMy ce
ĠMas ters
190 1
190 5
190 8
Ġajou ts
ĠDie ter
Ġcrois ades
Ġflam ande
fici ant
Ġdynam iques
Ġmig rations
Ġbap te
Ġreje ter
appro cher
ĠPic ardie
Ġend urance
ĠMat he
Ġign orer
Ġexploit ent
Ġexploit ants
Ġenvironnement al
Ġsoup lesse
Ġislam iques
ju illet
ĠÃ ŀ
sias tes
Ġrefle ts
chap itre
Ġabond ance
Ġnavig ateur
Ġfabric ant
Ġfabric ants
lest es
Ġdel la
Ġsoli dite
hab ile
Ġrecon duit
Ġhor aires
Ġcade tte
Ġtunis iens
Ġsuspend ue
Ġvraisembl ance
ĠJan et
ĠVi viane
ĠPol onais
haus en
issi mo
Ġsan itaires
Ġchoc s
Ġobs ole
Ġobs cur
Ġgratu its
Ġsusp ici
ĠGir l
ĠGir onde
Ġverse ment
oste lle
ĠGren elle
ĠCass andra
Ġaim ait
Ġpul sions
Ġ$ .
Ġinsuffis antes
Ġty mp
Ġty ph
Ġfleur is
Ġviolonce lliste
ĠBrun swick
Ġore ille
Ġgoth iques
Ġcombin ant
ĠPle ase
ĠHu mph
anat omie
vey ron
Ġpend aison
ĠHaw ai
nier ie
Ġbrut al
ĠWater col
Ġpoul pe
ĠMaj or
ĠTu lle
hume ur
Ġfrapp ant
Ġbouddh iste
Ġmarty rs
ĠOlymp ique
Ġenthou siastes
ĠDub lin
nig mes
Ġconven tionnelle
Ġcamar ade
Ġrecouver tes
ĠChron ique
ĠOff ici
Ïģ Î±
Ġcoc ai
Ġadmire r
trois ie
Ġseptentrion al
Ġhoriz ons
Ġvig oureux
Ġvig oureuse
ĠHil de
Ġmarchand ise
uki yo
Ġrabb ins
ĠAh med
Ġcomble r
ĠMid dle
Ġabat tre
fond ateur
Ġlo tissements
Ġsion istes
Ġpacif istes
ĠCF R
Ġhol lywoo
Ġabb aye
Ġstabil ise
Ġstabil iser
Os lo
Ġparent he
ĠKuns ts
Ìĩ ,
Ġicon ographique
Ġmut uel
Ġaccro chage
Ġplas tiques
Ġempre int
Ġdin ar
Ġint enses
ĠMot ors
Ġsyll abe
empl oye
Ġminer ais
ĠMarti al
Ġvulg aire
ĠSymph onie
ĠSwe elinck
Ġconvic tions
ĠAmb roise
Ġtoulous aine
piscop ale
Ġralen tissement
Ġvieilles se
Ġgrimpe ur
Ang lo
ĠTib et
Ġracont ent
Ġprimordi ale
Ġdog me
ĠJas on
Ġrevendi quer
Ġhu iles
Ġhu ppe
Ġsurpl ombe
ĠChab rol
Ġcommunau taires
Ġurban ise
Ġalterna tivement
Ġarm ure
Ġesqu isse
Ġhydrau liques
ĠChampions hip
ĠSid ney
liv rance
ĠGon z
jord anie
abat tage
Ġosc ille
ĠNauru ans
ĠSak amoto
Ġauxili aire
ĠKent ucky
bran le
ĠTch ad
ĠBank sia
rodynam iques
ĠFitz william
Ġsilenc ieux
Ġjuxta pose
Maur ice
ĠTrin ite
Ġavois ine
Ġcompens ation
Ġcrev aison
Hug ues
ĠPoul enc
Ġtrauma tisme
ĠArtis t
Ġfib res
ĠFaus to
ĠKil im
Ġbourgui gnon
Ġtouchd owns
ĠVict oire
ĠKel ly
Ġoccul te
quiv oque
ĠCassi us
ĠFili ppo
associ er
Ġrelat ant
ĠSoci al
ĠKie v
ĠAlber tina
Ġspi rale
Ġjac ob
Ġsyl v
Ġois illons
emprun t
Ġentreprene urs
saffe cte
ĠContemp or
Ġinfanti le
Atlan tiques
Ġmonstr ueux
Ġincontest able
ĠTui leries
Ġinexor ablement
ĠMetrop olitan
Ġcamb ri
invente ur
ĠSoft ware
ĠMig uel
ĠVesp ucci
Ġiron iquement
Ġsamarit ain
ĠCauca se
aen ops
Ġsacc age
Ġinval ide
Ġconsol ide
rigourd ine
ĠZeichn ungen
Ġtamp on
ĠSof ia
Ġquarter back
Ġparox ysme
ĠBue mi
ĠKui per
ĠIsp ahan
ĠClydes dale
Hann ibal
Made leine
bisc ite
Ġnors ke
ĠRout ledge
Ġmarke ting
Brie uc
Ġleksi kon
Ġpourpar lers
ĠTries te
ĠVati can
mblan ces
gawat ts
- ),
2 50
2 70
A i
A th
B al
B ux
B ert
B rain
C N
C ube
C ultes
F lor
H al
H am
H um
I L
I d
M el
O c
R ay
R afael
S h
S ou
S tar
S iciles
T ro
T ours
V is
b l
b ow
b vre
b lou
b abylon
c ross
d ock
e a
f ried
g me
g ards
i ap
i ants
j os
l aient
l antes
m ort
n agent
n ibus
p iste
p uration
r estre
r ington
r burg
s ovie
t oires
u ges
u zi
v entre
v illes
v ry
v arc
v ski
v illiers
w ings
y se
z it
Ð ¸
Ð ¾
Ġl ob
en vers
en bourg
en ius
Ġa ig
Ġa chats
Ġs ard
Ġs laves
an istes
Ġc rie
Ġc uire
Ġc ordon
ti mi
Ġe ur
ou ent
ou ac
ou ts
qu estres
is p
in vite
in fection
in dication
er tion
er ve
er vation
ent enaire
ar ro
ar ticul
Ġla v
Ġla issait
Ġm util
Ġm unis
ur is
ur ations
Ġf assent
ra ud
ra bb
Ġt ut
Ġt am
ce ler
ant on
ro ite
Ġpar rain
Ġpar venue
Ġpar aissait
ĠL it
ĠL un
ĠL itte
ĠL EM
ĠL CCN
ÌĤ Ìĥ
Ġn autique
Ġn ickel
Ġv s
ch ots
ch kine
ri us
ri tique
si bilite
ĠC ay
ĠC oupes
ĠC GT
ta d
ta m
ta tiques
ta cher
as ce
as tri
Ġb ran
Ġb roche
pe i
ol ore
Ġcom a
ĠS M
ĠS anti
ite ur
Ġ( -
ĠP P
ĠP ois
ĠP rime
ĠP aler
ĠP ythag
ĠP erth
ĠM ie
ĠM agne
ĠM one
ĠM oul
ĠM ow
ĠM ovie
ĠM uffat
ĠM LB
Ġg ab
at trait
ci aire
ci men
ĠA B
ĠA ze
ĠA st
ĠA uto
ĠA tt
ĠA ires
Ġj ouissent
Ġpour riture
li ande
li orent
ĠB ly
ĠB aptiste
Ġin exp
Ġin onde
Ġin ventions
Ġin aperc
Ġin nomb
ran i
un ier
un issant
Ġpro e
Ġpro teste
Ġpro logue
ĠD OI
di ger
di bilite
ĠE mp
Ġch ic
Ġch allen
ul pes
Ġpe lage
ag io
ĠI ron
ab ine
ĠT et
ĠT ong
ĠT ow
ĠT acite
ĠT onnerre
ĠT richol
ĠR oc
ĠR oun
ĠF igh
ĠF onds
ĠG an
ĠG ot
ĠG ond
ĠG oli
ĠG onc
ĠG aille
ĠG auv
ĠG ott
ĠG aga
Ġh ub
Ġr uraux
am ont
am use
oc l
oc cate
ĠJ ourne
ain en
op ar
op ole
op pression
op ium
ĠLe x
ĠLe grand
vi ation
vi ons
ous ses
ĠN oc
ĠN gu
ĠN ipp
ĠN arb
ĠN atal
ĠN orton
ĠH au
ĠH ir
ĠH ire
ĠH od
ĠH of
ĠH iroshige
ĠH LM
pre mier
Ġex cur
Ġex termine
ins ki
ins ky
ins titut
ins ertion
Ġte ct
la d
Ġra il
Ġra ts
Ġra jou
Ġra ciale
ir ard
Ġav ent
ĠLa d
ĠLa zare
Ġparti t
Ġo si
ist antes
ist oce
ĠV ues
ĠV aud
ĠV enez
og en
tr ong
ub ation
par n
par p
Ġtr uite
Ġcomp tabilise
Ġar bus
Ġar ticul
Ġal to
du ctrice
Ġper cute
Ġentre po
Ġentre tiennent
Ġentre vue
Ġap aise
Ġap titudes
ĠCh iron
Ġmar te
Ġmar qua
Ġmar quage
ĠW as
ĠW ing
ĠW ool
ĠW omen
tin y
ĠK ub
ĠK ay
ĠK ik
ĠK uy
[...]
