{"<|endoftext|>":0,"!":1,"\"":2,"#":3,"$":4,"%":5,"&":6,"'":7,"(":8,")":9,"*":10,"+":11,",":12,"-":13,".":14,"/":15,"0":16,"1":17,"2":18,"3":19,"4":20,"5":21,"6":22,"7":23,"8":24,"9":25,":":26,";":27,"<":28,"=":29,">":30,"?":31,"@":32,"A":33,"B":34,"C":35,"D":36,"E":37,"F":38,"G":39,"H":40,"I":41,"J":42,"K":43,"L":44,"M":45,"N":46,"O":47,"P":48,"Q":49,"R":50,"S":51,"T":52,"U":53,"V":54,"W":55,"X":56,"Y":57,"Z":58,"[":59,"\\":60,"]":61,"^":62,"_":63,"`":64,"a":65,"b":66,"c":67,"d":68,"e":69,"f":70,"g":71,"h":72,"i":73,"j":74,"k":75,"l":76,"m":77,"n":78,"o":79,"p":80,"q":81,"r":82,"s":83,"t":84,"u":85,"v":86,"w":87,"x":88,"y":89,"z":90,"{":91,"|":92,"}":93,"~":94,"¡":95,"¢":96,"£":97,"¤":98,"¥":99,"¦":100,"§":101,"¨":102,"©":103,"ª":104,"«":105,"¬":106,"®":107,"¯":108,"°":109,"±":110,"²":111,"³":112,"´":113,"µ":114,"¶":115,"·":116,"¸":117,"¹":118,"º":119,"»":120,"¼":121,"½":122,"¾":123,"¿":124,"À":125,"Á":126,"Â":127,"Ã":128,"Ä":129,"Å":130,"Æ":131,"Ç":132,"È":133,"É":134,"Ê":135,"Ë":136,"Ì":137,"Í":138,"Î":139,"Ï":140,"Ð":141,"Ñ":142,"Ò":143,"Ó":144,"Ô":145,"Õ":146,"Ö":147,"×":148,"Ø":149,"Ù":150,"Ú":151,"Û":152,"Ü":153,"Ý":154,"Þ":155,"ß":156,"à":157,"á":158,"â":159,"ã":160,"ä":161,"å":162,"æ":163,"ç":164,"è":165,"é":166,"ê":167,"ë":168,"ì":169,"í":170,"î":171,"ï":172,"ð":173,"ñ":174,"ò":175,"ó":176,"ô":177,"õ":178,"ö":179,"÷":180,"ø":181,"ù":182,"ú":183,"û":184,"ü":185,"ý":186,"þ":187,"ÿ":188,"Ā":189,"ā":190,"Ă":191,"ă":192,"Ą":193,"ą":194,"Ć":195,"ć":196,"Ĉ":197,"ĉ":198,"Ċ":199,"ċ":200,"Č":201,"č":202,"Ď":203,"ď":204,"Đ":205,"đ":206,"Ē":207,"ē":208,"Ĕ":209,"ĕ":210,"Ė":211,"ė":212,"Ę":213,"ę":214,"Ě":215,"ě":216,"Ĝ":217,"ĝ":218,"Ğ":219,"ğ":220,"Ġ":221,"ġ":222,"Ģ":223,"ģ":224,"Ĥ":225,"ĥ":226,"Ħ":227,"ħ":228,"Ĩ":229,"ĩ":230,"Ī":231,"ī":232,"Ĭ":233,"ĭ":234,"Į":235,"į":236,"İ":237,"ı":238,"Ĳ":239,"ĳ":240,"Ĵ":241,"ĵ":242,"Ķ":243,"ķ":244,"ĸ":245,"Ĺ":246,"ĺ":247,"Ļ":248,"ļ":249,"Ľ":250,"ľ":251,"Ŀ":252,"ŀ":253,"Ł":254,"ł":255,"Ń":256,"Ġd":257,"es":258,"Ìģ":259,"Ġl":260,"en":261,"on":262,"re":263,"Ġp":264,"Ġde":265,"Ġa":266,"Ġs":267,"an":268,"Ġc":269,"te":270,"ti":271,"Ġe":272,"ou":273,"ÌĢ":274,"qu":275,"is":276,"le":277,"in":278,"er":279,"ent":280,"ar":281,"Ġla":282,"ne":283,"Ġm":284,"or":285,"ur":286,"Ġle":287,"Ġet":288,"ie":289,"it":290,"il":291,"Ġf":292,"que":293,"om":294,"tion":295,"ra":296,"Ġen":297,"Ġt":298,"me":299,"Ġdes":300,"Ġu":301,"us":302,"Ġles":303,"Ġre":304,"ce":305,"al":306,"ment":307,"our":308,"ant":309,"ro":310,"ve":311,"Ġdu":312,"est":313,"Ġpar":314,"ĠL":315,"ÌĤ":316,"Ġn":317,"Ġqu":318,"au":319,"Ġv":320,"se":321,"ont":322,"Ġau":323,"Ġ1":324,"de":325,"ch":326,"ans":327,"ri":328,"ĠÂ":329,"si":330,"ge":331,"res":332,"ĠC":333,"ta":334,"as":335,"Ġb":336,"Ġse":337,"Ġest":338,"ai":339,"pe":340,"ol":341,"ation":342,"Ġcom":343,"Ġun":344,"ĠS":345,"ite":346,"Ġ(":347,"Ġpl":348,"Ġdans":349,"Ġcon":350,"ais":351,"ĠP":352,"ĠM":353,"Ġune":354,"Ġg":355,"âĢ":356,"Ġque":357,"at":358,"Ġce":359,"mp":360,"ci":361,"lle":362,"oi":363,"ĠA":364,"Ġj":365,"Ġpour":366,"li":367,"ue":368,"Ġqui":369,"he":370,"ĠB":371,"Ġin":372,"ran":373,"âĢĻ":374,"ĠÂ»":375,"les":376,"ter":377,"Ġpre":378,"un":379,"Ġpro":380,"Ġsur":381,"ux":382,"ĠD":383,"Ġ2":384,"di":385,"ers":386,"Ġplus":387,"Ġ19":388,"tre":389,"ĠÂ«":390,"ĠE":391,"ale":392,"Ġme":393,"ac":394,"Ġch":395,"ine":396,"ff":397,"ul":398,"urs":399,"Ġou":400,"Ġpe":401,"00":402,"ag":403,"ait":404,"os":405,"ille":406,"ui":407,"ĠI":408,"ab":409,"ure":410,"ĠT":411,"Ġson":412,"ut":413,"ĠR":414,"end":415,"ĠF":416,"Ġan":417,"che":418,"ic":419,"ĠG":420,"Ġ:":421,"Ġh":422,"ise":423,"Ġr":424,"Ġil":425,"ig":426,"Ġsont":427,"am":428,"ques":429,"vec":430,"ort":431,"oc":432,"Ġne":433,"ĠJ":434,"ain":435,"Ġpas":436,"op":437,"ĠLe":438,"Ġdi":439,"Ġavec":440,"vi":441,"ons":442,"tes":443,"une":444,"tte":445,"ap":446,"ique":447,"ois":448,"age":449,"bre":450,"aire":451,"Ġsu":452,"ous":453,"ĠN":454,"rie":455,"ĠH":456,"ors":457,"pre":458,"Ġsa":459,"Ġex":460,"ouv":461,"aux":462,"ts":463,"ces":464,"ien":465,"ins":466,"Ġte":467,"la":468,"Ġra":469,"and":470,"im":471,"ction":472,"ier":473,"ir":474,"entre":475,"onn":476,"po":477,"uis":478,"Ġav":479,"Ġcomme":480,"Ġmo":481,"ĠLa":482,"Ġparti":483,"),":484,"Ġo":485,"ouve":486,"ence":487,"ble":488,"ist":489,"Ġtra":490,"Ġpr":491,"ĠV":492,"og":493,"Ì§":494,"Ġaux":495,"ance":496,"el":497,"ĠIl":498,"tique":499,"ord":500,"Ġmais":501,"Ġtou":502,"onne":503,"Ġdeux":504,"tr":505,"ub":506,"par":507,"Ġnom":508,"Ġses":509,"mes":510,"Ġcons":511,"tres":512,"ĠLes":513,"ard":514,"Ġcomm":515,"oir":516,"et":517,"Ġprem":518,"rit":519,"tu":520,"Ġtr":521,"imp":522,"Ġcomp":523,"iv":524,"Ġcont":525,"Ġac":526,"ens":527,"Ġar":528,"Ġal":529,"ay":530,"ion":531,"du":532,"um":533,"Ġfor":534,"ot":535,"ond":536,"ĠEn":537,"ace":538,"Ġper":539,"Ġentre":540,"ad":541,"Ġ18":542,"ore":543,"Ġap":544,"ente":545,"oit":546,"av":547,"ours":548,"ĠCh":549,"ate":550,"Ġmar":551,"cle":552,"sion":553,").":554,"ĠW":555,"ments":556,"Ġno":557,"tin":558,"oire":559,"Ġfait":560,"ations":561,"alement":562,"ants":563,"Ġ200":564,"Ġ;":565,"ĠK":566,"use":567,"Ġfin":568,"Ġ20":569,"Ġlui":570,"tif":571,"ĠCe":572,"Ġmon":573,"Ġgran":574,"Ġcette":575,"Ġpo":576,"Ġdis":577,"ct":578,"ante":579,"Ġont":580,"Ġche":581,"Ġ3":582,"tions":583,"ill":584,"ÌĪ":585,"Ġter":586,"ĠÂ».":587,"lles":588,"Ġleur":589,"tie":590,"ing":591,"ĠÂ»,":592,"Ġje":593,"Ġsie":594,"des":595,"nes":596,"sent":597,"ex":598,"Ġro":599,"oy":600,"cu":601,"insi":602,"Le":603,"ĠO":604,"Ġtro":605,"ussi":606,"able":607,"iste":608,"ranc":609,"ĠPar":610,"Ġge":611,"Ìģ,":612,"ph":613,"Ġfe":614,"ire":615,"ob":616,"Ġcar":617,"Ġes":618,"Ġcl":619,"aires":620,"tis":621,"ĠDe":622,"ide":623,"int":624,"iques":625,"orte":626,"ert":627,",.":628,"ĠX":629,"Ġimp":630,"Ġpers":631,"Ġrec":632,"rent":633,"Ġ201":634,"Ġnombre":635,"be":636,"Ġas":637,"ten":638,"Ġdont":639,"ffe":640,"cip":641,"tru":642,"Ġaussi":643,"tra":644,"Ġpeu":645,"Ġnouve":646,"mb":647,"tant":648,"Ġalors":649,"ris":650,"teur":651,"amp":652,"man":653,"Ġres":654,"Ġpuis":655,"endant":656,"ver":657,"Ġanne":658,"ole":659,"Ġor":660,"La":661,"Ġmil":662,"Åĵ":663,"Ġainsi":664,"ven":665,"ures":666,"aine":667,"Un":668,"tait":669,"ang":670,"Ġma":671,"Ġces":672,"oup":673,"ĠMar":674,"mi":675,"ron":676,"ric":677,"Ġser":678,"Ġsous":679,"ser":680,"fe":681,"til":682,"cl":683,"met":684,"ales":685,"enne":686,"..":687,"galement":688,"Ġtre":689,"ong":690,"uer":691,"Ġy":692,"Ġelle":693,"tiques":694,"Ġlors":695,"Ġtrois":696,"min":697,"Ġder":698,"Ġ4":699,"igne":700,"pp":701,"Ġprin":702,"rance":703,"fin":704,"th":705,"Ġcol":706,"erta":707,"Ġins":708,"tive":709,"Ġti":710,"ense":711,"ls":712,"Ġpremie":713,"ages":714,"Ġjus":715,"ass":716,"Ġfil":717,"pose":718,"lement":719,"ieu":720,"puis":721,"Ġcre":722,"ient":723,"Ġsou":724,"Ġpos":725,"ĠâĢ":726,"Ġthe":727,"19":728,"if":729,"lo":730,"Ġ5":731,"Ġapre":732,"En":733,"oli":734,"ouver":735,"ĠJe":736,"oue":737,"con":738,"Ġville":739,"Ġpeut":740,"alite":741,"Ġju":742,"ĠRe":743,"asse":744,"mps":745,"Ġat":746,"ib":747,"olog":748,"ubli":749,"lie":750,"Ġco":751,"ves":752,"Ġ199":753,"are":754,"Ġinter":755,"qui":756,"mbre":757,"dent":758,"Ġfranc":759,"Ġtrav":760,"iss":761,"ays":762,"mble":763,"II":764,"vent":765,"Ġsi":766,"Ġman":767,"Ġob":768,"ton":769,"Ġsy":770,"lan":771,"Ġren":772,"Ġtout":773,"Ìģ.":774,"je":775,"ieurs":776,"000":777,"mment":778,"its":779,"ĠFrance":780,"agne":781,"Ġdern":782,"Ġ%":783,"orm":784,"crit":785,"rou":786,"Ġad":787,"id":788,"Ġbe":789,"Ġpartie":790,"Ġcour":791,"aient":792,"Ġsans":793,"Ġrep":794,"Ġve":795,"Ġpersonn":796,"Ġcontre":797,"Les":798,"ope":799,"emp":800,"alis":801,"alle":802,"omme":803,"ines":804,"ĠAn":805,"ca":806,"tat":807,"Ġ000":808,"ma":809,"Ġbien":810,"titu":811,"Ġba":812,"Ġpremier":813,"Ġenc":814,"ches":815,"Ġtour":816,"ture":817,"ues":818,"Ġcerta":819,"Ġhe":820,"cher":821,"uv":822,"ome":823,"Ġacc":824,"oci":825,"ration":826,"teurs":827,"Ġconn":828,"lon":829,"Ġpays":830,"gl":831,"nent":832,"Ġgra":833,"vel":834,"Ġsit":835,"ral":836,"Ġgrand":837,"Ġvers":838,"Ġdepuis":839,"Ġpermet":840,"Ġplace":841,"Ġri":842,"onc":843,"ontre":844,"Ġab":845,"cul":846,"Ġavant":847,"Ġplusieurs":848,"ges":849,"lu":850,"aut":851,"ies":852,"gne":853,"Ġcou":854,"Ġconc":855,"Ġcor":856,"vant":857,"Ġon":858,"Ġcommun":859,"ĠParis":860,"aint":861,"Ġrepre":862,"gre":863,"Ġoc":864,"Ġcha":865,"cien":866,"ieux":867,"Ġaut":868,"ner":869,"Ġsec":870,"Ġmin":871,"Ġconf":872,"Ġexp":873,"tit":874,"Ġans":875,"ode":876,"Ġ9":877,"opul":878,"Â«":879,"all":880,"Ġ6":881,"ĠâĢĶ":882,"Ġjusqu":883,"Ġnota":884,"ĠSe":885,"ud":886,"Ġlong":887,"Ġph":888,"olu":889,"ĠAl":890,"Ġcap":891,"mis":892,"Ġpoli":893,"gan":894,"Ġtrans":895,"endre":896,"illes":897,"tement":898,"vis":899,"Ġautres":900,"Ġquel":901,"Ġprincip":902,"oute":903,"Ġfois":904,"Ġass":905,"but":906,"iers":907,"Ġpopul":908,"Ġ198":909,"ign":910,"out":911,"posi":912,"ains":913,"Ġ17":914,"Ġtemps":915,"Ġca":916,"Åĵuv":917,"Ġutil":918,"Ġencore":919,"uerre":920,"Ġfut":921,"od":922,"llement":923,"Ġleurs":924,"Ġnation":925,"ĠNe":926,"Ġ7":927,"vient":928,"tro":929,"ru":930,"isse":931,"cep":932,"side":933,"omp":934,"Ġni":935,"to":936,"ler":937,"ouvent":938,"Ġpubli":939,"Ġprof":940,"cri":941,"Ġk":942,"ici":943,"inte":944,"uses":945,"per":946,"fois":947,"Ġvie":948,"Ġprodu":949,"Ġsui":950,"ren":951,"aille":952,"Ġjoue":953,"val":954,"Ġcel":955,"ia":956,"ze":957,"Ġimport":958,"Ġnotamment":959,"lig":960,"Ġprop":961,"Ġmus":962,"Ġim":963,"isme":964,"ste":965,"rec":966,"Ġquat":967,"vite":968,"Ġvis":969,"Ġapp":970,"ane":971,"sente":972,"Ġdiffe":973,"isation":974,"Ġmonde":975,"jet":976,"Ġfaire":977,"Ġ8":978,"ĠU":979,"ann":980,"Ġeff":981,"dre":982,"Ġmoins":983,"velop":984,"ug":985,"der":986,"Ġfon":987,"ĠJo":988,"dition":989,"Ġmai":990,"ĠPe":991,"ils":992,"Ġpri":993,"ature":994,"Ġ[":995,"Ġjour":996,"ame":997,"mer":998,"Ġ197":999,"ule":1000,"Ġcul":1001,"aison":1002,"Ġoff":1003,"Ġmal":1004,"Ġtous":1005,"Ġremp":1006,"elle":1007,"pendant":1008,"aise":1009,"An":1010,"quipe":1011,"enti":1012,"Ġpouv":1013,"art":1014,"aute":1015,"ogra":1016,"ĠY":1017,"rique":1018,"alise":1019,"Ġspe":1020,"gi":1021,"Ġdom":1022,"rib":1023,"iens":1024,"Ġame":1025,"Ġsoit":1026,"Ġrom":1027,"ctions":1028,"one":1029,"uit":1030,"istoire":1031,"Ġ196":1032,"ĠQ":1033,"abit":1034,"Ġcelui":1035,"tab":1036,"Ġconstru":1037,"rement":1038,"lier":1039,"nement":1040,"ĠSaint":1041,"autres":1042,"rai":1043,"Ġnon":1044,"Ġcelle":1045,"Ġgrande":1046,"anne":1047,"Ġforme":1048,"Ġconside":1049,"Ġligne":1050,"Ġappar":1051,"Ġmen":1052,"arge":1053,"urant":1054,"ĠDans":1055,"ĠCette":1056,"urope":1057,"mpe":1058,"Ġmort":1059,"vers":1060,"Ġtoute":1061,"ĠUn":1062,"ry":1063,"ocie":1064,"Ġreste":1065,"ari":1066,"Ġ194":1067,"ats":1068,"tation":1069,"ade":1070,"Ġ15":1071,"ĠElle":1072,"Ġsp":1073,"Ġsuc":1074,"poque":1075,"...":1076,"tent":1077,"ros":1078,"oul":1079,"ĠThe":1080,"Ġmilli":1081,"20":1082,"Ġent":1083,"Ġcours":1084,"Ġver":1085,"Ġavoir":1086,"vo":1087,"ses":1088,"Ġfilm":1089,"ĠMe":1090,"ger":1091,"ites":1092,"mo":1093,"Ġof":1094,"Ġpie":1095,"Ġ16":1096,"antes":1097,"Ġvi":1098,"tats":1099,"Ġmat":1100,"ute":1101,"roupe":1102,"Ġdonne":1103,"Ġavait":1104,"agn":1105,"ĠBe":1106,"Ġdonc":1107,"mon":1108,"Ġinte":1109,"Ġsol":1110,"az":1111,"lus":1112,"Ġrap":1113,"uel":1114,"Ġsep":1115,"Ġcro":1116,"Ġmet":1117,"Ġils":1118,"ty":1119,"Ġjeu":1120,"gion":1121,"Ġpartir":1122,"veloppe":1123,"rer":1124,"ents":1125,"Ġfer":1126,"ienne":1127,"lace":1128,"Ġfac":1129,"gue":1130,"aiss":1131,"ich":1132,"ograph":1133,"Ġcin":1134,"Ġmont":1135,"Ġcas":1136,"ĠAu":1137,"Ġfre":1138,"ath":1139,"Ġguerre":1140,"Ġdiff":1141,"Ġquatre":1142,"Ġ193":1143,"18":1144,"Ġaff":1145,"Ġz":1146,"Ġutilise":1147,"Ġquelques":1148,"ĠAr":1149,"Ġlieu":1150,"Ġfam":1151,"Ġselon":1152,"for":1153,"ĠJean":1154,"Ġ10":1155,"aines":1156,"anc":1157,"Ġrapp":1158,"rait":1159,"ke":1160,"ll":1161,"fic":1162,"Ġnouveau":1163,"mar":1164,"ov":1165,"ange":1166,"Ġop":1167,"Ġpres":1168,"IS":1169,"mand":1170,"Ġli":1171,"Ġsce":1172,"olution":1173,"Ġdro":1174,"Ġmoy":1175,"istor":1176,"ix":1177,"Ġchamp":1178,"Ġcan":1179,"Ġindi":1180,"Ġnombreux":1181,"Xe":1182,"ĠGran":1183,"fs":1184,"Ġmes":1185,"acte":1186,"Ġsouvent":1187,"Ġpart":1188,"Ġcent":1189,"Ġtrouve":1190,"cs":1191,"su":1192,"tine":1193,"Ġ195":1194,"phe":1195,"avi":1196,"Ġclub":1197,"Ġport":1198,"site":1199,"Ġappe":1200,"Ġsuite":1201,"Ġhom":1202,"Ġpolitique":1203,"riode":1204,"ĠCar":1205,"istes":1206,"BN":1207,"taient":1208,"Ġemp":1209,"jours":1210,"ĠChar":1211,"rise":1212,"Ġvol":1213,"ande":1214,"Ġcri":1215,"ison":1216,"ilite":1217,"Ġhabit":1218,"Ġchez":1219,"Ġcontra":1220,"Ġsitue":1221,"ose":1222,"bles":1223,"Ġouv":1224,"ĠIn":1225,"Ie":1226,"Åĵuvre":1227,"Ġeffet":1228,"ĠGe":1229,"Ġliv":1230,"ili":1231,"occa":1232,"Ġautre":1233,"Ġexemp":1234,"ict":1235,"Ar":1236,"ak":1237,"oph":1238,"ah":1239,"Ġdernier":1240,"Ġconse":1241,"Ġnature":1242,"ateur":1243,"gra":1244,"ĠXV":1245,"Ġgouver":1246,"part":1247,"tier":1248,"lex":1249,"ĠPour":1250,"Ġsoci":1251,"rage":1252,"Ġinc":1253,"itte":1254,"Ġorgan":1255,"sions":1256,"aul":1257,"oin":1258,"orite":1259,"tien":1260,"Ġpasse":1261,"Ġloc":1262,"quer":1263,"Ġfond":1264,"Ġpouvoir":1265,"the":1266,"ĠZ":1267,"ISBN":1268,"tal":1269,"position":1270,"Ġmis":1271,"Ġgroupe":1272,"Ġroi":1273,"yp":1274,"omb":1275,"rive":1276,"oires":1277,"Ġdou":1278,"ote":1279,"assi":1280,"Ġinf":1281,"exp":1282,"ĠTh":1283,"yant":1284,"ja":1285,"Ġsaison":1286,"vier":1287,"Ġfem":1288,"Ġ13":1289,"Ġref":1290,"lique":1291,"Ġpeti":1292,"ĠĊ":1293,"Ġretr":1294,"De":1295,"ables":1296,"Ġtoujours":1297,"ern":1298,"tivite":1299,"auc":1300,"Ġenf":1301,"ene":1302,"urent":1303,"ierre":1304,"Ġnouvelle":1305,"hn":1306,"ances":1307,"Ġporte":1308,"ĠSch":1309,"Ġaur":1310,"Ġvoit":1311,"Ġsub":1312,"tifs":1313,"ck":1314,"Ġpublic":1315,"sence":1316,"ail":1317,"Ġmatch":1318,"nation":1319,"acc":1320,"Ġpendant":1321,"ps":1322,"Ġcertains":1323,"viron":1324,"rence":1325,"Ġcentre":1326,"mande":1327,"app":1328,"dus":1329,"Ġsud":1330,"Ġnive":1331,"Ġdoit":1332,"Ġroy":1333,"chn":1334,"Ġret":1335,"Ġcaracte":1336,"Ġalle":1337,"Ġ14":1338,"Ġrest":1339,"cla":1340,"die":1341,"iver":1342,"Ġrelig":1343,"Ġag":1344,"rieur":1345,"Ġrou":1346,"ati":1347,"iel":1348,"ourg":1349,"Ġnord":1350,"ice":1351,"Ġto":1352,"itaire":1353,"Ġparc":1354,"Ġseul":1355,"amb":1356,"ĠFranc":1357,"Ġcolle":1358,"Ġrenc":1359,"ĠUne":1360,"Ġ12":1361,"Ġsyste":1362,"Ġpass":1363,"histoire":1364,"rier":1365,"Ġ-":1366,"conom":1367,"Ġafin":1368,"ras":1369,"Ġtard":1370,"Ġmode":1371,"Ġcommune":1372,"rant":1373,"Ġsecond":1374,"rend":1375,"ick":1376,"Ġten":1377,"Ġhum":1378,"Ġdev":1379,"cur":1380,"land":1381,"Ġmain":1382,"son":1383,"Ġsta":1384,"ile":1385,"igine":1386,"rale":1387,"Ġgar":1388,"mine":1389,"Ġdevient":1390,"iles":1391,"Ġcompte":1392,"Ġpoint":1393,"ĠCes":1394,"Ġpra":1395,"Ġmois":1396,"once":1397,"Ġdernie":1398,"78":1399,"lin":1400,"Ġceux":1401,"yn":1402,"ow":1403,"cis":1404,"time":1405,"oupes":1406,"oles":1407,"aume":1408,"Ġvoi":1409,"illet":1410,"Ġpopulation":1411,"Ġcomb":1412,"Ġdess":1413,"Ġcinq":1414,"lic":1415,"Ġnombreuses":1416,"auv":1417,"sible":1418,"sident":1419,"Ġmouve":1420,"ber":1421,"Ġess":1422,"volution":1423,"Ġsucce":1424,"Ġcontin":1425,"Ġmarque":1426,"sy":1427,"Ġmillions":1428,"Ġexemple":1429,"ditions":1430,"istre":1431,"Ġcamp":1432,"Ġam":1433,"tient":1434,"Ġparticu":1435,"Ġclasse":1436,"ril":1437,"aur":1438,"eau":1439,"Ġann":1440,"Ġjuin":1441,"ĠOn":1442,"Ġmeille":1443,"Ġconser":1444,"jour":1445,"Ġquar":1446,"Ġtitre":1447,"tic":1448,"andis":1449,"Ġcapit":1450,"cture":1451,"Ġpeuvent":1452,"onde":1453,"imite":1454,"Ġespe":1455,"Ġnous":1456,"Ġtechn":1457,"duit":1458,"Ġterrit":1459,"Ġdurant":1460,"Ġtoutes":1461,"Ġform":1462,"ĠXI":1463,"cess":1464,"Ġdeuxie":1465,"suite":1466,"Ġsign":1467,"Ġcet":1468,"Ġcoup":1469,"atri":1470,"Ġlang":1471,"ĠDes":1472,"Ġbut":1473,"semble":1474,"Ġprote":1475,"orts":1476,"ĠMais":1477,"uire":1478,"gn":1479,"Ġayant":1480,"Ġfig":1481,"Ġculture":1482,"Ġreg":1483,"Ġcommer":1484,"ions":1485,"enc":1486,"ume":1487,"Ġseu":1488,"Ġchaque":1489,"pec":1490,"ateurs":1491,"Ġhommes":1492,"orta":1493,"ĠCl":1494,"ds":1495,"Ġrend":1496,"Ġposse":1497,"ik":1498,"ĠSh":1499,"ĠSt":1500,"Ġ191":1501,"gie":1502,"autre":1503,"tivement":1504,"ition":1505,"aissance":1506,"ionn":1507,"unes":1508,"Ġeffe":1509,"ĠPh":1510,"conde":1511,"ouis":1512,"Ġniveau":1513,"vin":1514,"Ġpersonne":1515,"Ġparticul":1516,"ian":1517,"illi":1518,"Ġsour":1519,"Ġpoe":1520,"Ġjan":1521,"ologie":1522,"Ġfonction":1523,"Ġpersonnes":1524,"ĠIls":1525,"Ġdire":1526,"In":1527,"Ġjours":1528,"Ġvoy":1529,"aucoup":1530,"50":1531,"Ġmondi":1532,"Ġfai":1533,"Ġgouvernement":1534,"sie":1535,"Ġsocie":1536,"inf":1537,"Ġtant":1538,"Ġpa":1539,"Au":1540,"dic":1541,"Ġsupp":1542,"tout":1543,"Ġdeven":1544,"titue":1545,"Ġ192":1546,"ritann":1547,"ouse":1548,"Ġbou":1549,"Ġjam":1550,"rige":1551,"Ġatte":1552,"Ġhistor":1553,"Ġfils":1554,"ital":1555,"cident":1556,"iti":1557,"Ġfont":1558,"Ġfamille":1559,"ĠNew":1560,"ublie":1561,"tionne":1562,"Ġplan":1563,"Ġcheval":1564,"ĠJohn":1565,"Ġservi":1566,"dite":1567,"Ġcite":1568,"pond":1569,"Ġviv":1570,"tembre":1571,"Ġdirec":1572,"enn":1573,"alif":1574,"Ġ11":1575,"Ġparfois":1576,"Ġdisp":1577,"rite":1578,"Ġraison":1579,"vie":1580,"Ġrapide":1581,"tri":1582,"arch":1583,"ulte":1584,"Ġtraite":1585,"Ġposi":1586,"Ġroman":1587,"ly":1588,"Ġdonn":1589,"hui":1590,"Ġcompose":1591,"uelle":1592,"Ġpu":1593,"ences":1594,"Ġplu":1595,"Ġmars":1596,"trie":1597,"ivers":1598,"Unis":1599,"urb":1600,"Ġsix":1601,"Ġseptembre":1602,"Ġretour":1603,"tobre":1604,"Ġesp":1605,"ok":1606,"Ġpublie":1607,"vement":1608,"Ġjamais":1609,"Ġjanvier":1610,"gle":1611,"Ġcependant":1612,"ones":1613,"Ġmontre":1614,"ori":1615,"Ġprend":1616,"ression":1617,"ĠHe":1618,"Ġjuillet":1619,"...]":1620,"Ġtandis":1621,"quent":1622,"leve":1623,"Ġbeaucoup":1624,"Ġbas":1625,"arie":1626,"pend":1627,"Ġauc":1628,"Ġlie":1629,"Ġsurtout":1630,"Ġbase":1631,"Ġ[...]":1632,"Ġdix":1633,"aff":1634,"rin":1635,"Ġpremiers":1636,"Dans":1637,"Ġmy":1638,"origine":1639,"ĠSon":1640,"Ġparticulier":1641,"publi":1642,"Ġfra":1643,"Ġensuite":1644,"quelle":1645,"Ġdoc":1646,"cembre":1647,"ĠCharles":1648,"quel":1649,"Ġtravail":1650,"ppe":1651,"iser":1652,"Ġface":1653,"elles":1654,"Ġcorps":1655,"ach":1656,"omm":1657,"voir":1658,"reur":1659,"Ġtradition":1660,"Ġparticulie":1661,"ars":1662,"Ġand":1663,"Ġmise":1664,"ĠJac":1665,"Ġsc":1666,"Ġlaquelle":1667,"Ġanim":1668,"inter":1669,"Ġatt":1670,"Ġvict":1671,"occata":1672,"Ġpal":1673,"Ġconte":1674,"ints":1675,"arme":1676,"action":1677,"lor":1678,"seau":1679,"Ġrencontre":1680,"Ġavril":1681,"Ġlarge":1682,"ende":1683,"Ġsor":1684,"Ġmusique":1685,"ennent":1686,"cupe":1687,"glise":1688,"Ġoctobre":1689,"ork":1690,"Ġgrands":1691,"apon":1692,"co":1693,"Ġtex":1694,"st":1695,"uve":1696,"Ġelles":1697,"Ġchev":1698,"luence":1699,"Ġbar":1700,"ĠSi":1701,"cide":1702,"Ġcomple":1703,"Ġmer":1704,"Ġcause":1705,"ĠQu":1706,"ĠII":1707,"car":1708,"Ġrecher":1709,"Ġreconn":1710,"mbl":1711,"ess":1712,"resse":1713,"vembre":1714,"Ġsemble":1715,"quet":1716,"Ġinternation":1717,"mie":1718,"ĠPre":1719,"Ġtroisie":1720,"temps":1721,"ĠAinsi":1722,"aly":1723,"Ġblan":1724,"ĠRob":1725,"ÌĦ":1726,"Ġsite":1727,"tage":1728,"Ġpersonnages":1729,"ave":1730,"Ġnomme":1731,"Ġsimp":1732,"avant":1733,"verse":1734,"sionne":1735,"Ġ(Â«":1736,"apre":1737,"Ġaurait":1738,"oie":1739,"teau":1740,"ĠBel":1741,"oye":1742,"Ġnational":1743,"ĠBar":1744,"acre":1745,"cte":1746,"lac":1747,"ĠCol":1748,"air":1749,"ĠApre":1750,"veloppement":1751,"ĠGeor":1752,"Ġaou":1753,"Ġnovembre":1754,"ho":1755,"ĠĠ":1756,"esp":1757,"Ġautour":1758,"Ġi":1759,"Ġrela":1760,"Ġoffic":1761,"Ġretrouve":1762,"Ġrel":1763,"Ġven":1764,"ney":1765,"Ġva":1766,"Ġmoder":1767,"ax":1768,"ordre":1769,"mbres":1770,"vision":1771,"nie":1772,"ablement":1773,"Ġcir":1774,"serve":1775,",,":1776,"elon":1777,"ĠGrand":1778,"Åĵur":1779,"orter":1780,"Ġseulement":1781,"Ġdist":1782,"Ġconstitue":1783,"Ġproble":1784,"Ġpris":1785,"Ġ30":1786,"jourd":1787,"dam":1788,"Ġsitu":1789,"Ġcoule":1790,"ĠNord":1791,"Åĵuvres":1792,"ĠIs":1793,"Ġjeune":1794,"ĠBre":1795,"Al":1796,"Ġmor":1797,"ĠGre":1798,"Ġviol":1799,"gent":1800,"ox":1801,"bert":1802,"Ġcal":1803,"Ġprofes":1804,"Ġlivre":1805,"ĠCon":1806,"pes":1807,"ĠRoy":1808,"Ġappele":1809,"da":1810,"Ġsal":1811,"Ġ189":1812,"rents":1813,"Ġpuiss":1814,"Ġtravers":1815,"uni":1816,"voque":1817,"ith":1818,"Ġmanie":1819,"jets":1820,"tran":1821,"orde":1822,"ument":1823,"Ġjeunes":1824,"oupe":1825,"Ġhabitants":1826,"ime":1827,"Ġ25":1828,"gon":1829,"Ġfais":1830,"issement":1831,"Ġkm":1832,"Ġfour":1833,"Ġtable":1834,"iquement":1835,"Ġconstruction":1836,"ple":1837,"Ġlitte":1838,"Ġeux":1839,"Ġenviron":1840,"tudi":1841,"ball":1842,"Ġsoi":1843,"ĠXIXe":1844,"do":1845,"Ġprojet":1846,"agit":1847,"Ġangl":1848,"dustrie":1849,"Ġcontro":1850,"Ġtrop":1851,"Ġcoll":1852,"cta":1853,"Ġdemande":1854,"ĠMal":1855,"cipe":1856,"aus":1857,"Ġdate":1858,"Ġmom":1859,"Ġdispar":1860,"tabl":1861,"Ġjou":1862,"rieure":1863,"estion":1864,"Ġdevant":1865,"Ġmoi":1866,"ressi":1867,"Ġcharge":1868,"Ġmari":1869,"orie":1870,"cre":1871,"iche":1872,"Ġ190":1873,"Ġinst":1874,"duction":1875,"Ġcela":1876,"Ġdirige":1877,"Ġmouvement":1878,"lam":1879,"rises":1880,"ttes":1881,"ĠGu":1882,"vre":1883,"ĠLouis":1884,"aud":1885,"Ġmuse":1886,"Ce":1887,"dif":1888,"Ġenfants":1889,"vrier":1890,"Ġdivers":1891,"Ġrapport":1892,"Ġreven":1893,"uto":1894,"Ġcad":1895,"Ġlet":1896,"att":1897,".,":1898,"ype":1899,"act":1900,"Ġproduction":1901,"men":1902,"Ġparmi":1903,"Ġsty":1904,"Ġmembres":1905,"illeurs":1906,"adi":1907,"lant":1908,"Ġsupe":1909,"mpire":1910,"ensemble":1911,"Ġpoints":1912,"Ġ978":1913,"Ġnationale":1914,"ss":1915,"Ġw":1916,"Ġgrandes":1917,"Ġorig":1918,"ae":1919,"Ġplupart":1920,"uf":1921,"ctue":1922,"tiers":1923,"Ġmaj":1924,"ĠXVII":1925,"Il":1926,"can":1927,"tives":1928,"Ġchar":1929,"Ġpil":1930,"aliste":1931,"Ġcher":1932,"Ġcertaines":1933,"Ġconstitu":1934,"ennes":1935,"cole":1936,"ralement":1937,"abord":1938,"ront":1939,"ley":1940,"tenir":1941,"minist":1942,"ries":1943,"Ġpropre":1944,"arde":1945,"Ġatta":1946,"ga":1947,"ĠCependant":1948,"17":1949,"ĠCons":1950,"otes":1951,"port":1952,"sid":1953,"Ġchange":1954,"vol":1955,"Ġprom":1956,"Ġ0":1957,"terre":1958,"Ġanci":1959,"roche":1960,"aces":1961,"Ġartis":1962,"Ġsens":1963,"Ġpratique":1964,"hi":1965,"Ġeurope":1966,"itaires":1967,"ĠCan":1968,"Ġasse":1969,"gage":1970,"Ġancien":1971,"Ġseconde":1972,"aste":1973,"oe":1974,"ĠMont":1975,"Ġmilieu":1976,"Ġlongue":1977,"10":1978,"Ġfort":1979,"ĠPaul":1980,"uifs":1981,"Ġcommunaute":1982,"ĠFe":1983,"Ġsymb":1984,"ception":1985,"16":1986,"Ġpetit":1987,"forme":1988,"Ġcommence":1989,"oge":1990,"Ġ186":1991,"ini":1992,"icile":1993,"Ġchampionn":1994,"Ġbon":1995,"Ġgrec":1996,"ographie":1997,"rain":1998,"titude":1999,"Ġpersonnage":2000,"issent":2001,"ouvert":2002,"util":2003,"cles":2004,"aci":2005,"oise":2006,"Ġbritann":2007,"Ġving":2008,"aite":2009,"ĠHen":2010,"Ġ2006":2011,"crip":2012,"Ġzone":2013,"Ġterritoire":2014,"ĠÅĵuvres":2015,"Ġple":2016,"Ġailleurs":2017,"Ġgen":2018,"ication":2019,"auche":2020,"Ġsyn":2021,"Ġeu":2022,"Ġsein":2023,"Ġpluto":2024,"onnement":2025,"Ġaccue":2026,"Ġimportant":2027,"ouest":2028,"ĠDis":2029,"ĠHar":2030,"Ġmoyenne":2031,"Ġfemmes":2032,"form":2033,"ĠLu":2034,"Ġchevaux":2035,"gu":2036,"gul":2037,"entie":2038,"Ġbi":2039,"Ġide":2040,"Ġnoir":2041,"ĠPierre":2042,"Ġfinalement":2043,"Ġseule":2044,"oot":2045,"Ġcelles":2046,"Ġsuivant":2047,"loi":2048,"Ġlib":2049,"Ġqualif":2050,",,.":2051,"ĠDu":2052,"acite":2053,"ologique":2054,"Ġdit":2055,"ĠCom":2056,"Ġproprie":2057,"Ġmesure":2058,"quant":2059,"Ġcourse":2060,"Ġconnai":2061,"oly":2062,"irme":2063,"anci":2064,"Ġorganise":2065,"Ġtravaux":2066,"30":2067,"her":2068,"Ġcompe":2069,"tude":2070,"Ġrapidement":2071,"Ġmoment":2072,"ĠSa":2073,"ĠBer":2074,"15":2075,"magne":2076,"Ġrev":2077,"Ġprog":2078,"vir":2079,"ribu":2080,"Ġscien":2081,"ĠFre":2082,"Ġjourn":2083,"ares":2084,"Ġpropose":2085,"Ġmondiale":2086,"ÌĢ-":2087,"Ġquand":2088,"lim":2089,"ĠYork":2090,"esti":2091,"ctif":2092,"Ġvue":2093,"Ġmarche":2094,"Ġsituation":2095,"sul":2096,"organ":2097,"Ġjoueurs":2098,"Ġvoyage":2099,"rentes":2100,"Ġversion":2101,"Ġvill":2102,"Ġarme":2103,"Ġdistin":2104,"ative":2105,"lection":2106,"iele":2107,"Ġterre":2108,"gram":2109,"ible":2110,"pare":2111,"lect":2112,"ĠLors":2113,"Ġ188":2114,"Ġchef":2115,"Ġpossible":2116,"ombe":2117,"Ġactivite":2118,"Ġresp":2119,"Ch":2120,"tudes":2121,"Ġforce":2122,"Ġmuni":2123,"ĠSte":2124,"Ġhy":2125,"pelle":2126,"tt":2127,"Ġsus":2128,"oule":2129,"Ġfle":2130,"Ġtri":2131,"ĠSp":2132,"ignes":2133,"Ġimportante":2134,"Ġproce":2135,"Ġassez":2136,"ĠÅĵuvre":2137,"respond":2138,"igue":2139,"Ġbata":2140,"ĠTe":2141,"duire":2142,"Ġcine":2143,"Ġhau":2144,"ys":2145,"taire":2146,"ĠJu":2147,"Ġlorsque":2148,"Ġran":2149,"anti":2150,"quie":2151,"ĠLond":2152,"Ġserait":2153,"Ġmag":2154,"duc":2155,"ribue":2156,"sych":2157,"sus":2158,"aisse":2159,"Ġtroupes":2160,"Ġ2008":2161,"cup":2162,"dit":2163,"rist":2164,"rime":2165,"ĠSchiele":2166,"Ġst":2167,"inc":2168,"Ġtype":2169,"tend":2170,"Ġstat":2171,"Ġsera":2172,"Ġlibe":2173,"Ġfemme":2174,"Ġlangue":2175,"Ġvilles":2176,"oser":2177,"issant":2178,"Ġentrai":2179,"off":2180,"Ġis":2181,"usion":2182,"ĠIer":2183,"13":2184,"Ġcolon":2185,"Ġdiffic":2186,"rature":2187,"ards":2188,"rom":2189,"sp":2190,"utes":2191,"ĠVe":2192,"ki":2193,"indre":2194,"ress":2195,"Ġjoueur":2196,"Ġsignif":2197,"dis":2198,"moi":2199,"Ġiss":2200,"Ġnavi":2201,"avor":2202,"nage":2203,"Ġlance":2204,"Ġpense":2205,"Ġchans":2206,"Ġterme":2207,"Ġlimite":2208,"Ġvale":2209,"Ġgr":2210,"Ġ2007":2211,"ĠIII":2212,"aye":2213,"70":2214,"Ġaujourd":2215,"ĠSud":2216,"Ġact":2217,"oll":2218,"Ġmilitaire":2219,"Ġservice":2220,"antin":2221,"Ġ22":2222,"Ġmaje":2223,"ricain":2224,"Ġcorrespond":2225,"ortail":2226,"Ġtot":2227,"Ġprob":2228,"Ġconnu":2229,"Empire":2230,"Ġdestine":2231,"Ġhaut":2232,"Ġexiste":2233,"Ġapparai":2234,"Ġofficie":2235,"Ġaj":2236,"Ġtemp":2237,"Ġsuiv":2238,"Ġfonde":2239,"Ġrej":2240,"ĠMon":2241,"Ġ24":2242,"estre":2243,"aug":2244,"Ġcompagn":2245,"Ġparticip":2246,"Ġspecta":2247,"ige":2248,"clare":2249,"bes":2250,"ticle":2251,"Ġlaisse":2252,"Ġmaison":2253,"ache":2254,"Ġqualite":2255,"aises":2256,"Ġpeint":2257,"Ġcy":2258,"Ġfinale":2259,"ĠXXe":2260,"rences":2261,"moins":2262,"rir":2263,"cy":2264,"gyp":2265,"Ġ?":2266,"Ġbois":2267,"Ġclassi":2268,"tel":2269,"ĠPro":2270,"ĠMan":2271,"Ġentrep":2272,"ĠWal":2273,"Ġdroit":2274,"Ġrue":2275,"tisme":2276,"Ġallemand":2277,"asi":2278,"Ġvoir":2279,"rich":2280,"ailleurs":2281,"Ġdra":2282,"erne":2283,"Ġposition":2284,"Europe":2285,"Ġfore":2286,"Ġorigin":2287,"dro":2288,"Ġmul":2289,"Ġforte":2290,"ibli":2291,"Ġchampionnat":2292,"ĠLondres":2293,"14":2294,"Ġbat":2295,"Ġremporte":2296,"Ġfurent":2297,"ousse":2298,"io":2299,"pis":2300,"Ġmate":2301,"rig":2302,"inst":2303,"ociation":2304,"pire":2305,"ormais":2306,"ĠDisney":2307,"ĠCo":2308,"ĠDick":2309,"onnes":2310,"bourg":2311,"hy":2312,"sormais":2313,"espe":2314,"Ġ2005":2315,"Ġremplace":2316,"Ġstyle":2317,"Ġlut":2318,"ity":2319,"ĠPer":2320,"ĠGuerre":2321,"mpereur":2322,"Ġmunicip":2323,"Ġurb":2324,"llemagne":2325,"Ġpours":2326,"tor":2327,"Ġpsych":2328,"Ġache":2329,"lev":2330,"alistes":2331,"rus":2332,"Ġetc":2333,"Ġ2000":2334,"ĠChe":2335,"Ġarrive":2336,"publique":2337,"Ġcit":2338,"ensi":2339,"ĠRo":2340,"ock":2341,"fense":2342,"este":2343,"oure":2344,"entes":2345,"eth":2346,"ootball":2347,"ĠSelon":2348,"Ġprogram":2349,"alisation":2350,"Ġprendre":2351,"Ġexpe":2352,"Ġstru":2353,"tition":2354,"Ġlequel":2355,"atta":2356,"Ġnouvelles":2357,"Ġrespons":2358,"Ġremar":2359,"rs":2360,"aissent":2361,"oss":2362,"12":2363,"ĠKe":2364,"Ġvingt":2365,"rations":2366,"conomique":2367,"Ġfigure":2368,"ony":2369,"anim":2370,"Ġcommunes":2371,"Ġprincipalement":2372,"lit":2373,"Ġsort":2374,"Ġ28":2375,"ager":2376,"bum":2377,"quis":2378,"dia":2379,"homme":2380,"Ġsau":2381,"Ġcra":2382,"Ġbre":2383,"Ġpeuple":2384,"Ġvictoire":2385,"Ġtent":2386,"orth":2387,"Ġaccomp":2388,"Ġpetite":2389,"face":2390,"ires":2391,"Ġid":2392,"Ġrecherche":2393,"Ġfavor":2394,"Ġtend":2395,"Ġproche":2396,"no":2397,"ysi":2398,"Ġestime":2399,"Ġcritique":2400,"na":2401,"ara":2402,"ĠPortail":2403,"enf":2404,"Ġfaut":2405,"talie":2406,"va":2407,"ĠCor":2408,"alisme":2409,"run":2410,"Ġfeu":2411,"Ġ2010":2412,"Ġpian":2413,"200":2414,"Ġgl":2415,"ham":2416,"Ġ!":2417,"Ġtaille":2418,"roi":2419,"Ġhomme":2420,"partement":2421,"gleterre":2422,"cal":2423,"vise":2424,"Ġsom":2425,"rages":2426,"Ġcommerci":2427,"Par":2428,"ville":2429,"vain":2430,"Ġaug":2431,"Ġprix":2432,"Ġzones":2433,"enter":2434,"Ġtempe":2435,"Ġdirection":2436,"ĠPri":2437,".-":2438,"by":2439,"Ġquant":2440,"unis":2441,"gulie":2442,"Is":2443,"Ġcer":2444,"ĠSur":2445,"Ġ184":2446,"Ġcombat":2447,"Ġenv":2448,"Ġchois":2449,"Ġ2009":2450,"Ġmoitie":2451,"Ġvisite":2452,"Ġloin":2453,"Ġ1990":2454,"matique":2455,"Ġaband":2456,"ocra":2457,"Ġkil":2458,"cie":2459,"Ġsuper":2460,"duis":2461,"oun":2462,"Ġnu":2463,"ranch":2464,"Ġ26":2465,"Ġ50":2466,"Ġcadre":2467,"couver":2468,"pi":2469,"alog":2470,"Ġcomposi":2471,"ĠSta":2472,"Ġmanif":2473,"tice":2474,"ades":2475,"ĠCha":2476,"Ġprincipal":2477,"odes":2478,"sist":2479,"rae":2480,"Ġbord":2481,"oivent":2482,"Ġpein":2483,"Ġadap":2484,"Ġrepro":2485,"cessaire":2486,"Pour":2487,"Ġamp":2488,"cit":2489,"eff":2490,"ination":2491,"viennent":2492,"tabli":2493,"seur":2494,"dique":2495,"Ġmettre":2496,"Ġcapitale":2497,"Ou":2498,"Ġpatri":2499,"Ġpont":2500,"ĠTer":2501,"Ġconserve":2502,"Ġciv":2503,"Ġinde":2504,"Ġ185":2505,"mission":2506,"Ġtels":2507,"Ġ2011":2508,"Ġsouh":2509,"Ġtraditionne":2510,"cor":2511,"Ġdeme":2512,"Ġroute":2513,"Ġcommande":2514,"raire":2515,"uellement":2516,"Ġ500":2517,"Ġjuge":2518,"ĠJose":2519,"Ġaucun":2520,"Ġquartier":2521,"reg":2522,"Ġ23":2523,"tron":2524,"alyse":2525,"Ġsenti":2526,"Ġprive":2527,"Ġtoutefois":2528,"lexand":2529,"Or":2530,"ana":2531,"oix":2532,"Ġpropos":2533,"ĠRobert":2534,"naire":2535,"Ġord":2536,"Ġsim":2537,"Ġvarie":2538,"Ġope":2539,"ĠMarquet":2540,"Ġposte":2541,"Ġmalgre":2542,"entiel":2543,"tim":2544,"anger":2545,"Ġdoute":2546,"Ġdure":2547,"ĠMer":2548,"ĠJuifs":2549,"illon":2550,"Ġ2012":2551,"serv":2552,"ĠDickens":2553,"bilite":2554,"ye":2555,"anmoins":2556,"Ġconcl":2557,"Ġsujet":2558,"tenu":2559,"Ġspor":2560,"Apre":2561,"mont":2562,"Ġreligie":2563,"Ġdomaine":2564,"itre":2565,"appe":2566,"Ġsucces":2567,"appar":2568,"Ġanglais":2569,"erte":2570,"ĠâĢĵ":2571,"ĠDieu":2572,"Ġpolitiques":2573,"Ġroyaume":2574,"arre":2575,"Ġfille":2576,"Ġquestion":2577,"Ġsuff":2578,"aw":2579,"Ġsem":2580,"old":2581,"vit":2582,"Ġlorsqu":2583,"Ġpassage":2584,"atur":2585,"sentant":2586,"Ġrien":2587,"'s":2588,"Ġ100":2589,"Ġoutre":2590,"Ġgenre":2591,"'Â«":2592,"mor":2593,"Ġjeux":2594,"Ġcarrie":2595,"assin":2596,"Ġdouble":2597,"illiam":2598,"Ġlesque":2599,"tagne":2600,"Ġchac":2601,"Ġhuit":2602,"Ġavaient":2603,"Ġarre":2604,"avoir":2605,"crits":2606,"Ġassure":2607,"Ġprofonde":2608,"bres":2609,"nements":2610,"Ġcomte":2611,"ĠSam":2612,"ardin":2613,"Ġproduit":2614,"Ġprofessionne":2615,"Ġscientif":2616,"ates":2617,"Ġaccep":2618,"Ġquelque":2619,"ustra":2620,"Ġbal":2621,"Ġarch":2622,"Ġbritannique":2623,"col":2624,"ka":2625,"Ġsigne":2626,"ĠEurope":2627,"ĠGra":2628,"Ġnouveaux":2629,"Ġmoderne":2630,"aill":2631,"Ġital":2632,"isant":2633,"Ġvic":2634,"Ġtermine":2635,"Ġ179":2636,"sur":2637,"othe":2638,"sentent":2639,"gique":2640,"aude":2641,"Ġdisc":2642,"ologiques":2643,"ĠPhili":2644,"Ġstation":2645,"Ġgauche":2646,"cif":2647,"Ġmulti":2648,"loit":2649,"pect":2650,"ĠPlus":2651,"ames":2652,"ĠAme":2653,"Ġchasse":2654,"Ġmene":2655,"onte":2656,"Ġsept":2657,"Ġempl":2658,"ood":2659,"Ġloi":2660,"Ġsais":2661,"Ġvoie":2662,"vile":2663,"Ġfaible":2664,"vic":2665,"mentation":2666,"Ġ27":2667,"Ġ29":2668,"ricains":2669,"mente":2670,"uss":2671,"Ġ21":2672,"import":2673,"ricaine":2674,"Ġformation":2675,"Ġkilome":2676,"ase":2677,"Ġ/":2678,"tienne":2679,"Ġparce":2680,"Ġanimaux":2681,"cteurs":2682,"ĠCoupe":2683,"ĠBal":2684,"avid":2685,"pute":2686,"gions":2687,"Ġfourn":2688,"Ġbataille":2689,"Ġlog":2690,"Ġnour":2691,"dire":2692,"Ġvoix":2693,"ĠSu":2694,"ouvre":2695,"Ġnote":2696,"Ġphil":2697,"ĠMc":2698,"Ġparticipe":2699,"Ġsecre":2700,"ĠDi":2701,"fini":2702,"Ġdifficulte":2703,"Ġstra":2704,"Ġble":2705,"ĠTro":2706,"Ġ2016":2707,"Ġtravaille":2708,"uros":2709,"tale":2710,"uels":2711,"ica":2712,"ĠWe":2713,"tifie":2714,"Ġtourne":2715,"habit":2716,"iter":2717,"Ġcomporte":2718,"Ġoccupe":2719,"ichel":2720,"Ġfl":2721,"ĠFran":2722,"Ġfilms":2723,"Ġpresque":2724,"iversite":2725,"pl":2726,"uments":2727,"Ġir":2728,"Ġauteurs":2729,"Ġindustrie":2730,"ĠFer":2731,"Ġcomplex":2732,"vention":2733,"Ġmeilleur":2734,"Ġvalle":2735,"ĠIV":2736,"Ġpermettant":2737,"Ġdonner":2738,"Ġfaisant":2739,"Ġinstalle":2740,"Ġdyn":2741,"Ġsembl":2742,"Ġiniti":2743,"ung":2744,"ainte":2745,"ell":2746,"ĠOr":2747,"tenant":2748,"Ġ2003":2749,"Ġ2013":2750,"Ġsource":2751,"arc":2752,"Ġnume":2753,"Ġjui":2754,"Ġprovin":2755,"riel":2756,"Ġcontraire":2757,"Ġpetits":2758,"aure":2759,"sage":2760,"arrive":2761,"Ġrele":2762,"Ġvous":2763,"terne":2764,"Ġdispose":2765,"mique":2766,"Ġenfin":2767,"ĠSer":2768,"ĠÂ»)":2769,"ĠGal":2770,"Ġ1980":2771,"Ġstade":2772,"registre":2773,"aix":2774,"Ġphysi":2775,"olique":2776,"Ġconsacre":2777,"Ġheures":2778,"Ġminutes":2779,"tiste":2780,"ĠXII":2781,"Ġderniers":2782,"rendre":2783,"osse":2784,"sentation":2785,"outefois":2786,"Ġpopulaire":2787,"igh":2788,"Ġpermettent":2789,"Ġcapacite":2790,"Ġlum":2791,"Ġvoire":2792,"Ġchai":2793,"Ġsuivante":2794,"cer":2795,"neur":2796,"Ġvide":2797,"cience":2798,"Ġ2004":2799,"Ġtaux":2800,"ĠMo":2801,"titule":2802,"aj":2803,"oint":2804,"ssemble":2805,"Ġprise":2806,"ĠWilliam":2807,"cule":2808,"tisse":2809,"Une":2810,"anche":2811,"tir":2812,"Ġpourrait":2813,"Ġmieux":2814,"ĠDavid":2815,"agnes":2816,"Ġmajorite":2817,"Ġpiano":2818,"dats":2819,"tire":2820,"Ġmanque":2821,"ĠJacques":2822,"Ġprobablement":2823,"ira":2824,"andes":2825,"60":2826,"Re":2827,"Ġtel":2828,"Ġinstru":2829,"ks":2830,"Ġci":2831,"ĠBen":2832,"ĠJapon":2833,"Ġforces":2834,"han":2835,"Ġcath":2836,"ĠStra":2837,"Ġgros":2838,"Ġ40":2839,"Ġmatchs":2840,"cision":2841,"eux":2842,"lis":2843,"main":2844,"urg":2845,"rop":2846,"tern":2847,"ographique":2848,"Ġannonce":2849,"Ġpalais":2850,"Ġlettre":2851,"dy":2852,"iff":2853,"Ġpol":2854,"Ġsurface":2855,"Ġadop":2856,"Ġlivres":2857,"Ġfootball":2858,"Ġaupre":2859,"Ġdifficile":2860,"cise":2861,"Ġvient":2862,"ĠTra":2863,"ĠTour":2864,"ĠToccata":2865,"Ġ187":2866,"Ġrespec":2867,"Ġlongtemps":2868,"Ġtechnique":2869,"don":2870,"riques":2871,"iller":2872,"ĠNap":2873,"Ġsouff":2874,"Ġconditions":2875,"ĠBro":2876,"objet":2877,"Ġmoyen":2878,"Ġcampagne":2879,"ĠGeorge":2880,"Ġtotal":2881,"cteur":2882,"Ġdesc":2883,"Ġnuit":2884,"Ġru":2885,"ĠEnfin":2886,"Ġinterpre":2887,"signe":2888,"Ġbes":2889,"oile":2890,"Ġcomprend":2891,"Ġaucune":2892,"xe":2893,"lige":2894,"Ġprincipaux":2895,"Ġcontemp":2896,"ize":2897,"ĠCerta":2898,"ĠAndre":2899,"Ġministre":2900,"Ġcherche":2901,"Ġvillage":2902,"40":2903,"onner":2904,"Ġ1970":2905,"Ġdroits":2906,"Ġchre":2907,"Ġmusic":2908,"Ġindivi":2909,"Ġgroupes":2910,"Ġsalle":2911,"Ġensemble":2912,"ĠQue":2913,"Ġvaleur":2914,"Ġlignes":2915,"Ġrelie":2916,"Ġbonne":2917,"ĠPort":2918,"Ġanti":2919,"Ġ2017":2920,"Ġress":2921,"Ġsources":2922,"Ġstructure":2923,"ĠSy":2924,"ĠFin":2925,"Ġatteint":2926,"Ġvu":2927,"ords":2928,"enir":2929,"atoire":2930,"Ġmariage":2931,"22":2932,"oux":2933,"arite":2934,"Ġtoccata":2935,"Ġvain":2936,"Ġmeur":2937,"ministration":2938,"Je":2939,"pt":2940,"Ġvari":2941,"ash":2942,"Ġchoix":2943,"Ġrendre":2944,"Ġ2015":2945,"cription":2946,"oce":2947,"Ġbru":2948,"Ġimpe":2949,"ĠGrande":2950,"Ġfou":2951,"Ġrefuse":2952,"cin":2953,"uge":2954,"yth":2955,"Ġconfe":2956,"Ġcertaine":2957,"curite":2958,"entiellement":2959,"oration":2960,"chant":2961,"Ġintitule":2962,"Ġris":2963,"ambre":2964,"Ġrais":2965,"Ġimm":2966,"gime":2967,"Ġlibre":2968,"occasion":2969,"Ġinfluence":2970,"Ġdocument":2971,"Ġlim":2972,"Ġliste":2973,"Ġlieux":2974,"Ġinfe":2975,"oyen":2976,"Ġ2014":2977,"frique":2978,"Ġamb":2979,"arn":2980,"Ġentie":2981,"Ġengage":2982,"ĠSc":2983,"liers":2984,"ĠEd":2985,"atique":2986,"Ġacce":2987,"quipes":2988,"aliser":2989,"Ġagric":2990,"tian":2991,"timent":2992,"Ġfranch":2993,"Ġta":2994,"Ġnos":2995,"Ġautant":2996,"Ġbr":2997,"Ġ2002":2998,"Ġmilitaires":2999,"Ġ1999":3000,"Ġdoivent":3001,"ind":3002,"ĠCel":3003,"ĠMor":3004,"istence":3005,"ĠVienne":3006,"ada":3007,"Ġpresse":3008,"empereur":3009,"ĠComp":3010,"mann":3011,"Ġdirectement":3012,"cons":3013,"ky":3014,"ota":3015,"Ġly":3016,"Ġami":3017,"abilite":3018,"Ġinspire":3019,"199":3020,"Ġautor":3021,"Ġpuissance":3022,"Ġiden":3023,"Ġara":3024,"orme":3025,"raient":3026,"Ġjapon":3027,"Ġprince":3028,"Ġautom":3029,"Ġautorite":3030,"Ġeffectue":3031,"hum":3032,"Ġlit":3033,"enant":3034,"Ġait":3035,"ĠcÅĵur":3036,"Ġban":3037,"ĠVal":3038,"Ġdroite":3039,"Ġmultip":3040,"Ġcav":3041,"Ġmassi":3042,"ĠSal":3043,"Ġprox":3044,"80":3045,"xte":3046,"esse":3047,"Ġsorte":3048,"Ġduc":3049,"cier":3050,"ĠRen":3051,"Ġrouge":3052,"raux":3053,"Ġretra":3054,"Ġtrouver":3055,"Ġrelations":3056,"gers":3057,"ĠÂ»),":3058,"ĠRich":3059,"truction":3060,"Ġoccident":3061,"Ġassocie":3062,"Ġimme":3063,"Ġrang":3064,"Ġcat":3065,"alerie":3066,"Ġdiver":3067,"pothe":3068,"Ġpossi":3069,"Ġproduits":3070,"moine":3071,"Ġproximite":3072,"fort":3073,"pol":3074,"usse":3075,"Ġbles":3076,"Ġterrain":3077,"Ġtient":3078,"Ġferme":3079,"ĠConst":3080,"Ġmi":3081,"Ġfron":3082,"tention":3083,"Ġexplique":3084,"Ġphilos":3085,"25":3086,"sbourg":3087,"Ġvois":3088,"Ġsoutien":3089,"Ġtyp":3090,"Ġtombe":3091,"truire":3092,"Ġpopulations":3093,"Ġcritiques":3094,"Ġliberte":3095,"mentaires":3096,"ĠBos":3097,"Ġterres":3098,"Ġanciens":3099,"ĠPrix":3100,"Ġsouver":3101,"Ġcla":3102,"Ġval":3103,"Ġhar":3104,"Ġextra":3105,"duite":3106,"Ġblanc":3107,"ĠXVIIIe":3108,"Ġprogramme":3109,"iz":3110,"environ":3111,"Ġabandonne":3112,"ina":3113,"arra":3114,"Ġhistoire":3115,"ĠNation":3116,"ĠNouve":3117,"dessus":3118,"Ġmenace":3119,"berg":3120,"nom":3121,"Ġdemi":3122,"Ġdivision":3123,"Ġ2001":3124,"ings":3125,"Ġsortie":3126,"Ġdiverses":3127,"ĠHenri":3128,"ĠToutefois":3129,"ĠRome":3130,"ĠFor":3131,"Ġillus":3132,"Ġsimple":3133,"bus":3134,"ides":3135,"Ġarticle":3136,"Ġperd":3137,"Ġtente":3138,"ĠDan":3139,"Ġrace":3140,"Ġarche":3141,"ictor":3142,"Ġstrate":3143,"Ġpat":3144,"Ġali":3145,"ĠMontre":3146,"ĠNo":3147,"Ġhistorique":3148,"Ġprogressi":3149,"Ġchanson":3150,"isent":3151,"Ġmauv":3152,"Ġquitte":3153,"Ġvend":3154,"ĠCre":3155,"timents":3156,"quence":3157,"Ġmine":3158,"dien":3159,"Ġmot":3160,"Ġderrie":3161,"Ġrenfor":3162,"Ġpublique":3163,"Ġcommerce":3164,"nant":3165,"ival":3166,"ĠChrist":3167,"Ġpose":3168,"Ġchemin":3169,"influence":3170,"Ġtexte":3171,"pouse":3172,"Ġpens":3173,"let":3174,"ignement":3175,"longe":3176,"ÌĮ":3177,"ĠBra":3178,"ude":3179,"Ġradi":3180,"Ġ180":3181,"orer":3182,"Ġreligieux":3183,"Ġloge":3184,"iner":3185,"ĠAb":3186,"Ġcommenc":3187,"asses":3188,"Ġ1960":3189,"avantage":3190,"Ġtableau":3191,"Ġpeintre":3192,"Ġcontempor":3193,"fie":3194,"Ġmas":3195,"ĠBon":3196,"ĠRed":3197,"uil":3198,"ancien":3199,"Ġnaissance":3200,"ateau":3201,"Ġtechniques":3202,"vironnement":3203,"Ġsang":3204,"rid":3205,"rand":3206,"occup":3207,"Ġconstruit":3208,"archite":3209,"Ġfrontie":3210,"Ġvit":3211,"cade":3212,"Ġtextes":3213,"Mar":3214,"Ġho":3215,"Ġhors":3216,"11":3217,"rable":3218,"Ġsavoir":3219,"Ġgarde":3220,"Aut":3221,"fre":3222,"fait":3223,"Ġparle":3224,"uelles":3225,"ĠElles":3226,"Ġtrouvent":3227,"Ġ2018":3228,"ario":3229,"monte":3230,"pit":3231,"Ġense":3232,"taires":3233,"ulture":3234,"ĠMarie":3235,"tements":3236,"Ġlac":3237,"ĠBien":3238,"Ġfortement":3239,"Ġcertain":3240,"Ġphe":3241,"Ġpasser":3242,"Ġpermis":3243,"Ġcivil":3244,"loc":3245,"ĠCro":3246,"ĠPl":3247,"Ġprot":3248,"Ġparties":3249,"Ġformes":3250,"Ġreprend":3251,"Ġqualifie":3252,"Ġajoute":3253,"och":3254,"Ġtrib":3255,"Ġconduit":3256,"Ġgue":3257,"ĠBern":3258,"Ġmoteur":3259,"Ġcommand":3260,"Angleterre":3261,"chent":3262,"olie":3263,"Ġplane":3264,"Ġchap":3265,"Ġsociale":3266,"Ġprotection":3267,"Ġcouleurs":3268,"nis":3269,"ĠCet":3270,"Ġintro":3271,"Ġtrou":3272,"faite":3273,"ules":3274,"Ġdemand":3275,"Ġcli":3276,"ĠAd":3277,"osent":3278,"ociations":3279,"key":3280,"Ġcompagnie":3281,"Ouest":3282,"oti":3283,"ÌĢ,":3284,"lec":3285,"Ġfab":3286,"ĠChamp":3287,"usement":3288,"Ġriches":3289,"ugus":3290,"Ġconseil":3291,"gation":3292,"Ġdoll":3293,"argent":3294,"mentaire":3295,"Ġexe":3296,"ctures":3297,"ĠDeux":3298,"Ġpuisque":3299,"trange":3300,"Ġ183":3301,"Ġconnue":3302,"Ġstatut":3303,"28":3304,"Allemagne":3305,"Ġfinanc":3306,"Ġmonte":3307,"Ġrecons":3308,"fication":3309,"ovie":3310,"pendance":3311,"29":3312,"Ġtue":3313,"ourge":3314,"ĠMa":3315,"ĠBo":3316,"Ġ1998":3317,"Ġveut":3318,"ĠStar":3319,"ĠPhilippe":3320,"Ġfant":3321,"Ġcompar":3322,"ĠTou":3323,"titution":3324,"Ġclubs":3325,"Ġlargement":3326,"cent":3327,"Ġae":3328,"omas":3329,"ald":3330,"Ġbibli":3331,"ĠDepuis":3332,"lande":3333,"Ġcourant":3334,"Ġphot":3335,"Ġessentiellement":3336,"Italie":3337,"uri":3338,"terie":3339,"Ġaccompagne":3340,"Ġparvient":3341,"Ġmatie":3342,"roule":3343,"Ġmontagne":3344,"Ġvoul":3345,"oses":3346,"Ġextre":3347,"Ġrevanche":3348,"couverte":3349,"Ġdemeure":3350,"bar":3351,"my":3352,"xim":3353,"ension":3354,"Ġproven":3355,"ack":3356,"ibles":3357,"Ġdollars":3358,"Esp":3359,"bo":3360,"place":3361,"Ġpoi":3362,"ali":3363,"ĠJane":3364,"Ġoise":3365,"oth":3366,"matiques":3367,"Ġsites":3368,"Ġcentrale":3369,"Ġsimil":3370,"af":3371,"pin":3372,"ĠLi":3373,"osant":3374,"ritable":3375,"Ġreprises":3376,"ĠAlbert":3377,"Ġquatrie":3378,"Ġrefus":3379,"conomie":3380,"gor":3381,"auteur":3382,"rien":3383,"tific":3384,"Ġconcerne":3385,"Ġculte":3386,"espace":3387,"Ame":3388,"onique":3389,"Ġpauv":3390,"aide":3391,"ĠGar":3392,"Ġdimin":3393,"ĠHug":3394,"Ġcandi":3395,"Ġattribue":3396,"ouverture":3397,"nome":3398,"tur":3399,"Ġpap":3400,"Ġcm":3401,"Ġempe":3402,"sistance":3403,"CL":3404,"Ġcondam":3405,"ĠAvec":3406,"ĠForm":3407,"onneur":3408,"Ġ60":3409,"viter":3410,"ernant":3411,"Ġsoient":3412,"Ġnavire":3413,"Jean":3414,"dela":3415,"ĠÂ»).":3416,"sidence":3417,"Ġancienne":3418,"ĠMi":3419,"ĠBay":3420,"Ġincl":3421,"acce":3422,"Ġnotre":3423,"expe":3424,"landais":3425,"Ġdessine":3426,"lication":3427,"difie":3428,"Ġclassique":3429,"comp":3430,"Ġfau":3431,"ast":3432,"ola":3433,"ĠRou":3434,"ĠGi":3435,"ĠVer":3436,"Ġcontinu":3437,"Ġcouleur":3438,"75":3439,"yon":3440,"âĢĵ":3441,"âĢĶ":3442,"Ġmarch":3443,"Ġrecense":3444,"Ġprincipale":3445,"Ġprofit":3446,"Ġoffici":3447,"ĠXVIIe":3448,"organisation":3449,"23":3450,"pu":3451,"tiens":3452,"Ġemb":3453,"Ġouver":3454,"agner":3455,"Ġexcl":3456,"Ġtelle":3457,"ĠVictor":3458,"Ġtransp":3459,"Ġjourne":3460,"ficie":3461,"Ġconserv":3462,"ael":3463,"Ġlois":3464,"Ġmur":3465,"oyer":3466,"Ġconflit":3467,"crite":3468,"Ġouvert":3469,"Ġmanifest":3470,"Ġsouhaite":3471,"ĠConstantin":3472,"lent":3473,"uff":3474,"ino":3475,"Ġfix":3476,"Ġquasi":3477,"termin":3478,"Ġsug":3479,"ands":3480,"Ġ35":3481,"Ġobjets":3482,"levage":3483,"Lors":3484,"ailles":3485,"ises":3486,"riche":3487,"tache":3488,"ĠAus":3489,"ĠRichard":3490,"Ġstudi":3491,"ĠAlexand":3492,"Ġpartis":3493,"ĠMartin":3494,"quip":3495,"Ġemploye":3496,"pital":3497,"Ìģ-":3498,"Ġmille":3499,"ĠComme":3500,"ĠBr":3501,"Ġhaute":3502,"Ġ31":3503,"Ġobtient":3504,"iciens":3505,"Ġmouvements":3506,"ko":3507,"ĠÎ":3508,"ĠRom":3509,"Ġvolonte":3510,"Ġrencont":3511,"Ġsac":3512,"ĠÂ»,.":3513,"monie":3514,"ĠGeorges":3515,"vices":3516,"Ġlumie":3517,"Ġdat":3518,"Ġscul":3519,"tile":3520,"industrie":3521,"Ġbande":3522,"ĠCela":3523,"bec":3524,"ĠNapole":3525,"Est":3526,"Se":3527,"gner":3528,"Ġâ":3529,"ano":3530,"rat":3531,"iction":3532,"crire":3533,"Ġcentral":3534,"utilisation":3535,"eng":3536,"Ġfront":3537,"image":3538,"Ġabs":3539,"ĠRoyaume":3540,"Ġlettres":3541,"ba":3542,"ister":3543,"Ġgagne":3544,"Ġpourtant":3545,"ulaire":3546,"ĠTre":3547,"ami":3548,"Ġheure":3549,"Ġpoursui":3550,"Ġpatrimoine":3551,"ld":3552,"ni":3553,"Ġaffe":3554,"Ġnav":3555,"chestre":3556,"Ġunique":3557,"ĠPal":3558,"ĠHer":3559,"Ġtermin":3560,"Ġmanus":3561,"nergie":3562,"Ġsoldats":3563,"Ġeffec":3564,"sultats":3565,"lections":3566,"Ġvites":3567,"ĠMoyen":3568,"âĢİ":3569,"abeth":3570,"checs":3571,"Ġrac":3572,"avait":3573,"Ġorient":3574,"Ġimportants":3575,"Ġpied":3576,"Ġjouer":3577,"Cette":3578,"Ġpeinture":3579,"line":3580,"Ġsante":3581,"Ġsaint":3582,"tise":3583,"Ġenne":3584,"rience":3585,"ĠMich":3586,"ĠFC":3587,"Ġryth":3588,"ĠHol":3589,"Ġcontinue":3590,"ĠMalgre":3591,"24":3592,"ford":3593,"Ġenregistre":3594,"Ġpartage":3595,"lotte":3596,"Ġ1996":3597,"Ġsecteur":3598,"olymp":3599,"Ġlutte":3600,"CLC":3601,"coles":3602,"we":3603,"ĠMus":3604,"activite":3605,"ogne":3606,"renant":3607,"Ġvision":3608,"atives":3609,"Ġdevenir":3610,"uy":3611,"Ġvrai":3612,"ĠRac":3613,"Ġarri":3614,"Ġjuste":3615,"Ġ1950":3616,"Ġpetites":3617,"Ġmyth":3618,"Ġcontexte":3619,"yz":3620,"Ġolymp":3621,"Ġcrise":3622,"isc":3623,"inde":3624,"lay":3625,"Ġtrait":3626,"criture":3627,"Ġinternationale":3628,"bil":3629,"pon":3630,"Ġfaci":3631,"Ġconver":3632,"absence":3633,"iennes":3634,"Ġtraverse":3635,"Ġimportantes":3636,"Ġchacun":3637,"Ġphilosoph":3638,"mage":3639,"sh":3640,"zz":3641,"Ġlire":3642,"endo":3643,"ristian":3644,"Ġadminist":3645,"issements":3646,"76":3647,"olas":3648,"ĠMuse":3649,"liquer":3650,"osphe":3651,"airement":3652,"Ġtermes":3653,"Ġ1995":3654,"importance":3655,"asc":3656,"Ġaccord":3657,"Ġcroiss":3658,"Ġdessin":3659,"Ġinternational":3660,"Ġaccepte":3661,"histor":3662,"ĠSocie":3663,"lire":3664,"Ġproches":3665,"Ġpron":3666,"ĠâĢ¢":3667,"Ġrivie":3668,"Ġmorts":3669,"ĠNational":3670,"89":3671,"hou":3672,"Ġpaix":3673,"Ġvou":3674,"ĠRus":3675,"Ġmaisons":3676,"Ġobje":3677,"Ġcompositeur":3678,"ĠStrasbourg":3679,"las":3680,"Ġpor":3681,"Ġvolu":3682,"ĠNic":3683,"administration":3684,"Ġclassement":3685,"ĠJoseph":3686,"bor":3687,"iance":3688,"uc":3689,"Ġfide":3690,"ĠEgon":3691,"abb":3692,"existence":3693,"Ġyeux":3694,"Ġdomes":3695,"26":3696,"naires":3697,"Ġpierre":3698,"ĠLiv":3699,"ague":3700,"ĠUnivers":3701,"Ġmoyens":3702,"ĠClub":3703,"ctes":3704,"mocra":3705,"Ġtrouv":3706,"Ġcoupe":3707,"Ġsuivi":3708,"Ġ1930":3709,"Ġdevait":3710,"cou":3711,"Ġvir":3712,"ics":3713,"rieures":3714,"Ġavance":3715,"ĠParmi":3716,"Ġadopte":3717,"hors":3718,"mat":3719,"xes":3720,"ĠLigue":3721,"Ġgre":3722,"Ġprovoque":3723,"Ġmembre":3724,"ĠTur":3725,"paration":3726,"Ġrecue":3727,"Ġriche":3728,"Ġprivile":3729,"Ġregard":3730,"ducation":3731,"Ġsert":3732,"ĠJus":3733,"Ġobserve":3734,"rup":3735,"public":3736,"euros":3737,"Ġrece":3738,"Ġquit":3739,"chi":3740,"rigue":3741,"Ġneuf":3742,"ĠSeconde":3743,"Ġ80":3744,"Depuis":3745,"Ġrelativement":3746,"dou":3747,"Ġeaux":3748,"rient":3749,"ĠSes":3750,"ĠMil":3751,"raires":3752,"mise":3753,"rans":3754,"ĠEt":3755,"ĠRos":3756,"clope":3757,"Ġseuls":3758,"ribution":3759,"Ġhauteur":3760,"bas":3761,"Ġrevient":3762,"Ġexte":3763,"ĠJeux":3764,"ield":3765,"estival":3766,"Ġsugge":3767,"emb":3768,"ms":3769,"Ĥ¬":3770,"change":3771,"ĠBou":3772,"Ġprincipales":3773,"Ġpilote":3774,"Ġnavires":3775,"Ġcomplexe":3776,"Ġdynas":3777,"65":3778,"Ġenvers":3779,"Ġparai":3780,"Ġcomposition":3781,"ĠMichel":3782,"Ġgal":3783,"Ġsurp":3784,"ortent":3785,"Ġexist":3786,"Ġconfirme":3787,"Ġoffre":3788,"Ġindique":3789,"Ġartistes":3790,"ttom":3791,"Ġphysique":3792,"Ġfro":3793,"omie":3794,"uisse":3795,"sents":3796,"cute":3797,"Ġtire":3798,"Ġtransport":3799,"ĠThomas":3800,"Ġcollection":3801,"ticles":3802,"Ġhistoriques":3803,"ĠTerre":3804,"Ġreligieuse":3805,"35":3806,"90":3807,"Pierre":3808,"lite":3809,"Ġtouche":3810,"Ġservices":3811,"ĠRacing":3812,"wn":3813,"Ġdur":3814,"analyse":3815,"Ġchante":3816,"ristiques":3817,"Ġrappe":3818,"Ġmesures":3819,"Ġmeilleurs":3820,"Ġdiscours":3821,"diens":3822,"Ġrares":3823,"Ġtelles":3824,"pole":3825,"ĠConse":3826,"Ġjournal":3827,"Ġarchite":3828,"21":3829,"ata":3830,"Ġsomme":3831,"Ġvite":3832,"ĠPrin":3833,"ranche":3834,"Ġchose":3835,"Ġarmes":3836,"Ġpersonnalite":3837,"Ġdomin":3838,"ĠXVIe":3839,"Ġaccueille":3840,"gypte":3841,"lli":3842,"nomme":3843,"oins":3844,"inaire":3845,"ary":3846,"Ġtomb":3847,"Ġquin":3848,"ĠSainte":3849,"Ġdimen":3850,"Ġexer":3851,"Ġperdu":3852,"Ġappre":3853,"Ġaffirme":3854,"loitation":3855,"].":3856,"sil":3857,"Ġfave":3858,"Ġplaces":3859,"ĠMad":3860,"Ġchute":3861,"Ġhab":3862,"amment":3863,"ĠHor":3864,"ington":3865,"Ġconfie":3866,"ĠAlors":3867,"Ġespagn":3868,"com":3869,"Ġpousse":3870,"times":3871,"illa":3872,"Ġguer":3873,"enses":3874,"Ġalbum":3875,"thur":3876,"udge":3877,"curie":3878,"licite":3879,"esprit":3880,"27":3881,"Ġcop":3882,"Ġconcep":3883,"ott":3884,"Ġmonument":3885,"intendo":3886,"venir":3887,"Ġpolice":3888,"positions":3889,"Ġlocaux":3890,"Ġcate":3891,"ĠLib":3892,"ĠBritann":3893,"Ġprennent":3894,"ube":3895,"ting":3896,"Ġcarre":3897,"Ġpuisqu":3898,"enseignement":3899,"Ġconcur":3900,"Ġrestent":3901,"85":3902,"Cl":3903,"gin":3904,"rome":3905,"Ġquanti":3906,"olk":3907,"Ġuniquement":3908,"ĠAlle":3909,"Ġinaug":3910,"ĠVII":3911,"Ġconsta":3912,"Ġprincipe":3913,"Ġoppose":3914,"84":3915,"ament":3916,"ek":3917,"Ġfus":3918,"ult":3919,"ĠChine":3920,"glome":3921,"Ġreligion":3922,"Ġvoies":3923,"Ġregroupe":3924,"Ġdevenu":3925,"ĠBretagne":3926,"senter":3927,"Ġdan":3928,"Ġ45":3929,"Ġbuts":3930,"Ġpilotes":3931,"ĠCertains":3932,"AS":3933,"ources":3934,"Ġsection":3935,"ĠPays":3936,"diate":3937,"ulg":3938,"Ġallie":3939,"Ġsocial":3940,"Ġlocale":3941,"Ġattaque":3942,"Ġadministra":3943,"Franc":3944,"erman":3945,"ĠCour":3946,"ĠNintendo":3947,"Ġrassemble":3948,"ives":3949,"Ġocca":3950,"Ġexplo":3951,"Ġmalad":3952,"Ġ1944":3953,"Ġvivant":3954,"tablissement":3955,"pisode":3956,"onie":3957,"itz":3958,"Ġgou":3959,"oleil":3960,"Ġmentionne":3961,"Ġcroise":3962,"Ġpression":3963,"moign":3964,"Ġlesquels":3965,"Ġfinancie":3966,"Ġoiseaux":3967,"ĠFormule":3968,"36":3969,"On":3970,"bel":3971,"Ġpois":3972,"entrai":3973,"Ġracon":3974,"obile":3975,"Ġcouronne":3976,"Ġapporte":3977,"Ġcircul":3978,"Ġsemaines":3979,"Ġvitesse":3980,"Afrique":3981,"rest":3982,"Ġtar":3983,"atre":3984,"limin":3985,"ĠOu":3986,"Ġsymp":3987,"emple":3988,"Ġtransforme":3989,"Ġdirecteur":3990,"Ġrelation":3991,"Ġadapte":3992,"34":3993,"dra":3994,"uves":3995,"Ġai":3996,"Ġmaire":3997,"Ġquoti":3998,"ĠSan":3999,"Ġconception":4000,"Ġgestion":4001,"Ġprolonge":4002,"Ġchin":4003,"Union":4004,"Ġchapelle":4005,"Ġvoiture":4006,"ancienne":4007,"Ġentreprises":4008,"Ġpossibilite":4009,"Ġfaveur":4010,"aie":4011,"Ġaide":4012,"Ġbout":4013,"Ġbras":4014,"ĠPress":4015,"Ġsuis":4016,"Ġall":4017,"Ġrecord":4018,"Ġconcernant":4019,"Ġeffets":4020,"Ġraisons":4021,"],":4022,"Ġdehors":4023,"Ġcos":4024,"Ġbel":4025,"Ġcomment":4026,"Ġgens":4027,"Uni":4028,"ault":4029,"tiennent":4030,"Ġbesoin":4031,"194":4032,"Ġroyale":4033,"Ġstatue":4034,"Si":4035,"har":4036,"ots":4037,"istique":4038,"riers":4039,"ĠÂ°":4040,"Ġseigne":4041,"Ġunivers":4042,"ĠDar":4043,"Ġchiff":4044,"amour":4045,"Ġdivin":4046,"Ġtrente":4047,"tistes":4048,"Ġ1993":4049,"Ġdispute":4050,"Ġlongueur":4051,"Ġtemple":4052,"83":4053,"bit":4054,"Ġvont":4055,"Ġvoc":4056,"Ġpros":4057,"abe":4058,"ĠVie":4059,"Ġcompris":4060,"Ġ300":4061,"clar":4062,"Ġ1997":4063,"lanc":4064,"Ġfamilles":4065,"cks":4066,"Ġterritoires":4067,"ausse":4068,"Ġpoursuit":4069,"Ġmeurt":4070,"Ġprogressivement":4071,"ĠMichael":4072,"ĠConseil":4073,"Ġer":4074,"Ġtours":4075,"Ġvaste":4076,"Ġchambre":4077,"ĠTom":4078,"Ġmach":4079,"Ġtransform":4080,"Ġrapporte":4081,"accord":4082,"Ġcontinent":4083,"ĠCanada":4084,"87":4085,"Selon":4086,"gis":4087,"hin":4088,"ora":4089,"ĠLo":4090,"Ġquoi":4091,"oulouse":4092,"uelques":4093,"Ġmission":4094,"Ġquartiers":4095,"moire":4096,"Ġcant":4097,"Ġmos":4098,"Ġbasse":4099,"Ġrat":4100,"Ġconsomm":4101,"Ġconstruire":4102,"Ġmaxim":4103,"Ġpropres":4104,"Ġcontrat":4105,"Ġrejoint":4106,"alogue":4107,"ban":4108,"ha":4109,"ouche":4110,"Ġlatin":4111,"uration":4112,"Ġfit":4113,"olf":4114,"ĠMaur":4115,"urer":4116,"rieurs":4117,"Ġexcep":4118,"ayer":4119,"Ġcesse":4120,"Ġphase":4121,"ancer":4122,"Ġcircu":4123,"Ġnourrit":4124,"cite":4125,"way":4126,"za":4127,"album":4128,"ĠCal":4129,"ĠEx":4130,"Ġhos":4131,"ĠMary":4132,"Ġtitres":4133,"Ġpublication":4134,"cessus":4135,"ĠBelgique":4136,"Ġsommet":4137,"Ġprotest":4138,"Ġpoids":4139,"ip":4140,"Ġmains":4141,"itan":4142,"Ġvra":4143,"ĠMag":4144,"unite":4145,"Ġtrace":4146,"Ġcommis":4147,"tenue":4148,"Ġ1992":4149,"Ġmusul":4150,"Ġouvrages":4151,"Ġpersonnel":4152,"Ġmondial":4153,"ĠCelui":4154,"iant":4155,"Ġlour":4156,"Ġparalle":4157,"talement":4158,"Ġbron":4159,"oirs":4160,"Ġ2019":4161,"195":4162,"Ġimag":4163,"Ġromaine":4164,"Ġinform":4165,"Ġhumaine":4166,"Ġmajeur":4167,"Ġenvoye":4168,"Ġrisque":4169,"Ġquantite":4170,"gence":4171,"nov":4172,"cel":4173,"Ġgare":4174,"ĠAs":4175,"ĠBu":4176,"Ġinten":4177,"Ġprocessus":4178,"Ġchron":4179,"Ġrare":4180,"Ġtrain":4181,"Ġ1994":4182,"oindre":4183,"Ġdouze":4184,"onyme":4185,"tablir":4186,"lab":4187,"ismes":4188,"Ġreine":4189,"Ġparois":4190,"Ġparents":4191,"ĠPy":4192,"cient":4193,"Ġchau":4194,"ĠJames":4195,"Ġexpose":4196,"Ġdiscip":4197,"Ġdispon":4198,"Ġ\"":4199,"Ġeng":4200,"Ġvin":4201,"ĠCap":4202,"Ġcome":4203,"ĠMin":4204,"irit":4205,"ĠVille":4206,"Ġrenouve":4207,"Ġcourt":4208,"crivain":4209,"Ġdomine":4210,"Ġallemande":4211,"86":4212,"gal":4213,"mier":4214,"Ġdieu":4215,"Ġsauv":4216,"ĠAt":4217,"Ġ1920":4218,"agers":4219,"ĠTunis":4220,"cessite":4221,"Ġmots":4222,"mile":4223,"Ġ%,":4224,"Ġcouple":4225,"Ġspectateurs":4226,"dente":4227,"mm":4228,"onge":4229,"tiles":4230,"leur":4231,"table":4232,"ĠPas":4233,"Ġpeine":4234,"Ġ1991":4235,"Ġsupple":4236,"Ġrecherches":4237,"Ġaugmente":4238,"Ġscientifique":4239,"fer":4240,"sta":4241,"Ġtal":4242,"usage":4243,"Ġsex":4244,"dir":4245,"Åĵurs":4246,"ather":4247,"Ġcapitaine":4248,"Ve":4249,"lage":4250,"passe":4251,"ties":4252,"intes":4253,"ĠWh":4254,"Ġmonop":4255,"Ġoccup":4256,"Ġchampion":4257,"Ġsubs":4258,"Ġesprit":4259,"Ġcollab":4260,"Ġplein":4261,"He":4262,"aque":4263,"ĠsÅĵur":4264,"Ġtop":4265,"ceau":4266,"Ġunite":4267,"atte":4268,"ĠBourg":4269,"ĠGau":4270,"Ġnoms":4271,"Ġconcert":4272,"Ġfleuve":4273,"ussit":4274,"Ġprovince":4275,"Ġblesse":4276,"Pe":4277,"Ġdos":4278,"Ġenvis":4279,"Ġbudge":4280,"und":4281,"teste":4282,"Ġimpos":4283,"Ġorigine":4284,"clin":4285,"Ġtiers":4286,"Ġ150":4287,"archie":4288,"Ġresponsable":4289,"France":4290,"Ġpot":4291,"Ġcab":4292,"itation":4293,"Ġparlement":4294,"heure":4295,"ĠDel":4296,"paravant":4297,"Ġperc":4298,"Ġprinces":4299,"association":4300,"Ġ1989":4301,"Ġlangues":4302,"gles":4303,"rente":4304,"vu":4305,"wood":4306,"ret":4307,"Ġste":4308,"Ġther":4309,"Ġul":4310,"Ġvo":4311,"sionn":4312,"ouvenir":4313,"ologue":4314,"Ġobserv":4315,"Ġdiffuse":4316,"Ġfrag":4317,"Ġchansons":4318,"Ġofficiellement":4319,"Espagne":4320,".),":4321,"Notes":4322,"gnent":4323,"Ġsovie":4324,"autant":4325,"tations":4326,"ĠMr":4327,"Ġgla":4328,"Ġcontact":4329,"ĠJack":4330,"Ġdistance":4331,"ĠHenry":4332,"33":4333,"Bre":4334,"den":4335,"Ġparis":4336,"ĠLim":4337,"Ġnai":4338,"ĠSm":4339,"Ġjau":4340,"lien":4341,"Ġdivise":4342,"Ġtourn":4343,"Ġ1940":4344,"atrice":4345,"ĠNouvelle":4346,"Ġmaladie":4347,"63":4348,"bon":4349,"oz":4350,"quences":4351,"Ġvote":4352,"asser":4353,"cialise":4354,"universite":4355,"Ġchoses":4356,"Ġsup":4357,"rick":4358,"mettre":4359,"azine":4360,"Ġappel":4361,"Ġmeilleure":4362,"Ġpleine":4363,"Ġglob":4364,"ĠFrank":4365,"atiques":4366,"van":4367,"Ġsait":4368,"Ġton":4369,"Ġbassin":4370,"Ġconque":4371,"Ġgui":4372,"ĠParti":4373,"Ġinstitu":4374,"Ġpouvait":4375,"74":4376,"daction":4377,"sant":4378,"vue":4379,"ish":4380,"arche":4381,"tape":4382,"ĠDurant":4383,"entrep":4384,"illaume":4385,"Ġgraph":4386,"Ġcinquie":4387,"sultat":4388,"Ġrenforce":4389,"ater":4390,"Ġfu":4391,"Ġtonnes":4392,"Ġremonte":4393,"ophe":4394,"Ġsuit":4395,"ĠXX":4396,"Ġprintemps":4397,"tone":4398,"Ġappro":4399,"Ġcroy":4400,"inform":4401,"tionnelle":4402,"Ġsimplement":4403,"Ġnoirs":4404,"ustralie":4405,"Des":4406,"tille":4407,"isser":4408,"ompe":4409,"Ġtest":4410,"Ġnorm":4411,"Ġglace":4412,"Ġmonuments":4413,"Ġ32":4414,"Ġconnaissance":4415,"Ġpermettre":4416,"Ġministe":4417,"Ġ70":4418,"Ġrestaur":4419,"Ġvictoires":4420,"Ġmajor":4421,"Ġhypothe":4422,"Ġsentiment":4423,"Ġrythme":4424,"hiver":4425,"mond":4426,"nario":4427,"sor":4428,"Ġclim":4429,"Ġvien":4430,"dec":4431,"ĠSou":4432,"Ġplac":4433,"Ġine":4434,"dies":4435,"ordes":4436,"ĠWil":4437,"Ġmatin":4438,"Ġromans":4439,"Hen":4440,"cenn":4441,"gende":4442,"sen":4443,"ĠDon":4444,"ĠEli":4445,"Ġdiz":4446,"irm":4447,"Ġ400":4448,"Ġjustice":4449,"Ġ1988":4450,"Ġfutur":4451,"Ġportes":4452,"installe":4453,"volu":4454,"Ġici":4455,"Ġlende":4456,"Ġmasse":4457,"Ġdestin":4458,"ĠAllemagne":4459,"ĠDou":4460,"aby":4461,"Ġfinit":4462,"Ġobtenir":4463,"Ġ1945":4464,"Ġouvrage":4465,"Ġautorise":4466,"Ġbibliothe":4467,"Ġsil":4468,"ision":4469,"orn":4470,"ram":4471,"rane":4472,"ĠNous":4473,"ĠTrois":4474,"occupation":4475,"Ġcondamne":4476,"Ġdynastie":4477,"Ġraconte":4478,"hic":4479,"ker":4480,"Ġconvain":4481,"ĠToulouse":4482,"ĠHam":4483,"imm":4484,"ĠVen":4485,"emploi":4486,"ĠAnge":4487,"Ġreconnai":4488,"Ġsymbole":4489,"Ġaccueilli":4490,"duisent":4491,"Ġsuccessi":4492,"Ġsemblent":4493,"Ġlyce":4494,"ĠAusten":4495,"Ġsculp":4496,"Ġlendemain":4497,"SC":4498,"Ġcam":4499,"arte":4500,"atures":4501,"Ġproje":4502,"Ġsatis":4503,"Ġottom":4504,"ĠVers":4505,"ommun":4506,"Ġtableaux":4507,"Ġanciennes":4508,"architecture":4509,"honneur":4510,"Ġdon":4511,"rac":4512,"Ġvia":4513,"rim":4514,"ĠCas":4515,"ols":4516,"lir":4517,"Ġperman":4518,"Ġnobles":4519,"autom":4520,"Ġpouvant":4521,"ĠPhil":4522,"Ġtraitement":4523,"ĠBerlin":4524,"ĠNotre":4525,"Ġinaugure":4526,"At":4527,"Ne":4528,"Ġpiste":4529,"tiv":4530,"preuve":4531,"ĠCham":4532,"sentations":4533,"Ġseront":4534,"Ġremplac":4535,"Ġsport":4536,"Ġatteindre":4537,"Ġchangement":4538,"Ġsignifie":4539,"ĠPlusieurs":4540,"Ġchapitre":4541,"Ġexclus":4542,",âĢİ":4543,"Ġsoir":4544,"ourn":4545,"Ġbyz":4546,"ĠPendant":4547,"ĠBl":4548,"Ġchan":4549,"Ġcompare":4550,"Ġimpose":4551,"Ġfilles":4552,"Ġemprun":4553,"Ġsymbol":4554,"attaque":4555,"Ġmassif":4556,"67":4557,"mite":4558,"ws":4559,"quite":4560,"rales":4561,"raine":4562,"Ġtort":4563,"Ġparler":4564,"Ġ75":4565,"ĠPeter":4566,"exploitation":4567,"Ġjaponais":4568,"Ġtypes":4569,"dom":4570,"of":4571,"oque":4572,"zabeth":4573,"Ġordre":4574,"Ġlu":4575,"Ġamis":4576,"Ġnarra":4577,"Ġvert":4578,"ĠCle":4579,"Ġbomb":4580,"ĠAm":4581,"ligne":4582,"Ġrentre":4583,"ĠKar":4584,"ĠAnne":4585,"Ġ1987":4586,"ĠPremie":4587,"volue":4588,"Ġgrecque":4589,"Ġscientifiques":4590,"ĠUniversity":4591,"din":4592,"ive":4593,"Ġdavantage":4594,"Ġpoly":4595,"Ġber":4596,"Ġexce":4597,"Ġfonctions":4598,"ĠZe":4599,"Ġsupporter":4600,"Ġdatant":4601,"Ġpure":4602,"ourage":4603,"chec":4604,"chelle":4605,"ortant":4606,"ĠNor":4607,"Ġjeunesse":4608,"disp":4609,"Ġlesquelles":4610,"ĠHugo":4611,"Ġcroissance":4612,".)":4613,"Ġsh":4614,"quin":4615,"mel":4616,"Ġgard":4617,"irent":4618,"ĠAll":4619,"Ġpassant":4620,"Ġscore":4621,"ĠSuper":4622,"ight":4623,"sse":4624,"Ġdote":4625,"Ġpou":4626,"Ġpous":4627,"Ġsing":4628,"Ġnor":4629,"Ġvieux":4630,"rif":4631,"Ġplans":4632,"ĠDiv":4633,"Ġconten":4634,"Ġpeup":4635,"Ġeffic":4636,"Ġrapproche":4637,"Ġfaite":4638,"Ġdistingue":4639,"Ġfixe":4640,"lante":4641,"isations":4642,"Ġtu":4643,"Ġvesti":4644,"ĠDom":4645,"Ġmobil":4646,"tudie":4647,"Ġspirit":4648,"Ġdessins":4649,"Ġfaibles":4650,"Ġvivre":4651,"lymp":4652,"difice":4653,"Ġsouverain":4654,"ĠAllemand":4655,"The":4656,"gh":4657,"guer":4658,"los":4659,"zie":4660,"ommes":4661,"ourt":4662,"rimer":4663,"tail":4664,"agglome":4665,"cession":4666,"ayant":4667,"thode":4668,"Ġreprise":4669,"Ġconstruite":4670,"Ġmontagnes":4671,"fend":4672,"sous":4673,"ya":4674,"Ġnouvel":4675,"Ġcache":4676,"Ġ1975":4677,"ographe":4678,"voie":4679,"Ġintelle":4680,"Ġnaturel":4681,"ĠWalt":4682,"Ġcatholique":4683,"Ġcandid":4684,"abbaye":4685,"Ġus":4686,"Ġauteur":4687,"Ġchim":4688,"ople":4689,"lange":4690,"Ġbiens":4691,"titut":4692,"Ġ90":4693,"Ġcafe":4694,"ressionn":4695,"Ġissus":4696,"tissement":4697,"Ġenvisage":4698,"Ġclimat":4699,"39":4700,"pression":4701,"sons":4702,"Ġsin":4703,"altitude":4704,"Ġvon":4705,"Ġbloc":4706,"ĠPra":4707,"ĠPat":4708,"ĠAugus":4709,"ĠLeur":4710,"irs":4711,"Ġtrafic":4712,"Ġmare":4713,"thi":4714,"Ġoblige":4715,"Ġriv":4716,"Ġcapture":4717,"Ġ1982":4718,"Ġpublics":4719,"Ġtotale":4720,"Ġtotalement":4721,"Ġprisonn":4722,"Ġreligieuses":4723,"Ġvictimes":4724,"64":4725,"core":4726,"mosphe":4727,"sa":4728,"zon":4729,"Ġactions":4730,"erts":4731,"Ġendro":4732,"Ġreb":4733,"Ġvente":4734,"ĠSuisse":4735,"Ġconj":4736,"Ġsurve":4737,"dium":4738,"ulation":4739,"ĠNav":4740,"anges":4741,"ĠMarc":4742,"lantique":4743,"Ġcollec":4744,"ĠClaude":4745,"diter":4746,"Ġanimal":4747,"Ġrejoindre":4748,"ĠBoston":4749,"ĠRussie":4750,"couv":4751,"effe":4752,"gen":4753,"gend":4754,"Ġdite":4755,"Ġpanne":4756,"rains":4757,"Ġrede":4758,"Ġgaz":4759,"union":4760,"ĠHav":4761,"Ġral":4762,"oges":4763,"ider":4764,"Ġconnaiss":4765,"Ġportant":4766,"Ġappelle":4767,"Ġmaintenant":4768,"Ġsalles":4769,"loigne":4770,"Ġdescend":4771,"ponse":4772,"38":4773,"Louis":4774,"avec":4775,"Ġmu":4776,"Ġnaz":4777,"heim":4778,"ĠBan":4779,"ĠBlac":4780,"diction":4781,"ama":4782,"Ġconcent":4783,"Ġminim":4784,"Ġ1985":4785,"velopper":4786,"entite":4787,"Ġromain":4788,"Ġnaturelle":4789,"animation":4790,"Bretagne":4791,"Plus":4792,"Qu":4793,"bute":4794,"dont":4795,"Ġlar":4796,"ores":4797,"Ġenvir":4798,"Ġvan":4799,"ĠConc":4800,"ĠSim":4801,"ĠGer":4802,"Ġfaits":4803,"Ġmettent":4804,"Ġroyal":4805,"ĠGuy":4806,"Ġbritanniques":4807,"entielle":4808,"Ġremarqu":4809,"Ġvainque":4810,"Orient":4811,"Saint":4812,"ipp":4813,"jou":4814,"Ġvent":4815,"Ġauparavant":4816,"ĠCat":4817,"ternes":4818,"Ġ1986":4819,"accomp":4820,"Ġstations":4821,"Ġconstituent":4822,"Ġlogements":4823,"diatement":4824,"Ġbronze":4825,"Ġlien":4826,"indi":4827,"Ġfi":4828,"adap":4829,"illot":4830,"tenus":4831,"server":4832,"Ġtravaill":4833,"Ġgrave":4834,"Ġmention":4835,"lectron":4836,"bie":4837,"zer":4838,"Ġpages":4839,"quoi":4840,"ura":4841,"dific":4842,"ignent":4843,"Ġ34":4844,"riculture":4845,"Ġ%.":4846,"Ġrappelle":4847,"ographiques":4848,"Ġenfant":4849,"iverse":4850,"trice":4851,"Ġsaisons":4852,"81":4853,"Ab":4854,"Ex":4855,"Ge":4856,"bat":4857,"drome":4858,"gard":4859,"Ġsacre":4860,"arts":4861,"article":4862,"Ġplateau":4863,"ĠEl":4864,"ĠItalie":4865,"ĠHit":4866,"ĠVan":4867,"Ġadvers":4868,"Ġ600":4869,"toine":4870,"Ġprim":4871,"Ġpieds":4872,"pects":4873,"ĠIsrae":4874,"Ġdisparai":4875,"tablissements":4876,"Ġoriginale":4877,"Ġcommandant":4878,"77":4879,"itie":4880,"Ã¦":4881,"Ġsolution":4882,"seurs":4883,"Ġconne":4884,"ĠHistoire":4885,"ĠWar":4886,"Ġfeme":4887,"Ġpuisse":4888,"rennent":4889,"Ġhumain":4890,"Ġcombats":4891,"Ġsauve":4892,"Ġjuive":4893,"ourgeois":4894,"cure":4895,"dation":4896,"glement":4897,"pent":4898,"Ġ+":4899,"Ġorth":4900,"reux":4901,"Ġflotte":4902,"Ġinves":4903,"ĠRam":4904,"Ġnette":4905,"Ġmodifie":4906,"oger":4907,"Ġperform":4908,"Ġabrite":4909,"buts":4910,"Ġ1979":4911,"Ġouvre":4912,"Ġniveaux":4913,"Ġsecondes":4914,"Ġprati":4915,"Ġfaisait":4916,"ĠGuillaume":4917,"Ġmajeure":4918,"Ġcycl":4919,"Ġtentative":4920,"Ġradio":4921,"Ces":4922,"FA":4923,"roup":4924,"Ġdeviennent":4925,"Ġsouvenir":4926,"anie":4927,"Ġeut":4928,"Ġfru":4929,"Ġvole":4930,"ĠMos":4931,"Ġabou":4932,"Ġcapable":4933,"Ġpape":4934,"Ġscol":4935,"Ġprofessionnel":4936,"68":4937,"pour":4938,"solution":4939,"Ġscience":4940,"ani":4941,"Ġparu":4942,"Ġnot":4943,"astique":4944,"Ġcontient":4945,"ĠAut":4946,"ĠAss":4947,"Ġjuifs":4948,"ĠFlor":4949,"Ġsujets":4950,"Ġcourses":4951,"conomiques":4952,"Ġvoient":4953,"Ġfigures":4954,"Ġdevenue":4955,"Ġdocuments":4956,"tranger":4957,"Ġdisparu":4958,"Ġcathol":4959,"Ġindivid":4960,"Ġrencontres":4961,"ĠAllemands":4962,"mans":4963,"artiste":4964,"vere":4965,"ĠCamb":4966,"ĠSar":4967,"ĠBill":4968,"Ġprojets":4969,"Ġtraduction":4970,"ronte":4971,"Ġinterne":4972,"Ġ1983":4973,"Ġimage":4974,"Ġ1968":4975,"Ġcanal":4976,"Ġvolcan":4977,"Ġinflu":4978,"Ġmodernes":4979,"trangers":4980,"Ġmauvais":4981,"32":4982,"wa":4983,"reurs":4984,"Ġcle":4985,"Ġred":4986,"rice":4987,"Ġjardin":4988,"Ġinvite":4989,"range":4990,"dige":4991,"ĠEr":4992,"ico":4993,"ĠNoe":4994,"Ġarrie":4995,"ondes":4996,"Ġinscrit":4997,"formes":4998,"expression":4999,"Ġhumains":5000,"Ġfrappe":5001,"Ġanglaise":5002,"ĠAlexandre":5003,"ĠâĤ¬":5004,"ruption":5005,"pand":5006,"titions":5007,"quier":5008,"tas":5009,"Ġbure":5010,"ĠTim":5011,"Ġsav":5012,"Ġradic":5013,"Ġterr":5014,"ĠAnton":5015,"Ġlocales":5016,"Ġrendu":5017,"Ġhistoriens":5018,"Ġiran":5019,"Ġofficiel":5020,"Ġdisparition":5021,"Ġpromo":5022,"Ġrespectivement":5023,"Ġretraite":5024,"Ġstudio":5025,"79":5026,"dant":5027,"fique":5028,"quante":5029,"ourne":5030,"ĠCa":5031,"pel":5032,"atoires":5033,"Ġantique":5034,"Ġprison":5035,"Ġcontribue":5036,"tins":5037,"intro":5038,"Ġconcentre":5039,"odox":5040,"Ġmillion":5041,"Ġmontrent":5042,"Ġaffaires":5043,"Ġfamili":5044,"Ġretrouver":5045,"nagement":5046,"Ġurbaine":5047,"Ġsuffis":5048,"Ġpauvre":5049,"Ġmanuscrit":5050,"atherine":5051,"62":5052,"lot":5053,"mas":5054,"{\\":5055,"Ìĥ":5056,"teaux":5057,"ouille":5058,"arg":5059,"ĠMiss":5060,"ĠAmer":5061,"Ġsurvi":5062,"dias":5063,"Ġanime":5064,"vide":5065,"glais":5066,"Anne":5067,"ĠXVe":5068,"Ġvillages":5069,"Ġbleu":5070,"Ġillustre":5071,"Ġofficiers":5072,"ĠNicolas":5073,"37":5074,"yer":5075,"Ġate":5076,"Ġsen":5077,"Ġfune":5078,"tain":5079,"ĠPo":5080,"liance":5081,"Ġinse":5082,"Ġanalyse":5083,"Ġrit":5084,"vid":5085,"ĠNorm":5086,"Ġforment":5087,"Ġclo":5088,"ugby":5089,"Ġspati":5090,"Ġmilliers":5091,"Ġroutes":5092,"Ġviolence":5093,"ĠFreud":5094,"duisant":5095,"ĠStade":5096,"Ph":5097,"icien":5098,"llig":5099,"rond":5100,"tite":5101,"quival":5102,"ĠLille":5103,"Ġcondition":5104,"ĠPie":5105,"dienne":5106,"ĠTout":5107,"ĠRay":5108,"ĠVir":5109,"inguis":5110,"clam":5111,"ibal":5112,"ĠâĢĶ,":5113,"Ġassociations":5114,"Ġimages":5115,"ĠBeat":5116,"ĠArt":5117,"Ġportent":5118,"Ġfonds":5119,"Ġaller":5120,"ĠFrancis":5121,"cret":5122,"lectrique":5123,"Ġquitter":5124,"Dame":5125,"enis":5126,"environnement":5127,"ĠLor":5128,"Ġplais":5129,"Ġgro":5130,"Ġ1900":5131,"ĠEm":5132,"Ġante":5133,"ogue":5134,"Ġ2020":5135,"ĠOs":5136,"Ġpropor":5137,"tionnel":5138,"Ġdonnent":5139,"Ġespace":5140,"Ġcathe":5141,"Ġconsommation":5142,"Ġnourriture":5143,"58":5144,"atif":5145,"cos":5146,"sar":5147,"zi":5148,"ury":5149,"ciers":5150,"ĠEs":5151,"Ġchant":5152,"ctares":5153,"Ġsouligne":5154,"Ġexprime":5155,"troit":5156,"giment":5157,"Art":5158,"Ġlocal":5159,"Ġprises":5160,"Ġrevenus":5161,"Ġennemis":5162,"BC":5163,"montre":5164,"pro":5165,"tto":5166,"enture":5167,"ombre":5168,"ĠPan":5169,"ĠMace":5170,"uns":5171,"dier":5172,"ĠHo":5173,"Ġarts":5174,"ĠEntre":5175,"illage":5176,"ĠPark":5177,"ricaines":5178,"Ġfrancs":5179,"empire":5180,"Anti":5181,"Ġ1939":5182,"Ġsociales":5183,"Ġservir":5184,"piration":5185,"finitivement":5186,"Ġidentifie":5187,"Me":5188,"OCLC":5189,"Ġmm":5190,"Ġauton":5191,"Ġcomite":5192,"Ġinv":5193,"Ġmodes":5194,"ĠCelle":5195,"Ġatteste":5196,"Ġrive":5197,"Ġconcours":5198,"Ġ1977":5199,"ĠQuelques":5200,"Ġopp":5201,"Ġvolont":5202,"hor":5203,"mit":5204,"Â°":5205,"Ġpon":5206,"Ġauquel":5207,"chai":5208,"ĠBri":5209,"erson":5210,"Ġnotes":5211,"Ġfinance":5212,"exposition":5213,"Ġbeau":5214,"Ġbelle":5215,"Ġcommunication":5216,"Ġ1966":5217,"Ġentend":5218,"Ġ1912":5219,"diteur":5220,"Ġmythe":5221,"Ġtendance":5222,"enfant":5223,"apparition":5224,"Ġjuif":5225,"ashington":5226,"ĠMaurice":5227,"lais":5228,"enche":5229,"Ġmand":5230,"Ġbil":5231,"ĠPS":5232,"Ġchale":5233,"opposition":5234,"truit":5235,"ologues":5236,"Ġisole":5237,"Ġresponsabilite":5238,"Ġremarque":5239,"Ġcommandement":5240,"Ġinstruments":5241,"Ġbudget":5242,"71":5243,"Ad":5244,"cro":5245,"lation":5246,"mons":5247,"Ġlic":5248,"Ġpan":5249,"Ġmonn":5250,"Ġfoi":5251,"ĠLou":5252,"ĠCentre":5253,"ĠRa":5254,"ical":5255,"istan":5256,"Ġconsul":5257,"Ġformer":5258,"ĠAngleterre":5259,"Ġaccorde":5260,"Ġ1972":5261,"volte":5262,"Ġmunicipalite":5263,"Ġprononce":5264,"55":5265,"96":5266,"drale":5267,"Ġpy":5268,"Ġave":5269,"Ġaction":5270,"Ġsensi":5271,"org":5272,"itant":5273,"Ġretire":5274,"ĠPaci":5275,"ĠMax":5276,"Ġgagner":5277,"ĠBat":5278,"ĠTri":5279,"ĠGo":5280,"ĠGame":5281,"Ġexternes":5282,"Ġray":5283,"Ġtraces":5284,"Ġseraient":5285,"Ġhectares":5286,"Ġconnus":5287,"Ġpubliques":5288,"Ġmusiciens":5289,"Ġ1965":5290,"Ġportrait":5291,"ĠInter":5292,"Ġ1914":5293,"ĠPremier":5294,"Ġvenir":5295,"Ġinstall":5296,"Ġprofondeur":5297,"ĠBernard":5298,"rouve":5299,"Ġaf":5300,"Ġcui":5301,"Ġcuis":5302,"Ġmic":5303,"rase":5304,"mement":5305,"Ġques":5306,"ĠCalif":5307,"Ġbu":5308,"peau":5309,"ĠGrec":5310,"ierge":5311,"umb":5312,"avance":5313,"illant":5314,"Ġcarte":5315,"Ġaccuse":5316,"ignon":5317,"Ġ1978":5318,"Ġcircons":5319,"ĠDucks":5320,"Ġactuel":5321,"ĠXIIIe":5322,"Autriche":5323,"Jac":5324,"lore":5325,"tures":5326,"Î¿":5327,"ĠÅĵ":5328,"Ġpale":5329,"Ġdegre":5330,"ĠLos":5331,"chan":5332,"Ġuniverse":5333,"Ġcongre":5334,"ĠBru":5335,"termine":5336,"ĠFab":5337,"ications":5338,"Ġauxque":5339,"oto":5340,"ĠEncy":5341,"tifier":5342,"Ġimplique":5343,"gile":5344,"Ġblanche":5345,"Ġconstitution":5346,"Ġchangements":5347,"Ġtravailler":5348,"Ġmultiples":5349,"Ġcivilisation":5350,"49":5351,"61":5352,"88":5353,"Alexand":5354,"Ġplantes":5355,"ĠMy":5356,"ĠMas":5357,"liorer":5358,"ĠEsp":5359,"),.":5360,"uma":5361,"ĠWashington":5362,"exte":5363,"obe":5364,"manie":5365,"Ġ1964":5366,"Ġcentaines":5367,"Ġpratiques":5368,"Ġsynthe":5369,"Ġsouhait":5370,"Ġsemaine":5371,"Ġpenser":5372,"diterrane":5373,"usta":5374,"cha":5375,"rienne":5376,"ĠSav":5377,"ĠGl":5378,"Ġmoindre":5379,"Ġfinanci":5380,"Ġ800":5381,"Ġ160":5382,"Ġpassagers":5383,"rasse":5384,"Ġdirect":5385,"Ġdonnant":5386,"Ġdirigeants":5387,"pisodes":5388,"Ġviennent":5389,"Ass":5390,"Mal":5391,"Marie":5392,"Sur":5393,"empe":5394,"quili":5395,"quement":5396,"Ġdestruction":5397,"ĠCent":5398,"ĠMic":5399,"Ġpourquoi":5400,"unt":5401,"uxelles":5402,"ulsion":5403,"Ġtraits":5404,"Ġtraduit":5405,"Ġconscience":5406,"Ġperte":5407,"exe":5408,"190":5409,"issue":5410,"Ġcanadi":5411,"Ġmyste":5412,"Ġsuivantes":5413,"Ġissu":5414,"Ġacheve":5415,"Ġcomportement":5416,"historien":5417,"Ġcircuit":5418,"quilibre":5419,"73":5420,"95":5421,"gorie":5422,"mins":5423,"up":5424,"Ġpne":5425,"Ġcous":5426,"Ġmass":5427,"ourir":5428,"ĠSk":5429,"ĠMel":5430,"ĠAra":5431,"ĠBas":5432,"ĠGue":5433,"opp":5434,"sentants":5435,"observ":5436,"ĠJoe":5437,"Ġ1974":5438,"interpre":5439,"Ġparticipation":5440,"Ġressources":5441,"Ġcommencent":5442,"thiop":5443,"66":5444,"Am":5445,"cus":5446,"fug":5447,"nat":5448,"voi":5449,"Î¹":5450,"Ġporter":5451,"quare":5452,"Ġmurs":5453,"urie":5454,"ilie":5455,"Ġquart":5456,"ĠPau":5457,"ĠBour":5458,"inet":5459,"ĠFal":5460,"extre":5461,"lsace":5462,"Ġoblig":5463,"iesel":5464,"Ġ1984":5465,"tropole":5466,"Ġ1973":5467,"Ġmettant":5468,"menter":5469,"Ġsciences":5470,"Ġajou":5471,"Ġsimilaire":5472,"Ġvolume":5473,"rigueux":5474,"ĠDivision":5475,"72":5476,"ward":5477,"ÌĬ":5478,"erc":5479,"Ġfestival":5480,"raits":5481,"ĠSeth":5482,"ĠMet":5483,"ĠBi":5484,"Ġprovo":5485,"ĠDie":5486,"Ġoub":5487,"Ġrues":5488,"Ġallant":5489,"Ġposses":5490,"Ġ1948":5491,"Ġcrois":5492,"ĠStan":5493,"Ġdirecte":5494,"urban":5495,"Ġagricoles":5496,"Ġarabe":5497,"82":5498,"Ġavi":5499,"Ġcordes":5500,"quente":5501,"inge":5502,"nel":5503,"orld":5504,"Ġtur":5505,"Ġbus":5506,"Ġconduite":5507,"Ġproduire":5508,"ĠDra":5509,"ĠFI":5510,"Ġexige":5511,"Ġacces":5512,"ĠKh":5513,"Ġjusque":5514,"loie":5515,"Ġ1967":5516,"Ġ1969":5517,"Ġmilliards":5518,"Ġinconn":5519,"axe":5520,"criptions":5521,"Char":5522,"Ġmagazine":5523,"Ġconclut":5524,"Ġfouilles":5525,"ĠConstantinople":5526,"Ġfacilement":5527,"Ġdivinite":5528,"SS":5529,"Ġcime":5530,"inique":5531,"Ġmou":5532,"Ġment":5533,"Ġflam":5534,"Ġrepe":5535,"cho":5536,"ters":5537,"Ġchance":5538,"Ġouest":5539,"agriculture":5540,"andie":5541,"Ġchefs":5542,"tension":5543,"Ġappare":5544,"Ġmathe":5545,"llent":5546,"Ġtenu":5547,"Ġsignale":5548,"Ġchoisi":5549,"Ġcivile":5550,"Ġagricole":5551,"putation":5552,"ĠPrince":5553,"Ġguerres":5554,"Ġdanse":5555,"Henri":5556,"ĠHitler":5557,"As":5558,"Comme":5559,"bi":5560,"ccident":5561,"gar":5562,"Ġdesser":5563,"ĠTex":5564,"trad":5565,"issait":5566,"Ġpopulaires":5567,"Ġ1981":5568,"Ġviolon":5569,"install":5570,"Ġchacune":5571,"Ġvraiment":5572,"fici":5573,"ji":5574,"rue":5575,"deux":5576,"riale":5577,"ĠCont":5578,"tails":5579,"ĠMu":5580,"univers":5581,"Ġha":5582,"opold":5583,"ĠVol":5584,"sentes":5585,"Ġaspect":5586,"ristique":5587,"Ġcourte":5588,"ĠAnglais":5589,"glises":5590,"Ġnationaux":5591,"Ġvisage":5592,"Ġ1962":5593,"Ġcentres":5594,"clame":5595,"Ġofficielle":5596,"plom":5597,"Ġdynam":5598,"ĠGrecs":5599,"ling":5600,"vac":5601,"Ġpur":5602,"inn":5603,"Ġmig":5604,"ases":5605,"Ġbap":5606,"ĠMaison":5607,"ĠAg":5608,"ĠBelle":5609,"Ġconsiste":5610,"Ġcompos":5611,"tification":5612,"Ġterrains":5613,"phie":5614,"Ġrecom":5615,"Ġ44":5616,"tabilite":5617,"Ġ1932":5618,"oxy":5619,"animal":5620,"Ġfranchise":5621,"Ġoccidentale":5622,"fred":5623,"Acade":5624,"cosse":5625,"Ġos":5626,"Ġdo":5627,"Ġciel":5628,"tirer":5629,"ita":5630,"Ġtoile":5631,"Ġreje":5632,"ĠLyon":5633,"siris":5634,"resser":5635,"ĠCong":5636,"tages":5637,"ĠAli":5638,"Ġ250":5639,"diques":5640,"ĠTous":5641,"Ġarbres":5642,"ctor":5643,"ventions":5644,"Ġtir":5645,"Ġinterdit":5646,"ĠSeine":5647,"Andre":5648,"Ġappartient":5649,"Ġpouvoirs":5650,"Ġauraient":5651,"Ġsymbolique":5652,"Ġjournaliste":5653,"Ġmanifestations":5654,"ĠBruxelles":5655,"orne":5656,"cial":5657,"ĠGui":5658,"Ġdiplom":5659,"istoires":5660,"Ġaspects":5661,"Ġattire":5662,"Ġrenomme":5663,"Ġvisible":5664,"ĠYou":5665,"Ġapparaissent":5666,"appro":5667,"ĠQuant":5668,"Ġwe":5669,"Ġstand":5670,"Ġvaleurs":5671,"ĠXIIe":5672,"Ġclavec":5673,"Ġcimetie":5674,"laires":5675,"rection":5676,"Ġpati":5677,"Ġsent":5678,"Ġfoule":5679,"Ġparf":5680,"ĠPic":5681,"ĠBoc":5682,"chets":5683,"Ġhui":5684,"Ġtram":5685,"Ġcomprenant":5686,"Ġmarie":5687,"Ġpole":5688,"exception":5689,"Ġpaysage":5690,"Ġutiliser":5691,"Ġfacilite":5692,"grade":5693,"Ġretrouvent":5694,"ĠQuand":5695,"ĠĠĠĠ":5696,"Ġartistique":5697,"Ġinstrument":5698,"Jacques":5699,"four":5700,"flex":5701,"field":5702,"hib":5703,"jo":5704,"jan":5705,"rari":5706,"sme":5707,"Ġend":5708,"auf":5709,"seaux":5710,"ĠMrs":5711,"Ġinge":5712,"Ġsurnomme":5713,"ultes":5714,"Ġneige":5715,"imag":5716,"obs":5717,"Ġclasses":5718,"ĠMark":5719,"autorite":5720,"toiles":5721,"Ġproductions":5722,"Ġdomaines":5723,"Ġhommage":5724,"Ġfondament":5725,"Ġrelative":5726,"Ġurbain":5727,"Ġitalien":5728,"Ġolympiques":5729,"Ġquinze":5730,"Ġsuppose":5731,"ĠAngeles":5732,"cad":5733,"ym":5734,"Ġlou":5735,"enue":5736,"era":5737,"arque":5738,"Ġlaisser":5739,"Ġfal":5740,"Ġvise":5741,"ĠPuis":5742,"ĠMat":5743,"Ġjuri":5744,"ĠBorde":5745,"ĠDal":5746,"opota":5747,"ouvrage":5748,"ĠWiesel":5749,"Ġorchestre":5750,"thle":5751,"Ġattra":5752,"lone":5753,"Ġutilisant":5754,"Ġimportance":5755,"Ġdomination":5756,"Ġ1942":5757,"Ġentoure":5758,"Ġvoitures":5759,"Ġisrae":5760,"ridge":5761,"Ġprovenant":5762,"Ġouverte":5763,"Ġconcept":5764,"Ġrattache":5765,"cart":5766,"ctifs":5767,"fi":5768,"ivement":5769,"lins":5770,"toile":5771,"yo":5772,"Ġign":5773,"Ġden":5774,"Ġdieux":5775,"ource":5776,"Ġventes":5777,"ansion":5778,"ĠCam":5779,"tais":5780,"Ġbra":5781,"ĠMac":5782,"Ġpourraient":5783,"ĠBob":5784,"Ġpreuve":5785,"ago":5786,"ĠTitan":5787,"ĠGab":5788,"Ġrugby":5789,"Ġ39":5790,"Ġrois":5791,"ĠOli":5792,"Ġrecru":5793,"Ġcode":5794,"Ġpaysans":5795,"Ġexploit":5796,"Ġsuivre":5797,"...)":5798,"Ġsociaux":5799,"Ġgarc":5800,"Ġculturel":5801,"Ġboule":5802,"Ġpuits":5803,"ĠBelfort":5804,"parer":5805,"ĠJules":5806,"Ġactuellement":5807,"Ġallemands":5808,"ĠChaque":5809,"Ġmascul":5810,"Ġaffecte":5811,"Ġinstitutions":5812,"Ġquestions":5813,"69":5814,"couvert":5815,"fle":5816,"ski":5817,"tz":5818,"Ġlinguis":5819,"inion":5820,"ural":5821,"Ġflu":5822,"Ġfene":5823,"seille":5824,"Ġ120":5825,"riens":5826,"Ġbaisse":5827,"ĠPont":5828,"Ġrusse":5829,"Ġart":5830,"Ġrester":5831,"venu":5832,"jectif":5833,"Ġminute":5834,"azz":5835,"tyle":5836,"Ġquarante":5837,"ĠRoyal":5838,"Ġattaques":5839,"ĠLorsque":5840,"ĠBayonne":5841,"Ġchinois":5842,"Ġrestauration":5843,"Ġpeuples":5844,"Paul":5845,"couvre":5846,"gues":5847,"pert":5848,"ester":5849,"engage":5850,"rey":5851,"initi":5852,"itt":5853,"ilier":5854,"Ġenvironnement":5855,"riodes":5856,"Ġgri":5857,"ĠBlan":5858,"ĠRene":5859,"Ġhie":5860,"Ġtroupe":5861,"Ġpartiellement":5862,"Ġ64":5863,"Ġsuivent":5864,"Ġ1961":5865,"Ġfacteurs":5866,"rastru":5867,"Ġcampagnes":5868,"Ġciter":5869,"Ġdifficiles":5870,"Ġcycle":5871,"Ġsuperficie":5872,"Ġirre":5873,"Ġcontrairement":5874,"ĠDaniel":5875,"Ġbombarde":5876,"Ġsupporters":5877,"Ġprisonniers":5878,"ĠHavre":5879,"fr":5880,"vage":5881,"Ġ.":5882,"Ġliens":5883,"ena":5884,"Ġaient":5885,"Ġreli":5886,"ĠLong":5887,"ĠCamp":5888,"Ġbourg":5889,"ĠAthe":5890,"terdam":5891,"Ġprovis":5892,"Ġmonaste":5893,"Ġmaillot":5894,"dents":5895,"oncer":5896,"autor":5897,"Ġvice":5898,"ĠArthur":5899,"anctu":5900,"Ġpresti":5901,"Ġmises":5902,"Ġlangage":5903,"Ġrevenir":5904,"Ġcitoy":5905,"Ġvisiteurs":5906,"Ġitalienne":5907,"Ġcaval":5908,"Ġcommission":5909,"Ġbyzantin":5910,"ĠBeatles":5911,"Avec":5912,"dac":5913,"Ġtis":5914,"Ġsoup":5915,"Ġlecteur":5916,"rables":5917,"Ġth":5918,"roport":5919,"champ":5920,"ĠCer":5921,"ĠMons":5922,"ĠBut":5923,"alem":5924,"ĠRoger":5925,"Ġang":5926,"ĠGil":5927,"ĠHistor":5928,"Ġacteurs":5929,"Ġtrophe":5930,"phes":5931,"Ġestim":5932,"Ġ1941":5933,"gional":5934,"lacement":5935,"Ġrapports":5936,"ĠXIVe":5937,"Inde":5938,"Ġsorti":5939,"Ġprofesseur":5940,"Ġvoyageurs":5941,"Ġmunicipal":5942,"kin":5943,"nalite":5944,"voit":5945,"anes":5946,"tell":5947,"itations":5948,"Ġusage":5949,"Ġrepose":5950,"ĠCatherine":5951,"ĠPa":5952,"ĠMay":5953,"ĠAdam":5954,"Ġanaly":5955,"Ġacquis":5956,"Ġassi":5957,"angle":5958,"ologne":5959,"Ġveille":5960,"Ġefforts":5961,"gnant":5962,"Ġsoix":5963,"Ġjouent":5964,"Ġislam":5965,"Ġfavorable":5966,"cifique":5967,"Ġautomobile":5968,"Ġtribun":5969,"Ġmajoritaire":5970,"Ġsatisf":5971,"45":5972,"cits":5973,"ju":5974,"non":5975,"sopota":5976,"Î±":5977,"ĠÃ":5978,"Ġcouver":5979,"oud":5980,"Ġmac":5981,"ornie":5982,"chal":5983,"sias":5984,"Ġunif":5985,"Ġproposition":5986,"Ġdiv":5987,"ĠHill":5988,"ĠHall":5989,"Ġexac":5990,"Ġactes":5991,"Ġorgue":5992,"Ġsoule":5993,"Ġobtenu":5994,"Ġmini":5995,"ignant":5996,"Ġ1943":5997,"Ġ1937":5998,"Ġcoups":5999,"Ġorigines":6000,"Ġrevue":6001,"ĠKeats":6002,"Ġvictime":6003,"ĠMcC":6004,"Ġindustrielle":6005,"Ġchiffre":6006,"ĠXXIe":6007,"Ġclavecin":6008,"99":6009,"SD":6010,"Ġnoire":6011,"riaux":6012,"ritier":6013,"Ġboi":6014,"dici":6015,"illons":6016,"cution":6017,"Ġprincipes":6018,"ĠPeu":6019,"Ġsphe":6020,"Ġrefle":6021,"affaire":6022,"tudiants":6023,"doine":6024,"ĠFerrari":6025,"Ġconcurrence":6026,"Ġsensible":6027,"Iran":6028,"Mais":6029,"rants":6030,"anterie":6031,"Ġcoi":6032,"Ġlaissant":6033,"orge":6034,"itent":6035,"Ġparten":6036,"ĠLenn":6037,"chap":6038,"Ġbourgeois":6039,"ĠMur":6040,"ĠElie":6041,"Ġchanger":6042,"Ġchristian":6043,"agent":6044,"ost":6045,"aband":6046,"icon":6047,"ĠHaute":6048,"ierres":6049,"Ġavons":6050,"ductions":6051,"ĠWorld":6052,"existe":6053,"Ġperspec":6054,"ricite":6055,"ĠReich":6056,"Ġgouverneur":6057,"Ġfonctionnement":6058,"Ġmodern":6059,",,,.":6060,"incent":6061,"instar":6062,"Ġinitialement":6063,"Ġprovinces":6064,"Ġindividus":6065,"Ġphilosophie":6066,"ĠSmith":6067,"ĠBlack":6068,"Ġlecture":6069,"ray":6070,"cemment":6071,"Ġgris":6072,"Ġchat":6073,"ĠTrans":6074,"instru":6075,"Ġpointe":6076,"illard":6077,"Ġrepris":6078,"Ġprofite":6079,"Ġfondateur":6080,"Ġessais":6081,"Ġ1910":6082,"Ġmontrer":6083,"hypothe":6084,"Ġcommercial":6085,"Ġfournit":6086,"ĠBrown":6087,"Ġjaune":6088,"information":6089,"Ġvainqueur":6090,"Ġorthodox":6091,"Certa":6092,"cop":6093,"ctive":6094,"any":6095,"ĠCop":6096,"Ġbrig":6097,"liore":6098,"endie":6099,"ican":6100,"Ġdisposition":6101,"Ġ55":6102,"Ġabond":6103,"Ġ1947":6104,"Arme":6105,"Ġparcours":6106,"Ġtenir":6107,"Ins":6108,"Ġattache":6109,"Ġlibres":6110,"Ġprofessionnels":6111,"Ġnavig":6112,"ĠElizabeth":6113,"Australie":6114,"Ed":6115,"win":6116,"yr":6117,"onard":6118,"Ġpun":6119,"anique":6120,"itaine":6121,"quemment":6122,"rion":6123,"sir":6124,"aies":6125,"Ġguit":6126,"osa":6127,"igner":6128,"ockey":6129,"istres":6130,"Ġcomptait":6131,"Ġroche":6132,"ĠMarcel":6133,"Ġpost":6134,"Ġautrich":6135,"Ġlongues":6136,"Ġviande":6137,"Ġdiffusion":6138,"ophie":6139,"Ġconseille":6140,"Ġincar":6141,"Ġmaintenir":6142,"Ġ1913":6143,"Ġscand":6144,"Ġdistribution":6145,"Ġrevenu":6146,"Ġreproduction":6147,"Ġrecensement":6148,"Ġdomestique":6149,"gisla":6150,"Ġinformations":6151,"Ġexclusivement":6152,"ĠCalifornie":6153,"Assemble":6154,"coss":6155,"ionne":6156,"nonce":6157,"pie":6158,"xford":6159,"Ġdanger":6160,"aria":6161,"ĠLar":6162,"sey":6163,"Ġcomics":6164,"ato":6165,"isembl":6166,"Ġcomprendre":6167,"Ġcontribu":6168,"ader":6169,"ĠChris":6170,"tina":6171,"Ġinsuff":6172,"iento":6173,"Ġtourisme":6174,"Ġpaysages":6175,"Ġconstruits":6176,"Ġ1955":6177,"Ġdevrait":6178,"ĠRoyan":6179,"Ġpuissances":6180,"Ġcontemporains":6181,"Ġpartisans":6182,"ĠBordeaux":6183,"bu":6184,"dd":6185,"anite":6186,"arm":6187,"ila":6188,"ceaux":6189,"ĠCra":6190,"ĠSous":6191,"ĠMun":6192,"attention":6193,"ĠHong":6194,"preuves":6195,"Ġperse":6196,"Ġpertes":6197,"Ġperfor":6198,"ateaux":6199,"ĠWest":6200,"Ġ33":6201,"Ġcarb":6202,"Ġapplique":6203,"ĠBeau":6204,"Ġtenue":6205,"essentiel":6206,"Ġactuelle":6207,"Ġmanifeste":6208,"Ġordres":6209,"Ġfabric":6210,"Ġrichesse":6211,"Ġconstate":6212,"Ġoccasion":6213,"Ġbelge":6214,"Ġimpossible":6215,"vidence":6216,"43":6217,"daille":6218,"go":6219,"gale":6220,"iale":6221,"itions":6222,"lits":6223,"inage":6224,"Ġdue":6225,"changes":6226,"aigne":6227,"ĠSue":6228,"Ġcho":6229,"ula":6230,"igre":6231,"ĠNie":6232,"istocra":6233,"partition":6234,"ĠKir":6235,"Ġclairement":6236,"Ġmilieux":6237,"Ġreprendre":6238,"Ġlongs":6239,"Ġ1976":6240,"quipements":6241,"Ġ1963":6242,"Ġ1938":6243,"Ġorganisation":6244,"Ġculturelle":6245,"Ġblancs":6246,"moigne":6247,"Ġtraditionnelle":6248,"ĠPortug":6249,"Ġprincesse":6250,"automne":6251,"Michel":6252,"SA":6253,"gler":6254,"sou":6255,"Ġparad":6256,"ĠSS":6257,"ĠPin":6258,"ĠEmpire":6259,"aparte":6260,"ĠVI":6261,"trise":6262,"Ġcompter":6263,"Ġfinal":6264,"cherini":6265,"Ġconnues":6266,"Ġgardien":6267,"tablit":6268,"inium":6269,"Ġcompagnies":6270,"Ġtroubles":6271,"Ġdimension":6272,"Ġexploite":6273,"Ġnettement":6274,"ĠNormandie":6275,"Antiquite":6276,"ĠLennon":6277,"Pendant":6278,"bite":6279,"llo":6280,"Ġpav":6281,"tein":6282,"ĠLoire":6283,"signer":6284,"ĠSil":6285,"ĠPoe":6286,"ĠAc":6287,"limine":6288,"ĠTo":6289,"chet":6290,"Ġ1870":6291,"Ġ49":6292,"Ġdomicile":6293,"Ġ1946":6294,"Ġcinquante":6295,"sume":6296,"Ġstatu":6297,"Ġespaces":6298,"Ġtemples":6299,"Ġobjectif":6300,"Ġfroid":6301,"Ġprolongement":6302,"Ġcontenu":6303,"Ġperformance":6304,"ĠBoccherini":6305,"42":6306,"hu":6307,"long":6308,"pous":6309,"ring":6310,"ualite":6311,"vait":6312,"}}":6313,"Ġlune":6314,"Ġlancer":6315,"Ġsanctu":6316,"Ġcole":6317,"Ġmagne":6318,"Ġfaute":6319,"Ġdescription":6320,"rois":6321,"ĠLune":6322,"taph":6323,"ĠShe":6324,"Ġgerman":6325,"ĠBur":6326,"ĠBir":6327,"dion":6328,"uls":6329,"ĠTor":6330,"ĠRon":6331,"endra":6332,"ĠJer":6333,"obtenir":6334,"Ġadj":6335,"Ġcouche":6336,"Ġ1959":6337,"appu":6338,"Ġcollecte":6339,"Ġtension":6340,"Ġseules":6341,"ĠCanadi":6342,"Ġclassiques":6343,"ensive":6344,"ĠCertaines":6345,"ĠFinalement":6346,"Ġlimites":6347,"bussy":6348,"Ġdiminue":6349,"entreprise":6350,"47":6351,"Augus":6352,"Bas":6353,"burg":6354,"comme":6355,"huit":6356,"lest":6357,"trique":6358,"zy":6359,"Ġprie":6360,"Ġdel":6361,"Ġsoli":6362,"aumes":6363,"decin":6364,"astre":6365,"Ġballe":6366,"ciens":6367,"lia":6368,"ueil":6369,"ĠJones":6370,"irmer":6371,"exemple":6372,"Ġsouter":6373,"loge":6374,"Enfin":6375,"idite":6376,"ĠAnd":6377,"udisme":6378,"Ġvisant":6379,"oulin":6380,"Ġvivent":6381,"Ġmorale":6382,"Ġspectacle":6383,"Ġpauvres":6384,"ĠLivre":6385,"Son":6386,"cran":6387,"galite":6388,"moires":6389,"rine":6390,"romp":6391,"uant":6392,"uation":6393,"arrie":6394,"Ġmix":6395,"roge":6396,"aule":6397,"cht":6398,"diaire":6399,"aga":6400,"ĠIran":6401,"ĠGene":6402,"onds":6403,"ĠKra":6404,"Ġinterme":6405,"Ġbaie":6406,"Ġonze":6407,"trophe":6408,"Ġapprend":6409,"tabil":6410,"Ġpassages":6411,"Ġconserver":6412,"Ġregroup":6413,"Ġpositions":6414,"Ġattend":6415,"Ġsyndic":6416,"Ġsuscite":6417,"Ġallemandes":6418,"Parmi":6419,"Ġenvah":6420,"Orle":6421,"Ġbesoins":6422,"ĠBonaparte":6423,"compense":6424,"novation":6425,"Ġpromotion":6426,"gos":6427,"hab":6428,"ket":6429,"Ġsoleil":6430,"ĠLy":6431,"chille":6432,"chappe":6433,"riphe":6434,"Ġbateau":6435,"ĠSatur":6436,"Ġconce":6437,"Ġinquie":6438,"ĠGen":6439,"Ġhistoires":6440,"ĠJung":6441,"oppose":6442,"Ġraces":6443,"ĠVierge":6444,"impression":6445,"uminium":6446,"Ġrecon":6447,"trait":6448,"thodes":6449,"iden":6450,"ĠPetit":6451,"Ġversions":6452,"Ġfondation":6453,"Ġstatis":6454,"cessaires":6455,"Ġsortir":6456,"Ġreconnaissance":6457,"Ġfortune":6458,"Ġ1860":6459,"Ġfavorise":6460,"douard":6461,"Ġprospe":6462,"ĠPacifique":6463,"44":6464,"Pro":6465,"cors":6466,"mme":6467,"tons":6468,"ufs":6469,"oni":6470,"Ġcru":6471,"Ġna":6472,"rial":6473,"ĠAfrique":6474,"ĠBach":6475,"Ġhor":6476,"ĠNantes":6477,"duits":6478,"Ġcoope":6479,"Ġtransfe":6480,"Ġassiste":6481,"Ġcade":6482,"agnos":6483,"Ġ1954":6484,"national":6485,"Ġdixie":6486,"Ġattendre":6487,"Ġfleurs":6488,"Isle":6489,"Ġordonne":6490,"ĠRenaissance":6491,"Ġsauvage":6492,"ĠLimoges":6493,"Es":6494,"ht":6495,"enz":6496,"Ġpierres":6497,"Ġagre":6498,"quise":6499,"Ġtap":6500,"Ġtoit":6501,"Ġtunis":6502,"ĠLin":6503,"Ġbo":6504,"Ġgam":6505,"Ġgalerie":6506,"rande":6507,"acts":6508,"ĠGusta":6509,"ĠHa":6510,"Ġexig":6511,"Ġrarement":6512,"Ġnotion":6513,"illy":6514,"Ġ1971":6515,"Ġ1933":6516,"Ġessentiel":6517,"Ġformule":6518,"Ġsuspend":6519,"Ġresponsables":6520,"Ġcavalerie":6521,"Ġolympique":6522,"Ġtardi":6523,"Ġmosque":6524,"Ġmaximum":6525,"Ġvraisembl":6526,"ĠTunisie":6527,"ĠWhite":6528,"Ġemprunte":6529,"Ġefficace":6530,"Ġcatholiques":6531,"Adam":6532,"Liens":6533,"jon":6534,"rard":6535,"tour":6536,"Ġom":6537,"Ġsignes":6538,"tics":6539,"ilton":6540,"Ġremont":6541,"Ġnatur":6542,"aton":6543,"ĠBes":6544,"Ġrus":6545,"Ġchemins":6546,"Ġclair":6547,"ĠMarseille":6548,"assurer":6549,"troite":6550,"Ġapproche":6551,"Ġviole":6552,"dustri":6553,"Ġcamps":6554,"Ġterritori":6555,"Ġrendent":6556,"lector":6557,"rusalem":6558,"ĠMusic":6559,"Ġdimensions":6560,"31":6561,"Asie":6562,"ns":6563,"paisse":6564,"Ġlun":6565,"ories":6566,"urt":6567,"urch":6568,"Ġparcs":6569,"Ġproch":6570,"aco":6571,"Ġpeau":6572,"ĠFootball":6573,"ĠNice":6574,"partis":6575,"Ġtronc":6576,"ification":6577,"Ġrende":6578,"Ġsecours":6579,"Ġ1936":6580,"berge":6581,"Ġsixie":6582,"Ġretourne":6583,"ĠIIIe":6584,"Ġparticiper":6585,"Ġmonoplace":6586,"ĠCongre":6587,"hr":6588,"Ġda":6589,"Ġaime":6590,"Ġemble":6591,"Ġmons":6592,"Ġfie":6593,"Ġenque":6594,"Ġbonnes":6595,"olle":6596,"ĠTw":6597,"ĠGarde":6598,"Ġmotif":6599,"ĠDebussy":6600,"rison":6601,"adel":6602,"Ġsports":6603,"Ġconseiller":6604,"Ġsocialiste":6605,"Ġsecondaires":6606,"Ġdevint":6607,"Ġsentiments":6608,"Ġsportif":6609,"ĠCompagn":6610,"Ġdiversite":6611,"ĠPalais":6612,"ĠBritanniques":6613,"Ġdiscipline":6614,"Durant":6615,"bb":6616,"sol":6617,"zone":6618,"Ġlente":6619,"Ġcler":6620,"Ġcouvert":6621,"inse":6622,"Ġmous":6623,"Ġmorte":6624,"Ġfusion":6625,"Ġtab":6626,"Ġnations":6627,"riment":6628,"ĠPlay":6629,"ciation":6630,"cialistes":6631,"ĠAv":6632,"ull":6633,"ĠJan":6634,"Ġdiagnos":6635,"ĠVi":6636,"avis":6637,"Ġescla":6638,"tration":6639,"mances":6640,"Ġbeaux":6641,"Ġbeaute":6642,"ĠAlpes":6643,"Ġcultures":6644,"Ġ1931":6645,"Ġ1934":6646,"ĠMonte":6647,"ĠWalter":6648,"effet":6649,"Ġassurer":6650,"Ġeffectu":6651,"Bien":6652,"ER":6653,"Olymp":6654,"mil":6655,"alie":6656,"rog":6657,"chin":6658,"ĠMonde":6659,"ranches":6660,"uts":6661,"ĠNi":6662,"ĠNorth":6663,"lays":6664,"Ġmoteurs":6665,"Ġtraditions":6666,"Ġ1830":6667,"ĠWings":6668,"Ġmonarchie":6669,"Ġ42":6670,"assade":6671,"Ġ%)":6672,"Ġadmi":6673,"Ġutilisent":6674,"Ġcanons":6675,"Ġcentaine":6676,"Ġdouce":6677,"Ġsecondaire":6678,"ortations":6679,"ĠClar":6680,"Ġlieut":6681,"Ġissue":6682,"Ġprogrammes":6683,"couvertes":6684,"ĠScott":6685,"Ġintroduit":6686,"ictionnaire":6687,"Ġottoman":6688,"Malgre":6689,"bot":6690,"gociations":6691,"plac":6692,"uent":6693,"enregistre":6694,"Ġvendre":6695,"Ġseize":6696,"aitement":6697,"ĠPol":6698,"ĠMai":6699,"ĠBa":6700,"dification":6701,"ĠHan":6702,"inspiration":6703,"Ġmotifs":6704,"truis":6705,"Ġmarine":6706,"obi":6707,"Ġrespect":6708,"Ġservent":6709,"Ġobjet":6710,"Ġconfiance":6711,"Ġtempor":6712,"vasion":6713,"Ġsombre":6714,"Ġchoisit":6715,"rairement":6716,"assinat":6717,"ĠIVe":6718,"Ġmauvaise":6719,"architecte":6720,"Ġconservation":6721,"Ġmusulman":6722,"Ġremplacer":6723,"quivalent":6724,"fugie":6725,"Charles":6726,"Ġperformances":6727,"Ġlux":6728,"Ġaise":6729,"Ġathle":6730,"Ġlabor":6731,"Ġfug":6732,"omo":6733,"Ġentier":6734,"alors":6735,"veux":6736,"choue":6737,"aspect":6738,"ĠSicile":6739,"mph":6740,"ĠBonn":6741,"ĠIIe":6742,"ĠFont":6743,"Ġhon":6744,"Ġher":6745,"ondation":6746,"Ġperce":6747,"Ġperdre":6748,"avage":6749,"ĠKal":6750,"Ġ38":6751,"illent":6752,"dessous":6753,"ĠDegre":6754,"Ġastron":6755,"Ġtit":6756,"Ġtournant":6757,"Ġcultive":6758,"Ġseptie":6759,"Ġpartout":6760,"Ġbarre":6761,"Ġcomplet":6762,"Ġhautes":6763,"oureux":6764,"Ġvestiges":6765,"Ġchristianisme":6766,"AC":6767,"Ainsi":6768,"Bains":6769,"cence":6770,"fendre":6771,"haus":6772,"vres":6773,"issi":6774,"arine":6775,"oris":6776,"orges":6777,"chen":6778,"ĠCity":6779,"peur":6780,"ĠPorte":6781,"Ġchamb":6782,"Ġexam":6783,"Ġtrains":6784,"ĠOxford":6785,"objectif":6786,"Ġsoumis":6787,"titudes":6788,"Ġencourage":6789,"Ġconstructions":6790,"Ġrappro":6791,"Ġ1958":6792,"Articles":6793,"infanterie":6794,"Ġprobable":6795,"Ġsuivants":6796,"Ġtoccatas":6797,"Ġdemander":6798,"Ġtransports":6799,"Ġarchitect":6800,"Ġcanton":6801,"Ġnoblesse":6802,"Ġbilan":6803,"46":6804,"ii":6805,"Ġze":6806,"Ġsan":6807,"Ġcouv":6808,"lem":6809,"armes":6810,"ory":6811,"chau":6812,"taine":6813,"Ġplaine":6814,"Ġchoc":6815,"Ġance":6816,"Ġhiver":6817,"Ġdiame":6818,"onnais":6819,"Ġprenant":6820,"avie":6821,"exer":6822,"Ġrecours":6823,"Ġjudici":6824,"Ġobs":6825,"Ġconnaissent":6826,"Ġrig":6827,"Ġexpliquer":6828,"Ġ700":6829,"aissant":6830,"Ġliaison":6831,"ophone":6832,"ophones":6833,"Ġnaturelles":6834,"Ġtoiles":6835,"ĠLuc":6836,"Ġfeuilles":6837,"Ġbless":6838,"Ġenseigne":6839,"alimentation":6840,"Ġmarchands":6841,"Ġrecueil":6842,"Ġcirculation":6843,"Ġmusulmans":6844,"Ġpotentiel":6845,"umbia":6846,"48":6847,"Bibli":6848,"Ger":6849,"Histoire":6850,"ed":6851,"miques":6852,"ny":6853,"piter":6854,"Ê¼":6855,"Ìģ)":6856,"istait":6857,"arit":6858,"omes":6859,"celle":6860,"roid":6861,"auph":6862,"Ġautistes":6863,"sif":6864,"ĠMex":6865,"ĠAf":6866,"ĠAy":6867,"Ġsurnom":6868,"Ġarticles":6869,"duites":6870,"aventure":6871,"ĠKo":6872,"Ġpoche":6873,"ĠOCLC":6874,"Ġsoutenu":6875,"anny":6876,"Ġappartenant":6877,"Ġ1953":6878,"Ġ1926":6879,"Ġpaludisme":6880,"Ġreconnu":6881,"Ġcalc":6882,"Ġcorrespondance":6883,"ĠPerse":6884,"Ġpolon":6885,"Ġmusicale":6886,"Ġhabite":6887,"displays":6888,"Ġintellect":6889,"Ġpanneaux":6890,"difices":6891,"Ġbureau":6892,"Ġmonnaie":6893,"ĠMickey":6894,"ĠDegrelle":6895,"displaystyle":6896,"BA":6897,"Her":6898,"log":6899,"Ġdange":6900,"Ġpes":6901,"tible":6902,"Ġmam":6903,"rovi":6904,"ĠLam":6905,"ĠCin":6906,"Ġbandes":6907,"Ġesthe":6908,"ĠSans":6909,"ĠPen":6910,"Ġprovient":6911,"igration":6912,"ĠJim":6913,"Ġdivis":6914,"Ġsupre":6915,"rieux":6916,"ĠChurch":6917,"traction":6918,"Ġcohe":6919,"uvie":6920,"Ġgratu":6921,"culaire":6922,"Ġquator":6923,"Ġ1957":6924,"ĠIns":6925,"appui":6926,"Ġpluie":6927,"ĠColumbia":6928,"Ġ1890":6929,"lectricite":6930,"Ġsusp":6931,"ĠJupiter":6932,"Ġcolonies":6933,"Ġparticipent":6934,"ternite":6935,"Ġarabes":6936,"quipage":6937,"Ġfacile":6938,"Claude":6939,"moignages":6940,"Ġcollaboration":6941,"Ġconcentration":6942,"Ġsuffisamment":6943,"ĠPSG":6944,"Ġchaleur":6945,"Ġcitoyens":6946,"NH":6947,"Oise":6948,"ellement":6949,"nay":6950,"uler":6951,"vale":6952,"arb":6953,"orgue":6954,"Ġenvoie":6955,"Ġtax":6956,"veille":6957,"rio":6958,"ĠMass":6959,"ĠEuge":6960,"actions":6961,"ĠIr":6962,"ĠFu":6963,"ĠGir":6964,"occupe":6965,"Ġmod":6966,"enceinte":6967,"istant":6968,"els":6969,"fection":6970,"dentes":6971,"Ġassociation":6972,"anni":6973,"Ġmener":6974,"Ġ1949":6975,"ross":6976,"Ġverse":6977,"ographies":6978,"Ġouvriers":6979,"Ġamene":6980,"Ġ1925":6981,"Ġboulev":6982,"Ġstructures":6983,"Ġnucle":6984,"Ġpossibles":6985,"Ġprovenance":6986,"Ġexerce":6987,"ĠBourgogne":6988,"tillerie":6989,"Ġremarquable":6990,"Ġinvente":6991,"ĠStanley":6992,"Ġparfaitement":6993,"52":6994,"Aix":6995,"cope":6996,"kh":6997,"rons":6998,"sis":6999,"Ġtor":7000,"Ġparoles":7001,"Ġnoc":7002,"astes":7003,"Ġbro":7004,"Ġbiento":7005,"aisons":7006,"liques":7007,"heur":7008,"accep":7009,"ulent":7010,"oste":7011,"ĠGren":7012,"Ġpassent":7013,"ĠCeux":7014,"Ġdisque":7015,"Entre":7016,"crites":7017,"Ġhelle":7018,"tablie":7019,"Ġferrovi":7020,"marche":7021,"lications":7022,"Ġinternationaux":7023,"Ġvenant":7024,"lectionne":7025,"Ġ1880":7026,"Ġcrate":7027,"Ġgloire":7028,"Ġcommerciale":7029,"Ġrup":7030,"Ġcandidats":7031,"terminer":7032,"Ġstudios":7033,"quipier":7034,"decine":7035,"56":7036,"59":7037,"91":7038,"97":7039,"bri":7040,"dai":7041,"goci":7042,"nar":7043,"pide":7044,"penses":7045,"tante":7046,"wis":7047,"analy":7048,"Ġeau":7049,"Ġreleve":7050,"auts":7051,"riger":7052,"ressions":7053,"ĠSpe":7054,"Ġrames":7055,"Ġtrompe":7056,"Ġactive":7057,"Ġ36":7058,"cules":7059,"Ġresse":7060,"Ġanneaux":7061,"tilite":7062,"Ġcolonnes":7063,"Ġatti":7064,"Ġadultes":7065,"ralite":7066,"Ġ1956":7067,"ĠCaravage":7068,"Ġincap":7069,"Deux":7070,"Ġmeilleures":7071,"Ġparticularite":7072,"Ġhydro":7073,"Israe":7074,"cifiques":7075,"Ġpatron":7076,"Ġcomparaison":7077,"Ġpapier":7078,"cennie":7079,"Ġaccueillir":7080,"Ara":7081,"Alsace":7082,"ft":7083,"lites":7084,"nik":7085,"tonne":7086,"ĪĴ":7087,"Ġdic":7088,"Ġsche":7089,"Ġstu":7090,"Ġsoins":7091,"entures":7092,"urale":7093,"rod":7094,"Ġvais":7095,"Ġbanc":7096,"oland":7097,"Ġplante":7098,"Ġconv":7099,"ĠPers":7100,"ĠPap":7101,"ĠBert":7102,"ĠItal":7103,"ĠTar":7104,"icie":7105,"aptiste":7106,"ried":7107,"ĠHal":7108,"lade":7109,"onnant":7110,"istance":7111,"ritage":7112,"Ġartific":7113,"Ġasc":7114,"Ġmaterne":7115,"clenche":7116,"Ġcoe":7117,"Ġcourants":7118,"Ġphases":7119,"Ġapparition":7120,"ĠGrands":7121,"Ġ1952":7122,"ĠCarth":7123,"Ġcontraste":7124,"Ġessai":7125,"ency":7126,"Ġfonctionne":7127,"ĠQuatre":7128,"Ġcalme":7129,"Cependant":7130,"Ġhauts":7131,"Ġaugmentation":7132,"Ġ1848":7133,"Ġorientale":7134,"Ġnarrateur":7135,"quiert":7136,"Ġsoixante":7137,"92":7138,"Be":7139,"porte":7140,"relle":7141,"neurs":7142,"orchestre":7143,"Ġflor":7144,"Ġremet":7145,"Ġremis":7146,"Ġvac":7147,"Ġvaut":7148,"sept":7149,"ĠCass":7150,"taille":7151,"Ġbons":7152,"ciale":7153,"libe":7154,"Ġoutil":7155,"appre":7156,"Ġoce":7157,"ĠVoy":7158,"tume":7159,"ĠCeci":7160,"illance":7161,"ĠParlement":7162,"phon":7163,"Ġimporte":7164,"Ġservant":7165,"serves":7166,"Ġavantage":7167,"Ġtransf":7168,"Ġ1951":7169,"Ġcollections":7170,"Ġhumaines":7171,"Ġ1929":7172,"ĠJohnson":7173,"Ġmorceau":7174,"Ġjournaux":7175,"Ġmagas":7176,"Ġpeintures":7177,"Ġoriginal":7178,"russe":7179,"Ġseigneur":7180,"Ġtournoi":7181,"Ġdestination":7182,"hicules":7183,"introduction":7184,"rastructures":7185,"ĠÃĹ":7186,"Homme":7187,"Ir":7188,"vants":7189,"zac":7190,"Ġx":7191,"Ġaim":7192,"Ġsainte":7193,"Ġtche":7194,"Ġtuer":7195,"olis":7196,"ĠMah":7197,"ĠBart":7198,"ĠBoul":7199,"ĠHans":7200,"ĠHouse":7201,"ĠKer":7202,"ther":7203,"assant":7204,"alisateur":7205,"Ġsecteurs":7206,"Ġnationales":7207,"Ġvieille":7208,"Ġsuivie":7209,"Ġopus":7210,"tiennes":7211,"Ġaura":7212,"affaires":7213,"utiliser":7214,"Ġgrille":7215,"animaux":7216,"Ġadaptation":7217,"ĠHorus":7218,"Ġdisponible":7219,"chapper":7220,"Bibliographie":7221,"house":7222,"laire":7223,"Î½":7224,"Ġ&":7225,"Ġdoi":7226,"islam":7227,"Ġethn":7228,"Ġfur":7229,"rad":7230,"user":7231,"roir":7232,"Ġduquel":7233,"sier":7234,"Ġbrou":7235,"ĠSol":7236,"ĠSoleil":7237,"ĠGand":7238,"ĠLee":7239,"Ġsuisse":7240,"Ġrache":7241,"ĠLady":7242,"istent":7243,"eld":7244,"ubles":7245,"tresse":7246,"impose":7247,"Ġaccident":7248,"onda":7249,"ĠChambre":7250,"Ġmarins":7251,"Ġmonter":7252,"ĠMari":7253,"Ġtirer":7254,"ologies":7255,"isses":7256,"ĠAntoine":7257,"Ġconcerts":7258,"ribuer":7259,"Arts":7260,"ĠPourtant":7261,"Ġrouges":7262,"ommage":7263,"Ġsommes":7264,"Ġsportives":7265,"arctique":7266,"Ġrelief":7267,"cinq":7268,"Ġquasiment":7269,"ĠOutre":7270,"Ġdizaines":7271,"ibaldi":7272,"cieux":7273,"kins":7274,"oo":7275,"oble":7276,"udes":7277,"Ġpul":7278,"Ġaustra":7279,"Ġcouverture":7280,"Ġfaux":7281,"rov":7282,"sibles":7283,"Ġpla":7284,"ĠPlan":7285,"Ġqueue":7286,"ĠAux":7287,"ĠAussi":7288,"unit":7289,"ĠEvere":7290,"ĠRoi":7291,"Ġrhe":7292,"Ġdip":7293,"ubis":7294,"Ġfaites":7295,"ĠXIe":7296,"Ġtreize":7297,"Ġadresse":7298,"Ġcommuniste":7299,"Ġnotables":7300,"Ġpopularite":7301,"Ġintellig":7302,"Ġmissions":7303,"Ġretard":7304,"Ġparticuliers":7305,"oriz":7306,"intervention":7307,"nieur":7308,"Ġmaritime":7309,"Ġcolonie":7310,"Ġsauf":7311,"humanite":7312,"Ġpoursuivre":7313,"ĠMuseum":7314,"Ġrecevoir":7315,"moignage":7316,"Ġvocation":7317,"Ġdizaine":7318,"Atlantique":7319,"Ġcandidat":7320,"Ġinstallations":7321,"ĠTitanic":7322,"51":7323,"Du":7324,"Denis":7325,"aou":7326,"cents":7327,"hl":7328,"sky":7329,"uter":7330,"Ġ$":7331,"escal":7332,"Ġreve":7333,"aluminium":7334,"vet":7335,"Ġparta":7336,"Ġbrise":7337,"aib":7338,"ĠMolie":7339,"ueux":7340,"ĠRous":7341,"ĠHy":7342,"inspire":7343,"Ġmodif":7344,"Ġarc":7345,"Ġperpe":7346,"ĠChristian":7347,"minin":7348,"Ġinsur":7349,"Ġconflits":7350,"crivent":7351,"crivant":7352,"Ġsols":7353,"Ġsolaire":7354,"ĠCarol":7355,"Ġconseils":7356,"sidents":7357,"Ġfigur":7358,"Ġvapeur":7359,"Albert":7360,"Ġsynag":7361,"Ġprogression":7362,"Ġdistinction":7363,"Ġrange":7364,"Ġstric":7365,"tendue":7366,"Ġcorrespondant":7367,"Ġampli":7368,"Ġsuccession":7369,"Ġchercheurs":7370,"Ġpoissons":7371,"claration":7372,"Ġesprits":7373,"Ġguide":7374,"Ġmicro":7375,"Ġtramway":7376,"Ġtribunal":7377,"Institut":7378,"Ġlieutenant":7379,"Ġchambres":7380,"Av":7381,"bou":7382,"cap":7383,"lm":7384,"uite":7385,"Ġmang":7386,"Ġregre":7387,"ourd":7388,"Ġparviennent":7389,"ĠLNH":7390,"Ġvague":7391,"rict":7392,"tagon":7393,"Ġbateaux":7394,"Ġplonge":7395,"ĠPou":7396,"ĠAir":7397,"Ġprolong":7398,"Ġpeur":7399,"agnent":7400,"abbe":7401,"ĠRod":7402,"ĠFort":7403,"ĠGas":7404,"Ġmoines":7405,"ĠVitre":7406,"Ġdisper":7407,"Ġ37":7408,"alisent":7409,"tropol":7410,"Ġentame":7411,"Ġexemples":7412,"Ġ1927":7413,"Alors":7414,"actuelle":7415,"Ġchercher":7416,"Ġcercle":7417,"Ġcompositeurs":7418,"ĠBook":7419,"Ġsimilaires":7420,"Ġvirtu":7421,"Ġexistent":7422,"Ġdisponibles":7423,"Ġsuccessivement":7424,"Ġenvirons":7425,"Ġconnexes":7426,"Ġfemelles":7427,"ĠErn":7428,"Phili":7429,"ĠSavoie":7430,"Ġprovisoire":7431,"Ġmajoritairement":7432,"Ġinsuffis":7433,"ĠCompagnie":7434,"mal":7435,"vous":7436,"well":7437,"ÏĤ":7438,"env":7439,"entin":7440,"Ġpic":7441,"Ġpayer":7442,"erie":7443,"Ġlaissent":7444,"Ġremise":7445,"roy":7446,"ĠLang":7447,"Ġnul":7448,"sive":7449,"Ġprogre":7450,"dio":7451,"ĠLewis":7452,"onscient":7453,"iente":7454,"Ġrose":7455,"Ġcart":7456,"Ġescal":7457,"Ġmilit":7458,"ronter":7459,"assine":7460,"Ġattent":7461,"Ġfranco":7462,"Ġsolide":7463,"Ġcroire":7464,"Ġfermet":7465,"Ġmessage":7466,"Ġportraits":7467,"Ġemploi":7468,"explique":7469,"aurait":7470,"dication":7471,"archi":7472,"leveurs":7473,"carte":7474,"sidentielle":7475,"Ġchampionnats":7476,"Ġtentatives":7477,"appel":7478,"Ġfournir":7479,"Ġvariations":7480,"Ġrisques":7481,"Ġjaponaise":7482,"Ġfabrique":7483,"Ġracc":7484,"Ġmosai":7485,"Certains":7486,"ĠChurchill":7487,"53":7488,"94":7489,"Ho":7490,"Ress":7491,"pic":7492,"tente":7493,"voc":7494,"worth":7495,"Ġdore":7496,"Ġligue":7497,"antine":7498,"oub":7499,"inves":7500,"Ġty":7501,"Ġvigue":7502,"riorite":7503,"resses":7504,"ĠCenter":7505,"astron":7506,"ĠSand":7507,"ĠAvant":7508,"ĠBible":7509,"ĠBulg":7510,"ĠTemple":7511,"ĠLet":7512,"Ġacte":7513,"Ġalent":7514,"dule":7515,"Ġmarbre":7516,"ĠKn":7517,"Ġcartes":7518,"inten":7519,"Ġimplante":7520,"ĠMaria":7521,"minine":7522,"finition":7523,"Ġcolonne":7524,"Ġheur":7525,"ĠAlain":7526,"Ancien":7527,"llation":7528,"avier":7529,"Ġcrite":7530,"Ġhabitant":7531,"Ġtennis":7532,"cisions":7533,"Ġformant":7534,"Ġ1928":7535,"tudier":7536,"Ġ1909":7537,"Ġsecret":7538,"habitants":7539,"Ġreconstruction":7540,"Ġfantas":7541,"publicains":7542,"cennies":7543,"Ġendroits":7544,"Ġfruits":7545,"rondissement":7546,"Ġauxquels":7547,"Alexandre":7548,"initiative":7549,"Ġperspective":7550,"ĠMunich":7551,"Ġdoig":7552,"Ġvigueur":7553,"93":7554,"DF":7555,"Roy":7556,"_{":7557,"commun":7558,"ial":7559,"nus":7560,"ution":7561,"Ġpone":7562,"Ġair":7563,"tig":7564,"qua":7565,"erlandais":7566,"Ġlai":7567,"orient":7568,"Ġfrom":7569,"Ġfisc":7570,"omique":7571,"ĠSir":7572,"ĠPales":7573,"ĠTours":7574,"ĠRest":7575,"ĠRic":7576,"ĠFant":7577,"Ġhockey":7578,"Ġpassion":7579,"ĠVar":7580,"Ġcontenant":7581,"truite":7582,"trage":7583,"clat":7584,"Ġadulte":7585,"Ġcouches":7586,"ĠAlfred":7587,"Ġmusicien":7588,"Ġvisibles":7589,"merge":7590,"Ġremporter":7591,"entine":7592,"ĠThess":7593,"Ġsubit":7594,"Ġchevalier":7595,"pondre":7596,"Ġfrais":7597,"Ġcalend":7598,"ĠCommission":7599,"quisition":7600,"Ġsportive":7601,"Ġnourris":7602,"Ġabsolu":7603,"Ġarrivent":7604,"Ġobjectifs":7605,"Ġvolumes":7606,"Ġespagnole":7607,"Ġquotidienne":7608,"labore":7609,"Ġparoisse":7610,"couvrir":7611,"Ġhuitie":7612,"ĠCanadiens":7613,"41":7614,"Ġaider":7615,"Ġcr":7616,"Ġcense":7617,"Ġcents":7618,"Ġlait":7619,"ormes":7620,"Ġfolk":7621,"estes":7622,"ĠLis":7623,"ĠLord":7624,"seud":7625,"chine":7626,"Ġblo":7627,"ĠStudi":7628,"Ġgale":7629,"atmosphe":7630,"ĠBle":7631,"ĠBibli":7632,"ĠFR":7633,"ĠFestival":7634,"ello":7635,"ordon":7636,"partements":7637,"Ġcommiss":7638,"inture":7639,"Ġorne":7640,"rone":7641,"Ġcreuse":7642,"ĠJeanne":7643,"Ġcoqu":7644,"ject":7645,"outent":7646,"Ġ170":7647,"Ġutilis":7648,"Ġkg":7649,"Ġpropag":7650,"tables":7651,"ĠBeaux":7652,"Ġaffirm":7653,"Ġmaintien":7654,"Ġfigurent":7655,"Ġ1922":7656,"Ġ1924":7657,"Ġfleur":7658,"Ġtotalite":7659,"Ġpsychanalyse":7660,"Ġemplois":7661,"Ġvoisins":7662,"gories":7663,"ĠGaribaldi":7664,"Ġchantier":7665,"Ġconnaissances":7666,"Ġadversaires":7667,"Ġterrestre":7668,"Ġmandat":7669,"Ġcirconst":7670,"ĠTexas":7671,"cossais":7672,"Ġfermeture":7673,"cente":7674,"hommes":7675,"norme":7676,"poux":7677,"vus":7678,"Ġpin":7679,"Ġaire":7680,"Ġcur":7681,"erg":7682,"uro":7683,"rak":7684,"rateur":7685,"Ġence":7686,"Ġtran":7687,"ustre":7688,"alph":7689,"ĠLac":7690,"Ġvents":7691,"chou":7692,"char":7693,"ĠCy":7694,"Ġgeste":7695,"liquant":7696,"ĠBn":7697,"Ġsurmonte":7698,"ĠDam":7699,"abs":7700,"ĠRhin":7701,"ĠFire":7702,"Ġram":7703,"Ġconsole":7704,"ado":7705,"ĠChat":7706,"Ġmarais":7707,"ĠKlim":7708,"Universite":7709,"Ġsoutient":7710,"aret":7711,"Ġconforme":7712,"veloppent":7713,"Ġchamps":7714,"Ġchampions":7715,"Ġrestant":7716,"Ġregistre":7717,"Ġcalcul":7718,"canique":7719,"Ġtentent":7720,"Ġtransporte":7721,"Ġtrouvait":7722,"Ġsymph":7723,"ĠPrague":7724,"Plusieurs":7725,"Ġmassacre":7726,"observation":7727,"ĠPortugal":7728,"54":7729,"Elle":7730,"coute":7731,"done":7732,"nam":7733,"zo":7734,"Ġane":7735,"ĠsÅĵurs":7736,"Ġcasse":7737,"Ġmit":7738,"Ġfame":7739,"anth":7740,"ĠLie":7741,"Ġvues":7742,"del":7743,"ria":7744,"ĠSix":7745,"Ġinverse":7746,"ĠDur":7747,"dica":7748,"ulaires":7749,"Ġsonore":7750,"ĠFland":7751,"Ġdiman":7752,"tesse":7753,"aph":7754,"ardins":7755,"impact":7756,"Ġallus":7757,"ĠKing":7758,"Ġassemble":7759,"Ġrepas":7760,"Ġtouristes":7761,"Ġaccent":7762,"velt":7763,"Ġfuture":7764,"rentis":7765,"Ġopposition":7766,"osevelt":7767,"ĠInde":7768,"Ġdevoir":7769,"Ġvoile":7770,"Ġinternationales":7771,"Ġviolonce":7772,"adies":7773,"ĠConstitution":7774,"ĠComite":7775,"dish":7776,"Ġissues":7777,"ĠRoche":7778,"Ġremarquer":7779,"Ġpeintres":7780,"Ġmanuscrits":7781,"Ġdomestiques":7782,"Ġmachine":7783,"Ġparisien":7784,"chantil":7785,"Ġbaptise":7786,"soudre":7787,"Philippe":7788,"ĠBnF":7789,"bout":7790,"dans":7791,"lines":7792,"sang":7793,"tang":7794,"Ġ=":7795,"Ġec":7796,"aro":7797,"Ġmines":7798,"ortation":7799,"ourant":7800,"Ġvamp":7801,"ĠMans":7802,"ĠBrun":7803,"ĠFou":7804,"oises":7805,"ĠNa":7806,"Ġexposition":7807,"Ġexpositions":7808,"onnent":7809,"ĠVincent":7810,"Ġmarquer":7811,"Ġdisposi":7812,"Åĵil":7813,"venue":7814,"anglais":7815,"mife":7816,"Ġjume":7817,"Ġcatas":7818,"mergence":7819,"Ġcroix":7820,"Ġafflu":7821,"ĠCarre":7822,"Ġagents":7823,"ynx":7824,"Ġpaque":7825,"Ġbouche":7826,"view":7827,"orial":7828,"Ġsimples":7829,"Ġfortes":7830,"Ġoriginaire":7831,"Ġjugement":7832,"awa":7833,"Ġpollu":7834,"Ġmusical":7835,"Ġrenforcer":7836,"Ġmythologie":7837,"Ġvoulu":7838,"dinand":7839,"ĠVirgin":7840,"ĠFrancisco":7841,"Ġproportion":7842,"Ġstandard":7843,"Ġrupture":7844,"Hor":7845,"Jose":7846,"bats":7847,"coule":7848,"wick":7849,"enque":7850,"Ġsoire":7851,"orce":7852,"chers":7853,"Ġplate":7854,"liens":7855,"Ġ1919":7856,"ĠFle":7857,"vice":7858,"Ġore":7859,"Ġaltern":7860,"Ġentrer":7861,"ĠChic":7862,"Ġdiscre":7863,"Ġadhe":7864,"Ġaccords":7865,"Ġgrav":7866,"Ġrival":7867,"Ġcellu":7868,"Ġremportent":7869,"ariat":7870,"Ġvertic":7871,"gionale":7872,"athie":7873,"ĠZhou":7874,"Ġroux":7875,"ower":7876,"Ġcontinuer":7877,"Ġpersonnelle":7878,"Ġ1907":7879,"Ġvingtaine":7880,"Ġdrapeau":7881,"Outre":7882,"Ġtrouble":7883,"Ġcontinuent":7884,"ĠRomains":7885,"ratures":7886,"Ġarriver":7887,"Ġcopie":7888,"restres":7889,"Ġmachines":7890,"Ġtransformation":7891,"Ġengendre":7892,"ĠHamilton":7893,"accompagne":7894,"installation":7895,"Ġislamique":7896,"Ġfabrication":7897,"Ġressembl":7898,"AD":7899,"Mont":7900,"hard":7901,"jus":7902,"mire":7903,"uk":7904,"ÏĦ":7905,"Ġdign":7906,"ÌĢ.":7907,"Ġende":7908,"Ġduche":7909,"ĠCite":7910,"ĠMes":7911,"Ġgoth":7912,"ĠBaby":7913,"uir":7914,"ĠRot":7915,"Ġhan":7916,"Ġhausse":7917,"Ġpassionne":7918,"Ġavis":7919,"elli":7920,"aval":7921,"Ġnoy":7922,"Ġnoter":7923,"Ġrepousse":7924,"emplacement":7925,"Ġcoul":7926,"Ġconstructeurs":7927,"ĠUnion":7928,"Ġ1935":7929,"ĠArts":7930,"Ġnaturels":7931,"ombres":7932,"Ġrestes":7933,"Ġculturelles":7934,"Ġ1911":7935,"Ġblanches":7936,"Ġvenus":7937,"Ġconstituer":7938,"Ġofficiels":7939,"Paris":7940,"Ġ1793":7941,"Ġlogique":7942,"Ġindustriel":7943,"Ġchanteur":7944,"ĠPyre":7945,"Ġobservations":7946,"Ġspatiale":7947,"ĠRaymond":7948,"Ġdynamique":7949,"Ġlinguistique":7950,"Avant":7951,"Baptiste":7952,"ES":7953,"cond":7954,"dits":7955,"faut":7956,"nit":7957,"rud":7958,"taux":7959,"istiques":7960,"Ġlate":7961,"Ġlave":7962,"Ġlecteurs":7963,"Ġenterre":7964,"Ġtun":7965,"ĠLand":7966,"Ġbour":7967,"Ġbranche":7968,"ĠMul":7969,"ller":7970,"rante":7971,"ĠRC":7972,"ĠFay":7973,"ĠFanny":7974,"opinion":7975,"Ġsatell":7976,"ĠWall":7977,"oyant":7978,"ĠMars":7979,"Ġ51":7980,"ventaire":7981,"chesse":7982,"uites":7983,"Ġdevaient":7984,"Ġcombin":7985,"volutionnaire":7986,"Ġannonc":7987,"Ġvoyages":7988,"Ġdevenant":7989,"iversaire":7990,"Ġbases":7991,"Ġdocteur":7992,"Ġ1896":7993,"attend":7994,"hip":7995,"Ġmunicipale":7996,"Ġoccidental":7997,"Ġharmon":7998,"Ġcontemporain":7999,"Martin":8000,"Ġquotidien":8001,"harmonie":8002,"Ġimagine":8003,"Ġfuite":8004,"ĠPhiladel":8005,"Ġgarder":8006,"ĠFlorence":8007,"Ġateliers":8008,"Ġincarne":8009,"Ġmammife":8010,"US":8011,"Ze":8012,"garde":8013,"tendre":8014,"Ġsab":8015,"Ġcouvre":8016,"inal":8017,"inverse":8018,"arise":8019,"Ġfins":8020,"Ġfile":8021,"Ġtac":8022,"ĠLui":8023,"Ġund":8024,"Ġuniversite":8025,"ĠSab":8026,"ĠPle":8027,"ĠDo":8028,"ĠDen":8029,"ĠDum":8030,"ĠGro":8031,"ĠHu":8032,"Ġexistence":8033,"Ġactifs":8034,"Ġrobe":8035,"manuel":8036,"Ġcolons":8037,"Ġinsiste":8038,"ifie":8039,"conque":8040,"ormis":8041,"Ġaccus":8042,"Ġphrase":8043,"Ġmaladies":8044,"voquant":8045,"Ġsubst":8046,"Ġrestaure":8047,"Ġcollectif":8048,"Ġamour":8049,"Ġvenu":8050,"ĠIsis":8051,"Ġpratiquement":8052,"Ġgenres":8053,"Ġcolonel":8054,"Ġentreprise":8055,"ardinal":8056,"ĠWeb":8057,"Ġsemblable":8058,"tissements":8059,"Ġretrait":8060,"ĠChristophe":8061,"ĠGiov":8062,"ĠJustin":8063,"ĠMilan":8064,"Ġlourde":8065,"Ġendroit":8066,"Ġuniverselle":8067,"Ġpossession":8068,"gosla":8069,"ĠKlimt":8070,"ĠChicago":8071,"Sa":8072,"Th":8073,"coupe":8074,"glige":8075,"mmes":8076,"tti":8077,"uble":8078,"ÅĴ":8079,"Ì£":8080,"Ġpi":8081,"Ġcens":8082,"artillerie":8083,"Ġfoss":8084,"ĠLab":8085,"ĠLamb":8086,"autisme":8087,"Ġbass":8088,"Ġsemi":8089,"ĠPrusse":8090,"Ġquelle":8091,"lioration":8092,"ĠBoy":8093,"ĠJourn":8094,"Ġconsomme":8095,"Ġcomprom":8096,"Ġmariti":8097,"Ġroches":8098,"oyers":8099,"Ġpersu":8100,"ĠMarg":8101,"Ġjudai":8102,"Ġatmosphe":8103,"Ġ%).":8104,"Ġversant":8105,"criv":8106,"pernay":8107,"Ġprophe":8108,"Ġmairie":8109,"own":8110,"Ġannuel":8111,"iki":8112,"Ġ1921":8113,"Ġpromen":8114,"Ġtraditionnel":8115,"Ġconclusion":8116,"Ġsuccesseur":8117,"habitat":8118,"ĠWilliams":8119,"ĠSyste":8120,"Ġbrill":8121,"Ġsouveraine":8122,"ĠLife":8123,"Ġespagnol":8124,"Ġuniversitaire":8125,"Ġtalent":8126,"Ġplacer":8127,"ĠVersailles":8128,"lectronique":8129,"Ġparadox":8130,"Osiris":8131,"gou":8132,"otte":8133,"tus":8134,"reb":8135,"rateurs":8136,"Ġvilla":8137,"chest":8138,"sire":8139,"ĠCommun":8140,"Ġga":8141,"atti":8142,"atrie":8143,"lix":8144,"acteur":8145,"agas":8146,"ĠFern":8147,"igu":8148,"ĠJon":8149,"ĠHow":8150,"irment":8151,"Ġconteste":8152,"umer":8153,"Ġ1850":8154,"ingo":8155,"ĠOccident":8156,"Ġsoulig":8157,"Ġsoutenir":8158,"Ġassassine":8159,"Ġcame":8160,"ĠQui":8161,"Ġcontraint":8162,"expansion":8163,"Ġrelatives":8164,"Ġcharges":8165,"Ġcharbon":8166,"Ġbiais":8167,"ĠComics":8168,"Ġsignifica":8169,"Ġcylin":8170,"Ġremplacement":8171,"oureuse":8172,"Ġprofessionnelle":8173,"ĠFerdinand":8174,"roprie":8175,"Ġdocumentaire":8176,"Ġmineur":8177,"ĠMadrid":8178,"Ġchiffres":8179,"Ġautonome":8180,"Ġpneus":8181,"Ġbrigade":8182,"ĠCarthage":8183,"ĠJournal":8184,"UR":8185,"fet":8186,"kov":8187,"anat":8188,"ithe":8189,"ilm":8190,"roit":8191,"vey":8192,"Ġnage":8193,"Ġvar":8194,"ĠApol":8195,"Ġ1918":8196,"ĠFar":8197,"ĠFra":8198,"ĠVin":8199,"obiles":8200,"cline":8201,"clop":8202,"claire":8203,"Ġ46":8204,"assassinat":8205,"Ġtournage":8206,"Ġconcre":8207,"Ġnotable":8208,"Ġproducteur":8209,"Ġautrefois":8210,"Ġannuelle":8211,"Ġsupport":8212,"Ġmys":8213,"loration":8214,"Ġdistrict":8215,"Ġsalon":8216,"Ġ1905":8217,"Ġsymboles":8218,"utilise":8219,"ĠSteve":8220,"Ġstock":8221,"ĠRoosevelt":8222,"finitive":8223,"placements":8224,"Ġchronique":8225,"Ġsauvages":8226,"decins":8227,"senal":8228,"ĠEspagne":8229,"Association":8230,"Germain":8231,"Ġmaritimes":8232,"CC":8233,"Pre":8234,"gales":8235,"jam":8236,"lop":8237,"nois":8238,"ÏĢ":8239,"Ġpend":8240,"Ġsable":8241,"Ġmens":8242,"Ġmagn":8243,"roe":8244,"demment":8245,"ĠCla":8246,"ĠConn":8247,"Ġgym":8248,"Ġjardins":8249,"Ġchien":8250,"Ġsonde":8251,"ĠRes":8252,"ĠRoss":8253,"ĠRoland":8254,"Ġdiale":8255,"Ġdioce":8256,"apole":8257,"ĠHaw":8258,"Ġconsac":8259,"enser":8260,"adis":8261,"avais":8262,"Ġfinir":8263,"phy":8264,"ĠMarine":8265,"Ġ48":8266,"ppi":8267,"then":8268,"identite":8269,"Ġreproche":8270,"Ġencad":8271,"ganisation":8272,"athan":8273,"Ġaffaire":8274,"ĠCarl":8275,"Ġexemplaires":8276,"aki":8277,"accent":8278,"Ġrestre":8279,"Ġtenter":8280,"Ġcombatt":8281,"umeurs":8282,"Ġ1917":8283,"Ġscru":8284,"Ġsyndrome":8285,"Ġbattu":8286,"ĠCheval":8287,"ptures":8288,"Ġbruit":8289,"Ġcertainement":8290,"Ġimmense":8291,"Ġextraord":8292,"ĠChampagne":8293,"Ġvoulait":8294,"Ġheureux":8295,"Ġcabinet":8296,"Ġsilence":8297,"ĠChambe":8298,"ĠKarl":8299,"ĠNavarre":8300,"ĠAssociation":8301,"Ġsanctuaire":8302,"Ġquatorze":8303,"ĠThessal":8304,"hos":8305,"hann":8306,"hension":8307,"nier":8308,"nieurs":8309,"ual":8310,"vange":8311,"Ġdresse":8312,"Ġlion":8313,"Ġlanc":8314,"quide":8315,"lever":8316,"urance":8317,"ridion":8318,"assent":8319,"olith":8320,"dian":8321,"abri":8322,"ĠRi":8323,"Ġantiques":8324,"ĠHonda":8325,"Ġaventures":8326,"cutif":8327,"Ġimpressionn":8328,"alisant":8329,"Ġtouristique":8330,"Ġcommunal":8331,"Ġministres":8332,"perger":8333,"Ġpouvaient":8334,"monter":8335,"BNF":8336,"Ġvolant":8337,"ĠBarb":8338,"Ġcontroverse":8339,"Ġjouant":8340,"Ġgrecs":8341,"ĠLorsqu":8342,"Ġrejoi":8343,"Ġbattre":8344,"Ġurbains":8345,"Ġcombattre":8346,"Ġponts":8347,"Ġtraditionnelles":8348,"Ġcomplexes":8349,"Ġbrut":8350,"Ġlittor":8351,"ĠForce":8352,"ĠBrab":8353,"ĠCroix":8354,"ĠAuguste":8355,"Ġplaisir":8356,"Ġoublie":8357,"Ġaccessible":8358,"flexion":8359,"Ġstatues":8360,"Ġboulevard":8361,"Ġvaisseau":8362,"Ġartificie":8363,"Ġdiplo":8364,"ĠPalestine":8365,"Ġcalendrier":8366,"Joseph":8367,"AT":8368,"Fin":8369,"Que":8370,"kans":8371,"lum":8372,"pa":8373,"sulte":8374,"âĤ¬":8375,"Ġur":8376,"escla":8377,"Ġpage":8378,"Ġaile":8379,"erme":8380,"urgie":8381,"Ġfall":8382,"Ġtole":8383,"ala":8384,"estation":8385,"Ġnauf":8386,"tapes":8387,"Ġgren":8388,"cice":8389,"ĠAfin":8390,"lion":8391,"ĠBig":8392,"agan":8393,"uth":8394,"ĠHel":8395,"ĠHob":8396,"pope":8397,"tiquement":8398,"uber":8399,"ĠWood":8400,"cuper":8401,"ĠXe":8402,"tenance":8403,"Ġ52":8404,"empare":8405,"Ġcourage":8406,"ĠAllie":8407,"Ġmusiques":8408,"Ġmalade":8409,"ĠAujourd":8410,"Ġmess":8411,"Ġlocalite":8412,"Ġsignature":8413,"diteurs":8414,"Ġbasque":8415,"Ġ1897":8416,"Ġ1889":8417,"Ġachete":8418,"Ġidentite":8419,"Ġcompositions":8420,"Ġsportifs":8421,"vitation":8422,"ĠJaponais":8423,"Ġsacri":8424,"bastien":8425,"ussito":8426,"Ã¦dia":8427,"Ġcuivre":8428,"Ġdensite":8429,"Ġgamme":8430,"clopÃ¦dia":8431,"Lar":8432,"centes":8433,"funt":8434,"gration":8435,"hen":8436,"ife":8437,"mou":8438,"nateurs":8439,"Ġdense":8440,"Ġsoin":8441,"Ġcenti":8442,"tels":8443,"Ġeuros":8444,"inaires":8445,"Ġlacs":8446,"ild":8447,"veu":8448,"ĠLouvre":8449,"Ġnid":8450,"Ġvif":8451,"ĠMod":8452,"lice":8453,"lienne":8454,"ĠBenne":8455,"Ġproclame":8456,"ĠFl":8457,"ĠFors":8458,"iges":8459,"Ġneut":8460,"ĠLev":8461,"lah":8462,"ĠVit":8463,"try":8464,"Ġaltitude":8465,"avenir":8466,"ĠWater":8467,"Ġjete":8468,"ouette":8469,"Ġcommunistes":8470,"Ġapprouve":8471,"quipement":8472,"gio":8473,"Ġrapides":8474,"Ġcroit":8475,"ĠAuc":8476,"Ġinfrastructures":8477,"cky":8478,"Ġ1923":8479,"enny":8480,"ĠJacob":8481,"Ġmorceaux":8482,"Ġcolonisation":8483,"Ġlutter":8484,"Ġadaptations":8485,"ĠSamuel":8486,"lisabeth":8487,"placement":8488,"Ġdiminution":8489,"termination":8490,"Lorsque":8491,"Ġsacrif":8492,"Ġeffectifs":8493,"Ġconversion":8494,"ĠCambridge":8495,"ĠEncyclope":8496,"Ġfinancier":8497,"Ġrecommand":8498,"Ġstatistiques":8499,"ĠFRBNF":8500,"Ġdimanche":8501,"rentissage":8502,".).":8503,"Er":8504,"Gar":8505,"iro":8506,"pan":8507,"tar":8508,"zaine":8509,"Ġpoul":8510,"Ġaxe":8511,"net":8512,"usions":8513,"Ġvul":8514,"chage":8515,"charge":8516,"ĠSant":8517,"ĠSpar":8518,"ĠSard":8519,"ited":8520,"Ġ(...)":8521,"Ġconvient":8522,"Ġconvers":8523,"ĠMaj":8524,"ĠTu":8525,"ĠRose":8526,"ĠField":8527,"Ġhal":8528,"Ġhas":8529,"Ġneuvie":8530,"appelle":8531,"ouvoir":8532,"aya":8533,"extension":8534,"ussite":8535,"servoir":8536,"fecture":8537,"ology":8538,"alley":8539,"maj":8540,"olutions":8541,"Ġutilisation":8542,"Ġconstruites":8543,"moin":8544,"Ġindiquent":8545,"Ġports":8546,"Ġcontraintes":8547,"lexis":8548,"Ġvivants":8549,"Ġcolline":8550,"lectriques":8551,"offre":8552,"Ġlimiter":8553,"torique":8554,"timite":8555,"colte":8556,"Ġsouffle":8557,"faites":8558,"Ġrencontrent":8559,"Ġtomber":8560,"olkien":8561,"ultane":8562,"Ġulte":8563,"Ġexcell":8564,"Ġminimum":8565,"Ġtravaillent":8566,"Ġscolaire":8567,"ĠButton":8568,"sopotamie":8569,"ddh":8570,"Ġvraisemblablement":8571,"paisseur":8572,"ĠBibliothe":8573,"Ġeccle":8574,"Ġnaufrage":8575,"Com":8576,"IC":8577,"Voir":8578,"gro":8579,"hume":8580,"joue":8581,"mai":8582,"mol":8583,"nins":8584,"nienne":8585,"tarctique":8586,"vation":8587,"voire":8588,"endi":8589,"Ġdevi":8590,"Ġfoyer":8591,"Ġfiction":8592,"rael":8593,"ussion":8594,"celone":8595,"Ġnar":8596,"chat":8597,"aile":8598,"Ġplat":8599,"ttel":8600,"ĠNBA":8601,"Ġrame":8602,"pool":8603,"Ġacade":8604,"Ġforge":8605,"Ġmone":8606,"ussions":8607,"clai":8608,"Ġjustifie":8609,"ventures":8610,"Ġrepos":8611,"ĠAnti":8612,"Ġconfronte":8613,"missions":8614,"Ġvertu":8615,"ĠCharle":8616,"Arthur":8617,"accueil":8618,"huile":8619,"Ġbasil":8620,"ĠBarcelone":8621,"laces":8622,"offici":8623,"ressant":8624,"Ġtraditionnellement":8625,"Ġruine":8626,"Ġcatalogue":8627,"Ġclavier":8628,"lectr":8629,"Ġofficier":8630,"Ġmanifestation":8631,"ĠJusqu":8632,"Ġconvaincre":8633,"Ġrentrer":8634,"ĠPatrick":8635,"gendes":8636,"ĠRousseau":8637,"Ġalentours":8638,"Ġcirconstances":8639,"57":8640,"Loire":8641,"cont":8642,"lons":8643,"mir":8644,"spec":8645,"tom":8646,"vence":8647,"yclope":8648,"Ïħ":8649,"Ġ,":8650,"Ġpistes":8651,"Ġstri":8652,"ouch":8653,"ito":8654,"Ġfasc":8655,"ĠLap":8656,"Ġnus":8657,"Ġvaisse":8658,"tamment":8659,"Ġbov":8660,"olfe":8661,"ĠStu":8662,"ĠMale":8663,"Ġjazz":8664,"ĠBow":8665,"ĠBlanc":8666,"Ġinitie":8667,"ĠTolkien":8668,"ĠRig":8669,"ĠFord":8670,"ĠFried":8671,"ĠNuit":8672,"ĠVis":8673,"ĠVill":8674,"Ġconstante":8675,"Ġchemine":8676,"ÌĪ,":8677,"tish":8678,"Ġimpre":8679,"Ġimprime":8680,"Ġoriente":8681,"venus":8682,"Ġ43":8683,"finit":8684,"Ġtiennent":8685,"conc":8686,"ĠRec":8687,"Ġreprennent":8688,"Ġencyclope":8689,"ralise":8690,"Ġabsence":8691,"Ġconcer":8692,"Ġminorite":8693,"Ġtransition":8694,"Ġ[Â«":8695,"artney":8696,"Ġmoyennes":8697,"Ġindic":8698,"Ġcrimine":8699,"Ġorganisations":8700,"Ġ130":8701,"approche":8702,"Ġdessus":8703,"Ġfonctionnaires":8704,"Ġboucle":8705,"Ġfrapp":8706,"Ġpuissant":8707,"limard":8708,"Ġsuscep":8709,"moignent":8710,"Ġmunicipales":8711,"Ġcommencer":8712,"rablement":8713,"Ġalbums":8714,"Ġuniversitaires":8715,"Ġintense":8716,"domad":8717,"Ġlarges":8718,"Ġfemelle":8719,"Ġorthodoxe":8720,"ĠHongrie":8721,"Man":8722,"bdomad":8723,"mund":8724,"pus":8725,"sin":8726,"stes":8727,"yl":8728,"Îµ":8729,"Ġpain":8730,"Ġsain":8731,"orique":8732,"itude":8733,"Ġretirer":8734,"veau":8735,"Ġborde":8736,"ĠSw":8737,"atra":8738,"ĠDor":8739,"dience":8740,"ĠchÅĵur":8741,"ĠGri":8742,"Ġrendant":8743,"ĠNik":8744,"Ġravit":8745,"pore":8746,"ardo":8747,"Ġaristocra":8748,"Ġfortifie":8749,"otype":8750,"ĠChu":8751,"Ġdissi":8752,"Ġcaric":8753,"Ġressemble":8754,"Ġinscrits":8755,"Ġcoord":8756,"Ġrenonce":8757,"Ġconfusion":8758,"Ġmortalite":8759,"athle":8760,"ĠCharlotte":8761,"Ġincendie":8762,"Ġtenant":8763,"Ġtechnologie":8764,"Ġsignal":8765,"Inter":8766,"Ġdoctr":8767,"Ġrencontrer":8768,"Ġmorph":8769,"attus":8770,"Ġbonheur":8771,"augmentation":8772,"partementale":8773,"Ġcommerciaux":8774,"alogues":8775,"Ġsimultane":8776,"Ġarchives":8777,"ĠGalles":8778,"ĠGallimard":8779,"Ġphysiques":8780,"ĠCompany":8781,"consulte":8782,"Ġvendu":8783,"ĠVictoria":8784,"engager":8785,"ĠTurcs":8786,"publicain":8787,"ASA":8788,"Ġallait":8789,"Ġmaximale":8790,"Ġparlementaire":8791,"dispens":8792,"Ġintellectue":8793,"Ġrejete":8794,"ĠBlanche":8795,"Ġguitare":8796,"Ġclerge":8797,"Empereur":8798,"OM":8799,"fa":8800,"mages":8801,"pris":8802,"ports":8803,"rarchie":8804,"vues":8805,"enberg":8806,"ontiers":8807,"Ġaussito":8808,"tibles":8809,"Ġfes":8810,"Ġforts":8811,"Ġfoyers":8812,"Ġenchai":8813,"chy":8814,"Ġbival":8815,"aime":8816,"ĠSA":8817,"Ġplai":8818,"ĠMath":8819,"ĠAle":8820,"ĠAff":8821,"ĠAustralie":8822,"Ġproduisent":8823,"ĠDer":8824,"ĠDun":8825,"ĠRennes":8826,"ĠGold":8827,"via":8828,"Ġmotiv":8829,"Ġcheveux":8830,"exemp":8831,"Ġmanche":8832,"grer":8833,"Ġconfond":8834,"Ġphara":8835,"ĠJohann":8836,"Antoine":8837,"rairie":8838,"Ġvirage":8839,"Ġsolde":8840,"Ġbouddh":8841,"Ġ1898":8842,"Ġsoigne":8843,"Ġgrecques":8844,"gyptienne":8845,"Ġtraditionnels":8846,"Ġrespecte":8847,"Ġdescente":8848,"Ġpensent":8849,"Ġtribus":8850,"amitie":8851,"Ġfragments":8852,"ĠVenise":8853,"Ġatelier":8854,"Ġesclaves":8855,"ĠMexique":8856,"Ġferroviaire":8857,"Ġtransfert":8858,"El":8859,"PS":8860,"donne":8861,"lla":8862,"mation":8863,"nique":8864,"passer":8865,"sert":8866,"tta":8867,"rez":8868,"Ġpaye":8869,"Ġsue":8870,"Ġlabel":8871,"urait":8872,"Ġdesque":8873,"ĠLan":8874,"Ġvins":8875,"riences":8876,"ĠMille":8877,"Ġgu":8878,"Ġjal":8879,"Ġprotagon":8880,"ĠDr":8881,"ĠIXe":8882,"ĠGh":8883,"Ġnez":8884,"ĠNu":8885,"enstein":8886,"Ġfores":8887,"adop":8888,"Ġmarty":8889,"ness":8890,"exce":8891,"Ġrock":8892,"ĠOlymp":8893,"Ìģ,.":8894,"tenues":8895,"enseigne":8896,"low":8897,"olition":8898,"ĠJeff":8899,"Ġattitude":8900,"Ġtravailleurs":8901,"mati":8902,"Ġcauses":8903,"Ġproposer":8904,"monies":8905,"Ġvolontiers":8906,"Ġpublications":8907,"application":8908,"clate":8909,"iverpool":8910,"Ġhumides":8911,"curies":8912,"Ġgaran":8913,"volutionnaires":8914,"Ġcommerc":8915,"Ġdisposent":8916,"pendants":8917,"Ġreconnue":8918,"Ġ1895":8919,"oiseaux":8920,"Ġjournalistes":8921,"Ġcivils":8922,"Ġindustriels":8923,"Ġruines":8924,"Ġalimentaire":8925,"tifications":8926,"Ġsculptures":8927,"Ġennemi":8928,"Ġrappelant":8929,"sionnaires":8930,"Ġglobalement":8931,"ĠEncyclopÃ¦dia":8932,"ĠGabriel":8933,"abandon":8934,"instrument":8935,"enregistrement":8936,"Ġpolonais":8937,"Ġdispositif":8938,"ĠPhiladelphie":8939,"Aux":8940,"Fe":8941,"TA":8942,"contre":8943,"ding":8944,"gnation":8945,"him":8946,"noc":8947,"osite":8948,"rillon":8949,"witz":8950,"yre":8951,"Ġline":8952,"enaire":8953,"Ġpomme":8954,"Ġsaut":8955,"urales":8956,"ilien":8957,"Ġrect":8958,"ourent":8959,"antaine":8960,"rosion":8961,"chait":8962,"riennes":8963,"Ġblin":8964,"ĠStre":8965,"Ġceci":8966,"ĠBis":8967,"ĠÂ»],":8968,"ineux":8969,"ĠGard":8970,"Ġrent":8971,"Ġneveu":8972,"entretien":8973,"Ġmob":8974,"Ġcomptent":8975,"ĠParc":8976,"Ġclaire":8977,"ouement":8978,"Ġcourts":8979,"Ġrepous":8980,"Ġ65":8981,"value":8982,"anna":8983,"Ġenthou":8984,"voquer":8985,"Ġemploie":8986,"Ġsocialistes":8987,"explo":8988,"Ġculturels":8989,"Ġsupprime":8990,"ĠColle":8991,"Ġvenue":8992,"Ġmoral":8993,".,âĢİ":8994,"ssis":8995,"Ġcommerciales":8996,"Ġsuffrages":8997,"Ġbleue":8998,"ĠNouveau":8999,"Ġfanto":9000,"ĠSociety":9001,"mocratie":9002,"Ġseigneurs":9003,"installer":9004,"Ġpauvrete":9005,"Ġfinanciers":9006,"Ġjuridique":9007,"ĠThessalonique":9008,"major":9009,"ninsule":9010,"Jus":9011,"atie":9012,"cli":9013,"ium":9014,"mare":9015,"mographique":9016,"nite":9017,"tendant":9018,"xic":9019,"ãĥ":9020,"esses":9021,"reau":9022,"Ġporta":9023,"Ġsoie":9024,"invasion":9025,"arri":9026,"Ġfar":9027,"Ġfres":9028,"ĠLud":9029,"aujourd":9030,"Ġbot":9031,"Ġsexe":9032,"Ġcomique":9033,"Ġuns":9034,"ĠSophie":9035,"Ġplage":9036,"ĠMort":9037,"Ġgame":9038,"ĠAix":9039,"ĠAsie":9040,"Ġindustri":9041,"Ġproclam":9042,"ĠDub":9043,"diat":9044,"ĠEst":9045,"ĠFace":9046,"ocke":9047,"ĠNASA":9048,"Ġexil":9049,"aves":9050,"loe":9051,"lots":9052,"aller":9053,"odore":9054,"Ġnationalite":9055,"Ġprofond":9056,"Ġmontant":9057,"Ġmontrant":9058,"akistan":9059,"Ġnaturellement":9060,"Ġresta":9061,"Ġagran":9062,"Ġcombine":9063,"Ġamateurs":9064,"encontre":9065,"Ġtanto":9066,"ĠHein":9067,"Ġsalaire":9068,"sidences":9069,"oiseau":9070,"ĠVettel":9071,"matiquement":9072,"Ġitaliens":9073,"ternet":9074,"ĠSerbie":9075,"Ġ1871":9076,"ĠCeltics":9077,"ĠDanube":9078,"Ġvendus":9079,"Ġdatent":9080,"ĠLivry":9081,"ĠDarcy":9082,"Ġcroyance":9083,"Ġsculpte":9084,"oft":9085,"Ġrivalite":9086,"Ġcuisine":9087,"ĠFIA":9088,"Ġassimile":9089,"Ġhonor":9090,"Ġjudiciaire":9091,"Ġcombattants":9092,"Jo":9093,"Mer":9094,"ctu":9095,"kk":9096,"nig":9097,"pte":9098,"uen":9099,"vaux":9100,"voile":9101,"ãĤ":9102,"Ġiv":9103,"Ġdauph":9104,"Ġcouvent":9105,"ticul":9106,"inois":9107,"Ġmanger":9108,"itch":9109,"veur":9110,"Ġparole":9111,"sel":9112,"chante":9113,"Ġbrun":9114,"Ġbranches":9115,"ĠSC":9116,"ĠSau":9117,"Ġplaque":9118,"Ġconven":9119,"ĠPet":9120,"ĠPros":9121,"lik":9122,"lius":9123,"liquent":9124,"ĠBasse":9125,"Ġinforme":9126,"Ġproviennent":9127,"ĠTan":9128,"ĠGordon":9129,"ĠHart":9130,"inson":9131,"Ġavenue":9132,"ĠVale":9133,"trus":9134,"ensis":9135,"Ġarg":9136,"adj":9137,"oreau":9138,"avaient":9139,"tisation":9140,"intrigue":9141,"Ġimpro":9142,"Ġ41":9143,"Ġ47":9144,"Ġinscriptions":9145,"Ġsoud":9146,"lieue":9147,"Ġabrit":9148,"landaise":9149,"ika":9150,"Ġ1916":9151,"ionnat":9152,"ennais":9153,"Ġpositif":9154,"Ġ1906":9155,"Ġ1908":9156,"ĠHarrison":9157,"Ġbataillon":9158,"Ġmajeurs":9159,"ĠManuel":9160,"Ġentreprend":9161,"Ġsauver":9162,"notamment":9163,"effond":9164,"morph":9165,"ĠSamarit":9166,"ĠBalzac":9167,"Ġinitiale":9168,"Ġbanlieue":9169,"Ġphilosophe":9170,"barquement":9171,"puise":9172,"Ġchinoise":9173,"Ġcamar":9174,"ressionnisme":9175,"ĠAmerican":9176,"Ġobligatoire":9177,"Ġnavigation":9178,"ĠJersey":9179,"ĠClark":9180,"Ġcensure":9181,"Car":9182,"Egon":9183,"Gra":9184,"ctivite":9185,"dait":9186,"emble":9187,"giques":9188,"hal":9189,"lieu":9190,"yro":9191,"yste":9192,"aris":9193,"neret":9194,"Ġleve":9195,"ilis":9196,"Ġnaiss":9197,"sia":9198,"ĠCou":9199,"Ġsections":9200,"ĠSor":9201,"ĠSus":9202,"cides":9203,"lioz":9204,"ĠBac":9205,"agre":9206,"ĠRu":9207,"ĠHaut":9208,"istote":9209,"Ġtrah":9210,"Ġdiscute":9211,"illie":9212,"inger":9213,"cuter":9214,"Ġrecouver":9215,"lova":9216,"assemble":9217,"Ġintervenir":9218,"roulent":9219,"Ġadmis":9220,"lude":9221,"Ġphy":9222,"Ġappu":9223,"ĠYe":9224,"tentrion":9225,"Ġverre":9226,"voquent":9227,"ĠZel":9228,"Ġroyaumes":9229,"owski":9230,"berger":9231,"Ġamateur":9232,"andises":9233,"Ġformat":9234,"Ġretourner":9235,"Ġbarrage":9236,"Ġsalarie":9237,"Ġdirigeant":9238,"voluer":9239,"herbe":9240,"Ġ1885":9241,"ĠSteph":9242,"gyptiens":9243,"Ġforteresse":9244,"Ġdemeurent":9245,"ĠNaples":9246,"ĠScro":9247,"Ġmultiplie":9248,"Ġrangs":9249,"ĠForneret":9250,"ĠPlut":9251,"Ġmarchandises":9252,"Ġtombes":9253,"limination":9254,"adaptation":9255,"ĠTimes":9256,"Ġterror":9257,"ĠContrairement":9258,"Ġdivisions":9259,"Ġnoctur":9260,"Ġdisperse":9261,"Ġenceinte":9262,"ĠFlandre":9263,"ĠCarrefour":9264,"Ġblinde":9265,"EX":9266,"Ivoire":9267,"bouche":9268,"dt":9269,"fant":9270,"xion":9271,"Ġsolutions":9272,"arth":9273,"ieuse":9274,"ramment":9275,"Ġtranche":9276,"Ġretenu":9277,"Ġparvenir":9278,"Ġquai":9279,"gel":9280,"Ġbis":9281,"Ġconvention":9282,"cia":9283,"cio":9284,"ĠApp":9285,"ĠBus":9286,"Ġchiens":9287,"agi":9288,"ĠRub":9289,"ocle":9290,"ocat":9291,"breu":9292,"ĠNon":9293,"inscrit":9294,"ĠLaurent":9295,"Ġtrage":9296,"ĠVau":9297,"Ġcomportant":9298,"Ġargu":9299,"ĠChron":9300,"ĠOff":9301,"Ġtirs":9302,"Ġpostes":9303,"lancol":9304,"alisations":9305,"Ġtourner":9306,"Ġcouramment":9307,"Ġoffrent":9308,"ovic":9309,"Ġtensions":9310,"Ġmaintient":9311,"Ġdessous":9312,"ĠSho":9313,"Ġ1915":9314,"Ġromantique":9315,"Ġqualification":9316,"ĠFreder":9317,"Ġsignification":9318,"Ġmajeures":9319,"Ġofficielles":9320,"Ġaugment":9321,"coration":9322,"Organisation":9323,"ĠBalkans":9324,"Ġflot":9325,"onnerie":9326,"Ġtypique":9327,"Autres":9328,"Ġfaune":9329,"Ġfroide":9330,"Ġoccupent":9331,"Ġaboutit":9332,"Ġiranien":9333,"ĠOlivier":9334,"lestat":9335,"Ġincapable":9336,"ĠRotterdam":9337,"ÅĴuv":9338,"Laren":9339,"04":9340,"98":9341,"Eli":9342,"duse":9343,"fes":9344,"fou":9345,"lai":9346,"mant":9347,"niens":9348,"niti":9349,"onction":9350,"Ġpare":9351,"Ġsages":9352,"Ġcrist":9353,"quait":9354,"inus":9355,"omi":9356,"ĠLiverpool":9357,"sign":9358,"ĠCoun":9359,"Ġcompre":9360,"ĠAventures":9361,"Ġjoie":9362,"Ġincident":9363,"Ġproies":9364,"aler":9365,"ffer":9366,"agissait":9367,"ĠIX":9368,"abou":9369,"ĠTop":9370,"ĠRusse":9371,"ousin":9372,"Ġsame":9373,"Ġprouve":9374,"ubert":9375,"tumes":9376,"importe":9377,"Ġperdent":9378,"ĠKy":9379,"ĠKen":9380,"Ġrotation":9381,"tences":9382,"Ġsoutenue":9383,"Ġmange":9384,"Ġmanuf":9385,"Ġ900":9386,"Ġcapables":9387,"Ġtransmission":9388,"ĠUr":9389,"Ġfonte":9390,"Ġfacteur":9391,"marck":9392,"Ġincomp":9393,"Ġsubi":9394,"ĠShak":9395,"interme":9396,"Ġlargeur":9397,"Ġ1901":9398,"Ġcadav":9399,"lantation":9400,"gase":9401,"Ġartiste":9402,"Ġ1867":9403,"Ġqualifications":9404,"limente":9405,"Ġsignifiant":9406,"Ġcertes":9407,"ĠMerce":9408,"apparai":9409,"Ġautomobiles":9410,"izie":9411,"ĠToutes":9412,"book":9413,"Ġconvertis":9414,"bastian":9415,"Ġdurable":9416,"Ġhospital":9417,"ĠGaule":9418,"Ġgraphique":9419,"ĠSimon":9420,"indivi":9421,"Ġsuspendu":9422,"Ġrapprocher":9423,"ĠCinq":9424,"ĠGiovanni":9425,"Ġcentime":9426,"Ġvulne":9427,"ĠCharlemagne":9428,"07":9429,"dale":9430,"fus":9431,"guerre":9432,"lock":9433,"nue":9434,"nages":9435,"ool":9436,"rmel":9437,"xie":9438,"zanne":9439,"Î·":9440,"Ïģ":9441,"Ġcoc":9442,"quants":9443,"nelle":9444,"Ġmourir":9445,"ieur":9446,"Ġfans":9447,"ramique":9448,"alliance":9449,"ĠSat":9450,"ĠPur":9451,"ĠMaz":9452,"unir":9453,"Ġsurvie":9454,"ĠDictionnaire":9455,"ulse":9456,"agon":9457,"ogie":9458,"Ġcontacts":9459,"Ġalter":9460,"Ġalpin":9461,"other":9462,"ĠKenne":9463,"ĠOb":9464,"Ġimpact":9465,"cipitations":9466,"Ġattention":9467,"Ġadmire":9468,"Ġvede":9469,"ĠAng":9470,"Ġexplor":9471,"Ġphare":9472,"odie":9473,"Ġnationalistes":9474,"Ġprimi":9475,"Ġverte":9476,"Ġverts":9477,"ĠArn":9478,"Ġcanon":9479,"occatina":9480,"oints":9481,"Ġanniversaire":9482,"Ġformations":9483,"ĠXIV":9484,"Ġnationaliste":9485,"ĠCollins":9486,"auss":9487,"Ġrevendique":9488,"Ġproprement":9489,"Ġclassification":9490,"Ġdramatique":9491,"2008":9492,"Ġinitial":9493,"Ġidentique":9494,"Ġcontemporaine":9495,"pitaux":9496,"ĠRouen":9497,"Ġcontinuite":9498,"Ġsurprise":9499,"ĠPym":9500,"Ġglaciers":9501,"Ġcroyances":9502,"volutions":9503,"Ġsingle":9504,"ĠDominique":9505,"difications":9506,"Georges":9507,"Ġparution":9508,"Ġmodeste":9509,"Ġcanadienne":9510,"Ġavions":9511,"ĠGuide":9512,"ĠMcCartney":9513,"ĠGustav":9514,"Royal":9515,"crivains":9516,"ĠBrabham":9517,"Ġravitaille":9518,"ĠScrooge":9519,"forts":9520,"gr":9521,"gies":9522,"mad":9523,"pine":9524,"prouve":9525,"tan":9526,"Ġ'":9527,"Ġ{":9528,"Ġ00":9529,"Ġalimente":9530,"Ġsam":9531,"Ġcardinal":9532,"titre":9533,"Ġempereur":9534,"Ġmante":9535,"Ġfati":9536,"raham":9537,"Ġnoires":9538,"rices":9539,"ĠCob":9540,"Ġbelles":9541,"aisses":9542,"ĠAchille":9543,"Ġinex":9544,"ossi":9545,"ĠFront":9546,"Ġhipp":9547,"ĠJam":9548,"ĠNob":9549,"Ġextension":9550,"Ġmodifications":9551,"ogh":9552,"Ġactif":9553,"Ġacteur":9554,"umule":9555,"Ġ1815":9556,"ĠKong":9557,"ingt":9558,"exil":9559,"ĠOrient":9560,"trations":9561,"amph":9562,"midi":9563,"igneur":9564,"Ġ53":9565,"Ġrenv":9566,"Ġadministration":9567,"ido":9568,"Ġassy":9569,"trois":9570,"Anton":9571,"Ġmenac":9572,"Ġsucre":9573,"Ġseptentrion":9574,"Ġportug":9575,"Ġhabitat":9576,"Ġincont":9577,"talons":9578,"aucun":9579,"ĠSchuma":9580,"Ġpublicite":9581,"Ġatteignent":9582,"orizon":9583,"pendante":9584,"ĠRobin":9585,"espoir":9586,"Ġdistribue":9587,"rontent":9588,"ĠStein":9589,"Ġlancement":9590,"Ġspectateur":9591,"Ġ1849":9592,"ĠGalile":9593,"ĠTraite":9594,"ĠSyrie":9595,"indou":9596,"Ġlogement":9597,"ĠTouquet":9598,"Ġvouloir":9599,"Ġerreurs":9600,"Ġprimaire":9601,"Ġgrotte":9602,"Ġcavaliers":9603,"Ġconseillers":9604,"Ġpavillon":9605,"Olympique":9606,"archipel":9607,"ĠSchumacher":9608,"Gu":9609,"ON":9610,"affe":9611,"coup":9612,"dal":9613,"lous":9614,"mais":9615,"mens":9616,"nd":9617,"soit":9618,"tence":9619,"uaire":9620,"Ġdame":9621,"Ġloue":9622,"Ġpai":9623,"Ġpommes":9624,"Ġlatine":9625,"neuf":9626,"orig":9627,"Ġrem":9628,"Ġrejet":9629,"Ġremettre":9630,"Ġquad":9631,"peu":9632,"ĠMis":9633,"ĠMade":9634,"mper":9635,"ĠAct":9636,"ĠEast":9637,"abet":9638,"ĠFro":9639,"ĠGrant":9640,"Ġhoriz":9641,"amen":9642,"octobre":9643,"ĠNations":9644,"ims":9645,"ritables":9646,"avenue":9647,"ĠMarvel":9648,"1918":9649,"Ġinterromp":9650,"tituer":9651,"Ġaborde":9652,"Ġassoci":9653,"Ġ72":9654,"intellig":9655,"ilson":9656,"Ġpriorite":9657,"Ġrempl":9658,"Ġsolo":9659,"Ġaffiche":9660,"aka":9661,"encer":9662,"iko":9663,"Ġbarb":9664,"ÌĦ,":9665,"airs":9666,"Ġrelais":9667,"Ġ1904":9668,"ĠHarry":9669,"Ġspectacles":9670,"ĠChez":9671,"onymes":9672,"Ġreproduit":9673,"ĠMcLaren":9674,"Ġmeurtre":9675,"ĠEdward":9676,"Ġmiroir":9677,"Ġvoisine":9678,"Ġvoisines":9679,"ĠAlexander":9680,"atteindre":9681,"Ġfaiblesse":9682,"Ġnotorie":9683,"Ġinfluences":9684,"Ġponctue":9685,"ĠBatman":9686,"Ġrayonnement":9687,"Ġcousin":9688,"Ġignore":9689,"Ġsoupc":9690,"Ġanglo":9691,"Ġexactement":9692,"Ġgermanique":9693,"ĠBesanc":9694,"Ġlunaire":9695,"Ġluxe":9696,"Ġlaboratoire":9697,"Ġoutils":9698,"Ġmodifier":9699,"intention":9700,"Ġgothique":9701,"ĠBennet":9702,"Ġbivalves":9703,"MP":9704,"cra":9705,"dure":9706,"ius":9707,"mus":9708,"vas":9709,"wards":9710,"Ġapo":9711,"Ġailes":9712,"quation":9713,"lecteurs":9714,"arabe":9715,"Ġfosse":9716,"Ġtute":9717,"Ġvig":9718,"Ġvastes":9719,"ĠCit":9720,"ĠbÅĵ":9721,"Ġselle":9722,"aiser":9723,"attitude":9724,"ĠBau":9725,"ĠBak":9726,"ĠBourge":9727,"Ġinnov":9728,"ĠDoc":9729,"ĠEmble":9730,"ĠEiff":9731,"agir":9732,"Ġdiriger":9733,"onso":9734,"ĠHil":9735,"impe":9736,"Ġtraductions":9737,"pargne":9738,"impo":9739,"imposer":9740,"ĠEnsuite":9741,"Ġperfection":9742,"Ġmarques":9743,"Ġdissolution":9744,"ĠOne":9745,"angers":9746,"finie":9747,"Ġcolore":9748,"Ġ56":9749,"Ġatten":9750,"Ġintervient":9751,"Ġcorre":9752,"Ġcorde":9753,"Ġexportations":9754,"Ġpublier":9755,"Ġculmin":9756,"Ġaffaib":9757,"mark":9758,"Ġincor":9759,"Ġroues":9760,"auration":9761,"ĠIsrael":9762,"Ġ1893":9763,"Ġfourr":9764,"Ġmoments":9765,"organise":9766,"ĠJuan":9767,"ducteur":9768,"Ġpsychologie":9769,"Ġpsychanaly":9770,"fenseur":9771,"Ġfavoriser":9772,"ĠMerlin":9773,"Ġchasseurs":9774,"importantes":9775,"Ġsecrets":9776,"ĠMoz":9777,"ĠBenoi":9778,"Ġimmob":9779,"acker":9780,"Ġrefusent":9781,"Ġmarchand":9782,"Ġphilosophique":9783,"Ġoccasionne":9784,"ĠBourgui":9785,"Ġtests":9786,"Ġpermanente":9787,"Ġsurvivants":9788,"Ġfinancement":9789,"ĠÅĵil":9790,"Ġscandale":9791,"appuyant":9792,"Ġdiagnostic":9793,"placer":9794,"ĠKallir":9795,"Ġsynagogue":9796,"Ġcompromis":9797,"ĠFriedrich":9798,"Ġconcernent":9799,"ĠSamaritains":9800,"ĠZelda":9801,"ĠMercedes":9802,"ĠEiffel":9803,"AP":9804,"OC":9805,"Quelques":9806,"Te":9807,"cts":9808,"mu":9809,"plan":9810,"ua":9811,"uki":9812,"Ġdents":9813,"Ġloy":9814,"Ġpentes":9815,"Ġpseud":9816,"Ġaus":9817,"Ġski":9818,"urite":9819,"rais":9820,"Ġtribu":9821,"mette":9822,"Ġremanie":9823,"anthe":9824,"see":9825,"chard":9826,"ĠClo":9827,"Ġbille":9828,"aider":9829,"ĠPr":9830,"ĠPun":9831,"ĠPoli":9832,"ĠPlace":9833,"ĠMam":9834,"ĠAp":9835,"Ġjur":9836,"ĠByz":9837,"rances":9838,"Ġproie":9839,"ĠDix":9840,"ĠFondation":9841,"ĠGa":9842,"ĠGes":9843,"ĠJud":9844,"Ġdialogue":9845,"oissy":9846,"Ġrabb":9847,"onnie":9848,"Ġpartition":9849,"Ġalliance":9850,"ĠChan":9851,"Ġmarge":9852,"ĠOtto":9853,"ĠXavier":9854,"Ġimpo":9855,"finir":9856,"Ġsouci":9857,"ibilite":9858,"iddish":9859,"Ġchape":9860,"Ġexplicite":9861,"allois":9862,"Ġassis":9863,"Ġproducteurs":9864,"entielles":9865,"arius":9866,"Ġvive":9867,"Ġmaturite":9868,"ĠArch":9869,"ĠCarn":9870,"Ġhabituellement":9871,"ahan":9872,"Ġorganismes":9873,"Ġseuil":9874,"Ġurbaines":9875,"Ġpsychi":9876,"attache":9877,"enfance":9878,"ound":9879,"amiral":9880,"Ġgallo":9881,"ĠPrinces":9882,"Ġcopies":9883,"Ġultra":9884,"Ġvotre":9885,"archeve":9886,"ĠSouth":9887,"Ġadversaire":9888,"ĠAmerica":9889,"Ġinsectes":9890,"assadeur":9891,"Ġmagasins":9892,"Ġpropagande":9893,"Ġpollution":9894,"Ġscrutin":9895,"Ġvaisseaux":9896,"ĠEmblem":9897,"Em":9898,"IF":9899,"IN":9900,"NE":9901,"Station":9902,"atifs":9903,"ep":9904,"sastre":9905,"wig":9906,"yes":9907,"Ġlonge":9908,"onix":9909,"Ġaqu":9910,"Ġcure":9911,"tia":9912,"timis":9913,"oura":9914,"quins":9915,"inateur":9916,"iement":9917,"raction":9918,"rapie":9919,"Ġrevi":9920,"ĠLO":9921,"chon":9922,"rik":9923,"ĠCli":9924,"Ġbag":9925,"ĠSie":9926,"cile":9927,"ciclope":9928,"ĠAh":9929,"ĠBab":9930,"Ġchir":9931,"abre":9932,"ĠTok":9933,"ĠRiver":9934,"ĠGod":9935,"ĠNatur":9936,"ĠHay":9937,"Ġprit":9938,"ĠVous":9939,"Ġcomptes":9940,"Ġcontes":9941,"ĠEngl":9942,"atelier":9943,"Ġmarquis":9944,"ĠWin":9945,"tinction":9946,"obal":9947,"mbourg":9948,"Ġorbite":9949,"ministre":9950,"assan":9951,"Ġrenverse":9952,"Ġgrains":9953,"Ġcorne":9954,"Ġcommuns":9955,"Ġconfre":9956,"ĠSecond":9957,"ĠAlb":9958,"Ġprofiter":9959,"Ġapprendre":9960,"Ġ85":9961,"Ġentendre":9962,"Ġreligions":9963,"Ġhuman":9964,"Ġcouples":9965,"atrices":9966,"Ġpersonnels":9967,"rindiens":9968,"Ġbaroque":9969,"essor":9970,"ĠColomb":9971,"Ġ1899":9972,"attan":9973,"ĠBerlioz":9974,"Cha":9975,"Ġtriple":9976,"inconscient":9977,"Ġactuels":9978,"attaquer":9979,"Ġfeuille":9980,"Ġautomatique":9981,"Ġprogressive":9982,"Ġloisirs":9983,"Ġadministratif":9984,"Ġcroisements":9985,"Ġglaci":9986,"Ġsculpture":9987,"Ġsymbolise":9988,"ĠNorve":9989,"Ġchimie":9990,"Ġblocs":9991,"ittle":9992,"Ġbombardements":9993,"Ġadjoint":9994,"Ġeffectuer":9995,"ĠItaliens":9996,"ĠGandhi":9997,"Ġvioloncelle":9998,"Ġdoctrine":9999,"Athe":10000,"Bern":10001,"Con":10002,"Ode":10003,"Occident":10004,"ape":10005,"bach":10006,"dateurs":10007,"fils":10008,"faces":10009,"pice":10010,"tot":10011,"turb":10012,"ways":10013,"Ġpen":10014,"Ġpoule":10015,"Ġmace":10016,"Ġnie":10017,"ressent":10018,"ĠCD":10019,"ĠComm":10020,"oling":10021,"Ġcomble":10022,"Ġconces":10023,"ĠMid":10024,"ĠMach":10025,"Ġpreuves":10026,"diaires":10027,"ĠFis":10028,"Ġanth":10029,"icacite":10030,"ĠGalerie":10031,"Ġhonne":10032,"iger":10033,"amoto":10034,"ĠJord":10035,"ops":10036,"Ġaver":10037,"Ġcommandes":10038,"Ġcompil":10039,"umage":10040,"ĠEnciclope":10041,"Ġperception":10042,"Ġnotice":10043,"Ġfinances":10044,"Ġterrestres":10045,"Ġclarine":10046,"trages":10047,"ĠMario":10048,"chester":10049,"Ġgraines":10050,"Ġridi":10051,"Ġabat":10052,"Ġoncle":10053,"visi":10054,"rene":10055,"ameau":10056,"Ġmenant":10057,"rosse":10058,"Ġcanzone":10059,"Ġcentrales":10060,"Ġfonder":10061,"Ġrefuge":10062,"Ġenfance":10063,"appare":10064,"dical":10065,"Ġdonnait":10066,"achat":10067,"Ġvictor":10068,"armement":10069,"Ġsimpli":10070,"Ġstyles":10071,"Ġconstituant":10072,"Ġpromet":10073,"ĠSports":10074,"ĠProvence":10075,"espeare":10076,"Ġsortes":10077,"enfants":10078,"Isis":10079,"Ġchoisir":10080,"Ġindividu":10081,"Ġbanque":10082,"Ġvoisin":10083,"faits":10084,"Ġouverture":10085,"Ġgraphismes":10086,"ĠWild":10087,"ĠÅĵufs":10088,"ctorat":10089,"Ġweek":10090,"chauffe":10091,"ĠBulgarie":10092,"Ġpaquebot":10093,"ĠFayard":10094,"Ġsouverainete":10095,"Ġlittoral":10096,"Ġbasilique":10097,"ĠBismarck":10098,"Aqu":10099,"dan":10100,"fig":10101,"fond":10102,"hai":10103,"hol":10104,"hrer":10105,"plus":10106,"paule":10107,"sud":10108,"wald":10109,"Ġille":10110,"Ġdorm":10111,"Ìģ),":10112,"Ġlo":10113,"Ġsion":10114,"Ġel":10115,"outes":10116,"quatre":10117,"inquie":10118,"Ġmue":10119,"itue":10120,"itter":10121,"Ġremonter":10122,"ĠLine":10123,"ĠLion":10124,"Ġvag":10125,"ride":10126,"ĠCI":10127,"Ġben":10128,"Ġplume":10129,"ĠPubli":10130,"ĠPloe":10131,"ĠMiche":10132,"Ġgent":10133,"Ġceinture":10134,"ĠAcade":10135,"ĠBBC":10136,"ĠDire":10137,"ĠEur":10138,"Ġchaud":10139,"ĠTV":10140,"ĠTr":10141,"ĠTal":10142,"ĠTel":10143,"ĠRadi":10144,"endres":10145,"opte":10146,"opje":10147,"ĠLeurs":10148,"ĠNich":10149,"ĠVIe":10150,"Ġcomprennent":10151,"Ġargent":10152,"Ġaperc":10153,"Ġmargin":10154,"Ġpoin":10155,"tisans":10156,"miers":10157,"Ġposer":10158,"ĠReims":10159,"issante":10160,"Ġobsta":10161,"ralisation":10162,"culaires":10163,"crivit":10164,"ĠPetite":10165,"ĠUnited":10166,"Ġfaculte":10167,"fices":10168,"ova":10169,"Ġindige":10170,"Arg":10171,"Ġorganis":10172,"exploration":10173,"aucune":10174,"Ġcapital":10175,"ĠClassi":10176,"Ġvoyant":10177,"Ġpacif":10178,"pendamment":10179,"Ġbarrie":10180,"ĠBelgrade":10181,"Ġitine":10182,"ĠGreen":10183,"Ġpuissante":10184,"rieurement":10185,"Ġinstaure":10186,"Ġ1864":10187,"organiser":10188,"ĠTeam":10189,"tendu":10190,"hydro":10191,"ensif":10192,"Ġcrainte":10193,"Ġaccepter":10194,"Ġballon":10195,"ĠService":10196,"Ġcivilisations":10197,"Ġclients":10198,"Ġabsol":10199,"Ġtrouvant":10200,"ĠMadame":10201,"Ġerreur":10202,"Ġexceptionne":10203,"Ġexceptionnelle":10204,"Ġthermes":10205,"sionnaire":10206,"ĠChamonix":10207,"Ġsouvenirs":10208,"thiopie":10209,"Ġajoutant":10210,"urbanisme":10211,"Ġaccessibles":10212,"Ġpatients":10213,"Ġreliant":10214,"ĠHistory":10215,"gislatives":10216,"ĠBird":10217,"Auguste":10218,"Ġexigences":10219,"ĠPlayStation":10220,"Ġoreilles":10221,"05":10222,"Can":10223,"boy":10224,"cale":10225,"cologique":10226,"odi":10227,"otique":10228,"tue":10229,"yme":10230,"Ïĥ":10231,"Ġstabilite":10232,"ouin":10233,"lette":10234,"Ġmoul":10235,"orent":10236,"Ġfa":10237,"Ġfuse":10238,"omiques":10239,"Ġenrich":10240,"Ġentite":10241,"usant":10242,"Ġpartent":10243,"Ġparaissent":10244,"Ġner":10245,"ĠCend":10246,"ĠCande":10247,"Ġbriques":10248,"ĠPier":10249,"ator":10250,"cialiste":10251,"cidente":10252,"Ġjet":10253,"Ġjamb":10254,"ĠBib":10255,"una":10256,"Ġchats":10257,"Ġchlor":10258,"ulie":10259,"osta":10260,"ĠTin":10261,"ĠRud":10262,"Ġroul":10263,"Ġrenseigne":10264,"ortz":10265,"Ġneur":10266,"Ġmodification":10267,"Ġcontent":10268,"Ġacquiert":10269,"ĠCher":10270,"Ġmarin":10271,"Ġmarquant":10272,"Ġnoble":10273,"ĠKu":10274,"ĠOld":10275,"Ġannexe":10276,"tilly":10277,"Ġobtiennent":10278,"Ġobserver":10279,"Ġadoles":10280,"idae":10281,"Ġcourir":10282,"allemand":10283,"ĠAnn":10284,"Ġgraves":10285,"Ġcorrec":10286,"ĠSept":10287,"Ġprofil":10288,"Ġremparts":10289,"Anjou":10290,"rairies":10291,"Ġentrent":10292,"tym":10293,"Ġmonts":10294,"Ġliquide":10295,"ĠInternet":10296,"Ġlocalise":10297,"apprentissage":10298,"ynam":10299,"Ġdessert":10300,"Ġessor":10301,"Ġconservent":10302,"triment":10303,"triques":10304,"Ġsituations":10305,"Ġwith":10306,"anciers":10307,"Ġrandonne":10308,"gyptien":10309,"Ġfavorables":10310,"Ġordonn":10311,"appellation":10312,"Ġjuives":10313,"ĠSyl":10314,"Ġouvertes":10315,"Ġterminer":10316,"Ġdominante":10317,"ĠVIII":10318,"Ġcantons":10319,"ĠTroisie":10320,"hicule":10321,"Ġpurement":10322,"Ġtravaillant":10323,"cosyste":10324,"ĠInternational":10325,"Ġauxquelles":10326,"Ġajouter":10327,"Ġbouleverse":10328,"autorisation":10329,"Ġcavalier":10330,"Ġdivine":10331,"pouser":10332,"Ġsyndicat":10333,"Ġtapis":10334,"Ġremontent":10335,"Ġcalcaire":10336,"phonse":10337,"Irlande":10338,"Ġpartagent":10339,"Ġinsurge":10340,"orientation":10341,"Ġpersuade":10342,"ĠFernand":10343,"ĠApollo":10344,"olithique":10345,"Ġindustries":10346,"Elizabeth":10347,"ĠShakespeare":10348,"Ag":10349,"SN":10350,"bois":10351,"bonne":10352,"conn":10353,"dres":10354,"dat":10355,"favor":10356,"feld":10357,"king":10358,"mac":10359,"mag":10360,"oche":10361,"pal":10362,"pir":10363,"sch":10364,"Ġvec":10365,"Ġdiction":10366,"Ġso":10367,"Ġcub":10368,"teil":10369,"quents":10370,"Ġmoulin":10371,"orant":10372,"rot":10373,"ĠLittle":10374,"Ġvib":10375,"rible":10376,"resc":10377,"ĠCF":10378,"ĠCav":10379,"ĠPla":10380,"Ġpourra":10381,"Ġsons":10382,"Ġanonyme":10383,"Ġhol":10384,"insur":10385,"tualite":10386,"impulsion":10387,"Ġaccidente":10388,"enson":10389,"Ġarbit":10390,"Ġfinissent":10391,"Ġdisques":10392,"Ġclandes":10393,"olet":10394,"ennemi":10395,"Ġ59":10396,"Ġmanip":10397,"ralistes":10398,"Ġrigue":10399,"Ġabb":10400,"Ġavantages":10401,"Ġassie":10402,"ĠNept":10403,"Ġcinquant":10404,"Ġindirec":10405,"gradation":10406,"Ġgouvernements":10407,"Ġessaye":10408,"Ġ110":10409,"Ġattribu":10410,"essais":10411,"Ġdistribu":10412,"Ġviolente":10413,"Ġpuissants":10414,"tablis":10415,"actuel":10416,"Ġpromouvoir":10417,"ĠFred":10418,"Ġdistinguer":10419,"Ġ1888":10420,"ristan":10421,"Ġsignific":10422,"Ġbatterie":10423,"Ġ1840":10424,"Ġproposent":10425,"Ġconclu":10426,"ĠXIII":10427,"Ġgrosses":10428,"Ġengagement":10429,"Ġsouverains":10430,"Ġharas":10431,"Ġalimentaires":10432,"ĠChristoph":10433,"ĠCrois":10434,"Ġdemandent":10435,"Ġclimatiques":10436,"Ġphotos":10437,"Ġvoulant":10438,"ĠRoman":10439,"matographique":10440,"silien":10441,"Ġtransformer":10442,"ĠCaen":10443,"videmment":10444,"ĠEmma":10445,"ĠBritish":10446,"ĠLouise":10447,"Ġprovoquer":10448,"imagination":10449,"ĠBrowning":10450,"gocier":10451,"Ġfolklore":10452,"jamin":10453,"Ġconversation":10454,"Ġdauphin":10455,"ĠCendrillon":10456,"OR":10457,"bal":10458,"cut":10459,"hman":10460,"ias":10461,"larg":10462,"nisme":10463,"nistes":10464,"passant":10465,"tois":10466,"Ìĵ":10467,"ĠÄ":10468,"Ġdites":10469,"Ġale":10470,"Ġstabil":10471,"Ġcible":10472,"tio":10473,"inventaire":10474,"eral":10475,"urn":10476,"rag":10477,"usine":10478,"estations":10479,"chwitz":10480,"Ġsel":10481,"Ġplant":10482,"Ġplaines":10483,"aisie":10484,"ĠPub":10485,"ĠPologne":10486,"ĠMou":10487,"atal":10488,"ĠBois":10489,"Ġintri":10490,"Ġprocure":10491,"ĠDj":10492,"ĠDre":10493,"ĠFam":10494,"ĠGuer":10495,"ĠGoul":10496,"Ġhonneur":10497,"Ġronde":10498,"amer":10499,"ouss":10500,"ĠHigh":10501,"ouvant":10502,"Ġrasse":10503,"ĠLaff":10504,"Ġcomplique":10505,"Ġcontour":10506,"Ġfortifications":10507,"Ġ1878":10508,"Ġ1814":10509,"tint":10510,"Ġfinales":10511,"Ġintervention":10512,"ids":10513,"Ġcourante":10514,"nerge":10515,"Ġexplore":10516,"Ġ62":10517,"omphe":10518,"stein":10519,"gitime":10520,"2010":10521,"Ġmesse":10522,"iliation":10523,"graph":10524,"Ġgaranti":10525,"Ġjanse":10526,"Ġromancier":10527,"oku":10528,"ĠGeorg":10529,"hoven":10530,"mener":10531,"Ġbiographie":10532,"ĠMonaco":10533,"asile":10534,"Ġtendances":10535,"habitude":10536,"ĠAndrew":10537,"ĠRenaud":10538,"Ġoiseau":10539,"Ġconservateurs":10540,"Ġracines":10541,"Ġcroissante":10542,"ultan":10543,"Ġcostume":10544,"ĠPascal":10545,"Ġsubsiste":10546,"Ġpleinement":10547,"Ġbyzantine":10548,"Ġspirituel":10549,"Ġsurveillance":10550,"ĠAntonio":10551,"Ġpneum":10552,"ĠMetroid":10553,"appuie":10554,"Ġregroupant":10555,"ĠSaturne":10556,"Ġfugue":10557,"Ġintellectuelle":10558,"Avignon":10559,"Ġraccorde":10560,"Horus":10561,"ĠMulhouse":10562,"ĠWebber":10563,"Ġfossiles":10564,"Ġsacrifice":10565,"ĠFielding":10566,"Ġmanteau":10567,"intelligence":10568,"Amer":10569,"Don":10570,"IB":10571,"Os":10572,"cue":10573,"cter":10574,"gas":10575,"vil":10576,"relie":10577,"Ġprieure":10578,"Ġaxes":10579,"qualif":10580,"arbre":10581,"ariste":10582,"orise":10583,"itres":10584,"oma":10585,"Ġutile":10586,"Ġparent":10587,"ÌĤ,":10588,"ĠComb":10589,"ĠCFA":10590,"Ġbai":10591,"olo":10592,"ĠMagn":10593,"Ġger":10594,"lletin":10595,"lient":10596,"helm":10597,"ulations":10598,"Ġpeindre":10599,"ĠTod":10600,"ĠTime":10601,"ĠTony":10602,"ĠGol":10603,"Ġromp":10604,"ĠHard":10605,"cesseur":10606,"Ġration":10607,"Ġtrajet":10608,"ella":10609,"Ġcommente":10610,"Ġtrous":10611,"Ġpermit":10612,"ĠKuns":10613,"Ġ350":10614,"Ġestiment":10615,"erto":10616,"venant":10617,"Ġinscription":10618,"ifique":10619,"Ġ54":10620,"Ġjuments":10621,"Ġcorruption":10622,"ĠParisiens":10623,"Ġphone":10624,"Ġprofondes":10625,"Ġapparente":10626,"Ġferre":10627,"ancy":10628,"gny":10629,"Ġrendus":10630,"illir":10631,"Ġbasket":10632,"interdiction":10633,"Ġreconnus":10634,"ĠColor":10635,"Ġsalue":10636,"Ġ1865":10637,"office":10638,"Ġentrepris":10639,"Ġbords":10640,"timore":10641,"apparence":10642,"Ġlibrement":10643,"Ġtaoi":10644,"Ġextrait":10645,"Ġfinancer":10646,"Ġtransporter":10647,"Ġrecettes":10648,"msterdam":10649,"Ġexistant":10650,"Ġsommets":10651,"ĠLove":10652,"Ġquoique":10653,"Ġrenouvele":10654,"Ġapproxim":10655,"guerite":10656,"effectif":10657,"Ġrituels":10658,"Ġpontific":10659,"Ġentendu":10660,"Ġsensibles":10661,"Ġsensibilite":10662,"Ġappareils":10663,"Ġnatale":10664,"ĠFontaine":10665,"Ġtitulaire":10666,"Ġblessures":10667,"ĠGaston":10668,"ĠRestauration":10669,"ĠVinci":10670,"clairage":10671,"lectrons":10672,"exemplaires":10673,"Ġrectang":10674,"ĠStreet":10675,"ĠBourget":10676,"EL":10677,"PDF":10678,"Toutefois":10679,"Ur":10680,"mne":10681,"nager":10682,"ponde":10683,"Ìĩ":10684,"âĪĴ":10685,"Ġicon":10686,"estern":10687,"Ġpomp":10688,"Ġdebout":10689,"Ġstrophe":10690,"Ġcendres":10691,"ouer":10692,"Ġmour":10693,"Ġleader":10694,"Ġfasse":10695,"Ġretenue":10696,"Ġparas":10697,"ĠLot":10698,"auton":10699,"chim":10700,"ansen":10701,"ĠCome":10702,"ĠPC":10703,"ĠPi":10704,"Ġgain":10705,"ciales":10706,"Ġindispens":10707,"accident":10708,"ĠTa":10709,"Ġhyp":10710,"opa":10711,"ĠLeon":10712,"Ġtellement":10713,"Ġtrai":10714,"Ġconstruis":10715,"Ġtrent":10716,"Ġcomptant":10717,"extinction":10718,"ĠOsiris":10719,"Ġescad":10720,"tissent":10721,"riser":10722,"Ġyou":10723,"finale":10724,"ĠmanÅĵuvre":10725,"Ġrenvoie":10726,"Ġ%),":10727,"ida":10728,"Ġbec":10729,"luvi":10730,"Ġconfig":10731,"Ġ67":10732,"Ġquelqu":10733,"Ġappartiennent":10734,"Ġmenaces":10735,"...).":10736,"Ġfera":10737,"Ġzo":10738,"Ġcanot":10739,"expliquer":10740,"Ġsubsist":10741,"cisif":10742,"Ġannule":10743,"journe":10744,"ĠJohns":10745,"coce":10746,"Ġ1902":10747,"Ġ1869":10748,"formation":10749,"Ġqualifier":10750,"Ġprogresse":10751,"Ġparticipants":10752,"acheve":10753,"2005":10754,"Ġ1857":10755,"Ġflore":10756,"Ġindustrielles":10757,"ajou":10758,"Ġdescendant":10759,"Ġperdue":10760,"Ġmineurs":10761,"Ġmasque":10762,"ĠToujours":10763,"Ġincluant":10764,"Ġmythes":10765,"Ġrappeler":10766,"Ġadministrative":10767,"Ġcirculaire":10768,"Peu":10769,"Ġobservateurs":10770,"Ġtournois":10771,"ĠFranklin":10772,"Ġprojete":10773,"ĠAugustin":10774,"Ġmutation":10775,"ĠEmmanuel":10776,"ĠĠĠĠĠĠĠĠ":10777,"Ġtissu":10778,"ĠGilbert":10779,"Ġcarburant":10780,"Ġsolid":10781,"Ġtardive":10782,"Ġrusses":10783,"Ġdangereux":10784,"Ġsuspension":10785,"Ġconvul":10786,"Ġprolongation":10787,"Ġbloque":10788,"Ġfameux":10789,"Ġextraordinaire":10790,"Ġabsolue":10791,"EC":10792,"Evere":10793,"Plage":10794,"Sous":10795,"ciel":10796,"dois":10797,"em":10798,"fice":10799,"gg":10800,"ios":10801,"lait":10802,"noi":10803,"plique":10804,"solu":10805,"uz":10806,"xy":10807,"Ġ\\":10808,"Ġdie":10809,"Ġdil":10810,"Ġade":10811,"Ġasi":10812,"Ġcot":10813,"texte":10814,"entend":10815,"Ġmol":10816,"Ġmut":10817,"Ġlec":10818,"itain":10819,"Ġtome":10820,"Ġdestru":10821,"Ġparlant":10822,"ĠLSD":10823,"aurer":10824,"ontane":10825,"deur":10826,"ĠÂ£":10827,"geance":10828,"Ġbie":10829,"ĠSin":10830,"ĠSyn":10831,"cid":10832,"cific":10833,"oient":10834,"Ġpropositions":10835,"ĠDC":10836,"ĠDenis":10837,"ĠTi":10838,"ĠRy":10839,"ĠRock":10840,"ĠGalle":10841,"Ġhong":10842,"Ġrites":10843,"igui":10844,"ĠNet":10845,"ĠHab":10846,"ĠHann":10847,"Ġraff":10848,"imme":10849,"onnier":10850,"Ġmodule":10851,"Ġtraject":10852,"Ġnombres":10853,"ĠWat":10854,"ĠKhan":10855,"Ġdisait":10856,"ctrice":10857,"Ġcaroling":10858,"angent":10859,"Ġ57":10860,"Ġreprenant":10861,"Ġreptiles":10862,"Ġveulent":10863,"Ġaccro":10864,"Ġrives":10865,"ĠSebastian":10866,"Ġcase":10867,"Ġproduite":10868,"Ġapporter":10869,"Ġgrandeur":10870,"Ġspontane":10871,"Ġmetal":10872,"Ġempire":10873,"exprimer":10874,"eneuve":10875,"Ġhumide":10876,"Ġregarde":10877,"dications":10878,"Ġdisposant":10879,"trices":10880,"Ġreconnaiss":10881,"Ġdistances":10882,"ĠIsland":10883,"ĠBrel":10884,"Ġtraverser":10885,"sidentiel":10886,"Ġartistiques":10887,"Ġ1866":10888,"ĠSpir":10889,"Ġdrame":10890,"iosite":10891,"Ġcraint":10892,"2009":10893,"efficacite":10894,"Ġflui":10895,"ĠFrances":10896,"ĠBenjamin":10897,"lish":10898,"Ġressort":10899,"humour":10900,"nombre":10901,"Ġinclut":10902,"Ġfaubourg":10903,"ĠRoub":10904,"Ġterminus":10905,"ĠExp":10906,"Ġrenouveau":10907,"Ġsexuelle":10908,"Ġconvaincu":10909,"Ġusines":10910,"Ġpanneau":10911,"ĠVirgile":10912,"Ġvolontaires":10913,"Ġvolontairement":10914,"monstration":10915,"ĠSkopje":10916,"Ġoublier":10917,"Ġrecommande":10918,"siasme":10919,"Ġcarbone":10920,"ĠRonchamp":10921,"ĠSaturn":10922,"ĠAvignon":10923,"ĠInstitu":10924,"ĠErnest":10925,"Ġhasard":10926,"bdomadaire":10927,"ĠRussell":10928,"ĠLOSC":10929,"visionnement":10930,"ĠNeptune":10931,"Ac":10932,"OI":10933,"Site":10934,"bris":10935,"cot":10936,"crase":10937,"fu":10938,"gs":10939,"gate":10940,"gations":10941,"lux":10942,"mith":10943,"mayer":10944,"ngler":10945,"tos":10946,"tales":10947,"uille":10948,"Ġlig":10949,"Ġpira":10950,"Ġcris":10951,"incar":10952,"Ġfri":10953,"quette":10954,"omor":10955,"Ġenleve":10956,"meutes":10957,"als":10958,"rose":10959,"Ġduo":10960,"Ġvign":10961,"sep":10962,"riau":10963,"Ġconduire":10964,"ĠMen":10965,"ĠMene":10966,"Ġgig":10967,"atus":10968,"cialement":10969,"ĠAure":10970,"ĠAlexis":10971,"ĠBy":10972,"ĠBod":10973,"Ġchars":10974,"ĠTche":10975,"ĠToccatina":10976,"ĠTristan":10977,"ĠRD":10978,"ĠFla":10979,"ĠFurt":10980,"cheurs":10981,"ĠGames":10982,"Ġnef":10983,"oport":10984,"rielle":10985,"Ġaventure":10986,"Ġmoine":10987,"ĠLaw":10988,"Ġobe":10989,"onnements":10990,"Ġconscient":10991,"ivern":10992,"Ġalge":10993,"Ġallonge":10994,"avril":10995,"ĠWilson":10996,"Ġfini":10997,"sentait":10998,"Ġrochers":10999,"oblig":11000,"mber":11001,"Ġserp":11002,"Ġinstant":11003,"Ġtimbres":11004,"Ġathe":11005,"Ġcoff":11006,"jeu":11007,"Ġtouristiques":11008,"Ġexplication":11009,"Ġquelconque":11010,"odor":11011,"Ġmalheure":11012,"Ġspons":11013,"Ġaffronte":11014,"Ġindienne":11015,"avion":11016,"osex":11017,"Ġgouvern":11018,"Ġparcour":11019,"ĠSher":11020,"Ġsuppression":11021,"Ġ[...].":11022,"ĠConfe":11023,"dailles":11024,"Ġ1891":11025,"ĠLuke":11026,"gulier":11027,"anciens":11028,"Ġ1883":11029,"Ġbatailles":11030,"Ġbattant":11031,"2004":11032,"Ġflux":11033,"ajoutent":11034,"Ġsouffre":11035,"ĠRenault":11036,"Ġtombeau":11037,"Ġaligne":11038,"ĠChampionnat":11039,"Ġphotographie":11040,"Ġdiminuer":11041,"ĠHollande":11042,"uyer":11043,"publicaine":11044,"Ġdominant":11045,"ĠVIIe":11046,"Ġcroisement":11047,"Ġlourdes":11048,"ĠVenize":11049,"Ġsuccessives":11050,"Ġvertus":11051,"Ġmobilise":11052,"adapter":11053,"ĠMoscou":11054,"Ġcatholic":11055,"ĠAntony":11056,"ĠMississi":11057,"Amiens":11058,"oxyde":11059,"Ġfaciliter":11060,"sopotam":11061,"Ġlentement":11062,"ĠAymon":11063,"Ġgratuite":11064,"Ġdoigts":11065,"Gargan":11066,"ĠAffaires":11067,"Ġtrentaine":11068,"ĠFurtwa":11069,"02":11070,"OS":11071,"VD":11072,"Val":11073,"bis":11074,"cen":11075,"cour":11076,"cois":11077,"dag":11078,"horizon":11079,"juge":11080,"ken":11081,"niste":11082,"rum":11083,"wan":11084,"yrus":11085,"áĥ":11086,"Ġpoit":11087,"Ġpionn":11088,"Ġare":11089,"aniques":11090,"Ġcry":11091,"techn":11092,"ticule":11093,"questre":11094,"arisation":11095,"Ġlab":11096,"Ġfume":11097,"Ġflanc":11098,"Ġrepar":11099,"roce":11100,"roise":11101,"Ġpara":11102,"Ġparfait":11103,"Ġparlent":11104,"rifie":11105,"sifie":11106,"tamorph":11107,"Ġcommentaires":11108,"Ġunion":11109,"Ġplas":11110,"ĠPick":11111,"âĢ²":11112,"ĠBor":11113,"ĠBavie":11114,"Ġintr":11115,"Ġinond":11116,"unions":11117,"Ġprose":11118,"Ġchrom":11119,"illement":11120,"abelle":11121,"ĠRap":11122,"ĠFlam":11123,"ices":11124,"icale":11125,"ĠGun":11126,"Ġrumeurs":11127,"opus":11128,"aptise":11129,"brer":11130,"rieuse":11131,"point":11132,"Ġtraction":11133,"Ġnomination":11134,"Ġcomportent":11135,"ĠChac":11136,"ĠChamb":11137,"ĠWer":11138,"tinent":11139,"Ġdiss":11140,"Ġjeter":11141,"Ġclinique":11142,"truits":11143,"Laurent":11144,"lodie":11145,"Ġrenaissance":11146,"Ġpermettait":11147,"Ġconfront":11148,"ĠAlonso":11149,"trole":11150,"Ġvisites":11151,"annonce":11152,"Ġoffrant":11153,"ĠBeet":11154,"Ġoptim":11155,"Ġempre":11156,"Ġorganisent":11157,"Ġagressi":11158,"ows":11159,"Ġamoureux":11160,"Ġattendant":11161,"Ġrelatif":11162,"Ġvenait":11163,"ĠBreton":11164,"gative":11165,"Ġdistinctes":11166,"Ġmagique":11167,"right":11168,"Ġpsychologique":11169,"Ġcitoyen":11170,"ĠCorne":11171,"Ġaugmenter":11172,"oung":11173,"Ġreproduire":11174,"cessairement":11175,"effort":11176,"Ġ1851":11177,"morency":11178,"hannes":11179,"Ġgrosse":11180,"urgence":11181,"Ġ1872":11182,"Ġconfection":11183,"ĠRoumanie":11184,"Ġnavale":11185,"Ġconstamment":11186,"drau":11187,"Ġvraie":11188,"ĠMagazine":11189,"ĠDonald":11190,"ĠDoumer":11191,"immigration":11192,"Ġnorve":11193,"Ġspirituelle":11194,"Ġprimaires":11195,"glementation":11196,"Ġpratiquer":11197,"Ġindividuelles":11198,"Ġfamiliale":11199,"Ġrayons":11200,"Ġpalette":11201,"urbanisation":11202,"Ġendommage":11203,"pertoire":11204,"exercice":11205,"ĠGrenoble":11206,"Ġtranqu":11207,"Ġgymn":11208,"Ġencadre":11209,"ĠProst":11210,"Ġappuye":11211,"Ġrassembl":11212,"autonomie":11213,"ĠInstitute":11214,"Liste":11215,"aac":11216,"ativement":11217,"cil":11218,"dle":11219,"lar":11220,"play":11221,"suites":11222,"tou":11223,"tnam":11224,"yll":11225,"Ġdin":11226,"relles":11227,"Ġpales":11228,"Ġsch":11229,"leine":11230,"lets":11231,"Ġmasses":11232,"urier":11233,"Ġlever":11234,"Ġfan":11235,"ratrice":11236,"Ġtom":11237,"med":11238,"Ġreque":11239,"Ġreme":11240,"autique":11241,"chit":11242,"ĠCine":11243,"Ġbrie":11244,"ĠSo":11245,"Ġcond":11246,"Ġconduisent":11247,"ĠMende":11248,"Ġgagn":11249,"Ġgagnent":11250,"atolie":11251,"ĠAlan":11252,"ĠBla":11253,"Ġint":11254,"Ġsurfaces":11255,"dioc":11256,"diments":11257,"dimbourg":11258,"Ġchasser":11259,"agra":11260,"Ġsond":11261,"ĠRh":11262,"ĠRet":11263,"Ġhis":11264,"Ġnett":11265,"ĠJou":11266,"ouvrir":11267,"ladi":11268,"Ġmotive":11269,"Ġtraduire":11270,"Ġprouver":11271,"trum":11272,"Ġsession":11273,"ĠChap":11274,"ĠWagner":11275,"ĠWii":11276,"cutions":11277,"ĠOl":11278,"ĠOttom":11279,"ĠDef":11280,"belle":11281,"tenait":11282,"Ġserv":11283,"ĠReal":11284,"issage":11285,"gly":11286,"Ġrire":11287,"Ġautobi":11288,"Ġexpression":11289,"Ġ95":11290,"Ġ68":11291,"visme":11292,"visible":11293,"Ange":11294,"motion":11295,"gionaux":11296,"fiction":11297,"Ġindiquant":11298,"Ġemporte":11299,"ĠXVI":11300,"Ġtox":11301,"Ġamie":11302,"ĠStock":11303,"Ġdevenus":11304,"Ġbouc":11305,"Ġfontaine":11306,"Ġdisposer":11307,"Ġreconnaissent":11308,"ĠColmar":11309,",,,,.":11310,"portunite":11311,"Ġartisans":11312,"Ġhybri":11313,"Ġmagist":11314,"Ġcoloniale":11315,"nagements":11316,"rigord":11317,"nove":11318,"hammad":11319,"Ġnulle":11320,"tablies":11321,"ĠBaltimore":11322,"Ġlogo":11323,"Ġcomplexite":11324,"Ġsouffrance":11325,"ĠBrook":11326,"Ġouverts":11327,"Ġoriental":11328,"Ġquittent":11329,"ĠBritannique":11330,"ĠVIIIe":11331,"Ġhostile":11332,"Ġglacier":11333,"ĠJackson":11334,"Ġparisienne":11335,"Ġpoussie":11336,"Ġrapprochement":11337,"effectue":11338,"Ġrallie":11339,"Ġremarquables":11340,"Ġscolaires":11341,"Ġcroisade":11342,"Ġinconnue":11343,"oxyge":11344,"Ġbombardement":11345,"Ġprestige":11346,"Ġbourgeoisie":11347,"Ġorthodoxes":11348,"chetnik":11349,"Ġtaxes":11350,"Ġmilitants":11351,"Ġponeys":11352,"chantillon":11353,"ĠBabylone":11354,"ĠJustinien":11355,"ĠConnaissance":11356,"Jusqu":11357,"Ġnocturne":11358,"ĠSpirou":11359,"ĠMississippi":11360,"08":11361,"Achille":11362,"Di":11363,"NC":11364,"Nic":11365,"Ouv":11366,"Tout":11367,"fier":11368,"goire":11369,"mos":11370,"nonc":11371,"eno":11372,"ona":11373,"reuse":11374,"Ġprairies":11375,"anisme":11376,"ortait":11377,"Ġfirent":11378,"oman":11379,"alco":11380,"row":11381,"Ġparfaite":11382,"aube":11383,"chausse":11384,"siers":11385,"ĠCologne":11386,"Ġbombe":11387,"ĠSun":11388,"ĠSig":11389,"ĠSain":11390,"ĠSenn":11391,"Ġplomb":11392,"ĠPop":11393,"ĠMist":11394,"ĠMot":11395,"ĠMouse":11396,"ĠMess":11397,"Ġgolfe":11398,"mpes":11399,"cida":11400,"lley":11401,"Ġpoursuite":11402,"ĠBag":11403,"ranus":11404,"ĠDa":11405,"ĠDay":11406,"dict":11407,"Ġchutes":11408,"agence":11409,"ĠTest":11410,"Ġsonate":11411,"ĠRho":11412,"ĠGogh":11413,"Ġexistait":11414,"inscription":11415,"institution":11416,"Ġravage":11417,"iron":11418,"ĠVoi":11419,"onnet":11420,"tris":11421,"parent":11422,"Ġarb":11423,"ayes":11424,"entement":11425,"ĠWol":11426,"Ġpoils":11427,"Ġdisant":11428,"culer":11429,"phal":11430,"tiser":11431,"Ġpuissent":11432,"mies":11433,"Ġyiddish":11434,"Ġ450":11435,"Ġcoin":11436,"Ġinternes":11437,"Ġsyll":11438,"roulement":11439,"Ġveuve":11440,"empl":11441,"ĠAnth":11442,"Ġcommunale":11443,"Ġminer":11444,"ĠSeigneur":11445,"igny":11446,"Ġ1789":11447,"trophes":11448,"Ġmalades":11449,"Ġremportant":11450,"ĠYello":11451,"Ġromains":11452,"Ġgrandement":11453,"Ġmilliard":11454,"Ġ101":11455,"Ġhomoge":11456,"Ġcrimes":11457,"ĠZola":11458,"ĠThom":11459,"cker":11460,"Ġroyaux":11461,"ranto":11462,"Ġparticules":11463,"gnon":11464,"Ġsouris":11465,"Ġchevaliers":11466,"Ġpositive":11467,"Ġrelate":11468,"Ġwh":11469,"Ġbiologique":11470,"Ġtriomphe":11471,"augmenter":11472,"ĠPerry":11473,"2006":11474,"partemental":11475,"Ġbordure":11476,"Ġ1852":11477,"Ġsuffit":11478,"Ġdocumentation":11479,"Ġinclus":11480,"mocratique":11481,"clarant":11482,"Ġexceptionnel":11483,"laboration":11484,"Ġoccupants":11485,"Ġthermique":11486,"Ġnormale":11487,"automobile":11488,"Ġnazis":11489,"ĠBanque":11490,"ĠWarner":11491,"Ġrituel":11492,"coslova":11493,"Ġmasculin":11494,"Ġfluvi":11495,"pertorie":11496,"Ġpartenariat":11497,"ĠNieder":11498,"Ġstrictement":11499,"Ġconsacrer":11500,"esclavage":11501,"Ġmotivation":11502,"Ġpharaon":11503,"adoption":11504,"ackeray":11505,"ĠBourguiba":11506,"Ġclarinette":11507,"ĠRoubaix":11508,"AF":11509,"Hy":11510,"IV":11511,"Nord":11512,"Ore":11513,"^{":11514,"acide":11515,"bauche":11516,"ku":11517,"mur":11518,"pra":11519,"pau":11520,"pse":11521,"pons":11522,"pouille":11523,"Ġdates":11524,"estime":11525,"Ìģ).":11526,"Ġlistes":11527,"Ġput":11528,"Ġcorte":11529,"artis":11530,"orations":11531,"Ġfrai":11532,"Ġuse":11533,"usent":11534,"Ġretient":11535,"Ġreviennent":11536,"Ġredou":11537,"vements":11538,"ĠCore":11539,"ĠCup":11540,"Ġbl":11541,"ĠSquare":11542,"ĠBh":11543,"Ġinu":11544,"Ġintra":11545,"Ġintime":11546,"ĠEll":11547,"ulf":11548,"ĠIt":11549,"ĠImp":11550,"ĠFau":11551,"Ġanat":11552,"cheur":11553,"Ġpasses":11554,"ĠLeague":11555,"ĠNam":11556,"riette":11557,"ĠHamb":11558,"poques":11559,"Ġmotor":11560,"ĠLake":11561,"Ġprome":11562,"parties":11563,"umie":11564,"ĠWolf":11565,"illages":11566,"Ġterrible":11567,"excl":11568,"phore":11569,"Ġrecouvert":11570,"mbles":11571,"ĠMarti":11572,"ĠMarguerite":11573,"clair":11574,"minines":11575,"ppes":11576,"Ġ58":11577,"Ġinterdite":11578,"Ġaccroche":11579,"Ġgravite":11580,"Ġabbe":11581,"misphe":11582,"Ġvieill":11583,"Ġeffort":11584,"entir":11585,"Ġformellement":11586,"ĠBey":11587,"ographes":11588,"Ġopinion":11589,"Ġindiffe":11590,"Ġhabitations":11591,"Ġouvrie":11592,"ĠIndes":11593,"Ġincerta":11594,"Ġdoux":11595,"Ġagent":11596,"Ġstable":11597,"Ġgarn":11598,"umeur":11599,"Ġdisputer":11600,"Ġtraiter":11601,"ĠHey":11602,"Ġfaisaient":11603,"Ġtablettes":11604,"Ġ1861":11605,"Ġdistingu":11606,"incendie":11607,"Ġcorrespondent":11608,"Ġbreton":11609,"ocrate":11610,"sistants":11611,"Ġ1853":11612,"ternel":11613,"ĠTournoi":11614,"Ġvariable":11615,"arnais":11616,"Ġpattes":11617,"Ġfabri":11618,"ourgeoise":11619,"Ġgalax":11620,"Ġrassemblement":11621,"Ġchantiers":11622,"Ġnormes":11623,"Ġmobilier":11624,"Exposition":11625,"Ġvolcanique":11626,"Ġgrottes":11627,"Ġopposant":11628,"ĠMaxim":11629,"imaginaire":11630,"ĠKraus":11631,"troitement":11632,"Ġprochaine":11633,"Ġblessure":11634,"Ġrachete":11635,"escalade":11636,"goslavie":11637,"Ġrejoignent":11638,"Ġdissim":11639,"Ġvedette":11640,"ĠMozart":11641,"Ġcinquantaine":11642,"ĠCroisic":11643,"ĠBeethoven":11644,"/,":11645,"Alle":11646,"Blanc":11647,"EM":11648,"Sal":11649,"bai":11650,"bury":11651,"gralite":11652,"morial":11653,"nais":11654,"poli":11655,"rint":11656,"Î»":11657,"Ïī":11658,"Ø§":11659,"Ġdig":11660,"Ġloup":11661,"enrich":11662,"Ġpente":11663,"Ġpire":11664,"Ġpict":11665,"Ġsarc":11666,"orbite":11667,"Ġfav":11668,"Ġfaud":11669,"Ġfaill":11670,"omer":11671,"Ġdues":11672,"ĠLomb":11673,"Ġvos":11674,"Ġvulg":11675,"anson":11676,"ĠCode":11677,"Ġbib":11678,"olence":11679,"Ġconventions":11680,"Ġglor":11681,"ĠAC":11682,"Ġjury":11683,"ĠBoe":11684,"randes":11685,"unification":11686,"ĠDro":11687,"trer":11688,"actualite":11689,"oso":11690,"ender":11691,"ĠFour":11692,"ĠGib":11693,"Ġrayon":11694,"andre":11695,"ierry":11696,"Ġmole":11697,"ĠLaf":11698,"ĠVieux":11699,"Ġnommer":11700,"Ġconsens":11701,"Ġcomposer":11702,"Ġacque":11703,"Ġ1800":11704,"ĠChal":11705,"ĠWel":11706,"ĠKai":11707,"Ġmonarch":11708,"Ġdisse":11709,"Ġimpression":11710,"ampli":11711,"verg":11712,"Åĵud":11713,"ĠMaroc":11714,"Ġserre":11715,"thique":11716,"Ġrenoncer":11717,"Ġcourtes":11718,"Ġreposant":11719,"ralisme":11720,"Ġexpansion":11721,"Ġ66":11722,"ĠAlger":11723,"Ġtransmis":11724,"icilement":11725,"Ġvieil":11726,"valuation":11727,"zeur":11728,"ugue":11729,"ĠPein":11730,"arthe":11731,"gitimite":11732,"2013":11733,"2011":11734,"Ġentra":11735,"gionales":11736,"Ġdifficilement":11737,"Ġaffirment":11738,"Ġcrime":11739,"Ġreflet":11740,"accro":11741,"Ġdevance":11742,"Ġtraitements":11743,"Ġmerveille":11744,"ĠRobinson":11745,"Ġsituent":11746,"ĠConte":11747,"Ġsuscit":11748,"ducteurs":11749,"offensive":11750,"Ġcompagnons":11751,"Ġciviles":11752,"Ġ1858":11753,"ĠMercure":11754,"Ġdiscussion":11755,"importants":11756,"Ġrespecter":11757,"ĠSymph":11758,"Ġambitie":11759,"Ġtaches":11760,"Ġoccidentaux":11761,"Ġpubliquement":11762,"Ġdemandes":11763,"Ġphotographies":11764,"Ġpapes":11765,"ĠGiuse":11766,"Ġconservateur":11767,"Ġheureuse":11768,"ascension":11769,"Ġtalents":11770,"Ġmonoplaces":11771,"ĠWilhelm":11772,"Ġtortue":11773,"Ġpoudre":11774,"Ġdescendants":11775,"Ġlicence":11776,"ĠBruins":11777,"installent":11778,"Ġuniforme":11779,"burgh":11780,"ĠLink":11781,"Ġplaques":11782,"Ġamplific":11783,"Ġheurte":11784,"Ġallusion":11785,"Ġaccentue":11786,"URSS":11787,"Ġdeviendra":11788,"ĠStephen":11789,"Ġhospitalier":11790,"Ġfatigue":11791,"Ġhorizont":11792,"Ġtutelle":11793,"Ġinnovations":11794,"ĠPublic":11795,"insurrection":11796,"\",":11797,"2000":11798,"Cal":11799,"Che":11800,"Dom":11801,"dor":11802,"das":11803,"file":11804,"hier":11805,"lung":11806,"more":11807,"mature":11808,"nalise":11809,"tuelle":11810,"vy":11811,"vins":11812,"vard":11813,"zen":11814,"ÌĨ":11815,"Ġdits":11816,"Ġsigner":11817,"incl":11818,"erce":11819,"ardi":11820,"aristocra":11821,"urich":11822,"Ġfausse":11823,"Ġfuir":11824,"Ġteste":11825,"alition":11826,"rob":11827,"Ġparts":11828,"Ġparodie":11829,"ĠLux":11830,"Ġnuis":11831,"Ġnave":11832,"ĠnÅĵud":11833,"autes":11834,"rimente":11835,"ĠCole":11836,"ĠCice":11837,"ĠCaste":11838,"ashi":11839,"Ġbains":11840,"Ġbox":11841,"ĠSel":11842,"ĠSwe":11843,"Ġconvic":11844,"ĠPass":11845,"ĠPakistan":11846,"Ġgau":11847,"cius":11848,"cider":11849,"ĠAmb":11850,"ĠBil":11851,"ĠBomb":11852,"ĠBrig":11853,"Ġinhabit":11854,"Ġinacheve":11855,"ĠDin":11856,"ĠDav":11857,"ĠIb":11858,"abond":11859,"ĠTru":11860,"utri":11861,"ĠRid":11862,"ĠRoissy":11863,"ĠFir":11864,"apo":11865,"ĠHun":11866,"Ġrall":11867,"Ġconsulte":11868,"ritz":11869,"Ġtril":11870,"Ġcontribution":11871,"Ġarbre":11872,"Ġarrondissement":11873,"ĠEnter":11874,"adresse":11875,"Ġ1813":11876,"phant":11877,"tissant":11878,"Ġrecords":11879,"truites":11880,"ampleur":11881,"ifier":11882,"ĠReg":11883,"ĠRevue":11884,"Ġcote":11885,"tones":11886,"allet":11887,"Ġconnait":11888,"Ġgramm":11889,"Ġgravitation":11890,"Ġabords":11891,"Ġcommunique":11892,"ciences":11893,"Ġautoch":11894,"Ġ63":11895,"Ġ69":11896,"Ġprincipaute":11897,"Ġfuturs":11898,"Ġ79":11899,"Ġappris":11900,"Ġapplication":11901,"Ġmaltais":11902,"ĠYves":11903,"anneau":11904,"Ġmontage":11905,"Ġaffronter":11906,"Ġempris":11907,"Ġvols":11908,"Ġlivrer":11909,"Ġautrement":11910,"accroi":11911,"Ġgardiens":11912,"atrix":11913,"Ġcommerces":11914,"Ġeffectif":11915,"iano":11916,"quentes":11917,"Ġ1894":11918,"Ġ1903":11919,"attente":11920,"canisme":11921,"Ġcherchent":11922,"Ġartisan":11923,"Ġ1862":11924,"Ġ1868":11925,"ĠLucky":11926,"Ġtriom":11927,"ĠSpyro":11928,"Ġactuelles":11929,"ĠManet":11930,"Ġoriginaires":11931,"fenseurs":11932,"Ġbretonne":11933,"Ġ1856":11934,"Ġ1790":11935,"habitation":11936,"Ġambition":11937,"Ġoccidentales":11938,"ĠBohe":11939,"ĠStarr":11940,"Ġembarque":11941,"ĠRomain":11942,"Ġportait":11943,"Ġpoisson":11944,"banais":11945,"SCO":11946,"Ġpermanence":11947,"Ġcandidature":11948,"Ġsinon":11949,"ĠBlacks":11950,"Ġvainqueurs":11951,"ĠFloride":11952,"Ġspatial":11953,"Ġlicenc":11954,"ĠRaoul":11955,"ĠBourbon":11956,"ĠAlice":11957,"reyfus":11958,"Ġmixte":11959,"identifier":11960,"Ġmusulmane":11961,"Ġdictat":11962,"Ġmaternelle":11963,"Ġvacances":11964,"Ġescalier":11965,"Ressource":11966,"Ġaffirmant":11967,"Ġcatastrophe":11968,"Ġgravure":11969,"Ġcellules":11970,"elligan":11971,"Ġtunnel":11972,"ĠForster":11973,"ĠSardaigne":11974,"ĠMillerand":11975,"Ġarguments":11976,"totalite":11977,"Ġtrajectoire":11978,"ĠNiedermayer":11979,"FI":11980,"RT":11981,"Rob":11982,"Uru":11983,"WV":11984,"bation":11985,"cass":11986,"gli":11987,"gnes":11988,"iac":11989,"lise":11990,"mence":11991,"nor":11992,"ning":11993,"odique":11994,"prin":11995,"poration":11996,"tourne":11997,"esque":11998,"Ġpit":11999,"Ġpath":12000,"Ġportail":12001,"tection":12002,"arl":12003,"arrondissement":12004,"Ġlectures":12005,"Ġfine":12006,"Ġfic":12007,"rases":12008,"roix":12009,"vez":12010,"ĠLog":12011,"ĠLumie":12012,"Ġquinte":12013,"Ġvacc":12014,"astro":12015,"Ġbann":12016,"olphe":12017,"ĠSing":12018,"ĠPres":12019,"ĠPhe":12020,"ĠPale":12021,"athe":12022,"ĠAlsace":12023,"ĠBoule":12024,"less":12025,"Ġproto":12026,"ĠDy":12027,"ĠElli":12028,"Ġchair":12029,"ulteurs":12030,"ĠIo":12031,"ĠTak":12032,"uther":12033,"ĠRick":12034,"endance":12035,"ĠFig":12036,"Ġanc":12037,"Ġangle":12038,"igle":12039,"ĠLeopold":12040,"Ġdialogues":12041,"viers":12042,"ĠNaur":12043,"rieusement":12044,"ĠHon":12045,"ĠHum":12046,"Ġexten":12047,"ĠLaur":12048,"Ġtoulous":12049,"parations":12050,"implantation":12051,"Ġarra":12052,"Ġarrange":12053,"Ġalte":12054,"Ġforum":12055,"ava":12056,"ĠChau":12057,"ĠWill":12058,"Ġpodium":12059,"ĠOt":12060,"iforme":12061,"ĠmanÅĵuvres":12062,"Ġadmet":12063,"Ġgratte":12064,"Ġexploitation":12065,"Ġ99":12066,"ĠSeuls":12067,"Ġtransmet":12068,"Ġnationalisme":12069,"Ġ78":12070,"renti":12071,"Ġapportent":12072,"Ġoffrir":12073,"Ġaffron":12074,"ISSN":12075,"ĠGrandes":12076,"Ġorganiser":12077,"apport":12078,"Ġ140":12079,"Ġrestait":12080,"Ġquarantaine":12081,"Ġvives":12082,"Ġdonna":12083,"affrontent":12084,"ĠJacky":12085,"ĠRobic":12086,"Alain":12087,"Ġviolents":12088,"Ġtraversent":12089,"unior":12090,"tudiant":12091,"Ġdisparaissent":12092,"tablissent":12093,"Ġrevendications":12094,"Ġpilo":12095,"ĠCannes":12096,"ĠMontmorency":12097,"Ġmagie":12098,"Ġstands":12099,"piscop":12100,"2007":12101,"Ġcertitude":12102,"Ġ1855":12103,"Ġsemblables":12104,"ĠSerge":12105,"Ġdescendre":12106,"Ġmusicales":12107,"Ġvariation":12108,"Ġfranchir":12109,"ĠRenard":12110,"barque":12111,"ĠMidi":12112,"ĠâĪĴ":12113,"Ġpoursuivent":12114,"Ġterminent":12115,"Ġeffectivement":12116,"ĠRosa":12117,"Ġarchitectes":12118,"Ġguerriers":12119,"ĠBritannica":12120,"Ġchauffe":12121,"ĠAtlantique":12122,"Ġconcerto":12123,"Ġjaunes":12124,"Ġottomane":12125,"Ġralen":12126,"Ġenvironn":12127,"Ġconcentrer":12128,"Ġfamilial":12129,"Ġoppos":12130,"Ġinconnu":12131,"vacue":12132,"Ġdiplomatique":12133,"Ġcouverte":12134,"Ġcontribuent":12135,"taphore":12136,"Ġbook":12137,"Ġterritoriale":12138,"Ġinsuffisante":12139,"Ġdignite":12140,"Ġsatellite":12141,"ĠChevalier":12142,"ĠHeinrich":12143,"ÅĴuvres":12144,"Ġsagesse":12145,"ĠKennedy":12146,"Ġravitaillement":12147,"Ġculminant":12148,"Ġanthrop":12149,"Ġrigueur":12150,"Ġcatholicisme":12151,"Ġpoitrine":12152,"ĠOttomans":12153,"Har":12154,"Muse":12155,"OL":12156,"Ob":12157,"TV":12158,"court":12159,"franc":12160,"gons":12161,"gences":12162,"games":12163,"hon":12164,"nature":12165,"ponyme":12166,"voy":12167,"Ġdus":12168,"Ġdons":12169,"ĠlÊ¼":12170,"Ġlynx":12171,"Ġpop":12172,"Ġsombres":12173,"Ġcoupes":12174,"teries":12175,"tica":12176,"leu":12177,"leman":12178,"indique":12179,"ieuses":12180,"Ġfonc":12181,"quez":12182,"Ġengl":12183,"Ġtoi":12184,"Ġtons":12185,"Ġtric":12186,"Ġturb":12187,"ĠLag":12188,"deau":12189,"Ġboute":12190,"ĠSong":12191,"ĠSare":12192,"Ġconcession":12193,"ĠPN":12194,"ĠMoi":12195,"ĠMgr":12196,"Ġghe":12197,"ciaux":12198,"cialite":12199,"ĠBran":12200,"ĠBet":12201,"ĠBata":12202,"ĠBasile":12203,"Ġind":12204,"Ġincon":12205,"Ġsurvient":12206,"Ġcham":12207,"uies":12208,"ĠTy":12209,"ĠTay":12210,"ĠTrib":12211,"ĠRab":12212,"Ġrub":12213,"occuper":12214,"aps":12215,"oisse":12216,"Ġsume":12217,"ĠNick":12218,"onnage":12219,"Ġaval":12220,"Ġpren":12221,"trent":12222,"Ġcompren":12223,"Ġcompatri":12224,"ĠKa":12225,"objets":12226,"Ġcarn":12227,"ĠDeuts":12228,"cipro":12229,"ampes":12230,"Ġserbe":12231,"Ġtimbre":12232,"ĠâĢ°":12233,"Ġobtenue":12234,"Ġrennais":12235,"ĠAnna":12236,"Ġbienve":12237,"Ġgrad":12238,"ĠAlphonse":12239,"Ġtranspar":12240,"icienne":12241,"Ġvieilles":12242,"Ġprimor":12243,"Ġromaines":12244,"ĠArsenal":12245,"Ġouvrir":12246,"Arc":12247,"ophane":12248,"Ġdouzie":12249,"exprime":12250,"ĠThor":12251,"Ġporteur":12252,"Ġroyales":12253,"currence":12254,"cisive":12255,"Ġamont":12256,"Ġamende":12257,"Ġquarts":12258,"Ġcapitalisme":12259,"ĠSherman":12260,"Ġatteinte":12261,"affiche":12262,"Ġattribuer":12263,"Alge":12264,"ĠGreat":12265,"Ġcollines":12266,"Ġpromu":12267,"achel":12268,"ĠKey":12269,"Ġsortant":12270,"Ġsuccesseurs":12271,"ĠMotte":12272,"tisseurs":12273,"ĠAndrea":12274,"Ġvaincu":12275,"Ġambitions":12276,"1999":12277,"Ġmassifs":12278,"Ġchapitres":12279,"Ġcomparable":12280,"ĠLibe":12281,"ĠMiy":12282,"ĠÎ¼":12283,"ratoire":12284,"Ġmythique":12285,"ĠJustice":12286,"Ġsurpris":12287,"liminer":12288,"Ġparoissi":12289,"Ġdisciplines":12290,"ĠJackie":12291,"Ġrenforcement":12292,"Ġtortues":12293,"ĠAllen":12294,"ĠCatal":12295,"Ġaveug":12296,"Ġpossessions":12297,"Ġweb":12298,"Ġgrimpe":12299,"Ġprestigie":12300,"Ġsatisfais":12301,"siastiques":12302,"Ġautrichien":12303,"ĠKirby":12304,"ĠTozeur":12305,"Ġrendez":12306,"Ġdatation":12307,"ĠBoulogne":12308,"Ressources":12309,"Ġgaleries":12310,"ĠDenver":12311,"Ġgameplay":12312,"Ġdictionnaires":12313,"Ġsignificative":12314,"ĠÄĲ":12315,"Ġbiblique":12316,"ĠGiuseppe":12317,"'t":12318,"Apol":12319,"Vers":12320,"brite":12321,"borde":12322,"cdo":12323,"fiance":12324,"vente":12325,"ËĪ":12326,"rete":12327,"Ġpist":12328,"Ġpenche":12329,"Ġsale":12330,"Ġsaga":12331,"Ġsultan":12332,"ank":12333,"tites":12334,"leurs":12335,"invention":12336,"nels":12337,"Ġmondes":12338,"ily":12339,"Ġfis":12340,"Ġfoc":12341,"Ġfolie":12342,"omon":12343,"race":12344,"Ġtuber":12345,"Ġreti":12346,"esthe":12347,"ĠCant":12348,"ĠCri":12349,"Ġplates":12350,"ĠPresses":12351,"ĠPIB":12352,"cies":12353,"ĠAub":12354,"lica":12355,"livre":12356,"ĠBlo":12357,"unie":12358,"unique":12359,"Ġchi":12360,"ffert":12361,"ĠTs":12362,"ĠTas":12363,"ĠTam":12364,"ĠGai":12365,"ĠGilles":12366,"ĠGood":12367,"Ġhormis":12368,"oper":12369,"ĠNature":12370,"cesseurs":12371,"Ġprussi":12372,"parant":12373,"partie":12374,"Ġtromp":12375,"Ġacquise":12376,"umente":12377,"Ġentretient":12378,"Ġdispositions":12379,"ingue":12380,"oya":12381,"phone":12382,"version":12383,"mides":12384,"mirov":12385,"Ġinstitution":12386,"Ġjustifier":12387,"assaut":12388,"Ġfiliale":12389,"ĠJeune":12390,"Ġintercommun":12391,"Ġinterview":12392,"ventuellement":12393,"Ġcourbe":12394,"matie":12395,"Ġexporte":12396,"Ġexprimer":12397,"ody":12398,"Ġ82":12399,"Ang":12400,"ĠYoung":12401,"adelle":12402,"2018":12403,"ĠBeaucoup":12404,"Ġsollicite":12405,"Ġcroissant":12406,"Ġcases":12407,"Ġfondent":12408,"Ġfondateurs":12409,"ĠZurich":12410,"Ġenferme":12411,"cises":12412,"Ġfigurant":12413,"ortable":12414,"Autre":12415,"lysse":12416,"Ġbaseball":12417,"Ġtextile":12418,"ĠQuoi":12419,"quettes":12420,"Ġsimplicite":12421,"ĠBell":12422,"ĠIslam":12423,"Ġprofession":12424,"Ġparticipant":12425,"ensives":12426,"couverts":12427,"Ġconclusions":12428,"Ġlogis":12429,"ĠWehr":12430,"doniens":12431,"ĠBroad":12432,"Ġvariables":12433,"Ġbanques":12434,"ĠConstance":12435,"Ġrecensements":12436,"richello":12437,"ĠâĨ":12438,"zzle":12439,"mocrates":12440,"Ġarchitecture":12441,"restation":12442,"liminatoires":12443,"ĠOuest":12444,"Ġsympathie":12445,"Ġcircuits":12446,"staff":12447,"Ġultime":12448,"domin":12449,"Ġchimiques":12450,"Ġprisonnier":12451,"effectu":12452,"Ġsauvegarde":12453,"Ġautonomie":12454,"ĠArabes":12455,"Ġavion":12456,"vacuation":12457,"approvisionnement":12458,"ĠAdams":12459,"Ġsouterrain":12460,"Ġrendement":12461,"Ġtactique":12462,"ĠCommunaute":12463,"Ġmystique":12464,"Ġfallait":12465,"ĠMathieu":12466,"Bernard":12467,"ĠJordan":12468,"ĠRadio":12469,"ĠJohnston":12470,"ĠGallery":12471,"ĠPickwick":12472,"Ġpalestin":12473,"Ġconsensus":12474,"aristocratie":12475,"178":12476,"300":12477,"Conc":12478,"Off":12479,"cerne":12480,"gine":12481,"iros":12482,"lyn":12483,"mante":12484,"nen":12485,"pant":12486,"siste":12487,"tosphe":12488,"ÅĤ":12489,"Îº":12490,"Ġlill":12491,"Ġaires":12492,"animite":12493,"anime":12494,"tide":12495,"oui":12496,"neau":12497,"Ġmors":12498,"rament":12499,"rapeu":12500,"Ġtendre":12501,"Ġrez":12502,"Ġreten":12503,"ouris":12504,"ĠLau":12505,"six":12506,"ĠCall":12507,"tai":12508,"Ġbic":12509,"Ġboise":12510,"Ġbasses":12511,"peaux":12512,"olles":12513,"ĠSto":12514,"Ġdanses":12515,"Ġcontiennent":12516,"ĠPit":12517,"ĠPower":12518,"ĠMme":12519,"Ġgorge":12520,"ued":12521,"ĠBamb":12522,"ĠBaule":12523,"Ġinattend":12524,"Ġproduisant":12525,"actrice":12526,"ĠTib":12527,"ĠToute":12528,"Ġsonorite":12529,"endrait":12530,"Ġhit":12531,"Ġroue":12532,"Ġrural":12533,"ĠLegend":12534,"ĠNSC":12535,"ĠNansen":12536,"ĠNelligan":12537,"Ġexception":12538,"Ġramener":12539,"Ġcommet":12540,"trant":12541,"Ġcomprise":12542,"Ġperturb":12543,"adhe":12544,"ĠWars":12545,"cutives":12546,"Ġserment":12547,"clen":12548,"finies":12549,"ĠReine":12550,"isson":12551,"III":12552,"Ġadministre":12553,"macht":12554,"auto":12555,"Ġchausse":12556,"Ġminie":12557,"Ġconfirmer":12558,"ĠSega":12559,"ignons":12560,"Ġfonce":12561,"Ġcultes":12562,"Ġdommages":12563,"Ġmatches":12564,"Ġemplacement":12565,"Ġexemplaire":12566,"auld":12567,"aulois":12568,"talon":12569,"ĠThoreau":12570,"ĠSchool":12571,"Ġsubir":12572,"Ġsubissent":12573,"lands":12574,"Ġessaie":12575,"Ġannuellement":12576,"ĠShar":12577,"Ġpatin":12578,"Ġfontaines":12579,"acha":12580,"ĠBarrichello":12581,"dochine":12582,"Ġcherchant":12583,"acier":12584,"limite":12585,"Ġhyper":12586,"ĠTemps":12587,"romaine":12588,"Ġoriginales":12589,"ĠCochin":12590,"Ġmunicipaux":12591,"Ġtendent":12592,"Ġvisiter":12593,"Ġitaliennes":12594,"Ġrelevant":12595,"Ġvariantes":12596,"Ġnostal":12597,"ĠSalon":12598,"Ġimmeubles":12599,"Ġmauvaises":12600,"Ġ1806":12601,"board":12602,"ĠHugues":12603,"Ġracont":12604,"Ġportion":12605,"Ġconcepts":12606,"Ġcollabor":12607,"ramide":12608,"Neige":12609,"wstone":12610,"Ġpousser":12611,"Ġnazi":12612,"Quand":12613,"opposer":12614,"Ġcroisie":12615,"Ġrecrute":12616,"dacteur":12617,"Ġcoiffe":12618,"ĠGustave":12619,"Ġmonstre":12620,"Ġtemporaire":12621,"Ġcalcaires":12622,"Ġintellectuel":12623,"astronomie":12624,"ĠLambert":12625,"Ġbassins":12626,"ĠMargaret":12627,"Ġpromenade":12628,"ridionale":12629,"Ġmessages":12630,"Ġsaints":12631,"Ġintellectuels":12632,"ĠPluton":12633,"ĠFrederick":12634,"Ġfourrure":12635,"ĠChantilly":12636,"NESCO":12637,"Ġcompilation":12638,"appareil":12639,"Ġvagues":12640,"ĠPublish":12641,"Ġconfiguration":12642,"ĠYellowstone":12643,"Ġprimordi":12644,"mirovsky":12645,"03":12646,"Af":12647,"GN":12648,"Oli":12649,"bule":12650,"cas":12651,"crans":12652,"fun":12653,"fenses":12654,"gau":12655,"hom":12656,"nu":12657,"nait":12658,"pos":12659,"Ġdog":12660,"Ġdette":12661,"Ġsque":12662,"Ġcaisse":12663,"tiver":12664,"artistes":12665,"itale":12666,"Ġtene":12667,"Ġremer":12668,"alt":12669,"Ġduchesse":12670,"Ġparame":12671,"ĠLas":12672,"Ġnains":12673,"chie":12674,"sies":12675,"sireux":12676,"ĠCulture":12677,"tax":12678,"Ġboue":12679,"Ġblas":12680,"ĠSui":12681,"ĠSub":12682,"ĠSum":12683,"ĠScu":12684,"ĠScience":12685,"Ġpluies":12686,"ĠPam":12687,"ĠMill":12688,"ĠMoun":12689,"ĠBud":12690,"ĠBaz":12691,"ĠDavis":12692,"dix":12693,"diennes":12694,"acquisition":12695,"ĠTon":12696,"utent":12697,"ĠFore":12698,"ĠFonde":12699,"Ġhaine":12700,"Ġnew":12701,"ĠJas":12702,"ĠNight":12703,"riels":12704,"Ġsachant":12705,"Ġexile":12706,"instruction":12707,"entrer":12708,"Ġoxy":12709,"Ġcomposent":12710,"Ġcontente":12711,"otyp":12712,"Ġ1820":12713,"Ġnov":12714,"Ġimposer":12715,"bey":12716,"beau":12717,"Ġorchest":12718,"Univers":12719,"olia":12720,"Ġjuger":12721,"Ġcoque":12722,"Ġrenfer":12723,"ĠAnubis":12724,"Ġaccrue":12725,"Ġabord":12726,"Ġchapeau":12727,"Ġexpressi":12728,"Ġassurant":12729,"Ġassurent":12730,"trop":12731,"ĠUS":12732,"ĠQuel":12733,"2016":12734,"Ġsolitaire":12735,"ĠAutre":12736,"ĠGeoff":12737,"Ġlocalement":12738,"Ġfondations":12739,"ĠThackeray":12740,"aura":12741,"Ġpersonnellement":12742,"Insee":12743,"Ġvoyait":12744,"ĠNews":12745,"Ġfragile":12746,"Ġrevendi":12747,"Ġcharp":12748,"Ġpiliers":12749,"Ġconstitutionnelle":12750,"Ġsensation":12751,"utilite":12752,"ĠHarvey":12753,"Ġprogresser":12754,"ĠTechn":12755,"Ġhauteurs":12756,"antins":12757,"ĠWalker":12758,"Ġdragon":12759,"hydra":12760,"Ġbref":12761,"Ġcerveau":12762,"Ġbalk":12763,"ĠPhilip":12764,"Ġnourrir":12765,"ĠDijon":12766,"ĠTroie":12767,"ploye":12768,"Ġmassive":12769,"ĠBosch":12770,"ĠPlaton":12771,"Ġtribune":12772,"ĠFormula":12773,"Seine":12774,"Ġabsor":12775,"Ġaffection":12776,"mocrate":12777,"Ġcarrefour":12778,"Ġadministratifs":12779,"Ġrattra":12780,"Ġprotestante":12781,"Ġlourds":12782,"Ġtherm":12783,"Ġparisiens":12784,"informations":12785,"Ġefficaces":12786,"Ġmobilisation":12787,"Ġrebelles":12788,"Ġrebaptise":12789,"Ġfruit":12790,"Ġindividuelle":12791,"Ġinternet":12792,"Ġsurvivre":12793,"ĠOscar":12794,"horreur":12795,"Ġmonnaies":12796,"ficier":12797,"ficient":12798,"Ġtoilettes":12799,"Ġdiplomatiques":12800,"ĠYougoslavie":12801,"Ġpatient":12802,"flexions":12803,"hibiens":12804,"Ġrecrutement":12805,"Ġsatisfaire":12806,"Ġminiatures":12807,"ĠBonnard":12808,"Ġarchitectural":12809,"Ġregrette":12810,"ĠVarzi":12811,"Ġnoyau":12812,"Ġparadoxe":12813,"agascar":12814,"loponne":12815,"ĠJefferson":12816,"Ġproclamation":12817,"Ġrestaurant":12818,"Ġagrandi":12819,"Ġsamedi":12820,"Antony":12821,"Ġapoge":12822,"ortziko":12823,"Ġsubsistent":12824,"cificite":12825,"Ġparasite":12826,"ĠThomson":12827,"ĠWehrmacht":12828,"Aur":12829,"Aus":12830,"Cont":12831,"Cap":12832,"Elie":12833,"PC":12834,"Ses":12835,"gieux":12836,"hindou":12837,"iales":12838,"kers":12839,"litte":12840,"laisse":12841,"mune":12842,"nard":12843,"otiques":12844,"pr":12845,"pul":12846,"prise":12847,"ploie":12848,"valle":12849,"war":12850,"yle":12851,"Éª":12852,"ener":12853,"Ġpisc":12854,"Ġcune":12855,"Ġcaisses":12856,"quaient":12857,"erv":12858,"alte":12859,"Ġparach":12860,"Ġventre":12861,"Ġauthen":12862,"ĠCi":12863,"ĠCab":12864,"ĠCah":12865,"tatif":12866,"Ġbale":12867,"peint":12868,"ĠST":12869,"ĠStone":12870,"Ġconduisant":12871,"ĠPoi":12872,"ĠPron":12873,"ĠMore":12874,"Ġgestes":12875,"atar":12876,"cir":12877,"ĠABC":12878,"lices":12879,"Ġindo":12880,"unissent":12881,"ĠDingo":12882,"acade":12883,"Ġcharme":12884,"ĠRas":12885,"ĠRiv":12886,"ĠRio":12887,"ĠGare":12888,"ĠGrim":12889,"Ġhu":12890,"igrants":12891,"Ġpasteur":12892,"vident":12893,"ĠHis":12894,"Ġsavant":12895,"Ġexces":12896,"Ġrachat":12897,"podes":12898,"ogues":12899,"Ġarrond":12900,"Ġalli":12901,"ondon":12902,"ĠEnf":12903,"Ġpertur":12904,"admi":12905,"Ġmarches":12906,"Ġmarquent":12907,"illustre":12908,"sentaient":12909,"extra":12910,"Ġnouveaute":12911,"mane":12912,"Ġorale":12913,"mitisme":12914,"serie":12915,"minins":12916,"Ġinscrite":12917,"Ġsoumise":12918,"1938":12919,"Enfant":12920,"olive":12921,"ĠRein":12922,"Ġcoalition":12923,"Ġinterdis":12924,"Ġmanquent":12925,"Ġabsent":12926,"allen":12927,"Ġphrases":12928,"Ġniche":12929,"Ġapproprie":12930,"Ġprime":12931,"...),":12932,"Ġverbe":12933,"tyque":12934,"Ġcasino":12935,"Ġpressions":12936,"Ġcanaux":12937,"Ġhomosex":12938,"ophile":12939,"Ġmissionnaires":12940,"Ġagglome":12941,"Ġstades":12942,"syche":12943,"Ġtechnologies":12944,"Ġregistres":12945,"Ġhistoriquement":12946,"Ġdispos":12947,"pendent":12948,"Ġpalmare":12949,"ĠSiffert":12950,"Ġrelance":12951,"Ġviolent":12952,"Ġanglaises":12953,"Ġmariages":12954,"attle":12955,"Ġstylis":12956,"Ġcharite":12957,"Ġaccueill":12958,"Ġtrip":12959,"Ġcompagnon":12960,"Ġlutris":12961,"2003":12962,"Ġ1791":12963,"Ġfourni":12964,"Ġlumineux":12965,"Ġ1875":12966,"Ġ1879":12967,"1995":12968,"Ġjaponaises":12969,"polis":12970,"Ġperdure":12971,"Ġpatrie":12972,"Ġmineure":12973,"ĠAbraham":12974,"Ġenseignement":12975,"Ġensembles":12976,"ĠPlas":12977,"Ġ1831":12978,"Ġ1837":12979,"Ġreconstruit":12980,"Ġpartisan":12981,"ĠHerbert":12982,"embourg":12983,"Ġtombent":12984,"Ġespagnols":12985,"Ġfusionn":12986,"bellion":12987,"Ġimaginaire":12988,"ĠAsperger":12989,"Ġparlementaires":12990,"irmation":12991,"Ġsculpteur":12992,"zona":12993,"Ġinvestissements":12994,"Ġcycliste":12995,"Ġbureaux":12996,"Ġbuste":12997,"Ġapparemment":12998,"ĠGilgames":12999,"Ġestimations":13000,"ĠLarry":13001,"Ġconcevoir":13002,"Ġtunisien":13003,"Ġremontant":13004,"milation":13005,"Ġexamen":13006,"riodique":13007,"Ġascension":13008,"ĠCaroline":13009,"Ġmanga":13010,"ĠErnst":13011,"Ġcommissaire":13012,"Ġcouloir":13013,"Ġbovins":13014,"Ġsusceptibles":13015,"Ġfestivite":13016,"Ġprotagonistes":13017,"Ġforestie":13018,"individu":13019,"Ġportugais":13020,"coupage":13021,"chauffement":13022,"American":13023,"Ġparasites":13024,"ĠMenelik":13025,"chetniks":13026,"Nicolas":13027,"Ġgarnison":13028,"ĠPeintre":13029,"ĠGilgamesh":13030,"Amb":13031,"Agence":13032,"DE":13033,"NI":13034,"Napole":13035,"RC":13036,"dge":13037,"fil":13038,"gang":13039,"hyp":13040,"lou":13041,"nien":13042,"poser":13043,"sailles":13044,"tall":13045,"tuel":13046,"Ġdigne":13047,"Ġlent":13048,"Ġlits":13049,"Ġdettes":13050,"Ġsoph":13051,"Ġsomm":13052,"anus":13053,"isole":13054,"incident":13055,"erbe":13056,"arin":13057,"Ġlapin":13058,"Ġfier":13059,"Ġtaure":13060,"uscule":13061,"Ġrelier":13062,"estent":13063,"ĠLoi":13064,"Ġnutri":13065,"ĠvÅĵ":13066,"set":13067,"chus":13068,"chapp":13069,"ĠCoul":13070,"Ġseizie":13071,"Ġplaf":13072,"Ġconge":13073,"ĠPab":13074,"Ġgo":13075,"Ġgon":13076,"llet":13077,"ĠAustra":13078,"Ġjoye":13079,"ĠBol":13080,"ĠBron":13081,"Ġinnoc":13082,"âĢĻÂ«":13083,"unies":13084,"Ġsurpl":13085,"ĠDak":13086,"dictions":13087,"ĠEc":13088,"ĠEss":13089,"Ġchoque":13090,"ulli":13091,"abulaire":13092,"Ġsonge":13093,"Ġanalog":13094,"ĠGet":13095,"Ġhare":13096,"Ġnet":13097,"ĠJardin":13098,"Ġsatire":13099,"Ġrage":13100,"andball":13101,"ĠVladi":13102,"Ġtoucher":13103,"uba":13104,"ardie":13105,"ritablement":13106,"duca":13107,"ĠEnviron":13108,"ĠChab":13109,"ĠWords":13110,"tines":13111,"Ġjette":13112,"obus":13113,"Ġcesser":13114,"ronique":13115,"assau":13116,"Ġposth":13117,"Ġfrancophones":13118,"Ġrenard":13119,"roulant":13120,"emporte":13121,"Ġgras":13122,"raldique":13123,"Ġcommunau":13124,"Ġconfes":13125,"Ġ76":13126,"Ġsuicide":13127,"Ġvisuels":13128,"eller":13129,"Ġentrant":13130,"Ġentourant":13131,"agnol":13132,"Ġmonture":13133,"ĠArg":13134,"ĠArme":13135,"ancie":13136,"ixon":13137,"Ġappellent":13138,"ĠCarac":13139,"ĠCarcass":13140,"Ġouvrant":13141,"grave":13142,"Ġincur":13143,"Ġincite":13144,"Ġlocu":13145,"Ġlocomo":13146,"accorde":13147,"ambiance":13148,"rash":13149,"Ġvoici":13150,"Ġcoupable":13151,"Ġpaiement":13152,"Ġatteignant":13153,"tionnels":13154,"Ġplanches":13155,"lywood":13156,"Ġchevauche":13157,"Ġbarrages":13158,"ĠColin":13159,"Ġprofessionn":13160,"Ġcharte":13161,"gatif":13162,"ĠMontana":13163,"Ġaccueil":13164,"ĠComment":13165,"Ġrevend":13166,"Ġtrio":13167,"Ġstop":13168,"ĠManh":13169,"Ġdragons":13170,"Ġurban":13171,"Ġacheter":13172,"Ġprogrammation":13173,"ĠState":13174,"Ġampleur":13175,"Ġarchai":13176,"cifiquement":13177,"ĠFranz":13178,"Ġantise":13179,"Ġressor":13180,"ĠFinal":13181,"Ġlimous":13182,"ĠEdgar":13183,"Ġmultiplient":13184,"Ġprotoc":13185,"ĠAdolf":13186,"ĠAuschwitz":13187,"Ġsommeil":13188,"ĠMadagascar":13189,"Ġfusionne":13190,"Ġadministratives":13191,"accordent":13192,"ĠGaulle":13193,"Ġglobale":13194,"Ġtonalite":13195,"entreprises":13196,"Ġsuccessifs":13197,"Ġsatisfait":13198,"Ġchimique":13199,"Ġrivaux":13200,"ĠNavy":13201,"ĠCatalog":13202,"Ġpratiquant":13203,"Ġsavants":13204,"Ġiranienne":13205,"montrer":13206,"Ġuniversel":13207,"ĠTextes":13208,"Ġcomposants":13209,"Ġrejette":13210,"ĠOliver":13211,"Ġexploitations":13212,"engagement":13213,"Ġanalyses":13214,"Ġpartenaires":13215,"ĠMurray":13216,"ĠShelley":13217,"Ġtunisienne":13218,"Ġviolemment":13219,"Ġprochain":13220,"Ġsanction":13221,"ĠPerses":13222,"tropolitaine":13223,"ĠBooks":13224,"Ġvirtuose":13225,"Ġponey":13226,"ĠFantas":13227,"Ġsymphonique":13228,"Ġcellule":13229,"Ġartificielle":13230,"ĠVitry":13231,"specta":13232,"ĠShoah":13233,"Ġalterna":13234,"Ġincorpore":13235,"obaldi":13236,"hydroge":13237,"Ġjambes":13238,"ĠBiber":13239,"Ġrenseignements":13240,"rescobaldi":13241,"Ġpneumatiques":13242,"Ġgigantes":13243,"cenaires":13244,"ĠHambourg":13245,"Ġfaillite":13246,"vergure":13247,"effectuer":13248,"ĠPronger":13249,"AM":13250,"EFA":13251,"Luc":13252,"Pas":13253,"RA":13254,"UNESCO":13255,"ake":13256,"cq":13257,"eu":13258,"fl":13259,"fra":13260,"gien":13261,"gocie":13262,"grin":13263,"lain":13264,"lissement":13265,"nateur":13266,"normes":13267,"uan":13268,"zare":13269,"Ġdam":13270,"Ġdictionnaire":13271,"essence":13272,"Ġlondon":13273,"onel":13274,"Ġsk":13275,"teux":13276,"ouge":13277,"quateur":13278,"inations":13279,"Ġlap":13280,"ĠmÅĵurs":13281,"Ġfrise":13282,"Ġtaxe":13283,"ĠLuis":13284,"Ġnapole":13285,"Ġvigne":13286,"chis":13287,"signant":13288,"ĠCiv":13289,"ĠCelles":13290,"Ġbain":13291,"ĠSche":13292,"ĠSla":13293,"ĠPatri":13294,"ĠPoly":13295,"ĠPoint":13296,"Ġgend":13297,"atz":13298,"ĠBug":13299,"Ġinta":13300,"terris":13301,"ĠDreyfus":13302,"Ġ220":13303,"uif":13304,"ĠIre":13305,"Ġsonores":13306,"ĠRie":13307,"ĠFi":13308,"ĠGou":13309,"Ġrurales":13310,"ocats":13311,"ĠNoirs":13312,"imes":13313,"pot":13314,"uisseau":13315,"Ġavoue":13316,"Ġavanc":13317,"ĠValle":13318,"ĠVik":13319,"parti":13320,"Ġconstant":13321,"Ġactivement":13322,"Ġarm":13323,"dues":13324,"aver":13325,"cler":13326,"ĠKim":13327,"ĠKok":13328,"extraction":13329,"pha":13330,"Ġesqu":13331,"Ġclan":13332,"Ġposent":13333,"ĠJew":13334,"ologiquement":13335,"Ġcow":13336,"issa":13337,"issance":13338,"Ġmanager":13339,"jeux":13340,"Ġconfier":13341,"Ġconform":13342,"Ġpoliciers":13343,"Ġassister":13344,"rena":13345,"Ġ89":13346,"Ġremplir":13347,"rys":13348,"ficit":13349,"ovine":13350,"ĠCarlos":13351,"Ġlocalisation":13352,"Ġdouzaine":13353,"ĠThierry":13354,"Ġretrans":13355,"Ġrestaurer":13356,"Ġparcourt":13357,"rendum":13358,"Ġcombien":13359,"Ġformules":13360,"Ġpersonnelles":13361,"Indre":13362,"Ġsupporte":13363,"ĠHebre":13364,"affirme":13365,"Ġdoctor":13366,"Ġ1892":13367,"aeus":13368,"Ġattaquer":13369,"Ġpromis":13370,"Ġpromul":13371,"ĠMontpel":13372,"guliers":13373,"Ġmesurer":13374,"ancia":13375,"gramme":13376,"Ġhydrau":13377,"ĠSpring":13378,"incol":13379,"tendent":13380,"levait":13381,"ĠCorps":13382,"Ġconclure":13383,"ĠSamus":13384,"Ġbalne":13385,"Ġ1794":13386,"Ġrelever":13387,"ajoute":13388,"Ġfranchises":13389,"1997":13390,"Ġsoutiennent":13391,"nomination":13392,"Ġillustrations":13393,"Ġvendue":13394,"Ġenseign":13395,"ĠChampions":13396,"ĠHugh":13397,"Ġempereurs":13398,"ĠMike":13399,"Ġmurailles":13400,"Ġterminant":13401,"Ġrythmique":13402,"Ġdomestic":13403,"1947":13404,"Ġprotestants":13405,"Ġrestaurants":13406,"ramiques":13407,"Ġprojection":13408,"rimerie":13409,"Ġcapturer":13410,"Ġcollective":13411,"Ġcollectivite":13412,"zerbai":13413,"Ġvoler":13414,"pandue":13415,"Ġradical":13416,"ĠLorient":13417,"Ġsensibil":13418,"Ġcanadien":13419,"Ġfestivals":13420,"Ġprovoquant":13421,"ĠMonsieur":13422,"Ġsatisfaction":13423,"Ġballet":13424,"Ġnaturaliste":13425,"ĠAfric":13426,"Ġpulmon":13427,"escalier":13428,"Ġregret":13429,"Ġattentes":13430,"Ġcommissaires":13431,"Ġcoquille":13432,"Ġvampire":13433,"Ġcombinaison":13434,"gligeable":13435,"Ġcylindre":13436,"Ġstockage":13437,"ATP":13438,"ĠAucun":13439,"Ġrecommandations":13440,"Ġpoulains":13441,"ĠSanta":13442,"Ġnarration":13443,"ĠNobel":13444,"ĠEastwood":13445,"Ġbillets":13446,"pirant":13447,"Ġgarantir":13448,"Ġindispensable":13449,"Ġvignoble":13450,"Ġconfrontation":13451,"Ġfabriquer":13452,"Ġpittor":13453,"ĠCatalogne":13454,"Afin":13455,"FC":13456,"FF":13457,"Fer":13458,"PA":13459,"Tra":13460,"Uranus":13461,"Victor":13462,"Vincent":13463,"bons":13464,"cauld":13465,"hire":13466,"hame":13467,"kle":13468,"pas":13469,"ycle":13470,"Ġdurent":13471,"ĠdÊ¼":13472,"Ġdeuil":13473,"antisme":13474,"Ġcrue":13475,"quine":13476,"inite":13477,"armer":13478,"Ġmond":13479,"Ġmira":13480,"Ġtamb":13481,"Ġrevers":13482,"veil":13483,"Ġdut":13484,"Ġduel":13485,"Ġparente":13486,"ĠLans":13487,"ĠLancia":13488,"Ġvass":13489,"Ġvende":13490,"sement":13491,"onto":13492,"Ġ118":13493,"chir":13494,"sionner":13495,"signation":13496,"ĠCau":13497,"ĠCos":13498,"Ġbac":13499,"Ġband":13500,"Ġboul":13501,"ĠSid":13502,"ĠStal":13503,"Ġplur":13504,"Ġplats":13505,"attent":13506,"cimens":13507,"Ġjo":13508,"ĠBah":13509,"ĠDid":13510,"ĠDane":13511,"dice":13512,"acture":13513,"Ġchances":13514,"osses":13515,"endroit":13516,"ĠFilm":13517,"Ġhoule":13518,"Ġruisseau":13519,"ĠJobs":13520,"aperc":13521,"ĠHas":13522,"ĠHauts":13523,"Ġexacte":13524,"ĠLaval":13525,"ĠVo":13526,"ĠVent":13527,"ĠVende":13528,"ĠLescar":13529,"ett":13530,"tum":13531,"avocat":13532,"ĠChi":13533,"ĠWork":13534,"ĠKi":13535,"cutive":13536,"ĠParalle":13537,"obtention":13538,"ĠDevant":13539,"Ġrecouv":13540,"versite":13541,"Ġtigre":13542,"Ġsoumettre":13543,"Ġattirer":13544,"ologiste":13545,"lane":13546,"route":13547,"cherie":13548,"Ġpaysan":13549,"Ġcorrige":13550,"Ġ61":13551,"ĠSeuil":13552,"Ġphal":13553,"Ġpharm":13554,"ĠAllan":13555,"missionne":13556,"Ġtransc":13557,"Ġtranscription":13558,"Ġ767":13559,"Ġsuivis":13560,"autel":13561,"ogrammes":13562,"Ġspec":13563,"Ġapparue":13564,"Ġapparence":13565,"arios":13566,"modium":13567,"veloppeurs":13568,"Ġcaserne":13569,"Ġaffi":13570,"Ġaffilie":13571,"Ġcontrainte":13572,"tallique":13573,"Ġdoutes":13574,"accum":13575,"Ġroutier":13576,"Ġ125":13577,"Ġannuelles":13578,"tical":13579,"Ġrendue":13580,"illiers":13581,"Ġmondiaux":13582,"Ġhistorien":13583,"ennis":13584,"Ġsorcie":13585,"Ġbaron":13586,",,,":13587,"Alger":13588,"dae":13589,"Ġtraversant":13590,"ĠMalherbe":13591,"caniques":13592,"gatifs":13593,"ĠFeder":13594,"ĠHarlem":13595,"ĠLondon":13596,"Ġsignifier":13597,"Ġspectaculaire":13598,"ĠRoad":13599,"vasions":13600,"Ġcommercialise":13601,"ĠStadium":13602,"Ġ1876":13603,"Ġmusicaux":13604,"Ġamitie":13605,"Ġextraits":13606,"Ġpensait":13607,"Ġfantastique":13608,"Ġvitesses":13609,"Ġtrouvaient":13610,"Ġarchitecte":13611,"ĠMagh":13612,"Ġintentions":13613,"Ġnormalement":13614,"Ġsince":13615,"Ġblocus":13616,"ĠConcerto":13617,"tainment":13618,"Ġvolontaire":13619,"Ġcuir":13620,"ĠFaber":13621,"Ġmassac":13622,"Ġdesservie":13623,"ĠBobet":13624,"Ġmasculins":13625,"Ġsensiblement":13626,"Ġautrichiens":13627,"Ġvendredi":13628,"Ġlaboratoires":13629,"ĠKnight":13630,"Ġsymphonie":13631,"Ġaffluent":13632,"Ġsatellites":13633,"Ġbrillante":13634,"mouth":13635,"Ġexcellente":13636,"officier":13637,"Ġmorphologie":13638,"Ġrepousser":13639,"explosion":13640,"ĠLudwig":13641,"lancolie":13642,"Ġmanufact":13643,"ossibilite":13644,"Ġrabbin":13645,"Ġchapelles":13646,"Aquitaine":13647,"Ġmoulins":13648,"ĠRudolf":13649,"Ġroulant":13650,"ĠGould":13651,"Donald":13652,"ĠColorado":13653,"ajouter":13654,"alcool":13655,"ĠSenna":13656,"Ġtrilogie":13657,"Ġemprisonne":13658,"Ġopposants":13659,"ĠPNL":13660,"ĠCarcassonne":13661,"ĠManhattan":13662,"ĠMontpellier":13663,".[":13664,"Ap":13665,"Hipp":13666,"Ope":13667,"Pat":13668,"Tre":13669,"Trois":13670,"ataire":13671,"bau":13672,"bration":13673,"coul":13674,"djan":13675,"gus":13676,"gide":13677,"maine":13678,"migre":13679,"pais":13680,"sors":13681,"sole":13682,"sister":13683,"vert":13684,"Â»":13685,"Ġlis":13686,"Ġlin":13687,"Ġlanciers":13688,"Ġabre":13689,"Ġsiens":13690,"Ġcrain":13691,"tecte":13692,"tige":13693,"Ġemm":13694,"ouilles":13695,"quat":13696,"inaug":13697,"argue":13698,"oria":13699,"orgie":13700,"Ġflan":13701,"Ġflex":13702,"Ġfirme":13703,"Ġdescrip":13704,"rol":13705,"Ġaure":13706,"aster":13707,"Ġbrique":13708,"Ġboss":13709,"Ġcomic":13710,"ĠSok":13711,"ĠPsych":13712,"ĠPacha":13713,"ĠMak":13714,"ĠMira":13715,"liv":13716,"ĠBad":13717,"ĠBry":13718,"ĠByr":13719,"Ġinac":13720,"Ġintention":13721,"ĠDion":13722,"Ġmexic":13723,"ĠRain":13724,"ĠRand":13725,"ĠRim":13726,"ĠGon":13727,"ĠJi":13728,"ĠJun":13729,"ĠHag":13730,"Ġexage":13731,"Ġtragique":13732,"etta":13733,"Ġcomplot":13734,"Ġmarier":13735,"Ġgrandi":13736,"illo":13737,"illustra":13738,"extermination":13739,"cutifs":13740,"phane":13741,"Ġimpliquant":13742,"Ġrecul":13743,"Ġressent":13744,"Ġtirage":13745,"asso":13746,"assy":13747,"1965":13748,"Ġjuges":13749,"Ġobtenus":13750,"Ġrenforts":13751,"Ġcourantes":13752,"Ġaccumule":13753,"Ġexpulse":13754,"Ġ92":13755,"ĠSeule":13756,"Ġtransit":13757,"Ġ1758":13758,"valuer":13759,"ĠUl":13760,"deria":13761,"pendantes":13762,"Ġconstructeur":13763,"Ġapparu":13764,"Ġchampagne":13765,"Ġindices":13766,"Ġcrimin":13767,"Ġorganes":13768,"talliques":13769,"Ġdouleur":13770,"Ġretrouv":13771,"atise":13772,"Ġtenait":13773,"Ġdevraient":13774,"Ġprotectorat":13775,"encad":13776,"ĠShah":13777,"Inte":13778,"lyse":13779,"ĠBarry":13780,"Ġvengeance":13781,"Ġfourmis":13782,"ĠMalte":13783,"Ġcadence":13784,"attue":13785,"Ġwas":13786,"Ġ1863":13787,"former":13788,"Ġtriang":13789,"ysse":13790,"Ġmagiques":13791,"Ġlanceur":13792,"ĠManche":13793,"ĠCorn":13794,"Ġcertific":13795,"Ġchoisis":13796,"Ġnuance":13797,"ĠTerrit":13798,"Ġ1854":13799,"Ġ1792":13800,"Ġ1798":13801,"ĠDidier":13802,"plore":13803,"Ġirlandais":13804,"ternelle":13805,"ĠTrajan":13806,"Ġ1877":13807,"donienne":13808,"ĠQueen":13809,"ĠQueens":13810,"Ġmidi":13811,"ĠBosnie":13812,"Ġvalor":13813,"ĠChristmas":13814,"uilding":13815,"Ġsangu":13816,"occupations":13817,"Ġdemandant":13818,"Ġpoigne":13819,"Ġrefuser":13820,"Ġorientales":13821,"ĠHolmes":13822,"ĠRusses":13823,"Ġregarder":13824,"ĠMilton":13825,"ĠRosberg":13826,"ĠRostom":13827,"Ġexistants":13828,"Ġdurablement":13829,"Ġtardif":13830,"Ġsympto":13831,"Ġvocabulaire":13832,"Ġcontinental":13833,"ĠBulletin":13834,"Ġchronologique":13835,"ĠWhit":13836,"Ġcabine":13837,"Ġconvainc":13838,"rimant":13839,"Ġexcellent":13840,"Ġnormande":13841,"gendaire":13842,"Ġlarmes":13843,"ĠâĤ¬,":13844,"Ġmicros":13845,"ĠFabre":13846,"voient":13847,"ĠFIFA":13848,"Asperger":13849,"Ġtissus":13850,"Ġsolides":13851,"identification":13852,"Ġdiagnostique":13853,"Ġcouvrant":13854,"ĠMassa":13855,"ĠIrlande":13856,"Ġhydroe":13857,"Ġpartager":13858,"Ġvirtuosite":13859,"vocation":13860,"Ġnourrissent":13861,"Ġabsolument":13862,"ĠStudios":13863,"anthrop":13864,"chantillons":13865,"ĠBruno":13866,"Ġalternative":13867,"ĠLevens":13868,"ĠAucune":13869,"Ġdesquelles":13870,"Ġfresques":13871,"Ġpseudo":13872,"Ġexplicitement":13873,"Ġridicule":13874,"oportraits":13875,"Ġserpents":13876,"Ġinondations":13877,"ĠHebrew":13878,"incoln":13879,"100":13880,"213":13881,"App":13882,"Co":13883,"Cons":13884,"Noti":13885,"TR":13886,"bourne":13887,"care":13888,"cod":13889,"cott":13890,"faire":13891,"faill":13892,"git":13893,"gance":13894,"glig":13895,"jord":13896,"lue":13897,"lorer":13898,"niques":13899,"pen":13900,"rui":13901,"sche":13902,"uli":13903,"wen":13904,"xi":13905,"Ġpille":13906,"Ġpeste":13907,"Ġaigu":13908,"antie":13909,"ourai":13910,"quetil":13911,"ratif":13912,"Ġentiers":13913,"Ġutiles":13914,"alan":13915,"robe":13916,"ĠLat":13917,"ĠLincoln":13918,"aune":13919,"chiff":13920,"riter":13921,"rides":13922,"ĠConde":13923,"asp":13924,"Ġbaies":13925,"oline":13926,"ĠSacre":13927,"Ġconvoque":13928,"ĠPay":13929,"ĠMau":13930,"ĠAz":13931,"liard":13932,"ĠBun":13933,"ĠBene":13934,"ĠBian":13935,"ĠDol":13936,"ĠDarius":13937,"ĠDVD":13938,"diation":13939,"ĠEric":13940,"Ġchants":13941,"osh":13942,"osch":13943,"illette":13944,"abat":13945,"ĠTrente":13946,"ĠRav":13947,"ĠFox":13948,"icales":13949,"ĠGor":13950,"Ġpassions":13951,"breux":13952,"ĠNC":13953,"ĠNel":13954,"ĠNot":13955,"ĠNancy":13956,"laine":13957,"Ġraf":13958,"Ġrass":13959,"ĠVinc":13960,"ĠVerne":13961,"Ġcomposant":13962,"Ġcontenter":13963,"Ġ1812":13964,"ĠWy":13965,"ĠWind":13966,"Ġterti":13967,"Ġros":13968,"tiss":13969,"trale":13970,"mancip":13971,"Ġmaquis":13972,"Ġfilie":13973,"1929":13974,"Ġfrancophone":13975,"Ġveine":13976,"Ġaccroi":13977,"lonie":13978,"glas":13979,"Ġpermettrait":13980,"Ġcoupole":13981,"Ġone":13982,"Ġcommunaux":13983,"mises":13984,"viser":13985,"Ġcacher":13986,"Ġ71":13987,"Ġ74":13988,"ceptions":13989,"lerinage":13990,"crimin":13991,"Ġke":13992,"Ġ88":13993,"Ġoffert":13994,"Ġoffice":13995,"arium":13996,"Ġsucc":13997,"Ġentourage":13998,"Ġsolaires":13999,"type":14000,"Ġaffirmer":14001,"Ġoptique":14002,"Ġpress":14003,"ixe":14004,"Ġcentenaire":14005,"ypse":14006,"Ġroutie":14007,"rasser":14008,"Ġmaintenance":14009,"cisant":14010,"Ġamoureuse":14011,"pecteur":14012,"iani":14013,"archives":14014,"orio":14015,"Ġmyce":14016,"Ġdocumente":14017,"endel":14018,"mblage":14019,"Ġcirque":14020,"Ġviolences":14021,"Ġcalde":14022,"Ġrapportent":14023,"attribution":14024,"voltes":14025,"gumes":14026,"lectro":14027,"Ġ1882":14028,"Ġ1886":14029,"Ġ1887":14030,"ĠSteven":14031,"ĠJulien":14032,"offrir":14033,"Ġcolonial":14034,"Ġluth":14035,"Ġcitadelle":14036,"litz":14037,"Ġsortent":14038,"servation":14039,"Ġsaisir":14040,"ĠDiane":14041,"Ġ1874":14042,"Ġdiversifie":14043,"Ġtypiquement":14044,"Ġextrater":14045,"Ġaliment":14046,"Esprit":14047,"gorith":14048,"Ġprofitant":14049,"terminant":14050,"Ġcollectionneurs":14051,"Ġrappellent":14052,"Ġoccasions":14053,"Ġcontinentale":14054,"Ġguides":14055,"Ġplacent":14056,"Ġdonjon":14057,"Ġtorture":14058,"Ġberceau":14059,"Ġsingu":14060,"Ġconjoin":14061,"Ġclocher":14062,"Ġsouhaitait":14063,"Amour":14064,"ĠFalstaff":14065,"Ġmouch":14066,"Ġchancelier":14067,"Ġosc":14068,"Ġinstrumentale":14069,"tzsche":14070,"autoroute":14071,"ĠCoppi":14072,"Ġparadis":14073,"Ġsanctuaires":14074,"ĠToronto":14075,"Ġtardivement":14076,"Ġstud":14077,"Ġmagasin":14078,"Ġaimer":14079,"investissement":14080,"ĠStudies":14081,"Ġallusions":14082,"ĠMansfield":14083,"ĠJonathan":14084,"Ġrestreint":14085,"ĠHobbes":14086,"Ġstrict":14087,"ĠVilleneuve":14088,"Ġcaricature":14089,"Ġmobile":14090,"Ġnaissances":14091,"Ġchirurg":14092,"ĠEnglish":14093,"ĠNicholas":14094,"ĠChristopher":14095,"Ġsondage":14096,"ĠEntertainment":14097,"ĠNauru":14098,"Ġposthume":14099,"Ġcriminalite":14100,"EN":14101,"EP":14102,"Marc":14103,"No":14104,"Rene":14105,"Ste":14106,"UD":14107,"UF":14108,"aques":14109,"blac":14110,"back":14111,"cau":14112,"cologie":14113,"fon":14114,"fauts":14115,"gres":14116,"iographie":14117,"joux":14118,"kai":14119,"lisation":14120,"mites":14121,"nos":14122,"pens":14123,"pave":14124,"so":14125,"sordre":14126,"toire":14127,"tole":14128,"uque":14129,"utre":14130,"ycl":14131,"Ġranc":14132,"Ġlot":14133,"Ġlith":14134,"reuses":14135,"Ġpant":14136,"Ġpay":14137,"Ġsure":14138,"Ġcale":14139,"teh":14140,
[...]
