#version: 0.2
ï ¼
ä ¸
ã Ģ
ï¼ Į
ä º
ç ļ
çļ Ħ
ãĢ Ĥ
æ ľ
å ı
å ħ
å ¹
ä »
å ¤
å ľ
å Ĳ
å Ī
å¹ ´
å ®
å Ľ
ç Ķ
ä ½
å į
æ Ĺ
ãĢ ģ
å °
æ ĸ
æ ĺ
ä ¹
è ¿
ç »
å Ń
æ Ī
åľ ¨
ä¸ Ģ
ä¸ º
ï¼ Ī
ï¼ ī
ä ¼
å ¸
å Ĭ
å Ĩ
å Į
è ¯
æ Ŀ
ä¸ Ń
æĺ ¯
ç ī
å ·
å ¾
è ®
åĽ ½
å º
å ¼
äº º
ç º
é ĩ
å¤ §
ç §
å ±
äº İ
æ ī
å ĩ
2 0
é ĥ
æľ ī
å Ĵ
è µ
æ Ń
è ¡
é Ģ
å İ
å ¥
åĴ Į
æľ Ī
å ½
è Ģ
æ ķ
é Ļ
ç İ
ç Ľ
æ Ķ
é ĺ
1 9
æĹ ¥
å ¯
æ ĭ
â Ģ
è ĩ
æ ł
æ °
åĲ İ
åŃ ¦
æ ²
ç «
æ ³
è §
ä» ¥
æ µ
äº Ĩ
å ĳ
ç Ĳ
å ī
è ´
æĹ ¶
æĪ Ĳ
ï¼ ļ
åľ °
æĸ ¯
è ¾
å Ł
ä¸ Ĭ
é Ĺ
ä¼ ļ
ä» ĸ
æ Ģ
ç ¬
è ½
åĩ º
ä¸ ª
ãĢ ĭ
ãĢ Ĭ
æ Ľ
æ ¯
Â ·
éĥ ¨
é ķ
æ ´
çĶ Ł
æ ŀ
ä¸ į
é Ŀ
ä¸ İ
æ ¸
ä¹ ĭ
é ģ
åĲ į
ä½ ľ
å° Ķ
ç¬ ¬
æ Ĭ
å® ¶
ä ¿
è ĥ
ä¸ »
è ¥
åħ ¬
è¡ Į
ç ½
è¥ ¿
åĪ Ĩ
åħ ¶
æ İ
åĮ º
è ¢
é Ľ
åŃ Ĳ
ç Ń
è ·
å ¿
åı ĳ
å »
æľ ¬
åĨ Ľ
é ¦
åĪ °
æ ±
å ĵ
è¢ «
çĶ ¨
æ ¬
é ¢
è ģ
ç ¾
å §
è ĭ
èĢ Į
å¹ ¶
åį Ĺ
çī ¹
éķ ¿
è ī
ç ľ
ä¸ ĭ
ç ±
ä ¾
èµ Ľ
çĶ ±
é ©
20 1
ä½ į
åı Ĭ
ä¸ ī
å¾ ·
æĿ ¥
å¸ Ĥ
æ Į
åĲ Į
æľ Ģ
ä¸ ľ
è İ
ç Ł
æ Ļ
ç ¥
åĮ Ĺ
äº ļ
å¤ ļ
åħ ĭ
åı ¯
å Ŀ
é «
å £
å ²
æĸ ĩ
æ³ ķ
çī ©
éģ ĵ
èĩ ª
å¼ Ģ
é« ĺ
åī į
æĸ ¹
è¿ Ļ
äº Į
åĬ ł
çĲ ĥ
åĳ ĺ
éĩ Į
ä» »
çĶ µ
æĸ °
è· ¯
å¯ ¹
å» º
è Ĭ
ä¸ ĸ
å¾ Ĺ
åĪ ©
ã ĥ
é ¡
åĬ ¨
20 0
å± ±
ä» £
åį ģ
å ¦
è Ī
èĩ ³
æī Ģ
çİ °
åĽ ł
æĪ ĺ
ä¹ Ł
¦ ģ
æ ¼
å° ı
æĭ ī
æµ ·
åĨ ħ
ç¾ İ
è °
ç ©
ç ķ
éĺ Ł
å¤ ©
äº ĭ
æķ Ļ
è Ĳ
é© ¬
éĹ ´
ç Ī
ç» ı
åħ ¥
è¿ Ľ
é ļ
âĢ ľ
âĢ Ŀ
ãĢ Į
ãĢ į
è½ ¦
è¿ ĩ
æŃ ¤
è ¶
å° Ĩ
è ¦ģ
çŃ ī
å· ŀ
é ĵ
ç ¤
æĶ ¿
åĲ Ī
åľ º
åı °
å· ¥
æľ Ł
ç Ļ
æľ º
æ° ĳ
æ ĥ
çº ¿
çĲ Ĩ
çİ ĭ
ä½ ĵ
å¹ ³
è Ĥ
ç§ ĳ
ç« Ļ
å¸ ĥ
èĥ ½
ç§ į
å½ ĵ
é £
åĪ ¶
ç« ĭ
èģ Ķ
æ¬ ¡
æ¼ Ķ
ç½ Ĺ
åº ¦
éĿ ¢
ä½ Ĩ
å¤ ĸ
éĢ ļ
ç ®
æ Ħ
å® ī
é Ł
ï¼ī ï¼Į
è® ¾
ä¸ ļ
æ ģ
åĮ ĸ
åı ·
ä½ ¿
æ Ł
æ ¡
é »
é Ĥ
åŁ İ
éĻ ¢
ç ¼
ç§ °
ç ³
åħ ¨
ç ¦
1 0
è¡ ¨
ã ģ
è¯ ¥
å® ļ
ä¸Ģ ä¸ª
éĩ ĳ
æ¯ Ķ
æ ı
ä¸ ¤
ï¼ Ľ
èĢ ħ
åİ Ł
éĥ ½
åİ ¿
éĩ į
æĢ §
ç ł
æł ¼
å£ «
ç Ĥ
ã Ĥ
åĬ Ľ
åı ²
å¥ ³
æ° ´
å¼ ı
åĽ Ľ
e r
ç ¨
æ į
çĽ ¸
æĺ İ
è į
å½ ±
è ĳ
åŁ º
æŃ £
ç³ »
å ¢
çľ ģ
é ħ
ç» Ħ
æķ °
ç± ³
æ £
ç ģ
å ¡
åħ °
a n
æ ®
éĺ ¿
å° ¼
çĽ ®
èī ²
èĭ ±
åı ¸
çº ¦
1 8
åĪ Ĺ
å ģ
å ŀ
ä¹ Ĳ
æ² »
åħ ĥ
æŀ Ĺ
è¾ ¾
ä» ¬
ä¸Ń åĽ½
é¦ ĸ
å ¨
è¿ Ĳ
æĢ »
æī ĭ
åİ Ĩ
å± ŀ
æĶ ¹
éĢ ī
æĪ ĸ
é ¥
å Ķ
åħ ±
ä» İ
åı £
ç Ħ
èµ ·
æ ¹
é ľ
åħ ³
è¯ Ń
è® ¡
è§ Ĩ
åī §
o n
ç ´
æ¸ ¯
å¿ ĥ
é ¾
å¸ ¸
æ ·
å ł
0 0
Ġ *
æĽ ²
ä¹ ¦
å Ģ
çº §
i n
æ ¶
éŁ ³
è £
é Ķ
ç» Ł
1 2
åį İ
æ² ³
åĲ ĳ
åı Ĥ
å¦ Ĥ
æĹ ł
æĿ ĳ
é Ĵ
åĵ ģ
äº §
ä¿ Ŀ
å¹ ¿
éĽ Ĩ
æĽ ¾
çĦ ¶
éĹ ¨
æ Ĵ
çķ Į
ç» ĵ
æİ ¥
19 9
å½ ¢
æĺ Ł
äº ¤
a r
ç± »
å ĭ
é ª
å· ´
äº Ķ
ç ĭ
æ ¢
èİ ·
æı Ĳ
ç¥ ŀ
å¤ «
åı ¤
å§ ĭ
è¯ ´
è º
å® ŀ
ç Ŀ
æĦ ı
çĽ ´
åŀ ĭ
é¦ Ļ
ç ĥ
å° ±
æ º
ç» ´
çŁ ³
å¤ ª
æł ¡
é¾ Ļ
åĮ ħ
éĩ ı
1 1
åį ¡
åĽ ¢
çº ª
å² Ľ
èº «
ç¨ ĭ
ä¼ ł
çĤ ¹
ä¹ ī
åº ľ
åĪ Ļ
æ »
åĬ ¡
ç ı
é ²
åı Ĺ
ä¸ ĩ
å¥ ¥
æµ ģ
è® ®
æ± Ł
åį ķ
éĵ ģ
æ¸ ¸
è Ļ
ç¾İ åĽ½
è Į
âĢ Ķ
å¯ ¼
å¸ Ī
e n
é¥ °
ç ¿
è§ Ĵ
å¥ ĸ
é¢ Ĩ
èĳ Ĺ
å¤§ åŃ¦
å· ²
ç® ¡
å¤ Ħ
æľ ¯
ä½į äºİ
æĥ ħ
èĬ Ĥ
ç¤ ¾
è Ħ
åĪ «
æĮ ĩ
åĽ ŀ
ç ²
æľ Ŀ
åŃ £
å¥ ¹
éĢ ł
ç© º
åħ ī
å¼ ł
æĽ ´
å® ĺ
1 5
æĪĲ ä¸º
è Ĵ
çº ³
è¿ ĺ
åı ĺ
ï¼ī ãĢĤ
éķ ĩ
å¤ ´
åº Ķ
çĻ ½
çī ĩ
åħ¬ åı¸
å° ĳ
å ĸ
åĩ »
ä¿ ¡
ç ĵ
ç Ĭ
å± ķ
äº Ľ
åŃ Ĺ
è® ¤
ç Ĺ
o r
æĿ İ
æŃ ¦
è¿ ĳ
æĹ¥ æľ¬
çŁ ¥
ç¼ ĸ
æŃ Į
äº ¬
å¸ ¦
æ ĳ
ä¼ Ĭ
åĳ ½
èģ Į
æ´ »
çī Ī
ç¬¬ ä¸Ģ
åı ĸ
åħ Ń
æ´ ²
çĶ °
åı ª
é¦Ļ æ¸¯
èĭ ı
è¶ ³
çł Ķ
æĮ ģ
æ ¨
å® ĥ
åľ £
æĻ ®
æĹ ı
åĽ½ å®¶
a l
åĽ ¾
ç Į
åħ µ
æ® µ
ä¸ ¾
ä½¿ çĶ¨
åĲ Ħ
ç ĸ
19 8
æī ĵ
ç¦ ı
å® Ĺ
é£ İ
æ³ ¢
åĳ ¨
è½ ¬
æĶ ¶
èµ Ħ
è ±
éĻ ħ
å ķ
æĶ ¯
å¼Ģ å§ĭ
åı¯ ä»¥
çĪ ±
æį ®
åİ »
å Ħ
åĪ Ŀ
ç ĳ
åı Ī
è¿ ŀ
ç ¡
Ġ (
æ² ¡
å¸ Ŀ
äº ²
èĬ ±
å§ Ķ
æ¸ ħ
ä¸ ĵ
è Ĺ
æł ĩ
æĪ ı
åħ Ī
åİĨ åı²
åº §
åľ° åĮº
åħ «
è§ £
å± Ģ
1 7
1 6
åĨ ³
éĿ ŀ
a t
æĿ ¡
ä¸ĸ çķĮ
çĶµ å½±
å¨ ģ
é¦ Ĩ
è® °
ç© ¶
é ¸
éĺ ³
æĭ ¬
è ı
çļĦ ä¸Ģ
ä¸» è¦ģ
åĦ ¿
æł ¹
çĪ ¶
æŀ ľ
æĶ ¾
åį ĩ
åı į
å¾ Ģ
Ġ S
é» Ħ
åĨ į
2 1
æŃ »
e s
çłĶ ç©¶
ä» Ĭ
æľ ª
æ° Ķ
åĮħ æĭ¬
è¿Ľ è¡Į
è® º
æ¯ į
åĨ ł
ä»¥ åıĬ
åĪ Ľ
å Ļ
Ġ -
è ħ
å¤ į
å® Į
i s
ç¬¬ äºĮ
æŀ Ħ
ç¦ »
å¡ Ķ
åĲ ī
åį ļ
çĶ »
å¥ ½
åĽ Ń
ç¤ º
çĶµ è§Ĩ
å½ ķ
éĽ ·
åį «
åį ³
æĬ ¥
ç» Ī
æ´ Ľ
åķ Ĩ
è§ Ĥ
ä»ĸ ä»¬
è´ ¨
åħ ļ
å· Ŀ
è§ ģ
åħ¶ ä»ĸ
Ġ ãĢĬ
æ ¥
åĪ Ĵ
i c
æķ ħ
ä¼ ¯
ä» ¶
ä¹ Ŀ
éĿ Ĵ
å¼ º
Ġ C
æĴ Ń
å± ħ
éļ ı
éĥ¨ åĪĨ
èĤ ²
æ± ī
æ ļ
åĵ Ī
çĵ ¦
è¾ ĥ
èİ· å¾Ĺ
åľ Ł
ç½ ®
ç» Ļ
ä¼ ¦
åĻ ¨
e l
é Ń
è° ĥ
çŃ ĳ
é¡ ¹
è¾ ¹
ä¸ Ķ
æ´ ¾
æ²¡ æľī
è£ ħ
è¶ ħ
æĬ ķ
å² ģ
ä¿ ®
æĺ¯ ä¸Ģ
ç» Ń
å¸ Į
æ¬ §
æĿ ĥ
èĲ ¨
åł Ĥ
æ¹ ¾
ä¸ ĥ
æ¯ ı
èī º
èĲ ¥
éĢ Ł
åŃ ĺ
æĶ »
åħ ·
äºº æ°ĳ
å ĺ
é¢ ĺ
æ° ı
1 3
1 4
é º
å ĥ
æº Ĳ
è® ¸
åĬ ©
å· ±
çļ ĩ
çĶ ·
æ£ ®
æľ ¨
19 4
é² ģ
äº ī
æ² Ļ
ï¼ī ãĢģ
åį ı
å¾ Ī
çľ Ł
å¿ Ĺ
åĬ Ł
åħ¶ ä¸Ń
æ¡ ¥
ä» ¤
19 5
åĬ ŀ
æľ į
éĻ Ĩ
äº ¦
åĭ Ĵ
åŃ¦ éĻ¢
é¡ ¿
è¯ Ħ
æĪ ĳ
ä» ½
ä»ĸ çļĦ
å¤ ĩ
æĬ ¤
åħ ´
æĭ ħ
å® ¢
è´ Ŀ
æł ·
å® «
éħ į
2 2
é» ĳ
ç ª
èĢ ĥ
è½¦ ç«Ļ
åı Į
éĻ ¤
å¯ Ĩ
å® ¤
ç ¢
ä¹ ¡
åĮ »
çı Ń
æ¸¸ æĪı
åı ¦
æĹ ©
é£ ŀ
èĥ ľ
å¡ ŀ
æģ ©
æŁ ¥
è®¤ ä¸º
èĲ ½
æĿ Ģ
æĬ Ģ
è¯ ķ
æ¹ ĸ
èİ ±
å»º çŃĳ
è ¨
åį °
å® ¹
è¨ Ģ
çĹ ħ
éĤ £
3 0
é ¹
æī ĺ
éĻ Ī
çĶ± äºİ
å¼ ķ
åº Ħ
çĽ Ł
Ġ M
è¯ º
å® £
å¥ ĩ
åĩ Ĩ
çĶ ²
èĩª å·±
19 7
èĪ ª
èĢ ģ
ç§ ¯
é£ Ł
æĻ ¯
å§ Ĩ
æ· ±
å¤ ±
è§ Ħ
æ¨ ¡
æ ¦
çĬ ¶
åŁ Ł
åĪ ĺ
èĩ ´
çİ ¯
çģ «
åĽł ä¸º
ä¸Ń çļĦ
çİ ĩ
å± Ĥ
åĽ½ éĻħ
ãĢĭ ï¼Ī
ç» §
ä¸Ń å¿ĥ
ä¹ĭ åĲİ
è¡ Ĺ
åĽł æŃ¤
éĹ ®
åĽ ´
æµ İ
åıĳ çİ°
ç¥ ĸ
çº ¢
æĶ¿ åºľ
éŁ³ ä¹Ĳ
ä½ľ ä¸º
i t
ï¼ į
çĻ ¾
ç´ ¢
å·¥ ä½ľ
æ³ °
æİ ¨
è´ ¥
æĽ ¼
æ ½
çĻ »
æ Ĥ
é ±
äº ĳ
åŃ¦ æł¡
æ ħ
åĵ į
19 6
æİ Ĵ
å¯ Ł
é± ¼
ä½ ³
å¢ ĥ
åį Ĭ
Ġ é¥°
åĵ ¥
ç¾ ¤
é ½
2 5
ä¹ĭ ä¸Ģ
å ©
èģĶ èµĽ
ä½ľ åĵģ
æĺ ĵ
åī ¯
æķ ´
å£ °
æ ¤
ä¾ Ľ
u s
éģ Ĺ
æĦ Ł
éĥ ¡
åº ĵ
è®¾ è®¡
i l
åı ĭ
Ġ A
åĿ ĩ
å¢ ŀ
å½ĵ æĹ¶
a m
åĺ ī
åı¯ èĥ½
è¶ Ĭ
åĥ ı
çĥ Ń
çĭ ¬
è¿Ĳ åĬ¨
è¯ į
åĨł åĨĽ
è Ľ
å± Ĭ
åº ·
éĩ İ
ä¾ ĭ
æ± Ĥ
çĿ £
ä¼ Ĺ
åĲĮ æĹ¶
è¿ ª
è± ¡
æĸ ½
ç½ ĳ
çķ Ļ
ä½ ı
èĪ °
è® ©
å® Ī
æ¯Ķ èµĽ
åĨ Ļ
çĳ ŀ
éĻ Ĳ
Ġ B
ä»£ è¡¨
Ġ P
æĭħ ä»»
å ´
ä¾ §
æ³ķ åĽ½
å¾ ģ
o l
ç§° ä¸º
æĥ ³
ç´ ł
å¸ Ń
2 3
æĪ ¿
æİ Ī
åĳ Ĭ
æ ¾
å¤ ı
åł ¡
èĭ± åĽ½
ç ħ
æ¥ ¼
c h
ä¾ ¿
ç Ĩ
è¶³ çĲĥ
åħ ¸
è´ ¹
ç² ¾
çľ ĭ
å§Ķ åĳĺ
æī į
åį ł
åį ĥ
ä¸ĸ çºª
çĿ Ģ
ç» ĩ
éĺ ²
ä½ ķ
a s
ä¿ Ħ
ä¸ ½
å® Ŀ
æŃ ¢
æķ Ī
åĶ ±
éĩ ĩ
ç® Ģ
å· ¦
æ¡ Ī
éĥ İ
æĹ¶ éĹ´
éľ Ģ
éĵ ¶
èĮ ĥ
éĻ Ħ
åŁ ĥ
æī ¿
å° Ħ
è¯ ģ
çī Į
æ° ¸
éĢļ è¿ĩ
äºº åı£
è¯ Ŀ
åı ¶
æ´ ĭ
å® ģ
éĻ į
çī Ļ
æĸĩ åĮĸ
æľĢ åĲİ
è¿ ľ
å¼ Ł
çĽ ĳ
u r
åı° æ¹¾
âĢĿ ãĢĤ
ä¹ ħ
ç« ł
å¯ Į
è¿ °
ä» į
éĵģ è·¯
ä¸į åĲĮ
ä¸ ģ
æ¸ ©
æŃ ¥
åĪ¶ ä½ľ
èį ī
è´ Ł
æŀ ģ
æĪĲ ç«ĭ
æĸ Ļ
ç» ĥ
æĶ¿ æ²»
å±ŀ äºİ
åĶ Ĳ
åĲİ æĿ¥
ç¤ ¼
åı ³
ç³» ç»Ł
åĪ© äºļ
ä» ħ
æĺ ¥
æĿ °
Ġ 201
æµ ĭ
å° ģ
ä½ Ľ
å¼ Ĺ
t h
å¿ µ
æĢ ģ
çĲĥ éĺŁ
ä¹ Į
å¹´ çļĦ
åİ ħ
19 3
æ» ¡
æĪ ·
æĢ Ŀ
è¾ ĳ
ä½ Ļ
èĴ Ĥ
æĿ ¾
è¿Ļ ä¸ª
åº Ĺ
i on
éļ Ĩ
å¾ ĭ
l e
åĩ ł
åĩº çİ°
ä» ·
ç» Ĩ
åıĳ å±ķ
éĤ ¦
çĶ º
è ľ
æ³ ¨
åĲį ä¸º
ä½ İ
å ³
Ġ T
çģ µ
å·¥ ç¨ĭ
èĴ Ļ
å¹ ²
æľ Ľ
2 8
ä¸ ¹
r o
æĸ Ĺ
ç¬¬ ä¸ī
éħ Ĵ
æĬ Ĭ
åį ´
ãĢĭ ï¼Į
åıĤ åĬł
æĿ ¯
åĨ ľ
åŃ Ļ
è½ ½
å¹´ ä»£
åº Ĩ
2 4
ãĢĭ ãĢģ
ç§ »
èµ °
r e
éĢ Ģ
æľŁ éĹ´
æĺ ¾
åĿ ¦
æĭ ¿
å° ¾
è´ £
ãĢį ï¼Į
èĹ ı
æ¢ ħ
ä¸Ĭ çļĦ
ä¼ ¼
èİ «
è ĵ
æ Ĳ
é ³
æĹ ħ
å½ ¹
æ¾ ³
âĢĿ ï¼Į
é¢ Ħ
ä¹ĭ éĹ´
èī ¾
åģ ľ
åĢ Ļ
èĪ ¹
äºº çļĦ
æī ¹
å½± åĵį
åŁİ å¸Ĥ
éº ¦
ä¹Ł æĺ¯
æľĢ ç»Ī
æŃ£ å¼ı
æİ §
å¯ º
å» ¶
å¿ «
Ġ H
Ġ L
ç»Ħ ç»ĩ
åº ķ
æĹ §
æ´ ¥
æ ĵ
ç®¡ çĲĨ
åĿ Ģ
æľĢ ä½³
ç¤¾ ä¼ļ
æ² ¹
èį £
ä¸Ĭ æµ·
çİ Ľ
åħ¬ éĩĮ
æĻ ĭ
äºº çī©
è¯ Ĺ
å° ļ
èĬĤ çĽ®
æīĢ æľī
æī §
æĳ Ħ
ãĢ Ģ
å¤ ®
éª Į
5 0
æ¶ Ī
é¡ º
âĢĶ âĢĶ
åĸ ľ
åħ± åĴĮ
æł¹ æį®
å¤§ çļĦ
è¿Ľ åħ¥
ç¡ ®
ä¼ ĺ
å¾· åĽ½
è®¡ åĪĴ
2 6
è Ń
è¿Ļ äºĽ
å¼ Ĥ
èĥ Į
ç« ¥
æ¤ į
éĺ µ
åĲ ´
Ġ F
çļĦ ä¸Ģä¸ª
é ¼
ç« ¯
ç ¯
ç»ı æµİ
ç³» åĪĹ
éĽ Ħ
åıĳ è¡Į
ç¥ ¨
ä¾ Ŀ
è¯ ·
ä¸¤ ä¸ª
åº Ń
åĩº çīĪ
æĭ ¥
èŃ ¦
äº ¡
æł ĳ
èĻ ½
e t
åģ ļ
201 0
ç§ Ģ
çļ ®
æľ Ĺ
å½ Ĵ
å§Ķåĳĺ ä¼ļ
æĹ¶ æľŁ
ä¸ ´
åĲ «
ä½ Ĳ
æĪĲ åĳĺ
éĹ »
åıĳ çĶŁ
çª ģ
çł ´
èī ¯
è½ ®
u n
èĢ ¶
ä¹ ł
éĽ ħ
éª ¨
éĿ ©
çħ §
é¸ Ł
åĨ µ
æĸ Ń
åį ¢
èĭ ¥
æĳ ©
é½ Ĳ
Ġ R
åįģ äºĮ
çŁ Ń
ä¼ ¤
æģ ¯
æĸ¯ çī¹
ç® Ĺ
Ġ 200
è¯ Ĩ
ãĢį ãĢĤ
éŁ ©
èĩ £
20 19
è¡ Ģ
åĪ° äºĨ
è½ »
èīº æľ¯
é¡ ¶
åŃ¦ å®¶
åİ ĭ
çĶŁ æ´»
è®¸ å¤ļ
ä¸Ń å¤®
åĪĨ å¸ĥ
è° ·
ãĢĭãĢģ ãĢĬ
æĻ ļ
o m
ä¸» ä¹ī
åĮĹ äº¬
æľ «
æľī ä¸Ģ
éĿ¢ ç§¯
2 7
ä¸ °
ç½Ĺ æĸ¯
æĪĺ äºī
åĬ ¿
æķĻ èĤ²
æ¼Ķ åĳĺ
å°¼ äºļ
èĪ ¬
æĿ ¨
èı ²
éĴ Ł
è¡¨ ç¤º
Ġ G
o f
å© ļ
å¼ ¹
å·² ç»ı
å± ĭ
èį ¯
ãĥ »
æ ¿
çļĦ äºº
in g
èģĶ çĽŁ
å® ĭ
äºĨ ä¸Ģ
å² ©
è¯ »
ä¸» æķĻ
æıĲ ä¾Ľ
ä» ģ
a c
å¸ ķ
çĶŁ å¹³
æ¯ Ľ
åħ±åĴĮ åĽ½
ä¸º äºĨ
Ġ D
éļ ¾
ãĥ ¼
an d
åĢ ¼
æ² ĥ
äºĮ åįģ
æ´» åĬ¨
ä½Ĩ æĺ¯
ä¸ Ŀ
éĩį è¦ģ
è´ µ
çİ ©
çĪ µ
åħ »
åħ³ ç³»
åħ¨ åĽ½
å¨ ľ
å® ¾
ç» Ŀ
o s
ä» ĭ
å®Į æĪĲ
æķħ äºĭ
æ² ¿
2 9
è¡Į æĶ¿
æĬĢ æľ¯
201 6
201 2
åĪĹ è½¦
201 3
201 5
éļ ¶
æ¯ ķ
20 20
201 1
æĭ į
çİ ī
å² ¸
åīį å¾Ģ
éĽĨ åĽ¢
åĩº çĶŁ
201 7
éŃ Ķ
æľį åĬ¡
è¾ ĸ
çĽ® åīį
æĬ Ĺ
è¿ ½
æĿ ¿
èµ «
æ£ Ģ
åĪĨ åĪ«
è® Ń
éĢ ģ
201 8
éľ ²
ç¿ °
å¾ ¡
00 0
åħ ¼
åĲ ¯
åĶ ®
à ¸
ä¿Ŀ æĬ¤
æĭ¥ æľī
æ¬§ æ´²
ä¸¾ è¡Į
± ä¹Ĳ
d e
å¿ ħ
çķ ¥
èĻ½ çĦ¶
åĮĹ éĥ¨
æ¢ ģ
åĨ³ å®ļ
åĩ ¯
é¡ »
é» İ
åİ Ĥ
çº ½
åĬł åħ¥
ãģ ®
æŃĮ æĽ²
åħ ¹
åĪ ĩ
ç» ©
å¤ º
åĪ º
æľ ±
æ³ ½
æĹ¶ ä»£
çĽ ĸ
è¿ ģ
èİ ī
åĸ Ħ
åĪ ¤
åĲ Ľ
æŀ ¶
ç ĩ
è° ¢
æį ¢
è§Ĵ èī²
å¾ ®
æĺ ł
æł¼ åħ°
æĿ Ł
æ¯ Ĵ
äº ķ
åį ·
ç»Ħ æĪĲ
Ġ of
æĪĲ åĬŁ
è ĸ
éħ ¸
åıĤ ä¸İ
å¹¶ ä¸Ķ
201 4
èĥ ¡
éĹ® é¢ĺ
20 21
e d
éª ĳ
i a
å Ĥ
ä»ĸ åľ¨
çŃ ¾
åĲĮ å¹´
èĤ ¡
ä» Ģ
è¯ ĳ
çľ ¼
ä¸ ¥
200 8
å®£ å¸ĥ
èģĶ åĲĪ
ç»ĵ æŀĦ
å»º ç«ĭ
çł ģ
4 0
éľĢ è¦ģ
åį° åº¦
æł ¸
éĢļ å¸¸
éĢ Ĳ
åħ· æľī
æĺ¯ åľ¨
æĺ Į
éĽ ª
200 9
éĶ ¦
çĪ¶ äº²
ãĥ ³
æĿ¥ èĩª
äº¤ éĢļ
åĨ ²
r a
åĬ ³
éĥ ĳ
çļĦ åľ°
èĵ Ŀ
æķ £
æĿ Ĥ
å¸Ĥ éķĩ
æľĢ é«ĺ
æķ Į
æ¶ ¯
åŃ¦ çĶŁ
æ¬ ¢
å¤ ľ
å° ½
æĸ¹ éĿ¢
å½ĵ åľ°
èģ ļ
è ŀ
æĹ Ĺ
æĻ º
åħ Ħ
ä¸Ń åįİ
æĭ ľ
200 7
ï¼ī ï¼ļ
æŁ ı
åŃĺ åľ¨
åħ¬ åĽŃ
çļĦ å¤§
æĿ Ĳ
çĽ Ľ
ç± į
ä¸ĵ è¾ĳ
Ġ I
å¦ »
çī Ľ
ä¹ Ķ
è¡ ¥
ç§ĳ åŃ¦
å· ®
Ġ W
h e
ä¸Ģ èĪ¬
éĺ ¶
åħ¬ è·¯
è¥¿ äºļ
èĪª ç©º
çĦ¶ èĢĮ
å® ½
é¡¹ çĽ®
å» ·
200 6
å°ı è¯´
æľī éĻĲ
åįĹ éĥ¨
çĭ¬ ç«ĭ
åľ Ĩ
ä¸Ģ äºĽ
âĢ ĵ
é¥° æ¼Ķ
éľ į
åģ ĩ
èµ µ
çĲĥ åĳĺ
è® ²
èĪ ŀ
19 0
å°Ĩ åĨĽ
å· ¨
è´Ł è´£
å· ¡
åħ į
ç» ¿
èµĽ åŃ£
ä» ª
Ġ K
è· Ŀ
æº ª
éĩ Ĭ
ä¹ ĺ
æĿ ľ
åº ı
å³ °
çĶŁ æ¶¯
i g
å®¶ æĹı
æķ ĳ
èį ·
ä¿Ħ ç½Ĺæĸ¯
ç½ ²
çī¹ åĪ«
æĮ ī
äºĭ ä»¶
åĪ »
è¯ ¸
ç§ ĺ
å½¢ æĪĲ
éŃ ı
ç© Ĩ
çŃ ĸ
ç½Ĺ é©¬
æ® ¿
6 0
å¹³ æĸ¹
éģĹ åĿĢ
åĩ ı
çĶ¨ äºİ
çĶŁ çī©
æ£ Ĵ
å ª
éģ Ń
éĶ Ģ
å¾ Ĳ
äº Ī
å¥ ı
è ª
èĹ ¤
èĥ ŀ
æı ı
é¦ĸ æ¬¡
ãĢĭ ãĢĤ
æİ ¢
æ· ·
ä½ ©
å¾ Ĵ
ç¾ ½
æĮ ¥
èĩªå·± çļĦ
åıĸ å¾Ĺ
æĶ¯ æĮģ
å¼Ģ åıĳ
åı· çº¿
äº ¿
ç»ĵ æĿŁ
å¸ ®
é¢ ĳ
ä¾ĭ å¦Ĥ
Ġ E
s t
è´ ¢
è´ Ń
çĶŁ äº§
æ¦ Ĥ
Ġ N
ä¸ª äºº
åī ĳ
å¹¶ åľ¨
ä¼ļ è®®
æ¤į çī©
ä½ ł
éĻ ©
æµ· åĨĽ
çĮ ®
éĩĩ çĶ¨
éģ ĩ
åº Ļ
å¯¼ èĩ´
çĥ Ī
åįķ ä½į
å¹´ èĩ³
ç« ŀ
ç« ¹
åĬ¨ çī©
è½ ¨
èģĮ ä¸ļ
åĲĪ ä½ľ
çĸ Ĺ
äº§ çĶŁ
å¸Ŀ åĽ½
æĺ Ń
ä¼ ģ
ä¼ł ç»Ł
éĻ µ
æĸ¹ å¼ı
Ċ Ġ
ä¸ī å¹´
çĪ Ĩ
æĥħ åĨµ
åĨ³ èµĽ
æļ ´
10 0
ç £
è®¾ æľī
l a
åĲį çļĦ
ç§ ĭ
æ¯ «
ãĢ İ
ãĢ ı
å® ĩ
å°± æĺ¯
æ¬ ¾
æīĢ ä»¥
çİ° åľ¨
çĽ¸ åħ³
è§ ī
è¾ ĵ
æĽ ¿
i r
æķ ¦
æŀ ª
å¯¼ æ¼Ķ
ç¿ ¼
é© »
çĶ ļ
éĤ »
å¢ ĵ
ä¸Ń åŃ¦
æī ¾
æ¯ķ ä¸ļ
20 22
éĢ Ķ
é Ĩ
æĺ¯ ä¸Ģä¸ª
ä¸į è¿ĩ
è¿Ļ ç§į
è· Ł
å¦ ¹
åįļ çī©
t er
u m
ä¼ ĳ
å® ³
ä¸Ģ èµ·
é² ľ
éķ ľ
æ³ ī
è¿ĩ ç¨ĭ
éĻĦ è¿ĳ
çļĦ æĺ¯
äº Ĵ
200 5
æ¨ ª
å¿ ł
å¾Ĺ åĪ°
ä½į ç½®
i m
ç© ¿
çº¦ ç¿°
é¢ Ŀ
200 0
ä¸Ģ çĽ´
æĹł æ³ķ
å «
å¹ ķ
åĳ Ī
å» ī
ç»ı è¿ĩ
è ķ
å®¶ åºŃ
æ¼ «
) ï¼Į
å° º
èĬ ¬
åĽ½ çİĭ
æĪĲ ç»©
åĿ ¡
åĲĪ å¹¶
æİ§ åĪ¶
éĢ ĥ
ï¼ļ âĢľ
åı¦ å¤ĸ
åıª æľī
éĺ¿ å°Ķ
åıĹ åĪ°
a d
åŃ ©
éŁ ¦
å¹´ éĹ´
æķĻ æİĪ
åº Ł
ç¬¬ åĽĽ
å¤§ éĻĨ
è´ §
å¹´ åº¦
æĢ Ģ
èĽ ĭ
åģ ¥
è Ķ
8 0
èĤ ¯
å»º è®¾
æ¿ Ģ
æĺ¯ çĶ±
éĢ Ĥ
åŃ Ķ
åħĭ æĸ¯
åĪ ļ
åĨ Ī
æ´ ŀ
èĩª çĶ±
é¡ ¾
æ£ ĭ
at ion
åħ ħ
æ» ĳ
ç½ ª
ä½ĵ èĤ²
èµ ŀ
å¥ ī
å® ¡
æĪ ´
çĲ ´
çºª å¿µ
3 1
èģĶ éĤ¦
éĿ ł
éĥ¨ éĺŁ
æľº æŀĦ
Ġ J
åĨ °
200 4
åĲ ¸
åĢ Ł
ç¼ ĺ
å¥ Ī
åįģ ä¸Ģ
ç¼ º
ä¼ į
ç§ ģ
èĢ ³
æ¸ Ĳ
äº ®
èĦ ±
i d
ä»¥ ä¸ĭ
è¦ģ æ±Ĥ
éĵ¶ è¡Į
i v
è Ĩ
ç»§ ç»Ń
éĢ ı
æĿ¥ çļĦ
éĿŀ å¸¸
çĶµè§Ĩ åī§
éĴ ±
éĢī æĭ
åĶ ¯
åĦ¿ åŃĲ
en t
çĶµè§Ĩ åı°
èª ī
ä¹ ±
çī© ç§į
èĦ ļ
åı¦ ä¸Ģ
äºº åĳĺ
æľīéĻĲ åħ¬åı¸
å°Ķ æĸ¯
ä¿ ±ä¹Ĳ
ä¹ İ
é½ ¿
æĸ° éĹ»
èĮ ¨
æµ Ļ
è¥¿ çıŃ
åįļçī© é¦Ĩ
æ¨¡ å¼ı
è¥¿çıŃ çīĻ
æ¦ ľ
ä¿±ä¹Ĳ éĥ¨
å¥³ åŃĲ
åŁº çĿ£
u l
ç»ĵ æŀľ
Ġ ï¼Ī
è¿Ļ ä¸Ģ
çºª å½ķ
ä»» ä½ķ
å·¥ ä¸ļ
åĲį ç§°
ãĢĤ âĢĿ
é¢ ģ
ãĢį ï¼Ī
è¡ £
éľ ĩ
è¿Ľ å£«
ä¾ ¯
æŁ Ĳ
åĮº åŁŁ
ä¸» è§Ĵ
æŃ¤ å¤ĸ
o t
èİ İ
çİ° ä»£
å¤§ åĪ©
åĪĨ ä¸º
çİ© å®¶
äºİ æĺ¯
åĨħ å®¹
è° ĭ
æį ķ
è¯Ń è¨Ģ
æ¼Ķ åĩº
å¤ Ł
å° ¤
æĪ Ī
æ± ł
èĪ į
é«ĺ éĢŁ
è¡¨ çİ°
å¸ ģ
æģ Ĵ
åĽĽ å¹´
èĻ «
ä¸» é¢ĺ
å¢ŀ åĬł
ä¹ Ļ
æ® ĸ
çĤ ®
æļ Ĺ
æī ©
éĢ Ŀ
å§ ĵ
æģ ¶
Ġ ç¬¬
èĤ ī
éĢł æĪĲ
è¿ĲåĬ¨ åĳĺ
ï ½
åįı ä¼ļ
çļ Ĩ
è® ¿
åİ» ä¸ĸ
éģĵ è·¯
å¢ ¨
ä¸» å¸Ń
æĥ ł
ä¾ į
è¾ Ĩ
è¾ Ľ
è´ ¡
çģ °
æµ ¦
ä¹ĭ åīį
åĩ» è´¥
éĻ¤ äºĨ
åĪ Ĭ
9 0
èĦ ī
7 0
¤ Ĳ
æĮĩ æĮ¥
3 5
æ´ ª
èħ Ĭ
è® ¨
æĭį æĳĦ
åĪ ĳ
åĽ º
éĩį æĸ°
çĨ Ĭ
åª Ĵ
åĨ ¬
ç¿ »
ãĢ ī
å¾ Ħ
ç§ ¦
åĲİ çļĦ
çĹ ĩ
e m
Ð °
å¯ ¿
æĶ¹ ä¸º
è¿ Ķ
æĭ Ľ
çģ Ń
ç Ĵ
åĬ ª
æı ´
çĽ Ĭ
çĽ ĺ
æİ¥ åıĹ
éĽ ¨
çĽ´ åĪ°
èµĽ äºĭ
ä» Ļ
ç»Ĩ èĥŀ
a g
å¯¹ äºİ
æĢ§ çļĦ
åľ° æĸ¹
æĺ¯ä¸Ģ ç§į
æ¡ ĳ
ãĢ Ī
æĸĩ çī©
è¶ħ è¿ĩ
åĩº çļĦ
é³ į
ç» į
çīĪ æľ¬
å¦Ĥ æŀľ
ç ¦ģ
å®ĥ ä»¬
æľº åľº
èĥ½ åĬĽ
éĢī ä¸¾
æ¯« ç±³
åĨĽ éĺŁ
æĹ ĭ
ç¯ ĩ
a y
æ¢ ¦
çİ¯ å¢ĥ
åĿ Ĺ
åĪĽ ä½ľ
èĲ §
éĥ½ æĺ¯
è¿ĺ æľī
è´Ŀ å°Ķ
o u
åŃ¦ ä¹ł
o p
çī §
æĪĺ æĸĹ
åĨħ çļĦ
æłĩ åĩĨ
æ¯į äº²
æµĻ æ±Ł
èĮĥ åĽ´
èı Į
éĢīæĭ ©
4 8
çĳ Ł
è¯ ¾
åŁ ¹
äºļ æ´²
åĨį æ¬¡
ä¸ĭ çļĦ
è¿ ¹
è Ŀ
ä¹Ł æľī
æĹ¥ åľ¨
æĵ į
ä¸» æĮģ
éĤ ®
å¹¿ åľº
ï¼ļ ãĢĮ
æĸ¹ æ³ķ
å¦ ®
æĢ» ç»Ł
èĭı èģĶ
å¹¶ ä¸į
èĩª çĦ¶
è¿ İ
åħĥ å¹´
äººæ°ĳ åħ±åĴĮåĽ½
åĮ ¹
æ¯ ģ
åĪ© çĶ¨
è®Ń ç»ĥ
ä¸ī åįģ
200 3
åĽĽ å·Ŀ
åıį åºĶ
3 7
ä¸ľ åįĹ
å¤© æ´¥
è ¸
å½ ©
è¢ Ń
é©¬ æĿ¥
é» ĺ
æķ° æį®
Ġ 199
èµ ı
è° Ī
æŁ ĵ
éĴ ¢
å¯ »
åĨĽ äºĭ
ä¸ľ åĮĹ
åĿ ļ
èĻ İ
å½ ¼
ä½ľ çĶ¨
å¹ ¸
åľ Ī
æĹ¶ åĢĻ
ç±» ä¼¼
åı ¬
è¿ ·
æ± ¤
å¥¹ çļĦ
ï¼Į ãĢĬ
ä» Ķ
æĽ¾ ç»ı
æ» ¨
éļı åĲİ
4 5
èµ ¢
æĸ° çļĦ
æŃĮ æīĭ
ä¼ģ ä¸ļ
ç» ¼
æĴ ¤
æ¥ ļ
éŁ© åĽ½
ï¼ Ł
éĺ ´
t e
å¾ ħ
ä¹ Ī
çı ł
åħ± åĲĮ
å® ľ
åĲ ¬
çī¹ å¾ģ
ç¼ ©
çŁ ¿
å±± ä¸ľ
æĦ ¿
çĽ´ æİ¥
æĸĩ åŃ¦
æī İ
åĵ ²
æľĢ åĪĿ
æľº è½¦
ä¼ Ł
çĬ ¯
Ġ O
åı «
æ° §
çº¿ è·¯
åĪ¶ éĢł
ä¸ī ä¸ª
i e
åĨ ·
ä¹ °
éĿ Ļ
ar d
åį Ī
è® ¢
æĽ ¹
18 9
åŃ Ŀ
å¤§ éĩı
è¡Į åĬ¨
åĬ¨ çĶ»
æģ Ĳ
ç¥ Ń
å®ŀ éªĮ
4 7
çļĦ å¥³
éº »
éĵ ľ
å¿ħ é¡»
èĭ± æł¼åħ°
åħ± æľī
äºĶ å¹´
èĦ ĳ
æĶ» åĩ»
èŀ į
æľī åħ³
200 2
çĲĨ è®º
éĩĮ æĸ¯
å¹¿ ä¸ľ
è± ª
éĺ ģ
è¥¿ åįĹ
é¢ ľ
åĭ ĩ
åĮ» éĻ¢
è¾ ħ
è½ ¯
éļ Ķ
çĶ· åŃĲ
é¹ ¿
Ġ V
å¨ģ å»ī
å¹´ åľ¨
ä¸¾ åĬŀ
è¿ŀ ç»Ń
å¤ª å¹³
å¾ ½
éĽ ķ
æĭī æĸ¯
æıĲ åĩº
æĪĳ ä»¬
åĶ¯ ä¸Ģ
Ð ¾
åĳ ³
å½¢ å¼ı
ä¸ľ äº¬
é¢Ĩ å¯¼
å¤ļ æķ°
200 1
è®® ä¼ļ
èĳ ¡
o w
ç¦» å¼Ģ
åĮħ åĲ«
äºº ç±»
éĺ »
è¿Ļ æĺ¯
å®Į åħ¨
åįļ å£«
ï½ ŀ
æī ¬
æĬ µ
è¥¿ åĮĹ
ä¸Ńåįİ äººæ°ĳåħ±åĴĮåĽ½
é ¬
æĹ¶ çļĦ
è£ Ķ
ç¡ Ģ
æŀ Ĳ
8 5
çĶ ĺ
ç» ĺ
éĻ ¶
æĹ© æľŁ
ä¸Ģ æ¬¡
æ± ĩ
th e
4 6
ç ¹
æ¸ ¡
å£ ģ
çı į
å¸Į èħĬ
æµ ª
åĭ ĭ
çĶ ³
åĩ ¤
æŀ ļ
æĴ ŀ
çĶļ èĩ³
åĳ ¼
ä¾ µ
åĲ ¦
ä¸¤ äºº
æķ° éĩı
èĽ ĩ
åį ±
åĮº çļĦ
åįĹ äº¬
åĪĨ ç±»
æĪĺ å½¹
å¼ ĥ
åī Ĥ
è´ º
å§ Ĳ
ä»» åĬ¡
å·ŀ å¸Ĥ
èĳ £
çĶµ åŃĲ
æŁ ±
er s
çļĩ å¸Ŀ
e c
æ²³ åįĹ
o c
è°ĥ æŁ¥
åĬł æĭ¿
çĸ ĳ
èĢĮ ä¸Ķ
æĤ £
å¹¶ äºİ
è¢« ç§°ä¸º
ä¸Ģ æł·
æķĻ åłĤ
çĽ¸ å½ĵ
éĴ Ī
o d
åŁº ç¡Ģ
å¢ Ļ
ä¸ĵ ä¸ļ
åħ¶ åĲİ
åĽ¾ ä¹¦
æĬķ èµĦ
ä¼ Ĳ
å¦ ĩ
éĶ ¡
åĨ Į
çº ¹
å¥ Ĺ
ä¸Ģ ç§į
çī ł
æıı è¿°
a p
æľ ĭ
å¹ ¼
æľĪ åı°
ç¾İ åħĥ
éħį éŁ³
éĻ ·
èĴĻ åı¤
äºĮ ä¸ĸ
ç» ľ
æį Ł
çº½ çº¦
ä¸į èĥ½
å®ŀ éĻħ
éĿĴ å¹´
ç¹ ģ
æĺ¾ ç¤º
çº ¯
èĳ ¬
è®° è½½
åĲį åŃĹ
è¯ ī
è¾ ½
ç´ «
è¿ «
æķ ı
éģ ¿
æŃ» äº¡
è·Ŀ ç¦»
å¸® åĬ©
æĪ ª
ç¬ ¦
ä½ľ æĽ²
è®¾ ç«ĭ
ãĤ ¹
åįķ æĽ²
åĲ ķ
åŃ¦ åĲį
æİ Į
é£İ æł¼
è¯ ¯
çĤ ¸
èĭ± è¯Ń
3 3
Ġ d
æĸ¯ åĿ¦
Ġ m
æ² ī
è´ ¤
ä¿ Ĺ
è¶ħ çº§
çĥŃ å¸¦
éĹ Ń
ç³ ĸ
èĩª æ²»
è®¾ ç½®
æ¡ ĥ
c e
æ¡ £
æ¶ ²
å¸Į æľĽ
çĩ ķ
äº «
ä¹ĭéĹ´ çļĦ
7 5
åį ĸ
ä¸Ģ ä¸ĸ
éĢ Ĭ
éĥ¨ éķ¿
éĶ¦ æłĩ
æŀ ¢
èĲ Ħ
èĳ¡ èĲĦ
Ġ å¤§
ä¸ ĺ
å±ħ æ°ĳ
å® ª
ä¸º P
ç¡ ¬
è¥¿ éĥ¨
æĸ¹ åĲĳ
å°ı æĹ¶
å¹³ åĿĩ
åľ° çĲĨ
r i
Ġ s
ä¸» æ¼Ķ
åģ ı
åħŃ å¹´
å° Ĭ
è¡Į ä¸º
ä» ĺ
å»º éĢł
è£ ģ
ä¸į æĺ¯
å¹¿ æĴŃ
æĴŃ åĩº
å´ ĩ
il l
äºĭ åĬ¡
Ġ Ġ
è® ¯
ä¸į ä¹ħ
å®ī åħ¨
å´ İ
åĲ ĥ
æģ ĭ
è¿ŀ æİ¥
æĢ ¥
å¼Ģ æĶ¾
Ġé¥° æ¼Ķ
åıĳ å¸ĥ
æ± ½
æĻ ¶
æĦı å¤§åĪ©
ĠS t
ãĥ «
é¢ Ĺ
æŁ ¯
åķĨ ä¸ļ
è· ³
æ½ ľ
äº ¨
è· ¨
åıĺ åĮĸ
éĢĿ ä¸ĸ
è§ Ī
åī§ æĥħ
ä»ĸä»¬ çļĦ
å¤ª éĺ³
é£ŀ æľº
æ½ ĺ
ç´ §
ä¸Ģ åĲį
æĭ Ķ
ï¼ļ ãĢĬ
åĮĸ åŃ¦
æļ Ĥ
åĿ ı
åĿ Ĳ
åĲĦ ç§į
æİĴ åĲį
åľ° ä¸ĭ
é¬ ¼
ä¼ ´
çĮ İ
è¯Ħ ä»·
æ ©
æ³ Ľ
çĽ¸ åĲĮ
Ð ¸
ï¼ ģ
âĢ ¦
æ°ĳ ä¸»
éĺ¿ æĭī
ç¬ ¼
çŃī åľ°
ãĤ ¤
çĮ ª
ĠC h
3 6
æĸ¯ ç§ĳ
ç¬ Ķ
âĢĿ ï¼Ī
åĽ½ æ°ĳ
åħ¨ çĲĥ
åĬłæĭ¿ å¤§
åħ³ äºİ
å®ļ çļĦ
ç¬¬ä¸Ģ æ¬¡
èµ¢ å¾Ĺ
æŁ ´
åĢ Ĵ
åĳ½ åĲį
è£ Ĥ
å»º äºİ
ä» ĵ
æĺ Ĩ
éĥ Ń
åħ¬ åħ±
is t
åĪĨå¸ĥ äºİ
o g
éĶ Ļ
ç»Ł æ²»
çĲ ³
è¾ ŀ
ç¬¬ äºĶ
a v
æ¼Ķ åĶ±
çĨ Ļ
éļ¶ å±ŀäºİ
æ½ ®
éĿ ĸ
çĭ ±
æµģ è¡Į
ç©º éĹ´
éķ¿ çļĦ
æ¯Ķ è¾ĥ
ç¯ ®
äº§ åĵģ
çĽ Ĳ
æĺİ æľĿ
éĶ ĭ
ä¼¦ æķ¦
è½¨ éģĵ
èµ ĸ
7 8
ä¿ Ĭ
Ġ de
ä¸Ń æĸĩ
æĬ ĺ
åıĪ ç§°
äºĮ å¹´
ç»§ æī¿
è¿ Ī
çİ Ħ
è¾¾ åĪ°
æľĿ é²ľ
3 8
åŁ Ķ
æĮ ¯
è° ±
æķĻ ç»ĥ
æģ ¢
ä½Ĩ åľ¨
è®¡ ç®Ĺ
æ¹ĸ åįĹ
åħĦ å¼Ł
å¤§ éģĵ
è§ ¦
è¿Ļ æł·
ç»´ å°Ķ
Ġ Ð
çĶŁ äºİ
ä¸ľ éĥ¨
ä¸ŃåĽ½ å¤§éĻĨ
åĩºçĶŁ äºİ
C h
æĿ ī
èµ ¤
ä»¥ æĿ¥
åĪĨ æŀĲ
ç¨ ³
éĻ ķ
o v
åİ ļ
åľ° éĵģ
ä»į çĦ¶
å±ŀ çļĦ
å¥¥ è¿Ĳ
æħ ķ
ä¼ ¸
å¼ ĺ
ä½ľ å®¶
199 9
çŃī äºº
èĳ Ľ
199 0
è¡ ¡
åıĳ è¡¨
åħ¨ éĥ¨
èµĦ æĸĻ
åªĴ ä½ĵ
èħ ¹
ç»ı å¸¸
éĥ¨ ä»½
éĵģ éģĵ
èĳĹ åĲį
ä¹ ĥ
ä¿¡ æģ¯
å¯Ł éĻ¢
ä¼ °
æķ ¬
æ³ķ éĻ¢
æİ¨ åĩº
å¤§ éĥ¨åĪĨ
è¾ ī
èĥ½ å¤Ł
çĽ® æłĩ
èī² çļĦ
å°½ ç®¡
æĸ ĳ
çº ¸
å¤© ä¸»æķĻ
éļ Ĳ
in e
Ġ the
å¤§ èĩ£
æĢ ª
å¤Ħ çĲĨ
ç¢ ĳ
å¤§ æĪĺ
æł ĸ
æľĭ åıĭ
a k
å¹´ åĲİ
çĲĥ ä¼ļ
è¿Ľ æĶ»
ä¸įåĲĮ çļĦ
ä¸Ĭ æĺł
åĪĨ éĴŁ
åİŁ åĽł
3 2
a b
åı Ļ
199 8
æī§ è¡Į
3 9
è ļ
Ġ æĿİ
åħ ½
é¹ °
åŁº æľ¬
å¦» åŃĲ
æ¼« çĶ»
å¹´ è½»
éĽ ¶
èİ ²
éĤ ĵ
u t
åľ¨ æŃ¤
æ² Ī
æ² Ł
æĬ ļ
18 8
é¾ Ħ
T he
Ð µ
æĶ¹ ç¼ĸ
ç ĺ
ä¸º ä¸Ģ
i an
å® ¿
ç² ī
å±ħ ä½ı
æģ¢ å¤į
ãĢĤ ãĢį
ä¸º ä¸»
åĬŁ èĥ½
å¢ĥ åĨħ
å·¦ åı³
çĦ¶ åĲİ
èº« ä»½
æķĪ åĬĽ
é© ±
æ¡ Ĥ
åľ° çĲĥ
éļ ľ
è¡¨ æ¼Ķ
è· ĳ
æĮ ĳ
éĿ© åĳ½
å£ ¤
æ¾³ éĹ¨
èĽĭ çĻ½
æĺ Ĥ
å¾Ī å¤ļ
æħ ¢
å¼ ±
å¸Ĥ åľº
å°ĳ å¹´
el l
ç«¥ åĨĽ
å¤§ åŀĭ
æ³ķ å¾ĭ
18 6
å¹¿ å·ŀ
æ£® æŀĹ
5 5
è´ ¸
ä¸» ä»»
åħ¬ å¼Ģ
è®¾ æĸ½
æ²» çĸĹ
ç¦ı å»º
Ġ p
å¹ »
199 7
å·´ é»İ
èĥĮ æĻ¯
æ± Ĺ
ç¾¤ å²Ľ
åıĤ èµĽ
çļĦ ç¬¬
åĽ¢ ä½ĵ
è®® åĳĺ
ç®Ģ ç§°
çİĭ åĽ½
è§Ħ åĪĴ
é©¬æĿ¥ è¥¿äºļ
æĪĸ èĢħ
Ġ c
åĽ °
åŃ¦ ä½į
åĿ ĳ
è§Ħ æ¨¡
åĪ Ģ
çĽ Ĺ
ç¦ Ħ
é¼ ĵ
èĳĹ ä½ľ
ç²¾ ç¥ŀ
æĴ Ĵ
èı ľ
æľĢ æĹ©
ar t
çķ ª
è¿ĩ åİ»
æĥ Ĭ
åŃ¦ èĢħ
å Ĺ
ç»ı èĲ¥
éĢī æīĭ
åĽŀ åĪ°
æĶ¿æ²» äººçī©
åĽ¾ä¹¦ é¦Ĩ
r an
å° ĸ
è¯ ļ
æĭ Ĩ
æ¶ ī
æħ Ī
èĮ ¶
æķ´ ä¸ª
3 4
èĭ Ĺ
åģ ¶
å¹´ èµ·
è¡ Ķ
åİ ¦
çī© çĲĨ
ç»ı åİĨ
èĹ ©
èľ Ĥ
çļĦ å°ı
åı Ľ
ä½¿ å¾Ĺ
å¥ĸ é¡¹
çĸ ¾
çŃ Ķ
åį ¿
æ°ĳ æĹı
æ® ĭ
è ¦
æĹ ģ
ç§ĳ æĬĢ
é ŀ
æŁ ³
éĶ¦æłĩ èµĽ
Â ł
ç§ Ł
ä¸į ä¼ļ
çĥ §
åįı åĬ©
ï¼ī ï¼Ī
T C
åĩ ¡
èº« ä½ĵ
n e
åĴ ¸
äºĨ ä¸Ģä¸ª
è¢« è®¤ä¸º
èį£ èªī
èį· åħ°
èµ ł
è·¯ æĺĵ
éĤ Ģ
åĬŀ åħ¬
çīł ä»¬
u b
å¥ ´
ç¥ĸ çĪ¶
ä¹ ¾
æľĢ å¤§çļĦ
çĬ ¹
Ã ©
æĿ¥ æºĲ
åĪĹ è¡¨
å¥½ çļĦ
çº µ
å¤§ ä¼ļ
äºº ä»¬
ç¾İ æ´²
å¤§ çº¦
æīĢ åľ¨
åĪĻ æĺ¯
çĮ «
è¯Ħ è®º
å¡ŀ å°Ķ
ä¸¥ éĩį
æ¢ °
åİ ĺ
æĸ¯ çļĦ
ãĢį ãĢģ
åıį å¯¹
â Ĩ
åĲĮ æł·
ãģ Ħ
çĲĥ åľº
åŁº åľ°
è¿ĺ æĺ¯
å¤© æĸĩ
é¢ĳ éģĵ
ç»¼ åĲĪ
ä»¥ ä¸Ĭ
é© ¶
ç¥ ¥
æ°´ åºĵ
å®ĺ æĸ¹
æĭ Ĵ
è´ ¾
æľĢ å¤§
çģ ¯
èµĦ æł¼
éĻķ è¥¿
åŃĲ çļĦ
å»º æĪĲ
é«ĺ çº§
å½ ¦
æ¯Ķ äºļ
éĢĲ æ¸Ĳ
è ©
åį ĵ
199 6
èĭ± æĸĩ
éĢŁ åº¦
Ġ U
ç» ª
ä¿Ŀ æĮģ
å®ĥ çļĦ
Ġ åľ¨
åħ ģ
æ±Ł èĭı
è¡Ĺ éģĵ
Ġ 198
ä¸ Ī
å°ı åŃ¦
çĭ ®
ç»´ äºļ
åľŁ åľ°
é ¤Ĳ
å® ħ
æ³ ³
å¤ļ çļĦ
è¿Ĳ èĲ¥
æĮĩ åĩº
å° ī
é¸ ¡
ç¬¬äºĮ æ¬¡
p h
ä¸Ń éĥ¨
åİŁ æľ¬
æ® Ĭ
åıĸ ä»£
çļĦ æĸ°
å¾· éĩĮ
å®Ĺ æķĻ
ä¸ļ åĬ¡
åĶ± çīĩ
æĲ Ń
Ð ½
çļĦ ä¸»è¦ģ
åı ¥
åŃ Ł
çĲĥ åŃ£
ãĥ ©
è© ¹
4 9
æľī çļĦ
æĭ Ł
æ· ¡
Ġ f
åĩº æĪĺ
åħĪ åĲİ
åĸľ æ¬¢
éĺ¶ æ®µ
ç» ķ
è´ ¯
æĿĤ å¿Ĺ
åįģ åħ«
åĮĸ çŁ³
åħĭ åħ°
åĿ Ĭ
åºĶ çĶ¨
ç¼ĸ çłģ
ic h
é«ĺ çŃī
é© ¾
å£ ®
en s
ä¼ ı
è½ ´
å¹´ åı·
199 5
é£ŀ è¡Į
å°ļ ä¹¦
æµ ħ
åĬł çĽŁ
ãĥ Ī
éĥ¨ éĹ¨
éģ Ĥ
ç´ ¯
èĢĥ åı¤
æľ¬ ç«Ļ
A n
åħ¬ å¸ĥ
èĢħ çļĦ
al l
çº ²
æ¾³ å¤§
Ġ b
ç¾½ æ¯Ľ
æŃ¤ åĲİ
èµ Ĳ
åĩº ä»»
å°Ķ é¡¿
åħ¬ å°º
è®¾ å¤ĩ
å¥³ æĢ§
å¾¡ åı²
7 6
èĬ Ŀ
éĩį çĤ¹
çŁ¥ éģĵ
æ¾³å¤§ åĪ©äºļ
ï¼ ı
ç½ ķ
ï¼Į âĢľ
çļĦ åīį
åĬł åĿ¡
åı Ķ
çĬ¶ æĢģ
çļĦ ä¸»
åº Ĭ
ä»» åĳ½
å°Ĩ åħ¶
åĤ ¨
o b
å½ Ń
çĶŁ éķ¿
åĨľ ä¸ļ
èĩ³ ä»Ĭ
æĺİ æ²»
åĦ¿ ç«¥
å± ¯
å°Ķ å¾·
æĶ¹ éĿ©
ç¼ĸ åı·
æį ·
ä» ĳ
åĿ Ľ
ç¾İ æľ¯
199 4
ä¸Ģ ä½į
åĲį åįķ
è¶Ĭ åįĹ
åĩł ä¹İ
è¡ĮæĶ¿ åĮº
è¦ Ĩ
æĶ¿ çŃĸ
ç»ĵ å©ļ
es t
å¹ ħ
åĪĿ æľŁ
è§£ æĶ¾
å°Ķ çī¹
æĸ° åĬłåĿ¡
å¸ĥ é²ģ
éħĴ åºĹ
åľ ³
è§Ĥ ä¼Ĺ
åĨ ¯
an g
æĶ¹ åıĺ
æĬ¥ åĳĬ
ä¼ļ åľ¨
å² Ń
199 2
çĥ Ł
çĹ Ľ
I I
ä¹ĭ åŃĲ
èĻ ļ
æľī æĹ¶
æµ ©
ä½ľ æĪĺ
ç»Ħ åĲĪ
è¿Ĳ è¡Į
é«ĺéĢŁ åħ¬è·¯
ï¼ī ï¼Ľ
çģ ¾
195 0
æŀ Ŀ
èī ĩ
æ¯ĶèµĽ ä¸Ń
4 4
9 5
èĭ ¦
è½¦ è¾Ĩ
åı¸ ä»¤
æĿ¡ ä»¶
ä» °
è´ ŀ
ä¹¾ éļĨ
æĽ´ åĲįä¸º
æĺ¯ ä¸ŃåĽ½
ç¨ İ
é¢Ĩ åŁŁ
èİ·å¾Ĺ äºĨ
ä¸ĥ å¹´
i p
Ñ ģ
ä¼ļ çļĦ
æĽ¾ åľ¨
æĮģ ç»Ń
çłĶç©¶ æīĢ
è¶ £
æ¶ ħ
ä¹Ŀ å¹´
Ġ 1
å¸¸ è§ģ
çļĦä¸Ģ ç§į
èī ĺ
åħ¥ åı£
199 3
éĩįè¦ģ çļĦ
åĩı å°ĳ
âĨ Ĵ
ç±» åŀĭ
çĸ «
æ §
ç¬¬ åħŃ
å¥¥ æĸ¯
ç½ĳ ç»ľ
åľ¨ è¿Ļ
å»º è®®
ç®Ģ ä»ĭ
æ£Ģ å¯ŁéĻ¢
éĩĮ çļĦ
å½± çīĩ
æĶ¶ å½ķ
20 23
åĩº äºĨ
å¦ Ī
çĨ Ł
è´¸ æĺĵ
u e
æľī äºĽ
éģ £
ãĥ ĥ
éĺŁ ä¼į
çº¢ èī²
å·ŀ çļĦ
æĺŁ æľŁ
äº¤ æµģ
åľ°åĮº çļĦ
åĩĨ å¤ĩ
èĪ° éĺŁ
èķ ¾
I N
å¹´ è¢«
å· §
åıĳ åĬ¨
ç¤¾ åĮº
é¢ģ å¥ĸ
Ñ Ģ
åı° åĮĹ
å¹¿ æ³Ľ
ãĢĤ ãĢĬ
6 5
éģ į
å°Ķ çļĦ
è± Ĩ
è®° å½ķ
åįł é¢Ĩ
U TC
ç»ĵ åĲĪ
æ¢ ¯
èĬ ³
å¹³ åı°
æĻ® éĢļ
èŃ¦ å¯Ł
åĩ ½
ä»¥ åĲİ
ç¬ ĳ
åıĬ åħ¶
æĶ¹ åĪ¶
ç¡ ķ
å¹´ åīį
é«ĺ ä¸Ń
S t
T V
éĥ½ ä¼ļ
å¤« äºº
çļĦä¸Ģ éĥ¨åĪĨ
ä¼¯ çī¹
äººæ°ĳ æ£Ģå¯ŁéĻ¢
çĪĨ åıĳ
ãĢįãĢģ ãĢĮ
é Ħ
ä¸ §
åľ° éľĩ
åħ¬ åħĥ
åįģ åĪĨ
æľº ä¼ļ
éĻĨ åĨĽ
åĮ» åŃ¦
å½ °
çľģ ä»½
åĽ½å®¶ éĺŁ
8 2
ç¼ĸ åī§
å§Ķ ä¼ļ
åĲ ı
å± ı
èĢĮ åľ¨
åĪ¶ åº¦
éĿ¢ çļĦ
æ³¢ åħ°
åĩºçīĪ ç¤¾
å¤ªå¹³ æ´ĭ
çİĭ æľĿ
æĹł çº¿
198 0
æĮ Ĥ
è·¯ çº¿
åŀ Ĵ
æİ¥ è¿ĳ
åħ´ å»º
çĩ ĥ
æĺŃ åĴĮ
æĺ¯ æĮĩ
æķĻ åĮº
å½ĵ éĢī
ãĤ ¢
ä¹Ķ æ²»
Ġ 2
Ġ æĸ°
æµ ®
å¹¶ åħ¥
éļ §
on g
ç² Ĵ
åľ° çļĦ
åŁİ åĮº
å´ Ķ
i f
æİ ī
æ¯ı ä¸ª
é ī
ä¸Ģ åĲĮ
åĩº èº«
å®ļ ä¹ī
åŁº éĩĳ
æµ ĵ
èĢĮ æĪĲ
åĢ į
å¤º å¾Ĺ
é«ĺ åº¦
ç»Ł ä¸Ģ
å¹¿ è¥¿
es s
å§Ĩ æĸ¯
éģŃ åĪ°
u p
çī© è´¨
çĸ ı
èĶ ¡
å½¼ å¾Ĺ
r y
ä¸Ģ å¹´
æ³ķ åħ°
å½ĵ ä¸Ń
å¹³æĸ¹ åħ¬éĩĮ
åį µ
å° ¸
ãĤ ¯
äºĳ åįĹ
åĲ¯ çĶ¨
çļĦ æĹ¶åĢĻ
å¯¹ æīĭ
çĻ» åľº
é¼ ł
åį Ĵ
éķ¿ çº¦
çĿ ¡
å±ķ å¼Ģ
å¹³æĸ¹ ç±³
åĪĨ åŃĲ
åĮº ä¸º
ãĥ ª
æ®ĸ æ°ĳ
N A
åĨħ éĥ¨
å¨ ±ä¹Ĳ
çĭ Ĥ
åįĹ åĮĹ
å¼ķ èµ·
åįĬ å²Ľ
å¿« éĢŁ
æĥħåĨµ ä¸ĭ
æ±½ è½¦
è® ·
èĢ Ģ
ä¿ ĥ
å¥³ åĦ¿
ç»Ł è®¡
ç¢ ³
æ°§ åĮĸ
Ġ ãĢĤ
æ¶ ¦
199 1
è®® éĻ¢
çļĩ å®¶
. .
åĬ ²
éĺ ª
çī¹ çļĦ
åħ¥ éĢī
çĤ İ
éļ§ éģĵ
åľ° åĪ©
ä¼ł è¯´
æľª èĥ½
éŃ Ĥ
åı¯èĥ½ æĺ¯
èĨ ľ
åİĺ ç±³
çļĦ é¦ĸ
åħ¬ ä¸»
çĶ¨ æĿ¥
çľ ł
ä¾ ł
é©¬ åħĭ
éĵ ¾
æĶ¿ æĿĥ
ä½ĵ çļĦ
ç® Ń
èĳĹ åĲįçļĦ
æī¹ åĩĨ
æĭĴ ç»Ŀ
a h
çİ »
æĻ ĵ
åįģ å¹´
å¡ ĺ
èĻ ĳ
å¤ļ ä¸ª
å®ĺ åĳĺ
åıĺ æĪĲ
% ãĢĤ
Ġ t
å® Ļ
èĩª åĬ¨
æı Ĵ
åĭ ĥ
è¾¹ çķĮ
é¹ ¤
éĢı è¿ĩ
A l
o k
è¯ ¦
æĪĺ åĲİ
åĬĽ çļĦ
æ· ®
ä¹Ĳ åĽ¢
è¿Ĳ è¾ĵ
ç¿ ģ
æĸĩçī© ä¿ĿæĬ¤
è¿ ħ
ä¹ĭ å¤ĸ
å±± è¥¿
ä¿¡ åı·
ä¼Ĭ æĸ¯
èĥľ åĪ©
% ï¼Į
éĹ ª
æ´ Ĺ
é¥ ®
5 6
g e
è¯ ŀ
æ¬ £
å¸ĥ æĭī
éľ ¸
èĮ Ĥ
å¹´ å¼Ģå§ĭ
ä¹ ³
å¤§ æ¥¼
æľī ä¸Ģä¸ª
åĩº åı£
ä¸ª æľĪ
ç¬¬ åįģ
ç¼ ĵ
æİ¥ å£¤
194 5
æ·± åľ³
æģĴ æĺŁ
åľ¨ ç¾İåĽ½
ä¸į åı¯
çĻ½ èī²
èµĦ æºĲ
æĳĦ å½±
äº Ń
æĸ¯ åŁº
æķĻ åŃ¦
çĽ¸ ä¼¼
5 00
æĿ Ń
æĹ¥ èĩ³
å¯ ®
ä¸ľ è¥¿
åį¡ å°Ķ
Ġ ï¼Į
çļĦ çī¹
å¤§ æ¡¥
æľº æ¢°
er t
åŁº åĽł
198 8
éļı çĿĢ
Ġ v
æ³ ¥
çĶŁ åĳ½
å¥¥ åľ°åĪ©
éĿŀ æ´²
è¯ķ åĽ¾
åĪº åı²
o h
ç§ Ĵ
ä»ĸ æĺ¯
çŃ ¹
å¤ļ æ¬¡
ãĢĤ ï¼Ī
ç¾ Ĭ
çĽ¸ å¯¹
æ¹ ¿
éĶ ®
æŃ¦ åĻ¨
Ġ çİĭ
æĹ ¦
åĽ½ çļĦ
åĬĽ éĩı
Ġ 195
ä¸į å°ĳ
æĸ¹ çļĦ
18 0
198 6
e v
ç ŀ
æī ®
å» Ĭ
è¡¨ éĿ¢
ä¹¦ è®°
æıĲ åĲį
5 8
å¤§ å¤ļæķ°
æķĻ ä¼ļ
çĵ ľ
éĺ¿æĭī ä¼¯
åĽł èĢĮ
éĩĳ å±ŀ
éĩį å»º
æ²³ åĮĹ
èģĮ æ£Ĵ
æĹħ æ¸¸
æĿĲ æĸĻ
æ¦Ĥ å¿µ
) ãĢĤ
i o
çº¿ çļĦ
åı¸ é©¬
çĳŀ å£«
æī§ å¯¼
éķ¿ æľŁ
è£ ķ
196 0
çļĦ å¤ĸ
ç¬¬ ä¸Ģä¸ª
å°¼ æĸ¯
ãĥ¼ ãĥ
æĭ ³
åĪ° è¾¾
æĢ» éĥ¨
é¥ Ń
B A
âĢĿ ãĢģ
æĺİ æĺ¾
å¥¥ æŀĹ
è§£ éĩĬ
çļĦ å½±åĵį
äºļ åĨĽ
æķ° åŃĹ
èĭı æł¼åħ°
ç½ĳ ç«Ļ
åħ¬ çĪµ
åĿ Ŀ
ä»· åĢ¼
èģļ èĲ½
Ġ and
å¼ ¥
çĶµ åı°
ç§į åŃĲ
å®ī å¾·
ãĤ ĵ
åıĤ èĢĥ
å®ŀ æĸ½
æ±Ł è¥¿
ç² ¤
æĪĲä¸º äºĨ
æ¯ı å¹´
å¤± åİ»
æĿ° åħĭ
å§ ¬
äºļ åİĨ
æĽ¾ ä»»
4 2
u c
æ ĩ
å¹ ½
è¢ ĸ
éĽ Į
å¹¶ æ²¡æľī
åĬł ä¸Ĭ
éĥ½ æľī
è¿Ķ åĽŀ
ç¼ĸçłģ ä¸ºP
æĸ ľ
å¡ ĳ
an t
åį« çĶŁ
è§Ħ å®ļ
éī ´
a in
Ġ ãĢĮ
æľĪ åįĩ
èĭ± éĽĦ
åĭ ¤
çŁ¥ åİ¿
ç§» åĬ¨
å² ³
18 7
æĺ¯ä¸Ģ åĲį
å¢¨ è¥¿
Ġ 3
Ġ æľĢä½³
ä¸ Ļ
å¤ ·
é»ĳ èī²
çĹħ æ¯Ĵ
Ð¾ Ð
9 8
çł ²
åŁº äºİ
ç¡® å®ļ
åĽĽå·Ŀ çľģ
æĸĩçī©ä¿ĿæĬ¤ åįķä½į
i k
å® ı
åĴĮ å¹³
èĥ İ
æĢ» çĿ£
åİ Ħ
èĤ Į
å®ī å¾½
å®ŀ çİ°
æĲ ľ
æĺ¯ ä»¥
åĽ½ åĨħ
æµ· å²¸
è¿Ľè¡Į äºĨ
åĪĽ ç«ĭ
ä¹Į åħĭåħ°
I S
ä¼ĺ ç§Ģ
å±± èĦī
åħĥ ç´ł
ä»İ äºĭ
æŃ» åĲİ
å¤§ åĮº
å¿ Ĩ
éĢļ è½¦
é¾ Ł
æĶ¶ åħ¥
æħ §
æ¾³ æ´²
å¥¥æŀĹ åĮ¹
æŁ Ķ
äº§ ä¸ļ
Ġ å¼ł
æµ· æĭĶ
çĬ ¬
ä¸Ģ æŃ¥
åĩº åľº
ä¸ī è§Ĵ
å¸Ĥ çļĦ
æŃ¤ æĹ¶
ãģ Ĺ
åŃ© åŃĲ
å¢¨è¥¿ åĵ¥
ä¸¾ äºº
åŃ¦ ç§ĳ
198 9
çĪ¶ æ¯į
æ°Ķ åĢĻ
åħ¸ ç¤¼
çİĽ ä¸½
æľī æķĪ
åı¯ åīįå¾Ģ
åĿ İ
ãģ ĭ
ä¿Ŀ çķĻ
ä½Ľ æķĻ
ä» ²
éĵ ĥ
éĶ ģ
å¤ª åŃĲ
å°ĳ å¥³
æĶ¶ è§Ĩ
å¨ģ å°Ķ
åĹ £
4 3
æĸ¯ å¡Ķ
åĪĹ ä¸º
åįģäºĮ å¹´
çĴ ĥ
çĶŁ æĢģ
åħ¶ å®ĥ
çĶ¨ çļĦ
æ¬ ²
è·¯ åı£
15 0
æī¹ è¯Ħ
æłĸ æģ¯
éĤĢ è¯·
9 6
å² Ĺ
åı¤ ä»£
åĳ¨ è¾¹
éĤ® æĶ¿
æĮĳ æĪĺ
åŃ ¤
å¦ ĥ
åĽĽ ä¸ª
éĽĨ ä¸Ń
åĨį åº¦
åĪĽ éĢł
åĪ ¸
ä¸į åĨį
å°Ķ çľģ
å¼Ģ éĢļ
åİŁ å§ĭ
èį Ĵ
æŃ£ åľ¨
éħ ¶
èµ· æĿ¥
ä¸ĩ åħĥ
e y
æĢ Ĵ
ãĢĭ ï¼ļ
ãģ ¨
å¿ĥ çĲĨ
é² į
æ¸ħ æľĿ
æľª æĿ¥
è ²
è¯ ¢
æĹ¥ èµ·
å°ı ç»Ħ
æĭī ä¸ģ
ç¼ ħ
èĳ£ äºĭ
ä¸ ¸
å· ¢
éĢ Ĵ
ä¹ĭ æĪĺ
ä¸ĩ äºº
ä¸ĸçķĮ å¤§æĪĺ
é¸ £
æĿĢ æŃ»
æ¹ĸ åĮĹ
197 0
u d
å®¶ çļĦ
å¹¿ åĳĬ
198 5
å¤§ èĩ´
ç½ ļ
è° ĵ
è´¨ éĩı
4 1
æĪ Ĵ
æĿ¥ åĪ°
æĪı åī§
åħĪ çĶŁ
åįĩ çº§
æŀĦ æĪĲ
äºī è®®
åģľ æŃ¢
æ¬¢ è¿İ
èµ ´
å¿ į
åĲĮ ä¸Ģ
æĦı ä¸º
åıª æĺ¯
è´¡ çĮ®
èĥ ¶
æĴ °
äº¤ æĺĵ
çĵ ¶
åİĨåı² ä¸Ĭ
3 00
åıĳ å°Ħ
ç¥ŀ ç»ı
å³ ¡
éªĳ å£«
çļĦ æķħäºĭ
åİĨ ä»»
æł¡ éķ¿
åıĸ æ¶Ī
è¿ĲåĬ¨ ä¼ļ
ĠI n
ig h
ç¾½æ¯Ľ çĲĥ
æľĢåĲİ ä¸Ģ
éĺ ħ
åĲĮ æĦı
çĭ ¼
æĬķ ç¥¨
çļĦåľ° æĸ¹
å£« åħµ
å© Ĩ
ä¸Ĭæµ· å¸Ĥ
å« ģ
Ġ å¹´
éĢ Ĩ
æľ¬ åľ°åĮº
å·ŀ åĪºåı²
èĤ ĥ
ä¸¤ ç§į
å¨ ĥ
æĦı æĢĿ
è§£ åĨ³
éļı èĳĹ
æĤ ¬
æµĭ è¯ķ
åĩºçİ° åľ¨
éĶĢ åĶ®
å°¤ åħ¶
e p
ä¸ľ æĸ¹
ä½¿çĶ¨ çļĦ
èĸ Ħ
åįģ åŃĹ
è§Ĩ ä¸º
åĢ ¾
åıª èĥ½
198 4
æ·· åĲĪ
æĶ¹åĪ¶ ä¸º
è¿ Ŀ
éĥ Ĭ
ä¸į æĸŃ
é©¬ å°Ķ
åı° ä¸Ń
in a
ä¸ĩ åİĨ
åį¢ çĵ¦
Ġ éĻĪ
ä¸ ²
åī§ æľ¬
åĳ½ åĲįä¸º
çľĭ åĪ°
å»¶ ä¼¸
å®ĩ å®Ļ
ä¸Ģ åº¦
äºº å£«
æĭ ĵ
åĬ¨ ä½ľ
è¯¾ ç¨ĭ
A T
æĺ¯ åĲ¦
æ³ Ĭ
è¾ °
åįĹ æĸ¹
çİ° æĹ¶
or t
åįı è®®
ä»ĭ ç»į
èĢĮ æĺ¯
éĥ½ å¸Ĥ
æĺİ æĺŁ
é¢Ĩ è¢ĸ
198 7
æłĩ æľ¬
é£Ł çī©
å¤± è´¥
èµ° åĲĳ
9 9
åį ľ
ç® ±
ä¿Ŀ åŃĺ
çĽ´ èĩ³
ç¿» è¯ĳ
Ð º
åĮ Ī
åĽ¢ éĺŁ
éªĳ åħµ
åĵ² åŃ¦
åľ° å¸¦
åĮĸ çļĦ
ãģ Ĩ
ç±³ å°Ķ
æº ¶
ç¨ĭ åº¦
åĺ ´
é³ Ħ
è ¤Ĳ
ä¼ Ļ
ä¸Ń éĹ´
æľī äºº
èĥ ģ
é«ĺ çļĦ
ãĤ ¿
èħ º
åıĮ æĸ¹
Ġ 4
ä¸ĸçķĮ æĿ¯
é»Ħ éĩĳ
ç§ĺ ä¹¦
åĬ ±
æ°´ å¹³
å®¢ è¿Ĳ
it y
å¤ı åŃ£
âĢĿãĢģ âĢľ
å½ »
åī ©
åħ¶ ä½Ļ
è· ĥ
éĩĳ æĽ²
éĿĴ å²Ľ
ãģ ª
åĵģ çīĮ
æĮĩ å¯¼
å®Į æķ´
ä¹¡ éģĵ
æĲ ¬
R E
S E
e w
å¤§ å¥ĸ
è¡ į
ç¥ Ģ
ç¿ ł
â Ķ
å¹´ çĶ±
æĬ ½
åŀ Ĥ
194 4
éĢĢ å½¹
ä»ª å¼ı
çĶ ¸
åĩ Ń
å¯ Ħ
çŁ ¶
æĸ¹ æ¡Ī
æ» ©
éģĹ äº§
çĳŀ åħ¸
æĹħ å®¢
çĸ¾ çĹħ
çļĦ çłĶç©¶
æĹ¥ çļĦ
è½ °
ç¬¬ ä¸ĥ
äºļ ç§į
èĤ ¥
å¡ «
é¦ĸ éĥ½
å¨ ĺ
è¯´ æ³ķ
åıĪ åĲį
äº² çİĭ
åĺī éĿĸ
è¿ĩç¨ĭ ä¸Ń
åĩ½ æķ°
6 4
è ¹
Ġ ãĢİ
ä» ¿
ä¹ ı
éĽ Ģ
èĢĮ è¢«
èĩ³ å°ĳ
ä¹Ł ä¼ļ
çļĩ åĲİ
é¢ľ èī²
s on
Ġ /
æĺ¯ ä½įäºİ
åĲİ æľŁ
æ´ ģ
çĶµ åĬĽ
æķĻ å¸Ī
åģ¥ åº·
' s
ä¸Ģ å®¶
çī¹ æ®Ĭ
æĪĸ æĺ¯
åİ Ŀ
æĻ ¨
éĵ º
B S
åĩº æĿ¥
ä¸į å¾Ĺ
çľģ çº§
èħ ¾
çĽĳ çĿ£
åĨ Ĵ
æĦı è¯Ĩ
è¢«è®¤ä¸º æĺ¯
Ñ Ĥ
åĲĪ æĪĲ
ãģ Ł
ç©º åĨĽ
æĶ¾ å¼ĥ
æķĪ æŀľ
æī °
ç¨ £
çº§ èģĶèµĽ
æĦı ä¹ī
åºĶ è¯¥
åħ« å¹´
194 1
å¾ĭ å®¾
èĢ¶ ç¨£
èı² å¾ĭå®¾
èĤ¡ ä»½
0 2
æĹ ¢
æĹ º
éģĵ åħī
å¤ĸ äº¤
åŃ£ åĲİ
ç¢ į
197 9
è¯ģ æĺİ
æ³¨ æĦı
0 1
åĲ ¨
å±± åİ¿
åī§ éĻ¢
194 9
å®£ ä¼ł
åĤ ħ
çļĦ é«ĺ
ä¸Ģ æĿ¡
ä»¥ åīį
è¡Į æĺŁ
ä¾ ¦
åħ± äº§
å²ģ æĹ¶
çł´ åĿı
åŁºçĿ£ æķĻ
6 7
åı ī
19 20
ä½ľ èĢħ
å°ı çļĦ
äºĭ ä¸ļ
å°± è¯»
åħģ è®¸
æľ ´
åĽ½ ä¼ļ
çº ·
åĪĽ åĬŀ
èį¯ çī©
åĽ½ ç«ĭ
å¤§ èµĽ
åħĭ æĭī
åĨħ éĺģ
éĺŁ çļĦ
å¦Ĥ æŃ¤
é¸ ¿
æ³° åĽ½
Ġ ä¸Ń
çļĦ ä½ľåĵģ
è¯ Ĭ
æĹ¥ åĨĽ
èĥ ¸
èĭ ĳ
ä¸ĭ è¾ĸ
éĩĮ äºļ
å²ģ çļĦ
æ¯ķä¸ļ äºİ
o ur
ä» ĩ
äºº æķ°
æİ ĺ
æ± ¡
ãĥ Ń
é¡ µ
ç»ı çĲĨ
ãĤ ·
æĶ¹ éĢł
ä¿Ŀ ç½Ĺ
å½¢ æĢģ
åĸ Ģ
åı¦ ä¸Ģä¸ª
é¼ »
ç¨³ å®ļ
å¾Ĺ ä»¥
å®ī æİĴ
çł ĸ
æķ° åŃ¦
ä»İ èĢĮ
åŀĭ çļĦ
çŁ¥ åĲį
è®² è¿°
çļĦ ç¬¬ä¸Ģ
åħ¥ ä¾µ
or d
äº¨ åĪ©
B C
ä¸ ŀ
æľĪ èĩ³
è¿Ľ ä¸ĢæŃ¥
ç«Ļ åı°
å±ķ ç¤º
e g
Ġ é¦Ļæ¸¯
ä¸Ń æľī
æĺ¯ ç¾İåĽ½
ä¸ī ä¸ĸ
ãĥ ŀ
éĴ ¦
çĽĽ é¡¿
Ġ å°ı
å± Ī
äºĭ æķħ
æ¯Ķ åĪ©
è´¢ æĶ¿
ç °
ä¸Ĭ éĺµ
å¥¥ å°Ķ
è§Ħ åĪĻ
çİĩ é¢Ĩ
èĸ Ľ
åĲĪå¹¶ ä¸º
èĳ¡èĲĦ çīĻ
5 7
o un
æĸ¯ æĭī
ä¼ļ éķ¿
åŁİ åł¡
çĽ® çļĦ
å·´ è¥¿
æĦŁ åĪ°
ä¸»é¢ĺ æĽ²
çĬ¹ å¤ª
ä¸Ģ å¸¦
æĺ¯ æĹ¥æľ¬
æł ª
åĲİ èĢħ
èĬ± åĽŃ
åĲ¸ å¼ķ
Ġ 9
Ġ Y
ç»´ å¥ĩ
å¤Ħ äºİ
æĤ ²
ä»Ģ ä¹Ī
æĪª èĩ³
ç¯® çĲĥ
Ġ é«ĺ
Ġ éĩĳ
æĿ¥ è¯´
åĽĽ åįģ
ç®¡ è¾ĸ
æīĵ åĩ»
è§Ĥ å¯Ł
åĬŀåħ¬ å®¤
m an
å¥ Ķ
è¥ Ħ
è¢ ģ
å¤ļ ç§į
äºĮ äºº
å·¥ åİĤ
çĦ ¦
é¾Ļ çļĦ
æŃ¦ æ±ī
é³ ŀ
5 1
å¼ ¯
å± ¿
åī ²
æ¸ Ķ
ç»´ æĮģ
æĬķ åħ¥
è±¡ å¾ģ
èĩª è¡Į
å¦ Ļ
æķĻ å®Ĺ
èį Ĳ
åįİ çĽĽé¡¿
ç² Ĺ
èĢĥ è¯ķ
ä¹¡ è¯ķ
éĤ£ éĩĮ
å½ĵæĹ¶ çļĦ
ç¤¾ä¼ļ ä¸»ä¹ī
Ġ in
æĺ¯ æ³ķåĽ½
å¼ ¦
åŃ¦ ä¼ļ
å¦Ĥ ä¸ĭ
è£ħ é¥°
æŁı æŀĹ
éģ¿ åħį
u g
Ġ :
Ġ 19
ä»¥ å¤ĸ
åľ° éĿ¢
ãĤ Ĭ
æ· ĺ
çĭ Ń
æĶ¶ è´Ń
å¼Ł å¼Ł
ç£ ¨
èĩªæ²» åĮº
çĺ ¤
A K
äºº åĴĮ
æ° ¢
åŃ¦ æľ¯
åħ¬ åĪĨ
åįģ å¤§
æ£ ĺ
ar k
194 2
æĪĲç«ĭ äºİ
èŀ º
äº¿ åħĥ
è¸ ª
åľ° ä½į
åħĭ éĩĮæĸ¯
çİ° åľº
en d
198 2
è°ĥ æķ´
æ¤ İ
æŃ¢ äºİ
äºļåİĨ å±±
6 8
Â °
è¯ ı
åĩ ī
å¹¶ éĿŀ
æĥ Ł
è² Į
i x
l y
ä¹Ł è¢«
ãĤ ĭ
çľģ éģĵ
åĳ¨ åĽ´
æĴŃ æĶ¾
ç»ĵæĿŁ åĲİ
åĽ½ éĺ²
åħ¬ äº¤
åħĭ èİ±
é£İ æļ´
èĲ¨ åħĭ
æºĲ äºİ
æ½ Ń
as t
ç£ ģ
è§£æĶ¾ åĨĽ
ä¸ ĳ
å¤§ éĺª
åĩ Ģ
ä¸» åľº
éļ ĭ
éŁ µ
åİŁ åĲį
åĲĦ åľ°
åľ¨ è¯¥
çİ° è±¡
èģĶ ç³»
å°ĳ æķ°
æĹ© å¹´
ä¾į éĥİ
æĹ ¨
æµ· æ´ĭ
çħ ¤
è¯· æ±Ĥ
å¥¥æŀĹåĮ¹ åħĭ
6 6
å¯ ĵ
çĶŁ çļĦ
è¥¿ æĸ¯
åĮº éĹ´
å§ ľ
å¤© åłĤ
éĿ¢ å¯¹
åħ¨ éķ¿
ãĤ ¸
åıĤ è°ĭ
å½¢ è±¡
çĮ Ľ
éĻĲ åĪ¶
æŁĲ äºĽ
ï¼Į ãĢĮ
äºº åľ¨
éĻ¢ éķ¿
ç¨ ¿
åī§ åľº
é¸Ł ç±»
ç§ĺ å¯Ĩ
å¥¥è¿Ĳ ä¼ļ
æī® æ¼Ķ
åŃ£åĲİ èµĽ
5 4
çĽ ¾
åĮĹ æµ·
åıĹ ä¼¤
èĦ ı
æ¨ ±
éĻĦè¿ĳ çļĦ
å¯» æī¾
å¥ ĳ
æĹ¥ æľŁ
åı² ä¸Ĭ
æİ¥ è§¦
èľ ľ
çĮª ç¬¼
å µ
Ġ éĺ¿
è¿ Ł
åĬ¨ åĬĽ
å®ī è£ħ
æģ Ń
åĳ½ ä»¤
çĸ Ĩ
æī¿ è®¤
ä¸´ æĹ¶
ç»¿ èī²
è´Ń ä¹°
çİ» çĴĥ
çĮªç¬¼ èįī
5 9
i b
çĶ± æŃ¤
èĬ Ĵ
åįģ åħŃ
ç»ı åħ¸
çĭ Ĺ
æĺ¯ä¸Ģ ä½į
åĮ» çĸĹ
ä¸Ī å¤«
çļĦ åĲİ
å°Ķ åħ°
çģ Į
åī§ éĽĨ
é¡¾ éĹ®
è¢Ń åĩ»
5 3
C D
çļĦ åİŁ
å° Ŀ
æĹ¥ æ²»
åľ° çĤ¹
æ± Ģ
èĪ Ĵ
çķ Ķ
äºĶ æľĪ
èĲ¨ æĸ¯
çª Ĺ
r ic
å¹´ é¾Ħ
åİ¿ äºº
éĩį åºĨ
æĻĭ çº§
8 8
å¸ ħ
å· «
éĻ Ģ
å¸Ĥ åĮº
æ²³ æµģ
çļĦä¸Ģ åº§
ç¢ İ
è¡¨ æĺİ
æŃ¦ è£ħ
çĬ¶ åĨµ
ç«ŀ äºī
æħķ å®¹
ç¡ķ å£«
èµ ¶
æĽ °
æĬ ĳ
é¢ Ī
æĸ¹ è¨Ģ
å¾Ĺ çŁ¥
å¤© çļĩ
å°Ĩ ä¼ļ
æĽ² çĽ®
198 1
èĢĥ èĻĳ
åĵ¥ ä¼¦
æĢĿ æĥ³
ãĢĢ ãĢĢ
éļ¶ å±ŀ
éŃĶ æ³ķ
åĭĭ ç«ł
çĽ Ĩ
åįģ äºĶ
æĪĺ éĺŁ
ä¹Ł åľ¨
æŃ£ æľĪ
at e
ç»Ļ äºĪ
äººæ°ĳ æĶ¿åºľ
åĮ» çĶŁ
å®¹ æĺĵ
åº· çĨĻ
è´µ å·ŀ
è®¿ éĹ®
è¿ħ éĢŁ
çī µ
æ° ¨
çĲ ¼
éķ¿ åŃĲ
åĪ© æĸ¯
ç© ´
å½ĵ å¹´
å¥¹ åľ¨
å±ķ è§Ī
åĺī å®¾
åĸľ åī§
èĬ¬ åħ°
7 7
Ġ ä¸ī
ä¸Ĭ æľī
ä¹ĭ ä¸Ń
ç¥ Ŀ
çİ° ä»»
ä¹Ł åı¯ä»¥
åľŁ èĢ³
åĶĲ æľĿ
I n
Ð »
ä¹ĭ ä¸ĭ
æĬ ¢
æľ¬ åľ°
å¾· çļĦ
åľĨ å½¢
ä¼° è®¡
q u
åħĭ éĩĮ
è° ¦
æĶ¿ åħļ
è¡¨ è¾¾
æį Ĳ
ç² ®
æŃ¥ åħµ
Ġ åĪĺ
æĮ ª
æ°ĳ éĹ´
æĢ» çĲĨ
æıĲ åįĩ
ä¿¡ ä»°
æĻ® éģį
åĵĪ å°Ķ
æĺ¯ä¸Ģ éĥ¨
æİĪ äºĪ
æĴŀ åĩ»
åľŁèĢ³ åħ¶
åĴĮ åħ¶ä»ĸ
è´ ´
éĵ Ń
æ¼Ķ å¥ı
å®ī ä¸ľ
æ¡ ĵ
çĭ Ħ
çı Ģ
198 3
ç²¾ çģµ
åİĭ åĬĽ
iv e
1 20
çļĦ ä¸ī
åıĳ çĶµ
æľ¬ èº«
å£ ³
çĪ± å°Ķåħ°
åĦ Ĵ
ä¸ Ľ
çļĦ ä¸Ń
å¥ ¶
åĩº åħ¥åı£
çĶ¨ ä½ľ
åĲĪ çī©
çĻ Į
åįģäºĮ æľĪ
Ø §
æĿ Ĩ
åĿ Ĥ
å¼Ģ è®¾
ä¸¤ æ¬¡
çł Ĥ
å½± è§Ĩ
è¾¾ æĪĲ
å¸¦ é¢Ĩ
é¸ Ń
ä¸¾è¡Į çļĦ
è¯ ±
å¯ ¸
åŃ¦ å£«
æĹ¶ ä»»
å¹¶ å°Ĩ
å±± åĮº
åįģ æľĪ
ä¸ŃåĽ½ äººæ°ĳ
æ· »
è¾ĥ ä¸º
us t
æµĭ éĩı
éĨ Ĵ
o y
æĸ ¤
éĩĳ èŀį
åĸ ·
æĳ ĩ
å¨ģ èĥģ
çľŁ å®ŀ
å¼Ĺ æľĹ
å¯ ¨
è¥¿ æ´ĭ
åħ¨ çº¿
æĶ¹ åĲįä¸º
è®° èĢħ
çķĻ ä¸ĭ
ãĥ³ ãĥ
i z
çĶ ľ
è¡ °
æł ı
æł Ĺ
éĽ ĩ
éķ¿ åº¦
å¤ļ å¹´
éĺŁ éķ¿
ac k
æī¾ åĪ°
è¦Ĩ çĽĸ
6 2
çļĦ ç¥ŀ
åĲ »
ä¸Ĭ ä¸ĭ
éĥ¨ å°ļä¹¦
åįģ ä¸ī
on t
èĴ ĭ
äº¦ æľī
åĩł ä¸ª
ç¼º ä¹ı
a w
çļĦ æĸ¹å¼ı
åĩ Į
åĿ ª
ç»Ī äºİ
çĶ· æĢ§
194 0
4 00
Ġ 7
çļĦ æĹ¶
åľ¨ ä¸ŃåĽ½
ä¸į è¶³
ä¸İ åħ¶ä»ĸ
ä½ľ è¯į
çİĭ åŃĲ
æ¬¡ å¹´
æ¹ ĺ
ar y
çı Ĭ
åŁĥ åıĬ
æĵį ä½ľ
é©¾ é©¶
å¥ İ
æĭ ±
è¾ Ĳ
é¦ĸ çĽ¸
èĬĤ åº¦
é£Ł åĵģ
å®ŀéĻħ ä¸Ĭ
åĲ Ĳ
åľ¨ ä¸Ģ
åľ¨ ä»ĸ
åĽ½ åĬ¡
æĸ¯ é¡¿
éĥ¨ çļĦ
è®º æĸĩ
æīį èĥ½
ç®Ģ åįķ
åįģä¸Ģ å¹´
çļĦå¥³ åĦ¿
ä»ĸ è¢«
ä¿ ĺ
è¿Ļ éĥ¨
æıĲ é«ĺ
èĦ Ĭ
çĪ± æĥħ
æłĩ å¿Ĺ
çľŁ æŃ£
æ¸© åº¦
åĲĽ ä¸»
ç Ģ
èĥ º
åĪ¶ çīĩ
ç»Ī çĤ¹
è´µ æĹı
åı ł
éĢ ¢
åıĳ åĶ®
å¸ĥ èİ±
åħ« æľĪ
åį« æĺŁ
åıĳçİ° äºĨ
éĨ ĩ
è®¨ è®º
é©± éĢĲ
6 1
8 9
t on
åľ¨ åħ¶
ç¬¬ åħ«
çŃī çº§
åĪ¶ çļĦ
é»Ħ èī²
197 5
çĹĩ çĬ¶
çļĦ åĦ¿åŃĲ
ä» ķ
æĸ ©
ä¼ ª
å¤§ åİ¦
å¾Ī å¿«
éĺ² å¾¡
çªģ çĦ¶
Ġ h
åħĭ ç½Ĺ
ä¹Ĳ éĺŁ
å·´ å°Ķ
å¤ª ç©º
åħ¬åı¸ çļĦ
çŁ¥ è¯Ĩ
ä¼¯ çĪµ
å¢ŀ éķ¿
åįĥ ç±³
åŁĥ å°Ķ
ç«ŀ èµĽ
å®ŀéªĮ å®¤
æĬµ è¾¾
Ġ ãĥ
åĪ ·
æľī æīĢ
åĮĹ æĸ¹
æı Ń
åĢ º
æł¡ åĮº
æĪĳ çļĦ
196 2
çº ¤
ä¸į æķĮ
é©¬ æĭī
åĲĪ çº¦
åŁİ éķĩ
æľį å½¹
æŁ´ æ²¹
8 7
a i
ä¸Ģ çº§
æ± °
æ± Ŀ
å¯¹ æĬĹ
ç§ĳ åŃ¦éĻ¢
ar l
åĬ¿ åĬĽ
ac e
5 2
f f
å¤§ åį«
å®ļ ä¸º
ãĤ «
åģ ·
æ¶ Ĥ
ä¸ĥ æľĪ
Ġ l
çļĦ åĲĮ
çº ¬
çĲ ī
æľ¬ ä½ľ
åĨĽ çļĦ
åīį èº«
å·ŀ åºľ
at h
6 3
a z
çļĦ åİĨåı²
åĮĹ ç¾İ
æĢ§ è´¨
an n
æ¶ µ
é¾Ļ ç§ĳ
ç¼ĸ æĽ²
æĶ¶ èĹı
ä¸ĵ éĹ¨
çĶ» å®¶
åĬ© çĲĨ
as s
éĻį ä½İ
æĺİæľĿ æĶ¿æ²»äººçī©
æĮª å¨ģ
a u
æł¼ éĽ·
åħ³ éĹŃ
åħī ç»ª
åıĤåĬł äºĨ
å»¶ éķ¿
å®ª æ³ķ
å¤§ ä½¿
æĢ ¡
èĦ ¸
åħŃ æľĪ
æĬķ æīĭ
194 6
197 3
åĮĹäº¬ å¸Ĥ
æĸ ĭ
ä»¥ åĮĹ
æĸ¯ åħĭ
æ¸ Ĭ
æľĢ è¿ĳ
ä¸¤ ä¾§
åĽĽ æľĪ
çº¦ ä¸º
æ· ĳ
éĴ »
èĦ Ĥ
æľĿ å»·
æĻ® æŁ¥
åį« è§Ĩ
æ¼ĶåĶ± ä¼ļ
åĽ½ éģĵ
ä»ĸ äºİ
æĸĩ åŃĹ
æīĢ å±ŀçļĦ
å¦Ĥ ä½ķ
ä¸ĵ å®¶
æĬ¥ éģĵ
è¶³çĲĥ èģĶèµĽ
éĴĪ å¯¹
è¡ĮæĶ¿åĮº åĪĴ
æī ¶
åĩº æ¼Ķ
å¹¶ æľª
è¿Ļ åº§
çĪ ª
æ¼Ķ åĮĸ
ç¨ į
on e
åħ´ è¶£
å¼ķ åıĳ
åĿ¦ åħĭ
7 4
k m
çļĦ éĩįè¦ģ
ä¸Ģ åº§
èµ ĭ
éĥ¨ èĲ½
æ± ª
èĴ ¸
æŃ¦ å¸Ŀ
åľ£ ç»ı
æ¨¡ åŀĭ
åı¯ è¾¾
ç»ı éªĮ
åĪĹ åħ¥
å°± ä¼ļ
æĽ´ å¤ļ
èµĦ äº§
çĪ± å¾·
å¼º çĥĪ
ç²¤ è¯Ń
s h
ç» ³
çŃī çŃī
ãģ «
è¯¥ åºĦ
è½¬ ä¼ļ
èħ Ĳ
èĲ¥ è¿Ĳ
195 8
æĪ¿ å±ĭ
èľ ¥
æĵ ħ
èĪŀ åı°
æ£Ĵ çĲĥ
çļĦ æĪĲåĳĺ
çļĦ åħ³ç³»
éĺ Ķ
çī¹ èī²
ä¸ĭ æĿ¥
å±± åı£
ãģ ¿
çĽ¸ æ¯Ķ
æŃ£ å¸¸
193 9
çĿ¡ çľł
H K
Ġ ä¸ŃåĽ½
çļĦ äºĭ
åĩ Ŀ
çĶ¨ éĢĶ
å¹¶ æŃ¢äºİ
æĸĩ çĮ®
äºĮ æľĪ
ç§ĳ å°Ķ
å¥³ ä¸»è§Ĵ
æ£ ķ
æ» ļ
åħ¬åħĥ åīį
A P
E R
Ġ 10
åľ¨ å¤§
åľ° åľ¨
ãĥ ¬
å·¥ äºº
åį¡ æĭī
ç¢ §
196 3
èİ« æĸ¯ç§ĳ
å§ »
ä¸ī åĽ½
å¤© çļĦ
ä¹¦ ç±į
æŁ¥ çĲĨ
æł¸ å¿ĥ
æĮī çħ§
åŁ¹ åħ»
Ġ ä¸ľ
å¤ ķ
åŃ ķ
å¯ Ĵ
åħ¬ æ°ĳ
éĩĳ çīĮ
é¥ ¼
åŃĹ æ¯į
æł¹ å»·
ç§» æ°ĳ
éº¦ åħĭ
è¤Ĳ èī²
äºļåİĨå±± å¤§
æ ª
å¾ ª
çİ ²
19 30
ä»ĸ ä¸İ
åĲį äºº
çĶµ è¯Ŀ
æĪĺ çķ¥
åı° é£İ
æĦı å¤ĸ
æ´Ľ æĿī
è§Ĥ æµĭ
ä¹Ŀ æľĪ
è£ħ å¤ĩ
éĤ£ äºĽ
é¼ İ
åĨ¬ åŃ£
A r
ï¼ İ
å¤§ åŃĹ
åĲį ä¹ī
åĲĮ çĽŁ
åįģ åĽĽ
ç»Ļ äºĨ
è¶³çĲĥ è¿ĲåĬ¨åĳĺ
éĥİ ä¸Ń
193 7
åĢĻ éĢī
åĨ² çªģ
âĢ¦ âĢ¦
æ·ĺ æ±°
J R
å· ·
ä¸ĭ éĻį
å¯¹ æĸ¹
è° Ń
æĹł äºº
ç¼ĸ è¾ĳ
è½¬ ç§»
ä¿® å»º
197 8
Ġ201 0
çĪµ å£«
æ´ĽæĿī çŁ¶
6 9
æĪĲ å¹´
è¥¿ æĸ¹
å¼Ģ å·¥
é¾Ļ ç±»
åıĺ å¾Ĺ
æĶ¯ æı´
äº¦ æĺ¯
æĤ ī
Ġ201 5
ä¸Ģ æ®µ
åĬ Ŀ
æķ ¢
æł ĭ
è´ «
çŁ ®
ç±³ çļĦ
éĺ³ å¸Ĥ
èħ Ķ
å¤į æĿĤ
195 5
197 2
S T
åį ĳ
ä¸Ń å±±
èģ ĺ
å°ı åŀĭ
åľº æ¯ĶèµĽ
ãģ ¾
åħ³ æ³¨
åĥ §
197 7
çī©ç§į çļĦ
åĽº å®ļ
è Ł
Ġ é»Ħ
å¹´ åºķ
åľ¨ æĹ¥æľ¬
åīį çļĦ
æ²¿ éĿ©
æĭ ĸ
çĲ ª
æľ¬ é±¼
å¤ĸ åĽ½
åį¡ æĸ¯
éº Ł
194 8
éĢĢ ä¼ĳ
æ°ĳä¸» åħļ
æĿŃ å·ŀ
Ġ 5
ä» Ĩ
è´ ¼
åħ¶ å®ŀ
åĽł ç´ł
ãģ ¡
è¯¥ åħļ
çĽ¸ ä¿¡
çĽ´ éļ¶
ç¿ Ķ
è¶³ åįı
ä¸¹ éº¦
åģľ éĿł
æģĲ æĢ
å® °
åĨ ¢
ä¸ĭ åįĪ
ä¸ĩ ç¾İåħĥ
195 6
åį° å°¼
196 9
åı¯èĥ½ ä¼ļ
æ²ĥ å°Ķ
çº¿è·¯ åı£
èĬĤåº¦ ä½¿
8 4
C O
a ur
Ġ åĴĮ
æĸ Ĳ
äºĨ è§£
åŁ ĭ
åĪĨ ç¦»
å¿ ĺ
é¢ ĩ
éķ¿ å®ī
å¾· å°Ķ
èĩª æĿĢ
è¯¥ çīĩ
éĺ¿ æł¹å»·
æĿ¡ çº¦
ĠA l
æ³¨ åĨĮ
æ¶Ī å¤±
ä¼ĺ åĬ¿
ç¥¨ æĪ¿
ï¼ ħ
å¹´ æĹ¶
è¿ ¦
ä¸İ åħ¶
ä»» å¤©åłĤ
åĬ¨ è½¦
èĤ ¢
æĢ§ åĪ«
ç¥ŀ ç¤¾
è§£ æķ£
æĿĥ åĬĽ
194 7
å»ºçŃĳ å¸Ī
åįł åľ°
æ¡Ī ä»¶
un g
ation al
å¤§ å¤«
ä¼ļ åĳĺ
é«ĺ ä¸½
è·¯ æ®µ
åľº æĻ¯
éĤ ĳ
æīĭ æľº
in d
ç¨ĭ åºı
ä¼ł æĴŃ
å°ĳ å°Ĩ
è§Ĥ çĤ¹
195 9
æĹĹ ä¸ĭ
ec t
ä»¥ ä¸º
éĽ ¾
ãĤ ¨
äººåı£ æķ°éĩı
ç»ĦæĪĲ çļĦ
çŃ¾ ç½²
ç¦ģ æŃ¢
à ¤
çļĦ æ°´
åŁİ çļĦ
ãģ ķ
çĽ¸ äºĴ
åıĹ æ¬¢è¿İ
æ³¢ æĸ¯
194 3
ä¸° å¯Į
ä¸»æķĻ ç»ĥ
éĤ» è¿ĳ
æĤ£ èĢħ
ï¼ī -
åľ° åĽ¾
è¢« è¿«
åĬł åĪ©
æĸ° äºº
éĤ ±
é¦ĸ åħĪ
åĪĽ å»º
is h
åĳĬ è¯ī
Ġ é©¬
åĨ ķ
æĬ ĵ
æ¼ ł
éĤ ª
ãģ Ĥ
å¸Ī èĮĥ
åĪ¶ä½ľ äºº
æĹħ è¡Į
éĩĬ æĶ¾
çİ°åľ¨ çļĦ
é¢ģå¥ĸ åħ¸ç¤¼
æŃ ĩ
åĩº åľŁ
è¥¿ åĮĹéĥ¨
å¹¶ ä»¥
ä¸ī æľĪ
å¦ ĸ
çĪ ·
äº¤ çķĮ
æĥħ æĬ¥
æ°Ķ è±¡
Ġ201 4
çĶ³ è¯·
i al
æĺ¯ é¦Ļæ¸¯
æĪĲ éĥ½
åıĳ æĺİ
èĢĮ è¨Ģ
çŁ ¢
æıĲ åĪ°
ic e
åī¯ ä½¿
åħ¼ ä»»
éģ µ
åĬł æĭī
çĶµ æ°Ķ
ä½Ĩ ä»ĸ
ä½Ĩ çĶ±äºİ
å®ī å¨ľ
éĥ½ çĿ£
è®¤ è¯Ĩ
èģĮ åĬ¡
èħ ¿
åĮ» åŃ¦éĻ¢
196 5
ĠT he
èģĶåĲĪ åĽ½
è½¯ ä»¶
ä¼Ĭæĸ¯ åħ°
çľģéģĵ åı°
m m
Ġ g
çļĦ ä¸¤
å¸ Ĩ
åĬ «
åº ŀ
æĮ ĸ
æĭī åħĭ
çĲĨ äºĭ
èį Ĩ
æĽ¾ ç¥ĸ
å¼ķ åħ¥
é£Ł æĢ§
éĥĳ å·ŀ
ä¹ĺ å®¢
oh n
Ġ n
çļĦ æµ·
ä¸Ģ å®ļ
å¤§ å°ı
ç½ ¢
ä»» èģĮ
å¾Ĺ åĪ°äºĨ
èĤ ĸ
èī² åĪĹ
on d
ç² ¹
è¾¹ ç¼ĺ
è£ħ ç½®
197 6
éĻĦ å±ŀ
ç§ģ äºº
8 6
çļĦ å·¥ä½ľ
çļĦ éģĵè·¯
åħ Ĩ
å§ ļ
è¿Ļ æ¬¡
ãģ į
å°¼ å°Ķ
åįİ äºº
å®ŀ è¡Į
ä¼Ĭ æľĹ
åĳ¨ æľŁ
ä¸»è¦ģ æĺ¯
å£° éŁ³
ä»· æł¼
ä¾Ŀ çĦ¶
å·® å¼Ĥ
æ¶ī åıĬ
æģĲæĢ ĸ
7 2
ä¸º äºº
åī ª
æĸĩ èīº
æĸĩ ç«ł
èĤ ł
éĢļ éģĵ
æīĭ æľ¯
æ²³ çķĶ
éĩı çļĦ
ä¹ī å¤§åĪ©
åĳ¨ å¹´
ä»Ĭ æĹ¥
è¯ķ éªĮ
197 4
çĽĳ çĭ±
éĢĢ åĩº
æ¶Ī æģ¯
æĻļ ä¸Ĭ
çŃ¾ çº¦
åį± æľº
7 9
a ch
å¤ ¹
å¹´ åĪ°
ä¸º æŃ¢
ç¦ ħ
ç»Ħ å»º
é¦ĸ æĴŃ
åī§ åĽ¢
çīĻ é½¿
çĽĳ åĪ¶
193 6
æ¯ķä¸ļ åĲİ
æĹłçº¿ çĶµè§Ĩ
å¹´ åĴĮ
åľ¨ äºİ
æĸĩ ä»¶
å¯¹ è±¡
å¾Ĺ åĲį
å¹³ åİŁ
èµ· ä¹ī
ar e
æĽ´ åĬł
or m
æŀĦ éĢł
è´£ ä»»
å¹¿ä¸ľ çľģ
è¿Ļæł· çļĦ
ç¼ħ çĶ¸
åĽ Ĭ
å§ Ĭ
åİ¿ äººæ°ĳæ£Ģå¯ŁéĻ¢
çĮ ľ
ä¸ĸçķĮ ä¸Ĭ
åį³ ä½¿
ĠA n
èĵĿ èī²
çļĦ ä½įç½®
åĨ »
å¤§ èģĶçĽŁ
æİ ª
çī¹ éĩĮ
è¯Ń çļĦ
ä¹Ŀ é¾Ļ
195 4
196 1
196 4
æķ´ ä½ĵ
ä½ı å®ħ
èīºæľ¯ å®¶
éĴ¢ çĲ´
çĬ¯ ç½ª
èĢĥåı¤ éģĹåĿĢ
b er
Ġ 6
å®ĥ æĺ¯
æĬķ éĻį
195 7
ä¼Ĺ å¤ļ
èģĮä¸ļ çĶŁæ¶¯
æµĻæ±Ł çľģ
æģĲ é¾Ļ
a e
ä¸į åĪ°
å¸Ĥ éķ¿
è¿Ļ é¦ĸ
æģ °
åİ¿ éģĵ
ç¨ »
ä¿Ŀ å®Ī
å¤§åŃ¦ çļĦ
åįĩ ä¸º
197 1
e e
çĶŁ åŃĺ
éķ¿ è¾¾
å¯¹ å¤ĸ
äºĭ å®ŀ
éĢī ä¸º
ä½įäºİ æ³ķåĽ½
ç©º æ°Ķ
ĠS ch
é£Ł çĶ¨
r it
Ġ çļĦ
å¤ļ åĪ©äºļ
æĭī å¾·
æĦ Ī
10 00
èħ ĵ
èĢģ å¸Ī
çģ« ç®Ń
æİĴ è¡Į
å¾ĭ å¸Ī
èĥĮ é³į
å°¼äºļ å·ŀ
å»ºç«ĭ äºĨ
çī¹åĪ« æĺ¯
ç¬¬äºĮæ¬¡ ä¸ĸçķĮå¤§æĪĺ
igh t
B N
æľī èĳĹ
æĸ¯ åł¡
è¢ ĭ
ç¥ ł
åĬł å·ŀ
æĥ ¯
æ¸¸ æ³³
å·¡ åĽŀ
ĠU n
åĮĹæµ· éģĵ
åĵ¥ä¼¦ æ¯Ķäºļ
I C
ä¸Ń è¢«
éĺ ®
è¥¿ åħ°
å¹¶ ä¸İ
ç§ĳ åŃ¦å®¶
çĤ ī
åį³ ä½į
ç¢ °
éĻĦ åĬł
æĹ§ å¸Ĥéķĩ
c t
Ð ²
å¸ ½
å¥ ĭ
è¾ ©
åįģ ä¹Ŀ
é¦ĸ ä¸ª
åł ¤
å¸¦ æľī
åĽ½éĻħ æľºåľº
7 3
Ġ "
ãĢĭ (
æ¯ ħ
å±± å¸Ĥ
æľº åĻ¨
ãģ ĵ
ç»Ħ éķ¿
å·´ åŁº
åĪĻ ä¸º
is s
å½ķ éŁ³
ä»¤ äºº
å»ºçŃĳ çī©
196 6
è¯ģ æį®
Ġ201 6
Ġ201 8
193 8
æĵ İ
éĹ» åĲį
âĶ Ģ
Ġ å¤©
å¼ ĵ
ä¸Ĭ å¸Ĥ
å¿ ½
åıĳ åĩº
ä¹Ł ä¸į
åł Ĩ
æ» ķ
æĽ´ ä¸º
éķĩ åĮº
è£ħ çĶ²
å¢ŀ å¼º
ä½ı åľ¨
æį¢ ä¹ĺ
ä¸ŃåĽ½äººæ°ĳ è§£æĶ¾åĨĽ
å° ¹
æĺ¯ ä¸ª
ä¸į æĺİ
åı¯ è§ģ
å¾Ĺ åĪĨ
çĤ ¼
æĢ» ä¼ļ
æīĵ ç®Ĺ
éħį åĲĪ
æ¦ Ħ
çķĻ åľ¨
çħ§ çīĩ
éĢĤ åĲĪ
ä¸»æĮģ äºº
è·¯æĺĵ æĸ¯
) ãĢģ
A R
çļĦ è§Ĵèī²
ä»¥ èī²åĪĹ
åľ° è´¨
éĹ ²
åĩº å¸Ń
åĨĽ åĽ¢
èģ ª
ãĤ ª
äº¤ åĵį
çĭ Ĳ
èĻ ¹
ç¿ Į
195 3
æĦŁ æŁĵ
æĹ¶æľŁ çļĦ
åĪĨåĪ« æĺ¯
èĸ ĩ
çŃ¾ è®¢
æĮī å¯Ł
åĬª åĬĽ
éĻķè¥¿ çľģ
æ®ĸæ°ĳ åľ°
çļĦ æĹ¶éĹ´
èĢ ķ
èĩ Ģ
æ² ¼
æĬ «
å®¶ ä¸Ń
è¥¿ å®ī
åĪĨ éħį
åĳĺ å·¥
å°Ĩ é¢Ĩ
å¸ĥ åħ°
ç§į æ¤į
ãģ ¯
ä¼ł æķĻ
æºĲ èĩª
å¼Ĺ éĽ·
å·¡ æĬļ
ç¬¦ åĲĪ
S h
å®¶ äºº
æľ¬ çīĩ
çĶ¨ æĪ·
ä¸ľ åįĹéĥ¨
æĻ ´
ä¹Ł å°±æĺ¯
åİŁ æĿ¥
åł ª
æĦı è§ģ
åı¯ä»¥ åľ¨
ä¸»è¦ģ çļĦ
æ´Ľ åħĭ
éĿĴ æĺ¥
è¯ģ åĪ¸
å¸¸è§ģ çļĦ
N BA
åĲ ¹
å® ł
èĢ Ĺ
åħ¬ æĸ¤
ä¸ī äºº
ç¥ ¯
å®ĺ èĩ³
æĪĲç«ĭ çļĦ
å°ļ æľª
è¹ Ī
æĪĲ æľ¬
éĹ ¸
æľĢ å¤ļ
åĲĳ åįĹ
å½¢ çĬ¶
å¤ª éĥİ
å¸¦ æĿ¥
èīº äºº
195 2
æĺ¥ ç§ĭ
ç¡® è®¤
un d
éļľ ç¢į
ä»»åĳ½ ä¸º
å°Ŀ è¯ķ
æĪĲ å°±
çĶµ èĦĳ
é¡ ·
èĤ ¿
ç¨ Ģ
çĽ´ å¾Ħ
å·² è¢«
åıĺ ä¸º
æĸ½ å·¥
193 5
é¢Ħ è®¡
å©ļ å§»
å¦¹ å¦¹
åħ±äº§ åħļ
åĲ ¾
å¸Ĥ æ°ĳ
é©¬ éĩĮ
å·¥ åħ·
ç§į æĹı
ç»´ åŁĥ
é¢Ĩ åľŁ
ä½įäºİ ä¸ŃåĽ½
ic a
æ¸¸æĪı çļĦ
Ġ200 8
æ²³åįĹ çľģ
m i
p er
à ¹
çļĦ æĥħåĨµä¸ĭ
ä¸» äºĭ
åıĳ èµ·
ç¦ §
çº¦ çĳŁ
åģ ¿
ç¥ŀ è¯Ŀ
æº ¯
å¤ª å®Ī
èĭı ä¸¹
ä¿® æĶ¹
æĿĢ å®³
èĽ Ļ
æ»¡ è¶³
28 1
åįģä¸Ģ æľĪ
è©¹ å§Ĩæĸ¯
çĪ±å¾· åįİ
Ġ ç½Ĺ
åĲ ŀ
åľ¨ æĸ°
âĢ §
å¿ §
éķ¿ æ±Ł
åįģ ä¸ĥ
æµ· å¤ĸ
åº¦ çļĦ
æł¼ å°Ķ
çĮ ´
åıĮ æīĵ
è¯Ĺ äºº
æ£Ģ æŁ¥
è´§ å¸ģ
æĴ¤ éĶĢ
äº« å¹´
i am
å¤§ å¤ļ
å¤§ éĢī
åĴ ĸ
èĢ Ĳ
æľ¬ äºº
ä¸ľ ä¾§
æĸĩ æĺİ
æ¢ ¨
çŁ³ æ²¹
è± «
çĪ± çļĦ
æĶ» æīĵ
å®¤ åĨħ
us e
ä¼¼ ä¹İ
ç¹ģ æ®ĸ
è£ģ åĪ¤
A M
Ã Ĺ
Î ±
Ġ æŀĹ
çļĦ å¸Ĥéķĩ
åľ Ń
åľ¨ ä¸Ģèµ·
å¤§ å°ĨåĨĽ
æī «
æĥ ¨
èĥ½ æºĲ
åħ¨ éĿ¢
æı ¡
åİ¿ çļĦ
é¦ĸ å¸Ń
æĶ¹ å»º
æľĿ æĹ¥
æ¡¥ æ¢ģ
åĩĨ åĨ³èµĽ
éĩĩ åıĸ
193 4
çŁŃ æľŁ
æ¦Ĥ è¦ģ
ä½ĵèĤ² åľº
5 85
è ¤
Ġ w
ä¸į ä»ħ
éĽ į
å¿ Ļ
ä¸ī åĪĨ
èĬ Ļ
çĪ ¸
æľº åħ³
åı¤ åħ¸
èĴ ²
or e
it h
ĠA r
Ġ201 2
åĳĪ çİ°
éĺ» æŃ¢
è¾½ å®ģ
m er
Ġ åįĹ
å¹´ çĲĥåŃ£
èĬ ¦
æĪĺ å£«
æ¯Ķ ä¾ĭ
ãĤ Ń
è£ ´
æĺŁ éĻħ
åı¤ èĢģ
èĮ ħ
èĹ »
å¤ı ä»¤
37 4
åĽ½åĬ¡ éĻ¢
6 25
9 7
Ġ è¥¿
çļĦ è®¾è®¡
ä¸Ń æľŁ
æĪĲ äºĨ
çŁ Ľ
èĤ º
è¿Ĳ çĶ¨
æĢ» çĽĳ
éĽĨ çļĦ
é¢Ĩ åľ°
å·² æľī
åľ£ æ¯į
æŃ» äºİ
å¼ķ æĵİ
ä¾ĭ åŃĲ
éľĢ æ±Ĥ
èĪŀ è¹Ī
æī© å¤§
æŀ¢ å¯Ĩ
è®¡ç®Ĺ æľº
é«ĺçŃī åŃ¦æł¡
ä¿ĥ è¿Ľ
SE E
A S
T h
ç« Ł
åħ¬ ä¼Ĺ
æľ¬ ç§ĳ
å¸ĥ æĶ¿
ç«ĭ æ³ķ
äººåı£ æĻ®æŁ¥
è¾ĸ åĮº
éĢĶ ä¸Ń
l and
åĲ §
æĭ ¼
æĢ ķ
çī¹ çĤ¹
æµ· å³¡
éĹ´ çļĦ
å¸ĥ æľĹ
10 82
ãĤ ī
éļı åį³
ç³»ç»Ł çļĦ
Ġ201 3
åĪĨåĪ« ä¸º
çľ¼ çĿ
åĲ Ĭ
ä¸º æ³ķåĽ½
äºİ P
ä»ĸ è¿ĺ
å¹¶ çĶ±
é© ³
ä¸ľ åĮº
èĩ³ äºİ
åĲĪ åĲĮ
åĲĪ åĶ±
å¸ĥ éĽ·
ä¹¦ éĻ¢
æĳ Ĩ
å¤į åħ´
æ´¾ éģ£
é¹ ı
åĺī ä¹ī
å¼Ĺ éĩĮ
Ġ200 9
åĬłåħ¥ äºĨ
æįŁ å¤±
IN SEE
8 3
çļĦ çĶµå½±
ä¸į æ»¡
æľ¬ çº¿
åħĭ çļĦ
æľº åĪ¶
ç§° ä½ľ
ä¸¤ èĢħ
æº ĥ
æĮĩ å®ļ
å¾Ģ å¾Ģ
å®Į å·¥
åħ¶ä¸Ń åĮħæĭ¬
èĲ½ æĪĲ
åī¯ ä¸»å¸Ń
ä½Ľ ç½Ĺ
æĲ º
åį± éĻ©
åŃĲ å¥³
åħĭ å°Ķ
ä»£ çĲĨ
çĽ¸ éĤ»
èį ¡
å¨ ¶
å© ´
ç½Ĺé©¬ å¸ĿåĽ½
çĪĨ çĤ¸
éķ¿ æ²Ļ
è° ¥
èĤ ¤
er n
åĲĦ èĩª
ç¡ «
åĵĪ åĪ©
è¶³çĲĥ éĺŁ
193 3
ens is
å·´åŁº æĸ¯åĿ¦
s k
s s
æľ Ń
åĽ ļ
ç¾İ ä¸½
éĤ µ
å¥³ æ¼Ķåĳĺ
åķ ¡
å±Ģ éķ¿
çĻ» éĻĨ
éĺµ å®¹
äºĴ çĽ¸
æĭĨ éĻ¤
çº¤ ç»´
6 00
M ar
o x
å± ł
è¾ ¨
è¾ Ł
åĪĨ æĶ¯
åħĭ æŀĹ
åı° åįĹ
ä¸¤ åĲį
åħ³ éĶ®
æľį è£ħ
æĻļ æľŁ
i es
å¹´ åĪĿ
æĿ ı
ä¸Ĭ äºĨ
åıĳ èĤ²
äºļ å½ĵ
è¿Ľ çĲĥ
å¹³ éĿ¢
æ³¢ å£«
196 8
ĠP ro
éļ¾ ä»¥
Ġ &
çļĦ éĥ¨åĪĨ
å¹´ ç¾İåĽ½
å® ´
éĢ ¼
ä¹ĭ å¥³
å¯¹ åºĶ
æģ ¨
è¯¥ çī©ç§įçļĦ
æ¸¯ åı£
ä¹¦ ä¸Ń
æµģ æµª
è¿ĳ å¹´
äº² èĩª
é±¼ ç±»
éĻ· åħ¥
åĽ° éļ¾
æ±Łèĭı çľģ
äººåı£æķ°éĩı ä¸ºP
çľ¼çĿ Ľ
çļĦ å¤©
èĢĮ ä¸į
åįĹ ä¾§
ãĥ Ĩ
æĥ ľ
æ¯Ķ å¦Ĥ
ä¹Ŀ æ®µ
å¾Ī å¤§
Ġ201 7
å·¥ç¨ĭ å¸Ī
æ¹ĸåįĹ çľģ
çļĦ å¤´
æľ µ
ä¸Ģ èĩ´
åº ¶
å¤§ è¥¿æ´ĭ
åĴ ¨
éĢ »
åĲİ è¢«
æĪĲ éķ¿
ä»ĸ åĴĮ
åĮĹ ä¾§
çİ° å®ŀ
éħ ¯
è¾¾ å°Ķ
ç©º ä¸Ń
åĸ Ļ
æĳ §
èĲ¨ å°Ķ
195 1
åĵ¥ åĵ¥
å´ ©
ç¼© åĨĻ
çļĦ ç¬¬äºĮ
çļĦ è¯Ŀ
åľ¨ é¦Ļæ¸¯
ä¼ ½
æĪĲ çļĦ
æĬ ±
çľ ī
è° ģ
æ¯Ķ å°Ķ
åĲĳ åĮĹ
åĬ³ åĬ¨
è·Ł éļı
åı¬ å¼Ģ
è¿ŀç»Ń åī§
åĮºä¸º UTC
åĨĴ éĻ©
V D
ä¸Ń åħ±
å¤§ è¡Ĺ
æĹ¶ æ®µ
åħ¬ é¡·
é¢ Į
ä»£ çĽ®
æīĢ å±ŀ
æµ· ä¸Ĭ
ç§į ç±»
éĩĳ å±±
å¥³ åŃ©
äºĶ åįģ
å²Ľ å±¿
å¼ł ä¸ĵè¾ĳ
æŃĮ è¯į
åĲ« æľī
ç«ŀ æĬĢ
r is
Ã ¡
çļĦ åıĳå±ķ
20 46
èĩª èº«
ãĥ ķ
å¹³ è¡¡
ãģ Ĭ
ç»Ļ äºĭ
ä¿® éģĵ
å¯Ĩ åº¦
åĿĩ ä¸º
æĶ¿æ²» å®¶
å¸Ĥéķĩ ç¼ĸçłģä¸ºP
éĶĢ éĩı
æİ¥å£¤ çļĦå¸Ĥéķĩ
éĤ®æĶ¿ ç¼ĸçłģä¸ºP
æ¯ĶåĪ© æĹ¶
INSEE å¸Ĥéķĩç¼ĸçłģä¸ºP
M V
Ġ æĹ¥æľ¬
åĩº åĶ®
ä»» æľŁ
å¯¹ æŃ¤
åħ¥ çĲĥ
ãĤ £
å·² çŁ¥
or n
èģĮ ä½į
åį« æĸ¯
ç¥ĸ åħĪ
æ»ĳ éĽª
åįļå£« åŃ¦ä½į
æĹ¶çļĦ äººåı£æķ°éĩıä¸ºP
0 9
Ġ Z
çļĦ åĽ½å®¶
å® Ľ
äºº å·¥
æĸ¯ æŀĹ
ãĢĭ ï¼ī
è¥¿ ä¾§
åĮĹ éŃı
åĨħ æľī
çĲĨ å·¥
å¸ĥ å°Ķ
ä¹Ĳ åĻ¨
é¦ĸ ä½į
æĶ¹ åĸĦ
èµ· æºĲ
åĸ »
èı ©
ĠS p
éĿĴ å°ĳå¹´
ĠL e
çļĦä¸Ģä¸ª å¸Ĥéķĩ
Ġ200 7
la y
åħħ æ»¡
8 1
Ġ 12
çļĦ çĪ¶äº²
æĹ ¬
åº ļ
åİ ¢
æĹ¥ äºİ
âĢ Ļ
åĪĨ è£Ĥ
é¢ Ĥ
åħĭ éĽ·
å¯¹ éĺµ
éĵ İ
ä½ĵ éķ¿
èĻ ¾
æĥħ èĬĤ
åĽŀ å½Ĵ
åĽ¾ æ¡Ī
æİ¨ èįĲ
è¿ľ éķľ
èľ Ģ
éĿ¢ç§¯ P
åħį è´¹
èĿ ł
å±±ä¸ľ çľģ
å¤ıä»¤ æĹ¶
U n
Ñ ĥ
ä¸Ń æľĢ
å¼ Ħ
åĴ ı
åľ° äº§
ä»ĸ æĽ¾
å¾· æĭī
ç¾İ åĨĽ
æĦ ¤
éĻ¢ å£«
éĴ ¹
ç¥ŀ ç§ĺ
å²Ľ æ´¥
æ±Ł æĪ·
åĽŀ åĲĪ
ic k
äººæ°ĳ æ³ķéĻ¢
æľĽ è¿ľéķľ
éģĩ åĪ°
èµŀ åĬ©
9 2
ä¸Ģ äºº
å¤§ å¸Ī
åĩº éģĵ
ä½ľ åĩº
æľ¬ åľŁ
æ³ķ å®ĺ
è¿Ļ éĩĮ
æ°ĳ ä¼Ĺ
çĲĨ æŁ¥
ç§ĳ å¤«
åĮĸ åĲĪçī©
è¯´ æĺİ
æĦı å¿Ĺ
ç»´ å¤ļåĪ©äºļ
åį¡ æ´Ľ
ç¿ ħ
éĢł åŀĭ
åķĨ äºº
æĿ¯ åĨłåĨĽ
ç»ĺ çĶ»
æŀ¢ çº½
çļĦ éĹ®é¢ĺ
èµ Į
å¯ ĩ
éģ ¥
ä¸ĭ ä¸Ģ
ç¥ Ĥ
è¯¥ çľģä»½
æł¼ æŀĹ
çĤ Ń
æ£ ī
åı¸ èģĮ
æĪĸ æĹ§å¸Ĥéķĩ
åįķ çĭ¬
èĮ Ħ
çŁ¥ åºľ
åįĩ ä»»
æļ ĸ
æħ İ
æ¨¡å¼ı äº§
å¤©æ´¥ å¸Ĥ
èļ Ģ
éĺħ è¯»
o od
æĺ¯ ä¸º
æĹ¥ æŃ£å¼ı
è½ ©
å» ĸ
çī¹ æĭī
ä¸ĭ äºĨ
æµ· åŁŁ
è° Ĭ
åı· ä¸º
å¼ı çļĦ
èı Ĭ
ç¦» åŃĲ
æ¬§ åħĥ
é¹ ħ
ä¾Ľ åºĶ
çīĻ åĪ©
æľ« æľŁ
ç¿° æŀĹ
äº¿ ç¾İåħĥ
å®¡ åĪ¤
ä½ľæĽ² å®¶
Ġ åĽĽå·Ŀçľģ
åĬł å°Ķ
è·¯ ç«Ļ
çİĭ ä½į
éĩį å¤§
éĢī åĮºä¸º
äº¤ æį¢
æ´» è·ĥ
çĶ° æĿĳ
èĭı ç»´åŁĥ
ç¦ı å¾·
æ¯ı å¤©
ur e
åıĳè¡Į çļĦ
éĶĻ è¯¯
åĮĪ çīĻåĪ©
9 3
çļĦ éŁ³ä¹Ĳ
æĪĲ çĨŁ
ä»ĸ ä¸º
é©¬ æģ©
ä½ĵ åŀĭ
éĢī åĮº
å¿ĥ èĦı
ä¼ł å¥ĩ
ä¼ł åªĴ
æĻ® é²ģ
èµĦ éĩĳ
åĪĽ å§ĭ
åħ¶ä¸Ń ä¸Ģä¸ª
ç¢ Ł
è¯º å¤«
196 7
è¶³çĲĥ ä¿±ä¹Ĳéĥ¨
çģ° çĨĬ
åıĻ åĪ©äºļ
çľģçº§ éĢīåĮºä¸º
æīĢå±ŀçļĦ çľģçº§éĢīåĮºä¸º
* *
1 10
éĹ ½
è¥¿ è¥¿
ä¸ľ åĮĹéĥ¨
åľº åľ°
èĤ ©
æŁ Ħ
ãģ ı
ä¸¤ å¹´
æł¼ æĭī
æĶ¹ åĲį
èĮ İ
çĵ ·
å±ħ å§Ķä¼ļ
éħį è§Ĵ
æĦŁ è§ī
am e
æĬµ æĬĹ
çļĦ æĪĲç»©
ä¸º åħ¶
ä¸Ń å¼ı
ä»¥ åįĹ
åľ° åĲį
æľ¬ ä¹¦
æĪĺ åĽ½
äº¤ åıī
èİ· å¥ĸ
ĠS h
éħį ç½®
æķĮ äºº
åºŁ éĻ¤
æħĪ åĸĦ
æĬĳ åĪ¶
æĳ§ æ¯ģ
ãĢ ľ
æµ Ĩ
ä¼ļ è¯ķ
å§ ¿
åĬł å¼º
ç«ĭ åį³
æ¶ Ľ
åĭ Ł
æ³¢ çī¹
æ¾ Ħ
åĲ¯ åĬ¨
è½° çĤ¸
9 1
I P
è¢« æĿĢ
å² Ĳ
ãĤ µ
åĲĳ ä¸ľ
æĺŁ çļĦ
æ¢ µ
è¶³ å¤Ł
éĺ³ åİ¿
å¥½ åıĭ
ç§¯ æŀģ
am p
am es
ä½ı æ°ĳ
éĿł è¿ĳ
é¢ģ åıĳ
åĬłåĪ© ç¦ı
a x
çĶ «
äºİ æŃ¤
è´ ©
ä¸Ĭ åįĩ
åİŁ åŃĲ
ãĤ °
å°¼ åı¤
åŀ £
ä¿Ŀ éĻ©
åį¡ ç½Ĺ
æīĵ çł´
åĲī å°Ķ
ç»¼ èīº
åıĻ è¿°
äº¤æµģ éģĵ
çļĦæĹ¶ åĮºä¸ºUTC
è¯¥çľģä»½ ä¸ºæ³ķåĽ½
C l
i re
Ġ æĹ¥
Ġ 2020
æĺ¯ åĽłä¸º
ä»¥ ä¸ĬçļĦ
åī Ĭ
ç«Ļ åİħ
å¤ĸ è§Ĥ
ä»İ æŃ¤
åĲī æŀĹ
è¾¹ çļĦ
èĴĤ äºļ
oc k
Ħ æ¦Ħ
çļĦ åĲįåŃĹ
æ° ¯
æĬ Ħ
åħ¬ åĽ½
å¼Ģ å¹ķ
èĪ Į
çİ° ä»Ĭ
å¤© ä½¿
æĶ¹ ç§°
æĬ¥ å¯¼
åķĨ åĵģ
å´ ĸ
Ġ201 1
æīĢæľī çļĦ
ä¼į å¾·
æĮĩæĮ¥ å®ĺ
æ© Ħæ¦Ħ
åħ¬å¼Ģ èµĽ
0 8
7 1
o ol
Ġ ï¼ļ
çļĦ æĶ¯æĮģ
æĸ Į
åĩ ¶
æľī æľº
åŃ¦ çļĦ
åĳĺ å¤ĸ
ç© Ĺ
çķ ħ
èĥ½ éĩı
ç½Ĺ å¾·
ä½¿ åħ¶
æĢ§ æł¼
æĢ» è£ģ
åįİ è¯Ń
or y
é»Ħ æ²³
è§Ĥ éŁ³
äººæ°ĳ å¸ģ
éĤ£ ä¹Ī
ĠM ar
æķĻèĤ² éĥ¨
ĠE n
æķĪåĬĽ äºİ
é¤Ĳ åİħ
RE M
Ġ âĢĵ
çļĦ éĤ®æĶ¿ç¼ĸçłģä¸ºP
ä¸º æŃ¤
åľ° ä¸Ĭ
æ¸ ł
åĲį è¿Ľå£«
ä¸» åĬŀ
é© ¹
åĬł åĵ¥
éĩĮ åħĭ
å®ī æīĵ
è¯¥ åħ¬åı¸
æł¼ éĩĮ
æŃ£ å¾·
éľ ŀ
éĶ Ĳ
èİ· èĥľ
en ce
å¤Ħ çļĦ
èµĦ è®¯
at t
æİĴ åĪĹ
èģĶèµĽ åĨłåĨĽ
å£° ç§°
åĨĻ çļĦ
ol d
èĬĿ åĬłåĵ¥
r on
Ù Ħ
á Ģ
ãĢĤ ãĢĤ
ä¼ļ ä¸Ĭ
ãĢĭ ï¼Ľ
å§ ĳ
å¤ļ äºº
çİ° åŃĺ
ãĤ ¦
æŃ£ éĿ¢
åĶ ¤
è§Ĩ è§ī
çº§ åĪ«
æĮģ æľī
åįĩ æł¼
å¡Ķ åħĭ
æĺ¯ä¸Ģ åº§
çĶ· ä¸»è§Ĵ
ç¢ ±
é¡º åĪ©
èĢ¶ å¤«
Ġ200 5
ãĢı ï¼Ī
æ³ķåħ° è¥¿
è¯¥çī©ç§įçļĦ æ¨¡å¼ıäº§
A N
æĺ¯ åı°æ¹¾
éĥ ģ
ä»ĸ ä¹Ł
ä¸» ä½ĵ
åĨĽ åĮº
å¤ļ å°Ķ
åīį éĶĭ
æĸ° ç«¹
æ¼ Ĥ
éĩĳ åĪļ
å¸¸ å¸¸
æĿĢ æīĭ
å½ĵåľ° çļĦ
å« Į
åį«æĸ¯ çĲĨ
m ent
Ġ åĮĹ
æĸ¯ æ´Ľ
ç¬¬ ä¹Ŀ
åĲĮ åĲį
æľĢ ä½İ
é«ĺ éĽĦ
æ¡ Ĳ
è¿Ĳ ä½ľ
æĹł è®º
éĴ ł
æĽ¾ äºİ
æł¡ åĽŃ
æł¡ èĪį
è¿ĳ ä»£
çª Ħ
æ·± åº¦
å¸Ń ä½į
å®Ŀ çŁ³
åĪĨå¸ĥ åľ¨
æī© å»º
ç»Ļäºĭ ä¸Ń
9 4
ä¸Ģ åĪĩ
è¡Į ä¸ļ
è¥¿ èĹı
åĨĽ å®ĺ
å¹¶ è¢«
æĸĩ å¸Ŀ
ç© ·
èĲ Ŀ
é©¬ ä¸ģ
éĢļ å¾Ģ
ç§° åĳ¼
ãģ Į
è¯¥ åī§
å®ļ å±ħ
éĥ½ åľ¨
æĺŁ ç³»
è§Ĥ åħī
å¡ŀ çº³
çĶ² ç»Ħ
åĽ´ æ£ĭ
å®Ī æĬ¤
193 2
çŁŃ æļĤ
æ²¿ å²¸
åıĤè°ĭ éķ¿
åĢĻéĢī äºº
åĬ¨è½¦ ç»Ħ
y n
çļĦ ä¸Ĭ
åľ¨ ä¸Ń
èĢĮ éĿŀ
å¸Ĥ æĶ¿
å¤ļ æł·
èĪ Ł
æīĢ è°ĵ
é©¬ æĸ¯
åħ¥ åĽ´
å°¼ è¥¿äºļ
æĹı èĩªæ²»åĮº
éŃ ģ
åĺī åºĨ
æĭ¿ ä¸ĭ
è¸ ı
æĴ¤ éĢĢ
ä¸¾åĬŀ çļĦ
æŀ¢ æľº
åıĽ ä¹±
èĲ¨åħĭ æ£®
G o
Ġ ä¼Ĭ
ä¸Ģ è¯į
å¾Ĺ å¥ĸ
æŃ¤ æ¬¡
å¼ı æľĪåı°
åķĨ åºĹ
ä¾Ŀ æį®
os t
ãĤ¤ ãĥ
éĦ Ĥ
åĴĸ åķ¡
è¯¥çī©ç§įçļĦæ¨¡å¼ıäº§ åľ°åľ¨
) ï¼ļ
Ġ âĢľ
çļĦ åľ£
çļĦ å½¢å¼ı
æĺ¯ ä»İ
åĽ½ è¯Ń
èĩ Ĥ
ä¹ĭ ä¸º
å¾· è¯Ń
å¼Ģ å±ķ
æĪĺ åľº
å¤© ä¸ĭ
éĵ ¸
çĲĨ è§£
ç«ĭ æĸ¹
è®¾ å®ļ
ç§° åı·
æİ¥ æĶ¶
çĽ´ åįĩ
èĻ ı
å¥¹ ä»¬
ç¼ĸ åħ¥
åĽ¾ åĥı
å¦ĩ å¥³
åį¢çĵ¦ å°Ķçľģ
æĹħå®¢ éĵģéģĵ
æĸ¯æĭī å¤«
å®īä¸ľ å°¼
e b
Ñ Į
æī ģ
æľī è®¸å¤ļ
ä¸į çŁ¥
æİ ł
ç¥ Ī
éģĵ å¤«
åĬł åĪ©äºļ
ä½ĵ ç³»
åİŁ ä¸º
äºĶ ä¸ª
çĽ´ æĴŃ
åįķ åħĥ
åĽ½å®¶ çļĦ
çĳ °
ä»Ĭ å¤©
è¯Ħ ä¼°
ç¢ Ĺ
æİ¨ å¹¿
çĽĳ å¯Ł
è°¢ å°Ķé¡¿
çłģ å¤´
éķľ å¤´
èĦ± ç¦»
çģŃ ç»Ŀ
å´ĩ ç¥¯
O N
Ġ 8
äº ¥
å° ¿
å¸ ĸ
æĹ¥ åĲİ
æ³ ¡
åľ° åŁŁ
ç¥ Ĳ
äºĮ æĪĺ
è¶ ĭ
åı² èĴĤ
éĺ¿ æĸ¯
åıĺ å½¢
çļĦä¸Ģ æĿ¡
æ²Ļ æ¼ł
åĬŀ äºĭ
è¿ª å£«
çĶŁçī© åŃ¦
æĢĢ çĸĳ
æ»¨ æµ·
å¡ŀå°Ķ ç»´äºļ
åľ¨ ä¸Ģä¸ª
äºĨ ä»ĸçļĦ
æĪĲ äºº
æĢ ¨
ä¹ĭ å¤Ħ
åĵ Ń
çī¹ å®ļ
ä¸ĭ ä»¤
åĮĹ èµ·
å¼Ģ ä¸ļ
åĨħ èĴĻåı¤
èĤ Ŀ
æł¼ åĭĴ
èĭ± è¶ħ
è§Ĩ é¢ĳ
éĶ ¥
å¦Ĥ ä»Ĭ
èº« åĪĨ
æ±Ł åįĹ
åįķ æīĵ
åĲĦ ä¸ª
è¾ĥ å¤§
æĬ¤ åį«
ç»Ĩ èıĮ
è¿½ æº¯
çĽ¸åħ³ çļĦ
è§ī å¾Ĺ
åĭĩ å£«
ä¸Ģ çĻ¾
ç« £
è¥¿ åįĹéĥ¨
ä¸ľ äºļ
æĪĺ èĥľ
ãģ ¦
éĥ½ è¢«
æĢ§ èĥ½
æį ī
åİĨ ä»£
æĦı åĳ³
é² ¸
èĻ ŀ
æĶ¶ è´¹
æ°Ķ æĹĭ
è¶ħ è¶Ĭ
è¯Ħ å®¡
æİ¨ åĬ¨
èĽ Ľ
æ´ĭ èĪ°
å·¡ æ´ĭèĪ°
æīĢåľ¨ åľ°
è¿ªå£« å°¼
çļĦ æĢ»
æĪ Ĭ
ä¸Ń ä¹¦
å¤§ æ°Ķ
ä¸Ĭ è¿°
èµĽ ä¸Ń
åı· ç§įåŃĲ
åı² å¯Ĩ
éħ ¿
çĥ ¯
æ¸¸ å®¢
æ³¢ ç½Ĺ
çĶµå½± èĬĤ
éĻĨ ç»Ń
å±Ĭ åħ¨åĽ½
åĲĮæĹ¶ ä¹Ł
æ²¿ æµ·
190 1
æİ¢ ç´¢
æ¡£ æ¡Ī
D VD
å¸ Ĳ
åĬ ¾
æ³ Į
ãĥ £
å¤© åĲİ
è®¾ äºİ
ãĤ ³
æıĲ åıĬ
çĥ ·
ç¬¬ä¸Ģ ä½į
è½¬ åĲĳ
æ´Ľ éĺ³
ä»ĸä»¬ åľ¨
ä¸Ńå¿ĥ çļĦ
æĥ³ è¦ģ
çľĭ åı°
æĿ° åĩº
le y
çļ® èĤ¤
æľīä¸Ģ äºĽ
åºı åĪĹ
åĲ¸ æĶ¶
æ²ī ç§¯
çĽ¸åĲĮ çļĦ
èĤ¡ä»½ æľīéĻĲåħ¬åı¸
A C
Ã ¼
Ġ 18
æĺ Ķ
ä¸Ģ åľº
éĢ ®
éĢ ¸
æ³ Ħ
éķ ĳ
èĥ Ĩ
æ³ķ è¯Ń
æĸ° å»º
éĺŁ åĳĺ
ç»ı çĶ±
ä¸¤ ä½į
æ· ³
åĪĻ åľ¨
è§Ĵ é¾Ļ
æĶ¶ éĽĨ
åıį æĺł
åıĳçİ° äºİ
æĹ¶ä»£ çļĦ
çī§ å¸Ī
åŁ¹ è®Ń
ĠĠ ĠĠ
è¾ŀ èģĮ
e x
â ĸ
Ġ 11
å¤§ è§Ħæ¨¡
åĩº åıĳ
çŃ Ĵ
é¢ ħ
èĢĮ ä¸įæĺ¯
åįĹ éĿŀ
åħĭ èĲ¨æĸ¯
å¦ Ĩ
å·¥ èīº
æľº çļĦ
ä¿Ŀ åĬłåĪ©äºļ
æİ¥ æĽ¿
çĭ ¸
æ» ŀ
é² ¨
åıª è¦ģ
16 0
åį³ å°Ĩ
è¯Ħ ä¸º
æİ§ èĤ¡
èİī äºļ
iv ers
åĿļ æĮģ
çĭ® åŃĲ
å¹¿è¥¿ å£®
i er
Ġ a
äº ©
æĺ ı
çİ «
19 27
æĬ ¼
æľ¬ åī§
èĭ ¯
èĩª ç§°
æĸ° åŁİ
è¶ ģ
ä¸ŃåĽ½ çļĦ
ç»´ æĸ¯
çļĦä¸Ģ äºĽ
æ´Ľ å¤«
èĲ¥ ä¸ļ
æĬĢ å·§
æ¦ ´
ç»§ ä»»
æ¿ ĳ
å¤©æĸĩ åı°
æ²³åĮĹ çľģ
å¹¿è¥¿å£® æĹıèĩªæ²»åĮº
Ġ +
çļĦ åŁºç¡Ģ
çļĦ åİŁåĽł
åĿ Ł
è½¦ éģĵ
ç¤ ģ
åľº æīĢ
ä½ĵ éĩį
ç½Ĺ ä¼¯çī¹
å¤ĸ çļĦ
éĥ½ å¾¡åı²
å¥ĸ ç«ł
æĽ´ æĸ°
çłĶ åıĳ
æĬ¥ çº¸
æ´¾ åĩº
åºĦ ä¸º
it e
åĨľ æ°ĳ
å²© çŁ³
ä¸Ńåįİ èģĮæ£Ĵ
åģĩ è®¾
çģ° èī²
å¹» æĥ³
å°¤åħ¶ æĺ¯
v er
Ġ 2021
çļĦ æĸ¹æ³ķ
å¹´ èİ·å¾Ĺ
å° ĺ
åº ¸
éĻ ª
ä¸» åĬĽ
æ³ķ æ¡Ī
é» Ľ
éĺ¿ éĩĮ
è®° å¿Ĩ
æ¹ĸ å¹¿
çģ« å±±
åĪ¶ä½ľ çļĦ
èĵ Ħ
åıĳçĶŁ åľ¨
ä¿Ĺ ç§°
æĻ¶ ä½ĵ
ä¿®éģĵ éĻ¢
æĪ Į
æ¯ Ĺ
åħ¬ ä¼ļ
åĮº åĪ«
ä¾ £
èĩª æĪĳ
ä»£ æĽ¿
çĪ ¬
è¿Ľ æŃ¥
éĩį è¿Ķ
å¦Ĥ åĲĮ
ĠC om
æ³° å±±
ä¸ĸçºª çļĦ
çģµ éŃĤ
äº§çĶŁ çļĦ
çºªå½ķ çīĩ
çŁ¿ çī©
S A
w ard
æ Ĩ
Ġ å±±
å¹´ èİ·
æĹ Ń
åĽ½ ä¸Ń
éĩ ľ
å¤§ å®¶
å¤§ æŃ£
éķ °
éķ ¶
åıĳ æİĺ
èĢĮ æĿ¥
å¾· æ¯Ķ
çŁ ©
äºļ ç§ĳ
å¥³ çİĭ
ä¸ĵ ç§ĳ
åħĪ åıĳ
åĵĪ å¾·
ä¿® å¤į
å¸Į å°Ķ
çª Ŀ
è®© ä»ĸ
ç¥Ń ç¥Ģ
æİĴè¡Į æ¦ľ
o ok
Ġ éķ¿
çļĦ æīĭ
ç» ĳ
ï¼ī ï¼į
åĽ½ èģĶ
ä¸Ĭ æ¸¸
ä¸Ĭ åįĪ
åıĳ æĮ¥
ä¸ĭ åįĬ
åĲĮ æĹ¥
å¤ĸ æĺŁ
è¯¥ æł¡
èº« ä¸Ĭ
è¶³ æĢ»
çĮ ¿
åı¦ æľī
åĲĮæĹ¶ ä¹Łæĺ¯
as h
ĠT h
æ¶Ī è´¹
çªģ çł´
èµ« å°Ķ
æ£Ģ æµĭ
æľĢé«ĺ çļĦ
ç©Ĩ æĸ¯æŀĹ
è®¨ ä¼Ĳ
ä¼Ļ ä¼´
æŀ¢å¯Ĩ éĻ¢
P S
i el
Ġ çĻ½
ä½ ¥
æľĪ çĲĥ
ä¸ª ä½ĵ
å°Ķ å¤«
å¿ Į
èĭ į
ä¾ ¨
çĶµ ç«Ļ
çĽ® çļĦæĺ¯
å§ĭ å»ºäºİ
å¾Ī å°ĳ
ä»ħ æľī
æ»¡ æ´²
ä¸´ åºĬ
Ġ200 6
éľ² éľ²
è¸ ¢
çĶĺ èĤĥ
d er
çļĦ åħ¶ä»ĸ
çļĦ æ¯įäº²
å¤§ ä¼Ĺ
æĭ ¨
è¾ Ī
ä¹ĭ å¹´åı·
æ³ķ çļĦ
ä¹Ł çº³
åİ¿ çŁ¥åİ¿
æµģ åŁŁ
çº³ ç²¹
ä½¿çĶ¨ äºĨ
çĶµè§Ĩ èĬĤçĽ®
é¢ĺ æĿĲ
èŃ¦ æĸ¹
æ¿Ģ ç´ł
å¹¸ ç¦ı
ä¸ľäº¬ éĥ½
è½¨éģĵ äº¤éĢļ
è¯¦ ç»Ĩ
è¾Ĳ å°Ħ
8 00
Ġ å®ī
åľ¨ èĭ±åĽ½
ä¸Ģ èģĮ
æĶ Ģ
19 22
ç¬ ł
çĶŁ æĪĲ
åħ¬ å¯ĵ
è¥¿ æĸ¯ç§ĳ
å¾· çĶ²
æĸĩ åºĵ
åĽł åħ¶
å¤© çĦ¶
åİŁ åħĪ
æķ° çļĦ
å·´ æĸ¯
ç¥ŀ åľ£
è®¤ åı¯
al e
æ¸ħ ä»£
çłĶç©¶ ä¸Ńå¿ĥ
åĨł çĬ¶
åħ¶ä¸Ń ä¸Ģ
è´Ŀ åħĭ
é»ĳ æļĹ
èĥľ åĩº
æ¨¡ çī¹
æİ¨ è¿Ľ
è®¾è®¡ çļĦ
å¯Į å£«
éĤ¦ èģĶ
åģ¶ åĥı
0 5
I V
a f
y l
åį ¸
ãĢģ ãĢĬ
ç» µ
æ° ®
ä¼ļ æľī
åĩº å¢ĥ
è¡Į çļĦ
æľĢ ä¸º
é«ĺ è¾¾
åĪ© çļĦ
åľº çļĦ
æľº ç»Ħ
æŁ ¬
åİŁ ä½ıæ°ĳ
ç±³ äºļ
éĢī ç§Ģ
en n
æŃĮ åĶ±
çĪ± æ²Ļ
èı ±
è¾¹ ä¸º
çģ« è½¦ç«Ļ
äºĨä¸Ģ äºĽ
çĭ¬ç«ĭ çļĦ
æĽ¿ ä»£
æŁĵ èī²
è¾ħ åĬ©
éĽķ å¡ĳ
æ³¢å£« é¡¿
çĪ±æ²Ļ å°¼äºļ
I T
e ar
çº ł
è¾ £
ä¸» å¼ł
é¢ ł
åĬł æĸ¯
æĥ §
æĢ» éĿ¢ç§¯
çĥ Ĥ
ç»´ ä¹Łçº³
åĮħ åĽ´
è½¬ æį¢
å§Ķ ä»»
ic al
åıĳçİ° çļĦ
æĤ ł
ç»ĩ çĶ°
æ°¸ ä¹ħ
åĶ¯ä¸Ģ çļĦ
æİª æĸ½
ä¸Ģ æľŁ
ä¸º é£Ł
å¤§ å¹ħ
å± ¡
æī £
âĢ ĺ
åĮº åĨħ
åĲĮ åŃ¦
é«ĺ æŀ¶
çĲĨ æĥ³
éĿ¢ ä¸´
ä»İ æľª
å²Ľ ä¸Ĭ
æ³¢ å°Ķ
åħ· ä½ĵ
æĬĢ èĥ½
ä¿Ħ åĽ½
åĩºçİ° äºĨ
æĵ ¢
ç½Ĺé©¬ å°¼äºļ
æ´ŀ ç©´
J ohn
Ġ 2022
ä¸Ģ ç³»åĪĹ
äºº å¤§
ä¼ļ è¢«
åĲį ä¸¾äºº
èĬ ½
è¦ģ å¡ŀ
å½ĵ å±Ģ
æ¬¡ äºİ
ãģ Ļ
ä¸¤ åĽ½
å¢ ©
å°¼ åħĭ
åĪĹ æĸ¯
æŀĹ èĤ¯
å°± åľ¨
é¾Ļ æ±Ł
åĸ ī
æĹı ç¾¤
ç¦ı å°Ķ
åĨį è½¬
å¸Į çī¹
ï¼īãĢģ ãĢĬ
ä¹¡ æĿĳ
å»ºçŃĳ éĿ¢ç§¯
çĻ» ä¸Ĭ
è¯ģ å®ŀ
æ¸© æ³ī
æĪ· éĥ¨
ç¡® ä¿Ŀ
è¿ģ èĩ³
æıı ç»ĺ
æ§ ½
0 6
E N
u k
Ġ 2019
Ġ æĿ¨
Ġ âĨĴ
çļĦ åĽĽ
çļĦ éĺ¿
äºº ç§°
åĩ °
æĬ Ľ
ä¸» äºº
åĪ° çļĦ
å£ ¬
æµ· å§Ĩ
âĢĿ ï¼ī
åĪ¶ å®ļ
ä¸ļ ä½Ļ
ãģ £
éħ ·
çº³ å¾·
æ¸¸æĪı ä¸Ń
ĠP r
å°Ħ åĩ»
é¢Ħ å¤ĩ
å±ħä½ı åľ¨
ç«£ å·¥
D NA
e an
ä½ ĳ
æľĪ çļĦ
æŀ «
å¤© åºľ
æĥ ĳ
ç³ ķ
éħ °
èµ· çĤ¹
å½¢ çļĦ
å¥¥ åı¤
è½¦ç«Ļ ç»ĵæŀĦ
ç½ĳ çĲĥ
å¹² éĥ¨
ac t
åĴ¸ ä¸°
èı© èĲ¨
P h
çļĦ æĥħ
å¹´ å¤ıåŃ£
åİ Į
çĽ Ĵ
åĲİ åį«
æ² §
éĹ ¹
åĩº èµĽ
å®¶ ä¹¡
åĮº åĪĨ
é¢ ĸ
éķ¿ å¤§
æĿ¥ è¶Ĭ
ç¥ ¸
å¤ļ é¡¹
äºĮ çº§
å¢ ħ
èĳĹ æľī
å¤´ éĥ¨
çĹ ķ
çĸ ¯
æ´¾ çļĦ
åį° ç¬¬
èĴĻ çī¹
æĭ¿ çł´
et t
åıĤä¸İ äºĨ
æ¡ĥ åĽŃ
æĵħ éķ¿
æĻ®é²ģ å£«
æĭ¿çł´ ä»ĳ
à º
åĬ £
å¥ ¸
19 18
æ² ª
ç¬ ĥ
æ³ķ åºŃ
çī© çļĦ
è·¯ å¾·
è° Ĳ
éĩį éĩı
åŀ ©
éĢī åĩº
ar a
è¯´ æĺ¯
å²Ľ çļĦ
å¤´ è¡Ķ
ç¦ı éŁ³
å¼º è°ĥ
çİĩ åĨĽ
è¶Ĭ æĿ¥è¶Ĭ
æĿ¥èĩª äºİ
å¹ķ åºľ
éĢĤ åºĶ
æĺĨ èĻ«
èĩĢ é³į
åį°ç¬¬ å®ī
c om
i de
s p
Ġ ä¸Ĭ
çļĦ èĢģ
çļĦ æ¯ĶèµĽä¸Ń
å¤§ å¸Ŀ
ãĢĭ ãĢĬ
ä¸İ æŃ¤
ä¸» åĬ¨
çİ° ä¸º
æĪĺ ä¸Ń
å½ĵ ä»£
ç¼ Ŀ
èĭ± å°º
å¨ ħ
äº¤ ç»Ļ
èĮ µ
é¢Ĩ éĺŁ
æĽ´ å¤ļçļĦ
äº¬ éĥ½
å¤į æ´»
èĸ ª
å·¨ å¤§çļĦ
è´¢ åĬ¡
è½¯ æĿ¡
æ½ľ èīĩ
åıĳåĬ¨ æľº
æ³ķåħ° åħĭ
æ±¡ æŁĵ
åĳĺå¤ĸ éĥİ
åĨłçĬ¶ çĹħæ¯Ĵ
P ro
çļĦ çĶŁæ´»
å¹´ ä¸İ
å¹´ æĪĲä¸º
ä¸ª æĢ§
æ¬ ł
ä¸ĭ æ¸¸
ä¸ī éĥİ
åĿ ł
é«ĺ å®Ĺ
èĬ Ń
åįģ ä¸īå¹´
ç»ı çºª
æĶ¿ åįı
èĤ ĩ
ç§ĳ å¤§åŃ¦
åı· çļĦ
åŁİ åİ¿
å·´ æĭī
æĶ¯ æµģ
æĶ¾ éĢģ
èħ °
è´¨ çĸĳ
æ¯ı æĹ¥
é£ŀ å¼¹
å·¥ä½ľ å®¤
å°ģ ä¸º
æĳ© å°Ķ
èª ĵ
ç©¿ è¶Ĭ
å§Ĳ å¦¹
æ© Ļ
èĻļ æŀĦ
åŁºéĩĳ ä¼ļ
æĶ¶è§Ĩ çİĩ
çĽ´åįĩ æľº
çİ« çĳ°
i um
Ã Ń
Ġ åĳ¨
ĺ èĽĽ
åľ¨ åīį
ä¸Ģ éĥ¨
æī ĳ
19 29
åĳ İ
è´ ·
åĪĨ åĮº
æľ¬ æĿ¥
è¢« è§Ĩä¸º
å¹¶ æĹł
æĮ º
ãĥ ł
éĺŁ åıĭ
å°Ĩ åľ¨
å·¥ éĥ¨
é» ı
ç¼ ´
æŃ£ ä¹ī
è¾¾ å·ŀ
åĽ¢ éķ¿
çĻ½ åŀ©
è¿ŀ è½½
å¨ģ å¤·
å®« æ®¿
åį° è±¡
å¤ı å¨ģå¤·
åı¶ åŃĲ
193 1
èľ ĺèĽĽ
æĺ¾ èĳĹ
èĢ¶ å¾ĭ
è¿ģ ç§»
æĭľ ä»ģ
åĩ¤ åĩ°
æ·» åĬł
å¸ĥæĶ¿ ä½¿
E l
Ð ´
çļĦ åĨħ
çļĦ æĥħåĨµ
åº µ
å¤§ çĲĨ
è¥¿ åĮº
åįĹ æĺĮ
èī ³
èµĽ é©¬
åı¯ æĺ¯
èĩª æŃ¤
æĸ¹ ä¾¿
ä¸¤ åº§
åİŁ åĪĻ
é¥ ²
ä¿Ŀ è¯ģ
æıĲ çĲ´
å¤« å¦ĩ
é¢Ĩ åħĪ
å§Ķ æīĺ
å¡Ķ å°Ķ
å¥½ è¯Ħ
ä¸»ä¹ī èĢħ
èı² å°Ķå¾·
åĤ ¬
æķĳ æı´
çĽ¸å½ĵ äºİ
ç´§ æĢ¥
çİĽä¸½ äºļ
m y
o th
s ch
Ġ æľĪ
æĺ¯ èĭ±åĽ½
åĩ ¹
æľĪ åľ¨
19 21
ä»¥ æŃ¤
äºĨ ä»ĸ
è´ ª
æĸ¯ åľ¨
ä¸Ĭ æĿī
ä¹ĭ ä¹±
è¡Į äºº
çī¹ åħ°
æĪĺ ç»©
å¤© çİĭ
çİĭ åĲİ
ç§ĳ è¿Ľå£«
ç½Ĺ å®¾
ãĤ Į
æİ¥ ä»»
å±ķ çİ°
èµĦ æľ¬
ä¹Ŀ å·ŀ
æ¨¡ æĭŁ
çĻ¾ å§ĵ
æİĪ æĿĥ
å¼Ĺ æĭī
ä½Ļ äºº
éĽħ åħ¸
ä¼łç»Ł çļĦ
é¢Ĩå¯¼ äºº
æĶ¹ç¼ĸ èĩª
äºĭå®ŀ ä¸Ĭ
Ġ âĢĶ
Ļ èĿł
æī ĩ
æµ ¸
æĪĲ åĪĨ
ä¸Ĭ å¸Ŀ
çī¹ æĢ§
éķ¿ å®ĺ
æĮ ¡
è¿Ļ åľº
åĨħ ç»´å°Ķ
æŃ¤ åī§
æ¬¡ åŃĲ
åĽĽ ä¸ĸ
çľģ çļĦ
åĭ ĺ
éª Ĺ
å¤ª åĲİ
åĪĻ æľī
è¿ĺ åľ¨
åĲĦ åĽ½
æĶ¾ åľ¨
ç¦» å©ļ
åįı è°ĥ
åį° åĪ·
ol og
æŃ¥ æŀª
èĵ ¬
âĢĶâĢĶ ãĢĬ
éĢģ åĪ°
ter n
èĿ ĻèĿł
èŀį åĲĪ
REM çĿ¡çľł
I M
Ġ åĲ´
19 00
è´ ¬
æĸ¯ åį¡
æĸ¯ æīĺ
åĨĽ åľ¨
åħĭ é²ģ
ä½Ĩ åĽł
éĩį å¤į
æł¼ çļĦ
çĽ¸ åıį
åŀ ¦
è¿Ĳ æ²³
å¸¸ è§Ħ
æİ¥ èĳĹ
æıĲ è®®
çŁ³ å¤´
åĽŀ å¿Ĩ
ç¦ı å·ŀ
çłĶç©¶ éĻ¢
æ¯ı åĳ¨
çĶ· åŃ©
çľŁ äºº
è®¾è®¡ å¸Ī
åĨĻ çľŁ
æľĢåĲİ çļĦ
åĨľ æĿĳ
èı² åĪ©
è¯ĳ ä¸º
çļĦåľ° ä½į
éľį å°Ķ
å½¢æĪĲ çļĦ
ç«ŀ éĢī
åĳ¼ åĲ¸
ill iam
äºĭåĬ¡ æīĢ
åĲı éĥ¨
èĩªè¡Į è½¦
å¥¥æŀĹåĮ¹åħĭ è¿ĲåĬ¨ä¼ļ
çīµ å¼ķ
åĴ¨ è¯¢
0 7
B O
E P
S P
l er
æĸ ¥
åĽ½ åħ¬
ä»¥ ä¸ľ
çĶ± è¯¥
é© °
å¾· å·Ŀ
åīį è¿Ľ
æµģ ä¼ł
é£İ éĻ©
å®¹ çº³
éĺ² æŃ¢
åĩºçİ° çļĦ
æĹ§ åĿĢ
é¡º ä½į
et er
åĢ¼ å¾Ĺ
ä¿ĿæĬ¤ åĮº
å·¨ å¤§
ç±»ä¼¼ çļĦ
é¼ĵ åĬ±
åİ¦ éĹ¨
æ¹ĸåĮĹ çľģ
N HK
S p
l d
Ã ³
Ð ¹
æľī ä¸ī
åİ ¨
19 19
åĩº æĿ¥çļĦ
ä¸į è¯¦
èĥ ĥ
è¥¿ éĹ¨
åįĹ èĩ³
ä½ĵ æĵį
å¥³ ç¥ŀ
æŃ£ ç¡®
å¹¿ å·ŀå¸Ĥ
å½¢ å®¹
æ¸ħ æ°´
æļ ¨
åĭĴ æĸ¯
å®¢ æĪ·
é»ĳ é¾Ļæ±Ł
éģĹ ä¼ł
èī¾ ä¼¦
æ¿ Ĵ
æĸ¹éĿ¢ çļĦ
æī© å±ķ
æĭĽ çĶŁ
éĵľ çīĮ
1 12
S S
S c
r am
s e
Ñ ı
Ġ æµ·
ä¸Ģ æĹ¦
æľī ä¸¤ä¸ª
çĽ Ī
ä¸» ç®¡
éĽ ģ
ç¥ ·
å¯¹ åħ¶
æ¼ Ĩ
è° ı
åı¸ æ³ķ
èµ· åĪĿ
åŀĭ æľºè½¦
å¥ĸ çīĮ
ä¿¡ å¾Ĵ
èµĦ åĬ©
åº§ åłĤ
éļı æľº
çª ¦
çĶ² çº§èģĶèµĽ
çĻ» åł¡
å¾ģ æľį
åĩ¯ çī¹
æİ¢ éĻ©
èĿ ¶
è¯ŀ çĶŁ
Ġ æľ¬
Ġ ç¬¬äºĮ
Ġ éĥĳ
çļĦ æ¯ĶèµĽ
åĮ ł
å¤§ åĲĮ
æķ ²
åĲį é¢Ŀ
ä¸» æīĵ
è· µ
åĵ Ģ
ç¾ ļ
ä»» æķĻ
è·¯ ä¸Ĭ
åĪ© å¥¥
å¹³ å®ī
ãģ ¤
çľģ çļĦä¸Ģä¸ªå¸Ĥéķĩ
é¦ĸ å°Ķ
å®ŀ åĬĽ
çĮ ©
é£İ äºĳ
å¤± è¸ª
æµİ åįĹ
çĻ¾ ä¸ĩ
æŀģ ä¸º
æĲ ŀ
ä¼ļè®® åĳĺ
éĻĦåĬł èµĽ
åºĦä¸º éĤ»
Ä ģ
çļĦ ç¾İåĽ½
åĨ ¶
åĲİ äºİ
åĲİ ç»Ń
äºĨ è®¸å¤ļ
åĩº èĩª
ä¾ Ħ
æĪĺ æľ¯
æĪĺ è´¥
ä¹Ł åı¯
ç§ĳ çļĦ
ç«Ļ æĪ¿
å½ĵ å¤©
å¤ĸ åĽ´
åİŁ ä½ľ
ãĤ º
åĽĽ å¤§
èĭ± éķĳ
åĪĹ åĩº
åī§ ä¸Ń
åĵģ ç§į
åĪ« å¢ħ
èĭı å·ŀ
æīĵ è¿Ľ
é¸ ¦
è§Ĥ èµı
æĴŃ æĺł
äºī å¤º
æŁ¥ å°Ķæĸ¯
æ³° åĭĴ
æĦŁ æĥħ
å·¦ ç¿¼
æıĲä¾Ľ äºĨ
190 9
å¤§éĩı çļĦ
éĽķ åĪ»
æĸĳ çĤ¹
æľĢæĹ© çļĦ
åı¸ä»¤ éĥ¨
çĸ« æĥħ
æµĵ åº¦
å®īå¾½ çľģ
è¯Ĭ æĸŃ
b ur
n a
å¹´ åĩºçīĪ
åľ¨ ä½į
åľ¨ éĤ£éĩĮ
ä¸Ģ åıª
æĹ¥ å¸¸
å¯ ħ
æĸ¯ éĩĮ
ä¸Ĭ éĿ¢
ä¼ļ è®¡
åĪĨ æķ°
å¤ļ ä¼¦
åīį åĲİ
èĬ ľ
èĪ ±
å°ı å§Ĳ
åĨħ éĻĨ
æľŁ åĪĬ
çĻ ¸
å¥³ äºº
é¦ĸ åº¦
é¥ ¶
èº« äº¡
åĪĻ çĶ±
æĮĩ ç¤º
æīĵ è´¥
ĠP art
èĵ ī
ç»ıæµİ åŃ¦
Ġ200 0
ç»Ŀ å¯¹
å¾Ĳ çŁ¥
å« ¡
æĿ¥æºĲ äºİ
åı°ä¸Ń å¸Ĥ
æĳĩ æ»ļ
çº¦çĳŁ å¤«
å¤§ åİħ
åĩ ¸
é«ĺ åİŁ
è¿Ļ é¡¹
ä¹Ł æ²¡æľī
çĽ¸ è¿ŀ
èĳ µ
ç»Ħ ç»Ħéķ¿
èī² å½©
éľ ĸ
æ²³ è°·
åĲĳ è¥¿
çŁ³ åĻ¨
çº³ è¥¿
ç¼ĸ åĪ¶
çĶ» éĿ¢
åĥ ļ
çĶ· å¥³
æīĺ å°Ķ
ç´¢ æģ©
æİ¨ æµĭ
åģļ åĩº
éª¨ éª
çħ§ é¡¾
èķ ĥ
ä½ĵèĤ² é¦Ĩ
ä¸ľåįĹ äºļ
å½¼ æŃ¤
è¿· ä½ł
ä¼Ĳ åĪ©äºļ
åĬ² æŃĮ
å¾ª çİ¯
èĤ¿ çĺ¤
éĢ® æįķ
Ù Ĭ
çļĦ æīĢæľī
åľ¨ åĨħçļĦ
ä¸Ń å°Ĩ
äºº ä¸º
åĴ ¬
åĩº åĵģ
ä¸İ æİ¥å£¤çļĦå¸Ĥéķĩ
èĭ »
åĿ ŀ
è¶ ¾
å®ļ æľŁ
é¦ĸ é¢Ĩ
è§Ĵ åº¦
ä¼Ĭ åĪ©
åħŃ ä¸ĸ
æ¸ħ çľŁ
èĢĥ å¯Ł
ä»£è¡¨ éĺŁ
ä¸ĸçºª åĪĿ
æ°¸ è¿ľ
é¢Ħ æµĭ
æĵ ¦
è¯Ĩ åĪ«
è´§ è¿Ĳ
è°ĭ æĿĢ
æ°¨ éħ¸
æŁ´æ²¹ æľºè½¦
A F
â Ħ
Ġ st
å¹´ ä»»
æī Ń
æŃ §
19 24
ä¹ĭ åľ°
ä¹ĭ åĲį
å®¶ æĿĳ
åŃĲ åħ¬åı¸
åĲĮ æ²»
è¿Ļ æĹ¶
ãĥ ¥
çŃī çļĦ
å¹³ æĪĲ
æł¼ æĭīæĸ¯
ãĤ Ī
é¦ĸ åºľ
å·´ å¡ŀ
å§ĭ äºİ
æ¸¸ åĩ»
æ¸ħ æ¥ļ
è¾¹ å¢ĥ
æ¬§ çĽŁ
èĪª å¤©
ç¤¼ éĥ¨
åºĨ ç¥Ŀ
è´§ çī©
åĪĳ éĥ¨
é¥Ń åºĹ
L E
e i
çļĦ éķ¿
åħ Ķ
å¹´ æ¯ķä¸ļäºİ
æĺ¯ å¤§
å¤§ äºĭ
å± ¥
æµ ĳ
æ¸ Ĺ
æ± ķ
å¾· åħĭèĲ¨æĸ¯
åĲĮ æĢ§
ä¸ľ æµ·
åĬł ä»¥
çİ° æľī
çĲĨ çĶ±
ãĤ Ĵ
çĽ¸ åºĶ
æĺİ ä»£
å°¼ é»ĳ
æĢ» äººåı£
æĢ» ç»ıçĲĨ
åıĤ æĶ¿
åıĤ æķ°
ar i
ç»´ åħĭ
èº« ä¸º
èĬĤ å¥ı
æĶ¯ çº¿
æĶ¯ ä»ĺ
å¨ģ å°¼æĸ¯
çĻ¾ å¹´
å¤ı å¤©
éĺ² å®Ī
çĶŁæ´» åľ¨
èĪªç©º åħ¬åı¸
190 5
åª Ľ
ãĥĥ ãĤ¯
æĩ ¿
èĤĮ èĤī
oun t
èŀº æĹĭ
çĽĨ åľ°
åįĩæł¼ ä¸º
M A
Ã ¤
ä¸Ģ å±Ĥ
æĺ¯ ä¸ºäºĨ
19 12
æĹ¥ å¼Ģå§ĭ
æĭ ¾
åĵ ª
æľĢ å¥½çļĦ
æĸ° åĮº
è° ¨
è° ķ
ç§ĳ çłĶ
èģĶ ç»ľ
ãĤ Ĥ
an s
æīĭ ä¸Ń
æ¶ Į
æŃĮ åī§
åħµ éĥ¨
ç¬¬äºĮ ä¸ª
åįļ è§Ī
å®£ ç§°
é¡º åºı
é¢ĳ çİĩ
éĨ ī
åı¦ä¸Ģ æĸ¹éĿ¢
éĽķ åĥı
è¶ħçº§ èģĶèµĽ
æħķ å°¼é»ĳ
èĽĭçĻ½ è´¨
å¡« è¯į
r and
r ist
Ġ X
Ġ åŃĻ
åľ¨ ä»ĸçļĦ
ä¸Ģ å¤©
ä¸º è¯¥
19 26
æĹ¥ æĬ¥
ä»¥ ä¾¿
æµ ´
ä¸į åıĺ
æ± ¶
æ¼ ı
æµ· åįĹ
åİŁ åŀĭ
æł¼ é²ģ
çľģ åĴĮ
æ£ ļ
an ce
æĢ» æĺ¯
è¯Ń ä¸Ń
åĢ ¡
æµģ åĬ¨
en g
æĳ Ķ
åĳ½ åĲįçļĦ
é£İ æĻ¯
è± ¹
çłĶç©¶ çĶŁ
éĽ· æĸ¯
åĵĪ æĭī
åĵĪ ä½Ľ
çĵ¦ å°Ķ
éĩİ çĶŁ
éĩĩ è®¿
ro m
æĻº åĪ©
ç¡¬ æ£ĺ
Ð¾Ð ²
æĲľ ç´¢
èĢĥåı¤éģĹåĿĢ åħ¬åĽŃ
Ġ la
çļĦ åľ°åĮº
ï¼Ī ãĢĬ
æľĪ èµ·
æĹ¥ åıĳè¡Į
åľ° ä¸Ń
éĹ ¯
åĲį åı«
æ± ģ
åįĹ å®ĭ
æľĢ æľī
åĿ ¤
è¿Ļ ä¸¤ä¸ª
çĲĨ å¿µ
éĢļ çĶ¨
æĿĳ æ°ĳ
æĽ¾ è¢«
ç±» çļĦ
å°± èĥ½
å¯¼ å¼¹
å·² äºİ
åĽŀ åºĶ
è¶³ èģĶ
al d
ç¦ı çī¹
åĪĿ å¹´
çĶµå½± çļĦ
å¼º å¤§çļĦ
æĿĢ äºº
it ed
éģĹ è¿¹
æķĪ åºĶ
ä»ħ æ¬¡äºİ
èĴĤ å®ī
le x
æī§ æķĻ
æĪĺäºī ä¸Ń
os e
åıĤèµĽ èĢħ
0 4
P C
å¹´ ä»ĸ
åį §
å° §
åĮ £
æľī çĿĢ
å¥ ķ
éĻ ¨
åĲİ åľ¨
ä¸į è¦ģ
èĥ Ģ
åĮĹ ç«Ļ
çī© ä½ĵ
ãĥ Ĭ
åįģ åĽĽå¹´
æĭī çī¹
èĤ ¾
éĢļ è®¯
ç¦ ¾
è¯¥ ç«Ļ
ä¸¤ æĿ¡
an a
æ® ·
èĭ± å¯¸
æīĭ æ®µ
å¸¸ åĬ¡
æĹł éĻĲ
å¤« æĸ¯åŁº
å¥¥ æīĺ
ç¾İåĽ½ çļĦ
å¥¹ æĺ¯
åħļ çļĦ
ĠC ol
å®¢ ä¸²
æ¤ ħ
è´¹ å°Ķ
çľĭ è§ģ
åįł æį®
ç³»åĪĹ èµĽ
å§Ķåĳĺä¼ļ å§Ķåĳĺ
ä½Ĳ èĹ¤
è¯¸ èĳĽ
åĨ³èµĽ ä¸Ń
è°Ī åĪ¤
Ġf or
éĵĥ æľ¨
æĦıæĢĿ æĺ¯
ä¸įå¾Ĺ ä¸į
ä¾¦ æİ¢
åĬŀäºĭ å¤Ħ
C V
I G
Î ¿
Ġ èī¾
ç» ¥
ä¸Ģ çĶŁ
çī ¢
åĽ½ å°ı
æĹ¶ éĴĪ
ä¸Ĭ æĸ¹
åĪĨ è¡Į
åĪĨ æł¡
å¾Ĺ ä¸»
ãĥ ĭ
ãĥ Ł
è¿ĩ çļĦ
æŃ¤ åľ°
å±ŀ åĲį
å·´ ä¼ĲåĪ©äºļ
äºĶ ä¸ĸ
æĹ¥æľ¬ çļĦ
ĠC l
æļ ¹
çĭ¬ çī¹çļĦ
å°Ħ çº¿
åıĳçĶŁ äºĨ
ç¦ıå»º çľģ
æĺİæ²» ä¸īåįģ
æłĸæģ¯ åľ¨
åŀĤ çĽ´
ç¿°æŀĹ éĻ¢
å¤ļä¼¦ å¤ļ
c a
è ł
Ġ èĭ¥
å¹´ çĶµå½±
ä¸Ģ ä»£
ä¸Ģ çŃī
æ² Ľ
åħ¶ çĪ¶
å¯¹ æĪĺ
ãĥ ĸ
æĭī çļĦ
çº¿ ä¸Ĭ
ç§ĳ ä¼ļè¯ķ
æ¬¡ åĪĹè½¦
ãģ §
æ°´ åĪ©
åĶ ĩ
éĶ ħ
æĿĳ åĲĪå¹¶ä¸º
å·´ èµ«
å¤ª ç¥ĸ
æ» ¤
çĵ £
æ´» æĢ§
è¿Ľè¡Į çļĦ
æ¯į èĪ°
å¼º åº¦
ä¿® æŃ£
æ²Ļ çī¹
æĭħ å½ĵ
åĮ» ç§ĳå¤§åŃ¦
å¼ķ è¿Ľ
è§Ħ èĮĥ
å±Ĥ çļĦ
25 0
ä¾Ľ å¥ī
åĨĻ ä½ľ
éĻį çº§
ç«¯ çĤ¹
Ġ200 4
ãĥ¼ ãĥ«
à¸ ²
åĪº æ¿Ģ
çģŃ äº¡
èĮĥåĽ´ åĨħ
è£Ķ ç¾İåĽ½
ç½ķ è§ģ
âĦ ĥ
I D
c m
c o
Ġ çŁ³
çļĦ å»ºçŃĳ
å¤ ¸
å¹´ ä¸Ĭæĺł
ç» °
åľ¨ å½ĵæĹ¶
ä¸Ģ æĹ¥
éĺ ľ
æĭ ¯
åī ¥
ä¸» åĶ±
åĪĨ è§£
åĨĽ äºº
èģ Ĥ
ä¸ĭ æĸ¹
åĬł éĢŁ
çĶµ è½¦
ãĥ ĩ
åĨħ åĬ¡
å¹³ æ°ĳ
æ¼Ķ èīº
èĭ± éĩĮ
å½¢ çĽ®
åı¤ å±ĭ
or th
çĮ ¬
é¸ ł
å·Ŀ åİ¿
åĥ µ
çģ« æĺŁ
åĽ½éĻħ èµĽ
åıĭ å¥½
æĪ¿ éĹ´
é¢Ħ ç®Ĺ
çªģ åĩ»
ot t
ç¬¦ åı·
å½° åĮĸ
Ġ k
çļĦ èĥ½åĬĽ
ãĢĤ âĢľ
åĲ Ĺ
19 28
åŃ¦ éĥ¨
æİ ©
åįĹ æµ·
åħĭ ä¼¦
åĨħ æĪĺ
åľº æ¬¡
ç«ĭ éĻ¶
çº¦ æľī
æ· ĭ
ç»´ åħĭæĸ¯
æ» ĭ
åĽ½å®¶ çº§
åĲĦ ç±»
at a
åĪĽ æĸ°
åĬŁ çİĩ
çª ĳ
ä¼Ĺ è®®éĻ¢
ä»į åľ¨
æĢģ åº¦
ç®¡çĲĨ å±Ģ
190 7
çŃĸ çķ¥
æ»ĳ åĨ°
æļĤ æĹ¶
å¹´è½» çļĦ
æĴ° åĨĻ
ä¹¡éģĵ äºĳ
çŁŃæľŁ å¤§åŃ¦
åı²å¯Ĩ æĸ¯
Q u
m a
Ġ åĲī
æĹ ±
åĮ ¡
ç§ ī
åħ¶ ä¸º
åĮĹ å®ĭ
å¼Ģ åĲ¯
åĬ¨ å·¥
å°Ĩ äºİ
æĥ ©
ç§° ä¹ĭä¸º
æĢ» å±Ģ
æīĭ ä¸ĭ
ä¹¦ åºĹ
å¤ª åİŁ
åĽŀ çŃĶ
åıĺ ç§į
è®¤ è¯ģ
ç¬¬ä¸Ģ å±Ĭ
åıĸ èĩª
ä¼¦ æĸ¯
è°ĥ èĬĤ
æĿĥ åĪ©
æ°ı çļĦ
åĬ© æĶ»
æľ¨ æĿĲ
ç§¯ åĪĨ
çģ« è½¦
æĪ¿ åŃĲ
æ²¿ çº¿
èģĶåĲĪ ä¼ļ
éĺ¶ çº§
èİİ çĻ½
å®ĥä»¬ çļĦ
çĩĥ æĸĻ
èĳ£äºĭ éķ¿
ç¡ķå£« åŃ¦ä½į
é©±éĢĲ èĪ°
ç«ĭéĻ¶ å®Ľ
Ġ èµµ
çļĦ èĬ±
å¹´ ç¬¬
ä¸Ģ å¼Ģå§ĭ
åĽ½ æľī
æĹ¶ æĬ¥
æĢ İ
çĶŁ çĲĨ
ä¸į èī¯
åĪĨ æĪĲ
ä½į çļĦ
åīį ä½ľ
æŃ¤ äºĭ
çº¿ ç´¢
éĢļ è¡Į
åŁİ å¢Ļ
å®ļ çĲĨ
ä¹¦ æ³ķ
æĿĳ åºĦ
éĴ Ļ
åħī è°±
ä¿® è®¢
æĤ ¦
æĥ³ æ³ķ
çĨ Ķ
ç»Ħç»ĩ çļĦ
èį£ èİ·
æī§ æĶ¿
åĸľ çĪ±
ä¹ł æĥ¯
ä¼¤ å®³
ra d
çīĽ æ´¥
åħį çĸ«
ç©Ĩ ç½ķ
åİ»ä¸ĸ åĲİ
æĹĭ è½¬
é»ĺ å¾·
æį· åħĭ
å¥¥æĸ¯ æĽ¼
ãĥĥ ãĥ
å¼¯ æĽ²
ç«ĭæĸ¹ ç±³
É Ľ
çļĦ å±±
çļĦ ç»ĵæŀľ
å¹´ ä»¥æĿ¥
ä½ £
çī ²
æĭ ĺ
åįĹ è·¯
åįģ åħŃå¹´
åĨħ åľ°
æ¬¡ éĥİ
æ¡ Ĩ
åĪĹ å®ģ
éĽĨ åĲĪ
è½¬ æĬķ
çĶ· äºº
å¯Ĩ åĪĩ
èĪª çº¿
æĻ¯ çĤ¹
æ¤ Ń
ä»£è¡¨ åĽ¢
æī¿ è¯º
åĲİæĿ¥ çļĦ
è¯Ĺ æŃĮ
çŁŃ ç¯ĩ
è¡Ģ ç®¡
æıı åĨĻ
ĠN ew
çºªå¿µ ç¢ĳ
çĥŃå¸¦ é£İæļ´
ç¼ĸåı· ä¸º
é¢ģå¥ĸ ç¤¼
å°¸ ä½ĵ
ix el
ä½Ľç½Ĺ éĩĮ
F ran
L S
ð ¬
çļĦ è¥¿
å¹´ ä¸ĸçķĮæĿ¯
ä¸º æľŁ
äºº çĶŁ
åĲį åı¤å±ĭ
åħ¶ åŃĲ
èĢĮ éĹ»åĲį
åįĹ åįĹ
ä¸ī å±Ĥ
å¸Ĥ æĶ¿åºľ
äºĮ å±Ĥ
å¦ ¾
æ¡ Į
æ°´ åŁŁ
å¡ Į
åħĥ æľĿ
çĦ °
or g
ä¸ĵ çĶ¨
åħĪ è¿Ľ
åĽŃ åĮº
éħį ä¹Ĳ
åºĦ æĿĳ
è¯º æĽ¼
éŁ³ä¹Ĳ åŃ¦éĻ¢
åī¯ ä¸»ä»»
æķ´ åĲĪ
éĵ¶ çīĮ
æĪĲç«ĭ äºĨ
åģľ è½¦
190 6
éĢı éľ²
çĥŃå¸¦ æ°ĶæĹĭ
éŀ ĭ
éĩįçĤ¹ æĸĩçī©ä¿ĿæĬ¤åįķä½į
å¸ĥé²ģ åħĭ
åĬłåĪ©ç¦ı å°¼äºļå·ŀ
å°¼åı¤ æĭī
e in
Ð ¼
ä¸ ¢
åľ¨ è¥¿
æĺ¯ ä¸į
éĻ ĩ
çī¹ åĮº
å¾· æĦıå¿Ĺ
çİ° å·²
åĽł åŃĲ
åĨħ äºļ
é©¬ è¾¾
è¿ĩ ä¸ĸ
å·ŀ éķ¿
å¹³ å®ļ
éĢļ ä¿¡
æĶ¹ è¿Ľ
ä¿Ŀ éļľ
äº¤ æ±ĩ
åı¤ å·´
ä¿¡ ä»»
åĵĪ éĩĮ
çıŃ æľº
è¯º æĸ¯
éŁ³ä¹Ĳ ä¼ļ
çĻ» è®°
ä¹ħ çļĦ
å¯Į æ±Ĺ
ä¹Į æĸ¯
åĨľ åľº
çªģ åĩº
è¯» èĢħ
ä¸»æķĻ åº§åłĤ
å®ĮæĪĲ äºĨ
å¤º åıĸ
ä¸ŃåĽ½å¤§éĻĨ çļĦ
èħ¹ éĥ¨
ç¾İæľ¯ é¦Ĩ
åŀĴ æīĵ
é¥® é£Ł
Ðº Ð°
p p
y s
Ê ģ
ì Ŀ
Ġ r
Ġ ç¥ŀ
çļĦ åĨħå®¹
å¹´ ä¸Ń
åĨ ¥
æľī çº¿
19 25
ä¼ļ ç¤¾
ä¸ĭ è®®éĻ¢
çĲĥ è¿·
ãĥ ĵ
çĪ ½
èĤ ½
éĿ¢ åĲĳ
ä½Ĩ ä¸į
å¥³ æŃĮæīĭ
æķ° çłģ
ç±³ åħ°
æ²» æīĢåľ¨
å±ŀ æĢ§
è£ ¤
æĽ¾ æĺ¯
çĿ ¿
å¸Ī éķ¿
åĳ½ è¿Ĳ
å®ĥ åľ¨
æĶ¶ åĪ°
åħ¶ä»ĸ çļĦ
èĲ¨ æĭī
ç¾¤ ä½ĵ
æ´ĭ åŁº
é¢Ħ åĳĬ
å¼Ĥ å¸¸
ç«¯ çļĦ
å½Ĵ ç±»
äºĮåįģ åİħ
åŃĺåľ¨ äºİ
åıĸå¾Ĺ äºĨ
ç¿¼ é¾Ļ
åŁĶ å¯¨
An d
æĺİæĺ¾ çļĦ
è¡į çĶŁ
å°±è¯» äºİ
åĪ¶çīĩ äºº
æŁ¬ åŁĶå¯¨
C C
C om
D S
X X
v e
ä¸Ń è·¯
æķ ·
æĹ¥ è¯Ń
åĲİ åıĪ
ä¸ĭ å±ŀ
ä¸ľ æ±ī
æĸ° è¥¿åħ°
ç¼ Ķ
è¯¥ å¸Ĥ
ãĤ ¬
æĺİ ç¡®
æĴ ĳ
ç»ĵ å±Ģ
å°± ä»»
åįķ ä¸Ģ
å¥¹ ä¸İ
ç¬¬ä¸Ģ åŃ£
çĳ ľ
æ°Ķ åİĭ
è®¸ åı¯
å®¢ åľº
å®« å»·
çĹħ éĢĿ
å®ģ æ³¢
ä¾Ŀ èµĸ
èĤ¡ æĿĥ
éģŃ éģĩ
éĩĩçĶ¨ äºĨ
æļĤ åģľ
æ© ¡
ov e
å¥´ éļ¶
é©¬åħĭ æĢĿ
å®Įæķ´ çļĦ
Ġ9 78
ç©Ĩç½ķ é»ĺå¾·
0 3
O R
çļĦ ä¸ĸçķĮ
çļĦ æ¸¸æĪı
å¹´ ä»¥
æĪ ļ
ä¸Ń æŃ£
æ³ ª
ä¸Ĭ å°Ĩ
ä¸İ å¤§
ä¹ĭ æĹħ
è¢« å¹¶åħ¥
èī ®
å¸Ĥ ä¸Ńå¿ĥ
äºļ çĽ®
æĸ¹ å½¢
å°Ĩ ä»ĸ
ä½Ĩ åį´
åİŁ å£°
éħ µ
éª ļ
çĤ¹ çļĦ
å¥ĸ éĩĳ
15 00
æĹı çļĦ
å®Į é¢ľ
æķħ å®«
è¾ĥ ä½İ
åħ· å¤ĩ
åĬŀ çĲĨ
çª Ł
å¼ķ çĶ¨
çİ¯ çĲĥ
us ic
è¿ª äºļ
çģµ æĦŁ
å®½ åº¦
éĴ¢ éĵģ
å¤©æĸĩ åŃ¦å®¶
æ·¡ æ°´
Ġt o
åĢ¾ åĲĳ
åĵĪå°Ķ æ»¨
çļĦ é©¬
çļĦ è¯´æ³ķ
ä¸º å¤§
æľĪ åı·
æĽ ¦
ä¿ ±
ä¸ī çĶ²
ä¸ľ è·¯
çī© åĵģ
å¼Ģ åĬŀ
éĺŁ åľ¨
é£ ĺ
ä½Ĩ åħ¶
ä¹Ĳ åĿĽ
æĶ¹ è®¾
æĪĸ ç§°
éĽĨ æķ°
èĻ Ĳ
è¿ĺ åİŁ
ç¼ĸ ç»Ħ
ĠC on
il le
è´¹ çĶ¨
å¯Į å±±åİ¿
éĵģè·¯ è½¦ç«Ļ
ä¸ģ åł¡
ç§» å±ħ
èĪ¹ åıª
å»¶ ç»Ń
é¢ģ å¸ĥ
oc i
æİĮ æı¡
ç²ī ä¸Ŀ
ä¿ĺ èĻı
çĢ ĳ
å§Ĭ å¦¹
åı¤èĢģ çļĦ
a ul
g l
t or
çļĦ åıį
åĴ ª
åĴ Ĵ
âĢ »
ä¹ĭ éĻħ
åĨĽ èĪ°
åĵ º
çī© èµĦ
é«ĺ æł¡
æĸ° çķĮ
çķ ¸
å¸ĥ éĩĮ
åĪ¶ æĪĲ
éĩį ç»Ħ
éĩį è§Ĩ
æĽ¾ ä¸º
çĥ ¦
ç»´ æĬ¤
ç¾İåĽ½ æµ·åĨĽ
è¾ĥ å°ĳ
å¿Ĺ æĦ¿
æĶ¿åºľ çļĦ
æ³° åĿ¦
ç½ĳ ä¸Ĭ
èįī åİŁ
èĥĮ éĿ¢
éģŃ åıĹ
æļ´ åĬĽ
èĨ ¨
éĢīæĭ Ķ
æ¢¦ æĥ³
åı« åģļ
èµ¢å¾Ĺ äºĨ
åŃŁ åĬłæĭī
ob ert
ç§ĺä¹¦ éķ¿
åĩŃ åĢŁ
e k
i i
ç į
Ġ æ°´
Ġ æĽ¾
Ġ çĪ±
çļĦ åĲįç§°
è¯ °
è¯ Ľ
æĺ¯ æľĢ
åº ĩ
ä»¥ è¥¿
æĹ¶ åĪ»
åĲį èªī
åĪĨ æ³Į
è· Į
åĵ ©
ä¸ī ç§į
åĲĮ æľŁ
å£ ¶
åīį æĿ¥
åįģ ä¸ĥå¹´
ç¾İ çļĦ
å¸ĥ ç½®
åĪ¶ åĵģ
æ¬¡ æķ°
åĮĸ ä¸º
åħ¨ åŀĴæīĵ
æķ° ä¸ª
ç±³ åĭĴ
æ£ ±
åħ± è®¡
éľ ī
åĭ ¾
çĽ´ è¾ĸ
å¤ª å®Ĺ
æį® è¯´
æłĩ é¢ĺ
æŃ» åİ»
ç¬¬äºĮ åŃ£
å¼º çļĦ
æĶ» åįł
éĤ£ ä¸ª
æĻ¯ è§Ĥ
ä½İ äºİ
å¹² çº¿
ĠF or
è¡¥ åħħ
å®¶æĹı çļĦ
è´Ń çī©
åı¦ä¸Ģ ç§į
æĦ¿ æĦı
å§Ĳ å§Ĳ
og le
188 9
çī©çĲĨ åŃ¦
èĦĬ æ¤İ
ç¿Į å¹´
æĦ¤ æĢĴ
é¥² åħ»
ç»´åħĭæĸ¯ åł¡
7 00
· éħ¸
Ï Ĥ
ð «
åĪ ĥ
ç» Ĵ
å¾ Ļ
å¤§ äºİ
19 17
19 23
å¯ ¡
æĸ¯ èĴĤ
ä¸İ ä»ĸ
åĲĮ æŃ¥
ä»» åĨħ
å±± ä¸Ĭ
è¿Ľ åı£
å¹³ è¡Į
ç§ĳ çī¹
è¯¥ åĽ½
æķ° åįģ
éĺ¿ å¯Įæ±Ĺ
in c
in k
åıĤ è§Ĥ
éª ı
èº ²
å²Ľ åİ¿
èº« é«ĺ
å¯¼ å¸Ī
å¥ĸ æľĢä½³
å±ķ åĩº
åĽ½å®¶ åħ¬åĽŃ
æĶ¯ çĲĥéĺŁ
ĠS c
åĻ¨ çļĦ
äºī åıĸ
æĭħ å¿ĥ
åıĭ è°Ĭ
åŁĥ å¾·
ä¹Į æĭī
âĢĶâĢĶ âĢĶâĢĶãĢĬ
ç³»åĪĹ çļĦ
åĪ¤ æĸŃ
è´¢ äº§
å¹¸ åŃĺ
å¸ĮèħĬ è¯Ń
æĲŃ éħį
åįģåħ« å¹´
çļĦåīį èº«
å¦Ī å¦Ī
æĮīå¯Ł ä½¿
ä¼łæķĻ å£«
C H
M S
e ch
g el
t ion
çļĦ ä¸ŃåĽ½
çļĦ åĽ½éĻħ
çļĦ èº«ä»½
ä¼ ŀ
åĨ Ģ
åĽ½ éĵģ
å¤§ åĨĽ
åĩº å±Ģ
è¢« åıĳçİ°
æĻ ĸ
ä¸ĸ å®Ĺ
ä¹Ł ç§°
èĲ į
çİĭ å®¤
ä½Ĩ ä»į
éĢļ çŁ¥
è®¾ åľ¨
ãģ ł
åħ³ èģĶ
in t
å°± åı¯ä»¥
çīĩ å°¾
èģĮ è´£
åľ£ è¯ŀ
æīĵ å¼Ģ
ä¸ĸçķĮ éģĹäº§
èİ± å¾·
ç´¢ å°Ķ
æĤ Ł
ä»£è¡¨ å¤§ä¼ļ
åĶĲ ä»£
ĠF ran
å±ĭ é¡¶
èĨ Ģ
è¡¨çİ° åĩº
å§ĵ æ°ı
çĴ ĭ
ag e
é³į é±¼
TV B
IS BN
åĬ²æŃĮ éĩĳæĽ²
æ¸ħçľŁ å¯º
S te
a j
Ù ħ
çļĦ æľĢ
ä¸Ģ æĶ¯
ä¸º ä¸ŃåĽ½
ä¸Ń ä¸ĸçºª
åŃ¦ éĩĳ
ä»¥ åħ¶
ä»ĸ å°Ĩ
è· ĭ
æľ¬ åĲį
ä¸ī å¥½
æĸ¹ ç¨ĭ
äºĮ æ¬¡
äºĮ æ°§åĮĸ
åĪ© çĽĬ
ãĥ Ĳ
èĪ Ĩ
å°ı åĲĥ
è¿ĩ äºİ
åİŁ åĪĽ
éĥ½ åŁİ
éĥ½ å¯ŁéĻ¢
éħ ī
æĢ» åĨ³èµĽ
é¥ ¥
åıĤ çľĭ
ä¿Ŀ å®ī
åĭ ī
å°± æľī
åĽŀ åĽ½
æĽ´ æį¢
åľ£ æ®¿
æĻ® æĭī
å¤į ä»ĩ
éĽ· è¾¾
è§Ĥ çľĭ
æ±ī è¯Ń
å·¥ä½ľ äººåĳĺ
æ³° å°Ķ
å®Ī å¤ĩ
æľ« å¹´
å¼¹ åĬ¾
å¿ħ è¦ģ
å¤ľ éĹ´
èģļ éĽĨ
ag ue
å£ģ çĶ»
éħįéŁ³ åĳĺ
è·ĳ éģĵ
è©¹ å§Ĩ
çĬ¹å¤ª äºº
P ixel
y p
ï ¹
åĪ ł
å¹´ æľŁéĹ´
å¤§ è´¥
å¤§ åī§éĻ¢
æĹ¥ è®°
è´ ¦
ä¸į å¦Ĥ
ä¸» å¯¼
çĶ¨ ä»¥
å¤ļ ä¸º
éĩĮ éĿ¢
å½± å±ķ
æĢ» æķĻåĮº
æ²³ åı£
äº¤ æĪĺ
ç¿ ¡
çīĩ æ®µ
åĳ¨ åĪĬ
è½¬ ä¸º
çĳ Ļ
è¿ŀ ç»ĵ
æĿ¡ çº¹
ä¼¯ æł¼
ĠC ar
æĶ» åħ¥
ç»§ ä½į
è±¡ æ£ĭ
è¿ľ å¾ģ
èĤ¡ ä¸ľ
æµª æ¼«
é¹° çº§
ç§Ł åĢŁ
åĬ² çĪĨ
ç° §
æ¶µ çĽĸ
ä¿Ŀå®Ī åħļ
åĪĽå§ĭ äºº
çĶ±è¯¥ éģĵè·¯
R ed
t s
Ġ æ°¸
ä¸ ķ
ä¹ ŀ
çº º
å¤§ è¿ŀ
åİ ī
æĹ¥ ä¸¾è¡Į
æ¸ ¤
ä¹ĭ ä¸Ĭ
åŃĲ åŃĻ
åıĳ éŁ³
æľ¬ å±Ĭ
èµĽ è½¦
ãĥ ¡
è¿Ľ åĨĽ
éĵ ħ
ç«ĭ å¤§åŃ¦
çĽ¸ è¾ĥ
çĽ´ å±ŀ
æĽ´ æĺ¯
è¿ĺ åĮħæĭ¬
çĻ½ äºº
æŃ¦ å°Ĩ
æĳ ĺ
åķĨ åĬ¡
å®¹ éĩı
è¡Ĺ åºĦ
ĠB l
è¯» ä¹¦
æĬĹ æĹ¥
190 3
æĢĢ åŃķ
ow n
èĳ¬ äºİ
ä¸İæŃ¤ åĲĮæĹ¶
Ġ æĺ¯
Ġ 13
Ġ å¯¼æ¼Ķ
çļĦ æĹ¥æľ¬
çļĦ ä»£è¡¨
ä¸Ń åľº
å· ©
ä»ĸ è®¤ä¸º
åĩº äºİ
éģ ®
å°Ķ æľ¬
çŃ ĭ
è¿Ļ æ®µ
åĬł å·¥
çĶµ ç£ģ
åĬ¨ èĦī
å±± æĿĳ
åįģ äºĶå¹´
ä¹Ł åĽłæŃ¤
æŃ¤ åīį
ç«Ļ çļĦ
éĿ¢ åīį
åİŁ æľī
åİ¿ åŁİ
ãĤ Ħ
çĽ¸ ç»§
æŃ£ æĺ¯
éľ ľ
é² Ī
æĥħ æĦŁ
æĮĩ æİ§
çĻ½ ä¿Ħç½Ĺæĸ¯
æĻ® å°Ķ
ä¸ĸçķĮ è¯Ń
å½ķ å½±
è§ģ åĪ°
ĠC o
æ¯ı æ¬¡
ç®Ģ åİĨ
åĢĻ è½¦
é¡º æĹ¶éĴĪ
ig n
æī© å¼ł
åĿĲ èĲ½
æ²Ī éĺ³
ub e
çĸ« èĭĹ
Ø§ ÙĦ
éĢ» è¾ĳ
çĲĨæŁ¥ å¾·
P r
o use
p l
Ġ ãĢģ
Ġ ä¸İ
Ġ æ¢ģ
Ġ å¹¿è¥¿å£®æĹıèĩªæ²»åĮº
äºº æīį
æĭ ¦
åŃ¦ åłĤ
æĹ¶ å¸¸
ä¹ĭ çĪ¶
èĥ ļ
è¡Į é©¶
çī¹ çĥĪ
çĶ± æĿ¥
å¤ļ æĸ¯
æīĢ éľĢ
æ¼ ³
å¤© æ°Ķ
ãģ Ī
éħ ®
è¿Ĳ ä¼ļ
å§ĭ ç»Ī
æµģ éĩı
ç®¡ åĪ¶
æĻ® éĽ·
å®Ĺ å®¤
å§Ķ ä¹¦è®°
æľª æľī
å½ķ åĪ¶
åĻ¨ å®ĺ
å¸Į ä¼¯
æīĺ é©¬æĸ¯
åĩĨ ç¡®
èĪª çıŃ
åĽ´ ç»ķ
å°Ħ æīĭ
ä»ħ ä»ħ
å¼Ĺ åħ°
åģļ ä¸º
ĠG ro
éĽĨåĽ¢ åĨĽ
æĪĲåĬŁ çļĦ
ç§ĭ åŃ£
éĢĥ äº¡
å¢ŀåĬł äºĨ
æİĴåĲį ç¬¬
å¹½ å·ŀ
æĺİæĺŁ èµĽ
ä½ĵéķ¿ åı¯è¾¾
Go ogle
æĭ¯ æķĳ
åĵº ä¹³
ç¿¡ ç¿ł
- -
5 000
L a
R NA
e a
i en
r en
çļĦ å¼Ģ
çļĦ å¯¹
å¹´ äºİ
æĹ¥ è¢«
ä¸» çº¿
å» ¿
èµĽ åĮº
äºļ çĳŁ
åı¯ åľ¨
ãĥ ı
çķ ľ
çŃī å¾ħ
éĵ Ŀ
å½ĵ ä½ľ
é¦ĸ æĺł
åıĤ æ¼Ķ
æĺŁ åº§
ç»´ ä¿®
æ» ´
å¤§åŃ¦ å£«
åĽŀ æĿ¥
å¸¦ èĳĹ
çĶ° çº³è¥¿
å¼Ģå§ĭ åľ¨
åħĪ éĶĭ
éĺ³ åħī
åĪĴ åĪĨ
éħį å¤ĩ
çª ĥ
æ³° åĽł
å© ·
ä¼Ĺ äºº
åĳĬ çŁ¥
ç»ĥ ä¹ł
Ġ200 3
æ¯Ľ åĪ©
åħ¨åĽ½ éĩįçĤ¹æĸĩçī©ä¿ĿæĬ¤åįķä½į
æ±¤ å§Ĩ
æľĢåĪĿ çļĦ
å®¿ èĪį
èľĤ é¸Ł
å¥¥æĸ¯ åį¡
çĩĥ çĥ§
åµ Į
å®° çĽ¸
çĻ½åŀ© çºª
èı²åĪ© æĻ®
E n
U N
Ñ ĩ
çļĦ å®¶
çļĦ çĪ±
çļĦ å¦»åŃĲ
æĪ İ
ä¸Ģ éĥİ
äºº æ°Ķ
èµ Ķ
å¥ ł
ç« ĸ
åľ° äºļ
ä¸Ĭ åįĬ
åĲį è¯į
åĪĨ åī²
ç¾ Į
éķ¿ æĺ¥
ä¸ĭ æĿ¥çļĦ
å¾· æĸ¯
æľĢ åıĹæ¬¢è¿İ
å»º æľī
äºĭ è¿¹
åĲĪ æ³ķ
ç§° èµŀ
éĩĳ æĸ¯
æĢ» ä½ĵ
æĶ¹ ä»»
é¥ ¿
åıĤ è®®éĻ¢
å®ŀ è·µ
æĥħ ç»ª
åº§ ä½į
è´¨ çļĦ
å£° æĺİ
åĥı æĺ¯
éĺ² ç©º
æī¿ æĭħ
æĺ¥ åŃ£
çİĽ æł¼
ä¾Ŀ éĿł
èŃ¦ æĬ¥
èī¯ å¥½
éŃĶ å¥³
åĪº çĮ¬
åĤ ²
æĻº æħ§
æ¦Ĥ çİĩ
ç´§ å¼ł
ĠCh ina
åľ¨è¿Ļ éĩĮ
åı°åĮĹ å¸Ĥ
ä¸īè§Ĵ å½¢
A m
e f
Ġ ç¾İåĽ½
çļĦ çĥŃ
çļĦ å®ĺæĸ¹
çļĦ åľŁåľ°
ä¸Ń åİŁ
19 14
çĲ ¦
æĹ¶ è¢«
åħ¬ æ¼Ķ
å¾· ç½Ĺ
æ³ķ ä»¤
åīį èĢħ
çĶµ åĬ¨
çĶµ æ±ł
åĪ© å®ī
èĩ³ æŃ¤
è° £
åŁº éĥ¨
èĭ± åĨĽ
é¦ĸ ä»»
æĢ» ç®¡
åł Ģ
éŁ³ èĬĤ
åıĤ åĨĽ
å°ĳ åį¿
or k
or ld
æŃ¦ çĶ°
åħŃ ä¸ª
åı¯ä»¥ éĢļè¿ĩ
å¨ģ çī¹
éĺ³ éĥ¡
åį« éĺŁ
åį³ åı¯
éº ĵ
æł· æľ¬
æ·± åħ¥
ä¸¹ å°¼å°Ķ
èŃ¦ åĳĬ
Ġ200 1
ä¸»ä¹ī çļĦ
åĨ² åĩ»
æĻº èĥ½
ç©¿ è¿ĩ
éĢłæĪĲ çļĦ
åĪĳ äºĭ
æıĲåĩº äºĨ
æĹ©æľŁ çļĦ
ä¼Ĳ åħĭ
ç¬¬ä¸Ģæ¬¡ ä¸ĸçķĮå¤§æĪĺ
éĽ¶ åĶ®
éŀ į
åīįèº« ä¸º
è¿½æº¯ åĪ°
é¢ħ éª¨
æ¦´ å¼¹
C R
M et
e th
Ã ¶
Ġ éĻķè¥¿çľģ
çļĦ éĩĳ
çļĦ çĲĥåĳĺ
çļĦ æľºä¼ļ
åį ¯
ä¸º æĸ°
äºº æ¬¡
çº Ĥ
éĢ ¾
æĪĲ æŀľ
ä»ĸ å¯¹
ä¹ĭ æĹ¶
èµĽ åĨłåĨĽ
ä¸ī ä½į
ä¹Ł æĽ¾
æĭī èĦ±
æŁ ľ
æ¡ ħ
åħ¨ ä¹¦
è¯¥ å»ºçŃĳ
åı² å¡Ķåħĭ
ç¨ ½
éĺ¿ å¸ĥ
éĢī ä¸Ń
æ· ĩ
éĴ §
å·´ çī¹
ç¥ŀ çĪ¶
åŀĭ åı·
å¥ĸ åŃ¦éĩĳ
èģĮ åĳĺ
æ°Ķ ä½ĵ
ç»Ī ç»ĵ
åľŁ ä½Ĳ
ç»Ļ ä»ĸ
è°ĥ ä»»
çİ¯ ç»ķ
ä¸ĸçºª æľ«
éĵ¶ æ²³
æĿ¾ æ±Ł
å°¾ å·´
åŁİå¸Ĥ çļĦ
åįģäºĮ åİħ
äºĮåįģ å¹´
çİ© æ³ķ
æ·· åĩĿ
å¹´åº¦ æľĢä½³
æĪĪ å°Ķ
å¯» æ±Ĥ
çļĦå¥³ æĢ§
çıį å¦®
èĳ¡èĲĦ éħĴ
ä¸¥éĩį çļĦ
.. .
åĭĥ èī®
å¸ĪèĮĥ å¤§åŃ¦
èħĵ çī¹çĥĪ
è·¯å¾· ç»´
éª¨éª ¼
åľ°ä¸Ń æµ·
à¸² à¸
æĭīèĦ± ç»´äºļ
3 60
M P
P lay
Ġ æĺİ
Ġ æľ±
ãĢ Ĳ
ãĢ ĳ
çļĦ ä½ľçĶ¨
æľ Ķ
ä¸Ģ è·¯
ï¼ī ï¼ī
æĺ¯ ä¸Ńåįİäººæ°ĳåħ±åĴĮåĽ½
åº Ĳ
å¤§ åĴĮ
å¤§ åħ¬
åĴĮ ä»ĸçļĦ
19 10
æĹ¥ çĶ±
åĲİ ä¸ĸ
åĲį å½ķ
æľ¬ ç§į
æ¬ º
åįĹ åĮº
æľĢ å¤ļçļĦ
æ³ķ åŃ¦
é«ĺ äºİ
æĸ° å¢ŀ
èĬ ¯
å±± é¡¶
è° ľ
é©¬ åĬĽ
æľº æŀª
ç«Ļ èĩ³
ä½¿ èĢħ
é» Ķ
å¼ı ä¼ļç¤¾
Ġ* **
æ¢ ĵ
åĳ¨ æľ«
çĳ ¶
æł¹ æľ¬
åŃ¦éĻ¢ çļĦ
æĹ© ä¸Ĭ
æ·± åĪ»
il d
èĽ ®
æ¢ħ å°Ķ
æ¶Ī çģŃ
éĽĦ æĢ§
åĲ« éĩı
æĪĺäºī æľŁéĹ´
å©ļ ç¤¼
é»İ æĺİ
èĥ¡ åĲĮ
éĢļå¸¸ æĺ¯
èĪªç©º æ¯įèĪ°
æİ¢ æµĭ
ä¼ĳ æģ¯
åĩ»è´¥ äºĨ
æĽ¹ æĵį
çīłä»¬ çļĦ
æłĸæģ¯ åľ°
æłª å¼ıä¼ļç¤¾
çĲī çĲĥ
æĲº å¸¦
ivers ity
L L
å ¶
çļĦ åĮĹ
åľ¨ åĮĹ
è® ¼
ç§ ©
æĹ¥ åŃĲ
ç¬ Ľ
éĥ¨ æĽ²
ä¸ī æ¬¡
èĪ ħ
éĤ ¨
ç¼ ł
10 1
éĥ½ ç»Ł
çľģ æİ¥å£¤
åħµ åĬĽ
å¼Ģå§ĭ äºĨ
æĶ¾ ç½®
è§ģ äºİ
éĻ¤ æŃ¤
èĩ´ åĬĽ
ç´¢ å°¼
åĨĻ éģĵ
å¼Ł åŃĲ
èĴĻ å¾·
æĸĹ å£«
åºĨ åħ¸
re d
å¸ķ çī¹
åŃĺåľ¨ çļĦ
è¾ĵ åĩº
èĶ ļ
äº® çĽ¸
æı´ åĬ©
æĲŃ æ¡£
Ġæĸ° åŁİ
éĢĨ è½¬
è¾Ĳ é³įé±¼
è¿Ļéĥ¨ çĶµå½±
å©´ åĦ¿
ä½¥ äºĭ
æ··åĩĿ åľŁ
A G
C E
L e
çļĦ æĦıæĢĿ
å¹´ åĬłåħ¥
æĸ §
åľ¨ åĮĹäº¬
è¯ Ī
æ° Ł
æ³ ¾
çĶŁ æĹ¥
æŀ ķ
å¹¶ æľī
åįĹ æŀģ
åĮĹ å¸Ĥ
äºļ æĸ¯
åħĭ åĬ³
é«ĺ æ¡¥
åĬł åĭĴ
ãĥ İ
å¤© æŃ£
åħ¥ äºĨ
è½¦ åİ¢
ç³ Ĭ
éĥ½ ä¸į
æ°´ éĩı
ç»Ħ çļĦ
æĶ¹ è£ħ
åħ³ èĬĤ
æ¶ ¡
çķĮ çļĦ
å±Ģ çļĦ
ç¬¬äºĮ å¤©
æĴŃ åĩºçļĦ
è¾ĥ é«ĺ
è´Ŀ æĭī
æĹ© åľ¨
è®¤ä¸º æĺ¯
it t
ch e
è¯ģ ä¹¦
ro w
èİ« å¤«
å¿« è½¦
éĺµ äº¡
è¡Ģ ç»Ł
é¡¶ éĥ¨
å®ĭ æľĿ
åĩ¯ å°Ķ
å¤º åĨł
çļĦå¤§ åŀĭ
å·¨ äºº
éĢĶ å¾Ħ
å« ©
èĤ¯ å®ļ
çļĨ ä¸º
åįĵ è¶Ĭ
åĭĥèī® ç¬¬
B l
a el
o o
Ø ±
Ù Ī
Ġ åĶĲ
ï¼Ī ï¼Ł
è® ½
åĲİ æĸ¹
æ² ģ
éĥ¨ ä½į
éĥ¨ çĶµå½±
éĥ¨ éĥ¨éķ¿
æĬ ¹
åıĬ åĲİ
ãĥ §
äºĭ æĥħ
æľº åĬ¨
ç«ĭ äº¤
åŁİ éĻħ
ç¼ ¸
ãĤ į
æ°´ æĻ¶
æ¸¯ åħĥ
æĽ¾ æĭħä»»
æıĲ åīį
åĽ½å®¶ è¶³çĲĥéĺŁ
æ´Ľ æĸ¯
ä¼¯ åĪ©äºļ
æĺ¯ä¸Ģ å®¶
æĶ» åĬ¿
é²ģ æĸ¯
å¾Ī å¤§çļĦ
èĢģ æĿ¿
æħ °
am b
åĨłåĨĽ èµĽ
ä¾¿ æĺ¯
èľ ¡
æĳ© æ´Ľ
çŃĸ åĪĴ
é©» æīİ
å°º å¯¸
æĪĺå½¹ ä¸Ń
è·¨ è¶Ĭ
é©± åĬ¨
çļĦç¬¬ ä¸Ģä¸ª
è¯Ħè®º å®¶
å±ı ä¸ľ
ä¸ŀ çĽ¸
ä¼Ĭæĸ¯åħ° æķĻ
3 000
l es
Ì ĥ
çļĦ ä¸Ńå¿ĥ
çļĦ è®¡åĪĴ
åħ ľ
åľ¨ ç¬¬
å¤§ åľ°
æľī ä¸¤
çĽ Ķ
19 11
æĹ¥ èĢ³
æł ½
æł ī
åĩº äºĳ
åħ¬ çº¦
éĽ ¯
å¹¶ æĪĲä¸º
å² ±
çī© è¯Ń
ä½ĵ ç§¯
ç§ĳ å¹»
ç¼ Ģ
er v
æŃ£ ç»Ł
an c
ä»¬ çļĦ
é¦ĸ æī¹
éĹ¨ çļĦ
é² ¤
åĸ Ŀ
æĹ¥æľ¬ æĹħå®¢éĵģéģĵ
çĸ ¼
å®Ĺ åº§
åıį èĢĮ
çłĶç©¶ åĳĺ
æ±ī åł¡
æ²¡æľī ä»»ä½ķ
èĲ¥ åħ»
13 0
ä¹ĭåĲİ çļĦ
éĻį èĲ½
æĹ§ éĩĳå±±
é¡º æ²»
æľ« ç«¯
im e
æ¸Ĳ æ¸Ĳ
åĪĽä½ľ çļĦ
æĲŃ è½½
éĦ ļ
å±±è¥¿ çľģ
æĢ»éĥ¨ ä½įäºİ
å¿ĥçĲĨ åŃ¦
ç¤¾ä¼ļä¸»ä¹ī åħ±åĴĮåĽ½
æľĿæĹ¥ çĶµè§Ĩåı°
f t
Ġ åı¤
Ġ ç¬¬ä¸ī
çļĦ åŁİå¸Ĥ
ä¸Ģ åħ±
ä¸Ģ è¯´
ä¸Ń åŃ¦æł¡
æľī äºĨ
æľĪ åºķ
åľ° çĭ±
ä»ĸ ä»¥
èĢĮ è¡Į
ä¸ī çº§
èİ ¹
å¯¹ ç§°
å¤© åĲ¯
ç«ĭ éĿ¢
æ¡ ¨
ç¦ ½
åİŁ çĲĨ
ãĤ ģ
åĬĽ åŃ¦
ç±³ å°Ķæĸ¯
in es
åıĹ åĪ°äºĨ
è¿ĺ è¦ģ
ç¦ı çĶ°
ç¡ Ŀ
ç»Ī æŃ¢
æ¥ ł
åı¦ è§ģ
æ¨¡ ä»¿
æĪ¿ åľ°äº§
è¶³çĲĥ çĶ²çº§èģĶèµĽ
å°ģ éĿ¢
å¿« ä¹Ĳ
æĵ Ĵ
æłĳ æľ¨
ä¸Ńå¤® çĶµè§Ĩåı°
éĢĲ æŃ¥
æŁı æŁı
190 8
çĶŁçī© åŃ¦å®¶
ä¼ģ åĽ¾
iv er
æĹĭ å¾ĭ
ou t
189 8
å¨ģå»ī æ¸¯
çĮİ äºº
éĽĮ æĢ§
æĹ¨ åľ¨
èĴ¸ æ±½
èĿĻèĿł ä¾ł
Ù Ĩ
åŃ ¢
äºº ä½ĵ
å¤§ å°Ĩ
æĹ¶ å°ļ
åħ¬ çĽĬ
èĢĮ å¾ĹåĲį
ä¾ ı
ä¸ī åĲį
æĮ ¤
åĲĮ ä¸Ģä¸ª
éģĵ å¾·
è¿Ļ ä½į
å±± çļĦ
çŃī äºİ
å¸ĥ ç½Ĺ
åı· çıŃæľº
ãĤ ±
åħ° å·ŀ
å°¼ åŃĲ
æĢ» åħ±
æĮĩ ä»¤
æĽ´ åĲį
é¦Ļæ¸¯ ç«¥åĨĽ
è§£ éĻ¤
åĲī äºļ
us s
ä¿Ħ åĨĽ
å°Ħ åħ¥
ä¸ªäºº çĶŁæ´»
äº§çĶŁ äºĨ
èķ ī
éĺ¿å°Ķ åįĳ
æŁĲ ç§į
å¢¨ å°Ķæľ¬
éĢīä¸¾ ä¸Ń
åı¬ åĶ¤
éļĲ èĹı
å½ĵéĢī ä¸º
è¿Ŀ åıį
éĽį æŃ£
E d
k e
Ġ åĪ¶ä½ľ
çļĦ åħ¨
ãĢĤ ãĢĮ
å¹´ ä¸ŃåĽ½
åľ¨ åĨħ
ä¸Ģ åı·
äºº åĿĩ
19 15
åī Į
ä»ĸ æĪĲä¸º
ä»ĸ åıĪ
ä¸į åĪĹ
çŃ ł
æľ¬ éĥ¨
åĲĮ çŁ¥
éģĵ çļĦ
é«ĺ éĵģ
å¤© ç©º
å·¥ åķĨ
ä½¿ å¾Ĵ
ç³» çļĦ
é¦ĸ è½®
æ· Ģ
äºĶ ä»£
ä¸ĩ åĲ¨
æĮĩ æķ°
çīĩ ä¸Ń
æłĩ ç¤º
ä»ĸçļĦ çĪ¶äº²
å®¢ è½¦
çİ¯ ä¿Ŀ
æķ´ çĲĨ
ĠB r
ç²¾ ç¡®
åįĥ äºº
åĩł åĨħäºļ
å§Ķåĳĺä¼ļ ä¸»å¸Ń
å¸ķ å°Ķ
æĿ¿ åĿĹ
çĩ ¥
æľĢé«ĺ æ³ķéĻ¢
éĢĥ ç¦»
åħĭæĸ¯ åĿ¦
èªī ä¸º
Ġ199 8
ä¼Ł å¤§çļĦ
çĤ¸ å¼¹
æŁ¯ çĳŀ
éŀ Ń
æ·±åľ³ å¸Ĥ
æ²¼ æ³½
æ©Ħæ¦Ħ çĲĥ
æŁĵèī² ä½ĵ
åľºæ¬¡ åĺīå®¾
çĢĳ å¸ĥ
æ¸¤ æµ·
æĹ¥èĢ³ æĽ¼
q ue
Ġ Î
Ġ ï¼ī
å¹´ ä¸º
å¹´ æīį
ä¸º åŁºç¡Ģ
åŃ¦ åĽŃ
æ´ ¼
ä¸į è§ĦåĪĻ
ç¬¬ åįģäºĮ
åħ¬ ç¤¾
è¥¿ å¤ı
å¹¶ ä¸º
åįĹ æĸ¯æĭīå¤«
åĮĹ æĿ¡
èĩª ä»İ
æŃ¤ å¤Ħ
éĩĳ èİ²
å°¼ æ³Ĭ
æĶ¹ èī¯
çº§ çļĦ
in s
éĶ ¯
åıĤ è®®åĳĺ
æ¢ Ń
åı¤ è¿¹
çĥ ¤
ä¼ł éĢĴ
é¢Ĩ äºĭ
éĢł çļĦ
åħī ç¦Ħ
åĸ ĩ
or a
èĹ Ķ
è¾ĥ å¤§çļĦ
è¯º è´Ŀå°Ķ
çİ¯ çº¿
å·¥ä½ľ çļĦ
ĠA d
éĺ² åį«
as e
è¿ľ ä¸ľ
ro s
åģľ åĬŀ
ä¾Ŀ æĹ§
èĢ¶ é²ģ
ä¼¤ äº¡
os s
éľ² èĲ¥
ĠI S
190 2
çĶµåŃĲ æ¸¸æĪı
ç»Łæ²» èĢħ
å¼ĺ æ²»
å±¯ éĹ¨
çľŁæŃ£ çļĦ
çĽ¸éĤ» è½¦ç«Ļ
åĽļ çĬ¯
çĽĳå¯Ł å¾¡åı²
æĳ©æ´Ľ åĵ¥
A d
N H
i us
à ¦
Ġ al
çļĦ ç¬¬ä¸ī
ä» Ĺ
å¹´ æĭħä»»
æĪ ¦
ä¸Ģ åįĬ
åĮ ª
åľ° å½¢
æĸ¯ åĴĮ
ä»ĸ è¯´
éĥ¨ ç½²
ä¸į ä½Ĩ
ä¸İ ä¹ĭ
ä¹ĭ æĦı
ä½ľ çī©
ä¸» ç¼ĸ
åĬł çĥŃ
å±± åŁİ
ä»£ è¨Ģ
çķ ¿
éĿ¢ åĮħ
ãģ ²
åİ¿ ç«ĭ
éĩį çļĦ
æ°´ ä¸Ń
å°¼ æĹ¥
éĴ ĵ
åį¡ çī¹
æľ¯ è¯Ń
å¼ł åŃ¦
ä¼Ĭ æĭīåħĭ
çīĪ çļĦ
é¦Ļæ¸¯ çĶµå½±
æĪı éĻ¢
åĲī ç¥¥
æĶ» éĻ·
çļĩ å®¤
åĬŀ æ³ķ
åıĳçĶŁ çļĦ
åİĭ ç¼©
çļĦäºº æĢ§
åĶ® ç¥¨
åĪ¤ åĨ³
æĹĹ ä¸ĭçļĦ
å¹³æĸ¹ åįĥç±³
éĢĤ çĶ¨äºİ
æ£ĭ åŃĲ
å¥Ī èī¯
çĮİ çī©
æĩ Ĥ
æľºåĻ¨ äºº
äº¤åĵį æĽ²
æ±ŁæĪ· æĹ¶ä»£
å¸Įä¼¯ æĿ¥
è¾Ĳé³įé±¼ çº²
G e
n er
á ŀ
Ġ åľ£
çļĦ æľĢé«ĺ
çļĦ è¡¨çİ°
æĺ¯ å¯¹
æľī åı¯èĥ½
åĲİ åĽł
çĲ Ľ
ä¸į å¹¸
è¥¿ ç«Ļ
åħ¶ åľ¨
åĨĽ éķ¿
é«ĺ åľ°
å±± åľ°
ä»£ åı·
æĪĺ æŃ»
æķĻ å®¤
æķĻ å¾Ĵ
å®ļ äºİ
æĢ§ åĴĮ
æ°´ ä¸Ĭ
æķ° çĻ¾
åħĥ å¸ħ
ä¸ŃåĽ½ ç§ĳåŃ¦éĻ¢
æīĭ æŀª
åĪĻ ä»¥
çĶ° ä¸Ń
è¶³ ä»¥
çĵ¦ çº³
æ²Ļ çĶ°
åıĮ åĲĳ
ĠM c
ä¹ĭä¸Ģ çļĦ
æĹ¶éĹ´ çļĦ
åĲİæĿ¥ åľ¨
åĲİæĿ¥ è¢«
æĢĿ èĢĥ
çĶº æĿĳ
æ³¨ éĩĬ
æ¶Ī éĺ²
æľīä¸Ģ ç§į
å¹¶ä¸Ķ åľ¨
å½¢æĪĲ äºĨ
èĹ¤ åİŁ
æ¦Ĥ è¿°
æĽ¿ è¡¥
op h
II I
ç¼ĵ æħ¢
å¨ģå°Ķ å£«
çĵ¶ åŃĲ
åįłåľ° éĿ¢ç§¯
æ±ķ å¤´
é¡ºæĹ¶éĴĪ ä¸İ
æŁıæŁı å°Ķ
T O
z a
çļĦ ä¸ĭ
çļĦ äº²
åĲ ĵ
çĶ Ħ
ä¸Ģ å¼ł
æĺ¯ æľī
æĺ¯ è¢«
éĺ Ļ
19 16
ä¼ļ é¦Ĩ
ä¸į å¤ļ
åįĹ æĬķ
ä¸ľ æĻĭ
è¿Ļ æĿ¡
å°ı äºİ
çº¿ æĺ¯
èģĶ ç½ĳ
éĿ¢ ä¸Ĭ
åı· è·¯åı£
10 5
è¯¥ åľ°
æł¼ æĸ¯
ãĤ ı
å¨ ĩ
éĹ¨ å¤ĸ
æİ¥ ç®¡
åŃ£ èĬĤ
çº³ åħ¥
è®¤ åĲĮ
ç¬¬ä¸Ģ çĻ¾
æŀľ å®ŀ
åĲī çĶ°
çľŁ çĽ¸
åıĮ äºº
æİ¨ åĩºçļĦ
å¢ŀ è®¾
ä»į æľī
ä¹Į å°Ķ
å³ »
ç¬¬ä¸ī æ¬¡
éĽħ åĲĦ
è¿½ åĩ»
çľ¼ éķľ
ä¸¥ æł¼
å®¡ æŁ¥
æĺĨ æĺİ
åİĦ å°Ķ
æĦıè¯Ĩ åĪ°
çº· çº·
æĮĸ æİĺ
ĠSch ool
è¾½å®ģ çľģ
éĺ¿å°Ķåįĳ æĸ¯
ä¸įåĪĹ é¢ł
I R
U S
f l
g h
â Ī
Ġ ç±³
çļĦ å¿ĥ
ä¸Ģ é¡¹
ä¸º åĲį
å¤§ éĥ¨ä»½
åĴĮ ä¸Ģä¸ª
æľĪ è¢«
æµ ļ
èĥ Ħ
ç½ ©
åĪĨ å¼Ģ
çŃ Ľ
èµĽ ä¼ļ
åĮĹ è·¯
äºļ é©¬
é«ĺ ç¥ĸ
å¤© åľ°
æķĻ ç§ĳ
é©¬ çī¹
è¿Ľ åĮĸ
è¿ĩ åº¦
éĤ ¸
åŁİ åĨħ
çĤ ³
ä¹¦ åĨĻ
ä¿Ŀ åį«
æĽ¾ æľī
ç¥ŀ æĪ·
åĪĻ è¢«
è®¤ å®ļ
åıª å¥½
æĶ¯ æĴĳ
åĲī ä»ĸ
ic s
éĿĴ æµ·
çĭ¬ èĩª
åº· æĭīå¾·
éĵģè·¯ å±Ģ
èĥĮ éĥ¨
ä¾Ŀ çħ§
ä½Ĩæĺ¯ åľ¨
éĽĨåĽ¢ æľīéĻĲåħ¬åı¸
åĪĩ å°Ķ
è¯ĳ æľ¬
åĨ² ç»³
ç§ĺ é²ģ
åĩı å¼±
æ·· ä¹±
å¢ĵ å¿Ĺ
åĢŁ çĶ±
ä¾į ä¸Ń
ç±»ä¼¼ äºİ
æ¥ļ åĽ½
å®ľ åħ°
ç¹ģ èį£
ç²¾ç¥ŀ çĹħ
èĭĹ æłĹ
up er
å®īå¾· çĥĪ
åī© ä½Ļ
ä¹¡éģĵ å½°
çĻĮ çĹĩ
æŃĩ å°Ķ
çŁĽ çĽ¾
b y
t o
çļĦ å¤ļ
çļĦ åĲĮæĹ¶
å¹´ ä¸ĸçķĮ
ãĢģ ãĢİ
åľ¨ åı°æ¹¾
åĴ Ģ
åĴĮ å¤§
å½ Ŀ
æ³ £
ä¸į åĬ¨
è¡Į çľģ
åĪĨ éķľ
æľĢ éĩįè¦ģçļĦ
æľĢ èĳĹåĲįçļĦ
æĻ ķ
äºļ å¤ª
äºļ çĥŃå¸¦
éĩĮ ç¨ĭ
ãĥ ¢
å°ı éķĩ
å¤© ä½ĵ
æķĻ å¯¼
å®ī éĤ£
çĽ¸ ä¼ł
çĽ¸ è¿ĳ
an k
æ¹ Ľ
in o
è£ ¸
éĶ °
å·´ å¾·
åŀĭ æĢģ
åĽ¢ ç»ĵ
åıĹ ä½ĵ
å¥¥ åĪ©
ç®¡ å¼¦
ç¤¾ äº¤
çº³ æĸ¯
åºĶ å¯¹
ä¿¡ éķ¿
è½¬ ä»»
åĵĪ çī¹
éŁ³ä¹Ĳ åİħ
åħ¸ åŀĭçļĦ
ä¸½ ä¸Ŀ
å¹´ä»£ åĪĿ
ãĥ³ ãĤ°
ç§ģ ç«ĭ
189 6
è¿Ī åħĭå°Ķ
æ¼«çĶ» å®¶
Ġ198 7
æĶ¶å½ķ äºİ
æĭīä¸ģ è¯Ń
æĤ² åī§
æĴŀåĩ» åĿĳ
çĮľ æĥ³
å°¼æ³Ĭ å°Ķ
A D
r ess
y st
Î ¹
Ġ æĸĩ
Ġ åīį
çļĦ è½¦ç«Ļ
çļĦ æ¦Ĥå¿µ
å¹´ æĪĲç«ĭ
çī º
å¤§ æŀĹ
å¤§ éĥ½ä¼ļ
åĩ ¿
ä½ľ å®¢
è¥¿ è·¯
èĭ ¹
åįĹ ç¾İæ´²
åıĬ åħ¶ä»ĸ
æĸ° çĸĨ
ãĥ ľ
è¿ĩ æ¸¡
æĶ¿ åıĺ
åĲĪ èĤ¥
å¸ĥ å±Ģ
ç«ĭ åľº
ç½Ĺ å¤«
åħ¨ åı°
èį «
å±ŀ ä¸ĭ
çĦ ļ
æ· «
in i
åįİ åįĹ
æ²³ åĨħ
éĴ ©
çĽ´ è·¯
èĳĹ çļĦ
ä½įäºİ æĹ¥æľ¬
åŃ£ åº¦
è®¤ çŁ¥
æĿİ å¯Ĩ
ç¼ĸ æĪĲ
è¶³ åĪ©
åķ ¤
åĨ³ è®®
ä¸ĸçķĮ çļĦ
ç¤º èĮĥ
éĿĴ éĵľ
éŃ ħ
å²ģ ä»¥ä¸ĭ
14 0
äº¦ ä¸º
èĲ½ è´¥
åĽłæŃ¤ åľ¨
é±¼ éĽ·
ç²¾ éĢī
å°ģ éĶģ
å°¾ é³į
é¡º å¾·
å¸ķ æĭī
æ²¿ çĶ¨
äºķ ä¸Ĭ
ĠI s
åīĳ æ¡¥
å« Ķ
189 7
åĭĭ çĪµ
ç»§æī¿ äºº
æĮīå¯Ł åı¸
åı²èĴĤ èĬ¬
æĦıåĳ³ çĿĢ
N O
b all
â Ĺ
Ġ ç¾İ
ä¸Ģ éĥ¨åĪĨ
å¸ ľ
æľī åĪ©
åĴ ²
åħ¬ ç«ĭ
åħ¬ åĳĬ
åĪĨ ç»Ħ
åĮº åĴĮ
èĢĮ æŃ»
èµĽ çļĦ
çĶ± ä¸ŃåĽ½
ç¥ ģ
çĶµ åİĭ
ä»£ è°¢
èĪ ľ
æĪĺ è½¦
æµ· çĽĹ
ãĢį ï¼ī
åĲĪ çĲĨ
ä½ĵ åĪ¶
çł Į
æ£ ł
é¥ ±
ä»İ å°ı
å¿ĥ çļĦ
æıĲ åĩºçļĦ
å°± è¢«
å°± åĥı
å¤ª å¤ª
è®® å¸Ń
å¤Ħ éķ¿
å¤į åĲĪ
åį³ æĺ¯
éĻĨ åľ°
å¯Ĩ çłģ
éĤ£ æł·
å© ī
ĠP h
è´¹ åŁİ
ç²¾ èĭ±
äººåı£ ä¸º
Ġ200 2
è¡Ģ æ¶²
å°ıè¯´ å®¶
åĲĪå¹¶ èĢĮæĪĲ
çĤ® åı°
èµĽäºĭ ä¸Ń
ç»į åħ´
å¹¶ä¸į æĺ¯
åĲ¦ åĪĻ
çģ¯ åħī
æ°¨ åŁº
éĤª æģ¶
å¤ĸæĺŁ äºº
å¾·åħĭèĲ¨æĸ¯ å·ŀ
) ï¼Ī
± åĴ
Ã ¨
Ñ ĭ
Ġ ä½ķ
Ġ æĿ¾
çļĦ å¹³åĿĩ
ä¹ Ĵ
åľ¨ ä¸İ
ä¸Ģ å¯¹
ä¸Ģ æīĢ
ä¸Ģ çº¿
æľĪ åĪĿ
æĹ¥ ä¸Ĭæĺł
æ° Ľ
åĩº åħµ
ä¸į ä¸Ģ
ä¹ĭ äºĭ
å°Ķ çĵ¦
ä¸» æĴŃ
åıĳ è¾¾
åĨĽ èĬĤåº¦ä½¿
ä¸ī å¤§
äºĮ çŃī
éĩĮ å¥¥
ãĥ ī
ãĥ Ĺ
å±± è·¯
æĪĺ æĹ¶
å¤© æĸĩåŃ¦
å·¥ ä¼ļ
å®ī åİ¿
éŁ ¶
éĤ ¹
ãģ ĺ
åİŁ æĿ¥çļĦ
ãĤ »
æŃ£ å®Ĺ
ar s
å¤Ħ æŃ»
éķĩ å®Ī
æĶ¶ èİ·
åİĨåı² åŃ¦å®¶
ç¬¬äºĮ è½®
åĲī æĭī
éļı ä¹ĭ
èİ·å¾Ĺ ç¬¬
çľŁ çļĦ
è¯Ħ éĢī
å¡ŀ åĨħ
ç¥ĸ æ¯į
åĵį åºĶ
il e
çľĭ èµ·æĿ¥
èľ ¿
é¢Ħ æľŁ
ĠR o
ing s
æ¯Ĵ æĢ§
æ¯ģ çģŃ
Ġ199 7
æ±¤ ç±³
é¹¿ ä¸¸
äººç±» çļĦ
æī¬ å·ŀ
ç¨³ å®ļçļĦ
çĶŁéķ¿ äºİ
Ñģ ÑĤ
æ¶¦ æ»ĳ
å»¶ä¼¸ èĩ³
ä¾¦ å¯Ł
éļĭ æľĿ
åŃ¦å£« åŃ¦ä½į
åĲĮæĢ§ æģĭ
n g
Ġ y
Ġ èĥ¡
åľ¨ ä¸ľ
åľ¨ ä»Ĭ
åľ¨ ä¸ŃåĽ½å¤§éĻĨ
ä¸Ģ ä¹¦
åĮ Ģ
æĿ ł
âĢ ¢
åĲİ ä»£
è´ ¿
æĸ¯ åĽ¾
è¡Į èµ°
åĲĮ ä¸º
è¿Ļ ä¹Łæĺ¯
äºĮ æ®µ
è·¯ æĸ¯
åĬ¨ æĢģ
è½¦ ä½ĵ
ä½ĵ éªĮ
ç½Ĺ æĭī
ç½Ĺ éĹ¨
å¤ĸ ç§ĳ
éĥ½ æ²¡æľī
æ°´ çļĦ
éħ ±
é¦ĸ æŃĮæĽ²
åħ³ ä¸ľ
æ²³ éģĵ
éĽĨ ä½ĵ
äº¤ ä»ĺ
éª ¤
éª Ĥ
èİ· åıĸ
ç¥ŀ åŃ¦
è¯´ è¯Ŀ
æ» ¥
ç¾İåĽ½ åĽ½å®¶
åĽŀ å®¶
åŃ£ åĨĽ
åħī åŃ¦
éķĩ åİĭ
ç¬¬ä¸Ģ æī¹
åħĪ åīį
å¨ģ å°Ķæĸ¯
çļĦä¸Ģ æ¬¡
åį³ ä¸º
è¾ĥ å°ı
å¯Ĩ è¥¿è¥¿
åŃ¦æł¡ çļĦ
å¢ĥ åĨħçļĦ
åĵ¥ çī¹
åĿĩ æľī
åı¯èĥ½ æĢ§
å°ģ éĹŃ
éļĨ åºĨ
å¹² çĩ¥
re en
ç¡® å®ŀ
æĳ© æł¹
çĤ® åħµ
æ´ª æ°´
ï¼Ł âĢĿ
æ¶² ä½ĵ
æģĭ çĪ±
åİļ åº¦
å¾·éĩĮ åħĭ
St ation
ç° ¿
åĩĮ æĻ¨
æĸĩèīº å¤įåħ´
è¿Ļé¦ĸ æŃĮ
è½°çĤ¸ æľº
çŁ³åĻ¨ æĹ¶ä»£
çīº çī²
èľ¿ èľ
å¯Ĩè¥¿è¥¿ æ¯Ķ
A A
D C
W illiam
a il
Ġ e
Ġ ä¸º
çļĦ è¿ĩç¨ĭ
ä¸º è¾Ĳé³įé±¼çº²
çī Ł
å½ ¬
ç« Ń
çŁ £
å² ļ
åĳĺ æŀĹ
çĶµ è·¯
è·¯ éĿ¢
å±± å§Ĩ
ä»£ çłģ
çķ ı
å¤ĸ çķĮ
éĩį æĴŃ
æ°´ æŀľ
er a
æ£ į
æ¶ ¨
çĭ ©
é¢Ĩ è¡Ķ
ä½įäºİ æľ¬åľ°åĮº
åĪ« åĲį
æĽ´ æĶ¹
æŃ¦ å¾·
è¿ĳ ä¼¼
æ¸ħ æ²»
æĿ¡ ä¾ĭ
åįĩ ä¸Ĭ
åıį æĬĹ
æľª æĿ¥çļĦ
æķħ éļľ
è¾ĥ æĹ©
é»ĳ äºº
é£ŀ èĪ¹
åĩł å¹´
éħĴ ç²¾
åĨľ åİĨ
æľĢç»Ī åľ¨
ä¸Ńå¤® åĨĽ
å®ĭ ä»£
å»ºç«ĭ çļĦ
ç½Ĺé©¬ å¤©ä¸»æķĻ
è´¢ å¯Į
é¢Ŀ å¤ĸ
è´Ŀå°Ķ åħ°
Ġ199 9
åĪĨç±» æ³ķ
è¯ī è®¼
è®¾ç½® çļĦ
ç´¯ è®¡
ç±»åŀĭ çļĦ
æĹłçº¿ çĶµ
ç²Ĵ åŃĲ
å¤±åİ» äºĨ
AK B
olog y
åĨħéĻĨ çľģä»½
å¤§äºĭ è®°
ĠIS BN
A B
T BS
â ħ
Ġ èĭı
ä¸º ä»ĸ
äºº æĸĩ
å¤§ åŁĶ
åľ° å¤Ħ
åŁ ¤
ä¼ļ ä¼ļéķ¿
è½ ¶
ç¬¬ åįģä¸Ģ
åħ¬ åŃĲ
åıĳ æºĲäºİ
æľ¬ è´¨
çī¹ ç§į
ä¸ī æĿ¡
å¾· åħ°
èİ º
åĮĹ æŀģ
å¼Ģ åħĥ
é«ĺ å³°
æĸ¹ ç´¢
åĲĪ éĩĳ
å¸ĥ åĪĹ
ç¦ ¹
éĩį ä¼¤
æ°´ æ·±
èį Ķ
ä¹Ĳ åĽŃ
æĪĸ åħ¶ä»ĸ
èµ· äºĨ
èµ· åħµ
åĢ ª
å¤« å¦»
å®ŀ ä½ĵ
å²Ľ å¼ı
ä¸ĩ å¹³æĸ¹ç±³
ç¼ĸ åĨĻ
åı¯ä»¥ æĮĩ
è¿ŀ åĲĮ
æłĩ è®°
çĪ¶ åŃĲ
ç»Ī èº«
åĵĪ æł¹
åľŁ åºĵ
åĽ´ æĶ»
éŁ³ä¹Ĳ å®¶
éĻĲ å®ļ
èĭ±åĽ½ çļĦ
çħ Į
åı³ ä¾įéĥİ
åį´ è¢«
åŃĻ å¥³
èī¯ å¥½çļĦ
æ¿ ®
çĪµ ä½į
è¿½ æ±Ĥ
åĮĹéĥ¨ çļĦ
å¾® åįļ
æ¯« æĹł
å¥¥å°Ķ èī¯
çĲĨå·¥ å¤§åŃ¦
G ame
M ich
å¹´ è¿Ľåħ¥
åľ¨ ä¸Ĭ
åľ¨ æ¬§æ´²
éĹ µ
åįĹ éĺ³
åĮĹ åĮº
å¤ļ çĵ¦
åĬł çļĦ
æĸ° ç½Ĺ
å¯¹ è¯Ŀ
å¦ ¥
èĪ ĸ
åĽł åºĶ
ä¹Ł ç§°ä¸º
é©¬ è·¯
é©¬ å¾·éĩĮ
åľº é¦Ĩ
çİĭ çļĦ
éĻ¢ æł¡
åħ¨ ä½ĵ
åħ³ åį¡
åıĤ éĢī
åıĤ è§ģ
æł¡ åıĭ
çĶ° å¾Ħ
èĬ± èİ²
æ´Ľ çī¹
åķĨ æłĩ
æ¬§ éĺ³
åĮ» èį¯
çĶ² åŁº
æĤ Ķ
äºĳ æŀĹ
èģĶèµĽ çļĦ
çħ ®
åı³ ä¾§
æ³¨ åħ¥
ro p
æĸĹ äºī
åŃĻ æĿĥ
re at
of t
é»İ æĽ¼
æ³½ è¥¿
æķĮ æĸ¹
çī§ åĮº
åĲ¬ åĪ°
è¿« ä½¿
æİ¨åĩº äºĨ
ç§ĳæĬĢ å¤§åŃ¦
ãĥª ãĥ¼
çŃ¹ å¤ĩ
äº¤æĺĵ æīĢ
æĲ¬ åĪ°
è¥Ħ éĺ³
åī§åľº çīĪ
ç¢° æĴŀ
éĿĴæĺ¥ æľŁ
è£Ķç¾İåĽ½ äºº
è©¹å§Ĩ å£«
èľ¿èľ Ĵ
E D
r al
r at
Ġ ä¸Ģ
çļĦ ä½¿çĶ¨
å¹´ æ¬§æ´²
ä¸º é¦ĸ
ä¸º é¦Ļæ¸¯
ä¸º ä¸»é¢ĺ
äºº ä¸İ
äºº éĹ´
äºİ é¦Ļæ¸¯
åĴĮ å°ı
å¯ Ĥ
åī ĸ
æĪĲ åĮĸ
åŁ ł
çĶŁ èĤ²
ç½ Ĳ
ä¸ī æĹ¥
æĿ¥ å¾Ģ
å¤© æ»¡
è¿ĩ äºĨ
ç§ĳ å¨ģçī¹
å¸ĥ æĸ¯
èĥ½ åľ¨
ç¼ ī
è¯¥ åľ°åĮº
å®ļ ä½į
å½± åĥı
å¨ Ħ
æıĲ çĿ£
åıĹ å®³
å¼ł åįķæĽ²
çŁ¥ åĲįçļĦ
èĭı éĩĮ
çļĦä¸Ģ éĥ¨
çłĶç©¶ äººåĳĺ
åľŁ å£¤
ç½® äºİ
æ¬§ æĸĩ
èĪ° èīĩ
åįĥ çĵ¦
æ°¸ æģĴ
æĪĲç«ĭ åĲİ
çģµ é¡¿
æĸĹ åħŃ
éªĮ è¯ģ
åħ±åĴĮ åħļ
å¾·åĽ½ çļĦ
190 4
ä½© åĭĴ
çĶŁäº§ çļĦ
å¢ĵ åľ°
éĴ± å¸ģ
ul t
çº½çº¦ å¸Ĥ
ç´« èī²
Ġd i
è¾ŀ åİ»
åŁºæľ¬ ä¸Ĭ
æĶ¹ç¼ĸ ä¸º
é£ŀè¡Į åĳĺ
éĺŁä¼į è¦ģ
åįĴ äºİ
éĴ» çŁ³
ä¸°å¯Į çļĦ
å±ł æĿĢ
ç»¼èīº èĬĤçĽ®
åĵĪä½Ľ å¤§åŃ¦
èĨ¨ èĥĢ
3 50
B r
Î »
Î ½
Ø ¨
Ġ åħ«
Ġ å¾Ĳ
çļĦ éģĹ
å¹´ æľ«
ç» ħ
åĽ½ æĹĹ
æŃ ī
åİ ¥
æĹ¥ åĴĮ
æĹ¥ ä¸ĭåįĪ
åľ° å±Ĥ
çĶŁ æ®ĸ
ä¸į ä½³
ä¸į æķ¢
ä¹ĭ è·¯
å®¶ åºĦ
è¥¿ åħĥ
éĽ ı
åŃĲ å¼¹
å¤ļ å¤«
å»º åĽ½
éĹ´ æİ¥
éļ Ļ
å·ŀ éĻħ
ç«Ļ çĤ¹
æ¼Ķ è®²
åĮĸ å·¥
æ¯Ķ åĪĨ
çł į
åĽĽ åĽ½
å°¼ å¥¥
on s
åĵģ è´¨
å·´ åĭĴ
é¾Ļ å±ŀ
åį¡ è¥¿
ç² ĺ
åıĺ éĢŁ
èģĮ èĥ½
çīĪ æĿĥ
åĽ¾ çīĩ
æĶ¶ å¤į
éĿŀ æ³ķ
æľª çŁ¥
ä¼¯ æģ©
ĠC or
ç»Ń éĽĨ
æ¯ı ä¸Ģ
çļĩ åŃĲ
é£ŀ è½¦
èĲ½ çļĦ
èİ± èĮµ
ä½ľåĵģ çļĦ
ĠA ir
éĩİ æĿĳ
æī¿ å¾·
ç»Ĩ èĬĤ
æľĢç»Ī å¹»æĥ³
åıĳè¡Į æĹ¥æľŁ
æľīä¸Ģ åº§
è¿½ èµł
ĠI I
å·¨ æĺŁ
è´Łè´£ äºº
ä¿Ħç½Ĺæĸ¯ èģĶéĤ¦
å¢ĵ èĳ¬
éĨ Ľ
em ent
æĪĺæĸĹ æľº
é¢Ĩå¯¼ çļĦ
ç»ĺ åĪ¶
æ½ĺ éĩĳèİ²
èĹ© ä¸»
Ð½ Ð°
è´¯ éĢļ
ain t
åĢ¾ æĸľ
å½» åºķ
O M
O S
m e
t a
Ġ ä¸ĩ
Ġ åĪĿ
Ġ åı°æ¹¾
çļĦ å¼Łå¼Ł
åľ¨ æ³ķåĽ½
åĴĮ éĺ¿
æľĪ ä¸Ń
æ³ ¼
åĲį åĪĹ
è¥¿ æ±ī
è¢« ä»»åĳ½ä¸º
åįĹ æľĿ
ä¸ĭ è¯ı
å² ĳ
ãĥ ĳ
åĨħ çĳŀ
èĲ Į
å¤ĸ åį¡
æ¡ §
åĽĽ åįģäºĮå¹´
çĽ® å½ķ
èµ· æºĲäºİ
åıĤ è®®
äº§ çī©
ç»ĵ è®º
ç»´ æĭī
è®® éķ¿
å¥ĸ åĬ±
è¿ĺ ä¼ļ
å¸¦ çĿĢ
ä¼Ĭ å°Ķ
èģĮ å·¥
ç¬¬ä¸Ģ è½®
æ¨ Ĭ
æĹı èĩªæ²»
åıĪ è¯ĳ
ä¸ĵ åĮº
çļĦä¸Ģ ä½į
åĮħæĭ¬ äºĨ
å¡Ķ å°¼
åį« åĨķ
ic an
è¾¹ å½¢
æ²Ļ ç½Ĺ
èĪª æµ·
çģ« çĦ°
ĠA ward
æ¥¼ æ¢¯
éĩĩ éĽĨ
æľĢåĲİ ä¸Ģæ¬¡
èµ° å»Ĭ
æĺ¾ å¾Ĺ
éĺµ çº¿
æĸŃ å±Ĥ
æıĲä¾Ľ çļĦ
éľį åįİ
éŁ¦ å°Ķ
éĢı æĺİ
æļĹ æĿĢ
æİ¥åıĹ äºĨ
éĺ´ éĺ³
åĮħåĲ« äºĨ
çıį çıł
å¹¿æĴŃ çĶµåı°
èļ ģ
æ²Ł éĢļ
çķª èĮĦ
è¿ĩåİ» çļĦ
ub l
æ§ Ł
æ¬£ èµı
åįľ æĿľ
è¶³åįı æĿ¯
èĢķ åľ°
çĪ¸ çĪ¸
ç»ĳ æŀ¶
æ¨¡çī¹ åĦ¿
çĽ¸è¾ĥ äºİ
çİĽæł¼ ä¸½
k a
Ġ äºļ
Ġ åħ¨
Ġ 17
Ġ çľŁ
Ġ å¤ı
Ġ ä¸ŃåįİèģĮæ£Ĵ
ĥ åľ
çļĦ çŁ³
çļĦ çºªå½ķ
çļĦ åĮºåŁŁ
åı ¹
åı ±åĴ
å¹´ æŃ£å¼ı
è¿ Ħ
ä¸Ģ ä»½
å¼ §
å¤§ éĺŁ
æŃ ¼
æĹ¥ åħ¬å¸ĥ
ä¼ļ æĪĺ
ä¸ª åĽ½å®¶
çĶŁ æĦı
åĲį ç§°ä¸º
è¥¿ ä¼¯åĪ©äºļ
åĵ ĩ
åĵ ī
æĮ Ŀ
åı¯ åĪĨä¸º
åı¯ æĥľ
éģĵ åħ·
é©¬ åĮ¹
è¿Ľ èĢĮ
âĢĿ ï¼Ľ
æ°ĳ ç±į
ç«Ļ æĺ¯
ç«ĭ åĪ»
æĦ ļ
å®ī å®ļ
ä¸¤ å¹´åĲİ
éħ ĭ
æķ° ä¸º
è£ ¹
ä¿Ŀ èĤ²
éª Ħ
æ¢ Ĺ
çº³ çļĦ
æĻ® ç½Ĺ
æį® çĤ¹
èĬ± åºı
å§Ķ åĨħçĳŀ
åİĨåı² æ²¿éĿ©
ä¸»è¦ģ çĶ±
å¼º åĪ¶
åľŁ èĳĹ
æĺ¯ä¸Ģ æ¬¾
æľ¨ æĿĳ
æĬ¤ çĲĨ
å®£ åĳĬ
çĬ¶ èħº
çģ« çĤ®
æİ¨ ç¿»
çķĻ åŃ¦
çĳŀ åħĭ
ä¿Ħ äº¥
æľĢåĲİ ä¸Ģä¸ª
å¯Į æľī
éħĴ åĲ§
åħ¬éĩĮ çļĦ
æĻĭ åįĩ
æĳĦ æĶ¿
éĺµ èĲ¥
çĶŁæ´» çļĦ
è¯¸ ä¾¯
æ£Ĵ éĺŁ
è¾ĵ åħ¥
æ³ī å·ŀ
æ¨ª æ»¨
è¥¿çıŃçīĻ è¯Ń
å¦® ä¸Ŀ
æĤ£ æľī
ak e
åģ¶ å°Ķ
ç´¯ ç§¯
è´ŀ è§Ĥ
çİĭæľĿ çļĦ
æ±Łè¥¿ çľģ
åµ ©
çļĦäºĭ æĥħ
çĽ¸äºĴ ä½ľçĶ¨
è¤ Ĵ
æ¯Ĺ éĤ»
tern ational
ç»° åı·
å°¼æĹ¥ åĪ©äºļ
åı±åĴ ¤
ä¿Ħäº¥ ä¿Ħ
F C
T S
Y ou
b ert
Ġ åĲİ
Ġ å´Ķ
æĺ Ĭ
ä¸Ģ è§Ĵ
ä¸º ä¸Ń
æĹ¥ ä¸İ
èĩ Ń
ä¸Ĭ åľº
éĥ¨ ä¸ĭ
åŃĲ å®«
è¢« æįķ
æĿ¥ çľĭ
æľĢ å¿«
å¤ļ åĲį
å£ ¹
åīį ä»»
çĶµ æ¢¯
å»º åĪ¶
å¦ į
æµ· åºķ
å·¥ åħļ
åĮĸ å¦Ĩ
ç¼ ª
ä¸¤ å±Ĥ
æ® ī
18 90
åŀ ĥåľ
éľ Ĩ
åī§ ç»Ħ
å¸¸ è¢«
æĹł åħ³
åĪĻ ä¼ļ
ä¸ĩ å¹´åīį
æµģ éĢļ
æµģ æĶ¾
æĮĩ çļĦæĺ¯
åıĺ ä½ĵ
æĹı äºº
ç¦ı åĪ©
è®º åĿĽ
åĵĪ é¡¿
åĬ© æīĭ
äºī è®º
åįı å®ļ
èİ± æĸ¯
ĠM an
æ½ Ł
å£° æ¯į
ol l
æ¸© å¸¦
ç¤¼ åłĤ
åĩºçİ° äºİ
re t
å»¶ è¿Ł
ç§Ģ åĲī
åį°åº¦ å°¼è¥¿äºļ
èĶ ĵ
åŁºçĿ£ å¾Ĵ
ãĢī ãĢģ
å¯¿ åĳ½
å´ĩ æĭľ
ï¼ģ âĢĿ
çĹĽ èĭ¦
Al l
å«ģ ç»Ļ
èĤĸ åĥı
æļ¹ ç½Ĺ
éĻ¤æŃ¤ ä¹ĭå¤ĸ
èĩ´åĬĽ äºİ
åŀĥåľ ¾
A L
D av
R obert
u el
u le
v en
É Ķ
Ġ å¤ļ
çļĦ æŃĮæĽ²
çļĦ è¡Įä¸º
è¿ Ń
åľ¨ é«ĺ
åľ¨ éĺ¿
æĺ¯ ä»ĸ
äºĨ è¯¥
ä¹ĭ åĨħ
ä¿ ©
è¥¿ æİ¥
è¥¿ èĴĻ
è¢ ľ
è¢« åĪ¤
åĲĮ äºĭ
éģĵ æķĻ
å¼Ģ å°ģ
è¿Ļ ä¸¤
ãĥ ¯
ä¹Ł èĥ½
éĺŁ åı²
er e
åħĥ æľĹ
æĢ» åĢ¼
æĽ¾ ä¸İ
äº¤ å¾Ģ
ç¥ŀ åºĻ
æµģ ç»ı
å¸Ī åĽ¢
åıª åī©
è¿ŀ ä»»
å¨ģ æĸ¯
çļĦä¸Ģ å®¶
is a
ä¼¯ åħĭ
æ±ī åı£
æĹ© å·²
æĸĩåĮĸ çļĦ
æĶ¿æ²» éĥ¨
ç¤¼ æĭľ
å·¥ç¨ĭ åŃ¦éĻ¢
èī¾ å¾·
æľĢç»Ī ä»¥
ĠH ar
ç»ıæµİ åĪ©çĶ¨
è¿ģ å¾Ģ
æ¦Ĥ åĨµ
æįķ èĻ«
ä¹Ļ ç»Ħ
é¹¿ åĦ¿
ç´§ å¯Ĩ
æ¶ī å«Į
ne y
è¯¢ éĹ®
å¿į èĢħ
åħĭéĩĮ ç±³äºļ
çŁ© éĺµ
å¯Įå£« çĶµè§Ĩåı°
èĬľ æ¹ĸ
D e
N E
a ir
c y
Ġ 0
Ġ ä¸ĭ
Ġ å¾·
Ġ ç¦ı
Ġ 16
çļĦ åĪĨ
çļĦ ä¿¡
çļĦ åıĮ
å¹´ åĽł
å® ¦
åľ¨ ä¸Ĭæµ·
ä¸Ģ éĹ´
ä¸º çĶ±
å¤§ åĲį
æľī åĬ©
èµ ¦
åĲİ è½¬
åĲİ è£Ķ
åĩº èī²çļĦ
ä¸į åĪ©
å®¶ èĩ£
åįĹ ç«¯
é« ĵ
æ³ķ å°Ķ
åīį çº¿
äºĮ çĻ¾
ä»» æĦı
å±± è°·
æīĢ ä½ľ
æĪĺ èĪ°
ä¹Ł æĪĲä¸º
ä½ĵ çİ°
åĪ¶ å¤ĩ
èģĶ åĨĽ
æ¡ ¶
ä¸¤ äººçļĦ
éĩį ä¿®
æĺİ å°¼
åŁº è¾ħ
an e
éĴ ī
æİ¥ æīĭ
äºĶ çĻ¾
ç¥ŀ çļĦ
ç»´ çī¹
ä¼ł åĬ¨
è§Ĵ éĢĲ
ä½įäºİ è¯¥
æŃ¦ æľ¯
å¸¦ æĿ¥çļĦ
ç¬¬ä¸Ģ éĥ¨
æīĵ éĢł
èı ħ
åĻ ¶
is m
åĲī éļĨ
åĪĴ å½Ĵ
å¼º å¤§
çľŁ èıĮ
é£ŀ é¸Ł
ĠM ed
å¥ĩ å¹»
æĽ¼ åĵĪé¡¿
éĥ¡ çļĦ
é¡º å¤©
è¿Ľåħ¥ äºĨ
åıĳè¡Į äºĨ
æłĳ æŀĹ
åĮĹäº¬ å¤§åŃ¦
éĿ¢ç§¯ ä¸º
çİ© åħ·
à¸ £
çŃ¾ ä¸ĭ
æĸ¹éĿ¢ åĨĽ
èģļ ä¼ļ
æĹĹ å¸ľ
ä»ª åĻ¨
st r
åħħ åĪĨ
æ¨¡å¼ı ç§į
æĪĺæĸĹ ä¸Ń
å¹´åľ¨ ä½į
è´º å²ģ
ãĥĥ ãĥĪ
å¹¿æ³Ľ çļĦ
æ·® åįĹ
çĬ¬ åº§
æĸ¯å¡Ķ å¤«
åĮĪ å¥´
æº¶ æ¶²
ãĤ¿ ãĥ¼
å®īä¸ľå°¼ å¥¥
éĻ¨ çŁ³
é¹°çº§ ç«¥åĨĽ
ç°§ ç®¡
Play Station
äºļé©¬ éĢĬ
èĭ¹ æŀľ
åķ¤ éħĴ
B BC
N ew
u ch
Ð ³
Ġ äºĶ
Ġ é¾Ļ
Ġ èĲ§
çļĦ ç»ĵæŀĦ
çļĦ çĽ®æłĩ
ãĢĤ ï¼ī
ä¹ ĵ
ç» İ
ä¸Ģ çĤ¹
æĺ¯ å°Ĩ
çĽ ²
ï¼ļ ï¼Ī
çĶ¨ äºĨ
èĢĮ åĲİ
ä¸ī çĻ¾
åĮĹ é½Ĳ
åĬł ç´¢
äºĭ åĲİ
ç«Ļ åľ¨
å½ĵ æĹ¥
ä½Ĩ æľĢç»Ī
åŁİ éĹ¨
åħ¨ æĹ¥
åİĨ å±Ĭ
éĶ ¤
äº§ éĩı
å¹¿ å²Ľ
éĵģ çŁ¿
ç¤¾ ç¾¤
åħī æĺİ
äº¬ å¸Ī
æĻ® éĩĮ
åıĪ åľ¨
åįĩ çıŃ
is e
åħ¶ä»ĸ äºº
å¼º åĮĸ
çĵ¦ å¤«
äº¦ åı¯
èĢģ æĮĿ
éĥ¡ çİĭ
è¿ª æĸ¯
æ¾ ľ
æĸĩåĮĸ éģĹäº§
ä»ħ åľ¨
âĢĿï¼Į âĢľ
å½±åĵį åĬĽ
åģļ æ³ķ
æ¼Ķåĳĺ éĺµå®¹
å¼¹ èį¯
ĠD e
å®¾ å¤ķ
éŃĶ é¬¼
è°¢ å°Ķ
åĬ³ å·¥
ĠE x
èģĶéĤ¦ åĨĽ
äº® çļĦ
è¡£ æľį
æļĹ ç¤º
ãĢī ï¼Į
189 5
189 9
ç¦»å¼Ģ äºĨ
é¢Ĺ ç²Ĵ
186 3
åıĤèµĽ èµĦæł¼
èķ¾ å¨ľ
åįĹåĮĹ æľĿ
èĳ£äºĭ ä¼ļ
èħ¾ è®¯
æĬķåħ¥ ä½¿çĶ¨
åħĭç½Ĺ åľ°äºļ
ĠUn iversity
bur g
åįļè§Ī ä¼ļ
å½ķå½± å¸¦
ä¹Ĵ ä¹ĵ
å·ŀéĻħ åħ¬è·¯
9 00
M y
o on
o ch
Ġ æľī
Ġ ch
ç» «
ä¸Ģ ç¾¤
ä¸º ä¸Ģä¸ª
æĹ¶ ä¼ļ
è¾ ±
ä¸Ĭ è¯ī
æĽ Ŀ
çĶŁ åīį
åħ¬ ç¤º
åıĳ çļĦ
å¹¶ åĲĳ
èī °
å¾· åĨĽ
æľĢ å¥½
åħĭ æĽ¼
å¼Ģ æĴŃ
åīį æľŁ
è° į
è° İ
éļ ¼
åľº ä¸Ĭ
ä½ĵ åĨħ
èĤ Ĩ
å¤ĸ åĢŁ
ä½¿ ä»ĸ
æīĭ æ³ķ
æ· Ĩ
åįİ çļĦ
å§ĭ ç¥ĸ
çĥ ¹
å¤Ħ åĨ³
çº³ å°Ķ
çĬ Ģ
è¿ĳ äº²
è¿ĳ åį«
å¸¦ åĪ°
é¦Ļæ¸¯ éħįéŁ³
åħµ åºĵ
åĲĦ é¡¹
çĪ± ä¸ģåł¡
åĪĿ çº§
åĲī æĸ¯
æ¯ı å°ıæĹ¶
æ£® åł¡
èĢĥ çĶŁ
å¯Ĩ è¥¿
åĮ» å¸Ī
èİ± åĿŀ
çİĩ åħĪ
æ½ į
æĤ ¼
æ¤ Ĵ
æ¸© åĴĮ
çĲĥéĺŁ çļĦ
æĹħ åĽ¢
ĠH e
æ¶Ī åĮĸ
ä¹ł ä¿Ĺ
ĠR e
æĻļ å¹´
èģĶçĽŁ çļĦ
åĩºçĶŁ åľ¨
æŀ¶ æŀĦ
ç»ĦæĪĲ éĥ¨åĪĨ
å·® åĪ«
é¡¹çĽ® çļĦ
äºĴ åĬ¨
äºĴ éĢļ
ç»ıè¿ĩ æľ¬åľ°åĮº
éĢĥ èĦ±
æ¿Ģ çĥĪ
ä¹Ļ çº§èģĶèµĽ
ĠO r
åĨ· åį´
æ© ĺ
ç¯® æĿ¿
æĢª çī©
åĤ¨ å¤ĩ
å®īå¾· é²ģ
çĶµåĬĽ æľºè½¦
çħ¤ çĤŃ
å±±åı£ ç»Ħ
è·¯æĺĵæĸ¯ å®īéĤ£
ä¸īåĪĨ çĲĥ
éķ° ä»ĵ
å¥¥æĸ¯æĽ¼ å¸ĿåĽ½
ç¿¡ç¿ł åı°
o ot
Ã ±
Ð ¡
å ¬
Ġ æ±Ł
åľ¨ å½ĵåľ°
å· ³
æľĪ ä»½
ä¸į åıĬ
åĲį å°Ĩ
åħ¬ æŃ£
åĨĽ ä¸Ń
åįĹ éĿ¢
åĮĹ ç¾İæ´²
æĸĩ çļĦ
å°ı åŃ©
æĭī å§Ĩ
å¤© æ¡¥
ä½Ĩ æ²¡æľī
åı· æľĪåı°
ç¦ º
è¯¥ ä¹¦
éĥ½ åı¯ä»¥
er y
æĺİ æ¸ħ
åħĥ éŁ³
é¦ĸ å±Ĭ
æĢ» éķ¿
åįİ ä¸½
å·´ åħĭ
11 5
åıĺ å¼Ĥ
åĩ» éĢĢ
ç¬¬ä¸Ģ ä»»
èĬ± å¼ı
çĶµå½± ä¸Ń
å±ħ äºİ
åĬŀ åŃ¦
ĠM usic
è¿ª åįĹ
è®© äºº
éĻĲ äºİ
æĹ¶éĹ´ ä¸º
èĮĥ å¾·æ¯Ķ
éĻį éĽ¨
æĲ ı
é¢Ħ éĺ²
å¯º åºĻ
æī§ æ³ķ
ä¼ĺ åħĪ
om e
ä¸° æ»¡
è¡ĮæĶ¿ ä¸Ńå¿ĥ
çļĦå¤§ éĥ¨åĪĨ
æ·· æ·Ĩ
ĠE d
åĬ¨çī© çļĦ
å¹ķ åĲİ
æŁĲ ä¸ª
çīĪæľ¬ çļĦ
åĪ¶éĢł åķĨ
éĢĿä¸ĸ äºİ
åıĺæĪĲ äºĨ
çĽ¸ä¼¼ çļĦ
èĥİ çĺ¤
å¤§å¥ĸ èµĽ
æĬ½ çŃ¾
çĭŃ çªĦ
åħĭéĩĮæĸ¯ èĴĤå®ī
æįĲ èµł
åĢº åĬ¡
åı°é£İ èŃ¦æĬ¥
çīĽæ´¥ å¤§åŃ¦
æ¤Ń åľĨå½¢
é©¬è¾¾ åĬłæĸ¯
çķ¸ èĥİçĺ¤
âĹ ĭ
ä¸Ńå¤®åĨĽ å§Ķ
å¤©æ»¡ å®«
D on
m p
r ich
Ï ģ
Ġ çĶ±
Ġ ä»Ĭ
Ġ éŁ³ä¹Ĳ
çļĦ éĿŀ
å¹´ æŃ£æľĪ
åĽ½ åŃĲ
19 13
æ³ Ĺ
èĥ ¤
å¿ Ĵ
æľ¬ æ¬¡
æ± Ĳ
è¢« åĪĹä¸º
åįĹ ä¸ĭ
ä½į åľ¨
ç¥ ĩ
åĮĹ ä¸ľ
æĸ¹ æµİ
éĩĮ æĺĤ
ãĥ ģ
åįģ ä¹Ŀå¹´
ä¹Ł éĹ¨
æµ· é¡¿
è° Ł
ç§ĳ éļĨ
ç«ĭ ä¸º
10 3
ä¸¤ å²¸
å½± è¯Ħ
ç±³ æĭī
ä¿Ŀ å®ļ
å¤« çī¹
åı¤ åŁİ
å®ŀ ä¹ł
åĮħ è£ħ
çĤ¹ æĺ¯
çº³ çĵ¦
å¤´ çļĦ
åħŃ åįģ
çłĶ åĪ¶
æīĵ åĩº
çĳ ļ
è§£ éĽĩ
at or
èı ģ
çļĦä¸Ģ æīĢ
åıį åĩ»
æ´¾ ç³»
è¶ħ äºº
å¾Ī éļ¾
è´Ŀ æł¼
èĪª è¡Į
å·¥ä½ľ èĢħ
å¾ģ åı¬
åįł æľī
ä¸ģ çĽ®
æĿ° å¿Ĺ
å¼Ĺ èİ±
å³ ¨
å¹² æī°
éº¦ åı¯
æ¶Ī éĻ¤
om as
å¸ķ åħĭ
è¿ģ å¾Ļ
éĶ¦ èµĽ
åģĩ éĿ¢
è¯¸ å¡ŀ
æĶ¯æĮģ èĢħ
å¼Ģåıĳ åĮº
ĠE l
æļ´ éľ²
æĽ¿ æį¢
åįļçī© éĻ¢
äºĴ èģĶç½ĳ
ä¿±ä¹Ĳéĥ¨ çĶŁæ¶¯
æģ¶ éŃĶ
ä¹ĭåīį çļĦ
Ġ199 6
ä¸ĺ éĻµ
éĩįåºĨ å¸Ĥ
å¤§ä½¿ é¦Ĩ
èµĭ äºĪ
å¹¶æŃ¢äºİ çľģéģĵåı°
æª Ĳ
åı°åįĹ å¸Ĥ
ĠLe ague
é»ĳé¾Ļæ±Ł çľģ
Red mi
ĠGro up
åĬłåĭĴ æ¯Ķ
å§ĶåĨħçĳŀ æĭī
å®¾å¤ķ æ³ķ
èĮĥå¾·æ¯Ķ å°Ķçī¹
" ãĢĤ
C on
Ï Ħ
Ð ±
ç µ
Ġ j
Ġ åĨłåĨĽ
Ġ ä¸Ĭæµ·
Ġ çº¦ç¿°
çļĦ ä¸į
å¹´ é¦Ļæ¸¯
åŃ ľ
åľ¨ è¿Ļä¸ª
ä¸º ä½ķ
ä¸º åı°æ¹¾
æĿ ĸ
æĺ¯ è¯¥
æľī å¾Īå¤ļ
å¥ ¢
çİ º
æ³ ·
ä¸Ĭ æ¼Ķ
ä»ĸ äºº
éĥ¨ åĴĮ
çĶŁ æ¯į
ä¸į åıĹ
ä¸» æµģ
çĶ¨ åĵģ
é¢ Ĳ
ä¸ĭ åĪĹ
å°ı è¡ĮæĺŁ
çķ ´
å¤© èµĲ
ä½Ĩ è¢«
ãģ ©
åı² æĸĻ
å¥³ éħįè§Ĵ
åĽĽ äºº
åĽĽ åĳ¨
å½± ä¸ļ
éĺ¿ æĸ¹ç´¢
æĢ» åħµ
æİ¥ é©³
çĿ ¦
åŀĭ æŁ´æ²¹æľºè½¦
çºª å¹´
ä¼ł è®°
ä¹ī åĬ¡
åįķ äºº
å¤§åŃ¦ æķĻæİĪ
ç®¡ éģĵ
éĢł èĪ¹
æĿİ å°ı
åľ£ è¡£
æĻ® åıĬ
è¿ŀ çİ¯
ä¸ĵ åĪ©
å¥½ èİ±åĿŀ
å·Ŀ æĿĳ
ic o
el la
èĲ¨ è¯¸å¡ŀ
çĶ· åıĭ
åħ¶ä¸Ń ä¸Ģç§į
æĬ¤ çħ§
éĻĪ åĪĹ
æĻ¯ åĮº
åĪĺ å¤ĩ
çģ« åĬĽ
ç»§ æ¯į
ç¥ĸ ç±į
æİ¨ è¡Į
çĭ¬ çī¹
ä¿Ħ è¯Ń
è¯Ŀ åī§åĽ¢
åı¶ çīĩ
ä½İ æ°Ķåİĭ
éº¦ éļĨ
ç¤¾ä¼ļ åŃ¦
èĭ¥ å¹²
æĻļ éĹ´
æ¼Ķåĳĺ è¡¨
èį¯ åĵģ
äºĮåįģ ä¸īå¹´
è°¢ å®ī
å¤ľ æĻļ
åħĦ éķ¿
è®² è°Ī
èķ ¨
æĵį çºµ
éļĶ ç¦»
æĪĳä»¬ çļĦ
éĺ» æ»ŀ
æĪª æŃ¢
åĽ½æ°ĳ åħļ
ç»§æī¿ äºĨ
æħ¢ æħ¢
çī©çĲĨ åŃ¦å®¶
çĥ§ æ¯ģ
åĤ¨ åŃĺ
Ñģ Ðº
äºĳåįĹ çľģ
çŀ ¬
æĿ°åħĭ éĢĬ
å¹½ é»ĺ
å¤§èĩ´ ä»¥
çĦ¦ çĤ¹
ç»ĪçĤ¹ ç«Ļ
åľ°åĽ¾ ä¸Ĭ
çĶŁåŃĺ äºİ
è¶³å¤Ł çļĦ
T E
å ļ
Ġ åī¯
çļĦ æĶ¿æ²»
çļĦ æłĩåĩĨ
ä¸º ä¸Ńå¿ĥ
æĺ¯ å¾·åĽ½
æľĪ åĲİ
æľĪ å¼Ģå§ĭ
èĢ ¿
æ² ¢
æ² ¦
ä»¥ å¾Ģ
æĸ¯ å¤§æŀĹ
éĹ °
ä¹ĭ æŃĮ
ä¹ĭ åŃĻ
åħ¬ åĬ¡
åħ¶ èĮĥåĽ´
åŃĲ åĴĮ
éķ¿ éĩİ
ä¸ī æ®µ
æ³ķ åŃ¦éĻ¢
äºĮ æľŁ
åĬ¨ åĳĺ
æīĢ çŁ¥
ç¾İ å¼ı
è° ħ
çķ ĳ
å¤© å®Ŀ
çŃī èģĮ
æģ ª
åħ¨ æĻ¯
éĩĳ åĥı
åİŁ æľīçļĦ
æ°´ çĶµç«Ļ
çĽ¸ éģĩ
éĺ¿ çī¹
ä¹Ĳ ç«ł
éĴ ¾
éª ¸
éª ł
å·´ åĵĪ
è¯´ æľį
çĿ ¹
åĪĻ äºİ
æ±Ł éĻµ
å·² åľ¨
åĪ« äºº
æľĿ éĺ³
çĳ ¾
at es
ä¸ĸçķĮ å¤§èµĽ
æĿĥ å¨ģ
æ¯ı ä¸Ģä¸ª
èĩ´ ä»ķ
çİĩ åħµ
è¡Ĺ è½¦ç«Ļ
it al
åĺī åħ´
å®Ī åĨĽ
æ°¸ ä¹Ĳ
çĽĳ ç®¡
ĠT V
re g
èī¾ ç±³
å»¶ å¯¿
åĩºçīĪ çļĦ
èİī ä¸Ŀ
å½ĵåľ° äºº
æĭľ åįł
åįĹéĥ¨ çļĦ
çĮ® ç»Ļ
éĢĶ ç»ı
åºŁ å¼ĥ
å¥ī å¤©
èĦī åĨ²
Ġ199 3
ç¼© çŁŃ
èĭ±æł¼åħ° è¶³çĲĥ
è¾ħ å¯¼
ow er
è®¾ç«ĭ çļĦ
è¥¿éĥ¨ çļĦ
è·³ åı°
æ½ľ åľ¨
Ġp ro
Ð½ Ð¸
Ġ195 5
ä¿ĿçķĻ äºĨ
ç®Ģåįķ çļĦ
è¿ĳå¹´ æĿ¥
å¸ĤæĶ¿ åİħ
æīĢè°ĵ çļĦ
åĨłçĬ¶çĹħæ¯Ĵ çĹħ
èĬŃ èķ¾
åģľè½¦ åľº
åĲīéļĨ åĿ¡
å¯Ĩè¥¿ æł¹
è®²è°Ī ç¤¾
O C
r es
w e
w ay
åľ¨ çº¿
ä¸Ģ å¹´åĲİ
åĨ ¤
æĺ¯ åħ¶
å¤§ å¤§
å¤§ åĨħ
èµ İ
è§ ħ
æĸ¯ çļ®
éĥ¨ ä½ľåĵģ
ä¸į è¿ľ
ä¸į çŁ¥éģĵ
ä¹ĭ åĪĿ
ä½ľ ä¸ļ
åĮº äººæ°ĳæ£Ģå¯ŁéĻ¢
ç¾ ²
å¹¶ èİ·å¾Ĺ
å² Ķ
ç§ĳ è¥¿
å®ī è¾¾
åħ¨ æĸ°
åħ¨ ä¸ĸçķĮ
åħ° åį¡
éĺ¿ å¾·
éĺ¿ åįľæĿľ
çº¦ åħĭ
è¾¾ åĪ°äºĨ
çĦ ķ
on y
åł ķ
ä¹¦ çĶ»
æ²³ çļĦ
éĴ ŀ
éĽĨ ç»ĵ
å·´ æĭ¿
åıĹ æįŁ
en a
æĥħ å½¢
æĮĩ è´£
è¿ĺ æ²¡æľī
åŃĹ åŃĲ
åĳ½ ä¸Ń
åĪĿ æŃ¥
æ¸ħ åĨĽ
çļĦä¸Ģ åĲį
ä¸»è¦ģ æ¼Ķåĳĺ
ĠS te
èħ ķ
çĶµè§Ĩ åĬ¨çĶ»
æĿĥ çļĦ
äº¦ æĶ¹åĪ¶ä¸º
éĤ£ ä¸į
çº¢ åĨĽ
ĠP l
ä¾§ å¼ıæľĪåı°
é³ ĥ
èĥĮ åıĽ
åģļ äºĨ
çŁŃ çīĩ
èı² å°Ķ
çº½ è¥¿åħ°
å·® è·Ŀ
éľį å¤«
æ·· è¡Ģ
ä½© å°Ķ
åĢŁ æŃ¤
ç¿» åĶ±
çİ¯å¢ĥ ä¸Ń
åĵ² åŃ¦å®¶
189 3
ow s
çº¹ ç«ł
è¡¨æ¼Ķ æŃĮæĽ²
187 1
éĽĨä¸Ń åľ¨
èĸĦ èį·
å¯Ħ çĶŁ
ä¸ĭè¾ĸ çļĦä¸Ģä¸ª
æīĵåĩ» çİĩ
çģĮ æľ¨
æĹ¥æ²» æĹ¶æľŁ
ç²® é£Ł
å»¶éķ¿ èĩ³
äº¤çķĮ åľ°å¸¦
çĶµæ°Ķ åĮĸ
ber g
è¶³æĢ» æĿ¯
åį°ç¬¬å®ī çº³
é¡ºä½į è¢«
åĥµ å°¸
ãĢīãĢģ ãĢĪ
A BC
M an
Ġ åį¡
Ġ è®¸
çļĦ æ´»åĬ¨
å¹´ ä»ħ
å¹´ æĺ¥
å¹´ é¦ĸæ¬¡
åŃ º
å¤§ çº²
åĲİ äºº
åĲİ æĪĲä¸º
æĽ ľ
ä¸į åľ¨
ä¸į æĦ¿
ä¿ ŀ
è¡Į è½¦
åĨĽ åĮ»
åįĹ åįİ
çī¹ å°Ķ
ä¸ĭ è½½
ä¸ī åº§
æĿ¥ äºĨ
ä¸ľ ä¸´
äºļ ä¼¯
åĬł è¥¿äºļ
æĸ° æĺŁ
æĸ° é²ľ
åĪ© å¥ĩ
ä»£ çļĦ
å°ı åŃ¦æł¡
åı° ä¸ľ
çİĭ å»º
çİĭ åĪĺ
ç§ĳ æĻ®
ç§ĳ ç»Ļäºĭä¸Ń
æģ ¼
åı· å·ŀéĻħåħ¬è·¯
ãĤ §
åĽĽ åĲį
æķ° çĽ®
an i
è¿Ĳ ç®Ĺ
æĢ» é¢Ŀ
éĶ £
éĶ »
æĿĳ èĲ½
ç±» åĪ«
åı¤ å¸ĮèħĬ
å¤ª ä¿Ŀ
ä¼ł æĦŁ
èĮ ľ
å¥ĸ çļĦ
å¤§åŃ¦ çĶŁ
èĦ Ĩ
åıĺ æĽ´
ä¿¡ æīĺ
åıĸ äºĨ
æĻ® æŀĹ
åĲĦ å¤§
çĸ ²
åı¯ä»¥ çĶ¨
åıĪ æľī
åıĪ ç§°ä¸º
èĬ± è´¹
è®° è¿°
å¾Ģ æĿ¥
æŃ» èĢħ
çĶµè§Ĩ å¹¿æĴŃ
åĺ ²
æĿĢ äºĨ
æ¹ĸ æ³Ĭ
ä¹ĭåĲİ åľ¨
çĻ¾ è´§
æİĴ éĻ¤
çĳŀ å®ī
ĠB ar
å¹² éģĵ
28 0
å½Ĵ è¿ĺ
è½» æĿ¾
äºĨä¸Ģ ä»½
æĬĢæľ¯ åŃ¦éĻ¢
à¸ ±
çļĦåľ° ä¸ĭ
æķ£ æĸĩ
å·¡ è§Ĩ
ç©¿ èĳĹ
æģĲ æĥ§
ap p
éĿĴå¹´ éĺŁ
æĴĴ åĨ·
åı¥ ä¸½
é¢ĨåŁŁ çļĦ
æĶ¶å½ķ äºĨ
éĹª çĶµ
ç¬¬åįģ ä¸ī
ç¨ĭåº¦ ä¸Ĭ
æ£ķ èī²
æª Ģ
èģª æĺİ
ĠCol le
çºº ç»ĩ
D B
Ġ äºİ
Ġ å°ĳå°Ĩ
Ġ Ø§ÙĦ
äº ı
å¹´ åįİ
å¹´ çºª
å¹´ å·¦åı³
è¯ ł
ä¸Ń åĴĮ
ä¸Ń ç«ĭ
åĽ½ äºº
äºº æĺ¯
äºº é©¬
çº ±
å¤§ çķ¥
èĩ ¼
ä¸Ĭ ä»»
åĩº å®¶
ä¸į çŃī
éĽ ³
èĢĮ æľī
åįĹ å®ģ
å¾· å®Ĺ
æĮ ½
æľĢ éķ¿çļĦ
èİ ½
å¤ļ å°ĳ
å¤ļ æĳ©
èĩª ä¸»
æĸ° åħ´
åĬ¨ è¯į
ç¾İ èģĶ
å°Ĩ æĿ¥
ç§į ç¾¤
ç½Ĺ æĿ°
10 4
ãĤ ĩ
æ°´ æºĲ
æĺİ æĹ¥
æŃ£ è§Ħ
éħ ¬
an y
åı¸ æľº
éŁ³ åĵį
äº¤ çĶ±
çĥ ĥ
æº ¥
ä¼ł åħ¥
ä½įäºİ ä¸Ńåįİäººæ°ĳåħ±åĴĮåĽ½
æĥħ äºº
ç² Ł
al a
æ®µ çļĦ
æĶ¶ ç¼©
èĹ ī
æĿ¡ çĽ®
åĲī åĪ©
æ±ī åŃĹ
ä¸ĥ ä¸ª
åŃĺ åĤ¨
ä»ĸçļĦ åĦ¿åŃĲ
è½¦ç«Ļ åĳ¨è¾¹
é±¼ çļĦ
ä¾¿ åĪ©
è¶³çĲĥ åįıä¼ļ
å·¦ ä¾§
ur a
ä¸įåĲĮ äºİ
èįī åľ°
æ³¨ å°Ħ
æĻĭ åįĩä¸º
çļĦä¸Ģä¸ª ä¼łç»Ł
èĢ¶ è·¯
om a
äºĨä¸Ģ ç§į
ãĥ¼ ãĤ¹
äºĮåįģ åĽĽ
çĪ¶äº² çļĦ
ç§ĳåŃ¦ ä¸İ
å·¡ æĮī
å¾Ĳ å·ŀ
å¾Ĵ åĪĳ
å¼Ģåıĳ çļĦ
é¢ĳ ç¹ģ
ä¼ģ åĪĴ
ä¸ĢçĽ´ åĪ°
æ¿Ģ è¿Ľ
ç¿» æĸ°
çĴ §
Ð¾ ÑĢ
åĲ¦ è®¤
èĳ¬ åľ¨
åıĳè¡¨ äºĨ
188 7
ran s
å¾·éĩĮ å¸Į
å±ı å¹ķ
å°ıç»Ħ èµĽ
éĥĬ åĮº
å½» æĸ¯çī¹
åħ±äº§ ä¸»ä¹ī
æ²³æµģ åŁŁ
ãĢĢãĢĢ ãĢĢãĢĢ
æĿĨ èıĮ
å¤§æŃ£ ä¹Ŀå¹´
è´· æ¬¾
åĤ¬ åĮĸ
è®½ åĪº
åŃ¢ åŃĲ
C ar
O K
h o
u la
Ï ĥ
Ġ è¯¥
Ġ åįĥ
çļĦ åı¤
çļĦ åī¯
çļĦ åŃĺåľ¨
çļĦ ä¼łç»Ł
çī ¡
èµ £
åĴĮ ç¬¬
åĴĮ é©¬
æĹ¥ ä»¥
æĭ ©
åĩº èī²
å®¶ éķ¿
åħ¬ é¦Ĩ
è¥¿ å°Ķ
åĪĨ åħ¬åı¸
åĪĨ åºĹ
ä½į åĪĹ
ä¸ī åįĥ
çŁ ½
äºļ çī¹åħ°
æĸĩ æľ¬
éĩĮ åĬł
å¯¹ ä»ĸ
ä¹Ł è¢«ç§°ä¸º
åħ¥ åŃ¦
ç½Ĺ è®·
ä½Ĩ ä¹Ł
æģ ķ
ãģ ĳ
éĩĳ é¢Ŀ
éĩĳ éĴ±
åİŁ æĸĻ
ãĤ ĥ
åŁº å°Ķ
åĪĹ åħĭ
åĪĹ ä¼ł
è¿Ĳ è½¬
è¿Ĳ éĢģ
åħ± äº«
éľ Ħ
è¯Ń éŁ³
è§Ĩ æĺŁ
æĹł éĶ¡
äºĶ è§Ĵ
å¥¥ åħĭ
æµģ äº¡
æĽ´ å¤§çļĦ
åıĺ åĬ¨
ä¼Ĭ èķ¾å¨ľ
åħµ åĽ¢
åĲĦ åľ°çļĦ
åı¯ä»¥ ä½¿çĶ¨
åıĪ è¢«
ä¸ĵ çº¿
è§£ ä½ĵ
çļĦä¸Ģ åľº
æĶ¾ å°Ħ
å¤į åĪ¶
éĽ· ç±³
åķĨ åľº
æķħ æĦı
åŃĺ æ´»
éº Ĵ
å¾Ī æľī
èĢĥ åħ¥
æ¨¡ æłĩæľ¬
ç½ĳ åıĭ
ä»£è¡¨ ä½ľ
çĽĳ æµĭ
æ¸© å·ŀ
éº¦ ç¾İ
å°ļ æľī
ä¹ł æĢ§
èĭ¥ æľĽ
äºĮåįģ ä¸Ģå¹´
åħ» æ®ĸ
å¥ı æĽ²
åºĻ å®ĩ
èķ Ĭ
éĺ¿å°Ķ å·´
æ´ª æŃ¦
æĭĽ åĭŁ
ou th
ers on
æķı æĦŁ
äº« åıĹ
å»ºéĢł çļĦ
çŃĶ åºĶ
ç§Ł çķĮ
å¦Ī ç¥ĸ
uc k
é³ŀ çīĩ
AK M
çıĬ çĳļ
rit ic
åĲĪåĶ± åĽ¢
åį¡æ´Ľ æĸ¯
å¤ĸåĽ´ èµĽ
æķħå®« åįļçī©éĻ¢
æĭľåįł åºŃ
èĢ¶è·¯ æĴĴåĨ·
. ï¼ī
P A
Ø ©
Ġ on
Ġ æŃ¦
Ġ æĪĳ
Ġ åĽ½éĻħ
Ġ éĥŃ
Ġ åįģå¤§
çļĦ æ³ķ
çļĦ ä¸įåĲĮ
çļĦ ä¸¤ä¸ª
çļĦ å¹´åı·
åľ¨ é©¬
ä¸Ģ èĩ³
ä¸Ģ åįĥ
ä¸º ç¾İåĽ½
åĮ ¾
è¯ ¬
ä¸Ń æīĢ
äºº æĢ§
å¤§ éĹ¨
å¤§ ä½Ĳ
å± ĳ
åĴĮ ä»ĸ
åĴĮ ç¾İåĽ½
âĢ ķ
åŃ¦ çłĶç©¶
æµ ı
åĩº èµĦ
çĶŁ ä¸ĭ
ä¸į äºĨ
ä¸į éľĢè¦ģ
ä¹ĭ ç§°
ä¸» çļĦ
åħ¬ å¢ĵ
è¥¿ éĩĮ
æİ ·
é¢ ļ
é© ´
ä¸ľ æĹ¥æľ¬
æĻ °
é«ĺ å±Ĥ
åĬł éĩĮ
å¯¹ ä»ĺ
çİ° éĩĳ
å°ı æıĲçĲ´
æµ· åħ³
ç»ı è´¹
æŃ¤ ç±»
ä½ĵ èī²
åĪ¶ åĬ¨
ç«ĭ ä½ĵ
éĩĳ èī²
er ry
å°¼ ç½Ĺ
æĢ» è®¡
åł µ
æ²³ ä¸ľ
å®ŀ çĶ¨
å¤ª å¸¸
èĳĹ ç§°
ç¤¾ éķ¿
æĮĩ æłĩ
åħī æ»ĳ
å¼ł å®¶
çīĩ å¤´
åĽ¾ å°Ķ
åĽ¾ å½¢
åĲĦ æľī
è½¬ åħ¥
ä¸»è¦ģ äººçī©
å®Į ç¾İ
åħļ åĳĺ
åĵĪ å¸ĥ
çĵ¦ åħ¹
æĶ» ä¸ĭ
æ£® çļĦ
å¼ķ å¯¼
èĢģ é¼ł
æİ¨ çĲĨ
å© ¿
åı¯èĥ½ çļĦ
çĥŃ éĹ¨
åº· æĸ¯åĿ¦
æ¯ĶèµĽ çļĦ
åĨĻ äºĨ
æ¥¼ å±Ĥ
æŃ¥ è¡Į
ç¤¼ ä»ª
å¹´ä»£ ä¸ŃæľŁ
åģľ çķĻ
ç¤¾ä¼ļ ç§ĳåŃ¦
åį¢ æ£®åł¡
æľīä¸Ģ æĿ¡
æĪĺäºī çĪĨåıĳ
äºĮåįģ äºĶå¹´
åħ» åŃĲ
çīĽ ä»Ķ
ä¸ĢèĪ¬ çļĦ
æºª æµģ
ä¹ĺ åĿĲ
éģĩ è§ģ
å¯¼èĩ´ äºĨ
ä¼łç»Ł ä¸Ĭ
ç£ Ĭ
ir l
çºªå¿µ é¦Ĩ
åı¦ä¸Ģ ä½į
åı¬ éĽĨ
æĽ¾ç»ı æĺ¯
è±ª æĸ¯
ç¬Ķ è®°
if e
çĻ»åľº äººçī©
æĳĦå½± å¸Ī
æłĸæģ¯ äºİ
ãĤ· ãĥ§
oun d
æŃ¦æ±ī å¸Ĥ
å¤§éĺª åºľ
è½¬ç§» åĪ°
çĲĨäºĭ ä¼ļ
èįĨ å·ŀ
å®ł çī©
æ²Ļçī¹ éĺ¿æĭīä¼¯
æĢİ ä¹Ī
4 000
A V
H E
i j
y d
å¹´ æĿ¥
ä¸º ä»Ģä¹Ī
ä¸Ń ä¸ľ
æĺ¯ çĶ¨
éĺ Ĳ
åĪĨ æ²»
é¦ ħ
é¦ ı
è¢« èªīä¸º
çī¹ å®ļçļĦ
ä¸ĭ åİ»
å¾· å·ŀ
å¸Ĥ ç«ĭ
åĮĹ éĿŀ
å¯¹ æ¯Ķ
ãĥ Ħ
å±± ä¸ĭ
äºĭ çī©
éļ ħ
åı° å¸ģ
æ£ º
åŀ ħ
æ²» çĲĨ
æĶ¹ ç»Ħ
éĢī èµ°
å¸¸ çĶ¨
æĹł æķĪ
æĿĳ å§Ķä¼ļ
éª Ĩ
çĽ´ æµģ
èº« è¾¹
åįķ äºİ
åħī å¹´
å¤´ åıĳ
çŁ¥ å·ŀ
åľ£ å½¼å¾Ĺ
çĪ± å¥½
æ¸ħ åįİ
åħ« åº¦
åıį æ´¾
æķħ æŃ¤
éĥ¨åĪĨ çļĦ
ä¸ĥ äºº
æ¯ı æľĪ
äººæ°ĳ åħļ
13 5
æīĺ åĭĴ
å®£ è¨Ģ
çĬ¶ çļĦ
çģ« çģ¾
è¿ĲåĬ¨ çļĦ
ĠB e
ĠP ark
åł¡ åŀĴ
åħ¸ åŀĭ
çľĭ æ³ķ
å°ģ åį°
ĠT r
èİ« å°Ķ
æĹħ ç¨ĭ
é¢Ħ èµĽ
é¢Ħ éĢī
èĪ¹ åĳĺ
å¯º éĻ¢
ç®Ĺ æ³ķ
é¡¶ ç«¯
éĴŁ æ¥¼
äºĨä¸Ģ åº§
å®ĮæĪĲ çļĦ
çĽ®åīį çļĦ
åĩ¯ å°Ķçī¹
å¾® åĪĨ
ra v
æĭľ æĭī
è®² å¸Ī
æ£Ĵ çĲĥéĺŁ
ç»ĵæĿŁ æĹ¶
ä½ł çļĦ
éģĩ åĪ°äºĨ
ä¸ĢçĽ´ æĺ¯
éŁ¦ æĸ¯
è¿Ľå£« åĩºèº«
éĢłæĪĲ äºĨ
åĨ¬ å¥¥
å½© èī²
éĿĻ èĦī
ä¸įä¹ħ åĲİ
éļ¶å±ŀäºİ åı°ä¸Ń
æ¹ĸåįĹ åį«è§Ĩ
èµĦæł¼ èµĽ
ich ard
å¸ĥé²ģ æĸ¯
ik e
åĸĢ éº¦éļĨ
å·¡åĽŀ æ¼ĶåĶ±ä¼ļ
çĲĨå·¥ åŃ¦éĻ¢
ç¿ħ èĨĢ
çķħ éĶĢ
å¤ļæł· æĢ§
ç¥Ī ç¥·
åĿŁ å¢ĵ
ç¥ŀåľ£ ç½Ĺé©¬å¸ĿåĽ½
çīĩå°¾ æĽ²
âĪ Ĵ
è½¶ äºĭ
çİĽæł¼ä¸½ çī¹
ä¹Ĵä¹ĵ çĲĥ
é©¬è¾¾åĬłæĸ¯ åĬł
éĺ»æ»ŀ åīĤ
éº¦ç¾İ ä¼¦
J o
M a
h am
¹ éĽ³
Î ²
Ġ åħĥ
Ġ åħī
Ġ éĿĴ
çļ ĵ
çļĦ é»ĳ
çļĦ è¦ģæ±Ĥ
çļĦ è¯Ħä»·
çļĦ ä»·æł¼
å¹´ å¤§éĢī
åŃ µ
åŃ ļ
åľ¨ åľ°
è¯ µ
ä¸Ń åŃĲ
å¤§ èĥľ
å¤§ æī¹
éĥ Ŀ
éĺ Ģ
èĩ §
åĳ ¢
ä¹ĭ äºº
ä¹ĭ åıĺ
ä¿ ¯
åĪĨ äº«
åħ¶ é¡¿
å¹¶ ç§°
ä¸ĭ éĿ¢
é© ¿
ä¸ī éĩį
åĲĮ æľĪ
éģĵ æĪĲ
åīį æĸ¹
è¿Ļ ä¹Ł
å±± åįĹ
æ¼ ķ
æŃ¤ ç«Ļ
çĲĨ åŃ¦
ç§ĳ å§Ĩ
æ¬¡ æĹ¥
ãģ °
er at
æķ° åĢ¼
ä¹Ĳ æĽ²
èµ· é£ŀ
éľ ¹éĽ³
å°± ä¸ļ
ä¼Ĭ ä¸½
ç¬¬ä¸Ģ åº§
çĶ° çĶº
è½¬ èĢĮ
åĪĽ ä¸ĭ
å½ķ åıĸ
è§ģ éĿ¢
å¼º è¿«
æļ ĳ
æĺ¯ä¸Ģ æĿ¡
æł· çļĦ
éĤ£ æĹ¶
ä¸ŃçļĦ ä¸Ģä¸ª
çĻ» å±±
çĻ» åŁº
è¯į æ±ĩ
ol y
æĥ³ åĪ°
åį´ æĺ¯
åŃĻ åŃĲ
èĹı ä¹¦
ac ritic
ä»ĭ äºİ
æ£Ģ å¯Ł
åĩı è½»
éģĩ ä¸Ĭ
æ¼« å¨ģ
éĢĥ èµ°
ĠJ ohn
èĤī èº«
çıł æ±Ł
ä»ĺ è´¹
186 8
AT P
ä¸ĢæĿ¡ çº¿ç´¢
æħķå®¹ è¯Ħ
æ¼ĶåĮĸ æĶ¯
å¤įæĿĤ çļĦ
âĸ ł
iel d
çĸ¯ çĭĤ
ä½Ľç½ĹéĩĮ è¾¾å·ŀ
åľŁåºĵ æĽ¼
C L
F or
S uper
T A
l or
Ġ äºº
Ġ å¹³
Ġ æĢ»
çļĦ çĲĥéĺŁ
çļĦ åıĺåĮĸ
å¹´ åİ»ä¸ĸ
å¹´ äººåı£æĻ®æŁ¥
ä¸Ģ æĹ¶
ä¸Ń è¶ħ
æľĪ ä»»
æ² «
æµ Ĭ
äºĨ å¯¹
çĲ ħ
çĶŁ ç´ł
æŀ ¯
ä¸İ ä¸ŃåĽ½
ä¹ĭ æĺŁ
ä¹ĭ å½¹
æ± ¾
åįĹ æ²³
çī¹ åĴĮ
å¸Ĥ åĨħ
åĮĹ ä¼Ĳ
é«ĺ åı¥ä¸½
è¿Ļ æľ¬ä¹¦
çĶµ æµģ
æĸ° æĿĳ
æĸ° åŀĭ
èĪ ¶
å¤© åŃĲ
åħ¥ å¢ĥ
ç½Ĺ ä¼Ĭ
éĢļ ç§°
å®ī å¦®
æŁ ļ
æł¼ è´Ŀå°Ķ
æŃ£ æ¨¡æłĩæľ¬
an o
éĢī æ°ĳ
æĹł åĬĽ
å·´ æ´Ľåħĭ
æº ´
æº ľ
ä¼ł æŁĵ
åºľ çŁ¥åºľ
en e
è§Ĵ å·Ŀ
åĨ³ äºİ
åıį åĵį
æķħ å±ħ
æĺ¯ä¸Ģ æīĢ
å¡ŀ æµ¦
ç´¢ æĸ¯
æħ Į
il m
èĪ° éķ¿
æīį ä¼ļ
äººåı£ å¯Ĩåº¦
å¯Į å±±
åı³ ç¿¼
ä¼ĺ å¼Ĥ
èģĶåĲĪ åı°é£İèŃ¦æĬ¥
åģĩ æĹ¥
çĶŁäº§ æĢ»åĢ¼
å®³ æĢķ
åģ¥ èº«
ç¼º å°ĳ
ä»¥ä¸ĭ ä¸º
ul l
èĪį å¼Ł
æµ¦ ä¸ľ
Ġ199 2
æľīåħ³ çļĦ
æĮ¯ åħ´
æ¡Ĥ æŀĹ
éĩįçĤ¹ å®ŀéªĮå®¤
ä¸§ å¤±
è®· ä¼Ĭ
éĢ¢ æĺŁæľŁ
æĤī å°¼
èŁ ¹
ct ion
è¥¿è¥¿ éĩĮ
åĲīæŀĹ çľģ
åľ°åŁŁ åĲįç§°
è¶ģ æľº
ä¸ĵç§ĳ åŃ¦æł¡
å¸ĥé²ģåħĭ çº³
åİŁå£° å¸¦
æ³°åĿ¦ å·¨
æł½ åŁ¹
å¼łåŃ¦ åıĭ
çĵ¶åŃĲ èįī
çļĦä¸Ģä¸ªä¼łç»Ł åľ°åŁŁåĲįç§°
åĵĪå¸ĥ æĸ¯åł¡
èģĶåĲĪåı°é£İèŃ¦æĬ¥ ä¸Ńå¿ĥ
1 19
1 18
A b
C W
P P
b le
u x
u z
Ñ ĸ
Ġ ë
Ġ ì
Ġ 15
Ġ åħ¶ä»ĸ
çļĦ åŃ¦çĶŁ
å¹´ åıĬ
å¹´ äºļæ´²
æĪ ¸
ä¸Ģ å¥Ĺ
åĮ Ļ
ä¸Ń çŃī
ä¸Ń é¥°æ¼Ķ
åĽ½ ä¼ļè®®åĳĺ
äºº éĥ½
å¤§ å±±
è¡ ®
è¡ Ļ
éĺ İ
âĢ ĭ
ä¼ļ ä»¥
ãĢĭ ï¼ļãĢĮ
å®¶ éĩĮ
åħ¬ å¼ı
åĪĨ æīĭ
å§ ¨
ä¸ĭ ä¸ĢæĿ¡çº¿ç´¢
ä½į å±ħ
åıĬ æĹ¶
æľĢ éķ¿
åĮĹ ä¸Ĭ
åĮĹ éĿ¢
å¼Ģ è¾Ł
ãĥ Ģ
å±± çĶ°
èĲ ¤
è¿ĩ åĲİ
æ°ĳ èĲ¥
çº¿ æĢ§
èĤ Ľ
èģĶ æīĭ
éĿ¢ ä½ĵ
éŁ §
éĤ ¢
ç¼ Ĩ
æ°´ ä½į
er g
æŀĹ ä¸ļ
èµ· è¯ī
æ· ¹
æ²³ è¥¿
æĹł åıĮ
æĺŁ çĲĥ
äºĶ ä½į
çĭ Ļ
æıĲ äº¤
æº ¢
æº ī
ä¼ł ä½ĽæķĻ
åįķ ç°§ç®¡
èĮ ±
å¸Ī ä»İ
æĽ´ æľī
å®ĺ èģĮ
æŃ¦ å£«
ç¬¬ä¸Ģ ä»£
æĮģ èĬĤ
ç¦ı åħĭ
è½¬ åıĺ
è¿ŀ éĶģ
ä¸ĵ æĶ»
æłĩ è¯Ĩ
åħ« ä¸ĸ
ä¸»è¦ģ ä¸º
ä»¥åıĬ åħ¶ä»ĸ
ä»¥åıĬ ä¸ŃåĽ½å¤§éĻĨçļĦ
åĪĽ æĦı
ç¬¬äºĮ åĲį
æĬ¥ åĪĬ
è¾ĥ é«ĺçļĦ
æ´¾ åı°
ç»Ń çº¦
å®¢ å®¶
çĹħ çļĦ
é¹ Ń
çĻ» å½ķ
æĦŁ è°¢
ol a
ç´ł çļĦ
éĺ² çº¿
éĵģè·¯ åħ¬åı¸
æŀģ éĻĲ
é¢Ħ çķĻ
å¯º åį¿
ä½Ĳ æ²»
æĻļ ä¼ļ
éļ¾ åº¦
åħ¹ åĪ«
ç§ĳåŃ¦ æĬĢæľ¯
åģĩ è¯´
èģĮä¸ļ è¶³çĲĥ
è¾ĵ éĢģ
å°º åº¦
ç¼ĺ åħ³ç³»
å§ĵ åĲį
èĿ İ
ä¸īåįģ å¹´
Ġ199 4
æĽ¹ éŃı
æİĮ ç®¡
ä¸Ńæĸĩ éĩĳæĽ²
åĽ° æī°
æīĢåľ¨ çļĦ
ä¸Ī åĴĮ
æĿ¡ä»¶ ä¸ĭ
Ġv on
éī´ å®ļ
æº¶ è§£
åħĭéĩĮ å¤«
Ø§ Ø
arl es
å½ķéŁ³ å®¤
åĮĹèµ· é¡ºæĹ¶éĴĪä¸İ
æĭľä»ģ æħķå°¼é»ĳ
ä¼ĬåĪ© è¯º
Met acritic
% ï¼Ľ
) ,
F IP
d uc
f er
i or
Ã §
â Ĥ
é ĳ
ê µ
Ġ å¥³
Ġ å®ĭ
Ġ ãĢĪ
çļĦ èĩª
çļĦ çī©ç§į
å¹ ¢
å¹´ ä»½
ç» ®
ä¸Ģ äºĭ
åĽ½ å¤ĸ
å¤§ éľ²èĲ¥
æķ ķ
æĹ¥ ä¸ĬåįĪ
äºĨ ä¸¤
ä»ĸ ä»İ
ä¸ª èµĽåŃ£
ä¸į åĲĪ
ä¸İ ç¾İåĽ½
ä¿ ¸
åħ¬ åŃĻ
åĪĨ æķ£
é¦ ¨
åĪ° æĿ¥
è¢« ä¿ĺ
èģ Ĭ
çľ ¶
ä¸ĭ æ°´
ä¸ĭ å±Ĥ
ä¸ĭ é¢Į
èµĽ æ®µ
å¾· åł¡
åĮĹ å¤§
åĮĹ ä¸İ
åĮĹ è¥¿
çī© ä¸ļ
é«ĺ åĬłç´¢
è¿Ļ ç±»
åĬł åĨķ
æīĢ ç½ĹéĹ¨
éĹ´ éļĶ
å°Ĩ æŃ¤
åľº åĲĪ
æľŁ æľĽ
çİĭ åºľ
ä½ĵ ä¾§
èĤ ļ
ä½Ĩ æľª
åı· çłģ
éĩĳ åŃĹ
ãĤ ¡
éĺ¿ æĽ¼
è¾¾ ä¹Ł
æĢ» ä¸»æķĻ
åħ³ è¥¿
è¯Ń åĴĮ
æĽ² çº¿
åįİ ä¸ľ
äº§ æĿĥ
éĽĨ æĪĲ
æĦı åĽ¾
æ±Ł åİ¿
æĪĲä¸º ä¸Ģä¸ª
or ge
æĳ Ĭ
ç¬¬ä¸Ģ åĲį
åı¯ä»¥ è¿½æº¯åĪ°
çĪ± åĽ½
çĪ± ä¸½ä¸Ŀ
ä¸ĵ æ³¨
åľ°åĮº ä¸ºä¸Ģ
å±Ģ éĥ¨
at er
æĬ¥ å¤į
æ±ī æĸ¯
æ±ī åĨĽ
èĲ¨ çĵ¦
å¾Ī é«ĺ
åħ¶ä¸Ń çļĦ
å®« çļĦ
æģ© æĸ¯
å»ºçŃĳ ç¾¤
çĬ¶ åħĥ
il la
åĨłåĨĽ èģĶèµĽ
ol e
è¶³çĲĥ éĶ¦æłĩèµĽ
ç³»ç»Ł ä¸Ń
åĩł ä½ķ
å¤® è§Ĩ
éª¨ å¤´
çħ§ æĺİ
åį¢ åį¡æĸ¯
è¿½ éļı
è¿ģ åħ¥
ä¸įè¿ĩ åľ¨
èĶ ½
æĹ¥åľ¨ ç¾İåĽ½
189 4
éĻ¶ çĵ·
åįķæĽ² æ¦ľ
åİŁåĽł æĺ¯
åħ½ äºº
An gel
åıĶ åıĶ
çģ¾ éļ¾
ÑĢ Ð°
åĩºèº« äºİ
çļĩå®¶ æµ·åĨĽ
åĭĥ åħ°
çŀ ³
æĭīä¸ģ ç¾İæ´²
åĪĽåĬŀ äºº
çģĮ æºī
è¯± å¯¼
æĬĵ ä½ı
orm ation
çļĦåŁºç¡Ģ ä¸Ĭ
å¥¥åı¤ æĸ¯çī¹
æĸ¯éĩĮ åħ°åį¡
æĸ¹æµİ åĲĦ
åģĩéĿ¢ éªĳå£«
éĤ£ä¸į åĭĴæĸ¯
ä¼łæĦŁ åĻ¨
1 200
2 20
A lex
B ar
I A
R are
S M
h a
o ul
v a
É Ļ
Ì ģ
Î ³
Î ¼
Ġ èĥľ
Ġ åħ¨åĽ½
Ġ ç¬¬åĽĽ
çļĦ ç¾İ
çļĦ éĩį
çļĦ åĨĽéĺŁ
çļĦ é¢Ĩå¯¼
çļĦ å¸®åĬ©
çļĦ æ¶Īæģ¯
å¹´ å¹¼
å¹´ åįģäºĮæľĪ
ä¸Ģ è¾Ĩ
ä¸Ģ åĿĹ
ï¼Ī âĢľ
åĴĮ ä¸ŃåĽ½
åŃ¦ ç³»
è¡Į æľ¬
åıĳ éħµ
åĨĽ å£«
çĶ¨ åľ°
èĢĮ å·²
éķ¿ åŁİ
çĶ± ç¾İåĽ½
ä¸ľ ä¸İ
ä¸ľ ç«Ļ
åĮĹ åĳ¨
åı¯ éĿł
è¿Ļ æ¬¾
åĬł èĹ¤
å¯¹ ç«ĭ
å¾Ĺ åĩº
åĪ© æ¯Ķäºļ
ãĥ į
åĽł çĹħ
é©¬ ä¸Ĭ
ãĢį ï¼Ľ
æĥ ¹
åħ¨ ç¾İ
10 8
å¼ı å»ºçŃĳ
åĽĽ ä½į
çľģ éķ¿
æķ° æ¬¡
éĺ¿ æĻ®
åı¸ å¾Ĵ
18 60
18 85
å¨ Ł
æĢ» æķĻç»ĥ
ç»Ł é¢Ĩ
12 1
æĿĳ æĶ¹åĪ¶ä¸º
ä¿Ŀ åģ¥
ç»ĵ è¯Ĩ
äº¤ ä¼ļ
å·´ é©¬
æ¢ §
èº ¯
å¤ª æŀģ
èĻ Ķ
æĽ´ é«ĺ
ä¿¡ çĶ¨
æŃ¦ åĬŁ
åıĸ åĨ³äºİ
åĽ½å®¶ æĿ¯
ç¦ı åĨĪ
åĪĿ æ¬¡
ç¡ ħ
æ¸ħ æĻ°
åİĨåı² çļĦ
çļĦä¸Ģ é¡¹
æŃ» äºĨ
æ°Ķ æ¸©
å®Į ç»ĵ
æļ ®
æ¬§ ç¾İ
çĶ· æ¼Ķåĳĺ
å¡ŀ æĭī
çĹħ äºº
çİ¯ èĬĤ
çº¢ æĹĹ
it ch
æİĴ çĲĥ
åįĬ åĨ³èµĽ
èĽ ¾
è¿ª å°Ķ
re y
èĪ¹ èĪ¶
ç«¥ å¹´
éĺµ åľ°
un n
å·²ç»ı è¢«
æł¼åħ° çī¹
çŃ¾ è¯ģ
éĢļå¸¸ ä¼ļ
çĪ¶äº² æĺ¯
è¡¥ ç»Ļ
çĦ¶èĢĮ åľ¨
è·Ŀ ä»Ĭ
å¸ĿåĽ½ çļĦ
ç£ ·éħ¸
éĺ¿å°Ķ å¸ĥéĽ·
åºŁ æŃ¢
èĶ ¬
åĢŁ çĶ¨
èĨ ı
æĸ¹åĲĳ çļĦ
çĽĹ é¾Ļ
æ§ Ĳ
æĤ¬ æĮĤ
é©¬å°Ķ ç§ĳå§Ĩ
è´µå·ŀ çľģ
èĪŀåı° åī§
èŁ Ĵ
å¼ĹéĩĮ å¾·éĩĮå¸Į
è½¬åĲĳ æŀ¶
æ©Ļ èī²
æĺİæ²»ä¸īåįģ åĽĽå¹´
è¿Ħ ä»Ĭ
B M
C N
E C
F R
G l
H ar
J ames
i u
Ġ çī¹
çļĦ ç»ıæµİ
çļĦ æķ°æį®
åħ ĳ
ä¸Ģ é¢Ĺ
çº ¶
åĴĮ è¥¿
æ³ »
æĹ¶ ä¸º
çĶŁ åŃĲ
ä¸İ åīį
åĪĨ ä¹ĭ
åĨĽ è¡Ķ
è¢« åĳĬ
ä¸ľ åįİ
åĮĹ å¹³
éģĵ æĺİ
å¯¹ è¯¥
å¯¹ åĨ³
èĪ Ĥ
ä¹Ł åı¯èĥ½
æĭī å°Ķ
ç© Ĥ
å¤© æ°´
æķĻ ä¹ī
å°Ĩ è¢«
å¸ĥ ä¼¦
ç§į åĬł
å½ĵ çĦ¶
ç½Ĺ æ£®
ä½Ĩ åĽłä¸º
åı· æľºè½¦
åħ¨ æķ°
æ¯Ķ çī¹
èĢħ ä¸º
ãĤ ´
er o
18 80
åŀ «
æĢ» ç«Ļ
åİĨ ç¨ĭ
åĢ ļ
12 5
åįİ çº³
éĴ Ŀ
ä¸ĩ èĭ±éķĳ
âĢĶ ãĢĬ
å¤Ħ å¥³
å¤Ħ ç½ļ
èĬĤ æĹ¥
åºĶ å½ĵ
åºĶ å¤©åºľ
å°ĳ éĩı
åĩ» ä¸Ń
åĩ» åĩº
æŃ¦ å®Ĺ
åľ£ åľ°
æ®µ æĹ¶éĹ´
ä½¿çĶ¨ èĢħ
æīĵ åħ¥
åĳ¨ æĹ¥
æ¸ħ æ´ģ
åľ°åĮº èģĶèµĽ
ä¸ĸçķĮ åĨłåĨĽ
ĠS er
åĪĽ ä¸ļ
åĻ ª
åĻ ¬
ç¬¬äºĮ ä»£
åĪĴ åĪĨä¸º
æ±ī æľĿ
åĺ İ
å¿Ĺ æĺİ
äº¦ ä¼ļ
å®« å´İ
èĲ½ åĲİ
çĽŁ åĨĽ
è§Ħ å¾ĭ
è¡Ĺ å¤´
ä½ľåĵģ ä¸Ń
åī¯ éĥ½å¾¡åı²
éĥ¡ å¤ªå®Ī
æĸ½ è¡Į
æĸ½ æ³°åĽł
æķĪ çİĩ
éĵģè·¯ çļĦ
æĸĻ çĲĨ
ä¹Į åħ¹åĪ«
ç¬¬ä¸ī åĲį
èī¾ å°Ķ
ç½Ĺæĸ¯ ç¦ı
äºĮåįģ ä¹Ŀå¹´
os aur
æ£Ģ éªĮ
åĬ³ ä¼¦æĸ¯
èİİ æĭī
å°¤ éĩĳ
ä»Ļ å¥´
æ¥ļ æł¼
çıł å®Ŀ
æįŁ åĿı
ä¿Ĺ åĲį
äº« æľī
åıĳå¸ĥ äºĨ
çºµ åĲĳ
å¼ķèµ· çļĦ
.. ..
é¸£ äºº
éĦĤ åĽ¾
çºł çº·
çĮ© çĮ©
æ¸Ĺ éĢı
åī¥ å¤º
ç§© åºı
éĦļ å¤©èµĲ
æľīåĬ© äºİ
åħµåºĵ åİ¿
æĭľæĭī èİ«å¤«
) ï¼Ľ
E M
G O
S ch
T T
e am
s c
t d
u th
ã Ħ
Ġ æľĢ
Ġ 2023
ĵ é£İ
ãĢ Ķ
ãĢ ķ
çļĦ æľī
çļĦ æĹł
çļĦ äººåı£
çļĦ å»ºè®®
çļĦ å£°éŁ³
å¤ Ń
å¹´ ä»İ
ç» £
ä¸Ģ éĿ¢
è® ³
åĴĮ åįĹ
åĲİ å¤ĩ
ä¸Ĭ æł¡
çĶŁ æķĪ
ä¹ĭ çĶ¨
åĪĨ ä¹ĭä¸Ģ
åħ¶ æ¬¡
ä¸ľ åĲ´
ç¥ ļ
äºļ ç¾İ
å¤ļ å®¶
åı¯ æ±Ĺ
å¼Ģ è¡Į
è¿Ļ ä¹Ī
åĪ© æ¶¦
æīĢ çĶŁ
å·ŀ ç«ĭå¤§åŃ¦
ç§ĳ ç»´å¥ĩ
ç«ĭ èĬ±
ç½Ĺ çĲ³
åº¦ åģĩ
å¤ĸ è¡¨
å®ī å¸Ĥ
æ¡ ©
ç¼ ļ
éĩĳ éĴŁ
èĢħ ä¹ĭä¸Ģ
çĽ¸ å¯¹äºİ
å°¼ æĭī
ç»ĵ çĽŁ
ç¥ŀ é¾Ļ
å®ŀ è´¨
æº Ģ
åį¡ éĢļ
çºª åħĥ
æ» ĩ
èĮ ¹
é¢Ĩ ä¸»
å·² æķħ
åĽŀ å¤į
çĬ ģ
ä¼Ĭ èĹ¤
åıª å¾Ĺ
æ¨ Ł
æĻ® æ£®
æ³¢ å¾·
è½¬ æĴŃ
åĲī å£«
åĪĴ åħ¥
éĿĴ è®Ń
è¾ĥ å¤ļ
æĬķ çĲĥ
èĲ¨ æĳ©
æ¯ı éĽĨ
çĶ· çĪµ
å¤ĩ å¿ĺ
è´Ŀ åĨħ
æł· åŃĲ
å¯Ĩ çļĦ
æŁ¥ åħĭ
å»ºçŃĳ çļĦ
èĩ´ åĳ½
åįĬ éĥ¨
ĠA ss
çīĮ åĿĬ
æ¸© æļĸ
æĬĬ ä»ĸ
èµ° äºĨ
èī¾ èİī
èĪ¹ éķ¿
èĬĤçĽ® ä¸Ń
å½Ĵ æŃ£å®Ĺ
æľīä¸Ģ å®ļ
çļĦäºº ç±»
æ²ĥ å¾·
åĪĨåĪ« åľ¨
é¡» è´º
äºĭä»¶ çļĦ
åĨ³èµĽ ä»¥
æļ´ é£İ
éŁ¦ ä¼¯
èĤ¯ å°¼
èĩªçĶ± åħļ
æĪ´ å°Ķ
èĪį äºº
åŁ¹ èĤ²
è¥¿åĮĹ è¥¿
æŁ± åĽ½
æįŁ å®³
æ²ī æ²¡
ä¸»æ¼Ķ çļĦ
åıĻ äºĭ
åĹ ľ
é«ĺçŃī æķĻèĤ²
ç¢³ éħ¸
èģĮæ£Ĵ å¤§èģĶçĽŁ
æĭĵ è·ĭ
ric k
çĪª åĵĩ
èħĲ èļĢ
èħĵ åĬĽ
âĶĢ âĶĢ
å¼ĹéĽ· å¾·
ä¸ĢæľŁ å·¥ç¨ĭ
æ³ķåħ°åħĭ ç¦ı
åĨĻçľŁ éĽĨ
æĥ© ç½ļ
çĸ¼ çĹĽ
æķĻç§ĳ æĸĩ
yst em
ä¼Ĭä¸½ èİİçĻ½
å¤ĩå¿ĺ å½ķ
4 50
V A
b ox
f ord
p s
Ġ åĨħ
Ġ å½ĵ
Ġ åĽĽ
Ġ åįİ
ģ âĶ
çļĦ ä¸ľ
çļĦ åĬĽéĩı
å¹´ å¤ıå¤©
åľ¨ å¯¹
ä¸Ģ åĳ¨
ä¸º æĹ¥æľ¬
è¯ ħ
ä¸Ń æĸŃ
æĺ¯ å½ĵæĹ¶
å· ¾
åĴĮ æĸĩåĮĸ
æĹ¥ æĸĩ
åŃ¦ çķĮ
æĹ¶ ç©º
æĹ¶ éĢŁ
ä¸Ĭ å±Ĥ
ç¬ ¨
æĽ Ļ
ä¸į è¢«
ä¹ĭ æīĭ
åĪĨ åĩº
èĢĮ åĩº
ä¸ĭ è®¾
ä¸ī çŃī
ä¸ī éĥ¨æĽ²
å¾· åĪ©
å¸Ĥ è®®ä¼ļ
ç¥ º
è¿Ļ ä½¿å¾Ĺ
äºĮ åįĥ
æĸ° ç§Ģ
å¤© åı°
å¤© æīį
é©¬ åħ¶é¡¿
è¿ĩ å¾Ģ
å·ŀ äºº
çº¿ åĴĮ
é£ ĵé£İ
å®ī èĹ¤
ç³ Ļ
ãģ Ŀ
ä¸Ģä¸ª äºº
æ¯Ķ åĪ©äºļ
ä¸¤ å¤§
åİŁ æĸĩ
åİŁ åĿĢ
æ°´ æīĭ
ç¨ ł
æĺİ å¸Ŀ
éĺ¿ å§Ĩ
åı¸ éĵİ
æĶ¹ çĶ¨
åıĤ æĪĺ
ç»ĵ æĻ¶
å·´ æ¯Ķ
å·´ å·´
å®ŀ ä¸ļ
å°± ä»¥
æł¡ å°ī
11 1
å²Ľ å¼ıæľĪåı°
ä¸ĩ å¤ļ
å¥¹ åĴĮ
åıĺ æį¢
å°ĳ æŀĹ
çĹ ´
åıĸ æĻ¯
ä¸¾ éĩį
ç¡ ¼
æ¸ħ æ²³
ä¸ĸçķĮ åĲĦåľ°
è¿Ľè¡Į æĽ²
æķħ ä¹¡
åľŁ æľ¨
æ²Ļ å°Ķ
å¾Ī å¥½
æł· å¼ı
æ·± å¤ľ
è´¥ äºİ
æĦŁ åºĶ
ç½ĳ é¡µ
çľĭ ä¼¼
ç®Ģ æĺĵ
çĲĥéĺŁ åľ¨
åıĳå±ķ çļĦ
æī¹ åĪ¤
å½Ĵ å±ŀ
å§Ķåĳĺä¼ļ çļĦ
é½Ĳ åĽ½
à¸ Ļ
å¤º åĽŀ
è¿ģ åĪ°
éĹ®é¢ĺ çļĦ
ra g
è¡¥ åģ¿
é©» å®Ī
æ¨ª å±±
æ¨ª è·¨
ul ar
èĤī é£ŁæĢ§
Ġ199 5
å¯» å¸¸
å¹¼ åĦ¿
åİļ çļĦ
çĺ ¾
åĶ±çīĩ åħ¬åı¸
çĨŁ æĤī
å¼ķèµ· äºĨ
ä¿ĥ ä½¿
éĿĴå²Ľ å¸Ĥ
çĲ¼ æĸ¯
ä¸Ģæ®µ æĹ¶éĹ´
èģĶåĲĪåĽ½ æķĻç§ĳæĸĩ
æĶ¹å»º ä¸º
åº¶ åĲīå£«
æ²īç§¯ çī©
å¤ļé¡¹ å¼ı
å½Ĵç±» äºİ
è·¯å¾·ç»´ å¸Į
Mich ael
åĭĥåħ° çĻ»åł¡
E S
H D
H e
T ube
Ð ·
Ġ Ã
Ġ äºĮ
Ġ èĩ³
Ġ æĹł
Ġ ç¬¬ä¸Ģ
Ġ ä½Ĳ
Ġ æĽ¹
çļ ĭ
çļĦ æĬĢæľ¯
çļĦ åĨĽäºĭ
å¹´ å®ĮæĪĲ
åľ¨ ä¸ī
åľ¨ ä»»
ä¸Ģ ä½ĵ
ä¸Ģ é¦ĸ
ä¸Ģ ä¸ĩ
ä¸Ģ åį·
ä¸Ń ä»¥
äºº è´¨
å¤§ åĪĨ
è¡ ¬
åĴĮ åĽ½å®¶
åŃ¦ ä¸ļ
æ² ¸
ä¸Ĭ éĥ¨
ä»ĸ æīĢ
ä¸į åĲ«
ä¸į å¤Ł
ä¹ĭ çİĭ
å¹¶ å¼Ģå§ĭ
èµĽ åĲİ
ä¸ī å®Ŀ
æľĢ å°ĳ
æľĢ åħ·
ä¸ľ èĩ³
æĻ ĥ
åīį åİ»
äºĮ åįģäºĮå¹´
æĸ° å¸Ĥéķĩ
æĸ° åĮĹå¸Ĥ
è·¯ å¾Ħ
æīĢ ä½¿çĶ¨
ç¾İ æµĵ
çİĭ æ°ı
å¹³ åİ¿
ç½Ĺ æĽ¼
éĢļ åĭ¤
å®ī ç½®
10 7
ãģ Ķ
ä¸¤ éĺŁ
éĥ½ èĥ½
åİ¿ åĴĮ
åİ¿ çº§
åİ¿ åİħ
åĽĽ å¤Ħ
æ£ £
è¾¾ ä¼Ĭ
åı£ å¾Ħ
è¯Ń ç³»
åĲĳ ä¸ľåįĹ
æĹł ç¼ĺ
éĴ µ
äº§ åľ°
éĹ¨ ä¸ĭ
çŁ³ çģ°
é² ·
å·² æĪĲä¸º
æĿİ ä¸ĸ
åıª åľ¨
åıª ä¼ļ
æĻ® åĪ©
æ³¢ å¤ļ
è½¬ åĮĸ
èµĦ æ·±
åķ ¸
æĶ¯ å®īæīĵ
æĿ¡ æ¬¾
ä¸»è¦ģ è§Ĵèī²
æľª è¢«
ç¬¬äºĮ å±Ĭ
éĽ· å°Ķ
æ±ī æĹı
è¾ĥ å°ıçļĦ
el le
èīº åĳĺ
èĢģ äºº
è¡Ĺ åĮº
åĵ¥ åĲīæĭī
ç´ł ç¦ı
åįĥ éĩĮ
éĺ² æĬ¤
çĽĳ è§Ĩ
åĲİæĿ¥ æĪĲä¸º
å¼Ĺ åĲī
æĻĭ åĽ½
ä¼ĺ ç´łç¦ı
æĪĲåĳĺ åĽ½
åıĳçĶŁ äºİ
äºĮåįģ åĽĽå¹´
çİī ç±³
åĸĦ äºİ
çļĦå¤§ å°ı
åľĨ æŁ±
åĪ» æľī
ç»ĵæĿŁ äºĨ
ä½ł ä»¬
æī¾ åĪ°äºĨ
æ¯ķä¸ļ çĶŁ
ä¸ĢçĽ´ åľ¨
æ£ĭ çĽĺ
ç¼º éĻ·
æįķ èİ·
é«ĺéĢŁ éĵģè·¯
æī© æķ£
æģ¶ åĮĸ
ä¾į åį«
äºļæ´² çĶµè§Ĩ
éĤ® æĬ¥
æ¸¡ è¾¹
åįĹäº¬ å¸Ĥ
èĳ¬ ç¤¼
é£İæł¼ çļĦ
æ½® æ¹¿
æµģè¡Į éŁ³ä¹Ĳ
å¹´è½» æĹ¶
188 6
åİŁæľ¬ çļĦ
è´¯ ç©¿
åĲı éĥ¨å°ļä¹¦
å³¡ è°·
èĢ¶ç¨£ åŁºçĿ£
æ°¢ åĮĸ
çļĦåĲİ è£Ķ
Ð» Ð¸
åıĳçĶµ æľº
åĪ¶çīĩ åİĤ
å¸Ĩ èĪ¹
æ²³çķĶ è®·ä¼Ĭ
åłª èĲ¨æĸ¯
æ£ī èĬ±
åĵŃ æ³£
çĽ´è¾ĸ å¸Ĥ
é¥¥ é¥¿
å·© åĽº
æ¸ħæ²» æľ«æľŁ
äºļçī¹åħ° å¤§
ç§įåĬł è¯į
3 80
G u
N D
N ational
R A
Ñ Ĩ
Ġ åį¢
å¹´ åĨħ
ç» ¢
ï¼ī ãĢį
åĮ ¿
æĺ¯ æĿ¥èĩª
äºº è®¤ä¸º
è¡ ·
ä¸ª åĪ«
ä¸į è®º
æ¸ Ń
ä¹ĭ å®¶
åĲį åŃ¦çĶŁ
å®¶ çĿ£
åħ¬ ç½²
åĵ ¨
è¢« è¯Ħä¸º
çī¹ æĸ¯
çī¹ å¾ĭ
æľĢ åı¤èĢģçļĦ
ä¸ľ å¤§
äºļ è¶³èģĶ
äºļ è¿Ĳä¼ļ
å¼Ģ éĩĩ
é«ĺ å°Ķå¤«
æĸ° æĪĲç«ĭçļĦ
æīĢ æĿĢ
æĭī æĸĲ
æµ· åı£
å¤© é¹ħ
é©¬ åĪº
å¹³ åĿ¦
å½ĵ åīį
ãĤ Ĩ
ç¨ ·
èį Ģ
å½± åŃĲ
18 70
é¦ĸ åıĳ
æĶ¹ çĶ±
é¥ ·
åĶ ĳ
åħ± è¯Ĩ
è¯Ń æĹı
é¾ Ľ
Ġ* *
åįİ æ²Ļ
åĲĳ è¥¿åįĹ
æĿĳ çļĦ
ä¿Ŀ ç¦Ħ
æİ¥ çĿĢ
å°± è¦ģ
å°± å·²ç»ı
éĩı åŃĲ
11 7
æµģ åħ¥
ä¼Ĭ å¤ļ
ä¼Ĭ èİİ
é¦Ļæ¸¯ çĶµåı°
åħµ å¤ĩ
è± ļ
åħĪ é©±
åħ« åįģ
åĨ³ æĸĹ
çļĦä¸Ģ åĳĺ
çłĶç©¶ çļĦ
åĨł åĲį
å¤į åĩº
is ch
æ¥ ·
çĵ¦ åĪ©
el m
è£ħ æľī
åŃĺ çļĦ
çľŁ ç©º
éħį å¥Ĺ
èİ± çī¹
åºĦ åĽŃ
èĢģ å¹´
æ·± åıĹ
ä½ľä¸º ä¸Ģä¸ª
åįĬ å¾Ħ
éģĹ ä½ĵ
è¿ª åħĭ
ç½ĳ æ°ĳ
è¶³çĲĥ è¶ħçº§èģĶèµĽ
å®Ŀ åĺī
å®Ŀ åĨ¢
è¯Ŀ åī§
æľĢåĲİ åľ¨
re et
æĲ ģ
éº¦ åį¡
èį£ èĢĢ
çİĽ åĪ©äºļ
èŃ¦ å¤ĩ
ä¸´ è¿ĳ
èīºæľ¯ åŃ¦éĻ¢
éĢģ å¾Ģ
èĸ °
éĢļå¸¸ åľ¨
æķĮ åĨĽ
æ¬¢ ä¹Ĳ
äºĪ ä»¥
æİ§åĪ¶ çļĦ
æ¿Ģ åħī
ä»¥ä¸ĭ æĺ¯
èĦļ æľ¬
æįķ æįī
è¯Ńè¨Ģ çļĦ
æģ¶ åĬ£
ï½ ¢
op s
èĩªçĦ¶ ä¿ĿæĬ¤åĮº
Ġ199 0
çıł æµ·
å¢Ļ å£ģ
æııè¿° ä¸º
å¹¿æĴŃ åħ¬åı¸
188 3
é«ĺçº§ ä¸ŃåŃ¦
æĺİæ²» åĽĽåįģäºĮå¹´
èĻļ æĭŁ
è¾¹çķĮ åľ°å¸¦
æ¹¿ åľ°
æ¹¿ æ¶¦
æĭĵ å±ķ
åħĭæĭī åħĭ
è®²è¿° äºĨ
æĹ¥æ²» æĺİæ²»ä¸īåįģåĽĽå¹´
æŃ¥åħµ å¸Ī
å¤§åŃĹ äº¦æĶ¹åĪ¶ä¸º
æ²ĥå°Ķ å¤«
mer ican
åĺīä¹ī åİ¿
èĭıç»´åŁĥ ç¤¾ä¼ļä¸»ä¹īåħ±åĴĮåĽ½
é©¬æģ© æ²³çķĶè®·ä¼Ĭ
å¿ĥèĦı çĹħ
éĵ¸ éĢł
è¶ĭ åĬ¿
æ¿Ĵ åį±
AF P
çĽ¸åºĶ çļĦ
éĥ½å¯ŁéĻ¢ åı³
éĿĴæĺ¥æľŁ éĺ»æ»ŀåīĤ
éľįåįİ å¾·
éħĭ éķ¿
è§ĨæĺŁ çŃī
çĭĻ åĩ»
åľ°åĮºä¸ºä¸Ģ è¡ĹåºĦ
éĺ¿å°Ķå¸ĥéĽ· å¸Įçī¹
A t
E x
L O
N G
a de
c es
l ine
r id
Ġ 20
çļĦ M
å¹ Į
ä¹ į
åľ¨ åįĹ
åľ¨ æ°´
ä¸Ģ è¾¹
ä¸Ģ èīĺ
ä¸º çķĮ
ä¸Ń åįĹ
ä¸Ń çº§
æĺ¯ éĢļè¿ĩ
æĺ¯ ä¿Ħç½Ĺæĸ¯
èµ ļ
åĴĮ é«ĺ
åĴĮ æĸ°
æĪĲ åĲį
æ´ ½
ä¸į èµ·
ä¸į åı¯èĥ½
æ¸ Ŀ
ä¹ĭ ç¥ŀ
è¢« æĮĩ
çĶ¨ åľ¨
ç¾ ŀ
èĭ Ł
èĢĮ æĪĲä¸º
æĸĩ å®Ĺ
æĸ° ä»»
å±± éķĩ
å¦ ĵ
èĲ ±
å·ŀ éģĵ
éĵ Ģ
åĲĪ éĢĤ
æľŁ å¾ħ
ç§į ç§į
æ¼Ķ ä¹ī
æ¼Ķ ç»İ
è¡¨ å½°
éĩį åĬĽ
æ°´ ç³»
åŁº çī¹
ç±³ èĩ³
æĶ¹ åħĥ
æ¸¯ åĮº
åĲĳ ä¸Ĭ
æĹł æīĢ
éĴ ¥
æĽ¾ åŃĻ
éĹ¨ å°Ĩ
æİ¥ ä¸ĭæĿ¥çļĦ
æµģ ä½ĵ
å¤´ éª¨
æŃ¦ æĺĮ
è¿ĳ æľŁ
åħµ é©¬
åħµ åĻ¨
è½¬ è¿Ĳ
å¼Ģå§ĭ åĲİ
åİ» äºĨ
æ²¡ èĥ½
çļĦä¸Ģ æĶ¯
çļĦä¸Ģ éĥ¨ä»½
å¾Ģ è¿Ķ
é»Ħ æĺı
å®Į æ¯ķ
åį³ æĹ¶
è§Ĥ æĶ¿
èĤ² æľī
åĻ¨ åĴĮ
æ´¾ å¾Ģ
ä¿® çŃĳ
é²ģ éģĵå¤«
åħ¶ä¸Ń æľī
åħ´ èµ·
èİ± æĸ¯çī¹
åĽłä¸º ä»ĸ
it z
ç¾¤ ä¼Ĺ
25 00
å®Ī åį«
ĠP al
æĥ³ åĥı
ç´ł æıı
åŁĥ éĩĮåħĭ
è¿ľ ç¦»
åĪ¶ä½ľ åĽ¢éĺŁ
æĶ¿æ²» å§Ķåĳĺ
æĺ¥ å¤©
ç¬¬ä¸ī åŃ£
å¹´ä»£ çļĦ
24 0
ç§» æ¤į
re e
re w
é¢Ħ å®ļ
ç¡® ç«ĭ
èĥĮ åĲİ
æĪĺäºī çļĦ
æ´»åĬ¨ çļĦ
åĨ³å®ļ å°Ĩ
åĩ¯ å¦®ä¸Ŀ
å·¨ çŁ³
äº¿ ç«ĭæĸ¹ç±³
éĤ» å±ħ
èµŀ æī¬
éĿł èĳĹ
ï½ £
çĨĬ çĮ«
Ð° Ð½
è´Ŀå°Ķ æł¼
è¿İ æĪĺ
æķ°æį® åºĵ
ï¼Ł ãĢį
éļĶ å¹´
åĳ³ éģĵ
186 9
ä¸ľè¥¿ åĲĳ
å¼ĢéĢļ è¿ĲèĲ¥
å¼ĹæľĹ è¥¿æĸ¯
å¸ĥèİ± åħĭ
è¾© è®º
å§¿ æĢģ
ose ph
åľ£å½¼å¾Ĺ åł¡
% ï¼ī
O H
P l
T om
à ¥
Ġ ä»¥
Ġ å¥¥
Ġ èĬ±
Ġ æµ·åĨĽ
çļĦ è¿ĩç¨ĭä¸Ń
ä¸Ń å²Ľ
å¤§ æµ·
å¤§ çİĭ
å¤§ åĿĿ
äºİ åĲĮå¹´
åĴĮ ä¸ī
åĴĮ åľ£
åĲİ æīį
ä¸Ĭ åŃ¦
ä¸Ĭ çĸı
ä¼ļ å°Ĩ
éĥ¨ å°Ĩ
å®¶ åº·
è¥¿ èĩ³
è¥¿ æĻĭ
è¢ į
åıĳ éĢģ
å» ĵ
èĭ Ķ
å¹¶ å¯¹
çī¹ é²ģ
éķ¿ æĹ¶éĹ´
æĻ ı
åı¯ å®¹çº³
æĸ° çŁ³åĻ¨æĹ¶ä»£
èĬ ¸
åįģ ä¸ĩ
çİ° çĬ¶
ä¹Ł å¼Ģå§ĭ
æĭī æ²Ļ
åĨħ è®¾
äºĭ å®ľ
è½¦ åŀĭ
çŃī ä»·
å·ŀ åĮº
æ¬¡ çļĦ
æ¼Ķ æĬĢ
åĮĸ åŃ¦å®¶
éĩĳ æľĿ
éĥ½ è¦ģ
çł ¾
æł¼ è¾¾
æį §
æŃ£ éĢī
æŃ£ å¥½
éĺ¿ åį¡
éĺ¿ ä»Ļå¥´
èĭ± å±ŀ
18 00
18 78
in al
åĭ ¿
å·´ å¸ĥ
é¦Ļ æĸĻ
å°± å¼Ģå§ĭ
æº º
en er
åħī èį£
é£İ çĲ´
è½¬ è®©
åĪĿ ä»£
åħ« å¼º
å±Ģ å±Ģéķ¿
é¦Ĩ éķ¿
ĠS w
is ion
çĶ» ä½ľ
åĽŃ æŀĹ
æ±ī å¯Ĩ
åįı åķĨ
éĻĨ æĪĺéĺŁ
èĥľ è´Ł
å¡ŀ æĭľ
æ¦ Ĩ
çĻ¾ åĲĪ
åī¯ éĥ¨éķ¿
å£° ä¼ĺ
il y
il ip
å®ģ å¤ı
çĽĳ ç¦ģ
æŀģ ç«¯
æ»¡ æĦı
åį´ åľ¨
re am
æī¹ å¤į
æĳĦ åĥı
æ¶Ī èĢĹ
è¡Ģ åŀĭ
èīºæľ¯ åĵģ
å¼¹ åĮ£
à¸ Ń
èĸ ¯
çĲĥåĳĺ çĶŁæ¶¯
è¯¸ å¤ļ
å¸® å¿Ļ
éĻµ å¢ĵ
ãĢı ãĢģãĢİ
éĢĥ åĪ°
åŃĶ åŃĲ
ç»Ĩèĥŀ çļĦ
æĵį æİ§
è¾½ ä¸ľ
åĿĲ æłĩ
éĿ©åĳ½ åĨĽ
å¤§åŀĭ çļĦ
186 2
çĥŁ åı°
æ¶ħ èĮ¨
èĢĮæĪĲ çļĦ
æıĴ åħ¥
ç¼ĵ è§£
187 7
ç¾½æ¯ĽçĲĥ éĶ¦æłĩèµĽ
çī¹æ®Ĭ çļĦ
æĶ¾å¼ĥ äºĨ
èĥ¸ é³į
çħ¤ çŁ¿
ç¢İ çīĩ
å½±è§Ĩ ä½ľåĵģ
è´« åĽ°
ä»ĬæĹ¥ è¡ĮæĶ¿åĮº
é«ĺéĽĦ å¸Ĥ
è¯ºæĽ¼ åºķ
èµĶ åģ¿
åħľ éĵĥ
é¢Ĩè¡Ķ ä¸»æ¼Ķ
è¾ĥæĹ© çļĦ
çĽ¸è¾ĥäºİ ä»ĬæĹ¥è¡ĮæĶ¿åĮº
Dav id
å¡ŀæµ¦ è·¯æĸ¯
B E
H z
M ark
T w
p le
u a
u te
y r
ç ¶
Ġ äº¬
Ġ æĿľ
çļĦ æľº
çļĦ å¥½
çļĦ åĲįä¹ī
çļĦ å¦¹å¦¹
å¹ ¡
åľ¨ æµ·
æĺ¯ ä¸İ
æĺ¯ æł¹æį®
åĽ½ åľŁ
åĽ½ ç±į
å¼ ¼
äºº è¢«
å¤§ åľ°éľĩ
æľĪ åĪĬ
åĲİ ä¸įä¹ħ
æĹ¶ è£ħ
åĩº ä¸º
åĩº åħ¥
æ¸ ´
ä¹ĭ ä¹ħ
åħ¬ å¹³
åĪĨ è¾¨
åıĳ ä½ľ
éķ¿ åı²
ä¸ĭ æľī
å¾· æĸĩ
å¼Ģ äºĨ
çĶµ èį·
æīĢ éķ¿
ä¹Ł å°Ĩ
ç¾İ äºº
è½¦ è·¯
è¿ĩ æ»¤
å·ŀ åĴĮ
åº¦ è¿ĩ
10 2
è¯¥ åłĤ
è¯¥ ç»Ħç»ĩ
ä¸¤ ç«¯
å¡ ¾
æĢ» æķ°
æĢ» åĨłåĨĽ
åł °
åįķ è¯į
åįķ è¡Įæľ¬
éķĩ æ±Ł
åĸ Ĥ
çĵ ¢
æĿİ æ°ı
ç¼ĸ ä¿®
æ´» åĮĸ
å®ĥ è¢«
al k
æ³¢ åĪ©
åķ ¦
åĨ³ çŃĸ
é¸ ½
æ´¾ äºº
æ´¾ å¯¹
éº ¾
èĲ½ åħ¥
èĢģ å¤§
åĽ½éĻħ è±¡æ£ĭ
éĩİ æĪĺ
ä¾ĭ è¡Į
æ³ķåĽ½ çļĦ
æĸĩåĮĸ ä¸Ńå¿ĥ
åı°æ¹¾ æ¸ħæ²»æľ«æľŁ
å¯Į è£ķ
ä»į æĺ¯
è´Ł æĭħ
ä½İ éŁ³
æĹħ é¦Ĩ
å»¶ èĩ³
çł´ äº§
éª¨ æŀ¶
æĳ© æīĺ
è¡¨ç¤º è¯¥
éĽĨåĽ¢ çļĦ
é»İ ä¸ĸ
åį°åº¦ æ´ĭ
å·¡ éĢ»
éĩĬ åĩº
st it
æ¨ª åĲĳ
éĢĤ å½ĵ
åŃĶ æ³°
å¥ī åĳ½
Ð° ÑĢ
åĬª æĸ¯
å½© èĻ¹
æ±¤ çİĽ
ç¥Ń åı¸
çĥŃå¸¦ ä½İæ°Ķåİĭ
åıĳå¸ĥ çļĦ
Ð¸ Ð¹
éļĲ å±ħ
188 4
Ðµ Ð²
æĮĳ éĢī
å®ļä¹ī ä¸º
éĵ¾ æİ¥
æıĴ æĽ²
æĭīä¸ģ æĸĩ
å¥ĳ ä¸¹
ind ows
çģ°çĨĬ éĺŁ
æ»¨æµ· å¡ŀçº³
æ¶Īè´¹ èĢħ
å§Ķä»» ä¸º
èµĽé©¬ ä¼ļ
æİ¢éĻ© å®¶
ç«¯çĤ¹ ä½įäºİæľ¬åľ°åĮº
åĨħåĬ¡ åºľ
æ¡Ĩ æŀ¶
çŁŃç¯ĩ å°ıè¯´
å²Ľå¼ı ç«Ļåı°
åħ¶èĮĥåĽ´ å¤§èĩ´
è·³åı° æ»ĳéĽª
éĺ¿å°Ķå·´ å°¼äºļ
èģĶåĲĪåĽ½æķĻç§ĳæĸĩ ç»Ħç»ĩ
è´Ŀå°Ķæł¼ èİ±å¾·
N Y
i y
i os
r ig
Ã «
â ĺ
Ġ å£°
çļĦ çī¹å¾ģ
åĲ µ
åĲ Ł
å¹´ æĹ¥æľ¬
æĸ ¼
åľ¨ åħ¨åĽ½
ä¸Ģ éĺŁ
æĺ¯ ä¸ĸçķĮä¸Ĭ
è¡ ŀ
åĴĮ å¤ļ
ä¸Ĭ æĺ¯
ä¸į åĪĨ
ç½ ¹
è¥¿ çĶ²
è¥¿ è´¡
åŃĲ çĪµ
å¹¶ åıĳ
çī¹ ç»´å°Ķ
å¾· åĭĴ
æľĢ æĸ°
ä¸ľ èµ°åĲĳ
åı¯ ä¾Ľ
æĸĩ ä¹¦
æĸĩ éĽĨ
æ³ķ äºº
çİ° åĲį
å°ı åŃĲ
å°ı é¡¹
å°ı æĹ¶çļĦ
æĭī ç±³
æĭī èĲ¨
å¤© ä¸»
æķĻ å£«
åľº éĿ¢
èĤ ĭ
ä½Ĩ äºİ
å¤ĸ éĥ¨
æ¡ ¦
é» Ĵ
åħ¨ èº«
ãģ ¸
å®ļ å¾ĭ
åİŁ èĳĹ
åı² è¯Ĺ
èį ĥ
æķ° åįĥ
æķ° åŃ¦å®¶
çĽ® çļĦåľ°
çĽ® çĿ¹
è¾¾ çļĦ
ä¸ŃåĽ½ åĽ½å®¶
åĢ ©
éĶ Į
åĲĳ åīį
æĴ ķ
å§ĭ åıĳ
å¤ª åĴĮ
æ±Ł æ¹ĸ
ç¿ Ĭ
æĥħ çļĦ
å¼ł æ°ı
æĿİ å¾·
åľ£ æĪĺ
æĶ¾ æĺł
æľª å©ļ
å®Į åĸĦ
is c
is on
ç»Ī å¹´
æ´Ľ ä¼Ĭ
è§Ĥ çļĦ
ä¿® å£«
çļĩ å®«
çĶ· éħįè§Ĵ
æ²Ļ å·´
äº¦ æĽ¾
æĹ© äºİ
é¹ Ľ
å¥ĩ æĢª
it ion
éĺ² èĪ°
åı¶ æĸ¯
ä»į æľª
æŃ¥ éª¤
ä½Ľ å±±
ä½İ åľ°
å¹´ä»£ æľ«
æī¹ åħ¨åĽ½éĩįçĤ¹æĸĩçī©ä¿ĿæĬ¤åįķä½į
ĠH all
ĠL td
ç¯ Ĩ
çªģ åıĺ
çªģ åİ¥
éĽħ åĽ¾
ä¸° èĩ£
äºĨä¸Ģ åľº
æľįåĬ¡ çļĦ
æĬĹ æĪĺ
æ£Ģ æł¡
à¸ ģ
å¾® çĶŁçī©
èį· é©¬
ç©¿ çĿĢ
åĪļ åĪļ
çī§ åľº
éĤ® ä»¶
éĺ» ç¢į
ä¾µ çķ¥
åľ°ä¸ĭ ä¸Ģå±Ĥ
ä»ĵ åºĵ
çĲ³ å¨ľ
186 7
æĴĴ åĵĪæĭī
æĹģ è¾¹
çģ¯ å¡Ķ
ä¹¾éļĨ å¸Ŀ
æĭĴç»Ŀ äºĨ
é¥® æĸĻ
éĽĮ éĽĦ
187 9
åĪĽéĢł äºĨ
ug h
ãĤ¸ ãĥ£
æ¨± èĬ±
èĢĥèĻĳ åĪ°
çĲī çĴĥ
sh ip
è¯¥åºĦ éļ¶å±ŀäºİ
èľ¥ èĦļ
çŁ® äºº
çŁ® æĺŁ
èģĺ è¯·
èĴĤäºļ çĵ¦çº³
éħ¿ éħĴ
åĽ½èģĶ ä¸ľåĮº
æķ² åĩº
å¸ĥåĪĹ å¡Ķå°¼
åħ«åº¦ ç©ºéĹ´
E r
M r
N e
P O
R C
Ġ ;
Ġ åĲį
Ġ å¯¹
Ġ æľ¨
Ġ çº¢
Ġ æ¬§æ´²
Ġ ä½ľæĽ²
çļĦ æ°Ķ
çļĦ åĨłåĨĽ
å¹´ å»ºæĪĲ
åľ¨ åĽ½éĻħ
ä¸Ģ æĸ¹
ä¸Ģ åĳĺ
ä¸º ä¸»è¦ģ
ä¸º çºªå¿µ
ä¸Ń ä¹Ł
ä¸Ń èİ·å¾Ĺ
å¤§ åıĭ
åĩ ĳ
åİ ķ
å½ ¤
çİ ®
åĲİ éĿ¢
åĲİ æĶ¹
åľ° åĿĢ
ä¼ļ åĲĪ
ä¿ Ń
è¢« åĪĹåħ¥
å¹¶ ä»İ
å¾· éĽ·
ä¸ľ èµ·
å¤ļ ä½į
å¤ļ å¹´çļĦ
çī© æµ¦
éģĵ å¥ĩ
éĩĮ å¸Į
è·¯ ä¸İ
ãĥ ´
åĬ¨ æ¼«
æĭī æĭī
é©¬ èµĽ
ç»ı ä¹ħ
è¿Ľ å±ķ
âĢĿ ï¼īï¼Į
è½¦ æ¬¡
æ°ĳ ä¿Ĺ
ç§ĳ ç´¢
ç«Ļ ä½įäºİ
å½ĵ å¹´çļĦ
å½ĵ æĻļ
å¤ĸ å¢Ļ
æĦ ī
å®ī å¤§çķ¥
åı· åľ¨
åħ¨ ç¨ĭ
er m
å½± éĻ¢
éħ ª
å°¼ åŁº
é¦ĸ å¼ł
åħ± çĶ¨
è§Ĩ è§Ĵ
æ¸¯ æ¾³
å¸¸ ä¾į
åĲĳ ä»ĸ
çĽ´ çº¿
è®® é¢ĺ
æĽ´ å¥½çļĦ
çĻ½ å¤©
çĻ½ æĹĹ
åĸ Ĭ
ç¼ĸ çºĤ
èĭı é»İä¸ĸ
åħµ åį«
è½¬ åĮĹ
åİ» éĻ¤
åİĨåı² ä¸ĬçļĦ
16 00
åĨ³ å¿ĥ
åįĩ éĻį
é»Ħ çŁ³
æŃ» åĪĳ
å¡Ķ åŁº
å¡Ķ æ¥¼
åĲī æĢĿ
ä¼¯ å°Ķ
åłĤ åĮº
ä¸ĥ ä¸ĸ
ä¸ĥ åįģ
åįı åĲĮ
äº¦ ç§°
çİĩ ä¸º
éŁ³ä¹Ĳ äºº
æİ¨ ä¸¾
æĽ¼ èģĶ
è¶Ĭ è¿ĩ
ä¾ĭ å¤ĸ
çķĻ ä¸ĭçļĦ
åĳĬ ç¤º
as on
åŁĥ å¡ŀ
æŀģ åħ¶
å¯º å°ĳåį¿
ç¤¾ä¼ļ åħļ
è¡Ģ æ¸ħ
and er
åĪĹè½¦ çļĦ
åĪĨåĪ« äºİ
æ¯Ĵ åĵģ
ir d
å¹ķ åĥļ
èķ ´
æĭįæĳĦ çļĦ
åľ°æĸ¹ æĶ¿åºľ
è®®ä¼ļ éĢīä¸¾
æĬķèµĦ éĵ¶è¡Į
æįŁ ä¼¤
è®¯ åı·
åī§æĥħ ç®Ģä»ĭ
è¿Ī åħĭ
æĸĳ çº¹
å¹´è½» äºº
ut ion
æĺĤ è¾¾ä¼Ĭ
çķª ç¦º
ä¸ªæľĪ åĲİ
æī° åĬ¨
æ³¨æĦı åĪ°
åıĤè°ĭ éĥ¨
å¤ļå¹´ æĿ¥
æľ¬é±¼ åĪĨå¸ĥäºİ
ä»Ĩ å°Ħ
èĥĮé³į ç¡¬æ£ĺ
ç¡« éħ¸
æĸ¯æ´Ľ ä¼Ĳåħĭ
çį ¾
æ°¨åŁº éħ¸
åıĹå®³ èĢħ
æīĺåĭĴ å¯Ĩ
æĭīæ²Ļ ä½©åĭĴ
) -
D P
F M
J e
M L
S am
z o
Ġ ç»´
Ġ 14
Ġ th
Ġ le
Ġ æ¢ħ
Ġ å¤©ä¸»æķĻ
Ġ ç¾İæľ¯
Ġ ä½ľè¯į
çļĦ çİĭ
çļĦ åĪ¶ä½ľ
çļĦ äººçī©
çļĦ çĬ¶æĢģ
çļĦ éľĢæ±Ĥ
åĲ ģ
ä¸Ģ åı°
ä¸º åįģäºĮåİħ
å¸ Ľ
ä¸Ń å¤ĸ
ä¸Ń éĢĶ
æľī è¶£
åĴĮ å°ļ
èĢ »
æĹ¥ å¯¹
åī ¿
ä¸ª åĩºåħ¥åı£
ä¸į çĶ¨
ä¸» æĿĥ
åĪĨ åĮĸ
åŃĲ å¼Ł
åıĳ è¨Ģ
èĢĮ æĿ¥çļĦ
å¸Ĥ çº§
åĲĮ ä¼´
åı¯ çĶ¨
æ³ķ è§Ħ
é«ĺ å±±
è¿Ļ ä»¶
äºĮ çĶ²
çĶµ æľº
æĸ° æķĻ
æĸ° åı°å¸ģ
è·¯ çļĦ
åĪ© çī©æµ¦
å±± ä¸Ń
èĩ³ æĹ¥æ²»
æīĢ è¯´
æµ· åľ°
éĹ´ è°į
è¿Ľ åĩº
æľŁ çļĦ
æ°ĳ å»º
ç½Ĺ ä¼¯
ä½Ĩ åĲİæĿ¥
åħ¨ åĨĽ
ä¸¤ æłĸ
åİ¿ æ²»
å¥³ å£«
å¥³ å£°
å¥³ åıĭ
åĽĽ èĤ¢
ç¨ ļ
ç±³ çī¹
çģ ¿
åħ° å¾·
éĺ¿ åħĭ
éĺ¿ åŁº
18 30
æĢ» åħ¬åı¸
åħ³ å¿ĥ
åĲĳ ä¸ľåĮĹ
æĺŁ äºĳ
äºĶ å¤§
å¤« çļĦ
é¦Ļ å¥Ī
ä¼ł æī¿
ä¼ł è¾ĵ
åıĹ éĤĢ
ä¸ĩ å¹´
ä¸ĩ è±¡
ä¸ĩ æ¬§åħĥ
åįķ çº¯
ç¾İåĽ½ æĢ»ç»Ł
en ter
åĽŀ åĪ°äºĨ
å¼ł åĽ½
or o
æ³¢ éŁ³
åĪĿ ä¸Ń
éĽ· å°Ħ
å·Ŀ çĶº
éĿĴ å±±
èİ·å¾Ĺ ä¸ĭä¸ĢæĿ¡çº¿ç´¢
ç»Ń ä½ľ
æĶ» åħĭ
14 8
åĬŁ èĩ£
æ¡¥ ç«Ļ
æľį çĶ¨
èĢĥ è¯ģ
èİ± æģ©
å®£ å¸Ŀ
å¥ĩ è¿¹
è§Ħ æł¼
è´¥ ç»Ļ
æİĴ æ°´
çķĻ å®Ī
ä½ı æĪ·
ĠB oy
ä¾§ éĿ¢
åįĥ åı¶
ä¸ĸçºª ä¸Ń
äººåı£ çļĦ
å¼Ł åħĦ
ä¸įåĲĮ çļĦæĺ¯
åĪ¶ä½ľ äººåĳĺ
åĩł ç§į
èĪ¹ ä¸Ĭ
åºķ çī¹å¾ĭ
è¯Ĺ éĽĨ
åĲ« ä¹ī
äºĨä¸Ģ ç³»åĪĹ
å¸ķ æ´Ľ
è´µ çļĦ
æĬĹ åİŁ
åĲ¯ åıĳ
éªĳ å¸Ī
è¯ĳ ä½ľ
èģļ åĲĪ
ĠW ar
èµµ æĺİ
é¦ĸæ¬¡ åľ¨
æİ¢ è®¨
ä½© å¦®
ç£ ħ
åĲĪå¹¶ äºĮåįģåİħ
éĢĥ è·ĳ
å¥Ī å¾·
èĦ± èĲ½
çİ°ä»£ åĮĸ
çİ©å®¶ åı¯ä»¥
æĭĽ æĶ¶
ä»Ļ åı°
ou is
op e
éĺ´ è°ĭ
æ°§ æ°Ķ
åĪ¶éĢł çļĦ
189 2
æĬµ å¾¡
æľĪåı° éħįç½®
ç¹ģ å¿Ļ
ç¡¬ åĮĸ
ç¡¬ ä»¶
çİĦ æŃ¦
Ðµ ÑĢ
å®¿ ä¸»
èĽĭçĻ½ éħ¶
åĽ¾ä¹¦é¦Ĩ åĳĺ
çĬ¹ ä»ĸ
åıĸä»£ äºĨ
ä»ĳ èĥĮ
å¸ĥé²ģ åħĭæŀĹ
çŀ Ħ
æĿ°åħĭ æ£®
å¨ĥ å¨ĥ
è¿Ŀ æ³ķ
éĩĳæĽ² å¥ĸ
çŁ¥åĲį åº¦
åı²ä¸Ĭ æľĢ
å¼ĹæľĹ ä»Ģ
åĲĲ èķĥ
åĢº åĪ¸
éģµ å®Ī
å¼ĹéĽ· å¾·éĩĮåħĭ
è°¥ åı·
ç«ŀæĬĢ åľº
åħĭéĽ· è¥¿
ĠCom m
ç¬ł åİŁ
åĩºå¢ĥ åĲİ
ç»ĩçĶ° ä¿¡éķ¿
æŃ§ è§Ĩ
å·´å¡ŀ éļĨ
ãĥĥãĤ¯ ãĤ¹
å½°åĮĸ åİ¿
åįĹåįĹ è¥¿
æīĢéľĢ çļĦ
éĴĵ é±¼
æįķèĻ« ç¬¼
éĳ «
åħľéĵĥ çĮªç¬¼èįī
åĲĪå¹¶äºĮåįģåİħ ä¸ºåįģäºĮåİħ
" ï¼Į
B e
U K
Ġ åŃĲ
Ġ æĸ¹
Ġ æĪĸ
Ġ Â°
Ľ èµ·
çļĦ æľĢå¤§
å¹´ çīĪ
å¹´ åĩºçĶŁäºİ
ä¸Ģ å°ı
ä¸Ģ æŀļ
ä¸º ä¹ĭ
äºº æŃ»äº¡
æī Ķ
åĴĮ åħ¶
éĻ ¡
æĹ¥ çĽĬ
çĲ µ
æĹ¶ æľī
åľ° è¡¨
ä¸Ĭ ä¹¦
åĩº è¡Ģ
å°Ķ ç¾¤å²Ľ
è¡Į éģĵ
è· ĸ
èĢĮ åħ¶
çī¹ æĽ¼
ä¸ĭ æ»ĳ
ä¸ĭ æĹ¬
åıĬ åĪ©äºļ
ä¸ī æ±Ł
å¤ļ å¤Ħ
é«ĺ æ¸©
é«ĺ åİĭ
ä¸ĸ éĶ¦èµĽ
ä¹Ł å¾Ī
æµ· æ»©
ç¾İ é£Ł
è° ´
é©¬ æŀĹ
åı° è§Ĩ
èĤ ª
æ¼Ķ åıĺ
ä½Ĩ è¿Ļ
å¤ĸ ç±į
ä¸ļ ä¸»
åĮĸ èº«
ä½¿ åĳ½
åħ¨ åľº
åħ¨ æĹ¥æľ¬
è¯¥ åĮº
å¼ı ä¸º
åĽĽ ç§į
èĳ ±
åı¸ ç©º
çº¦ ä¹¦
åŀ Ħ
æŀĹ æĸ¯
é¦ĸ æ¼Ķ
æĢ» ç»ĵ
æĽ² çļĦ
å¹¿ éĻµ
äºĶ åįĥ
ç¥ŀ åĥı
åı¤ çĶŁçī©åŃ¦å®¶
èº« éķ¿
åıĺ è¿ģ
å¤´ çĽĶ
æĹ¥æľ¬ äºº
ä¼Ĭ å¤«
è½¬ åŀĭ
åĪĿ æ®µ
è§£ åīĸ
æŀľ æŀľ
è§ģ è¯ģ
è¾¹ çĸĨ
åĥ ĸ
è´Ŀ åĪ©
çĹħ ä¾ĭ
çĹħ æĤ£
å¥ĩ çļĦ
çģ« é¸¡
åĽ½éĻħ çĶµå½±èĬĤ
èģĶèµĽ ä¸Ń
èģĶèµĽ æĿ¯
ĠA g
éĵ¶ æĿı
è¯Ŀ é¢ĺ
è´Ł äºİ
åĶĲ ä¹¦
èĹı äºİ
èİ« æīİ
èİ« éĩĮæĸ¯
é³ Ĺ
æĸ¯çī¹ æĭī
éĿ¢ç§¯ çº¦
ĠG ames
ä»ģ å®Ĺ
æľįåĬ¡ åĻ¨
ä¸¾è¡Į äºĨ
åĩ¯ æĸĩ
åĪĩ æĸŃ
è¿ģ å±ħ
æķ£ éªĳ
è¯¸ å¦Ĥ
ç©Ĩ å°Ķ
ä¼ļè®® ä¸Ĭ
æĺŃ å®Ĺ
éĢĥ å¾Ģ
èµŀ èµı
åĪĳ èŃ¦
ou gh
éĤ® å±Ģ
Ġ199 1
ï¼Ł ï¼ī
èŀį åħ¥
ä¸Ģæł· çļĦ
å¹¿æĴŃ çĶµè§Ĩ
ãĤ¤ ãĥ³
åıĳè¡¨ çļĦ
å¤§éĥ¨åĪĨ çļĦ
ä¸ºä¸» çļĦ
åģ¶ çĦ¶
Ġ198 8
Ñģ ÑĮ
æĿŃ å·ŀå¸Ĥ
Ġ195 4
åŃ¤ åĦ¿
å©Ĩ ç½Ĺ
åį¢çĵ¦ å°Ķ
éªĳåħµ ç¬¬
å¼ķåıĳ äºĨ
å·¡åĽŀ èµĽ
å¢ŀå¼º ä¸ºä¸Ģ
äº¤åıī åı£
åĬłåĪ©ç¦ı å°¼äºļ
åį¡ç½Ĺ æĿ¥
çĭ¸ èĹ»
éĹ¹ åī§
Ã³ n
ä¼ļè®¡ å¸Ī
å¾ĲçŁ¥ è¯°
çĨĶ å²©
èĦĬæ¤İ åĬ¨çī©
åĵºä¹³ åĬ¨çī©
æŁıæŁıå°Ķ äºº
äºļå¤ª åĮº
You Tube
æĺİå°¼ èĭı
çº¦ä¹¦ äºļ
M ic
P er
S C
X box
j ect
k y
t ain
u de
ì Ħ
Ġ èĭ±æł¼åħ°
Ġ æĳĦå½±
çļĦ çļĦ
çļĦ å®ī
çļĦ éĹ¨
çļĦ çº¢
çļĦ æķ°éĩı
çļĦ ç²¾ç¥ŀ
åħ ĸ
å¹´ æľī
å¹´ åıĳè¡Į
å¹´ åĩºçĶŁ
ä¸Ģ æľ¬
ä¸Ģ ç»Ħ
ä¸º ä¸ī
æĺ¯ äºİ
æĺ¯ ç§į
å¤§ æ¦Ĥ
å¤§ æķĻåłĤ
åĴĮ æ°´
åĴĮ è°Ĳ
èĢ Ĩ
æł ĵ
æĪĲ åĲīæĢĿ
ä»ĸ ä¸į
è½ ¿
éĿ ´
ä¹ĭ å¤ľ
æĬ ¬
å®¶ åĴĮ
åıĳ åħī
å¹¶ æĬĬ
åĮĹ éĹ¨
åı¯ çĶ¨äºİ
åīį åĪĹ
åĬł æ²¹
å»º æŃ¦
ä¸ĸ ä»£
åĪ© åĴĮ
çİ° å½¹
æĭī éĩĮ
æµ· æ¹¾
é©¬ åľº
åħ¥ åľº
è¿Ľ ç¨ĭ
è¿Ľ è¿ĳ
åĲĪ ä¼Ļ
æľº ä¸Ĭ
çİĭ èĢħ
å½ĵ åĪĿ
åĪ¶ æľį
éĿ¢ åħ·
ä½Ĩ å¥¹
å¤ĸ æı´
åı· åĴĮ
åŁİ ä¸»
åŁİ åįĹ
åħ¨ éķ¿çº¦
åħ¨ æĺİæĺŁèµĽ
ãģ Ľ
åİŁ å±ŀ
åİ¿ ä»¤
æł¼ å¼ı
åı² ç§°
åı² åŃ¦å®¶
æį ŀ
18 48
18 75
åģ ķ
æīĭ çļĦ
åİĨ ç»ı
å¸¸ ä½ı
in us
æ²³ ä»Ļ
æĽ¾ åıĤä¸İ
æĽ¾ ç¥ĸçĪ¶
æİ¥ ä¸ĭæĿ¥
äºĶ åĲį
äºĶ å·ŀ
å¤« åĭĴ
åĪĻ è®¤ä¸º
ä¸ĩ åĲį
åįķ åľº
æ¸¸ ä¹Ĳ
èĮ ī
åĽŀ æĶ¶
ç©º è°ĥ
æĽ´ å¤§
çĻ½ éĩĳ
åľ£ çģµ
åĽ½å®¶ èĢĥåı¤éģĹåĿĢåħ¬åĽŃ
ç¦ı æĸ¯
æĶ¯ éĥ¨
åı¯ä»¥ è¢«
çĪ± ä¸Ĭ
åĪĿ å§ĭ
ä¸ĵ é¢ĺ
çļĦä¸Ģ ç³»åĪĹ
ä¸»è¦ģ æľī
åįĩ èĩ³
åĨį çĶŁ
ç¦» åİ»
åħļ ç»Ħ
é²ģ èĥ½
è¯Ħ åĪĨ
æĹ© å®ī
èİ± çº³
ĠM e
èĢģ èĻİ
å¤± è¯¯
èĩ´ ä½¿
èĩ´ æķ¬
éŁ³ä¹Ĳ ä½ľåĵģ
æĽ¼ è°·
åįĬ çĲĥ
åºĵ å°Ķ
ä½ı æĪ¿
çĨ ¹
éĢļè¿ĩ äºĨ
ç¤¼ çī©
åı³ åıĤæĶ¿
èĴĤ æĸ¯
èĵ Ł
åºķ éĥ¨
æľĢä½³ çĲĥåĳĺ
et y
å½Ĵ äºİ
éĽħ åħĭ
æĭį åįĸ
èĻ½çĦ¶ åľ¨
éĺ¶ æ¢¯
è®² åº§
æ¤įçī© çļĦ
å®ĩ æĸĩ
æī¾ åĩº
èİİ èİī
è°ĭ åıį
æ¼Ķåĩº ä½ľåĵģ
çļĨ æľī
è´¡ åĵģ
èĿ ī
æĢ»ç»Ł åºľ
åĬ¨çĶ» çĶµå½±
å¾½ ç«ł
æııè¿° äºĨ
å¸®åĬ© çĲĥéĺŁ
è®¾ç«ĭ äºĨ
ĠSt reet
av e
åľ¨æŃ¤ æľŁéĹ´
186 1
ä¸Ńéĥ¨ åģı
æµ© çī¹
èķ¾ ç±³
if ic
åįµ å·¢
Ð¾Ð ¼
å®¢è¿Ĳ ä¸ĵçº¿
å¼¦ ä¹Ĳ
é¢Ī éĥ¨
åĵ¥ä¼¦ å¸ĥ
é©¬æĭī åĬł
èĦĤ èĤª
JR ä¸ľæĹ¥æľ¬
å¼Ģå·¥ å»ºè®¾
ĠAl l
äº¤çķĮ å¤Ħ
å¿½ çķ¥
ç¼©åĨĻ ä¸º
åĪĹæĸ¯ èģĶ
å¼Ĺæĭī åŁº
å¾ĲçŁ¥ è¯¢
IG N
æ¶¡ è½®
éŃħ åĬĽ
ubl ic
åĨĽåĮ» å¤§åŃ¦
éĩĳåŃĹ å¡Ķ
æĪĲåĲīæĢĿ æ±Ĺ
% ãĢģ
D A
E X
H O
H el
P G
S K
c c
p t
u al
z e
ë ı
Ġ åº·
Ġ æĿ°
Ġ ç¼ĸåī§
çļ ¿
çļ ĸ
çļĦ åĬŁèĥ½
çļĦ å½¢è±¡
å¹´ å°Ĩ
æĪ Ł
åľ¨ æĹ¥æ²»
ä¸Ģ éģĵ
ä¸º ç¬¬
å¤§ èĭ±
å¤§ æĿĳ
å¤§ è°ĥ
äºİ ç¾İåĽ½
æľĪ æŃ£å¼ı
å½ Ĺ
æĹ¥ åĽł
åŃ¦ åĴĮ
ä»¥ çºªå¿µ
æµ ľ
ä¸Ĭ å¥ı
ä¸Ĭ é¢Į
åĩº ç§Ł
ä¸į è§ģ
ä¿ ¾
å¹¶ åĪĹ
åįĹ éģĵ
åįĹ å±±
åįĹ åħħ
éķ¿ èĢģ
åĮĹ çº¬
å² Ĥ
æ³ķ å®ļ
èĩª åıĳ
èĩª æĦ¿
é«ĺ æĺĤ
åīį ä¸¤
è¿Ļ å°±æĺ¯
äºĮ éĥİ
çĶµ åĻ¨
åĪ© æ¡ĳ
æĪĺ äºĭ
å°ı å±ĭ
é©¬ ä¿®
åħ¥ çĭ±
æĶ¿ äºĭ
ç«Ļ åĲį
æģ ¤
æı ½
ä¸¤ åľ°
éĥ½ ä»¥
æĢ§ è¡Įä¸º
å£« å®ĺ
ãĤ ½
å¥³ åıĮ
æ°´ å¸Ī
er i
çĽ¸ æİ¥
åħ° çī¹
çĽ® åĩ»
çĦ ī
åħ³ è¿ŀ
å¸¸ å§Ķ
å¹¿ ä¹ī
èİ· åĩĨ
æıĲ å°Ķ
ç¥ŀ å®Ĺ
ç¥ŀ åŃ¦éĻ¢
å°± èģĮ
åį¡ æĻ®
å¥¹ ä¹Ł
åºĶ çĶ¨äºİ
or s
æĹ¥æľ¬ çĶµè§Ĩåı°
æŃĮ èĪŀ
äº¬ åī§
ä¼Ĭ åĬ¿
è½¬ åĪ°
æĪı æĽ²
é¦Ĩ èĹı
ĠS m
åĨį åĬłä¸Ĭ
es c
æ¯į è¯Ń
åĪĽ å»ºäºİ
çĶ» å»Ĭ
åħ¶ä»ĸ æ¼Ķåĳĺ
çĵ¦ çī¹
çĵ¦ è¿ª
å²ģ ä»¥ä¸Ĭ
è½¦ç«Ļ æŀĦéĢł
æīĺ å°¼
è¡Ĺ çļĦ
éŁ³ä¹Ĳ å½ķå½±å¸¦
æ¤ °
åĨĻ æĪĲ
as ter
éĩĩ çº³
å·¦ ä¾įéĥİ
æ¡Ī ä¾ĭ
æī¿ åĮħ
æŀģ å¤§
æ»¡ åĪĨ
ç¬¬ä¸ī å±Ĭ
èĹı åĵģ
æŃ£å¼ı çļĦ
ĠL ove
æ²¹ çĶ»
é¡º å¤©åºľ
åĸľ çĪ±çļĦ
åĩºçīĪ äºĨ
æĭ¥ ç«ĭ
æĳ© æĵ¦
çŁŃ çļĦ
è®¸å¤ļ äºº
ĠG u
ä»ģ å·Ŀ
äºĮåįģ åħŃå¹´
å®ĮæĪĲ åĲİ
æķħäºĭ çļĦ
æ²¿ éĢĶ
éŃĶ æľ¯
è¿½ éĢĲ
æľ± åħĥ
åĤ »
è¡¥ ä½Ĳ
æľīéĻĲ è´£ä»»
åª ļ
ä½© æĸ¯
çĸĹ æ³ķ
ä¼ĳ éĹ²
åĪļ æŀľ
äº® åº¦
æĮĩæĮ¥ ä½¿
æ¯įäº² æĺ¯
éļıåĲİ åľ¨
åĨ· åĨ»
ä¸¾åĬŀ äºĨ
å¹¼ èĻ«
äºĮä¸ĸ çļĦ
çº½çº¦ å·ŀ
çº¯ ç²¹
å°Ĭ éĩį
è·³ æ°´
ï¼ģ ãĢį
ç¬Ķ åĲį
åħ¬åħ± äº¤éĢļ
æħ¢ è½¦
ç»ıåİĨ äºĨ
æ®ĭ çĸ¾
Ġ198 6
æģĴæĺŁ çļĦ
Ġ195 6
å¼¥ æĴĴ
å¥¥æŀĹåĮ¹ äºļ
æĹº æ²ĥ
å¤ĸäº¤ éĥ¨
å½¢æĢģ çī¹å¾ģ
å¯ĵ æĦı
çĲ¼ æģ©
éĵŃ æĸĩ
æľĢè¿ĳ çļĦ
use um
Th omas
MV P
è´© åįĸ
è¯¥çľģä»½ä¸ºæ³ķåĽ½ åĮĹéĥ¨
att le
æ¼Ĥ æµģ
è´Ńçī© ä¸Ńå¿ĥ
åĿĲèĲ½ äºİ
å®Ĺåº§ ä»£
æĮīå¯Łåı¸ åī¯ä½¿
çŀ¬ éĹ´
èĶ¬ èıľ
æ±īå¯Ĩ å°Ķé¡¿
åį¡ç½ĹæĿ¥ çº³
C ol
P aul
y m
Ï Ģ
Ð ľ
à ®
Ġ åĽ½
Ġ ar
Ġ re
çļĦ åĲį
çļĦ äºĮ
çļĦ é£İ
çļĦ ç¬¬åĽĽ
çļĦ çİ¯å¢ĥ
çļĦ é¢ľèī²
åį ¦
åľ¨ æľ¬
åľ¨ å·´é»İ
åľ¨ åĲĮä¸Ģ
ä¼ Ŀ
ä¸Ń æĿĳ
ä¸Ń æĭħä»»
å¼ Ĭ
å¤§ èĦĳ
åĴĮ M
ï¼ļ ãĢĤ
æ¯ ĵ
ä¸İ è¥¿
ä¸İ éĺ¿
æĬ Ĵ
è· Ĺ
åıĳ åĩºçļĦ
è¢« äºº
èĢĮ ä»ĸ
å¹¶ æĭħä»»
æĻ Ĵ
åīį çĶ°
åĽł èĮ¨
æĪĺ åĮº
å°ı å¿ĥ
æµ· å°Ķ
è¿Ľ é£Ł
æŃ¤ ä¸¾
å¹³ çŃī
ä½Ĩ æľī
ä½Ĩ å½ĵ
å¤ĸ è¯Ń
è®¾ æ³ķ
ãģ Ń
ä¸¤ å®¶
çĤ Ĵ
å¥³ æĢ§çļĦ
åĽĽ å¼º
å½± éĽĨ
æŃ£ å½ĵ
æ£ µ
èĭ± çļĩ
å¨ ¥
è£ Ī
è£ Ļ
åįİ åĮĹ
æĽ¾ ä¸Ģåº¦
æĺŁ åĽ¢
æ¢ ³
å¤ª åĤħ
en ry
å¥ĸ å¾Ĺä¸»
èĬĤ çĤ¹
ç©º è¢Ń
æĽ´ å¥½
åıĺ æĽ´ä¸º
æĿİ å®¶
å¸¦ åĽŀ
ä¼Ĭ ä¸ĩ
çĶ° å¸Ĥ
åľ£ åłĤ
åľ£ å¾Ĵ
åĲĦ çľģ
åİĨåı² å»ºçŃĳ
åħ« éĩĮ
å±Ģ éĽĨåĽ¢
åĨ³ æĪĺ
at us
åıį å¤į
åıį å°Ħ
ç¬¬äºĮ ä»»
ç¦» æķ£
å¡Ķ èİī
ä¼¯ éĩĮ
èĲ¨ å°Ķçī¹
äººæ°ĳ ä»£è¡¨å¤§ä¼ļ
æĬĢ èīº
çĶ² å£³
çĶ² çĬ¶èħº
éŁ³ä¹Ĳ åī§
æĤ ļ
åºĵ çıĢ
åĺī å¹´åįİ
åı¯èĥ½ åľ¨
åº· èĴĤ
ĠP ar
å´ Ľèµ·
å¾ģ æĪĺ
åĳĬ åĪ«
ç®Ģ ç§°ä¸º
è´Ł éĿ¢
åıĳå±ķ è¾ĥæĹ©çļĦ
å·¥ç¨ĭ ç³»
ç§» éĻ¤
æĭ¿ åĪ°
å½±åĵį äºĨ
çİĽ èİī
åºŃ éĻ¢
å½Ĵ åħ¥
ĠR ep
è½» å¾®
çĶŁæ´» äºİ
ĠG e
ç»Ŀ å¤§å¤ļæķ°
éĢģ ç»Ļ
åĨ² éĶĭ
æĹĹ èĪ°
çĽĽ åħ¸
ĠK ong
å¢ĵ åĽŃ
åĨ° å²Ľ
ç¼º å¸Ń
èĨ Ŀ
ent al
åĨĽéĺŁ çļĦ
èĩªçĦ¶ ç§ĳåŃ¦
è¿· å®«
æĽ¹ ä¸ķ
è±ª åįİ
æĴŀ çĲĥ
ãĤ¹ ãĥĪ
ĠSt ud
æ½ľ æ°´
ä¸Ńæĸĩ çīĪ
Ðµ Ð½
æĶ¹åıĺ äºĨ
çĥŁ èįī
éĦ ŀ
æµ® éĽķ
å¸ĥæĭī æł¼
çļĦçī¹ æ®Ĭ
187 2
æľīæķĪ çļĦ
æľ¬åľ°åĮº åıĳå±ķè¾ĥæĹ©çļĦ
æ±¡ æ°´
ç²Ĺ ä½ĵ
åįģå¤§ ä¸ŃæĸĩéĩĳæĽ²
æĹ©å¹´ çĶŁæ´»
Ð» ÑĮ
å¥¶ æ²¹
ãĥ³ãĥ ī
æ¹ĺ æ½Ń
åīįèº« æĺ¯
æł¼éĽ· æĪĪ
åĲįäºº åłĤ
èŁ ¾
ä¸ºäºº çŁ¥
è£ģåĪ¤ æīĢ
å·²æľī è®°è½½
å´© æºĥ
æĪĺåĽ½ æĹ¶ä»£
æīģ å¹³
çº³ç²¹ å¾·åĽ½
å¸Įçī¹ åĭĴ
èĻĲ å¾ħ
åºĩ æĬ¤
ech n
ï¼Īï¼Ł âĢĶ
äºĳæŀĹ åİ¿
æī¿å¾· éľ²éľ²
äºļç¾İ å°¼äºļ
æľ¬åľ°åĮºåıĳå±ķè¾ĥæĹ©çļĦ èģļèĲ½
) .
C o
N C
S w
a o
l in
¸ °
Î ·
Ġ å»º
Ġ ä¹Į
Ġ éŁ©
Ġ ä¹Ķ
Ġ èµ¤
çļĦ å®¶åºŃ
åĪ ¹
å¹´ è¡¨
å¹´ ä¹ĭéĹ´
å¹´ åĪĽç«ĭ
ä½ ļ
åľ¨ å¾·åĽ½
åľ¨ è¿ĻäºĽ
åľ¨ åį°åº¦
åľ¨ ä¼¦æķ¦
ä¸Ń æ¯Ĵ
åĽ½ ä¹ĭ
åĽ½ åı²
äºº åĬĽ
å¤§ ä¸º
æŃ ´
åĴĮ ä¸Ń
åĴĮ ç¤¾ä¼ļ
æľĪ äº®
çĽ ¼
çĽ İ
ä»¥ èĩ³
æĸ¯ è¾¾
ä¸Ĭ çº¿
ä¸į ç¨³å®ļ
ä¹ĭ å¼Ł
ä¹ĭ æīĢä»¥
å®¶ åħ·
æľ¬ å±ŀ
éķ¿ å¥³
çľ ·
æĸĩ åĩŃ
å¼Ģ åĪĽ
äºĮ æľĪåįĩ
çĶµ éĵģ
æĸ° çĶŁ
ä¸ĸ å®¶
å±± åĿ¡
åįģ ä½Ļ
æĪĺ åĪĹ
ä¹Ł ä»¥
å°ı éĩİ
åĨħ æĸ¯
åĨħ å°Ķ
é©¬ åı¯
é©¬ åĪ©
é©¬ åħľéĵĥçĮªç¬¼èįī
æŃ¤ ä¸Ģ
è¦ģ ç´ł
çŃī æĸ¹éĿ¢
éĵ ¿
æľŁ åĪĿæľŁ
åĪ¶ èį¯
å¤ĸ å½¢
å®ī åįĹ
é» ľ
è¯¥ å¹´
å®ļ äºĨ
éĩĳ é±¼
éĩį åŀĭ
er r
ç»Ħ ä»¶
ç±³ çī¹éĩĮ
18 50
é¦ĸ æĶ¯
æĢ» åı¸ä»¤
æīĭ æĮģ
æ¶ §
åįİ å±±
æĹł éľĢ
æĿĳ ä¸Ĭ
ä¿Ŀ åĪ©
ç»ĵ æł¸
æİ¥ åĪ°
æĦı æĮĩ
å°± æŃ¤
å¤ª å°ī
é¾Ļ äºļç§ĳ
en th
é¢Ĩ åĨĽ
å¤§åŃ¦ åĴĮ
ä½įäºİ åĮĹäº¬å¸Ĥ
ä¿¡ æĿ¡
æĳ ¸
ä¼Ĭ æľ¬
æīĵ çĤ¹
æĶ¶ åĽŀ
æį® ç§°
ä¸ĵ æłı
å±Ģ ä¸Ĭ
çļĦä¸Ģ å±ŀ
ĠS ec
ä»Ĭ å¤©çļĦ
æľª ç»ı
æ°Ķ çĲĥ
åĪĽ åĪĬ
çĶµè§Ĩ è¿ŀç»Ńåī§
åį« éĹ¨
el d
çĶ· åįķ
æľ¨ æĺŁ
åĬŁ ç»©
åĭĴ å§Ĩ
æĬ¤ å£«
è´Ŀ åı¶æĸ¯
å®¹ åĻ¨
åĩĨ åĪĻ
it a
ï¼į ï¼ī
æĽ¼ å½»æĸ¯çī¹
æĤ ¨
åī¯ å°Ĩ
ä½ı æīĢ
ĠB ur
ç²¾ å½©
ur ch
åĶĲ å¤ªå®Ĺ
å¹² æĹ±
ç¬¬ä¸ī çĶ²
æ¢ħ æĸ¯
æľĢç»Ī äºİ
å¯º æ´¾
ãĥ¼ ãĥĪ
åħ³ç³» çļĦ
è¿½ æįķ
à¸ ¥
çĽĸ å°Ķ
åĸĦ èī¯
èĤ¡ ç¥¨
çļĦåľ° çĤ¹
æķ£ å¸ĥ
èĪŀ æĽ²
æ¤įçī© åĽŃ
é©» åľ°
èĶ ·
id ae
ä»¥ä¸ĭ çļĦ
åŁºçĿ£ çļĦ
çĴ Ĳ
éĽ¨ æŀĹ
ä»Ļ äºº
åĪĽä½ľ äºĨ
ä¼ģä¸ļ å®¶
æĴ¤ ç¦»
ĠV al
ä¾µ åħ¥
åŁºç¡Ģ ä¸Ĭ
å¹¼ å¹´
å¤ªéĺ³ ç³»
ä¼´ ä¾£
åĽ½æ°ĳ æĶ¿åºľ
åħ¬å¸ĥ ä¸º
åįłé¢Ĩ äºĨ
åįµ å½¢
çİ» åĪ©
187 4
å·« å¸Ī
è¡° èĲ½
çĢ ¬
ç²¤è¯Ń éħįéŁ³
è½¬ä¼ļ èĩ³
è´« ç©·
çŃ¾ç½² äºĨ
åīª è¾ĳ
ç¬¬äºĮæ¬¡ä¸ĸçķĮå¤§æĪĺ æľŁéĹ´
åĩĨåĨ³èµĽ ä»¥
æĭ¼ éŁ³
åĩ¶ æīĭ
æ³ķåħ°è¥¿ å²Ľ
ĠCom p
å¥¥åı¤ æĸ¯
æł¼é²ģ åĲīäºļ
Î¿ ÏĤ
CC TV
è´¦ æĪ·
çļĦå®ĺæĸ¹ åľ°åĽ¾ä¸Ĭ
Ġæĸ°åŁİ åĬ²çĪĨ
ç¡Ŀ éħ¸
ç®¡å¼¦ ä¹ĲåĽ¢
åı±åĴ¤ ä¹ĲåĿĽ
è§ħ é£Ł
è¯ħ åĴĴ
èµµæĺİ åīĳ
åľ¨æĹ¥æ²» æľŁåĪĿæľŁ
åĪ©æ¡ĳ éĤ£
çļĦå®ĺæĸ¹åľ°åĽ¾ä¸Ĭ å·²æľīè®°è½½
åľ¨æĹ¥æ²»æľŁåĪĿæľŁ çļĦå®ĺæĸ¹åľ°åĽ¾ä¸Ĭå·²æľīè®°è½½
E T
E m
M ag
O n
S ir
c k
l ing
« çĹ
Ð Ĳ
è ĺ
Ġ å¹¿
Ġ å·´
çļĦ åı£
çļĦ èĭ±åĽ½
çļĦ ç¤¾ä¼ļ
çļĦ å¾·åĽ½
çļĦ çħ§çīĩ
å¹´ å°ĳ
ä½ ¬
ä¸º åħ¨
ä¸º æ¯ı
ä¸Ń çĶ²
å¤§ ä¸Ń
å¤§ åĬĽ
åĴ ½
åĴĮ ä¸Ĭ
æĹ¥ åľĨ
åĲİ ä¾¿
æ³ µ
äºĨ è¿Ļä¸Ģ
çĲ ¶
æĪĲ å¸Ŀ
ä¼ļ åĩºçİ°
ä»ĸ å¼Ģå§ĭ
éĥ¨ ä»¶
ä¸į å¤ª
ä¹ĭ åīĳ
å®¶ å±ŀ
è¡Į åĨĽ
è¥¿ æĹ¥æľ¬
è¥¿ éĽħåĽ¾
åħ¶ éĹ´
åħ¶ ç§įåĬłè¯į
ä¸ī çľģ
æľĢ å°ıçļĦ
ä¸ľ éĿ¢
ä¸ľ å°¼
æĸĩ æĸ¯
éģĵ æł¼æĭīæĸ¯
é«ĺ èĢĥ
è¿Ļ ä»½
åĬł ç½Ĺ
çĶµ ä¿¡
æĸ° åįİ
æĸ° åĩłåĨħäºļ
å¾Ĺ ç¥¨
ä»£ æķ°
çİ° åĿĢ
åĨħ å¤ĸ
åĨħ è®¾æľī
å¤© ç¥ŀ
äºĭ åıĳ
èĲ İ
æ°ĳ åħļ
æ°ĳ èĪª
çİĭ åħ¬
ç½Ĺ å°ļ
éŁ ¬
è®¾ çļĦ
ä½¿ æĮģèĬĤ
å£« æīĵ
åı² åīį
åı² è®°
å¥³ ä¼ĺ
åĽĽ åįģå¹´
er man
èĳ «
æŃ£ çº¿
18 40
åħ± çĶŁ
æ· ¤
åĲĳ ä¸ĭ
ç»ĵ å°¾
å½¢ åĬ¿
äºĶ éĥİ
æĦı çĶ²
å¤ª ä¸Ĭ
å¤ª ä»Ĩ
åįķ ä¸ª
ä½įäºİ é¦Ļæ¸¯
ç©º éļ¾
æĽ´ å§ĭ
è¿ĺ åı¯ä»¥
çĻ½ åŃĹ
çĻ½ èī²çļĦ
äº¬ åŁİ
åıª æľīä¸Ģ
å®ĥ å¢ŀå¼ºä¸ºä¸Ģ
åľ£ åħ¬ä¼ļ
åĳ¨ å®Ŀ
æĶ¯ éħį
ä¸ĵ åĳĺ
å±Ģ ä¸ĭ
17 8
ä¸ĸçķĮ çºªå½ķ
çĶµå½± å¯¼æ¼Ķ
çĶµå½± åĪ¶çīĩåİĤ
èİ·å¾Ĺ çļĦ
æ´¾ åħµ
åħ´ å¥ĭ
è´Ŀ æīĺ
è´Ŀ é½Ĳ
22 5
æĿĢ éĿĴ
å»ºçŃĳ è®¾è®¡
æīĺ å¤«
èĢģ æ±ĩ
ç§¯ ç´¯
æ¦ Ī
ä¹ĭåĲİ åıĪ
ç¥ĸ åĽ½
éŁ³ä¹Ĳ èĬĤ
çĻ¾ ç§ĳ
çĻ¾ èĢģæ±ĩ
æİ¨ å®ĺ
æĸ½ å¡Ķ
åĳĬ ç»Ī
åįĥ æĪ·
æŀģ åľ°
å³ Ļ
å¹² é¢Ħ
æ¢ħ çº³
æ¢ħ èĬ±
é¢Ħ è¨Ģ
å»¶ ç¦§
åºķ å±Ĥ
ä¼ĺ èĥľ
èĢ¶ å°Ķ
èĭ¥ æĺ¯
æĳ© å¤©
éŁ© å»¶å¯¿
èĪ¬ çļĦ
æ²ĥ å°Ķé¡¿
éĽĨåĽ¢ åħ¬åı¸
éľ² å¤©
èİī èİİçĻ½
ç§ĳåŃ¦ çłĶç©¶
ĠW orld
åı·çº¿ çļĦ
å¢ĵ ç¢ĳ
é¢Ŀ å¤ĸçļĦ
åºŁ åİ¿åİħ
èĽĭ ç³ķ
é¡¾ å®¢
åĲ¸ èĻ«
èĢ³ æľµ
å°Ķæĸ¯ åħĭ
éĴ¢ çŃĭ
åĪ¶éĢł åİĤ
åĨ· æĪĺ
éĿĻ åĨĪ
189 1
éĵľ éĶ£
éĻ¶ åĻ¨
ç³ĸ æŀľ
åķĨä¸ļ éĵ¶è¡Į
æĺĨ å£«
æµģè¡Į æ¦ľ
ç¯® çĲĥéĺŁ
æľĿé²ľ åįĬå²Ľ
Ch arles
éĽ¶ ä»¶
èİ² èĬ±
188 8
é¸¡ èĽĭ
ç¾İæľ¯ åŃ¦éĻ¢
éĵ¾ å®¶
çļĦçī¹ æĢ§
æ¸ħæľĿ æĶ¿æ²»äººçī©
æĭĵ æīĳ
æįĲ æ¬¾
åĸ· æ³ī
ä¸įæķĮ èµĽä¼ļ
çļĦåĲĮ åĲį
æ£ķ æ¦Ī
ç±³çļĦ åľ°åĮº
æľ¬é±¼ ä½ĵ
ç½¢ å·¥
å¸½ åŃĲ
å¸¦æĿ¥ äºĨ
åĲŀ å¹¶
AM P
å·²çŁ¥ çļĦ
çĶ²ç»Ħ è¶³çĲĥèģĶèµĽ
åĨħç»´å°Ķ ä»¥
Ġèĭ¥ å¤´
æĶ¹è®¾ äºĮåįģåİħ
åĮĹæĿ¡ æ°ı
çĶŁéķ¿äºİ æµ·æĭĶ
å®¦ å®ĺ
åħ¨æĻ¯ çĶµå½±
èĬŃèķ¾ èĪŀ
ĠColle ge
çĵ¢ èĻ«
èĴĤäºļçĵ¦çº³ ç§ĳ
ç§ĳç´¢ æ²ĥ
æľīéĻĲè´£ä»» åħ¬åı¸
åºŁåİ¿åİħ æĶ¹è®¾äºĮåįģåİħ
A çº§
D an
J ean
N et
P L
T i
b ook
c i
c il
o z
r ia
Ø ³
Ġ æŃ£
Ġ çĶ°
Ġ ä¸ĸçķĮ
Ġ ä¸ĥ
Ġ é»ĳ
Ġ åį·
Ġ 1941
çļĦ æľ¬
çļĦ åį¡
çļĦ éĤ£
çļĦ ä¸»é¢ĺ
çļĦ æĶ»åĩ»
çļĦ å±ħæ°ĳ
çļĦ å®ļä¹ī
çļĦ æķĪæŀľ
å¹´ ä»¥åīį
å¹´ åĨ¬åŃ£
åľ¨ å°ı
åľ¨ ä¸Ģæ¬¡
ä¸Ģ æĹı
ä¸º ä»£è¡¨
ä¸º å¦»
ä¸Ń ä¸İ
å¼ ĭ
äºº æł¼
æľī æĦı
æķ Ľ
æĹ¥ åĨħ
æĹ¥ åĲ¯çĶ¨
æĭ ·
æł ħ
åĲİ ä¸İ
ç« º
ä¸Ĭ ä¸Ģ
ä¼ļ éĿ¢
ä»ĸ åĽł
ä¹ĭ éģĵ
ä½ľ çĶ»
åĪĨ çļĦ
æľ¬ åİ¿
åĨĽ èĲ¥
åĨĽ ç±į
ä¸ĭ éĥ¨
ä¸ī è·¯
å¾· æĽ¼
æĻ ¤
åĮĹ çº¦
äºļ è¿°
å¤ļ è¾¾
éģĵ æŃī
é«ĺ åį¢
è¿Ļ å¯¹
è¿Ļ æĺ¯ä¸Ģä¸ª
è¿Ļ é¢Ĺ
éĩĮ çº¦
éĩĮ å¥ĩ
ãĥ Ŀ
æīĢ å¾Ĺ
çİ° èº«
ä¹Ł ä¸º
æĭī å¤«
æĭī ç½ķ
æµ· ä¼¦
ç¾İ éĩĳ
ç© ¹
è¿Ľ äºĨ
çŃī äººçļĦ
åĲĪ åħ±
æ°ĳ çĶŁ
å½ĵ ä¸»
åĪ¶ æĪĲçļĦ
ç½Ĺ æ±ī
å®ī çľģ
åŁİ æĹ¦
ç§° å¸Ŀ
åħ¨ èĥ½
10 9
ãģ »
ä¸¤ åº¦
èĢħ æĺ¯
éĩį å¥ı
åĬĽ åĴĮ
æ°´ åĩĨ
å¢ Ł
åħ° å°¼
an th
çº¦ åįł
æĶ¹ æŃ£
åĲĳ åĲİ
äº§ åĢ¼
å¹¿ å¤§
ar ia
åı¤ ç½Ĺé©¬
çŁ³ èĭ±
é¾Ļ å±±
éĩı ä¸º
åĽ¢ åĽ¢éķ¿
èº« æĿĲ
å¥¥ å¤ļ
ç¿ ĺ
ç¤¾ åĽ¢
ç² ª
åıĺ æĺŁ
æĿİ åħĭ
æŃ¦ å¤§
ç¼ĸ å¹´
åķ Ĭ
æĶ¯ åĩº
åı¯ä»¥ å°Ĩ
è¿ŀ ä¸²
åħ« ä¸ª
åįĩ åħ¥
es e
å·Ŀ å´İ
éĥ¨åĪĨ åľ°åĮº
æĺ¯ä¸Ģ é¢Ĺ
æĶ» çł´
åħ· åºĨ
æ¡¥ éĿ¢
äº¦ åľ¨
äº¦ äºİ
ä¹¡ éķĩ
æīĺ æĸ¯åį¡
çº¢ èī²çļĦ
æĤ į
æķ´ ä¿®
æĦŁ åĬ¨
å®Ī éĹ¨
çĳŀ å°Ķ
çħ ŀ
åĶ± æŃĮ
å·¦ å²¸
æī¿ åıĹ
è¿ľ çļĦ
åıĳå±ķ åĩº
ç§» äº¤
èİ« åĵĪ
ĠL im
ç¯ ¡
åģļ çļĦ
æĸŃ è£Ĥ
æĳ© æĸ¯
èĥ¡ åŃĲ
è¯ĳ åĲį
éĥĳ å·ŀå¸Ĥ
å½ĵåľ° å±ħæ°ĳ
ĠW il
ĠK ing
èĥŀ èĥİ
æİ¢ åĳĺ
éĨ ļ
åĲ¸ è¡Ģ
ç¼º çĤ¹
æŃ¤å¤ĸ è¿ĺæľī
åĪĬ çī©
çİ¯å¢ĥ å½±åĵį
å¤©æ´¥ å¤§åī§éĻ¢
å¹¸ è¿Ĳ
åĭĩ æķ¢
åįļå£« çĶŁ
Ġs p
å»ºéĢł äºĨ
åī§æĥħ çīĩ
åľ°ä¸ĭ éĵģ
åľ°ä¸ĭ äºĮå±Ĥ
åĽ½æ°ĳ å°ıåŃ¦
ĠÐ ¡
å°ĸ æ²Ļ
è¡Ĺéģĵ åĬŀäºĭå¤Ħ
æĲŃ ä¹ĺ
è±Ĩ èħĲ
åİĦ çĵľ
åįģåŃĹ åĨĽ
åįģåŃĹ æŀ¶
æº¶ äºİ
æĬ½ è±¡
ãĥŀ ãĥ³
å±Ī çªģ
åĲ¸å¼ķ äºĨ
é©¬æĭī æĿ¾
å¹¶æŃ¢äºİ åİ¿éģĵ
ä¸īåĽ½ å¿Ĺ
æ·ĺæ±° èµĽ
æ²ĥå°Ķ çİĽ
ï¼ħ ï¼Į
çĤ¼ éĩĳ
è¯ģåĪ¸ äº¤æĺĵæīĢ
à¹ Ģ
æ´»è·ĥ äºİ
æĬĦ æľ¬
æµģåŁŁ éĿ¢ç§¯
å¹´å¤ıåŃ£ å¥¥æŀĹåĮ¹åħĭè¿ĲåĬ¨ä¼ļ
å¸¸è§Ħ èµĽ
æĲŀ ç¬ĳ
å°±èĥ½ èİ·å¾Ĺä¸ĭä¸ĢæĿ¡çº¿ç´¢
ð¬ Ģ
äº¤æ±ĩ å¤Ħ
é²Ī å½¢çĽ®
å¶ ·
å±ıä¸ľ åİ¿
é¢Ĩäºĭ é¦Ĩ
èĢķåľ° éĿ¢ç§¯
åħ¬åĬ¡ åĳĺ
çĶµè§Ĩå¹¿æĴŃ æľīéĻĲåħ¬åı¸
å®Ŀåĺī åº·èĴĤ
è°´ è´£
æľ±åħĥ çĴĭ
åħ·åºĨ ä¸ĭ
) ãĢĭ
7 000
P ar
P al
W h
b e
g o
g er
n ow
p e
´ èĿ¶
Ø ¯
é ĸ
Ġ åİŁ
Ġ âĢĶâĢĶ
Ġ åĮĹäº¬
Ġ ä¸»é¢ĺæĽ²
Ġ Qu
ï¼Į ï¼Ī
çļĦ åįĹ
çļĦ çīĪæľ¬
å¹´ ä»¥åĲİ
ä½ ĺ
ç» ¸
åľ¨ å¥¹
ä¼ ¶
ä¸Ń ä¿¡
æĺ¯ çĽ®åīį
æĺ¯ åĶ¯ä¸Ģ
äºº æīĢ
äºº äºĭ
äºº å¿ĥ
å¤§ æ´ĭ
åĴĮ çĻ½
å½ ª
æĹ¥ éĢļè½¦
æ° °
ä»¥ èĩ³äºİ
æĹ¶ å¹´
ä¼ļ æīĢ
ä¼ļ åłĤ
ä¼ļ å¯¼èĩ´
åĩº åĬ¨
åĩº ä½¿
ä¸ª å¸Ńä½į
éĿ ĵ
æ¸ ¥
éģ ģ
è¥¿ è¾¹ä¸º
åĪĨ æŃ§
åĪ° åºķ
åįĹ ç¾İ
åįĹ åİ¿
éķ¿ å°¾
ä½į ç¬¼
æĮ «
å¤ļ çī¹
åħĭ åĪ©
åı¯ åı¯
çī© æµģ
å¼Ģ æľº
å¯¹ çħ§
å±± æ°´
å¦ Ħ
æĭī çľģ
æµ· æĪĺ
ãĢį ãĢĮ
æŃ¤ ç§į
åĲĪ ä¸Ģ
æ°ĳ åħµ
çİĭ ä¸ĸ
çİĭ å®«
ç§ĳ ç½Ĺæĭī
ç«Ļ åĴĮ
ç½Ĺ ç´ł
å¤ĸ æĿ¥
å®ī äºº
åı· èĪ°
éĤ º
ä¸Ģä¸ª æľĪ
èĢħ åĴĮ
éĥ½ å°ī
çł ļ
å£« æ°Ķ
çľģ ä¼ļ
èĭ± åĨł
18 76
åħĥ ä»¶
è¾¾ åħĭ
ä¸ŃåĽ½ äºº
æĢ» ç½²
ä»İ ä¸Ń
è¯Ń æ³ķ
è§Ĩ éĩİ
å¸¸ å§Ķä¼ļ
å¸¸ çĶ¨çļĦ
12 7
åįİ ä¸º
æĽ¾ åĽ½
å²Ľ ä¸ĬçļĦ
èº« ç©¿
å·² çģŃç»Ŀ
ç¤¾ çļĦ
å®ĺ åĲı
çº³ çī¹
å¤´ é¢ħéª¨
çīĩ çļĦ
å°ĳ æ£ĴéĺŁ
ä¿¡ ä¹ī
æĿİ åħī
æ´² éĻħ
é¦Ļæ¸¯ çļĦ
èĭı åĨĽ
åĽ½å®¶ èģĶçĽŁ
èĬ± çĵ£
æ¸ħ çĲĨ
ä¸ĸçķĮ ç«¥åĨĽ
åıį åıĽ
ĠS e
çłĶç©¶ èĢħ
ç¦» éĺŁ
åĵĪ æĸ¯
åĵĪ èĲ¨
è£ħ ä¿®
è¶ħ å¸Ĥ
13 7
æľį é¥°
æĪĳ çĪ±
è´Ŀ å¤ļ
éĻ¤ éĿŀ
éĻĪ è¿°
åºĦ æĶ¹åĪ¶ä¸º
çĽŁ åıĭ
æ·± çļĦ
æ·± ç©º
it an
ï¼į ï¼īï¼Į
ä½³ éĩĮ
èĭ±åĽ½ äºº
éĩĩ è´Ń
åŁĥ æĸ¯çī¹
æī¿ åĬŀ
éĻį ä¸º
æŀģ åº¦
åĶĲ çº³
åı³ å²¸
æĪ· å¤ĸ
è¿Ļä¸ª è¯į
åį´ åĽł
éº¦ è¿ª
ĠH ouse
æĵ Ĥ
ç«¥ è¯Ŀ
äºĨä¸Ģ æ¬¡
æ²¿ èĳĹ
åĪĹè½¦ æľįåĬ¡
æĿ¿ ä¸Ĭ
éľ² ä¸Ŀ
à¸ ĩ
åĪº æĿĢ
éĥĳ åĽ½
å°½ éĩı
å·¡ æ¼Ķ
ä¹ĺ è½¦
é¦ĸæ¬¡ ä»£è¡¨
æ·· åıĮ
å¹´èĩ³ ä»Ĭ
è½¨ çĶµè½¦
éĻµ åİ¿
ter s
æ¿Ģ æ´»
åħĭæĸ¯ æ´Ľ
ation s
åĨ° çĲĥ
ç¯ĩ å°ıè¯´
èĿ ´èĿ¶
è¿İ æİ¥
å¾ħ éģĩ
åĲ¬ ä»İ
åŃĿ çļĩå¸Ŀ
ç³ĸ å°¿
ä¹ĭéĹ´çļĦ åħ³ç³»
ĠCh rist
188 2
çĦ¶åĲİ åľ¨
çĶŁéķ¿ åľ¨
æį· åħĭæĸ¯æ´Ľ
æĺŁæľŁ åħŃ
çļĦçī¹ çĤ¹
Ð¾Ð »
æĲľ å¯»
åĽ½åĨħ çĶŁäº§æĢ»åĢ¼
ãģª ãģĦ
éĢĢå½¹ åĲİ
our t
èľľ èľĤ
é¸Ń åĺ´
å®ŀéĻħä¸Ĭ æĺ¯
åıł çºª
æıŃ åıĳ
ãģ¡ ãĤĥ
é¢ĩ ä¸º
èĥĮé³į è½¯æĿ¡
åĬłå·ŀ å¤§åŃ¦
iss ion
å²Ĳ éĺľ
æĺĶ æĹ¥
ĠĠĠĠ ĠĠĠĠ
çĥĤ çķªèĮĦ
ä¸»æīĵ æŃĮ
ä¾Ħ åŃĲ
æ·ĭ å·´
ä½Ľç½ĹéĩĮ è¾¾
äºĮæ°§åĮĸ ç¢³
é»İæĽ¼ çĮľæĥ³
æĻ®éĩĮ çĵ¦
oot ball
èĲ¨è¯¸å¡ŀ å·ŀ
å°¼ç½Ĺ æ²³
ä¸ĵæ³¨ äºİ
é¦Ļå¥Ī åĦ¿
èĮī èİī
èĶ· èĸĩ
èĳ« èĬ¦
6 000
B ill
D r
K K
M M
b a
i ro
Ġ )
Ġ åı¶
Ġ éĤĵ
Ġ èĶ¡
Ń èĦĤ
çļĦ çĻ½
çļĦ æľĭåıĭ
çļĦ éĢŁåº¦
çļĦ ä¸Īå¤«
çļĦ éķ¿åŃĲ
çļĦ æĿĥåĬĽ
åľ¨ åħ¨çĲĥ
åľ¨ æķ´ä¸ª
åľ¨ æŁĲäºĽ
ä¸Ģ å¤Ħ
ä¸Ģ è¡Įäºº
ï¼ī ,
äºº ç¾¤
20 24
æľī çĤ¹
éĻ Ĥ
åĲİ ä»»
çĲ ®
åľ° åĿĹ
æĸ¯ å®¾
åŁ ¼
ä¸Ĭ çĶ°
ä¸Ĭ å°ī
éķ ģ
ä¸į å¤§
ä¸į å®ī
ä¸į å¥½
ä¸į åĥı
ä¸į éĢĤ
ä¸į éĶĻ
éĿ ¡
åĲį èĥľ
èĥ ŃèĦĤ
åĪĨ çº§
è¢« éĢīä¸º
å¹¶ å°Ĩåħ¶
å¾· æ£®
æľĢ å°ı
æľĢ ä¼ĺç§Ģ
åĮĹ ç«¯
æ³ķ æĭī
èĩª æĪĲ
æĸ° æĬĢæľ¯
å¯¹ ä»ĸçļĦ
ä¸ĸ è¢Ń
ãĥ Ķ
å±± æľ¬
ä»£ ä»·
å°ı è°ĥ
å°ı çĬ¬åº§
è° §
âĢĿ ï¼īãĢĤ
è½¦ çļĦ
æĶ¿ åĬ¡
åĲĪ è®¡
å·¥ èµĦ
æľŁ å¾ĴåĪĳ
æľº åŀĭ
æ°ĳ çĶ¨
æ°ĳ äºĭ
æ°ĳ æĶ¿
çİĭ æĿİ
å¸ĥ åĭĴ
å½ĵ ä»Ĭ
æģ º
åħ¨ å¹´
åİŁ ç§°
çĤ Ģ
åı² éĥ½
æ°´ éģĵ
æ® ¡
èĭ± æł¼
çº¦ å®ļ
åİĨ æĹ¶
æĶ¹ éļ¶å±ŀ
éĢī åĿĢ
éĢī ç¥¨
äº§ åįµ
çķĮ çº¿
ç»ĵ ä¸ļ
éª ģ
ç¥ŀ å¥Ī
çŁ³ åĪ»
å¤ª å¸Ī
éĩı äº§
éĩı æµĭ
11 3
11 4
åį¡ éĩĮ
çºª å¾ĭ
çı Ĥ
åıĹ éĢł
ä¸ĩ çī©
å¥¥ å¾·
15 4
çº³ ç±³
åıĺ è´¨
æ´» æ³¼
æĶ¯ è¡Į
å¼Ģå§ĭ æĹ¶
çĪ± çŁ¥åİ¿
åİĨåı² æĸĩåĮĸ
åħ« åį¦
å±Ģ åĬ¿
çĶµå½± éĻ¢
å¨ģ åĬĽ
éĺ³ æĢ§
åįĩ é«ĺ
ä»Ĭ å±ŀ
æľª æĪĲå¹´
åįļ ä¼Ĭ
çĶ» åĥı
çĶµè§Ĩ çĶµå½±
å½ķ åĥı
å·Ŀ éĥ¡
æ±ī ä»£
æ±ī æŃ¦å¸Ŀ
æļ ±
åĻ¨ çļ¿
æ¬§ äºļ
æĶ» è¯»
14 5
çļĩ å¤ªåĲİ
åįı å¥ıæĽ²
çľŁ çĲĨ
çľŁ é²¨
é»ĳ å¸®
å¯Ĩ éĽĨ
é£ŀ å¾Ģ
èĲ½ åı¶
æ¹ĸ åĮº
åį° åľ°
é¹ Ĭ
çĶ±äºİ åħ¶
çİ¯ è·¯
çģ« èį¯
åĽłä¸º åľ¨
ç´¢ èı²
ä½³ æ°ı
åĵ¥ åįİ
åī¯ ä½ľçĶ¨
åī¯ å±Ģéķ¿
ä¾Ľ çĶµ
us h
è®¾è®¡ äºĨ
ĠA m
åº· ä¹Ĳ
ä¾§ çļĦ
è¶³çĲĥ ä¼ļ
æ°¸ å®ģ
éĵģè·¯ çº¿
æ¸© åĵ¥åįİ
åı³ å¸ĥæĶ¿ä½¿
æĿ¾ æľ¬
è¿Ļä¸ª åĲįåŃĹ
ion al
åĩł æ¬¡
èľ ´
èī¾ åĪ©æĸ¯
åĢĻ è¡¥
æŃ£å¼ı æĪĲç«ĭ
è®¡åĪĴ çļĦ
éª¨ çļĦ
äºĨä¸Ģ é¡¹
äºĮåįģ ä¸ĸçºª
è¿½ å°ģ
à¸ ¡
èĥ¡ å®ī
ed er
ç»ĵæŀĦ çļĦ
çļĦåľ° éĵģ
çī¹åĪ« æĺ¯åľ¨
è¯¸ åĨĽäºĭ
éģĩ éļ¾
å®ĩ èĪª
æ³ī æ°´
çº¦ç¿° éĢĬ
ad a
æ¿Ģ åıĳ
æĪ´ ç»´æĸ¯
ç¼ĺ æķħ
èĮ¨ åŁº
å°¤ éĩĮ
åĽº ä½ĵ
åĨ¬ å¤©
å±±ä¸ľ é²ģèĥ½
ä¹° ä¸ĭ
æ±ĩ åħ¥
ä¾µ èļĢ
åĨĮ å°ģ
å¹¿æĴŃ åī§
æ°ĳä¸» ä¸»ä¹ī
Ch rist
æĬļ é¡º
å¢ĥåĨħ åħ±æľī
å²Ń åįĹ
çģ¾ å®³
æĺŁæľŁ äºĮ
é¥® çĶ¨
éĥ½å¸Ĥ åľĪ
é³Ħ é±¼
æĹ¢ æľī
é¡µ éĿ¢
çĮĽ çĥĪ
æ¡ĵ åħ¬
æŁ´æ²¹ æľº
æ¶Ĥ è£ħ
èĴ¸ é¦ı
å¼ºçĥĪ çļĦ
èľ¥ èľ´
æĸĲ è¿ªåįĹ
å¦ĸ æĢª
çĪ· çĪ·
äºļå½ĵ æĸ¯
ãĥĨ ãĥ¬
ä»£çĽ® å±±åı£ç»Ħ
éĩľ å±±
éĤ¦èģĶ åĨĽ
é«ĺæŀ¶ æ¡¥
ä¸»äºº åħ¬
èĩĢé³į ç¡¬æ£ĺ
å¹´ä¸Ĭæĺł çļĦ
oci ation
å°¼åŃĲ ç»ıä¹ħ
å¯Ĩè¥¿è¥¿æ¯Ķ æ²³
æľĪä¸Ń æĹ¬
æµı è§Ī
çīĩå¤´ æĽ²
æ³°åĿ¦å·¨ é¾Ļç±»
æ³ķåħ°è¥¿å²Ľ å¤§åĮº
åŁİæĹ¦ èĪĤ
èİ«åĵĪ æľ«
ð¬Ģ ©
A BA
C P
L aur
O r
S F
X å°Ħçº¿
c on
c is
l i
w ood
Ã Ł
Å ¡
É ĳ
Î µ
Ð ¿
Ð Ĵ
Ø ¹
ì ł
Ġ ç§ĭ
Ġ åĲķ
Ġ å¹¿å·ŀ
çļĦ æŃ£
çļĦ çĶŁäº§
çļĦ æĪĺæĸĹ
çļĦ åĲĦç§į
çļĦ æĿ¥æºĲ
çļĦ çİ°è±¡
å¹´ èµĽåŃ£
å¹´ éĢĿä¸ĸ
åľ¨ ä¸ĢäºĽ
ä¸º åįķ
è¯ ¡
ä¸Ń ä½į
ä¸Ń åĩºçİ°
ä¸Ń å°ī
å¾ ³
èµ Ł
åĴĮ èĭ±åĽ½
æľĪ åĪ°
éĺ ±
æĭ Į
æ² ¥
æ² ¾
æ² Ĥ
è´ °
æĸ¯ å¯Ĩ
ä»ĸ ä¹Łæĺ¯
åĩº åİ»
ä¸ª äººçļĦ
çĶŁ è¿ĺ
ä¸į èĤ¯
ä¸İ å°ı
ä¹ĭ åĬ©
ä¹ĭ å£°
è¡Į åĪĹ
åĪĨ æĭĨ
èĢĮ ä¸İ
éķ¿ éĢĶ
é© ¼
ä¸ī æĮ¯
æĮ ļ
æľĢ å¼º
ä¸ľ éĿŀ
å¤ļ æľī
åı¯ ä½¿çĶ¨
æĸĩ åŃĲ
æĸĩ æīĺ
å¼Ģ å¿ĥ
é«ĺ æīĭ
çĲĥ è¡£
å»º å®ī
ä¸ĸ ç¥ĸ
åĨħ å¿ĥ
è° ¯
è½¦ ç¥¸
çŃī å¤Ħ
çŃī éĹ®é¢ĺ
å¹³ æĹ¶
ç§ĳ å¤ļ
ç§ĳ ä¸¾äºº
ä½Ĩ æľĢåĲİ
ä½Ĩ ä¹Łæľī
éĢļ é£İ
åŁİ ä¸Ń
ç¼ ®
åħ¨ æĸ°çļĦ
ãģ ļ
è¯¥ æ¸¸æĪı
ä¸¤ æĶ¯
éĥ½ å¾Ī
æĢ§ æĦŁ
æ°´ æ±ł
åĽĽ æ¬¡
åĽĽ æ®µ
æŃ£ åī§
è¿Ĳ è½½
æĢ» æĬķèµĦ
æīĭ èĩĤ
ä»İ ä¸Ģ
éŁ³ åĥı
åįİ ä¾¨
æİ¥ å¾ħ
èİ· éĢī
ç¥ŀ æĺİ
å®ŀ æķ°
çĽ´ ç«ĭ
é¦Ļ èķī
åĽ¢ åĳĺ
æ» ¦
å¥¥ åħ°
æĮĩ åĲį
å°ĳ ä½Ĳ
æŃ¦ åĬĽ
åıĸ èĥľ
é¦Ļæ¸¯ å¤§åŃ¦
èĭı å·ŀå¸Ĥ
çłĶ è®¨
å®ĥ ä¸İ
çĪ± ä¹Ĳ
åħĪ å¤©
17 0
ä¸»è¦ģ åľ¨
ä¸»è¦ģ ä»¥
ä»¥åıĬ åľ¨
æĬ¥ ä»ĩ
ä¹Ŀ ä¸ª
çĵ¦ è§£
ç»Ļ åĩº
ä¿® å¥³
å¾Ī å®¹æĺĵ
äº¦ è¢«
åħ´ ä¸ļ
ĠM ac
å®£ å¾·
å¤± åĪ©
çģ« çĥ§
åįĬ åħ½äºº
æĦŁ åıĹ
è®© å¥¹
ä¾§ çº¿
å¤ı æ´Ľçī¹
è´¹ å°Ķå¾·
éĵ¶ å¹ķ
æ°¸ æĺĮ
æµĭ å®ļ
æ³¨ éĩį
åģľ æĴŃ
æľĢç»Ī è¢«
åħ¬éĩĮ å¤Ħ
è®¡åĪĴ åľ¨
åĮĹäº¬ åħ¬äº¤
å·²ç»ı æľī
å²© æµĨ
è¡ĮæĶ¿ åĮºåŁŁ
çİī åĦ¿
è¿½ è¸ª
æ¯Ĵ åĪĥ
åĤ į
åĨ² åĪº
æĭľ è®¿
æĿĲ è´¨
ä¹Ķ æľ¨
ĠW h
äºĭä»¶ ä¸Ń
åīĳ å®¢
la d
æİ§åĪ¶ æĿĥ
åħħ å½ĵ
å®¡ çĲĨ
æįķ é£Ł
åĬª å°Ķ
è¿ĺæľī ä¸Ģä¸ª
ä¸īåįģ åħŃ
ä¸īåįģ äºĶå¹´
çĶ·åŃĲ åįķæīĵ
åĳ¼ åĲģ
ä¾µ çĬ¯
è¯¯ å·®
è¶ħçº§ èĭ±éĽĦ
æ¡ĥ èĬ±
Ð¸ Ñĩ
åħ¬åħ± èĩªè¡Įè½¦
ä¸ľéĥ¨ çļĦ
188 1
åľ°çĲĥ çļĦ
Ġb y
æĬ¥åĳĬ ä¹¦
å¸¸è§ģ äºİ
æķĻåĮº ä¸»æķĻ
æķĻåŃ¦ æ¥¼
çŃ¹ å»º
ãĥ¼ãĥ ī
å¡ĳ æĸĻ
çł² åħµ
ç¥ŀç»ı åħĥ
å¤ĸäº¤ å®ĺ
å¼¯ éģĵ
çªĹ æĪ·
æŃ¥åħµ ç¬¬
æłı çĽ®
éĽĩ ä½£
éķ¿åº¦ ä¸º
å¸ĥèİ± æģ©
ä¼ª è£ħ
è½¬ä¼ļ è´¹
æ£ĴçĲĥ éĢīæīĭ
åĳ¨å¹´ çºªå¿µ
è¿Ļé¦ĸ è¯Ĺ
æľŃ å¹Į
åĽļ ç¦ģ
è¿½æº¯ èĩ³
çĹķ è¿¹
åĢ¼å¾Ĺ æ³¨æĦı
ä¸ĢçŃī å¥ĸ
æ©¡ èĥ¶
å¼Ĺåħ° åħĭ
æ·ĩ æ·ĭ
ĠRo ad
çĭ© çĮİ
æ³½è¥¿ å·ŀ
éªł éªĳ
è¯ł éĩĬ
ãĤ·ãĥ§ ãĥ³
è´ĿåĨħ æĸĩæīĺ
ģâĶ ģâĶ
ä¾ĭè¡Į èµĽ
åŃĶæ³° å¤§åĮº
è´Ŀé½Ĳ å¯®
çĤ¼éĩĳ æľ¯
) :
A åŀĭ
I F
I s
N R
T r
i ra
n y
² æŁĵ
ì §
Ġ è¢«
Ġ ä¼¯
Ġ åºĨ
Ġ éº¦
Ġ et
Ġ 100
ï¼Į ãĢĪ
çļĦ ä¸ªäºº
çļĦ è®°è½½
çļĦ è§ĤçĤ¹
çļĦ åı¯èĥ½æĢ§
å¤ Ķ
åĲ ¡
å¹´ åıĤåĬł
å¹´ ç§ĭ
ä¸Ģ æĪĺ
ä¸Ģ æŀ¶
åĮ Ĥ
æĺ¯ éŁ©åĽ½
æľī ä¸ª
æľī è¿ĩ
æľī åĬŁ
åĴĮ åŃĲ
éĻ Ľ
æĹ¥ åĩº
æĹ¥ æİ¨åĩº
åĲİ åĨį
äºĨ åħ¶
åľ° åĬ¿
åĩº åĩ»
éķ į
ä¸į è¶ħè¿ĩ
ä¸İ ä»ĸçļĦ
æ¸ ²æŁĵ
ä¹ĭ å¿ĥ
åħ¬ åİĺ
è¥¿ æģ©
åĪĨ éĥ¨
èĭ ĩ
èĢĮ å¯¼èĩ´
å¹¶ çĶ¨
èµĽ åĴĮ
å¸Ĥ äººæ°ĳæ£Ģå¯ŁéĻ¢
ä¸ľ ç«¯
åĮĹ èĩ³
äºļ åĪ©æ¡ĳéĤ£
æĸĩ ä¸Ń
æĸĩ åħ¬
æ³ķ å±ŀ
çī© æĿĥ
å¼Ģ èĬ±
è¿Ļ ä¸¤ç§į
äºĮ ä»£çĽ®
å¯¹ ä¸Ĭ
å¾Ĺ å¤ļ
å°ı æĹ¶åĢĻ
é©¬ åĪ©äºļ
åħ¥ å£°
ãĢį (
éĵ ł
åĲĪ ç§°
åı° çļĦ
å¹³ åĴĮ
ç«Ļ åīį
å¸ĥ å®ľ
ç§į åĲį
éĢļ æĶ¿
åħ¨ å®¶
èĢħ åľ¨
åİŁ çĶŁ
éĩį åĪĽ
åĽĽ éĥİ
ç±³ é«ĺ
éĺ¿ æĭīæĸ¯
è¾¾ æĸ¯
ä¸ŃåĽ½ åı¤ä»£
é¾ ļ
æ· ŀ
è£ ĺ
12 8
æ²³ æ°´
äº§ äºİ
æİ¥ çº³
äº¤ äºĴ
å·´ è¾¾
çĭ ł
è¯´ åĩº
å®ŀ å½ķ
è®® ä¼ļè®®åĳĺ
æ¸¸ çī§
ç¿ Ł
è§Ĵ çļĦ
å·² ä¸į
åĩ» èĲ½
æĿİ åĩ¯å°Ķ
æŃ¦ èĹı
ç¬¬ä¸Ģ ä¸ŃåŃ¦
åıĸ åĲį
åľ£ æĸĹå£«
æĻ® éĻĢ
åĽ½å®¶ å®īåħ¨
åħµ éĥ¨å°ļä¹¦
ç¦ı æĻĭ
è½¬ ä¸ľåĮĹ
è½¬ åĮĸä¸º
åı¯ä»¥ ä»İ
åıĪ ä»¥
è§£ è¯´
æĶ¾ åħ¥
å¤į åİŁ
ç¦» ä¸ĸ
åįļ å°Ķ
ç»Ī æŀģ
æ±ī ä¹¦
çĵ¦ å°¼
æ¹¾ ä»Ķ
æºĲ å¤´
åįı åĬĽ
ä»ĸçļĦ åĲįåŃĹ
é»ĳ çĻ½
è½¦ç«Ļ çļĦ
çıŃ æ¬¡
èİ± å°Ķ
åį° æ¬§
èĪª è¿Ĳ
æĻ¯ æķĻ
æ·± å¤Ħ
åĽłæŃ¤ è¢«
çº¢ éĽĢ
ç´¢ ä¼¦
ç´¢ å¼ķ
æĦŁ åħ´è¶£
åĲĮæĹ¶ åľ¨
å¾ģ è®¨
ol f
ä¾¿ åľ¨
å®Ŀ é¸¡
èĮĥ çķ´
æĸĩåĮĸ å±Ĥ
å¯Į è±ª
èįī æľ¬
è¾ĳ ç¬¬
å¹² æ¶ī
èİ« çī¹ç»´å°Ķ
æİ§ çĲĥ
ĠF l
ä¾Ŀ æ¬¡
èĭ¥ çĳŁ
ĠR es
è½» åŀĭ
é¡¶ çº§
äºĮåįģ ä¸ĥå¹´
è´µ å¦ĥ
ç»Ŀ æľĽ
os p
æł¸ èĭ
éĶ¦ å·ŀ
å®½ çº¦
æºª åİ¿
è´¢ ç»ı
èĬ¬ å°¼
ç¬¬åĽĽ åĲį
èĨ ³
å¥³åŃĲ åįķæīĵ
æī© åħħ
è®¿ è°Ī
èĥ½åĬĽ çļĦ
èĲ§ å¶·
éĢīæĭ© äºĨ
éĤ® ç¥¨
éĤ® è½®
æĦ¿ æľĽ
çļĦå¥³ äºº
ä¸ľäº¬ çĶµè§Ĩåı°
åĳ¼ åĴĮ
çº½çº¦ æĹ¶æĬ¥
æĴŃåĩº æĹ¶éĹ´
ĠSt ates
æİĴåĲį ç¬¬ä¸Ģ
ç¬Ķ è°Ī
çİĦ å®Ĺ
å¤©ä¸»æķĻ ä¼ļ
æĢª åħ½
æĥĬ å¥ĩ
æĥĬ æĤļ
èĮ¶ åı¶
åıĽ åĨĽ
æĹģ çļĦ
åįĵ èĢĢ
Ġ198 5
Ġ198 9
èĬĿ å£«
ç¨İ æĶ¶
å¤ªå¹³æ´ĭ åĮº
æİī äºĨ
éĹª è¿Ī
åŁºåĽł ç»Ħ
Ġv s
æĩ Ĵ
ç¿ł ä¸Ŀ
è¯ģæĺİ äºĨ
åĽĽåįģ åĽĽå¹´
ç²Ĺ ç³Ļ
åĽ½éĺ² éĥ¨
å¤§éĺª å¸Ĥ
ç«ŀäºī å¯¹æīĭ
èµ¶ åĪ°
ä¸Ľ æŀĹ
é¾Ļç§ĳ çļĦ
é£ŁçĶ¨ é±¼
èĤº çĤİ
ĠEn ter
çĪ¬ è¡Į
åİ¨ æĪ¿
æŃ£ç¡® çļĦ
æ¸¸åĩ» éĺŁ
åĲįåı¤å±ĭ å¸Ĥ
å°¼åı¤æĭī èĢ¶å¤«
çĶµåĬ¨ æľº
ä¾ı åĦĴ
éĶ¯ é½¿
é¹¿åĦ¿ å²Ľ
å¤Ħå¥³ ä½ľ
åı°æ¹¾æ¸ħæ²»æľ«æľŁ èĩ³æĹ¥æ²»
âĺ Ĩ
å¼ĹæĭīåŁº ç±³å°Ķ
å®ĪéĹ¨ åĳĺ
ç§ĳç½Ĺæĭī å¤ļ
è´Ŀå¤ļ èĬ¬
éº¦è¿ª éĢĬ
ç§ĳå¤ļ å°Ķçľģ
æ¯ĴåĪĥ ä¸īéĥİ
å¸ĥå®ľ è¯ºæĸ¯
A s
J D
J ack
P eter
R M
R O
c l
g a
i h
o us
t t
u f
w a
í ķ
Ġ ä»İ
Ġ éĺ¿å°Ķ
çļĦ è¯Ńè¨Ģ
çļĦ ç»Łæ²»
çļĦ åŃ©åŃĲ
çļĦ æľĢåĲİä¸Ģ
å¹´ æİ¨åĩº
ä¸Ģ æī¹
ä¸Ģ æĸ¹éĿ¢
ä¸º ä¸¤
ä¸Ń æŃ¢
ä¸Ń åĶ¯ä¸Ģ
æĺ¯ éĿŀ
å¤§ ä¸ļ
æľī ä¸įåĲĮ
æľĪ ä¸ĭæĹ¬
æĹ¥ åĲĳ
åĲİ åĶĲ
åŃ¦ è¯´
åŃ¦ å¾Ĵ
æ³ ¸
ä»¥ èĩ´
ä¼ļ è§ģ
æŀ £
ä¸į æĥ³
ä¹ĭ åŁİ
èĥ ĸ
è¥¿ åŁŁ
æİ ³
èĢĮ æ²¡æľī
å¹¶ éĢļè¿ĩ
åįĹ ç«Ļ
çī¹ è®¸
éķ¿ å®Ĺ
ä¸ĭ ä¸Ģä¸ª
æľĢ ä¼Łå¤§çļĦ
ä¸ľ é£İ
ä¸ľ å²¸
å² ¬
èĩª å¹¼
äºĮ åº¦
äºĮ åİħ
åĬł å¤§
çĶµ æºĲ
åĪ© çī¹
æīĢ ä½¿çĶ¨çļĦ
æķĻ ä¼ļçļĦ
å°Ĩ æĪĲä¸º
æľº éķ¿
å®ļ èĢĥåı¤éģĹåĿĢ
éĩį åĽŀ
æł¼ æĸĹ
æ°´ éĿ¢
æį ¡
æĺİ çĻ½
åŁº æĸ¯
åħ° æĸ¯
éĺ¿ è¾¾
éĺ¿ è´Ŀå°Ķ
éĺ¿ éģĵå¤«
åı¸ éĥİä¸Ń
æ²» å®ī
é¦ĸ åĳ¨
åħ± è®¾
èµ· çļĦ
æ¸¯ åı°
åįİ è£Ķ
åıĤ éĺħ
æĹł æķĮ
æĴ ĥ
æİ¥ ç§į
å·´ ä»Ģ
èİ· é¢ģ
åĮħ è£¹
11 6
å¥¥ åħĭåħ°
æ¸¸ è®°
å¥¹ äºİ
åºĶ ä»ĺ
ä¼Ĭ äºĪ
æĻ® é¡¿
æīĵ äºĨ
æ³¢ åĪĹæĸ¯
åı¯ä»¥ æĺ¯
å±Ģ éĿ¢
é¸ «
åĦ¿ å¥³
é»Ħ æĹĹ
ä»Ĭ æ²³åįĹçľģ
æ°Ķ è´¨
ç¬¬äºĮ éĥ¨
å¡Ķ æĸ¯
å¡Ķ æĭī
åħļ éĥ¨
å¼º å¥¸
ä¼¦ å·´
ä¼¦ çº³å¾·
åĻ¨ æĿĲ
el s
æľ¨ è´¨
é»ĳ å°Ķ
å¯Ĩ èĭıéĩĮ
èĲ½ åľ¨
è¯º ç»´å¥ĩ
èĩªå·± æĺ¯
èĪª ç«Ļ
å¤± æľĽ
æ¦ ķ
æİ¨ è¿Ł
éĩİ æīĭ
çĳŀ æģ©
ä¾¿ ä¼ļ
ä¸½ èİİ
çīĮ ä½į
æĸĩåĮĸ åĴĮ
æĺ¾ çĦ¶
èĪ¹ éĺŁ
ç®¡çĲĨ å§Ķåĳĺä¼ļ
åĲ´ æĽ¦
ĠF ormation
çļ® å°Ķ
èĢ¶ å¨ĥ
æ²¿ çĿĢ
æľįåĬ¡ ä¸Ńå¿ĥ
æ£Ģ è®¨
åĲ¯ ç¤º
åĩ¯ çĳŁ
èģĶåĲĪ æĶ¿åºľ
åĬ³ æĸ¯
æĿĤ äº¤
ĠW illiam
åģĩ æľŁ
èµĽåŃ£ ç»ĵæĿŁåĲİ
æķĳ äºĨ
ç£ Ĳ
ãĢı ãĢĤ
æŀª æ¢°
å¿ł è¯ļ
ad y
èĶ Ĺ
æ£ĭ æīĭ
æĪ´ ç»´
åĪĬ çĻ»
è®¨ åİĮ
ä»Ļ å¥³
æ¯ģ åĿı
ä»Ķ åºĦ
åįļå£« åĲİ
è£ģ å®ļ
æģĭ äºº
å¼ĢæĶ¾ çļĦ
æļĤ ç¼ĸ
æµģè¡Į æĸĩåĮĸ
186 4
åŃ¦èĢħ è®¤ä¸º
åĬŀåħ¬ åİħ
åĲĮæł· çļĦ
åı¥ è¯Ŀ
åĩłä¹İ æīĢæľī
è½¦è¾Ĩ æ®µ
ä¸§ çĶŁ
åĽ½å®¶éĺŁ çĶŁæ¶¯
æĮĤ åľ¨
å¹½ çģµ
èĥİ åĦ¿
æ¸Ķ ä¸ļ
ä»¥å¤ĸ çļĦ
åĳ¨åĽ´ çļĦ
å¯Ĵ åĨ·
çĲĨäºĭ éķ¿
ç«Ł çĦ¶
æĳĨ èĦ±
ç¾İä¸½ çļĦ
åı¸èģĮ åīįéĶĭ
éĹ½ åįĹ
å§¿ åĬ¿
æ°¯ åĮĸ
åĨħèĴĻåı¤ èĩªæ²»åĮº
åĨ¶ éĩĳ
è¯¸èĳĽ äº®
æľīçº¿ çĶµè§Ĩ
è¯Ľ æĿĢ
éľī ç´ł
å¥ł åŁº
çĶºæĿĳ åĪ¶
ä¸ºè¾Ĳé³įé±¼çº² é²Īå½¢çĽ®
éĩĳåĥı å¥ĸ
ãĤĩ ãģĨ
åŃµ åĮĸ
éĴ¥ åĮĻ
æ°ĳå»º èģĶ
æĪĺåĪĹ èĪ°
åĲ¸è¡Ģ é¬¼
éĸ ¢
ç³ĸå°¿ çĹħ
æį·åħĭæĸ¯æ´Ľ ä¼Ĳåħĭ
æ³¢åĪĹæĸ¯ çĵ¦å¤«
M on
R e
W A
Y O
v ille
Ã ´
Ġ éĽ·
Ġ ï¼į
Ġ æ³°
Ġ ï½ŀ
Ġ æŁ³
çļĦ æľĢåĲİ
çļĦ äºĭä»¶
çļĦ åĵ¥åĵ¥
åħ Ģ
å¹´ äºĮæľĪ
å¹´ æĪĲç«ĭçļĦ
å® µ
å® Ł
çĶ ¬
æĪ į
åľ¨ éĤ£
åľ¨ æ¸¸æĪıä¸Ń
ä¸Ģ è¡Į
ä¸Ģ çıŃ
ä¸º ä¾ĭ
ä¸Ń éĺŁ
ä¸Ń åıĳçİ°
æĺ¯ æ¬¡
å¤§ ä¸»æķĻ
æľī åĲį
æľī åı²
æľī ä»¥ä¸ĭ
æľī ä¸įå°ĳ
éĢ Ĺ
åĴĮ å£°
å¯ Ŀ
æĭ Ĳ
æ² ħ
æµ ĩ
æĸ¯ éļĨ
ä¸į æĺĵ
ä¸į æ¸ħæ¥ļ
éĿ ¶
ä¸İ åĲĮ
ä¹ĭ ä½ľ
åħ¶ ä¸»è¦ģ
æľ¬ åŃ£
åĨĽ æĸ¹
é¢ Ĭ
çī¹ çº³
é© ¸
å¾· çº³
åħĭ ä»Ģ
åı¯ ä¹Ĳ
é«ĺ æ¸ħ
åīį ç§¦
éĩĮ å°Ķ
èĬ ®
åĬ¨ æľº
ä¹Ł å°±
å°ı çĽĹé¾Ļ
æµ· æĬ¤
ç¾İ å°ĳå¥³
å¤© ä¸Ĭ
æķĻ åıĭ
é©¬ å¸Ī
è¿Ľ ä¿®
è¿Ľ é©»
è¿ĩ æĿ¥
å°Ĩ è¯¥
è¦ģ åľ¨
è¦ģ ä¹Ī
å·¥ åŃ¦éĻ¢
çĲĨ æĢ§
å¹³ åĩ¡
å¸ĥ è¾¾
å½ĵ äºĭ
æĦ ģ
æģ µ
éĩį åıł
å£« åĿ¦
ãĤ ¶
æ°´ æµģ
çĽ¸ æľĽ
çĽ¸ éļĶ
æĺİ æľ«
ç±³ å°¼
èĭ± å®Ĺ
åħĥ å¸Ŀ
æĢ» åıĤè°ĭéĥ¨
æīĭ æĮĩ
åĢ Ń
æ¶ ©
æĽ¾ å¤ļæ¬¡
æĺŁ ç©º
æĺŁ èĪ°
äºĶ è¡Į
åı¤ æĭī
åı¤ çĮ¿
ç»´ åĲī
çŁ³ å®¶åºĦ
å¤ª åŁº
ä¼ł åĩº
çı ĳ
æµģ ç¨ĭ
æ±Ł å®ģ
æ¸¸ çİ©
å¥¹ è¢«
åħī èĬĴ
éķĩ æµ·
åĩ» æ²ī
çĵ ¯
æŃĮ åī§éĻ¢
å¸¦ èµ°
ä¼Ĭ èİīèİİçĻ½
ç¬¬ä¸Ģ ä¹¦è®°
åĽ½å®¶ åĴĮ
é£İ éĢŁ
çĳ Ľ
äº² å±ŀ
åħĪ çŁ¥
èı ĩ
es is
ç¬¬äºĮ çĻ¾
æĬ¥ åĲį
è§Ĥ å¿µ
ä¹Ŀ åı·
ĠC ount
éļı åĲİçļĦ
èīº åĲį
æĪĳ éĥ¨
å¤ĩ åıĹ
è´Ŀ èĴĤ
é»ĳ èī²çļĦ
çĹħ åİŁ
æīĺ åĪ©
ĠM art
å¤± ä¸ļ
æ¨¡ èĮĥ
åĪĺ æ°ı
çİ¯ çĬ¶
ĠA b
å¢ŀ å¤§
åı¯èĥ½ æľī
æ¯ĶèµĽ æĪĲç»©
æķĪ çĽĬ
éĩĩ çŁ¿
ç«ł èĬĤ
æ»¡ è´¯
æĲ ħ
èī¾ ç¾İ
åģľ ç«Ļ
åģľ æ³Ĭ
ĠH igh
ç®¡çĲĨ åŃ¦éĻ¢
æīĢæľī äºº
ĠR iver
åİĭ åĪ¶
ä¸° çĶ°
çļĦäºº ä»¬
os h
å®£å¸ĥ å°Ĩ
åĬ³ æģ©
æĻº åĬĽ
ä¿Ħç½Ĺæĸ¯ çļĦ
çī¹åĪ« çļĦ
èĥŀ èħĶ
ç«¹ ä¸ľ
æļ´ éĽ¨
è§ī ç½Ĺ
æİ§åĪ¶ åĻ¨
æĢĢ çī¹
ç½ª è¡Į
ä¾¯ çĪµ
çİ°ä»£ ä¸»ä¹ī
ä¹Ļ çĥ¯
è¿¹ è±¡
å¤©æ´¥ åĮ»ç§ĳå¤§åŃ¦
èµı è¯Ĩ
åĲ¬ è¯´
è®¢ è´Ń
éº» çĥ¦
é¹¿ å²Ľ
éĺ» æĮ¡
æĺ¾ç¤º åĩº
Ġd u
Ġd es
ä¹ĥ èĩ³
ak a
ab le
æģ¢å¤į äºĨ
ç»ıèĲ¥ çļĦ
éŀ ĺ
ç»¼åĲĪ å¾ģ
å»ºæĪĲ åĲİ
åİŁæľ¬ æĺ¯
ãĥ© ãĤ¤
æľīæĹ¶ ä¼ļ
æĮĤ çīĮ
çŀ Ĵ
æĭ³ åĩ»
187 3
ä¸īè§Ĵ æ´²
åŃ¤ ç«ĭ
ç½ļ æ¬¾
åıĸæ¶Ī äºĨ
ç¨ĭåº¦ çļĦ
åĽ½ç«ĭ å¤§åŃ¦
çĭŃ éķ¿
æģŃ ä¸Ģ
æĸ© é¦ĸ
çŁ¥è¯Ĩ äº§æĿĥ
åħ¶å®ŀ æĺ¯
è¿¦ å¤ªåŁº
åį³ä½į åĲİ
çĭĲ çĭ¸
ä½Ľç½Ĺ ä¼¦
æ³¢ç½Ĺ çļĦæµ·
æĨ ¾
åį¸ ä»»
æ¡ĥåĽŃ å¸Ĥ
èĩĢé³į è½¯æĿ¡
é¸¦ çīĩ
å¥¥æīĺ ç±³
èł ķ
åĪĹå®ģ æł¼åĭĴ
ìĿ ´
èº² éģ¿
ä¹Įæĭī åľŃ
çĶ°çº³è¥¿ å·ŀ
CR H
é©»æīİ åľ¨
çŃł è¿ŀ
åħīç¦Ħ å¤§å¤«
åıªåī© ä¸ĭ
éĢłèĪ¹ åİĤ
duc tion
ä¼Ĭå¤ļ è¯Ń
å¤§åŃĹäº¦æĶ¹åĪ¶ä¸º æĿĳ
éº¾ ä¸ĭ
æķ£éªĳ å¸¸ä¾į
ãĥĨãĥ¬ ãĥĵ
åįĵèĢĢ åĽ½
1 100
B ç»Ħ
F L
G B
L C
L in
M ule
N a
k o
o ice
p m
r im
Â ²
Ã º
ë °
Ġ åħŃ
Ġ at
Ġ çĪ¶
Ġ åºĦ
Ġ æľ´
çļĦ S
çļĦ åĶ¯ä¸Ģ
çļĦ ç§ĺå¯Ĩ
å¹´ èĢģ
ä¸Ģ çīĩ
ï¼Ī #
ï¼ī ãĢĭ
å¸ ĺ
ä¸Ń éĵģ
ä¸Ń æ®µ
åĽ½ åĨĽ
äºº éĢī
å¤§ éĥ½
å¤§ çŁ³
äºİ ä¸Ģ
æľī æ¯Ĵ
åĴĮ è§£
åĴĮ ä¸ĢäºĽ
æĹ¥ åĩĮæĻ¨
åĲİ ä¸º
åŃ¦ è´¹
è´ ®
æĹ¶ æīĢ
æĸ¯ å¾·
ä¸Ĭ éĻĲ
ä¸ª æĿĳæ°ĳ
éĥ¨ ä¸º
ä¸į åºĶ
ä¸İ çİĭ
è¡Į ä½¿
åħ¶ ä¸İ
åıĳ æĢ§
æľ¬ åĵģ
çī¹ éĽ·
çī¹ æĿĥ
ä¸ľ éŃı
å¤ļ ä»¥
å¤ļ åħĥ
æĸĩ æŃ¦
å¼Ģ åı£
å¼Ģ æĭĵ
é«ĺ åħ´
è¿Ļ æĶ¯
ä¸ĸ çļĦ
ãĥ Ľ
ä»£ ä¹ĭ
æīĢ çļĦ
æīĢ èĳĹçļĦ
åĽł ä¼¤
å°ı çĶ°
å°ı ç¬łåİŁ
æµ· æ»¨
ç¾İ åŃĲ
é©¬ éŀį
å°Ĩ è¿ĳ
åĲĪ èµĦ
ä½ĵ ä¼ļ
å¹³ ç«ł
ç«Ļ åľº
å¸ĥ ä»Ģ
éĿ¢ è¯ķ
å®ī æĬļ
ä½¿ ä¹ĭ
ç³ Ł
åħ¨ çľģ
è¯¥ å·ŀ
è¯¥ å²Ľ
æł¼ èİ±
çĤ ¯
çĤ ľ
ãĤ Ģ
åı² ä¹¦
åı² ä¸¹
å¥³ å·«
æŃ£ å¦Ĥ
ç³» ä¸»ä»»
æķ° å¹´
éĺ¿ åħ¹
éĺ¿ ä»Ģ
18 53
åħĥ é¦ĸ
é¦ĸ åľº
ç»Ł çŃ¹
æ²³ å·Ŀ
æĿĳ åĴĮ
éĹ¨ ç«Ļ
éĹ¨ å¾Ĵ
æİ¥ åĬĽ
ar m
äºĶ åĵģ
äºĶ æ®µ
æıĲ åĢ¡
åı¤ æĸ¯å¡Ķå¤«
åŀĭ åı·ä¸º
çĥ ĺ
åį¡ æĸ¯çī¹
ä¼ł éĹ»
å¤Ħ å¤Ħéķ¿
æľĿ åĲĳ
åħī çļĦ
çĻ½ äºĳ
åŃĹ å½¢
æĿİ æĸ¯çī¹
æĹ¥æľ¬ æµ·åĨĽ
é¦Ļæ¸¯ æĶ¿åºľ
é¦Ļæ¸¯ è¶³çĲĥ
åĽ¾ çģµ
æ²¡ æĶ¶
åİĨåı² åįļçī©é¦Ĩ
åº§ æ¤ħ
ä¸»è¦ģ åĪĨå¸ĥäºİ
åĨį è§ģ
å¤į æĹ¦
ç¬¬äºĮ å¤§
ç¬¬äºĮ æľŁ
åįļ ç½Ĺ
å·Ŀ å¸Ĥ
åħ¶ä»ĸ äººçī©
æ´¾ éĢĴ
ä¿® æĸ¯
å¾Ī å°ı
åĬŁ å¤«
å®¢ æµģ
éĻ¤ å¤ĸ
æīĺ éĩĮ
ĠM y
ĠM al
èĩªå·± åľ¨
é£Ł éĤĳ
çº¢ è¢ľ
ç´¢ å§Ĩ
äºĳ æĭ¿
åĵ¥ æľ¬
åī¯ ä¼ļéķ¿
åī¯ éĥ½ç»Ł
åĿĩ åĮĢ
å¢ŀ èĩ³
am er
ä¾¿ äºİ
çľĭ åĩº
åŁĥ æĸ¯
æ°¸ ç¦Ħ
äººåı£ æľī
èįī é£ŁæĢ§
åĲİæĿ¥ åıĪ
ä¹Į åħ°
ç»Ĩ å°ı
éħĴ åĮĤ
æĬĬ å®ĥ
ç§» èĩ³
éĢĢ ä¼į
é¢Ħ æĬ¥
ĠH ill
ĠL ive
ç®¡çĲĨ çļĦ
ç¡® å®ļçļĦ
ä¼ĺ åĮĸ
ä¼ĺ è´¨
ç¯ ·
ä½Ĳ ä¼¯
èĢ¶ ç»´å¥ĩ
è¡Ģ ç³ĸ
é¡¶ çĤ¹
ä¸° åİŁ
äºĮåįģ äºĶ
æķħäºĭ å¤§çº²
è¿½ æĿĢ
åĶ® åĩº
à¸ ´
è§Ĵèī² æī®æ¼Ķ
å¾® åĮĹ
åį· é¡»
ra y
ra ph
æķĮ å¯¹
èģļ å±ħ
èµĽåŃ£ çļĦ
ç©Ĩ èĲ¨
st ein
ä¸ªäºº ä¸ĵè¾ĳ
çĸĹ åħ»
å¿ł ä¹ī
å¾ĹåĪ° çļĦ
åŃ© åŃĲçļĦ
åºŁ åįģäºĮåİħ
ç¬¬åĽĽ åŃ£
ç¬¬åĽĽ å±Ĭ
åĪļ å¥½
èĩªçĶ± æ³³
èµŀ æĪĲ
æŁĲ ä¸Ģ
ä¾į ä¸ĭ
è¾Ľ è¾¾
ay a
è®Ńç»ĥ åŁºåľ°
ĠO ne
çĶ·åŃĲ åıĮæīĵ
Ð¾ Ð½
ri ed
çĺ ¦
Ġ198 4
éģį å¸ĥ
æ·® æµ·
åĪĽç«ĭ äºĨ
ĠIn ternational
å»¶ä¼¸ åĪ°
åįĹæĸ¹ åı¤çĮ¿
æº¶ åīĤ
åī© ä¸ĭçļĦ
å¡« æµ·
äº¿åħĥ äººæ°ĳå¸ģ
åĿĤ æľ¬
æ±Ŀ æĭīçľģ
JR è¥¿æĹ¥æľ¬
ãģķ ãĤĵ
åĩºåľŁ çļĦ
å¯¹å¤ĸ å¼ĢæĶ¾
ä½įäºİæ³ķåĽ½ åĭĥèī®ç¬¬
æĥ¯ ä¾ĭ
å¼ĵ è£Ķ
å¹´ç¾İåĽ½ äººåı£æĻ®æŁ¥
èµĮ åľº
æĳ§æ¯ģ äºĨ
å±Ĭåħ¨åĽ½ å§Ķåĳĺä¼ļ
æĳĶ è§Ĵ
ca de
åĵĪéĩĮ åıĳ
é¢ĦåĳĬ çīĩ
é©¬åħĭæĢĿ ä¸»ä¹ī
æĶ¹è®¾ äºĶå·ŀ
åĪł éĻ¤
æĭ¦ æĪª
åŁİéĻħ éĵģè·¯
ä»£è¨Ģ äºº
è¶³åĪ© ä¹ī
åīĳæ¡¥ å¤§åŃ¦
åıĺéĢŁ ç®±
äºļä¼¯ æĭīç½ķ
çī¡ ä¸¹
ç½Ĺæ£® å¡Ķå°Ķ
æ³¢å¤ļ é»İ
å¡ŀæĭľ çĸĨ
æ¶ħèĮ¨ åħĭ
å½Ĺ æĺŁ
åĵĪèĲ¨ åħĭæĸ¯åĿ¦
åĩ¯çĳŁ çĲ³
äºĳæĭ¿ ä¿Ŀ
åºŁåįģäºĮåİħ æĶ¹è®¾äºĶå·ŀ
åºŁåįģäºĮåİħæĶ¹è®¾äºĶå·ŀ äºĮåİħ
4 10
7 50
I E
M al
R ichard
T P
T ay
b l
b o
s w
v ent
Ã ¢
Ä «
Ñ ħ
Ñ Ī
Ġ åĮº
Ġ å®«
Ġ 30
Ġ èĢģ
Ġ çīĽ
Ġ éŁ©åĽ½
Ġ åĪ¶ä½ľäºº
Ġ åİŁä½ľ
Ġ âĸł
çļĦ æ¯Ķ
çļĦ éŁ³
çļĦ å»ºè®¾
çļĦ éĢīæīĭ
å¹´ åıĪ
å¹´ å¹¶åħ¥
æĺ ±
è¿ ©
ä¸º çĲĥéĺŁ
ä¸º éŁ©åĽ½
åĮ Ŀ
ä¸Ń è¥¿
ä¸Ń ä½¿çĶ¨
æĺ¯ æĦıå¤§åĪ©
åº ¾
å¤§ æĢĴ
å¤§ ç¢Ł
èµ Ī
æŃ ©
åĴĮ éĩĳ
åĴĮ çº¦
æĹ¥ åĩºçĶŁäºİ
æĹ¥ åĩºæĪĺ
åĲİ åĭ¤
åŃ¦ åİĨ
åŃ¦ æ´¾
çĲ Ĳ
æĪĲ éĥ½å¸Ĥ
ä¸Ĭ è¡Į
ä¼ļ ç¨½
æĢ ľ
çĶŁ æŃ»
ä¸į åģľ
ä¸İ ç¤¾ä¼ļ
ä¹ĭ å¦»
åĲį æ¬¡
ç¬¬ æĸ¯
åħ¬ äº®
è¡Į æĢ§
æľ¬ èĬĤçĽ®
è¢« ç§°ä½ľ
åįĹ è¶Ĭ
åįĹ æ´ĭ
çī¹ æľĹ
éķ¿ ä¸º
ä½į ç´ł
ä¸ī éĹ´
æĮ Ł
åĲĮ å¿Ĺ
ä¸ľ åı¯åīįå¾Ģ
èİ ª
åı¯ çĶ±
çĲĥ çļĦ
æĸ° æ½Ł
åĪ© é½Ĳ
å±± ä¹¡
å±± èĦļ
èĩ³ å°Ĭ
æīĢ ç¤º
æīĢ è¿°
åĽł åľ¨
åĨħ ä¾§
å¤© èĬ±
æķĻ çļĩ
ç»ı æĸĩ
æŃ¤ ä¹¦
å°Ĩ å®ĥ
åı° éĵģ
å¸ĥ éĩĮæĸ¯
å½ĵ ä»ĸ
å½ĵ åľº
å¤ĸ åŀĭ
è¯¥ èĬĤçĽ®
è¯¥ é¡¹çĽ®
éĩĳ åĨĽ
éĩĳ éĻµ
ä¸¤ è¾¹
åİŁ å®ļ
åı² èĢĥ
å¥³ çĶŁ
å¥³ çľŁ
åĽĽ åįģä¸Ģå¹´
æĺİ çļĦ
éĺ¿ éĥ½
éĺ¿ æ³¢
éĺ¿ åĬª
å°¼ è¯Ĺ
èī² æĥħ
18 56
åĪĹ æĶ¯
æŀĹ åĺī
æīĭ å¥Ĺ
æĶ¹ çīĪ
é¥ ª
è¯Ń æĸĩ
å¹¿ çĶµ
æĺŁ çŁ¢
æıĲ åıĸ
æıĲ æ¡Ī
æıĲ æĭĶ
å¤ª çĽĳ
å²Ľ æł¹
ä¸ĩ å¯¿
åįķ åŃ£
å¯¼ ä½ĵ
å¸Ī åĤħ
ç®¡ å®¶
åĽŀ ä¹¡
å¤´ ä¸Ĭ
åħ¬åı¸ åľ¨
ä¿¡ å¿ĥ
ä¿¡ ä»¶
å±ķ åĵģ
æŃ¦ ä¾ł
ç¬¬ä¸Ģ æľŁ
æĻ® æĸ¯
åħµ è´¥
ç¦ı æĸ¯çī¹
æ¸ħ åĪĿ
ä¸ĵ å±ŀ
æłĩ çŃ¾
è§£ éĶģ
é»Ħ ä½ĵ
é»Ħ èĬ±
ç¬¬äºĮ ä½į
è´¨ åŃĲ
åħļ å§Ķ
ç½® ä¿¡
æĬķ éĿł
ä¿® éĻ¢
èĲ¨ å§Ĩ
äººæ°ĳ å§Ķåĳĺ
åĺ ±
æ²Ļ æĭī
åįı åĴĮ
æĪĳ æľĢ
åħ´ éļĨ
æł· åĵģ
èİ± æĺĤ
è¨Ģ è®º
æ·± èī²
åĽłä¸º ä»ĸä»¬
å±Ĥ æ¬¡
åĽ´ åŁİ
æİ¨ æĸŃ
æĽ¼ æģ©
ç¾¤ çļĦ
èģĶèµĽ çĲĥéĺŁ
åī¯ ä¹¦è®°
åºĵ å®¹
åºĵ åħ¹
åıĭ æĥħ
è®© ä»ĸä»¬
åĨĻ ä¿¡
ĠB ro
æ¥¼ éĿ¢
éĺ² å¤ĩ
ä¿Ħ æ¯Ķäºļ
æķĪ å¿ł
æī¿ è½½
æ°¸ åĴĮ
ur n
æĺ¥ æĻļ
è¿Ļä¸ª è§Ĵèī²
ĠT own
åį´ ä¸į
èµ° ç§ģ
ç¡® è¯Ĭ
æłĳ çļĦ
çļ® åį¡
çļ® æ´Ľ
åİĭ åĻ¨
æķĻèĤ² çļĦ
èı² æĸ¯
éĩįè¦ģ æĢ§
çİī çļĩ
éŃĶ æĪĴ
è¿½ åĬł
åĲĽ å£«åĿ¦
å¾® åįĹ
æĪĲåĬŁ åľ°
ä¸¥ èĤĥ
äº¤éĢļ å¤§åŃ¦
ĠI II
ç©Ĩ åħ¬
æ·· éŁ³
åĬ¨çī© åĽŃ
ãĢı ï¼Į
æķ¦ å£«
éŁ¦ æģ©
èĤ¯ å¡ĶåŁº
åŃĶ éĽĢ
èĩªçĶ± åŁº
ä¹Ļ éĨĩ
æĸĩçī© å±Ģ
æłĩåĩĨ çļĦ
é©¬æĿ¥ äºļ
æĽ¾ç»ı åľ¨
éĵľ åĥı
å¿ħé¡» åľ¨
èĦĳ åĬĽ
è¾ħ ä½Ĳ
ï½ŀ ï¼Ī
åĬłæĭ¿ å¤§çļĦ
åŁºç¡Ģ è®¾æĸ½
åĿĲ åľ¨
æ°ĳä¸» åħ±åĴĮåĽ½
æĸ¯ç§ĳ çī¹
åĽ½æ°ĳ è®®ä¼ļ
åĢĴ å¡Į
æ½® å·ŀ
æĬĺ åıł
å°½ç®¡ å¦ĤæŃ¤
çº¸ å¸ģ
åħ½ åĮ»
æĶ¹ç¼ĸ æĪĲ
ian a
å±ħä½ı äºİ
186 5
çļĦå°ı åŀĭ
çŃĶ æ¡Ī
å°ļä¹¦ å·¦
IN G
ä¸ªæľĪ çļĦ
åį¡å°Ķ çĵ¦
ä¹ĭæĪĺ ä¸Ń
æĪĴ æĮĩ
çĭ¼ çį¾
ort s
é£Łçī© æĿ¥æºĲ
å¤±è´¥ åĲİ
çĶµåĬĽ åĬ¨è½¦ç»Ħ
æĶ¶è´Ń äºĨ
åħĭéĩĮæĸ¯ æīĺ
å°ĳæķ° æ°ĳæĹı
çıĢ æĸ¯
çķĻä¸ĭ äºĨ
å¤ªç©º äºº
æıŃ éľ²
æıŃ å¹ķ
æĸĭ èĹ¤
è¯¥åºĦ æĶ¹åĪ¶ä¸º
åį¡æĸ¯ èĴĤ
ç½¢ åħį
ĠAn d
åłĨ ç§¯
à¹ ī
è±« ç«ł
Ġw ith
å¸ĥæĶ¿ åı¸
è½© å°¼è¯Ĺ
åı²èĴĤ å¤«
åıĺå½¢ éĩĳåĪļ
æĬ¤åį« èĪ°
ä½¥ éĥ½å¾¡åı²
çĶĺèĤĥ çľģ
çĽĴ åŃĲ
é»ı åº¦
åıĭå¥½ åŁİå¸Ĥ
åĶ®ç¥¨ æľº
åħ¨åı° åºŁåİ¿åİħæĶ¹è®¾äºĮåįģåİħ
äºĮçŃī å¥ĸ
çĥ¹ é¥ª
æ°ĳèĲ¥ åĮĸ
éĩĳéĴŁ å¥ĸ
ĠAss ociation
å®īèĹ¤ ç¾İ
æĿİå¾· è¯ļ
å®īå¤§çķ¥ çľģ
åŁĥå¡ŀ ä¿Ħæ¯Ķäºļ
äºļå¤ªåĮº ç«¥åĨĽ
å°ĸæ²Ļ åĴĢ
èĪªç«Ļ æ¥¼
æ³¢å¤ļé»İ åĲĦ
N o
O ne
P an
R S
o id
u i
á ¹
ì ļ
Ġ æ¸ħ
Ġ åĵĪ
Ġ éĻĨ
Ġ æ³ķåĽ½
Ġ éĵ¶
Ġ å²©
Ġ å¨ģå»ī
Ġ 1942
çļĦ B
çļĦ è¡¨
çļĦ çĶ·
çļĦ éĥ¨éĺŁ
çļĦ åĬ¨ä½ľ
æĺ ¼
åľ¨ æīĢ
åľ¨ è¿Ļç§į
ä¸º éĿŀ
ï¼ī :
ï¼ī âĢĿ
ä¸Ń å°ı
ä¸Ń éĥİ
æĺ¯ ä¸ĸçķĮ
æĺ¯ ä»ĸçļĦ
åĽ½ åĲĽ
äºº å½¢
å¤§ åłĤ
æľī å¤§
æľī æĹ¶åĢĻ
åĴĮ åīį
æĹ¥ å¼Ģ
æĹ¥ éĹ´
åĳ Ĩ
éķ Ľ
ä¸İ ä¼ļ
ä¸İ æĸ°
åŃĲ åĹ£
åıĳ æĶ¾
è¢« å¹¿æ³Ľ
åįĹ è¾¹
çī¹ æķĪ
çī¹ æĢ¥
éķ¿ ä¹Ĳ
éķ¿ å´İ
ä¸ĭ è¡Į
èµĽ åĪ¶
é© ¯
ä¸ī åı¸
ä¸ī æ²³
ä¸ī åįģä¸Ģå¹´
å¾· è¿Ī
æľĢ åħĪ
æĻ Ł
åĮĹ å²¸
åı¯ è§Ĩ
åı¯ ä½ľä¸º
å¼Ģ åºľ
èĬ ¥
ãĥ ¤
å±± å´İ
å°ı éĺŁ
æĭī ç¾İ
æµ· æ°´
éĺŁ ä»¥
æķĻ çłĶ
é©¬ åħĭæĸ¯
é©¬ ç¾ļ
åħ¥ è¯»
æŃ¤ æĽ²
åĲĪ èĳĹ
çİĭ æľ±
ç«Ļ èĪį
ç§į çļĦ
èģĶ ä¼ļ
ä½Ĩ å®ŀéĻħä¸Ĭ
å¤ĸ ä¾§
éĢļ è´§
å®ī è¿ª
åŁİ è¥¿
10 6
è¯¥ æ¡¥
éĩĳ æ²Ļ
æł¼ çº³
å¥³ çļĩ
åĽĽ åŃ£
çĽ¸ è¯Ĩ
ç»Ħ åĪ«
éĺ¿ è¯º
èĭ± èģĶéĤ¦
18 41
18 52
è¾¾ æĭīæĸ¯
åı£ éŁ³
è¯Ń æĢģ
éĴ °
æĽ¾ åħ¬äº®
æĴ ®
æİ¥ è¿ŀ
å·´ åĪ©
å·´ å°ĶçļĦ
äºĶ äºº
ç»´ æĸ°
å¥¥ åĮĪ
æµģ æĺŁ
é¢Ĩ åħµ
ç®¡ åĮº
15 2
çº³ çľģ
çĻ½ å®«
å°ĳ ä¿Ŀ
å±ķ åİħ
ä¼Ĭ åĬª
èģĮ äººåĳĺ
åħŃ æĹ¥
åĲĦ çº§
åĳ¨ åħŃ
è½¬ åĬ¨
è½¬ ä¸ľåįĹ
è½¬ åıĺä¸º
æĶ¶ åıĸ
å¼Ģå§ĭ äºİ
è¿ŀ èĥľ
æ¸ħ éĨĴ
at ed
é¸ ¾
åıį ä¹ĭ
æľª æ»¡
å¤į éĻ¤
åįļ æł¼
çĶ» æ´¾
å¥½ æľĭåıĭ
åķĨ èĪ¹
åķĨ åľĪ
å¼º è¡Į
å¼º æ¡£
æ±ī äºº
ä¼¦ è¥¿äºļ
åĻ¨ çī©
è¶ħ æĸ°æĺŁ
æĬķ åĩº
æ¹¾ åĮº
èĲ¥ åľ°
èĲ¥ éĶĢ
æľ¨ éĨĩ
æ²Ļ éĹ¨
èĢĥ å®ĺ
æģ© æĸ¯çī¹
æŁ¥ è¯¢
å®¹ è®¸
çĶ±äºİ åľ¨
ĠM or
çĶ² åŃĲ
çĶ² åįĪ
æ·± æ°´
çİĩ çļĦ
éĹ® ä¸ĸ
æĶ¿åºľ åľ¨
ç´¢ çĵ¦
æ½ ŀ
åĵ¥ æĸ¯è¾¾
am a
çķĻ å°¼
çħ İ
ç²¾ éĢļ
å®ģ åİ¿
éĻį èĩ³
ç¤¼ éĥ¨å°ļä¹¦
åı³ æīĭ
æĺ¥ æĹ¥
ä½İ æ¸©
ĠT el
ro id
ro ss
ç¬¬ä¸ī ä¸ª
å°¾ éĥ¨
èĵ ĵ
éº¦ æł¼éĽ·æĪĪ
ĠL aw
è¯Ĺ ä½ľ
å¼Ĥ æ¯į
ĠF IS
ç»ıæµİ åŃ¦å®¶
åĩºçīĪ çī©
åģļ åĩºäºĨ
çļ® åŁĥå°Ķ
æķĻèĤ² åŃ¦éĻ¢
å·²ç»ı åľ¨
æ²ĥ çī¹
åĩ¯ è¥¿
åħ¹ åł¡
å¾® ç¬ĳ
å»ºç«ĭ ä¸Ģä¸ª
ãĥ³ ãĥĪ
èĵĿ æĹĹ
æľĢé«ĺ äººæ°ĳæ³ķéĻ¢
çļĦå¤§ éĩı
åľĨ é¡¶
éĩĬ è¿¦
æĿľ éĤ¦
çī¹åĪ« è¡ĮæĶ¿åĮº
éŃı å¾·è¿Ī
ç¾½ çĲĥ
st er
æĺ¯ä¸Ģä¸ª ä½įäºİ
åıªæľī ä¸Ģä¸ª
æ»ĳ ç¿Ķ
åĨ° æ·ĩæ·ĭ
èĮ¨ åł¡
åŁºçĿ£ çļĦäººæĢ§
è¿Ļä¸Ģ çĤ¹
çİ©å®¶ çļĦ
åĪĳ ç½ļ
åĽº å®ļçļĦ
ãĢī ï¼Ī
ç¼© åĩı
åı« å£°
è¥¿åįĹ è¥¿
éģ¿ éļ¾
Ġd er
ä¼´ å¥ı
æĺĨ ä»ĳ
ĠÐ ³
æ²Ī éĺ³å¸Ĥ
æĬļ åħ»
æ®ĭ ä½Ļ
éŀ ł
ç»¼åĲĪ æĢ§
å»ºæĪĲ éĢļè½¦
åıĶ çĪ¶
è´ŀ åħĥ
çĸı æķ£
åįĹåĮĹ åĲĳ
å§¬ å¨ľ
åİĦ å°Ķçľģ
æĶ¶åħ¥ ä¸º
æŁĶ ä½Ľ
å¨ģå°Ķ éĢĬ
æĮĳæĪĺ èµĽ
ĠIn d
æĦıè¯Ĩ å½¢æĢģ
åħ¬äº¤ è½¦
éŁµ æ¯į
å®īè£ħ åľ¨
å¸¦é¢Ĩ ä¸ĭ
ä¸¾è¡ĮçļĦ ä¸ĸçķĮ
è¯± æĥĳ
éĽĩ åĳĺ
çĢ ļ
å·´å°Ķ å¹²
é©¬æĭī éĽħ
å¤ĸåĽ½ è¯Ń
æĸ°äºº å¥ĸ
äº¤åĵį ä¹ĲåĽ¢
ç¿Į æĹ¥
æĥ¨ éĩį
åı¤åħ¸ ä¸»ä¹ī
é©¬æģ© çľģ
äºĮæĪĺ æľŁéĹ´
æĦıåĳ³ èĳĹ
éķ¶ åµĮ
å¤©çĦ¶ æ°Ķ
äººå¤§ ä»£è¡¨
æĬĽ å¼ĥ
ç»ıçºª äºº
ç»ıçºª åħ¬åı¸
æĸ¯æīĺ åħĭ
TBS çĶµè§Ĩåı°
èľ¿èľĴ èĢĮè¡Į
å·´åĭĴ æĸ¯åĿ¦
æ¡§ æľ¨éĨĩ
ä¿Ħäº¥ä¿Ħ å·ŀ
éĻįéĽ¨ éĩı
åĨłçĬ¶çĹħæ¯ĴçĹħ çĸ«æĥħ
çŀĦ åĩĨ
åı²éĥ½ åįİ
åĳ¼åĴĮ æµ©çī¹
åĪĹæĶ¯ æķ¦å£«
çļ®æ´Ľ å£«
åį¡å°Ķçĵ¦ å¤ļæĸ¯
å®īèĹ¤ç¾İ å§¬
åĪĹæĶ¯æķ¦å£« çĻ»
J ul
M n
P re
S H
b it
i as
k ey
o is
z h
Ê ĥ
Ë Ī
á ¼
ï ¸°
ð ª
Ġ x
Ġ åĬł
Ġ or
Ġ é£İ
Ġ é»İ
Ġ è°¢
çļĦ èģĮä¸ļ
çļĦ åĪĽä½ľ
çļĦ èĮĥåĽ´
çļĦ çĲĨè®º
åľ ĥ
åĲ ĭ
å¹´ çº§
å¹´ ä¹ĭåīį
å¹´ æĶ¹ä¸º
å¹´ åĽĽæľĪ
å° »
æĺ Ļ
ç» ¯
åľ¨ çº½çº¦
ï¼Ī ãĢİ
ä¸Ń åŀĭ
æĺ¯ åŁºäºİ
åĽ½ æ³°
äºº å®¶
äºº éĢł
å¤§ å¤´
æľī ä¸īä¸ª
éĻ Į
æĹ¥ é¦Ļæ¸¯
æĹ¥ å®£å¸ĥ
æĹ¥ æĻļä¸Ĭ
æĹ¶ åľ¨
æĪĲ ä»½
ä¸ª åº§ä½į
æ¯ ĺ
éĥ¨ é¦ĸ
ä¸į åĴĮ
ä¹ĭ äºĮ
ä½ľ èµĽ
åĪ° è®¿
å¹¶ è®¾æľī
èµĽ éģĵ
çĶ± åħ¶
çĶ± éĻĪ
ä½į å¤Ħ
ä¸ī åĨł
ä¸ľ åİĤ
ä¸ľ åį°åº¦
åĮĹ åĨĽ
åĮĹ çĪ±å°Ķåħ°
åı¯ éĢļè¿ĩ
éģĵ å°Ķ
å¼Ģ çļĩ
åĬł æĹ¶
æĸ° å¹´
æĸ° åºĦ
å»º åº·
èĬ ¹
ä¸ĸ ä¿Ĺ
åĪ© å°Ķ
åįģ ä¸ª
èĪ ·
æīĢ çĶ¨
æīĢ å»º
æīĢ èĩ´
æĪĺ æľº
ç¾İ åĽłèĮ¨
é©¬ åĵĪ
å°Ĩ ä¹ĭ
è¦ģ æ¸¯
åı° è¯į
æ°ĳ å±ħ
ç§ĳ åĮ»çĶŁ
èģĶ éĺŁ
ç® ķ
ä½¿ èĬĤ
æŁ ł
åħ¨ å¸Ĥ
åħ¨ æ¸¯
ãģ İ
è¯¥ è®¡åĪĴ
éĩĳ çĲĥ
éĩĳ æŃ£
åĬĽ å£«
æ°´ å¡ĺ
æ°´ æ³¥
çĽ¸ æľº
æĺİ å¾·
å¢ ĺ
èī² ç´ł
åı¸ ä¸»äºĭ
çº¦ åľ¨
çº¦ å¾·
18 49
18 54
æīĭ ä¸Ĭ
éĢī é¡¹
æĪĸ çĥŃå¸¦
æ¸¯ è¶ħ
ä¹¦ ä¿¡
éĶ Ī
æĹł æķ°
å¹¿ åŁŁ
äº¤ éħį
æıĲ æĸ¯
åŀĭ çĶµåĬĽæľºè½¦
çĥ Ľ
åĽ¢ çļĦ
å¥¥ ä¸ģ
æµģ æ°´
âĢĶ ï¼ī
æľĿ æĶ¿
å¼ł æĿ°
æĽ´ åľ¨
15 6
æĪĲä¸º ä¸ĢåĲį
åıĺ éĩı
åºĶ åĬĽ
ç¼ĸ æİĴ
åľ£ è·¯æĺĵ
åħµ åıĺ
çĪ± å¿ĥ
åħĪ è¡Į
çļĦä¸Ģ å¤Ħ
æŃ» åīį
è®º è¿°
åį« å°ĨåĨĽ
åķĨ è®®
ic us
åŃĺ æĶ¾
13 9
å·± æĸ¹
ä»½ åŃĲ
éħį å±ŀ
é»ĳ æ´ŀ
åıĮ éĩį
åıĮ å±Ĥ
ĠM ag
çº¢ æµ·
çº¢ çĻ½
æ³° æĻ¤
å£° æ¼Ķ
am ily
åº· å¤į
éĩİ å¤ĸ
æ¾ Ī
å¤ı å§¬
æīį æľī
æŀģ å¤§çļĦ
ä»ħ ä¸º
æĪ· ç±į
èĴĤ å¨ľ
çģµ æ´»
å·¥ç¨ĭ éĻ¢
åį´ æ²¡æľī
å¹´ä»£ å¼Ģå§ĭ
å½±åĵį çļĦ
çİĽ èİīäºļ
26 0
æĪĲåĳĺ çļĦ
ç®Ĺ æĺ¯
è¯Ĩ åŃĹ
é¡¶ çº§èģĶèµĽ
æľ« æĹ¥
æľīä¸Ģ æ¬¡
å¸ķ æĸ¯
ĠD ay
æ²ĥ åħĭ
éŃĶ çİĭ
çº½ èĬ¬åħ°
èİī èİī
åĪ¤ å¤Ħ
å¹¶ä¸Ķ æĺ¯
ä¸¥ åİī
çļĦåľ° çĲĨ
éľį æł¼
ç»¿ åĮĸ
æ£Ĵ çĲĥåľº
è´Ń åħ¥
ĠN ational
åĲĪä½ľ çļĦ
ir st
um b
èķ Ļ
æ¿Ģ æĪĺ
å¥Ī çī¹
ç§ģ æľī
å·¥ä¸ļ å¤§åŃ¦
èĤī æ¡Ĥ
åįıä¼ļ çļĦ
æµ¦ æĿĳ
è¸ ©
æĴ¤ åĽŀ
ç¼© å°ı
åĭĩ æ°Ķ
éĻ¶ è°¦
éĻ· éĺ±
åĲķ å¸ĥ
ç¬¬äºĶ å±Ĭ
186 6
çİĭåĽ½ çļĦ
çºµ éĺŁ
ãĥ© ãĥ³
åĮĸçŁ³ åıĳçİ°äºİ
äºĳåįĹ çŃīåľ°
çĻ»åľº äºİ
èĩªåĬ¨ åĮĸ
æıĴ çĶ»
çļĦçī¹ æľī
çļĦçī¹ èī²
Ġv ar
ev er
éĺ¿æĭīä¼¯ è¯Ń
æī§å¯¼ çļĦ
å®īå¾· æ£®
æĩ ĭ
å¡ĳ éĢł
æĺ¯ä½įäºİ æĹ¥æľ¬
è¢ģ ç»į
æ¸Ķ æ°ĳ
è°ĥæķ´ ä¸º
ä¸ĳ éĹ»
æĬ¢ æķĳ
åĸ· åıĳ
æłĩå¿Ĺ çĿĢ
æª ¬
éĴ¢çĲ´ å®¶
ä¹Łå°±æĺ¯ è¯´
ãĥĨ ãĤ£
çİ°å®ŀ ä¸»ä¹ī
èĲ¨å°Ķ çĵ¦
èĩªèº« çļĦ
æĺı è¿·
æĤł ä¹ħ
å¤§çĲĨ çŁ³
Sc reen
åĪ©å¥¥ æ³¢å¾·
æľĢæľī ä»·åĢ¼
âĦĥ ï¼Į
ä¼Ĺè®®éĻ¢ è®®åĳĺ
å¹¸åŃĺ èĢħ
èĥļ èĥİ
row n
è´ºå²ģ ä¸ĵè¾ĳ
æ½į æŁ´
éĺ¿çī¹ æŁĶ
äºĶè§Ĵ éĶ¥
æĶ¾å°Ħ æĢ§
çĵ¦åħ¹ çľģ
å½ķéŁ³å®¤ ä¸ĵè¾ĳ
ä¸Ńçº§ äººæ°ĳæ³ķéĻ¢
çĲµ çĲ¶
åĬłç½Ĺ æŀĹ
åİĦçĵľ å¤ļå°Ķ
æ³°æĻ¤ å£«
) ï¼ī
C A
F e
L isa
S e
S aint
T R
U M
V ic
m ar
p or
u h
á »
í ĺ
Ġ âĢ
Ġ ä»ĸ
Ġ is
Ġ æ¬§
Ġ èĹ¤
Ġ åĪĹä¼ł
Ġ æĢ»ç»Łåºľ
çļ ±
çļ İ
çļĦ é£İæł¼
çļĦ æĸ¹åĲĳ
å¹´ åĿĩ
å¹´ å¹´åºķ
å¹´ åįģä¸ĢæľĪ
æĹ »
åľ¨ æ¸¸æĪı
ä¸Ģ ä¸ĭ
ä¸Ģ æ¬¾
ä¸Ģ åĵ©
åĨ Ĺ
è¯ «
å¤§ çģ«
å¤§ ä¹ĺ
æľī å¤ļç§į
èµ Ĥ
åĴĮ B
æľĪ åħī
æł Ī
åŃ¦ åĳĺ
ä»¥ æĿ¥çļĦ
æĹ¶ åħī
ä¸Ĭ å®ĺ
ä¼ļ ä¸İ
ä»ĸ æĭħä»»
ä¸į èĬ±
ä¸İ åįĹ
ä¸İ æĹ¥æľ¬
è¥¿ å¾·
è¥¿ æ¬§
åĪĨ æŀĿ
è¢« åĬ¨
è¢« éĢī
è¢« åıĸæ¶Ī
å§ «
èĭ ŀ
èµĽ å°Ķ
çĶ± èĭ±åĽ½
ä½į æł¼
åıĬ é¦Ļæ¸¯
ä¸ī æīĢ
å¾· åĴĮ
åĲĮ ç±»
ä¸ľ å±±
èİ Ĵ
åĮĹ æ¬§
äºļ çļĦ
äºļ è£Ķ
åħĭ æ´Ľ
æĸĩ æ£®
é«ĺ çº¦
é«ĺ èĴĤ
åįģ åĽ½
èĩ³ å¤§
èĩ³ é«ĺ
æīĢ åıĸä»£
å°ı åłĤ
æĭī æ£®
æĭī èµ«
äºĭ çļĦ
é©¬ çļĦ
éĵ ¨
ä½ĵ ä¸º
ç§ĳ ä¸īçĶ²
ä½Ĩ ä»ĸä»¬
åŁİ æ±ł
åħ¨ å¢ĥ
å®ļ åĲįä¸º
éĩĳ å·ŀ
éĥ½ æĺ¯çĶ±
æĢ§ åĳ½
ãĤ ²
æ°´ åİ¿
æ°´ éĴ¹
åħ° åħĭæŀĹ
éĺ¿ æ³¢ç½Ĺ
å°¼ ç§ĳ
18 55
åħĥ åĴĮ
æīĭ åĨĮ
åħ± å»º
ä»İ åīį
æ¹ Ħ
on a
æ¸¯ æ¹¾
å¸¸ æķ°
éĴ ¿
æĽ¾ èİ·
å®ŀ åľ¨
å°± å·²
ä¼ł æİĪ
ç¾İåĽ½ éĻĨåĨĽ
å¯¼ èĪª
ç®¡ é£İçĲ´
éĢł ä»·
çĻ½ çŁ³
æĿİ æ¸Ĭ
æŃ¦ åŀħ
ç¬¬ä¸Ģ å®¶
èĭı ä¿Ħ
æ¨ µ
åľ£ æĿ¯
ä¸¾ åĬ¨
æ³¢ åĬ¨
æĶ¶ åħ»
åĪĿ çŃī
èĬ± äºĨ
åħĪ ç¥ĸ
è§£ å¼Ģ
at o
æĿ¡ è¯Ħè®º
é¸ ¥
çļĦä¸Ģ åįĬ
ä¸»è¦ģ çĶ¨äºİ
åĨį ä¸Ģæ¬¡
æŃ» åľ¨
å¡Ķ å°¼äºļ
åĲī å¸ĥ
éĽ· è¯º
ä¹Ŀ æ±Ł
ĠC an
çĵ¦ æĸ¯
åľŁ åŁİ
ä¼¦ çĲĨ
el e
èĲ¨ éĩĮ
åĬ© æķĻ
æľ¨ åĦ¿
æ²Ļ æ»©
ä»¤ çĭĲ
é¡¿ çļĦ
åħ´ åĮĸ
è´Ŀ åĭĴ
æĹ© æĻ¨
30 1
å¼ķ éĢĢ
æ¨¡ åŀĭçļĦ
ä¹ĭåĲİ ä»ĸ
it ter
æİĴ åľ¨
åºĵ æĸ¯
è®¾è®¡ åĴĮ
il i
ä½ı äºĨ
æ¾ İ
çľĭ å®Ī
æīį åįİ
éĺ² æ²»
æ´ĭ è¡Į
å®ģ è¿ľ
ä¸ģ é¡¿
æĿ° åĩºçļĦ
æ¢ħ æ£®
æĹħ é¡º
è¯Ĺ è¯į
ç¡® åĪĩ
ä¼ĺ æĥł
å¼Ĥ åĲį
å¼Ĥ æŀĦ
ä½Ĳ è´º
un e
æĳ© è¥¿
è¡Ģ åİĭ
æķĻèĤ² å®¶
å¸ķ è¥¿
å¸ķ å¤ı
åĶ® åįĸ
åĩ¯ æĹĭ
çĽĸ ä¼Ĭ
åį°åº¦ çļĦ
èĵĿ é¸Ł
åħĦ å¦¹
çĽĽ è¡Į
çīĽ å¥¶
ĠW e
ç£ ·
æīĢä»¥ åľ¨
ä½įç½® ä¸º
çº¦ç¿° æĿ¾
åĽ½çİĭ çļĦ
å»ºè®¾ çļĦ
ç½ª åĲį
å°Ķæĸ¯ åŁº
é½¿ è½®
èĮ¨ åĵĪæł¹
å·¥ä¸ļ éĥ¨
æģ¶ ä½ľ
ãĢī ï¼ļ
æ¢¦ æºª
ä¸īåįģ åĽĽå¹´
æľĢåĪĿ çĶ±
èĭ±æł¼åħ° è¶³çĲĥèģĶèµĽ
è¿Ļæĺ¯ åĽłä¸º
ä¸Ńåįİäººæ°ĳåħ±åĴĮåĽ½ æĪĲç«ĭåĲİ
åŁºç¡Ģ æ²¹
åħ¶åĲİ äºİ
ap an
æİĮ æİ§
è¶ħçº§ æĿ¯
è·¨ æĢ§åĪ«
ç»ıå¸¸ è¢«
éŀ ĳ
Âł Âł
åŃŁ ä¹°
å¸ĥé²ģ å¡ŀå°Ķ
åĩıå°ĳ äºĨ
çĪĨåıĳ åĲİ
è®· èĭı
æıĴ åĽ¾
èģĮæ£Ĵ çĶŁæ¶¯
ç½ĳç«Ļ ä¸Ĭ
å®ŀæĸ½ çĶºæĿĳåĪ¶
åĹ£ åŃĲ
æ··åĲĪ åıĮæīĵ
éĵº è®¾
ãģŁ ãģ¡
è§Ĥå¯Ł åĪ°
æ¨± äºķ
çªĹ åı£
è¡° éĢĢ
çĪ±æĥħ æķħäºĭ
èħĲ è´¥
æĹłäºº æľº
è¯¥åħļ çļĦ
ä¸ĩç¾İåħĥ çļĦ
ï¼ħ ãĢĤ
éĤ»è¿ĳ çļĦ
åħ¬æĸ¤ çº§
å¯¹åºĶ çļĦ
Un ited
æŀ¢çº½ ç«Ļ
èıĬ èĬ±
æĸ°ç«¹ å¸Ĥ
åĽ½è¯Ń åĬĽ
æĨ ©
æĤł ä¹ħçļĦ
å±¡ æ¬¡
é¢Ħå¤ĩ éĺŁ
éħ° èĥº
åįĹæĺĮ å¸Ĥ
è´ª æ±¡
ãĥĥãĥ ģ
éĽĨæķ° ä»¥
å¯¡ å¦ĩ
åĽ½éĵģ åĪĨåī²
é¦Ļæ¸¯ç«¥åĨĽ æĢ»ä¼ļ
èĹĶ åºĦ
fl ix
äºļçĥŃå¸¦ æĪĸçĥŃå¸¦
ãĥĹ ãĥŃ
è´¿ èµĤ
åĺ² ç¬ĳ
ä¹Įåħ¹åĪ« åħĭæĸ¯åĿ¦
è¯ºæĽ¼åºķ å¤§åĮº
è½¦è·¯ å£«
å¹¶åıĳ çĹĩ
åĳĬç¤º çīĮ
ÑģÑĮ ÐºÐ°
æ¢ħçº³ èĮ¨åĵĪæł¹
åįļå£«çĶŁ å¯¼å¸Ī
éķ¿å®Ĺ æĪĳéĥ¨
åĵ¥æľ¬ åĵĪæł¹
äºĳæĭ¿ä¿Ŀ æĸ¯
èĦĳåĬĽ è®Ńç»ĥ
æŁł æª¬
. ,
2 30
4 20
5 50
6 50
B en
E A
G S
H T
I ON
M in
O p
S al
U P
V O
f ess
g ar
g en
j a
p ort
Î ´
Ð ł
Ġ ä¸į
Ġ èĭ±åĽ½
Ġ 50
Ġ å¾·åĽ½
Ġ çĨĬ
Ġ éħįéŁ³
Ġ 1945
çļĦ æĹ§
çļĦ æĪĺäºī
çļĦ çĶŁçī©
çļĦ å¼Ģåıĳ
çļĦ ä¸ľè¥¿
çļĦ èµ·æºĲ
çļĦ æĥ³æ³ķ
å¹´ èĭ±åĽ½
å¹´ çĶŁäºİ
ä¸Ģ å¤§
ä¸Ģ æµģ
ä¸Ģ æ°§åĮĸ
ä¸º èĵĿ
ä¸Ń åĮ»
ç§ ĥ
è¡ ¢
å¥ ļ
åĴĮ å¯¹
æĶ ¸
æĹ¥ çħ§
æ² Ĳ
æĪĲ ä¸Ģä¸ª
æĪĲ èĻ«
åľ° æĿ¿
ä¸Ĭ æ°´
ä¼ļ çĶ¨
åĩº åĽ½
æ¯ ¯
Â· ãĢĮ
éķ Ĳ
çĶŁ åĳĺ
ä¸İ ä¸Ĭ
ä¸İ ä¸ľ
ä¸İ é©¬
ä¸İ åıĳå±ķ
ä¹ĭ æŃ»
ä¹ĭ æ¯į
è¥¿ çĳŀå®ī
åħ¶ æ¯į
åĮº è®®ä¼ļ
çŃ ¿
æ± ´
èĢĮ è¿Ļ
åįĹ è¾¹ä¸º
çī¹ æľīçļĦ
çľ Į
ä¾ ¬
èµĽ ç¨ĭ
çĶ± é¦Ļæ¸¯
ä¸ī å®¶
ä¸ī é¡¹
å¾· ä¹Ļ
èİ ŀ
äºļ å·ŀ
å¤ļ æĿ¡
åħĭ åĬĽ
åı¯ ä¸İ
æ³ķ èĢģ
åīį å¤ķ
äºĮ éħ¸
äºĮ æĪĺåĲİ
æĸ° æĬ¥
å¯¹ å¥¹
æīĢ èĳĹ
æĪĺ åĬŁ
ä¹Ł éĥ½
ä¹Ł è®¸
ä¹Ł ä¸įèĥ½
å°ı æŀĹ
æµ· å¾·
æµ· è´¼
å¤© èµĭ
é©¬ ç»į
åħ¥ ä¼į
éļ ĺ
ãĢį Â·
è½¦ æīĭ
çŃī åĪ°
å·ŀ çŁ¥å·ŀ
åľº æ¯ĶèµĽä¸Ń
çĲĨ å®ī
çİĭ åı¸é©¬
çİĭ å¦ĥ
å¸ĥ å¸Į
æ¬¡ åºı
ç½Ĺ å°¼
ä½Ĩ ä»įçĦ¶
éĢļ èĭĳ
æģ ¬
éĤ ¯
ãģ Ĳ
åİŁ æĺ¯
åİŁ å¸Ĥ
åı² åŃ¦
åŁº å±Ĥ
æŃ£ åĢ¼
çģ ¶
è¾¾ èį·
æĢ» å»ºçŃĳéĿ¢ç§¯
æĶ¹ åĬ¨
åĶ Ĩ
åħ± éĿĴ
on es
åĢ ¦
æ¶ ŀ
ç»Ł ç§°
12 9
åįİ çī¹
äº§ çļĦ
ç»ĵ ä¸º
æĺŁ åħī
äº¤ æĽ¿
åı¤ è£ħ
å²Ľ åĴĮ
åĬ¡ å±Ģ
æ¸¸ éªĳåħµ
åŃ£ éĢī
å¥¹ è¿ĺ
åħī æºĲ
æŃ¦ å¤·
æĹ¥æľ¬ å¸ĿåĽ½
ç¼ĸ ç¨ĭ
åħŃ çĶ²
åıª åĪĹåĩº
åĽ¾ æĸ¯
åĪĿ åĽŀ
æ¸ħ éĻ¤
at s
é»Ħ ç¥ĸ
å¤į å½¢
åĲī ç±³
éĽ· æ²ĥ
åħļ éŃģ
å·Ŀ è¥¿
å¼º å°¼
èĤ² æľīä¸Ģ
ä¼¦ åł¡
el t
æĬķ å½±
ä¿® çĲĨ
ä¸ĥ æ®µ
èĲ¥ éĢł
éĢŁ æł¸
äºī æī§
éĻĨ ä¸Ĭ
èĢĥ éĩı
éĻ¤ åİ»
é£ŀ è·ĥ
å»ºçŃĳ é£İæł¼
éĻĪ åĽ½
èĪª æľº
åŁŁ åĲį
åĪĺ æĺĵ
çĻ¾ åº¦
æ½ ¼
åĿĩ çĶ±
è¿ĲåĬ¨ ä¼ļçļĦ
è¯į æł¹
ol ar
ä¾¿ å®ľ
æīį æĺ¯
æīį è¢«
åįĥ å¹´
å·¦ æīĭ
éĵ¶ èī²
éĻĦ å½ķ
æ°¸ å¹³
æ°¸ åº·
éĻį ä¸´
çīĻ åĵ¥
ä»į ä¸º
ä¸ģ å¿§
åĪ¶ä½ľ äºĨ
åĶĲ å±±
æĿ° æĺİ
ç»Ĩ å·Ŀ
å³ Ń
æĺ¾ çİ°
ĠH er
ç¤¾ä¼ļ çļĦ
åĸľ å¤ļ
ä¼ĺ çĤ¹
å¾·åĽ½ äºº
è®¡åĪĴ äºİ
ç¥¨ éĢī
æĭ¥ æľīä¸Ģ
å§Ķåĳĺä¼ļ æĪĲåĳĺ
om p
of f
ing ton
äºĨä¸Ģ åĲį
äºĮåįģ åħ«å¹´
åħ¼ èģĮ
à¸ §
à¸ ķ
æ³½ åĭĴ
éĢļå¸¸ ä¸º
éĶ¦ è¡£
åŃ¦çĶŁ çļĦ
éĺ¶ å±Ĥ
ig a
å¥ı é¸£
é¦ĸæ¬¡ äº®çĽ¸
åīĳ åĩ»
é©» åĨĽ
im a
ç©¿ ä¸Ĭ
å« Ĥ
æİ§åĪ¶ äºĨ
æ¿Ģ åĬ±
ç½ª çĬ¯
ç§ģ èĲ¥
em a
æĭĽ æłĩ
çĴ ĩ
æı´ åĨĽ
ç¯ĩ æĸĩç«ł
æĹ¥åľ¨ æĹ¥æľ¬
æĢ»ç»Ł éĢīä¸¾
åĿļ åĽº
èĻİ å¤´
åĲ¬ éĹ»
ä¹° åįĸ
å½¢å¼ı çļĦ
åį± å®³
èĳ£ åįĵ
èĩªæ²» åħ±åĴĮåĽ½
èħ¹ éĿ¢
éĵģéģĵ éĥ¨
çĽ®æłĩ æĺ¯
ab y
èļ ķ
éĿ©åĳ½ åħļ
æ£®æŀĹ ä¸Ń
æ£®æŀĹ åħ¬åĽŃ
åĽ° å¢ĥ
æĴĴ åħĭ
å¤§çº¦ æĺ¯
é©¾ å´©
åĤ¨ èĵĦ
åı¸ä»¤ åĳĺ
åı¸ä»¤ å®ĺ
å¥¥æĸ¯ æ±Ģ
éľ¸ çİĭ
ç¬¬åįģ åĽĽ
çļĦå¤ĸ è§Ĥ
åĪĽç«ĭ äºİ
ä¸ĩäºº æ¬¡
å¤§èĩ´ ä»¥åĮĹ
ç¥ŀç»ı ç³»ç»Ł
ç¾½æ¯ĽçĲĥ è¿ĲåĬ¨åĳĺ
æĹħå®¢ åĪĹè½¦
è¯Ĭ æīĢ
ç»ıçĲĨ äºº
å±ķç¤º äºĨ
è¯ı ä¹¦
æ¨± æ¡ĥ
æŃ¦è£ħ éĥ¨éĺŁ
çĢ Ľ
æľīæīĢ ä¸įåĲĮ
åĬ©çĲĨ æķĻç»ĥ
éģµ å¾ª
ĠUn ited
è¥¿å®ī å¸Ĥ
çĮ´ åŃĲ
èĲ½æĪĲ åĲ¯çĶ¨
Ã¡ n
é¢ģåıĳ çļĦ
ä½ĵéĩį çº¦
åĽ½ä¸Ń å°ī
èµ«å°Ķ è¾Ľ
æĶ¿åįı å§Ķåĳĺ
è¿ģç§» åĪ°
åĩ¸ åĩº
è°ĭæĿĢ æ¡Ī
å±¥ è¡Į
æĺİæ²»ä¸īåįģ åħŃå¹´
å®½åº¦ çº¦
oci ety
åľŁä½Ĳ éĶ¦
å®ľåħ° åİ¿
ĠIs land
ä¸Ģçº¿ éĺŁ
æ°Ľ åĽ´
è¤Ĵ è´¬
åħ¨æĹ¥ åĪ¶
æĽĿ åħī
é¢ĦéĢī èµĽ
èĤĽ éĹ¨
Angel ea
éĺ¿å§Ĩ æĸ¯çī¹
éĺ¿åŁº åĿ¦
tain ment
è·Ĺ è·ĸ
çİ»åĪ© ç»´äºļ
å»¶ç¦§ å®«
Net flix
çĤĢ å¸Ŀ
æł¸èĭ ·éħ¸
ä¸ªæĿĳæ°ĳ å°ıç»Ħ
è®·èĭı èĤ¯
åĽ½éĵģåĪĨåī² æ°ĳèĲ¥åĮĸ
C F
C arl
D F
D H
D K
E G
M ac
M BC
f orm
w in
é Ĭ
ì Ĥ
Ġ #
Ġ æ³ķ
Ġ å¤ª
Ġ åĽ½å®¶
Ġ åħ¬éĩĮ
Ġ å¹´åº¦
Ġ 1950
Ġ 1944
Ġ ãģĤ
Ġ çĽĳåĪ¶
Ġ 1889
ï¼ ĭ
çļĦ è¿ĲåĬ¨
çļĦ å°ıè¯´
çļĦ çĽ¸åħ³
çļĦ åıįåºĶ
çļĦ èĳĹä½ľ
çļĦ æĦŁè§ī
æľ ½
å¹´ éķ¿
å¹´ æ¯ķä¸ļ
åį ¤
åľ¨ è¢«
åľ¨ è¿ĩåİ»
ä¸º èĥĮæĻ¯
åĬ Ń
ä¸Ń ä¸º
ä¸Ń éŁ³
ä¸Ń åľŁ
æĺ¯ æĹł
æľī åĲįçļĦ
åĴĮ åĽ½éĻħ
æĹ¥ ä¸º
æĹ¥ ç»ĵæĿŁ
æ° ¹
åĲİ ä¼ļ
ï¼ļ ãĢİ
åľ° å£³
è¾ ľ
ä¸Ĭ åİ»
ä¼ļ ä½¿
ä¸ª è¡ĮæĶ¿
ä¸į å·²
èĥ ±
è¥¿ å±±
è¥¿ éĿ¢
è¥¿ å²¸
éķ¿ æĸ¹å½¢
å¾· ç±³çī¹éĩĮ
æĮ £
ä¸ľ ç»ı
ä¸ľ æ´ĭ
äºļ æĭī
å¤ļ äºİ
åı¯ æĢķ
æĸĩ åįİ
å¼Ģ åŀ¦
è¿Ļ æĺ¯ä¸Ģ
äºĮ èĢħ
ä¸ĸ åįļ
é¡ ½
å¦ Ĵ
æīĢ è¾ĸ
æĪĺ èĪ¹
æĪĺ ä¹±
å°ı åĮº
æµ· åĽł
è° ¬
èĲ ¼
åħ¥ æľĿ
åĲĪ æł¼
åľº åĴĮ
å·¥ éĥ¨å°ļä¹¦
æľº åĮ£
æ°ĳ è°£
ç§ĳ çĽ®
ä½Ĩ å®ĥ
å¤ĸ åľ°
å¤ĸ åı·
åĮĸ çī©
åı· ç§°
æ¡ ¢
åŁİ å¤ĸ
éĻ¢ ç³»
ç§° åħ¶ä¸º
åħ¨ æĺİæĺŁ
éĩĳ åįİ
ä¸¤ é¡¹
ä¸¤ èīĺ
åİŁ çĶº
çł ¸
æ°´ åĪĨ
åĽĽ éĩįå¥ı
ç¨ Ķ
çĽ¸ å¤Ħ
çĽ¸ å·®
éĺ¿ å¡Ķ
èĭ± ç¾İ
18 20
18 45
18 59
é¦ĸ éĥ¨
åİĨ å®ĺ
æĶ¹ æĪĲ
æĪĸ è®¸
åĶ ¾
èµ· æŃ¥
å¿ĥ ä¸Ń
in n
12 4
æ²³ å²¸
åıĤ çħ§
æĹł ä¸į
æĹł éļľç¢į
ä¿Ŀ æľī
éĹ¨ åı£
å¤ª å¤ļ
ä¸ĩ å²ģ
ä¸ĩ åįĥ
ä¸ĩ åįĥçĵ¦
åįķ èº«
å¸Ī çĪ¶
ä½įäºİ ä»Ĭ
æĮĩ å¼ķ
åĽŀ åİ»
æľĿ èĩ£
å¥¹ ä¸º
éĢł åĥı
è¿ĺ èĥ½
çĻ½ é¹¤
ç¼ĸ ä¸º
èĭı å°Ķ
æĻ® èİ±
åĳ¨ äºĶ
æĶ¯ éĺŁ
æĶ¯ åİħ
æ¸ħ æĻ¨
åħ« å¤§
17 00
16 44
åıį æĶ»
ĠS ystem
æŃ» çļĦ
æŀĦ æĢĿ
éĽ· å¾·
åķĨ ä¼ļ
ĠC ity
çĵ¦ æĭī
æĬķ èº«
æĿĥ çĽĬ
çļĩ å¤ªåŃĲ
æľ¨ æĿ¿
æ¡¥ å¢©
ä»¤ ä»ĸ
åĭĴ åĨĪ
ä»ĸçļĦ ä½ľåĵģ
åıĮ æīĭ
å®¤ å¤ĸ
ä¹¡ åİ¿
æ¸¸æĪı åľ¨
è¯º å°Ķ
é£Ł æĿĲ
çº¢ è¡£
æ³° çī¹
åĵ¥ å°Ķ
å±Ĭ ä¸ŃåĽ½
éĩİ å¸Ĥ
è¿ª çĵ¦
åĨĻ ä¸º
ĠP ort
æĥ³ è±¡
çľĭ ä½ľ
ä¸ĸçºª æĹ¶
æ°¸ å®ī
å¯Į åħ°åħĭæŀĹ
å°ģ ä¿¡
ä½Ľ æ´Ľ
å¼Ĺ æŀĹ
åĨľ çĶ°
è½½ ä½ĵ
éĢĢ ä½į
å½¹ æīĢ
å¿« çļĦ
åĸľ é©¬æĭīéĽħ
è¿Ľåħ¥ çĽ´è·¯
å¼Ĥ æĢ§
å¼Ĥ ä¸ĸçķĮ
èŃ¦ å®ĺ
å½Ĵ ä¹¡
éĿ© èģĮ
æĸŃ ç»Ŀ
ĠR eg
è¡Ģ åĲ¸èĻ«
è½» è½¨
æľīä¸Ģ å¤©
æ¯Ľ éĩĮ
åħ¨åĽ½ èģĶèµĽ
æĬĢæľ¯ çļĦ
çĽ®åīį å°ļæľª
æĬĹ ä½ĵ
éľ² åĩº
ed ia
ä¸¥ æł¼çļĦ
ĠI t
ç§ĳåŃ¦ åŃ¦éĻ¢
å°ĨåĨĽ æ¾³
å·¨ åŀĭ
ä»ª åĲĮ
å³° ä¼ļ
å¸® æ´¾
ä¼ģ é¹ħ
ç¬¬åĽĽ æ¬¡
èĤ¯ çī¹
èĤ¯ èī²
éĢĤ çĶ¨
åĢŁ åĬ©
è¥¿çıŃçīĻ çļĦ
æ¦ľ é¦ĸ
æ¦ľ åįķ
çĤ® å¡Ķ
æļĹ ä¸Ń
åªĴ ä»ĭ
ç§¦ åĽ½
çĴ Ł
æ¯įäº² çļĦ
éĺ´ æĢ§
æĸĩåŃ¦ å¥ĸ
çļĦå¥³ åŃ©
46 5
çº½çº¦ æ´ĭåŁº
åįĸ ç»Ļ
åŁĶ çĽĲ
èµ¤ éģĵ
ell o
çĽĹ è´¼
ç²¾ç¥ŀ åĬĽ
å¤§çº¦ åľ¨
Ġ198 1
Ġ198 3
Ġb e
èĩ³ä»Ĭ ä»į
æĻ®éĢļ è¯Ŀ
èŃ¦å¯Ł å±Ģ
é«ĺä¸Ń çĶŁ
çļĦé¦ĸ ä¸ª
å¸ĥæĭī å¾·
åı¸é©¬ å¸Ī
ç¾½æ¯ĽçĲĥ åħ¬å¼ĢèµĽ
æĤ¬ ç´¢
æľīäºº è®¤ä¸º
åİĿ åºĦ
æĦıä¹ī çļĦ
æĶ¹éĢł å·¥ç¨ĭ
ç¨³å®ļ æĢ§
è´¢æĶ¿ éĥ¨
çİĩé¢Ĩ çļĦ
oun cil
çĦ¦ èĻĳ
èĪĴ éĢĤ
åĲ» çľŁé²¨
æĭ± éĹ¨
ace book
ath er
èĦ¸ ä¸Ĭ
ç§ĳå°Ķ å¤ļçĵ¦
åºŀ å¤§çļĦ
å¾ĹåĲį äºİ
çŃ¾è®¢ äºĨ
ç¥ŀè¯Ŀ ä¸Ń
çī¹çĤ¹ æĺ¯
åħĭæŀĹ é¡¿
æµ·ä¸Ĭ ä¿Ŀå®ī
å°¼åı¤ æĭīæĸ¯
çĶ²ç»Ħ èģĶèµĽ
âĸ ¡
äººå¤§ å¸¸å§Ķä¼ļ
ç»´åħĭ å¤ļ
éĩİçĶŁ åĬ¨çī©
è´¹å°Ķ åįĹ
åĢ¾åĲĳ äºİ
èĪĨ è®º
Ge orge
åĩıå¼± ä¸ºä¸Ģ
æŃ¼ çģŃ
æ¨¡å¼ıç§į æĺ¯
è·¯æĺĵæĸ¯å®īéĤ£ å·ŀ
ä¸°æ»¡ æ°´çĶµç«Ļ
åŃº äºº
æ¸ħåįİ å¤§åŃ¦
çļĦå¸®åĬ© ä¸ĭ
æĿİä¸ĸ æ°ĳ
æĹ¥åĨħ çĵ¦
å¸ĥå®ľè¯ºæĸ¯ èī¾åĪ©æĸ¯
ä½Ľç½Ĺä¼¦ èĲ¨
æľĢæľīä»·åĢ¼ çĲĥåĳĺ
æģ¶ä½ľ åī§
8 000
A merican
C or
F l
G M
I L
I LS
L i
R h
S O
V V
W E
a is
h elm
r Ã©
u is
v i
á º
Ġ ,
Ġ Q
Ġ æĭī
Ġ ä¹Ŀ
Ġ éĩİ
Ġ as
Ġ èĮĥ
Ġ èİ«
çļ Ī
çļĦ A
çļĦ åħŃ
çļĦ æľĢä½³
çļĦ åĨ³å®ļ
çļĦ æģĴæĺŁ
åĲ ł
åĪ ®
å¹´ åĨį
å¹´ çĶµè§Ĩåī§
ç» ŀ
åľ¨ ä¸ĸçķĮ
ä¸Ģ æıĲ
ä¸Ģ ä¸¾
ä¸Ģ ä»¶
ä¸Ģ ä¹¦ä¸Ń
ä¸º æ°ĳ
ä¸Ń åĮĹéĥ¨
æĺ¯ æĸ°
æĺ¯ çĶ±äºİ
å· ½
è® «
å¤§ é©¬
äºİ æĺ¯åľ¨
è¡ «
åĴĮ åį¡
æķ ĸ
çİ ĸ
æĹ¥ æīį
æĹ¥ æ¸Ĳ
æĹ¥ å¹³åĿĩ
åĲİ ä»¥
ä»¥ éģ¿åħį
äºĨ ä¸ŃåĽ½
æĸ¯ æ±Ģ
ä¸Ĭ ä»¥
ä¸Ĭ ç´¢æģ©
ä»ĸ å°±
ãĢĭ ï¼ļâĢľ
çĶŁ éķ¿çļĦ
ä¸į ç®¡
éĿ ¼
ä¸İ æĿİ
æ¸ £
ä¹ĭ ä½į
åĲį è§Ĥä¼Ĺ
åĪĨ å±ŀ
æİ ĸ
åĪ° ç¾İåĽ½
è¢« æİĪäºĪ
é¢ ¤
é¢ į
ç¾ ¡
èĢĮ æĹł
èĢĮ èİ·å¾Ĺ
å¹¶ åĲĮæĹ¶
å¹¶ è¡¨ç¤º
å¹¶ æĪĲåĬŁ
å¸Ĥ å¤§
å¤ļ éĥ¨
éģĵ ä¸Ń
é«ĺ å¤§
æĸ¹ ä½į
çĲĥ æĺŁ
çĶµ åİĤ
è·¯ è½¨
å¯¹ å¾ħ
å¯¹ æĸ¹çļĦ
å¦ ¨
æĪĺ çº¿
ä¹Ł ä»İ
ä¹Ł åĽłä¸º
ç¾İ å¥³
å¤© åĽ½
èĲ ©
è¿ĩ æķı
çŃī åĲĮ
çŃī æµ·åŁŁ
æĶ¿ å§Ķ
æľŁ èĩ³
ä½ĵ åĬĽ
èĤ ±
ç§ĳ çļĦä¸Ģç§į
å¸ĥ åĪ©
æ¬¡ è¦ģ
å®ī çº³
éĻ¢ çļĦ
éĩĳ é©¬
æ¯Ķ èµ·
ä¸¤ éĥ¨
åİ¿ å¸Ĥ
éĩį çĶ¨
åĽĽ æĸ¹
èį §
æŃ£ æľĪåįĩ
ç³» æķ°
éħ ļ
ç±³ åĵĪ
çģ ŀ
æ® ´
éĺ¿ åįļ
éĺ¿ å¯Ĩ
éĺ¿ å¡ŀæĭľçĸĨ
18 39
æ²» æĦĪ
æĶ¹ ä»¥
åħ± ä¸Ńå¤®
ä¹¦ éĿ¢
è£ ³
ç»Ł å¸ħ
åĲĳ è¥¿åĮĹ
æĿĳ æĿĳå§Ķä¼ļ
éĴ ®
å·´ å°¼
æıĲ èµ·
æıĲ éĨĴ
ç¥ŀ æŃ¦
çĽ´ éĢļ
çĽ´ è¾¾
ç»´ çĶŁç´ł
çŁ³ å·Ŀ
çŁ³ ç¢ĳ
åį¡ çļĦ
åį¡ é²ģ
ä¼ł è¾¾
åĪĻ åı¯
å¥¥ æģ©
å¯¼ å¼ķ
ä½įäºİ ç¾İåĽ½
æĮĩ çļĦ
æĮĩ åįĹ
åħī è¾ī
åħī çģ¯
å¼ł äºķ
çĻ½ éĵ¶
åĩ» æºĥ
ä¿¡ æµĵ
è¿ĳ èĹ¤
ä¼Ĭ è¾¾
ä¼Ĭ æ´Ľ
åħŃ åĵģ
åĲĦ å¼ı
ç¦ı å¯º
ç¦ı äºķ
æ¸ħ æ´Ĺ
è§£ è¯»
ĠS im
Ġ- >
åĪĴ ä¸º
æķħ åĲį
ĠC ent
åĵĪ è¿Ī
è¾¹ éĺ²
æ¬§ åĨł
æĶ» çķ¥
14 00
åıĮ èĥŀèĥİ
ç¢ ģ
ç¢ ĺ
å¡ŀ ç»´
èĲ½ å®ŀ
ĠM useum
è¯º æĭī
èĩ´ çļĦ
çİ¯ å½¢
åĽłä¸º å®ĥ
çº¢ å®ĿçŁ³
çĻ¾ ä½Ļ
æİ¨ å´ĩ
æĽ¼ è¾¾
åī¯ æĢ»ç»Ł
åī¯ æĢ»è£ģ
å£° ä¹Ĳ
åıĭ äºº
çĥŃ åĬĽåŃ¦
çĭ¬ å®¶
ĠP e
æİĪ è¯¾
æ¥¼ å®ĩ
åŁĥ ç±³å°Ķ
éĻį æ°´éĩı
çĽĳ çĶŁ
ä¹ħ ä¿Ŀ
æŀģ éĢŁ
åĶĲ é«ĺå®Ĺ
æĺ¥ èĬĤ
æĿ° å°¼æĸ¯
ä½Ľ çĳŀ
ä½Ľ å±±å¸Ĥ
ĠT echn
ç¬¬ä¸ī ä½į
è½½ æľī
å¹´ä»£ åĪĿæľŁ
èµ° åĪ°
æľŁéĹ´ çļĦ
åĿ¦ æ³½åĭĴ
å°¾ éķ¿çº¦
èī¾ çķ¥
èī¾ åĵĪè¿Ī
ĠH ot
æľĢä½³ å¥³ä¸»è§Ĵ
ç¤¾ä¼ļ ç§ĳåŃ¦éĻ¢
æĳĦ æ°ı
æ¤į æłª
æłĳ æŀĿ
et a
ä¸´ æµİ
çªģ åĽ´
è½® æ¤ħ
é½Ĳ å¥¥
çŁŃ éĢĶ
å©ļ åĲİ
å¼¹ æĢ§
å®ĭ åĨĽ
äºĨä¸Ģ ä½į
ä¸ºäºĨ è®©
è´µ äºº
à¸ ¢
æĭ¥æľī çļĦ
æį¢ åıĸ
èĸ ¨
éªĳ é©¬
40 4
æł¸ ç³ĸ
ra k
ra in
åģĩ å¦Ĥ
åª ³
ĠN e
è½¨ è¿¹
åĲĪä½ľ ä¼Ļä¼´
æļ´ é¾Ļ
è¾ĵ ç»Ļ
è·Ł è¸ª
å¿ł å®ŀ
åĨĪ å±±åİ¿
é¡¾ çĲĽ
å®¡ è®®
è¥¿çıŃçīĻ äºº
æĪĪ èĴĤ
å¢ŀåĬł åĪ°
åĮ¹ åħ¹åł¡
é©¬æĿ¥ éĤ®æĬ¥
è°Ī è¯Ŀ
åĿļ å®Ī
åı¬ åĽŀ
ĠO n
èŀį èµĦ
è¾ħ éŁ³
å¨ģå»ī å§Ĩæĸ¯
åĩ¤ éĺ³
åĲ¦ å®ļ
ä¸¤äºº åľ¨
è¾½ éĺ³
æ½ľ åĬĽ
çĮİ æĿĢ
åħ¬åħ± åį«çĶŁ
ov a
ä»įçĦ¶ æĺ¯
è¡¡ éĺ³
ç¦Ħ å±±
åıĽ åıĺ
å¤§çº¦ æľī
Ġ198 0
åħĪåĲİ åľ¨
èµĲ äºĪ
çļĦä¸» åĬĽ
å½Ń åŁİ
åĩłä¹İ æ²¡æľī
ä¸§ å°¸
ãĥª ãĤ¢
æ°§åĮĸ çī©
çļĦé¦ĸ å¸Ń
æ·® æ²³
ç¬¬åįģ ä¸ĥ
æĹħæ¸¸ ä¸ļ
ä»·åĢ¼ çļĦ
å²Ĺ å²©
æĤ² ä¼¤
åĽ½éĺ² åĨĽ
åĩĢ åľŁ
éŁµ å°¾
å·« æľ¯
å¼ĹæľĹ èĮ¨
å¼ºçĥĪ çĥŃå¸¦é£İæļ´
ç§ĳå°Ķ æ²ģ
è®¤è¯Ĩ äºĨ
é£ŁæĢ§ ä¸º
æĬ« éľ²
æĬ« éĴĪ
å¸ĥåħ° çĻ»
à¹ Ī
è£ģåĪ¤ å®ĺ
sk i
æ³¢å£« å°¼äºļ
è¾¾å°Ķ æĸĩ
èı© æıĲ
èµŀåĬ© åķĨ
åīĬ åĩı
ä¼įå¾· è±ªæĸ¯
æİł é£Ł
æİł å¤º
å¸ĸ æľ¨åĦ¿
Ã¼ r
æī£ éĴŁ
ç½ĳçĲĥ åħ¬å¼ĢèµĽ
çļĦèĢģ æĿ¿
Ð´ Ð°
éĩĩè®¿ æĹ¶
åŃŁåĬłæĭī åĽ½
Ġæĸ°åŁİ åĽ½è¯ŃåĬĽ
è¯Ī éªĹ
ç¥ŀæĪ· å¸Ĥ
åİļåº¦ çº¦
æľĢç»Īå¹»æĥ³ V
è°¢å°Ķ çĽĸ
å®¾å¤ķæ³ķ å°¼äºļå·ŀ
å®īè¾¾ åį¢
unn ing
osaur us
å·´æ¯Ķ ä¼¦
æĭīæĸĲ å°Ķ
å©Ĩç½Ĺ æ´²
æĺİå°¼èĭı è¾¾
çĻ¾ç§ĳ åħ¨ä¹¦
ĠLim ited
çłĶè®¨ ä¼ļ
æľīåı² ä»¥æĿ¥
é©¸ é©¬
éŀĳ éĿ¼
åĽ½ä¸Ńå°ī æľ±
A ç»Ħ
E L
E LE
K ar
L uc
S and
W e
W est
W orld
i ence
m en
o j
p a
p ar
w ell
y an
² æĺ¥
Ã ł
Î º
Ġ ê
Ġ åı¯
Ġ å¸ĥ
Ġ æŃĮ
Ġ é²ģ
Ġ çĶ±äºİ
Ġ 23
Ġ éŁ¦
Ġ èĪįå¼Ł
ãĢ ħ
çļĦ åĴĮ
çļĦ ä»ĸ
çļĦ æ¼Ķåĩº
çļĦ èµĦæĸĻ
çļĦ èº«ä½ĵ
çļĦ èĥľåĪ©
çļĦ åİĭåĬĽ
çļĦ å¨ģèĥģ
ãĢĤ ãĢįï¼Ī
å¹´ éĿĴ
å¹´ åĽ½éĻħ
å¹´ ä¹ĭåĲİ
å¹´ åĮĹäº¬
å¹´ åħ¥éĢī
å¹´ å®Įå·¥
ä¸Ģ ä¸Ģ
ä¸Ģ ä½ľ
ä¸º çİĭ
ï¼ī âĢĶâĢĶ
æĿ µ
ä¸Ń èĭ±
ä¸Ń é£İ
æĺ¯ æ¬§æ´²
å· »
åĽ½ å°ĨåĨĽ
äºº åįł
äºº åıĹä¼¤
éĩ ī
å¤§ äºº
å¤§ æ²³
å¤§ éĥ½çĿ£
éĥ ¸
å¥ Ħ
åĴĮ é»ĳ
æľĪ çĶ±
æķ ŀ
éĻ ĭ
æĹ¥ åĪ°
æĹ¥ åīį
åĲİ å¼Ģå§ĭ
åŃ¦ ä¸Ń
æĪĲ ä¹¦
åľ° ä¸»
åľ° è²Į
ä¸Ĭ è½¦
ä¸Ĭ è¡¨
ä¸Ĭ ç©º
ä¸Ĭ èħº
ä»ĸ è¿ĺæĺ¯
æĽ ³
éķ ĸ
ä¸į å½ĵ
ä¸į ä¾¿
ä¸į ä¸Ģå®ļ
ä¸İ å¥¹
ä¹ĭ åĽ½
ä¹ĭ åĳ½
ä¸» é¾Ļç±»
è¡Į ç¨ĭ
è¡Į æĿİ
è¥¿ è¾¹
è¥¿ éŃı
æľ¬ æĢ§
è¢« åĳ½åĲįä¸º
çĶ¨ æ³ķ
ç¾ Ł
å¹¶ ç»§ç»Ń
çī¹ æĶ»
çī¹ èī²çļĦ
éķ¿ åŃĻ
çľ ©
ä¸ĭ è¾¾
èµĽ é©¹
åıĬ å¤§
ä¸ī åįģäºĮå¹´
å¾· çľģ
ä¸ľ å¾·
çŁ «
åĮĹ æĸĹ
åĬł åĽº
æĸ° ä¸ĸ
è·¯ ä¸Ģæ®µ
å¯¹ éĿ¢
èĬ ·
ãĥ Ĵ
ãĥ Ļ
åĬ¨ æ¤įçī©
å±± å³°
æĪĺ å¹³
åĨħ æĶ¿
äºĭ é¡¹
ãĢį ï¼īãĢĤ
è½¦ èº«
çŃī ä¸»æ¼Ķ
å·¥ åĨľä¸ļ
æľº éĺŁ
å¸ĥ èµĸ
éĢļ åĪ¤
æĦ §
å®ī éĿĻ
å®ī ç¦Ħå±±
ä½¿ é¦Ĩ
åħ¨ åĬĽ
è¡¨ æī¬
ãģ ¶
åİŁ çīĪ
æł¼ å°Ķæĸ¯
çĽ¸ è·Ŀ
èī² è°ĥ
çº¦ ä¼ļ
ä¸ŃåĽ½ åĽ½æ°ĳåħļ
é¦ĸ åľĪ
æĶ¹ å±ŀ
åħ± çº¿
èµ· çĶ¨
æ¸¯ éĵģ
å¿ĥ çģµ
å¸¸ åľ¨
ä¹¦ å±Ģ
çº§ æķ°
åįİ ä¸Ń
åįİ åħ¹
éĴ ı
å·´ å¡ŀå°Ķ
èİ· éĢīä¸º
åı¤ çĲ´
è¯´ ä»ĸ
çŁ³ åĭĴ
çŁ³ å¸ģ
æł¡ åĿĢ
é¾Ļ éĹ¨
ä¸ĩ å¼ł
ä¸ĩ ä»½
ä¸ĩ ä½Ļ
ä½įäºİ åįĹ
ä½įäºİ åĽĽå·Ŀçľģ
æĥħ ä¾£
èĬĤ çľģ
ç¤¾ ç¨·
åĽŀ æĬ¥
å¥¹ ä»¥
åħī æ³½
æĽ´ é«ĺçļĦ
å®ĺ åħµ
å®ĺ éĤ¸
è¿ĺ è¢«
è¿ĺ æľīä¸Ģ
åıĺ å·®
å¤´ åı·ç§įåŃĲ
è¿ĳ ä¹İ
çŁ¥ äºĭ
äº¬ éĥ½å¸Ĥ
èģĮ æĿĥ
ç¬¬ä¸Ģ éĽĨ
ç¬¬ä¸Ģ æĿ¡
åıª éľĢ
èĭı æĭī
å®ĥ åĩıå¼±ä¸ºä¸Ģ
åľ£ äºº
åľ£ ä¿Ŀç½Ĺ
çĸ ¹
æīĵ æī®
å®Ĺ æĹ¨
æĶ¶ äºº
æĶ¯ æŁ±
æĶ¯ éĺŁä¼į
å¸Ŀ æ±¶
äº² æĪļ
èĬ± çĶŁ
èĬ± æľµ
æ¸ħ å»·
åħĪ åľ¨
å¨ģ å°Ķé¡¿
ĠS al
é»Ħ éĵģçŁ¿
çłĶç©¶ å®¤
åĪĽ ä¼¤
èħ ¥
æŀĦ æĥ³
ç¦» ä»»
ç¦» èģĮ
å½ķ å¾Ĺ
åħļ å§Ķä¹¦è®°
éļı æĹ¶
è¾ĥ éķ¿
èİ·å¾Ĺ èĢħ
æ²¡æľī è¢«
æĬķ å¥Ķ
å²ģ æľĪ
ä¿® ç¼®
14 4
çĶ· æŃĮæīĭ
æ¡¥ æľ¬
å®¢ äºº
è´Ŀ ä¼¦
å®« åŁİ
æģ© ç§ĳ
åį° ç«ł
éĻĪ ä¸Ģ
å®£ èªĵ
èĪª éģĵ
æĻ¯ æ³°
å¤± èĲ½çļĦ
åĪĺ ä»ģ
å±Ĥ éĿ¢
åįĬ å¯¼ä½ĵ
åī¯ æł¡éķ¿
åī¯ éĻ¢éķ¿
å£° è°ĥ
çĥŃ çĪ±
çĥŃ åĪº
çĭ¬ è¡Į
åĲĮæĹ¶ æ®µ
è¿ª å¥¥
ĠP ol
å°Ħ ç¨ĭ
çĽĳ æİ§
æĶ¿æ²» çĶŁæ¶¯
åĶĲ é«ĺç¥ĸ
ä¸¹ å°¼
ç¬¬ä¸ī ä»£
åĨľ ä½ľçī©
åĿ¦ æ¡ĳ
éº¦ å½ĵ
ĠL a
ä¼ĺ ç¾İ
å¼Ĥ å½¢
åĲ´ åĽ½
éĽĦ é±¼
ä¾Ŀ éĻĦ
åģļ å¥½
ä½Ĳ åĬ©
çªģ åĩºçļĦ
èı² æ²Ļ
ĠG o
éļ¾ æ°ĳ
ä½Ĩæĺ¯ çĶ±äºİ
ä»ĭ åħ¥
ä»ĭ è´¨
åĮĹéĥ¨ çİĦ
åĨ³å®ļ åľ¨
åĪº å®¢
åĪ¤ å®ļ
æ¯Ĵ ç´ł
å®£å¸ĥ äºĨ
å»ºç«ĭ äºĨä¸Ģä¸ª
ra z
èĵĿ åħī
æľĢé«ĺ èĭıç»´åŁĥ
åŃĺåľ¨ çĿĢ
ä¸ĢèĪ¬ æĿ¥è¯´
å°ıè¯´ çļĦ
éľį æ¡ĳ
èµµ æ°ı
å®¶æĹı æĪĲåĳĺ
æķĳ åĩº
æ®¿ è¯ķ
å¾Ĳ çĽĽ
ĠN orth
ä¼ļè®® å¸Ń
éĩĩçĶ¨ çļĦ
èģĮä¸ļ èģĶèµĽ
æŀª åĩ»
éĢĥ éģ¿
åħħ è¶³
ç½ª æģ¶
å¥ī è¡Į
åĢŁ åı£
å¥³åŃĲ åĽ¢ä½ĵ
ä¸»è§Ĵ çļĦ
çŁ¿ ä¸ļ
ie w
æ±ĩ ä¸°
çıį å¨ľ
æĴŀ è§Ĵ
åĲ¦ åĨ³
ec k
æķĻåłĤ çļĦ
è®°è½½ äºĨ
ri an
é£ŀæľº çļĦ
åĿı äºº
ï¼ģ ï¼Ī
åĽ½æ°ĳ éĿ©åĳ½åĨĽ
ç»Łæ²» æĹ¶æľŁ
è¾ŀ å®ĺ
ä¸Ńæĸĩ å¤§åŃ¦
èµĦæĸĻ æĿ¥æºĲ
ä¼° ç®Ĺ
èĥ½å¤Ł åľ¨
ak er
æ°ĳæĹı ä¸»ä¹ī
åįıåĬ© ä¸ĭ
ĠU SA
æ³³ æ±ł
ph en
åºĶçĶ¨ ç¨ĭåºı
åħ¬å¸ĥ äºĨ
Ġb l
çļĦä¸» åľº
æĶ¹åĪ¶ å¹¶
if f
ãĤ¯ ãĥŃ
å¡ĳ èĥ¶
æµ·å²¸ çº¿
éĤ®æĶ¿ å±Ģ
ç¾½æ¯ĽçĲĥ åĽ½éĻħèµĽ
å°¤åħ¶ æĺ¯åľ¨
è¿Ŀ è§Ħ
æĮĩå¯¼ ä¸ĭ
è¹ Ħ
èĥ¸ éĥ¨
èĳ¡èĲĦçīĻ äºº
çĭŃ å±±
éĨĴ æĿ¥
æĸ© æĿĢ
çº¬ åº¦
ann el
ä¸ĵéĹ¨ åŃ¦æł¡
æī¶ å£ģ
è¿Ļåº§ åŁİå¸Ĥ
AP G
ä¸īåĽ½ æ¼Ķä¹ī
Ar ch
åŁĭ èĳ¬
æĸ°äºº çİĭ
å¸ĪèĮĥ åŃ¦éĻ¢
çĮľ æµĭ
èĢĹ èµĦ
ç¨Ģ å°ĳ
ĠAr t
èĬ¦ ç«¹
æĺŁéĻħ å¤§æĪĺ
èĮħ æĸ¯
é©³ åĽŀ
æĻļæľŁ çļĦ
éĶĻè¯¯ çļĦ
æīĵçł´ äºĨ
å¤ļå°Ķ è¡®
èĲĿ åįľ
æİ§èĤ¡ æľīéĻĲåħ¬åı¸
ĠPart y
æīĺå°Ķ éĩĳ
æł¼æĭīæĸ¯ åĵ¥
ĠCl ub
éĶħ çĤī
æİ© æĬ¤
ä¹¦æ³ķ å®¶
æĭĺ æįķ
yp e
éŃĶå¥³ ä¹ĭæĹħ
ç«ĭäº¤ æ¡¥
äººåĿĩ çº¯
åįĹæĬķ åİ¿
çŃĽ æ³ķ
èĭĹæłĹ åİ¿
åĪĨç»Ħ èµĽ
å¡ŀåĨħ åĬłå°Ķ
ä¸ºé¦ĸ çļĦ
å®¾å¤ķæ³ķ å°¼äºļ
çµ ®
ç¾İå¼ı è¶³çĲĥ
ç§ĳè¥¿ åĺī
çĪ±å¥½ èĢħ
åĨ¬å¥¥ ä¼ļ
å¤Ń æĬĺ
ä¼Ĭèİİ è´Ŀæĭī
åħ¶èĮĥåĽ´å¤§èĩ´ åĮħæĭ¬
å·´å¡ŀéļĨ æĭ¿
åı²èĢĥ çī¹
å·´å°ĶçļĦ æĳ©
å¥¥åĮĪ å¸ĿåĽ½
å¼ºæ¡£ çļĦ
æ¢¦æºª ç¬Ķè°Ī
çļĪ ä¾Ŀ
åĮĹéĥ¨çİĦ é©¹
B L
C am
J oh
L ove
N orth
T D
V iu
f ield
i et
o e
s q
v el
Ã ª
Î ¯
Ð Ł
Ġ åĪ°
Ġ åıĬ
Ġ ç§ĳ
Ġ å®ĥ
Ġ æ£®
Ġ æ²Ļ
Ġ åıĤåĬł
Ġ 24
Ġ ç«¹
Ġ æ½ĺ
Ġ åĨ¯
Ġ Ñģ
Ġ åĽ½éģĵ
çļĦ åĬ¨çī©
çļĦ è¯ģæį®
çļĦ æĢģåº¦
å¹´ åħ«æľĪ
ãĢģ âĢľ
ç» ¶
åľ¨ éŁ©åĽ½
åľ¨ æİ¥ä¸ĭæĿ¥çļĦ
ä¸º çĻ½èī²
ä¼ İ
åĨ ī
ä¸Ń æĺ¯
å¤§ æĺİ
å¤§ åĶĲ
æľī ä¸¤ç§į
æŃ ³
åĴĮ åįİ
åĴĮ ç®¡çĲĨ
æľĪ åĴĮ
æĹ¥ åħĥ
æĹ¥ åıĳåĶ®
èĩ »
æĪĲ é¾Ļ
ä¼ļ ä½¿çĶ¨
ä¼ļ è°Ī
ä»ĸ æĽ¾åľ¨
ä¸į ä½ı
ä¸İ äºº
ä¸İ é«ĺ
ä¹ĭ åĬĽ
éģ Ĳ
ä¸» å°Ĩ
è¡Į è¿Ľ
åħ¶ æłĸæģ¯åľ¨
çŃ ı
é¦ Ī
èĭ ³
èĭ ĵ
èĢĮ æĹłæ³ķ
åįĹ å®ī
ä¸ĭ è¡¨
ä¸ĭ æīĭ
ç± ½
çĶ± æĹ¥æľ¬
ä¸ī å¤©
ä¸ī æĺŁ
åĲĮ è¡Į
æľĢ å¸¸è§ģçļĦ
ä¸ľ æŃ£
ä¸ľ æ¸¯
ç¥ ī
åĮĹ åį¡ç½ĹæĿ¥çº³
æ³ķ å¸Ī
æ³ķ è¥¿æĸ¯
èĩª åį«éĺŁ
è¿Ļ ä¸īä¸ª
äºĮ éĺŁ
åĬł è£ħ
åĬł å¿«
å»º åħĥ
èĬ ĭ
å±± åºĦ
çİ° æķĪåĬĽäºİ
æĪĺ åīį
å°ı å²Ľ
å°ı çĨĬ
æµ· è±ļ
å¤© æ²³
å¤© æºĢ
é©¬ ä½į
éļ į
å°Ĩ è¦ģ
å°Ĩ è¿ĻäºĽ
çİĭ å®¶
å¹³ å£¤
å½ĵ æĪĲ
ä½Ĩ è¯¥
å®ī ä¸Ļ
ä¸ļ èĢħ
åħ¨ åī§
æ¯Ķ æĸ¯
æ¯Ķ åħĭ
ä¸¤ åľº
ä¸¤ åı°
ä¸¤ é¢Ĺ
æĢ§ æĥħ
æł¼ å¥¥å°Ķ
åı² åĮ¹
æį £
åŁº åºķ
18 35
åĪĹ å¤«
åĪĹ ä¸¾
é¦ĸ å®¶
å±ŀ çļĦä¸Ģç§į
èµ· äºİ
æ· Ħ
éĶ Ĥ
12 6
æ²³ ä¸Ń
æĹł æĦı
ä¿Ŀ åħ»
äº¤ æīĭ
å·´ èĴĤ
ç¥ŀ åŃ¦å®¶
èº ģ
ä¼ł éģĵ
çĤ¹ çĩĥ
åĪĻ ç§°ä¸º
åıĹ åĳ½
æµģ æ´¾
æĥħ æĻ¯
åĪ« ç§°
åħī çº¿
15 7
å±ķ é¦Ĩ
æĿİ å¿Ĺ
æŃ¦ åĳ¨
ç¼ĸ å®¡
ä¼Ĭ å°¼
æ´» å¡ŀ
åıĸ æĿĲ
èĭı éĹ¨
æ³¢ å¸Į
è½¬ å½ķ
åķ ¶
å¼Ģå§ĭ è¿Ľè¡Į
è§£ çº¦
16 2
ä¸ĸçķĮ å·¡åĽŀæ¼ĶåĶ±ä¼ļ
å¨ģ æµ·
é»Ħ èī²çļĦ
æŃ» ä¼¤
ä»Ĭ éĻķè¥¿çľģ
is ter
åĲī å§Ĩ
éĽ· éľĨ
æ¥ ½
æ±ī å®£å¸Ŀ
åĵĪ æ¡ĳ
ç»Ļ å·´å°Ķ
ä¿® è¡Į
èĲ¨ åĪ©
æ°ı æĹı
çļĩ åĨł
å¾Ī åı¯èĥ½
å¿Ĺ çķĻ
åĬŁ åĬ³
æĬ¤ èĪª
è´Ŀ å¾·
è´Ŀ æĢĿ
æł· æĿ¡
çª ¥
åıĮ æĸ¹çļĦ
å¼ķ åĬĽ
å®£ éģĵ
é£Ł äºº
æ¨¡ ç³Ĭ
ç¥ĸ å¸Ī
çĻ¾ å¼º
æİ¨ ç§»
åįĬ å¹´
åī¯ æķĻæİĪ
ä¾Ľ æ°´
éģĹ æĨ¾
çĭ¬ åŃ¤
æ±Ĥ å©ļ
è¿ª æģ©
èĪ° ä¸Ĭ
æĭħä»» è¿ĩ
ç´ł æĿĲ
å¤ı ç¿łä¸Ŀ
è¶³çĲĥ èµĽ
çľĭ æĿ¥
ur t
å¯Į åĲ«
èįī å±¯
æŀģ å°ĳ
ä½İ åİĭ
é¢Ħ åħĪ
æ´¥ æĿĳ
æ´¥ è´´
æĻĭ èº«
æł¹æį® ç¾İåĽ½
ä¼ĺ èī¯
èŃ¦ åį«
ä½Ĳ ä½Ĳ
è½® æµģ
è½» éĵģ
èīºæľ¯ åįļçī©é¦Ĩ
è°· æĿĳ
æľīä¸Ģ ä½į
ĠG irl
ĠD av
å®¾ é¦Ĩ
çİī çİ¯
èµ« çī¹
èİī æĭī
åĪ¤ å®ĺ
åĲĽ åŃĲ
éħ¸ æĢ§
èĥ¡ å¿Ĺæĺİ
å°ıè¯´ ä¸Ń
å·¨ èĽĭ
ä½© éĩĮ
å¼Ģåıĳ åķĨ
äº¿ æ¸¯åħĥ
ç¿¼ éķ¿çº¦
éĺ¿å°Ķ ä¼¯çī¹
é¡¾ ä¼Ĺ
æ£ĭ éĻ¢
éĢı è§Ĩ
èĮ¨ åĿ¦
ä¿±ä¹Ĳéĥ¨ çļĦ
çİ°ä»£ çļĦ
æ±ł çĶ°
æĭĽ å¼ı
åľ°æĸ¹ çļĦ
å®ĥä»¬ åľ¨
è®Ńç»ĥ çıŃ
ä»Ķ ç»Ĩ
çŁ¿ äº§
è±ª éĹ¨
æ¸¡ è¿ĩ
æµª æ½®
å¹¼ é±¼
è¾½ æľĿ
æ²ī é»ĺ
è·³ è·ĥ
å¤ªéĺ³ çļĦ
Ð¸ ÑĤ
è¿Ī éĺ¿å¯Ĩ
çİĦ åŃĻ
åľ°éĵģ ç«Ļ
æħĪ ä¾įä¸ĭ
åįıåĬ© çĲĥéĺŁ
Ã© n
å°ıåŃ¦ é¦Ĩ
ä¼ı åĩ»
å¹´è¢« åĪĹä¸º
åŀĴ æīĭ
åħ´å»º çļĦ
ah n
æĳĦå½± æľº
çļĦå¤ĸ äº¤
å°ĳå¥³ ç»Ħ
çĶŁæĢģ åŃ¦
é²į éĩĮæĸ¯
å©Ĩ å©Ĩ
éģĵåħī å¸Ŀ
éĩĮäºļ çº³
ord s
Ġé¦Ļæ¸¯ è¯Ŀåī§åĽ¢
ĠY ou
åĽĽåįģ ä¸īå¹´
åįģåħŃ åĽ½
çļĦåĲİ ä»£
ric on
ç¥Ŀ ç¦ı
åıĳçĶµ åİĤ
ath an
çİ² çıĳ
çĪµå£« ä¹Ĳ
çī¹éĩĮ åħĭ
è¿Ļé¦ĸ æŃĮæĽ²
ä½įäºİæ³ķåĽ½ è¯ºæĽ¼åºķå¤§åĮº
æ¸¸æ³³ æ±ł
æī« æıı
æĺŁéĻħ æĹħè¡Į
åĸĻ å®½åº¦çº¦
åĸĻ åİļåº¦çº¦
èĮĦ èĭ³
åīĬ å¼±
æľĢä½İ çļĦ
æ²¿æµ· çľģä»½
æĪ·éĥ¨ ä¸»äºĭ
å¤§çĲĨ å¯º
ç§ĳçļĦ åħ¶ä¸Ńä¸Ģç§į
èĤ¾ ä¸Ĭèħº
æ¤Ń åľĨ
And roid
çķľ çī§
æ¦´å¼¹ çĤ®
Ġ*** *
é¦Ļæ¸¯ç«¥åĨĽ ä»£è¡¨åĽ¢
æ±ķå¤´ éľ²éľ²
éĻ¨çŁ³ åĿĳ
å·´æĭ¿ é©¬
é³ĥ çĽĸ
åĪĹåħĭ è°¢
æ£Ģå¯Ł å®ĺ
æ´¾åı° æŃĮæĽ²
ç»ĵè¯Ĩ äºĨ
è¿Ļä»¶ äºĭ
ä¸ĸçºªä¸Ń åı¶
æ®ĭçĸ¾ äºº
å¥¥æŀĹåĮ¹äºļ ä¸Ŀ
çĻ½åŃĹ æĪı
æĭ· è´Ŀ
åŁ¼ çİī
åı°æ¹¾æ¸ħæ²»æľ«æľŁèĩ³æĹ¥æ²» åĪĿæľŁ
æŀĹåĺī çº¬
éĢļè´§ èĨ¨èĥĢ
çķĻå°¼ æ±ª
è¤Ĵè´¬ ä¸įä¸Ģ
è·Ĺè·ĸ éķ¿çº¦
çº¢è¡£ ä¸»æķĻ
èī¾åĵĪè¿Ī å¾·
æĪĪèĴĤ èĢ¶å¨ĥ
åĿ¦æ¡ĳ å°¼äºļ
6 18
B R
B åŀĭ
C an
D om
J oseph
R eg
S BS
T s
V R
r um
s en
u an
Ċ ãĢĢãĢĢ
Ġ åĽł
Ġ è¾¾
Ġ æ¹ĸåįĹ
Ġ è°Ń
çļĦ G
çļĦ åıĳ
çļĦ åĨĽ
çļĦ çĶµ
çļĦ äºĶ
çļĦ äº§åĵģ
çļĦ ä¸»é¢ĺæĽ²
çļĦ è±¡å¾ģ
å¹´ å¹³åĿĩ
å¹´ ä¹ĿæľĪ
åį ī
ç» ļ
åľ¨ äºĨ
åľ¨ åħ¶ä»ĸ
åľ¨ åĲĮå¹´
åľ¨ è¿Ļä¸Ģ
ä¸Ģ å¹´çļĦ
ä¸Ń è¯´
ä¸Ń æł¡
ä¸Ń å®Ĺ
ä¸Ń åįĪ
å¤§ å°ıçļĦ
å¤§ å¼¯
æī ¯
æī ³
èµ ģ
åĴĮ æĹ¥æľ¬
åĴĮ ä¼Ĭ
åĴĮ éĿŀ
åĴĮ æ³ķåĽ½
åĴĮ ä¸¤ä¸ª
æĹ¥ è¿Ľè¡Į
æł ĥ
æ² ®
ä»¥ é«ĺ
åľ° æ®µ
ä¸Ĭ ä¸İ
ä¸Ĭ æ¦ľ
ä¸Ĭ è®®éĻ¢
ä»ĸ æĬĬ
åĩº ä¸Ģ
åĩº çº¿
åĩº èµ°
æ¯ Ļ
çĶŁ æ°Ķ
ä¸į æĿ¥
ä¸į è®¾
ä¸į åĮħæĭ¬
åĲį å£°
è¥¿ ç«¯
åĪĨ éļĶ
åıĳ è§ī
èĢĮ ä¸ĭ
åıĬ åľ¨
ä¸ī ä¸ĩ
æĿ¥ è¿Ľè¡Į
æĿ¥ åĪ°äºĨ
åĲĮ ä½įç´ł
å¤ļ æĹı
éģĵ éĽª
éģĵ çĽĳå¯Łå¾¡åı²
å¼Ģ æĿ¥
å¼Ģ å¤´
äºĮ åįģäºĮ
æĸ° å¨ĺ
æĸ° ä¸Ģä»£
ãĥ ļ
å±± æŀĹ
ä¹Ł å¯¹
ä¹Ł è¦ģ
å°ı åĵģ
æµ· äºĭ
æµ· ä¸°
å¤© éĩİ
é©¬ è¥¿
å°Ĩ ä»ĸä»¬
æľº èº«
çİĭ åĨł
çİĭ èİ½
ç§ĳ æ´Ľ
ç½Ĺ å§Ĩ
ç½Ĺ æ²ĥ
ä½Ĩ ä»ĸåľ¨
å®ī æł¼
å®ī åºĨ
å®ī ç¬¬æĸ¯
åŁİ ä¸ĭ
åŁİ éĤ¦
è¯¥ å¤Ħ
è¯¥ å±Ĭ
æ¯Ķ éĶ¡
éĥ½ çģµ
æł¼ æ´Ľ
å£« é¡¿
ãĤ ħ
æ°´ çĶŁ
er b
er c
ç±³ å¾·
éĺ¿ å¤«
å°¼ å¾·åħ°
èĭ± åĲīåĪ©
18 58
åħĥ èĢģ
å¨ ´
æīĭ ç¨¿
åİĨ æĿ¥
æĶ¹ éļ¶å±ŀäºİ
èµ· å±ħ
è§Ĩ åĬĽ
åł º
12 2
æ²³ éĹ´
éĴ ĭ
æĴ ¼
ç¥ŀ çĶ°
ç¥ŀ æ®¿
åı¤ åŁĥåıĬ
ç»´ äº¬
æµģ æĦŁ
ç¾İåĽ½ çĶµå½±
å¤Ħ åĪĨ
æĥħ æŃĮ
ç¤¾ åĮºçļĦ
åĪ« çļĦ
æľĿ ä»ĵ
åħī åº¦
å¤´ è§Ĵ
çĻ½ çİī
å°ĳ äºİ
ä¿¡ å¿µ
çĵ ®
æĿİ çī¹
æĿİ ç»´
çĶ° åĮº
åĪĿ æģĭ
è¿ŀ åŁİ
æ¸ħ æľ«
16 4
éĺ³ æĺİ
æŀľ çĦ¶
åıį é©³
ä»Ĭ æ²³åįĹ
èħ »
æŀĦ å»º
å¡Ķ æł¼
å¡Ķ ä»Ģ
ä»ĸä»¬ è®¤ä¸º
åħļ æ´¾
æ±ī å§Ĩ
çĵ¦ å°Ķå¾·
ç»Ļ å¥¹
ç»Ļ èį¯
å¸Į å§Ĩ
æ¯ı ä¸ªäºº
åŃĺ æľī
æĶ» åŁİ
13 6
13 8
çĶ· åıĮ
é²ģ å¤«
æ²Ļ éĺ¿
æ¡¥ çļĦ
æĪĳ æĺ¯
ä»ĸçļĦ å¦»åŃĲ
éħį ä»¶
åıĮ åŁİ
å¯Ĩ æŃĩ
å¡ŀ æĸ¯
å¡ŀ çī¹
èİ± ä¸ĩå¤ļ
è¨Ģ å®Ĺ
é¹ Ī
å¼ķ æ°´
ĠM od
æ·± éĢł
çİ¯ å¸¦
æ³° åĴĮ
æĽ¼ åŁİ
æİĴ åºı
æĺĵ äºİ
åī¯ æĢ»
æĦŁ çŁ¥
åĿĩ ä»¥
åĺī å®ļ
éĩİ çĮª
ç½ĳ çļĦ
åĨĻ ä¸ĭ
ä»£è¡¨ äºĨ
ä»£è¡¨ é¦Ļæ¸¯
ĠP at
ä¾§ å®¤
ol ution
æĥ³ èµ·
æİĪ ç¿°æŀĹéĻ¢
æ¥¼ é«ĺ
ä¾¿ åı¯
çīĻ ä¹°
ä¸ģ çĥ¯
æĶ¿æ²» å±Ģ
å¼Ĺ æ´Ľ
åĩł ä½į
èİ« æĸ¯
éªĮ æĶ¶
è¿Ľåħ¥ åĩĨåĨ³èµĽ
åĩºçīĪ åķĨ
æłĳ ä¸Ĭ
æłĳ å¹²
åģļ æĪĲ
ä½Ĳ è¿ª
èĢ¶ è®·
ĠR ev
èīºæľ¯ é¦Ĩ
èīºæľ¯ ä½ľåĵģ
èĪ¬ èĭ¥
ĠD em
äºĮåįģ åħ«
æķħäºĭ ä¸Ń
æľįåĬ¡ äºİ
è¾ĸ å¢ĥ
åĪĨåĪ« çĶ±
éľ² è¥¿
åĲ¯ èĴĻ
åį· åħ¥
éħ¸ çĽĲ
çŃ¾ åĲį
åĬ³ åŁĥå¾·
éĻµ åħ°
æļ´ åĬ¨
la v
è·Ł èĳĹ
éĺ¿å°Ķ åıĬåĪ©äºļ
ad d
id a
éĴ± å¡ĺ
æĸ°éĹ» ç¤¾
ä»»ä½ķ äºº
éľĩ æĥĬ
æįķ é±¼
é«ĺéĢŁ åĬ¨è½¦ç»Ħ
ä¹Ļ æľª
æļĹ é»ĳ
éĽ¨ æ°´
æ¡ĳ ç»Ļå·´å°Ķ
èĮĥåĽ´ ä¸º
èĿ Ĺ
è¿İ å¨¶
æ±¤ æĻ®æ£®
ä¼Ł å¤§
ĠO l
æģĲ æħĮ
å¨ģå»ī æĸ¯åł¡
å¸ĮèħĬ æĸĩ
ä»»åĬ¡ æĺ¯
ec ial
çĸĳ ä¼¼
å¹¶äºİ åĲĮå¹´
éĶ¡ éĩĳ
å¹¼ åŃĲ
æŃ»äº¡ çļĦ
çĤ¸ æ¯ģ
Ġd el
å®ª å®Ĺ
ri b
å¼ĢæĶ¾ å¼ı
ĠSt ark
æ½ľ åħ¥
åľ°ä¸ĭ è½¦ç«Ļ
ä¼´ æĺŁ
ä¼´ éļı
æ© ±
æĬĺ ç£¨
ç»´å°Ķ çº³
å±ŀçļĦ æ¤įçī©
åĪĨéĴŁ çļĦ
æī§è¡Į å®ĺ
ut sch
Ġc on
è§Ħæ¨¡ æľĢå¤§çļĦ
æ®ĭ éª¸
æĹģ çĻ½
è´¾ å°¼
èĢĥåı¤ åŃ¦å®¶
ç¬¬åħŃ å±Ĭ
ç»ĵåĲĪ çļĦ
å¤ºå¾Ĺ åĨłåĨĽ
å½ĵä¸Ń åĮħæĭ¬
Ġ195 9
æŁĶ éģĵ
åŃ¤ çĭ¬
èįĴ åºŁ
é²į å°Ķ
ç§ĺä¹¦ å¤Ħ
é¼» åŃĲ
çİ»çĴĥ åĻ¨çļ¿
æĬĳ éĥģ
åº·çĨĻ å¸Ŀ
æ¼Ķå¥ı å®¶
éĽĩ ä¸»
ä¸Ģçº§ èµĽ
ç¨į å¾®
è¯¥åºĦ ç¼ĸåħ¥
ç¢± åŁº
æĹłè®º æĺ¯
åĴĸåķ¡ é¦Ĩ
åıįæĺł äºĨ
å¤§è§Ħæ¨¡ çļĦ
éľ²éľ² éĽĨåĽ¢
çļĦæĥħ å½¢
äº¬éĥ½ åºľ
è¥¿éĹ¨ åºĨ
ãĥĩ ãĤ£
åĬ²æŃĮéĩĳæĽ² é¢ģå¥ĸåħ¸ç¤¼
çĶ±è¯¥éģĵè·¯ åĲĳåĮĹ
æĬĹæĹ¥ æĪĺäºī
äºļçĳŁ çİĭ
ines e
ç¦ıçĶ° ç«Ļ
ros oft
åĬłçļĦ æĸ¯
å¨ģæĸ¯ åº·
å¿Ĵ èĢ³
åĬłåĭĴæ¯Ķ æµ·
é¦ħ é¥¼
ä¸ĥäºº åĪ¶
èĩ§ æ´ª
èĤ¯å°¼ è¿ª
ä¹į å¾Ĺ
åŀĦ æĸŃ
ĠSm ith
æĸ½å¡Ķ çī¹
Ti DB
ç¼ĸå¹´ åı²
éĻĽ ä¸ĭ
ĠEnter tainment
çĪ¬è¡Į åĬ¨çī©
åħĭä»Ģ ç±³å°Ķ
å¤įæĹ¦ å¤§åŃ¦
çī¹æľĹ æĻ®
éľįæł¼ åįİåħ¹
éĤ¯ éĥ¸
éĶ¦è¡£ åį«
åľŁä½ĲéĶ¦ é±¼
ä»ªåĲĮ ä¸īåı¸
å¿ĹçķĻ çºª
å¯ĨæŃĩ æł¹
èİ±ä¸ĩå¤ļ å¤«æĸ¯åŁº
A g
B re
B attle
J T
J an
L A
L ouis
O W
S R
S ar
V En
W il
X æŁĵèī²ä½ĵ
y a
á ĥ
Ġ '
Ġ éĩį
Ġ å¸¸
Ġ 25
Ġ ro
Ġ åı°åĮĹ
Ġ ãĤ¢
Ġ 1979
Ġ und
Ĥ èĥĦ
çļĦ åįķ
çļĦ åıĳçİ°
çļĦ æ³ķåĽ½
çļĦ åĩºçİ°
çļĦ èīºæľ¯
çļĦ è¡ĮåĬ¨
çļĦ è¡¨æ¼Ķ
çļĦ åĮĸçŁ³
çļĦ æ··åĲĪ
çļĦ çĽ®çļĦ
çļĦ æłĩå¿Ĺ
å¹´ åĨįæ¬¡
å¹´ å½ĵéĢī
çĶ ¥
åľ¨ å®¶
åľ¨ åİŁ
åľ¨ æ¸¯
ä¸Ģ æ¡¥
ï¼ī âĢ»
è¯ Ģ
ä¸Ń åĮº
ä¸Ń çº¿
ä¸Ń å¹³
ä¸Ń éĥ½
æĺ¯ åīį
å· ħ
è® ¶
åĽ½ åº¦
å¤§ çİīåĦ¿
äºİ ä¸ĸ
æľī åĪ«
åĴĮ åľ¨
åĴĮ ä¹Ł
åĴĮ å¥¹
åĴĮ æŃĮ
æľĪ éĹ´
æĹ¥ å¤ľ
åĲİ åĳ¨
åŃ¦ ä¸İ
æµ Ĵ
äºĨ èĩªå·±çļĦ
æĪĲ åĽł
ä¸Ĭ éĥ½
ä¸Ĭ éĩİ
ä¸Ĭ è¯¾
ä»ĸ äº¦
åĩº æīĭ
åĩº çĭ±
ä¸ª åĮº
æ´ Ĵ
ä¸į é¡¾
ä¸İ å¼ł
ä¸İ èĭ±åĽ½
åĲį ä¹ĺå®¢
å®¶ å±ħ
è¥¿ æĿĳ
åĪĨ é¦Ĩ
å» į
æľ¬ çľģ
æľ¬ èµĽåŃ£
èĢĮ äºİ
èĢĮ ä»¥
èĢĮ äº§çĶŁ
å¹¶ ä½¿çĶ¨
éķ¿ ä¹ħ
ä¾ Ī
ä¾ ĤèĥĦ
ä¸ī åŃĲ
æĮ ł
ä¸ľ çŁ³
ä¸ľ è¾¹
åĮĹ éģĵ
åĮĹ è¾¹
äºļ çī¹
å¤ļ åįĬ
å¤ļ åªĴä½ĵ
åı¯ éķ¿è¾¾
åı¯ è¯´æĺ¯
æ³ķ åĴĮ
èĩª å®¶
å¼Ģ è½¦
åīį ç§°
æĸ¹ éĴĪ
è¿Ļ åľ¨
è¿Ļ æĺ¯ä¸Ģç§į
è¿Ļ å¼łä¸ĵè¾ĳ
è·¯ èĩ³
å±± ä¸ĺ
åįģ åĲį
å¦ ³
èĩ³ åħĥ
ä¹Ł ä¸įä¼ļ
è° Ĵ
æķĻ åĳĺ
å°Ĩ å£«
å·¥ åĨľ
å·¥ èĹ¤
çĻ ĸ
æ°ĳ åĬŀ
å¹³ æĹ¥
ç½Ĺ åħ°
éĢļ å¿Ĺ
éĢļ èĪª
å®ī è¥¿
è®¾ ä¸º
è®¾ ç«Ļ
åĮĸ åİ¿
åı· åı¬
ä½¿ åı¸
åħ¨ åĲį
è¯¥ ä½ľ
éĩĳ æ£®
éĩĳ å¸ģ
éĩĳ åĶ±çīĩ
æı Ĩ
ä¸¤ åĳ¨
ä¸¤ éĥ¨åĪĨ
çĽ¸ äº¤
æĺİ çŁ³
åŁº éļĨ
ç±³ èĩªçĶ±æ³³
18 12
18 44
ä¸ŃåĽ½ é£İ
é¦ĸ è¦ģ
é¦ĸ ç§Ģ
æĶ¹ ç§°ä¸º
åħ± è®¾æľī
åı£ äºº
ä¹¦ æĪ¿
æĹł åı¯
äº§ åĲİ
ä¿Ŀ åĴĮ
ä¿Ŀ åŃĺåľ¨
å¹¿ ä¸ºäººçŁ¥
éĹ¨ åīį
æĺŁ æĺŁ
æıĲ ç¤º
åı¤ æĢª
èº º
åĮħ å°¾
èº« ä¸ĬçļĦ
é² Ģ
å¸Ī çĶŁ
å¸Ī éĹ¨
èĦ ĩ
æĮĩ æ´¾
éķĩ çļĦ
éķĩ æĢ»åħµ
åºĶ å¤©
åºĶ æĢ¥
çĻ½ æ²Ļ
ä¿¡ å¥ī
äº¬ çķ¿
æĻ® æķ¦
æīĵ åŃĹ
ç¦ı åħĭæĸ¯
æ³¢ çļĦ
åı¯ä»¥ åĪĨä¸º
åı¯ä»¥ éĢīæĭ©
åı¯ä»¥ çĶ¨æĿ¥
åı¯ä»¥ çľĭåĪ°
èĬ± å²Ĺå²©
è®° äºĭ
é»Ħ åŁĶ
ä»Ĭ å¹´
ç¦» å¿ĥ
å¡Ķ åĲī
åĲī èī¯
åį« å¤§å°ĨåĨĽ
ä¼¯ æĺİ
ä¹Ŀ ä¸ĸ
å±ħ æīĢ
çŃĳ å·¢
ä¸Ķ æľī
éĢŁ çİĩ
åĺ Ľ
14 3
äºī éľ¸
åĭĴ æĽ¼
å¤ĩ æ³¨
å®¢ æľº
è´Ŀ å°¼
è´Ŀ çĳŁ
å®« ä¸Ń
éħį å¯¹
é»ĳ åĲ»çľŁé²¨
å®¤ çĶº
é£ŀ é¾Ļ
é¹ «
ĠM on
ĠM ich
å¥ĩ å¼Ĥ
æ·± è¿ľ
è§Ħ å®ļçļĦ
èĩ´ çĹħ
éĹ® çŃĶ
çº¢ å¤ĸ
çĻ¾ æµİ
å© ¢
ĠA s
åĿĩ è¢«
çĥŃ æĥħ
åº· çº³
ä½ı å®¿
ĠB er
ĠP er
ĠP re
åł¡ çļĦ
æ¥¼ çļĦ
ä¸½ æ±Ł
æ¡Ī çļĦ
æ°¸ åİĨ
ur al
ur op
ç»ĥ é©¬å¸Ī
ç³»ç»Ł äº¤æµģéģĵ
å°ģ é¡¶
æĪ· éĥ¨å°ļä¹¦
ä½Ļ ä¸ĭ
ä½İ çļĦ
ãĢĭï¼Į ãĢĬ
åıĤåĬł è¿ĩ
èĹı åľ¨
é¢Ħ èŃ¦
åģľ çĶ¨
ç®¡çĲĨ å¤Ħ
èŃ ¬
ä¸´ ç»Ī
æĳ© ç½Ĺ
åİĭ åĢĴ
æľīä¸Ģ å®ļçļĦ
ĠG r
çļĦäºº åĳĺ
åħ±åĴĮåĽ½ çļĦ
æ²ĥ å¤«
ä¸Ŀ ç»¸
è¾ĸ ä¸ĭ
èµ« ä¼¯çī¹
å¿ħ éľĢ
é¡» ç£¨
æŀ¶ é£ŀæľº
éľĢè¦ģ åľ¨
åį°åº¦ æķĻ
æŁı æ²¹
æľīéĻĲ çļĦ
éľį çº¦
åħį äºİ
æķĳ åĬ©
äºĭä»¶ åıĳçĶŁ
ç½Ĺé©¬ äºº
æµ·åĨĽ çļĦ
å¯¼èĩ´ çļĦ
èģĮä¸ļ è¶³çĲĥè¿ĲåĬ¨åĳĺ
éĨ ¯
ä¼ĳ åħ»
éĺ¿å°Ķ å¼ĹéĽ·å¾·
ad io
ä½ĵèĤ² ä¸Ńå¿ĥ
åįļçī©é¦Ĩ çļĦ
ä¾į è®²
em b
æĭĽ å¾ħ
éĢīä¸¾ ç»ĵæŀľ
op le
è®¢ å©ļ
ĠV ol
éĺ» æĸŃ
æ±ĩ æĬ¥
çıį è´µ
æĴŀ åĪ°
oc ial
è°ĥæŁ¥ å±Ģ
ç´« èįĨ
è®¾ç½® äºĨ
å¸ĮæľĽ èĥ½
ĠSt ar
Ð¸ Ð½
åĢĴ æķ°
ç¬¬äºĶ åŃ£
æ½® æ±Ĳ
ov er
èħ¹ æ³»
è¡Ķ æİ¥
çī©çĲĨ ç³»
ç»ķ éģĵ
å¹³åı° ä¸Ĭ
å´Ķ æ°ı
éī Ħ
ç»Łä¸Ģ çļĦ
åĨħéĥ¨ çļĦ
Ġ195 1
å®īå¾· å°Ķ
éī´ äºİ
ik i
æĲľ éĽĨ
IS A
æµ·æĭĶ é«ĺåº¦
éĽĨä¸Ń èĲ¥
å¿ĥçĲĨ åŃ¦å®¶
æĿĢæŃ» äºĨ
åį¢çĵ¦ çľģ
é³Ħ ç§ĳ
èĢ¶ç¨£ ä¼ļ
ç¯®çĲĥ èģĶèµĽ
ç¯®çĲĥ è¿ĲåĬ¨åĳĺ
å¥ĳ çº¦
çģĮ ä¸Ľ
çļĦåİŁ åĪĻ
æĺ¯ä¸Ģéĥ¨ äºİ
åĸ· å°Ħ
æľ¬ä½ľ çļĦ
æł¼éĽ· å¤«
çļĦéĩįè¦ģ æĢ§
åĳĬè¯ī ä»ĸ
å¸ĪèĮĥ åŃ¦æł¡
çĶµæ°Ķ éĵģéģĵ
åºŀ å¤§
å¤¹ å±Ĥ
ä½ıå®ħ åĮº
IC E
å¸ĥåħ° å¦®
éĹ¸ è·¯
åĲĳåįĹ åįĹ
ç¨Ģ çĸı
åĺīä¹ī å¸Ĥ
çļĦéĥ¨åĪĨ åľ°åĮº
åħĭéĽ· å¤ļæĸ¯
çĵ· åĻ¨
å«Į çĸĳ
è¯Ħå®¡ åĽ¢
é²¨ é±¼
æĪĮ ç§ĳä¼ļè¯ķ
åħĪåıĳ æĬķæīĭ
è¾£ æ¤Ĵ
åĿł æ¯ģ
æ²³è°· çľģ
èĭ» åĿļ
Ġst ation
ãĥ¥ ãĥ¼
åĪĳéĥ¨ ä¸»äºĭ
èł ¡
å½Ĵç±» ä¸º
æĸ¯èĴĤ èĬ¬
ï¹ ķ
å¶ ĭ
CE O
ä¾ı ç½Ĺ
éķĩå®Ī åºľ
æĹıèĩªæ²» åİ¿
å·´åĵĪ ä¼Ĭ
åľŁåºĵæĽ¼ æĸ¯åĿ¦
êµ Ń
ä¿¸ ç¦Ħ
èĻĶ è¯ļ
åľ£åľ° çīĻåĵ¥
åĻª éŁ³
éĦĤåĽ¾ æĽ¼
å¼ĹåĲī å°¼äºļ
æ±¤çİĽ æĸ¯
æ»¨æµ·å¡ŀçº³ çľģ
çĶ²å£³ ç±»
æŃ´ åı²
æ·±ç©º ä¹Ŀåı·
ç¥ŀå¥Ī å·Ŀåİ¿
æļ± ç§°
Laur a
æĸ¯å¾· åĵ¥å°Ķ
åĮĿ éģĵ
æķĻçłĶ å®¤
éĺ¿çī¹æŁĶ æĸ¯
å¥ıé¸£ æĽ²
è¿Ľåħ¥çĽ´è·¯ åĲİ
ä¸´æµİ å®Ĺ
æĬ«éĴĪ å½¢
ELE VEn
äººåĿĩçº¯ æĶ¶äºº
æ³¢å¸Į ç±³äºļ
æĸ¯å¾·åĵ¥å°Ķ æĳ©
ELEVEn çĭ®
. ï¼Į
3 20
B ig
C BS
F re
G rand
I K
M TV
O L
O ricon
S an
m on
o int
p i
r s
r ac
t RNA
½ åŃĲ
Å «
Ï ħ
Ï ī
Ð ļ
é §
Ġ èĩª
Ġ éŁ³
Ġ æµĻæ±Ł
Ġ èĸĽ
Ġ å¾Ĺå¥ĸ
çļĦ è¶ħ
çļĦ æ¼Ķåĳĺ
çļĦ æ¨¡å¼ı
çļĦ å®īåħ¨
çļĦ èĥĮæĻ¯
çļĦ åĳ½ä»¤
å¹´ åıĳè¡¨
å® ¸
ãĢģ ãĢĮ
åľ¨ åĲİ
åľ¨ å¤©
åľ¨ ç¬¬äºĮ
åľ¨ èĭ±æł¼åħ°
ä¸Ģ æĺ¯
ä¸Ģ çĲĥ
ä¸º åīį
ä¸º åĽĽ
ä¸º ä¸Ńå¿ĥçļĦ
ï¼ī ãĢĬ
å¸ §
åĮ Ĩ
è¯ ĥ
ä¸Ń æĹ¥
ä¸Ń çļĦä¸Ģ
ä¸Ń åħ´
ä¸Ń æıĲåĪ°
æĺ¯ ç¬¬
æĺ¯ å½ĵåľ°
æĺ¯ è¥¿çıŃçīĻ
åĽ½ èĲ¥
äºº æľī
å¤§ åŁİå¸Ĥ
å¤§ æ®¿
å¤§ èħ¿
æľī æľºä¼ļ
çİ Ł
æĹ¥ ä¿Ħ
æĹ¥ æĪĲç«ĭ
æĹ¥ æĻļ
æĹ¥ éĢĿä¸ĸ
æĹ¥ çĶŁäºİ
åŃ¦ æĬ¥
ä»¥ åħį
äºĨ åľ¨
äºĨ ä¸ĭæĿ¥
åĳ ķ
çĲ ¥
åľ° æłĩ
ç¬ Ļ
åĩº æ²¡
çĶŁ çĹħ
ä¸į å®ļ
ä¸į æ¸ħ
ä¸į ä¸¹
ä¸į å¿ħ
ä¸į åŃĺåľ¨
ä¸İ é¦Ļæ¸¯
ä½ľ ä¹±
å®¶ æĶ¿
å®¶ åĽŃ
åħ¶ ä¸ĭ
åħ¶ æīĢ
è· ª
åĨĽ éĺĢ
è¢« çĶ¨æĿ¥
è¢« å°ģä¸º
å¹¶ è®¤ä¸º
åįĹ å¹³
åįĹ æĸ¹çļĦ
çī¹ åħĭ
åıĬ ç¬¬
ä¸ī æľŁ
ä¸ī ç»´
å¸Ĥ éģĵ
å¸Ĥ äººæ°ĳæĶ¿åºľ
æľĢ å¹´è½»çļĦ
ä¸ľ çº¿
ä¸ľ ç½Ĺé©¬å¸ĿåĽ½
èİ Ĩ
åĮĹ æ®µ
åĮĹ éĻĨ
å¤ļ åħĭ
åħĭ èİīä¸Ŀ
åı¯ è¿½æº¯èĩ³
åĿ į
æĸĩ äºº
å¼Ģ åħ³
å¼Ģ æľĹ
è¿Ļ ä¸İ
è¿Ļ æľ¬
è¿Ļ éĩĮçļĦ
æĸ° é¦Ĩ
æĸ° å¹²çº¿
ä¸ĸ åŃĲ
åĪ© æ¯Ķ
å±± ç«Ļ
å±± éĺ³
æīĢ ä¸º
æīĢ è§ģ
æīĢ ç»ĦæĪĲ
çİ° è¡Į
ä¹Ł åĽł
æµ· çīĽ
åĨħ åįİ
æķĻ æ´¾
æķĻ è°ķ
èĲ ĥ
è¿ĩ å¤ļ
æŃ¤ ä¸º
åľº åĿĩ
å·¥ äºĭ
çĻ º
çº¿ æĿ¡
çĲĨ ä¼ļ
çİĭ æĸĩ
ç§ĳ å°¼
å®ī éĩį
å®ī æıĲ
ä¸ļ çļĦ
åĮĸ åĴĮ
åŁİ éļį
è¯¥ åŁİ
è¯¥ ç³»ç»Ł
è¯¥ å¸Ĥéķĩ
éĩĳ éĹ¨
éĩĳ éĵ¶
éĩĳ æ³½
æ¯Ķ åĭĴ
æł¼ ç½Ĺ
æł¼ éĻµåħ°
æ°´ è´¨
åĽĽ æĿ¡
åĽĽ çĻ¾
æį Ĩ
çĽ¸ çŃī
ç»Ħ è£ħ
çº¦ æĿŁ
18 14
18 24
18 57
æŀĹ åľ°
é¦ĸ èĦĳ
æīĭ å·¥
æīĭ çĶº
æĶ¹ éļ¶
ä»İ æĿ¥
èµ· å§ĭ
åħ³ æĬ¼
in ce
12 3
æ²³ ä¸Ĭ
æ²³ åºĬ
åĲĳ å¤ĸ
æĹł æľº
æĹł ç½ª
ä¿Ŀ éĢģ
æĽ¾ ä¾¯
äº¤ åĩº
äº¤ éĶĻ
å·´ éĩĮ
ç¥ŀ ç¿¼é¾Ļ
å¤« æĭī
å®ŀ æĹ¶
çĽ´ ç³»
å°± ç®Ĺ
ç»´ å°¼äºļ
çŁ³ çĭ®
åį¡ å¤ļ
åį¡ è¾¾
åį¡ å¸ķ
èº« ä¸ĸ
åĪĻ å¤©
ä¸ĩ æ¸¯åħĥ
å¥¥ å¼Ĺ
ç¾İåĽ½ èģĮæ£Ĵå¤§èģĶçĽŁ
ç¿ İ
å·² å©ļ
å¤´ çĽ®
çĻ½ å±±
æĿİ çı
ç¼ĸ å¯¼
å¸¦ åĬ¨
æĮģ æľīçļĦ
åľ£ çº¦ç¿°
åľ£ çŁĽ
al t
åħµ å½¹
çĸ ¤
æīĵ çĮİ
æ³¢ æĹģ
è± Ĭ
å¼Ģå§ĭ çļĦ
çĪ± åªĽ
åıĪ åĽł
äº² è¿ĳ
èĬ± çº¹
åħ« è§Ĵ
17 91
çĶµå½± åħ¬åı¸
å¨ģ çİĭ
ä¸»è¦ģ ä»İäºĭ
ĠS ociety
ä»Ĭ æĹ¥çļĦ
è®º è¯ģ
å¤į èµĽ
å¤į çº¿
éĽ· çī¹
æ´Ľ æŀĹ
æ´Ľ éĺ³å¸Ĥ
åħ¶ä»ĸ åľ°åĮº
ä¼¯ åĭĴ
éĿĴ æ¢ħ
æľ¨ åĪ¶
é²ģ çıŃ
è¯Ħ çº§
æĬ¤ éĢģ
åıĮ çº¿
ä¹¡ çļĦä¸Ģä¸ªä¼łç»Łåľ°åŁŁåĲįç§°
èİ± æ¯ĶéĶ¡
éĤ£ äºļ
é¹ ĥ
æīĺ åħĭ
åĩĨ å°Ĩ
çİĩ éĥ¨
æİĴ åĩº
æķ´ æ²»
éĥ¡ åħ¬
å½ĵæĹ¶ ä»ĸ
am in
è¶Ĭ éĩİ
è¯į æĽ²
åĲĮæĹ¶ äº¦
å¤ı å°Ķ
å®Ŀ è´Ŀ
æĹ¶éĹ´ åĨħ
éĻĦ è®¾
è¿ľ è¿ľ
å¯Į åķĨ
èįī åĿª
å¼Ĺ éĩĮæĸ¯
èĴĤ å°Ķ
åĩł å¤©
æĸĹ é±¼
åıĤåĬł ç¬¬
éº¦ ç½Ĺæ²ĥ
ĠL and
åºķ çĽĺ
æĻĭ éĺ³
æīĢæľī æĿĥ
æł¹æį® åľ°
è®¡åĪĴ ä¸Ń
ç³»åĪĹ ä¸Ń
å½Ĵ æĿ¥
çł´ è£Ĥ
è½® å»ĵ
é½Ĳ é½Ĳ
ĠR ec
éŁ© ä¾ĤèĥĦ
èīºæľ¯ çļĦ
é¡¶ å³°
ä¸Ńå¤® å§Ķåĳĺä¼ļ
ĠG ar
å·²ç»ı æĪĲä¸º
åĢ¼ ä¸º
os a
åĩºçĶŁ æĹ¶
è¾ĸ ä¸ĭçļĦ
æ£Ģ ä¿®
éĢģ åĽŀ
å¿ħ çĦ¶
æŃĮæĽ² æİĴè¡Įæ¦ľ
åĲĽ çİĭ
å¾® æ³¢
åıĤä¸İ èĢħ
èĵĿ èī²çļĦ
ä¹Ķ ä¸¹
ç§ĳåŃ¦ åĴĮ
èµµ åĽ½
çī¹åĪ« å¸Ĥ
çĶ¨äºİ æ²»çĸĹ
éģŃ åĪ°äºĨ
åıĸå¾Ĺ èĥľåĪ©
ĠN o
éģĩ å®³
çĥĪ å£«
åįķä½į çļĦ
è¿Ļç§į æĥħåĨµ
æ¨ª çº¹
éĢĥ åĩº
åıªæľī åľ¨
æĢĢ å¾·
èģĶéĤ¦ æĶ¿åºľ
iv al
æ¦ľ ä¸Ĭ
èİİ å£«
æ¢¦ ä¸Ń
èĲ§ éģĵæĪĲ
è´Ŀå°Ķ çī¹
æµĻæ±Ł å¤§åŃ¦
è¯¾ é¢ĺ
è°Ī è®º
åĨĽäºĭ è¡ĮåĬ¨
åĿļ åĨ³
åĳ³ çļĦ
å¸ĮèħĬ äºº
åĩ¤ ç¿Ķ
çĸĳ éĹ®
æĬķèµĦ èĢħ
å¦ĩ äºº
å®ª ç«ł
å°ıæĹ¶ åĨħ
Ġs h
åģı åĲĳ
å¹¿æĴŃ çĶµè§Ĩåı°
ĠĠ Ġ
ĠSt ate
ãĤ¤ ãĥĪ
ist ric
æľĿé²ľ æ°ĳä¸»ä¸»ä¹ī
ç»ıå¸¸ åľ¨
ab eth
æī§è¡Į èĳ£äºĭ
å±ħä½ı çļĦ
æħ¢ æĢ§
èĭĹ æľ¨
èľĤ å·¢
æ®ĭ éħ·
é¤Ĳ é¦Ĩ
é¤Ĳ é¥®
æ³³ è£¤
ph a
ä¼ı è§ģ
Ñģ ÐºÐ°
èīĺ èĪ¹
å¹´åīį çļĦ
çĭĤ æ´¾
æıĴ æĴŃ
ä¿¡åı· å¤ĦçĲĨ
è¯ŀ ä¸ĭ
ç¬¬åįģ åħŃ
Ġ195 8
ev el
åħĥç´ł çļĦ
æĴ° åĨĻçļĦ
ĠIn stit
æĤ¬ çĸĳ
åįģåŃĹ åĭĭç«ł
åįľ æĭī
ãĤ¿ ãĥ¼ãĥ
æĲ¬ è¿ģ
æłª æ´²
åħĭèİ± éĹ¨
éļĭ çĤĢå¸Ŀ
çħ¤ æ²¹
åŃ£åĲİèµĽ ä»¥
çĽ¾ çīĮ
In ternational
Ð» Ð°
å¼ĹæľĹ ç´¢çĵ¦
ãĥ³ãĥ Ģ
å¾Īå¿« å°±
az ine
éĺĶ çļĦ
è½¬ç§» èĩ³
ä¿®å»º äºĨ
æ²ĥå°Ķ å§Ĩæĸ¯
åĪĽå»º äºĨ
æ°Ķè±¡ åİħ
å¿½ è§Ĩ
å±ł é¾Ļ
ä¸Ńåħ± ä¸Ńå¤®
ãĥķ ãĤ¡
æĸ°ç«¹ åİ¿
æĪĬ è¾°
æľºç»Ħ äººåĳĺ
çĲĨæĥ³ çļĦ
è§Ĥèµı é±¼
æ¼³ å·ŀ
Bl ack
å¥Īèī¯ åİ¿
æĩĤ å¾Ĺ
åī©ä½Ļ çļĦ
éĶ° éħ¸
éĻĲå®ļ çĽĺ
å¦¥ åįı
ĠAward s
ç¼ª å°Ķ
ä½įäºİè¯¥ ä¹¡
å¤ĸåĢŁ èĩ³
çº³çĵ¦ æĭī
èĦĨ å¼±
For ce
æµ¦ä¸ľ æĸ°åĮº
âĤ Ĥ
å°¤éĩĳ å¨ľ
æ¸´ æľĽ
ä¸°èĩ£ ç§ĢåĲī
çĬ¹ä»ĸ å·ŀ
èİ«æīİ çī¹
åīįåĪĹ èħº
æī¿åĮħ åķĨ
èĲİ ç¼©
æĮĩåĲį äºļç§į
éĩĳå·ŀ åĭĩå£«
é©¬ç»į å°Ķç¾¤å²Ľ
åĪĺæĺĵ æĸ¯
éĬ ®
çīĻä¹° åĬł
ä¸ĥäººåĪ¶ æ©Ħæ¦ĦçĲĥ
æľĿé²ľæ°ĳä¸»ä¸»ä¹ī äººæ°ĳåħ±åĴĮåĽ½
6 80
C ap
D D
H enry
M B
M e
O P
O U
S U
T e
d en
d om
k s
o om
r as
r ie
u it
Û Į
Ġ å°Ĩ
Ġ å¤ĸ
Ġ ç¨ĭ
Ġ æ¸©
Ġ æĪ´
Ġ è¾Ľ
Ġ ä¸ľäº¬
Ġ åįİäºº
Ġ 1961
Ġ å½ķéŁ³
Ġ éķ¿æ²Ļ
Ġ ä½ĲèĹ¤
Ġ åģĩéĿ¢éªĳå£«
çļĦ åħ¬åı¸
çļĦ ç»Ħç»ĩ
çļĦ ç®¡çĲĨ
çļĦ èĳĹåĲį
çļĦ èµĦæł¼
çļĦ è§Ħå®ļ
çļĦ åħĥç´ł
çļĦ æł¸å¿ĥ
çļĦ æ¯Ķä¾ĭ
çļĦ åħ³éĶ®
çļĦ æĹ¥åŃĲ
å¹´ è¿Ľè¡Į
å¹´ å¤ªå¹³æ´ĭ
å¹´ ä¸īæľĪ
æĺ §
åľ¨ æł¡
åľ¨ åľ£
åľ¨ è¿Ľè¡Į
åľ¨ æīĢæľī
åľ¨ ç»ıè¿ĩ
åľ¨ å¹¿å·ŀ
ä¸Ģ å¹¶
ä¸Ģ å¥³
ä¸Ģ æĹł
ä¸Ģ åħ±æľī
ä¸º å¤ļ
ä¸Ń äºļ
ä¸Ń çİ¯
ä¸Ń ç¾İæ´²
æĺ¯ ä»Ģä¹Ī
åĽ½ éĽĨåĽ¢
åĽ½ èĦļ
å¤§ å®ī
æľī æĿĥ
åĴĮ å¾·åĽ½
æĹ¥ æľŁéĹ´
æĹ¥ èĪŀ
å¯ °
äºĨ è¿Ļä¸ª
æĹ¶ èĩ³
æĪĲ å¯¹
æĪĲ åĵģ
åľ° åºķ
è¾ Ĺ
ä¼ļ åľº
ä¼ļ äº§çĶŁ
ä»ĸ èĩªå·±
åĩº å¾ģ
ãĢĭ ãĢĮ
ä¸į æľį
ä¸į å±ŀäºİ
ä¹ĭ è¯´
ä¹ĭ åħī
åĲį éĹ´
èĥ ª
è¥¿ å¥¥
åĪĨ åĴĮ
åŃĲ åĽĬ
è· ¤
åıĳ æĶ¹
åĨĽ ç¬¬
æ± ŀ
å§ ª
èĢĮ å¾Ĺ
èĢĮ å°Ĩ
èĢĮ è¯¥
èĢĮ åıĹåĪ°
å¹¶ è¯´
å¹¶ è¦ģæ±Ĥ
çī¹ å·¥
çī¹ å§Ĩ
éķ¿ èĢħ
éķ¿ å¯¿
çĶ± çºª
åıĬ ä»¥ä¸Ĭ
ä¸ī ä»£
ä¸ī ä½ĵ
ä¸ī åĵģ
åĲĮ å±ŀ
åĮĹ æ´ĭ
äºļ å¾·
äºļ è¿Ĳ
äºļ éĤ£
å¤ļ ç¦Ħ
åħĭ æľį
èĩª ç§°ä¸º
å¼Ģ åĽ½
é«ĺ æ¬¢
äºĮ åı·
åĬł çī¹
éĩĮ å°¼
çĶµ æ³¢
çĶµ æĬ¥
æĸ° è¡Ĺ
å¯¹ å³Ļ
å¾Ĺ å¾Ī
å±± åĴĮ
å±± å½¢
åįģ æĿ¡
èĩ³ å¾·
æīĢ æŀĦæĪĲ
çİ° åĨµ
æµ· ä¸Ń
ç¾İ å¥½
äºĭ åħĪ
é©¬ ä»Ģ
å°Ĩ å¥¹
å°Ĩ èĩªå·±
å·ŀ è®®ä¼ļ
éĵ ²
åĲĪ æĪĺ
æ°ĳ è§Ĩ
ç«Ļ åģľéĿł
å½ĵ ä¸Ĭ
æ¼Ķ ç¤º
åº¦ éĩı
éĿ¢ éĥ¨
éĿ¢ éĺĶ
å®ī èīº
åı· æĺ¯
éĩĳ åĽ½
éĩĳ åŁİ
éĩĳ åºĵ
æ¯Ķ åĸ»
éĩį åĪĴ
æĢ§ åľ°
çł ¥
æł¼ ä¼¦
ãĤ ©
ãĤ ®
åı² å®ŀ
çĽ¸ æĴŀ
çľģ çļĦä¸Ģä¸ª
éĺ¿ çº³
18 33
18 36
18 51
åħĥ ä»£
æŀĹ ä¸Ń
é¦ĸ éķ¿
é¦ĸ æĪĺ
å±ŀ èĤīé£ŁæĢ§
åı£ ä¸Ń
åī§ çĽ®
æ¸¯ å¸Ĥ
å¹¿ ä¸º
æĽ¾ ä»¥
æĽ¾ åħĪåĲİ
ç»ĵ æĪĲ
æĺŁ è¾ī
éª Ī
ç¥ŀ å¥ĩ
ç¥ŀ ç¥ĩ
åı¤ èĳ£
æĦı æĦ¿
çĥ ¨
é¾Ļ èĻİ
åį¡ åħ°
çĤ¹ çĲĥ
åĪĻ ä¸İ
æ» Ķ
ä¸ĩ éĩĮ
å¥¥ å§Ķä¼ļ
æµģ çļĦ
åįķ è½¦
éĵģ çĶ²
æ¸¸ è§Ī
åĽŀ é¡¾
ç©º ç¼º
å¼ł æĸĩ
15 5
çº³ æ£®
çº³ åĵ¥
è¿ĺ å°Ĩ
è¿ĺ æľª
å¤´ çĹĽ
å°ĳ æł¡
åŃĹ ä½ĵ
æĿİ åŃĺ
æŃĮ å£°
ç¬¬ä¸Ģ åľº
é¦Ļæ¸¯ è¯Ŀåī§åĽ¢
èĭı éĨĴ
åĽ½å®¶ åį«çĶŁ
é£İ è²Į
æ³¢ èĮ¨åĿ¦
è½¬ æĪĺ
æĶ¶ çĽĬ
åı¯ä»¥ çĶ±
åı¯ä»¥ å¾ĹåĪ°
æį® ä¿¡
äº² ç¼ĺåħ³ç³»
èĬ± æł·
16 5
ä¸ĸçķĮ åį«çĶŁ
ä¸»è¦ģ æ¯ĶèµĽæĪĲç»©
ä¸»è¦ģ é£Łçī©æĿ¥æºĲ
å¾Ģ åĲİ
é»Ħ ç»¿èī²
å¤į æķ°
åĲī å·Ŀ
çĶµè§Ĩ ç½ĳ
åį« åĽ½
ä»ĸä»¬ æĺ¯
ä¹Ŀ åįģ
éĿĴ è¡£
è¾ĥ çŁŃ
ä¿® ç½Ĺ
ä¿® é¥°
ä¿® è¯»
13 1
13 3
13 00
æ²Ļ çļĩ
çľŁ å®Ĺ
é¡¿ æ¶ħèĮ¨åħĭ
åıĮ è¯Ń
åıĮ æĺŁ
åıĮ è¾¹
å¯Ĩ å°Ķçĵ¦
æ¸¸æĪı æ¨¡å¼ı
é£ŀ é©¬
å¡ŀ åħĭæĸ¯
èİ± å§Ĩ
åį° æľī
çĹħ æĥħ
æīĺ æĸ¯
éĻĪ å¥ķ
å¼ķ ç§į
è¯º æ£®
çĶ² çĥ·
é£Ł åłĤ
é£Ł èĻ«
å¤± æķĪ
åŁŁ æ²»
åĪĺ å®ī
åĪĺ éĤ¦
åĪĺ è£ķ
åĽ½éĻħ è´¸æĺĵ
ç»§ èĢĮ
ä½ľä¸º ä¸Ģç§į
å¯Ł æ°ı
é±¼ å±ŀ
åĵ¥ æĸ¯æĭī
åºĵ åħĭ
åºĵ éĩĮ
çĥŃ çļĦ
è¯į åħ¸
éĩİ çĶº
ä½ı éĻ¢
æ¯ĶèµĽ å¼Ģå§ĭåĲİ
éĻĲ éĩı
å¾ģ æĶ¶
ol i
çĨ ı
ç²¾ åº¦
çľĭ åĪ°äºĨ
ç«ł ç¨ĭ
æŀģ åħ·
åĶĲ çº³å¾·
ä»ħ åŃĺ
ä»ħ æľīçļĦ
å¼Ĺ æĸ¯
æĢĿ ç»´
èĴĤ åĨĪ
éļĨ èµ·
åıĳå±ķ æĪĲ
èĴĻ åĵ¥
åį´ åıĳçİ°
åıĤåĬł åĽ½éĻħ
å¹´ä»£ ä¸º
å°¾ å¼ł
å°¾ å£°
æŃ£å¼ı å®£å¸ĥ
çİĽ èĴĤäºļ
æĻĭ åĨĽ
ĠF ootball
çªģ è§¦
ĠR uss
ä¼¤ åı£
é¡¶ å°ĸ
ä¸Ńå¤® éŁ³ä¹ĲåŃ¦éĻ¢
om b
è´µ éĺ³
è¡ĮæĶ¿ ç®¡çĲĨ
èµ« ç»´
é»İ åĬł
åİĤ åķĨ
åĪĩ æĸ¯
æ³½ å°Ķ
æ³½ å°Ķçľģ
åĲĽ å®ī
40 5
æĺĮ å¸Ĥ
èģļ åĲĪçī©
èŀ Ī
åŃĺåľ¨ çļĦåħ¶ä»ĸ
å·® ä¸įå¤ļ
ä¸ĢèĪ¬ è®¤ä¸º
éĺ¶ çļĦ
ä»ª è¡¨
è¯¸ å°Ĩ
å½¢æĪĲ ä¸Ģä¸ª
ç©Ĩ æĭī
ä½© æĪ´
äº¿ æ¬§åħĥ
ä¾ĭå¦Ĥ åľ¨
çĶŁäº§ äºĨ
ç©¿ æ¢Ń
åı¦å¤ĸ åľ¨
éŁ¦ æĸ¯çī¹
åĨĪ å¸Ĥ
æĪ´ èĥĦ
å¥Ī å°Ķ
é½¿ åħ½
å·¥ä¸ļ åŃ¦æł¡
è¡¨çİ° ä¸º
èĤī è´¨
è¾Ľ é¡¿
èµĽäºĭ æĪĲç»©
æ¡ĳ å¾·
æ¡ĳ ä¹Ķ
éĢīä¸¾ äº§çĶŁ
è¯¾ éķ¿
ä¸īåįģ åħ«å¹´
éļıåĲİ è¢«
å±±ä¸ľ å¤§åŃ¦
å¤ªå¹³ åĨĽ
æĭīæĸ¯ ç»´
æ¸¡ è½®
æµª è´¹
çĶļèĩ³ åľ¨
çĶļèĩ³ æĺ¯
åīĤ éĩı
æŁ± å»Ĭ
æįŁ æ¯ģ
åĲķ çķĻ
çĥŃå¸¦ æī°åĬ¨
ä¸Ģä¸ĸ çļĦ
åľ°çĲĨ ä½įç½®
è£ģ åĨ³
è·¨ åĽ½
æ½ĺ å°¼
åĮĸåŃ¦ å¼ıä¸º
éĺ¿æĭī å·´é©¬
çŃīåľ° çļĦ
ĠCh amp
éĶĻ è§ī
éļ¶å±ŀäºİ åı°åĮĹ
æľĿé²ľ çİĭæľĿ
éļĲ çŀĴ
åľ¨æŃ¤ æĹ¶
Ðµ ÑĤ
ell i
ç¾¤å²Ľ çļĦ
æ®ĭ å¿į
ç§Ł èµģ
è©¹ äºĭ
æµħ èįī
å½Ń åįļ
è¿Ĳè¡Į äºİ
ç¨İ çİĩ
çĭĤ æ¬¢
éĺª ç¥ŀ
çļĦé¦ĸ éĥ½
èĩªåĬ¨ åĶ®ç¥¨æľº
Ġ195 2
è¡¨éĿ¢ ä¸Ĭ
æĲľ æŁ¥
åįĩçº§ ä¸º
å«ģ ç»ĻäºĨ
ä»ĭç»į äºĨ
ç¿»è¯ĳ ä¸º
ç¿»è¯ĳ æĪĲ
åī© ä¸ĭ
æĲ¬ åĪ°äºĨ
èĩ³å°ĳ æľī
ä»¥åīį çļĦ
ãĤ· ãĥ£
è´¢æĶ¿ å¤§èĩ£
ç° ĩ
åī² è®©
åħ¬äº¤ çº¿è·¯
æµ·æ´ĭ çĶŁçī©
é¢Ī æ¤İ
æĬ¢ åĬ«
åĦĴ çķ¥
è¡° ç«Ń
çļĦç¥ŀ ç§ĺ
ä¼ª éĢł
åĪ· æĸ°
å·ŀåºľ çŁ¥åºľ
ä¸Ńå±± è·¯
Ġé»Ħ çŁ³
åł¤ éĺ²
åıĳåĩº æľĢåĲİ
ç§įæ¤į åĽŃ
èĬĻ èĵī
åĳĪçİ° åĩº
ãĤŃ ãĥ£
sk y
éĢ¼ è¿ĳ
æĬĳåĪ¶ åīĤ
æ¢µ èĴĤåĨĪ
è´© åĶ®
çļĦæĶ¯æĮģ èĢħ
æ¸ł éģĵ
éŃģ åĮĹ
ç¥Ī æ±Ĥ
éĺ¿æĸ¯ çİĽ
éĻª åĲĮ
éĻª ä¼´
æĭ¨ æ¬¾
éĢīç§Ģ ä¼ļ
èµĦæľ¬ ä¸»ä¹ī
åĽŀå¿Ĩ å½ķ
å¹´åĩºçīĪ çļĦ
è¿·ä½ł ä¸ĵè¾ĳ
èŀºæĹĭ æ¡¨
è°¨ æħİ
å¸¸åĬ¡ å§Ķåĳĺä¼ļ
åĲĮæľŁ åŃĺåľ¨çļĦåħ¶ä»ĸ
ĠFor um
åıĭè°Ĭ èµĽ
ç®¡åĪ¶ åĳĺ
IR T
çī¹ç§į éĥ¨éĺŁ
èįĶ æŀĿ
ç¤¼æĭľ åłĤ
èĦīåĨ² æĺŁ
ä¸įè¿ľ å¤Ħ
æĢ»é¢Ŀ ä¸º
å¼łå®¶ åı£
åħĭéĩĮå¤« åħ°
åºĶå¤©åºľ ä¹¡è¯ķ
ĠSer ies
åłªèĲ¨æĸ¯ å·ŀ
å·´å¸ĥ äºļ
éĽĮéĽĦ åĲĮ
åİķ æīĢ
çĽİ æł¼é²ģ
ç»ĵæł¸ çĹħ
æŃ¦å¤§ éĥİ
æĵĤ åı°
ABA P
åı¯è§Ĩ åĮĸ
ĠFIS è·³åı°æ»ĳéĽª
è¦ģæ¸¯ éĥ¨
ä¸ºèĵĿ æľ¬
æ°¹ ä»Ķ
èī¾çķ¥ çī¹
èİİå£« æ¯Ķäºļ
istric t
ä¸»è¦ģé£Łçī©æĿ¥æºĲ æĺ¯
å¯Ĩå°Ķçĵ¦ åŁº
åĲĮæľŁåŃĺåľ¨çļĦåħ¶ä»ĸ æĶ¿æĿĥ
) (
2 10
F acebook
H igh
J im
K h
L am
M ike
R NR
V P
V al
W ar
i ent
m in
ì Ĺ
Ġ Ä
Ġ åħ³
Ġ 21
Ġ æĺ¥
Ġ 26
Ġ éĴŁ
Ġ åĩ»è´¥
Ġ èĭıèģĶ
Ġ ãĤ¹
Ġ å§ľ
Ġ 1975
Ġ ex
Ġ ãĢĲ
äº ľ
çļĦ è®¸å¤ļ
çļĦ æķĻèĤ²
çļĦ ä¿ĿæĬ¤
çļĦ åı¦ä¸Ģ
çļĦ å¥³åŃĲ
çļĦ åŁºæľ¬
çļĦ å¯¹è±¡
çļĦ ç§°åı·
å¹´ äººåı£
å¹´ åħŃæľĪ
æĹ ·
åľ¨ ä¸į
åľ¨ åĲĦ
åľ¨ çĶµå½±
åľ¨ æľĢåĲİ
åľ¨ è®¸å¤ļ
åľ¨ ç½Ĺé©¬
åľ¨ æİ¥åıĹ
åľ¨ åĬłæĭ¿å¤§
ä¸Ģ æīĭ
ä¸Ģ åŃĹ
ä¸Ģ ç¯ĩ
ä¸º è¥¿
ä¸Ń å¯¹
æĺ¯ è¥¿
æĺ¯ åįĹ
æĺ¯ å±ŀäºİ
æĺ¯ ä¹Įåħĭåħ°
å¤§ æŃ¦åŀħ
20 5
éĥ ·
æľī ä¸įåĲĮçļĦ
åĴĮ åıĳå±ķ
æĹ¥ èİ·
ä»¥ æ±Ĥ
åľ° è¢«
æĸ¯ éĢļ
ä¸Ĭ çº§
ä¼ļ åĲĮ
ãĢĭ ï¼īï¼Ľ
ä¸į åĩº
ä¸į æĸĻ
ä¸į åĲ¬
ä¸į åĸľæ¬¢
ä¹ĭ ä¹¦
åħ¬ çīĽ
è¡Į éķ¿
è¥¿ å°¼
è¥¿ åį¡
åħ¶ å¦»
å» ª
åĨĽ çĶ¨
åĪ° å¤Ħ
è¢« æ·ĺæ±°
çĶ¨ è¯Ń
èĢĮ å»º
åįĹ æĺİ
çī¹ äºº
çī¹ è¾ĳ
éķ¿ å¹´
èµĽ åīį
çĶ± ä¸ľ
æĿ¥ åİĨ
æĿ¥ åĽŀ
å¤ļ çĳŀ
åħĭ æľĹ
æĸĩ å°¼äºļ
éģĵ åľº
éģĵ å£«
éģĵ å¾¡åı²
èĩª å°ı
èĩª ä¼ł
èĩª ä¿¡
å¼Ģ ç½Ĺ
å¼Ģ éĻ¤
å¼Ģ æĭį
å¼Ģ åĽ½åħ¬
åīį ä¸ī
åīį éĿ¢
è¿Ļ å®¶
çĶµ ç¦»
æĸ° åįĹ
æĸ° çĶ°
æĸ° åĶĲä¹¦
ä¸ĸ ä¸Ĭ
å±± éģĹåĿĢ
ä¹Ł æĹłæ³ķ
æµ· éĺ²èĪ°
åĨħ åı²
åħ¥ æĽ¿
ãĢį ï¼īï¼Į
æŃ¤ æĪĺ
å·ŀ æĶ¿åºľ
æľº èĥ½
çİĭ å»¶
çİĭ éĻµ
å¸ĥ åĲī
å¸ĥ éĩĮäºļ
ç½Ĺ è¾ĳ
ç½Ĺ å°Ķå¤«
éĢļ éī´
å®ī çļĦ
ä¸ļ çķĮ
åı· äº¤åĵįæĽ²
ä½¿ å¥¹
åħ¨ ç§°
è¯¥ éĻ¢
è¯¥ é¢ĳéģĵ
æ¯Ķ åħ¶ä»ĸ
ä¸¤ åıª
éĥ½ ä¸º
éĥ½ ä¸İ
éĩį æķ´
éĩį åĲ¯
æł¼ åĪ©
æ°´ çĶµ
æ°´ æĺŁ
æ°´ èĽĩ
åĽĽ æľĪåįĩ
èį ļ
åŁº çļĦ
æŃ£ å¹³
éĺ¿ é²ģ
éĺ¿ åĪĹåħĭè°¢
èĭ± åĭĩ
18 15
18 38
åħĥ åº·
æŀĹ å®¶
æĶ¹ å°ģ
éĢī éĽĨ
æĪĸ è¯ĳ
åħ± åĪĨä¸º
çĦ Ĭ
è¯Ń æĶ¯
å¸¸ è®¾
éĶ ļ
æ²³ åľ°åĮº
æĹł å¥Ī
å¹¿ åıĹ
å·´ çĻ»
å·´ åĵĪå°Ķ
å·´ å«©
è¯´ è¿ĩ
é¦Ļ æ§Ł
ç»´ è¾¾
èº« åĲİ
åĬ¡ æ®µ
è®® åĴĮ
æ±Ł å¤ı
éĵģ æĭ³
åĽŀ åĵį
æĽ´ æĶ¹ä¸º
çĻ½ å¡Ķ
æĿİ å°Ķ
å¸¦ çļĦ
ä¼Ĭ æ¯ĶåĪ©äºļ
åħŃ äºº
æĮģ ä¹ħ
å®ĥ ä½įäºİ
åĽ¾ åį¢
æ®µ èĲ½
ä¸¾ ä¾ĭ
é£İ è½¦
æ³¢ éĩĮ
åĳ¨ æĬ¥
åĳ¨ éģŃ
è¿ŀ éĢļ
è¿ŀ èĢħ
ç¡ Ĵ
åº§ çļĦ
åħ« è·¯
17 95
16 21
at ch
çĶµå½± åŃ¦éĻ¢
è®° ä¸º
æĶ¾ å¤§
ĠS an
ĠS erv
é»Ħ æµ·
åĨį éģĩ
çłĶç©¶ è¡¨æĺİ
å¤į ç½®
æŀĦ åĽ¾
å¡Ķ åĪ©
ä»ĸä»¬ å¯¹
å¼º çĶŁ
ĠC ap
ĠC ool
ĠC ouncil
çŃĳ åŁİ
ä¸ĥ åįģäºĮ
æ¯ı å¹´çļĦ
åĥ »
é²ģ åĽ½
æ¡¥ å¤´
æĪĳ çķ¥
è´Ŀ æĸ¯
æĹ© éĢĿ
èĥľ åľ°
æŁ¥ çľĭ
èĲ½ åľ°
æĬĢ æ³ķ
è¨Ģ è¯Ń
é¹ ¦
é¹ Ģ
åºĦ å®¶
å®£ æĪĺ
æ·± åĮĸ
åĪĺ åŃĲ
éŁ³ä¹Ĳ å¥ĸ
ç´¢ é©¬éĩĮ
æ³° ç½Ĺ
çĻ» è¿Ľå£«
æħ ¨
æĺĵ åįľæĭī
éģĹ çķĻ
ol o
å¸Ń å°Ķçĵ¦
23 5
æĪ¿ ä¸ľ
èĭ±åĽ½ çļĩå®¶
ç²¾ å¯Ĩ
åįł æĢ»äººåı£
ä¿Ħ åĭĴåĨĪ
èĮĥ ä¾ĭ
æ°¸ åĺī
æĸĩåĮĸ éĥ¨
æĿ° æ£®
æĿ¾ é¼ł
ĠT eam
åį´ åĽłä¸º
å¹´ä»£ åĲİæľŁ
èĹı ç¼ħ
èĹı ä¼łä½ĽæķĻ
èİ« éĩĮ
é¢Ħ ç§ĳ
èī¾ åĪ©
å»¶ å¹³
å¿« èīĩ
æĹ§ å±ħ
ä¸´ æµ·
çł´ è§£
çł´ ç¢İ
é½Ĳ å°Ķ
ĠR obert
å¸ķ ä¸ģé¡¿
ãĥ¼ ãĤº
åĩºçĶŁ åľ°
å¾¡ åīį
à¸ ª
à¸ µ
åĤ Ģ
çľ¼ æ³ª
çīĽ æĸ¯
è¡¥ éĢī
he m
ä¸ĢèĪ¬ æĺ¯
åľĨ çİ¯
ç»¿ èī²çļĦ
è¯¸ åĨĽ
éŃı æĻĭ
ç©Ĩ çī¹
ç½Ĺé©¬ çļĩå¸Ŀ
å¾Ĳ æ¸©
åı·çº¿ è½¦ç«Ļ
åı·çº¿ ä¸ĢæľŁå·¥ç¨ĭ
èģĮä¸ļ æĬĢæľ¯åŃ¦éĻ¢
ä¸īå¹´ åĲİ
é©» åľ¨æīĢ
çĶļ ä¹Ī
ä¼ĳ å£«é¡¿
é¢Ŀ æĪĳçķ¥
æĢĢ æĸ¯
æľºæŀĦ è®¾ç½®
ĠJ r
ĠJ ack
æĸ°éĹ» èĬĤçĽ®
å¥³åŃĲ åıĮæīĵ
ä»»ä½ķ æĹ¶åĢĻ
å·¥ä¸ļ åĮº
æģĴ çĶŁ
èĤī ä½ĵ
æĮĩæĮ¥ çļĦ
æĮĩæĮ¥ éĥ¨
åĪĳ éĥ¨å°ļä¹¦
ç¦ģ å¿Į
æĹĭ ç¿¼
è´Ŀå°Ķ ç¦ı
å¦® èı²
èĭıèģĶ è§£ä½ĵ
å¹¶ä¸į èĥ½
æĴ¤ åĩº
çĲĨè®º ä¸Ĭ
ä¸Ńåįİäººæ°ĳåħ±åĴĮåĽ½ æĶ¿æ²»äººçī©
éģ¿ å¼Ģ
è¯¯ è§£
æ¶² æĢģ
æ¶² åİĭ
è¥¿éĥ¨ åıĬ
ä»ĺ åĩº
ä¸įä¹ħ ä¹ĭåĲİ
æĢ¥ æĢ§
æĦıå¤§åĪ© è¯Ń
è¾ŀ åħ¸
æĬĺ è¿Ķ
åŁĶ åºĦ
æĮ¯ éķĽ
ĠÐ ľ
ç²ī çº¢èī²
è·ĳ è½¦
çĽĹ åŀĴ
é¼ĵ æīĭ
çķª ä»Ķ
æĥĬ éŃĤ
å°ĸ ç«¯
èį·åħ° äºº
åĬŀåħ¬ æ¥¼
åıįå¯¹ æ´¾
ç»ķ å¤§å¼¯
ä¼ı å°Ķ
æĺŁæľŁ äºĶ
æ¢¯ éĺŁ
å®Ļ æĸ¯
æ´Ĺ æīĭ
Ġ195 7
çļĦå¤ĸ æĺŁ
ãĥ¼ãĥ ł
å¼¥ è¡¥
ĠæľĢä½³ å¯¼æ¼Ķ
Ð¾Ð ´
Ð¾Ð ¹
å®ŀçİ° äºĨ
æĸ¯å¡Ķ å°Ķ
éªĳå£« åĽ¢
æĺ¯åĲ¦ æľī
èĥģ è¿«
ç©ºåĨĽ åŁºåľ°
æľ´ æĸĩ
oun g
ä¸Ģå¸¦ çļĦ
åĲ¸å¼ķ åĬĽ
è¥Ħ çİĭ
åįİçĽĽé¡¿ çī¹åĮº
ç£ģ åľº
å¯ĵ è¨Ģ
å®īè£ħ äºĨ
æŃ¥åħµ åĽ¢
å®īä¸ľ è¯ºå¤«
ä¸Ľ ä¹¦
æł¼éĽ· æĸ¯
åĩĿ è¡Ģ
AP M
æĸĲ æµİ
åĬ« æľº
è¾© æĬ¤
ä¸Ĭå¸Ĥ åħ¬åı¸
ä¸īåĪĨ ä¹ĭä¸Ģ
ä¸īåĪĨ ä¹ĭäºĮ
å®´ ä¼ļ
åĬ³åĬ¨ åħļ
ç¥ŀç§ĺ çļĦ
ä¾ĽåºĶ åķĨ
è¯¥çľģä»½ä¸ºæ³ķåĽ½ è¥¿åĮĹéĥ¨
æĸ¯æ´Ľ æĸĩå°¼äºļ
æ¡£æ¡Ī é¦Ĩ
åĵĪå¾· éĢĬ
åĩ¤åĩ° åį«è§Ĩ
éĽħåħ¸ å¨ľ
åİ¨ å¸Ī
å·´å¡ŀ ç½Ĺ
æµ´ åľº
æĳĶ è·¤
æĿĳåĲĪå¹¶ä¸º æĸ°
æ»ĳåĨ° èģĶçĽŁ
æ»ĳåĨ° éĶ¦æłĩèµĽ
å®ģæ³¢ å¸Ĥ
éħµ æ¯į
åľ£è¯ŀ èĬĤ
èĬ¯ çīĩ
èĪħ èĪħ
äºĶä»£ åįģåĽ½
å¸ķå°Ķ é©¬
åĸĩ åĺĽ
å¢ĵå¿Ĺ éĵŃ
é¥± åĴĮ
åĽ½åŃĲ çĽĳ
æİ¥é©³ äº¤éĢļ
äºı æįŁ
åĤ¬åĮĸ åīĤ
åº·æĸ¯åĿ¦ æ±Ģ
ener al
å¹ķåĥļ éķ¿
æľ¬åľ°åĮºåıĳå±ķè¾ĥæĹ©çļĦèģļèĲ½ æľī
æµģè¡Įæ¦ľ é¢ģå¥ĸåħ¸ç¤¼
Ġèĭ¥å¤´ è¡¥ä½Ĳ
æĤį å°Ĩ
ãģ¡ãĤĥ ãĤĵ
JD G
æ´¾éĢĴ å±Ģ
åĲĽå£«åĿ¦ ä¸ģåł¡
éĻĮ çĶŁ
æĹ¥é¦Ļæ¸¯ åľºæ¬¡åĺīå®¾
èĤīæ¡Ĥ éĨĽ
èģĮæ£ĴçĶŁæ¶¯ æĪĲç»©
äºļçĥŃå¸¦æĪĸçĥŃå¸¦ çļĦ
èĻİå¤´ èľĤ
ä¸ªè¡ĮæĶ¿ æĿĳ
å¥¥æģ© çľģ
çĭŃå±± æ±ł
sq mi
ä¸ģçĥ¯ äºĮéħ¸
å¥¥å¼Ĺ æ¶ħ
åĲķçķĻ èī¯
æĺĵåįľæĭī æ¬£
! ï¼Ī
B el
C M
C al
F O
K ing
M c
S m
T X
V ID
b or
k i
p r
p ress
t v
Ð ŀ
Ù ģ
â ĳ
Ġ Â
Ġ ×
Ġ è¶ħ
Ġ è°·
Ġ çĦ¶èĢĮ
Ġ æ´ª
Ġ äºļæ´²
Ġ å²Ľæ´¥
Ġ åĩºåĵģ
çļĦ é¡¹çĽ®
çļĦ èĩªçĦ¶
çļĦ åķĨä¸ļ
çļĦ é£ŀæľº
çļĦ è®°å½ķ
çļĦ æĿĥåĪ©
æľ ķ
å¹´ æīĢ
å¹´ æĽ¾
å¹´ åıĳçİ°
å¹´ è®¾ç«ĭ
å¹´ åįģæľĪ
å¹´ ä¸ĥæľĪ
å¹´ æİ¨åĩºçļĦ
åľ¨ ä¸ĭ
åľ¨ åĲĮ
åľ¨ äºļæ´²
ä¸Ģ æĬĬ
ä¸º åĽ½
ï¼ī âĢĿãĢĤ
æĿ ŀ
ä¸Ń èĢĥ
ä¸Ń åįĹéĥ¨
ä¸Ń æŀ¢
æĺ¯ åı¯
åĽ½ åĨħçļĦ
åĽ½ ä¼ļè®®å¸Ń
åº ł
å¤§ èµı
å¤§ æ±Ĺ
å¤§ åĨĴéĻ©
æľī åŃĲ
æľī åĬĽ
åĴĮ L
åĴĮ çĶ°
åĴĮ æ¬§æ´²
æľĪ å®ĮæĪĲ
å½ §
åĲİ å®«
åĲİ æĻĭ
åĲİ æĶ¹ä¸º
æĹ¶ å°±
æĹ¶ éļĶ
æĪĲ åĥı
ä»ĸ æľī
çĶŁ åĮĸ
ä¸į æŃ»
ä¸į æŃ¢
ä¸į å®ľ
ä¸į åłª
ä¸İ åħ¶å®ĥ
ä¹ĭ äºİ
ä½ľ äºĨ
ç½ ĺ
è¥¿ æŀĹ
è¥¿ æ®µ
åĪĨ ä¼ļ
æľ¬ æĺ¯
æľ¬ èĥ½
åĨĽ æĶ¿
åĨĽ æľº
åĨĽ åĬ¡
èģ Ĩ
èĢĮ å¯¹
å¹¶ è®©
å¹¶ æĽ´åĲįä¸º
çī¹ çº§
çĶ± ä¸Ģä¸ª
å¾· åįİ
æĿ¥ è®¿
åĲĮ å±ħ
ä¸ľ å¹³
åĮĹ å¢ĥ
åı¯ å°Ĩ
åı¯ è°ĵ
æĸĩ éĢī
æ³ķ åĨĽ
æ³ķ çĶ²
çī© æĺ¯
èĩª èµ°
èĩª å°½
å¼Ģ é¦Ĩ
é«ĺ ä½İ
é«ĺ æĺĮ
é«ĺ æ¾Ħ
äºĮ ä¸ª
äºĮ åŃĲ
çĲĥ å½¢
æĸ° ä¸Ģ
æĸ° ä¸ĸçķĮ
è·¯ åŁº
è·¯ éļľ
ä¸ĸ äºº
å±± æ´ŀ
æīĢ çĶ¨çļĦ
ä¹Ł ä¸İ
å°ı åŃĹ
å°ı éº¦
æķĻ çļĦ
é©¬ ä¸»
é©¬ å±±
è¿Ľ åº¦
å°Ĩ çĶ±
çŃī åĽ½
çŃī åľ°åĮº
æľŁ éĻĲ
æľº çĶ²
å¹³ æ»ĳ
ç«Ļ æĺ¯ä¸Ģä¸ª
å¸ĥ æŀĹ
é£ Ļ
æ¬¡ å¥³
ä½Ĩ ä»¥
éĢļ æĬ¥
åĮĸ æ°¢
ç³ ¯
ãģ µ
è¯¥ æĬ¥
ä¸¤ å¤©
ä¸¤ åĽŀåĲĪ
åİŁ æĿĳ
æ°´ éĽ·
æ°´ åĿĿ
ç±³ å¤Ħ
ç±³ æŃĩå°Ķ
éĺ¿ åħ°
æŀĹ åĨħ
æĢ» æĪĲç»©
æĢ» æĶ¿æ²»éĥ¨
æīĭ åĬ¨
æĪĸ æľī
èµ· èĩª
æ¹ ³
æ¹ į
åħ³ ä¸Ń
åįİ ä¸¥
æ²³ æĿĳ
äº§ éĺ¶çº§
å¹¿ å¹³
æĺŁ æĪĺ
çĿ Ĳ
å°± æĺ¯åľ¨
å¤ª åı²
åį¡ å½Ń
ä¹ī åħ´
ä¸ĩ åĽ½
æ±Ł è°§
å·² éĢĢå½¹
å¤Ħ ä»¥
èĦ ¾
èĦ ĸ
æľĿ åľ£
å¥¹ å¯¹
ç©º æīĭ
èĴ ¯
è¿ĺ è®¾æľī
åºĶ æ°ı
çĻ½ çŁ®æĺŁ
åħ¬åı¸ äºİ
åŃĹ æł·
æĿİ å»º
æĿİ èĩªæĪĲ
æŃ¦ èĭ±
æŃ¦ å¤ĩ
è¿ĳ æµ·
ä¼Ĭ èĭı
çīĪ çĶ»
ç¬¬ä¸Ģ éĺ¶æ®µ
çĶ° åİ¿
åĲĦ ç«Ļ
é£İ æ³¢
è½¬ ä¹ĺ
æĶ¶ çľĭ
è± ģ
å¼Ģå§ĭ å¯¹
åĦ ¡
åĪĿ æİĪ
å¸Ŀ çİĭ
äº² çĪ±çļĦ
å§Ķ æ´¾
17 96
å¨ģ å¡ŀå°Ķ
çļĦä¸Ģ æ®µ
åıį åĿ¦åħĭ
ĠS aint
åĨį äºİ
çłĶç©¶ ä¸Ń
çłĶç©¶ åıĳçİ°
ä»Ĭ æ²³åĮĹçľģ
æľª æĽ¾
ä»¥åıĬ ä¸Ģä¸ª
åĲī å®ī
å¥½ åĥı
åį³ ä¾¿
è§Ĥ æĪĲ
ic t
æ±ī è¯º
æ±ī èĹı
åĵĪ èĲ¨åħĭ
æĬķ äº§
æĺ¯ä¸Ģ é¦ĸ
æĿĥ åĬĽçļĦ
æ¯ı ç§Ĵ
äººæ°ĳ åĩºçīĪç¤¾
14 1
çĶ· çĶŁ
åĬŁ æķĪ
åĬŁ åĭĭ
æĪĳ è¦ģ
å®¢ è§Ĥ
éħį åģ¶
é»ĳ çļĦ
é»ĳ åħ°
è½¦ç«Ļ æ¥¼å±Ĥ
è¯ķ åīĤ
æ¹ĸ äºº
éĻĪ æ°ı
å¼ķ äºº
è¯º ä¼Ĭ
è¯º ç¦ıåħĭ
åĩĨ è®¸
çĶ² éħ¸
åĪĺ çİĦ
ä¸ŃçļĦ è§Ĵèī²
çº¢ åĮħ
æĤ Ħ
å£° èªī
ĠA pp
çĥŃ éĤ£äºļ
è¯į è¯Ń
å±Ĭ é¦Ļæ¸¯
å±Ĭ åįģå¤§ä¸ŃæĸĩéĩĳæĽ²
åº· å¾·
ĠB a
ĠB ay
ä¾§ æīģ
å¸Ń å°Ķ
å¤ı æľĹ
æīį å¾Ĺä»¥
åįĥ çīĽ
çĿĢ èī²
æ°¸ åħ´
è¿ľ å±±
ur y
å¯Į åĬĽ
æ¸© å¾·
å¼Ĺ å°Ķ
le t
ç»Ĩ äºļ
èĴĻ å·´
é³ ħ
é³ ķ
æĹħ éķ¿
åģľ è¿Ĳ
ĠH am
ĠL ife
æľĢä½³ å¥³éħįè§Ĵ
è¯Ĺ ç»ı
èĬĤçĽ® ä¸»æĮģ
è¿ĻäºĽ äºº
å¼Ĥ ç«¯
ç«¥ åŃĲ
éĽĦ èķĬ
ç¥¨ ä»·
æłĳ çļ®
æĳ© å´ĸ
ĠR ob
åįģäºĮ ä¸ª
æĸ¯çī¹ æŀĹ
èīºæľ¯ èĬĤ
æĻļ é¤Ĳ
æķĻèĤ² å±Ģ
çļĦäºº å£«
äºĨä¸Ģ æ®µ
åĩ¯ åĪ©
åĩ¯ èİī
é»İ å·´å«©
çº½ æĸ¯
è¿ģ éĥ½
èİī èİİ
å¾® ä¿¡
ç»ĦæĪĲ äºĨ
èĥ¡ åħĭ
æł¸ éħ¸
éĢļå¸¸ è¢«
çļĦåľ° éĿ¢
èŀ ¯
ä¹Ķ å§Ĩ
ĠW indows
è´Łè´£ ç®¡çĲĨ
çŃĸ éªĳ
å¹³æĸ¹ åħ¬å°º
ç¾½ æŁ´
é²ľ èī³
åŃ© ç«¥
å®¡ è®¯
ĠJ ames
åĨ° å·Ŀ
ç¼º å¤±
ä¾¯ èµĽ
æĪĪ çĻ»
å¢¨ å¿ĴèĢ³
ä¸»å¸Ń åĽ¢
éĩįæĸ° å¼ĢæĶ¾
ç¿» æĭį
ãĢī ãĢĤ
é³į æĿ¡
å½© ç¥¨
åĨĽäºĭ åŃ¦éĻ¢
éĺ´ éģĵ
åĲ¬ ä¼Ĺ
æĸĩåŃ¦ éĥ¨
ä¸īä¸ª æľĪ
éĿĻ æŃ¢
åĶ¯ä¸Ģ ä¸Ģä¸ª
æĤ£ ä¸Ĭ
od a
ä¸ĵä¸ļ çļĦ
è¿« åĩ»
è¯¯ ä»¥ä¸º
éĹŃ å¡ŀ
å°Ĭ åı·
ill er
è·³ è¿ĩ
åħ¬åħ± æ±½è½¦
æµģè¡Į äºİ
éĽ¶ çĤ¹
é¼ĵ æ¥¼
æĭĨ åį¸
çŃĶ èħĬ
æ®ĭ çķĻ
âĨ Ķ
å®ĺæĸ¹ ç½ĳç«Ļ
èĭ±æĸĩ åĲį
Ġ198 2
æĭŁ é¸Ł
åįģåħ« ä¹¡
åĲįåįķ ä¸Ń
éģ£ ä½¿
æĺŁæľŁ æĹ¥
èĬ³ é¦Ļ
æĻ®éĢļ çļĦ
å±ı éļľ
çī©è´¨ çļĦ
çĿ¡ è§ī
180 6
180 7
180 9
äºļåİĨ åħĭæĸ¯
å²Ĺ ä½į
åİĨä»» æł¡éķ¿
ĠIn c
æĤ¬ å´ĸ
æ±¡ æ³¥
è¥Ħ åħ¬
åĽ½éĺ² éĥ¨éķ¿
ç«ŀäºī åĬĽ
æħķå®¹ åŀĤ
éŃĶæ³ķ å¸Ī
In d
æ°ĳéĹ´ ä¼łè¯´
çłĤ æĭī
åģ· è¢Ń
èĴ¸ åıĳ
å¿ĺ è®°
æ³¢æĸ¯ è¯Ń
éĥ½çĿ£ åºľ
æģ° å·´åĵĪå°Ķ
ç¨» çĶ°
ee k
äº¤åĵį é»ĳ
åģ¿ è¿ĺ
å¨¶ äºĨ
éĢ¼ è¿«
åºļ åŃĲ
ä¸»ä½ĵ ç»ĵæŀĦ
è¸ı ä¸Ĭ
éķ¶ çĻ½æĹĹ
af t
æĢ»éĿ¢ç§¯ ä¸º
Ph ilip
ide o
BO X
è¥¿éĹ¨ åŃĲ
ä»»æķĻ äºİ
ÙĬ Ø©
èģĶç»ľ çº¿
é£İæĻ¯ åĮº
ç½ķè§ģ çļĦ
ä¸¢ å¤±
åĴª åĴª
çĥ¦ æģ¼
ð« ļ
åŁĥå¾· èĴĻ
NO VA
æĸ¯åĽ¾ å°Ķçī¹
æ£į çĲĥ
âħ ¡
å¹´æ¬§æ´² åĽ½å®¶æĿ¯
ç»ħ å£«
æĹıèĩªæ²» å·ŀ
str um
è°ħ è§£
å¯Ĩè¥¿æł¹ å¤§åŃ¦
éĺ¿åįľæĿľ åĭĴ
çĽ´æµģ çĶµ
èģĮä¸ļè¶³çĲĥ åĳĺ
ä¼ĬåĪ©è¯º ä¼Ĭ
è¿Ļæ¬¾ æ¸¸æĪı
æĲģ ç½®
åĥĸ å®Ĺ
Mic rosoft
è¯¥çľģä»½ä¸ºæ³ķåĽ½åĮĹéĥ¨ åĨħéĻĨçľģä»½
çİĭä¸ĸ åħħ
è¿Ĳè½½ çģ«ç®Ń
éĺ¿æĭīæĸ¯ åĬł
æĻ®éĻĢ å±±
å½ĵäºĭ äºº
ried rich
åĵ¥æĸ¯è¾¾ é»İåĬł
Viu TV
å¤©æºĢ å®«
ä¸įæĿ¥ æ¢ħ
èĭ±åĲīåĪ© æµ·å³¡
è´ĿçĳŁ å°¼
åĽ¾åį¢ åħ¹
åĤĢ åĦ¡
å·´å¡ŀç½Ĺ éĤ£
) ãĢĭï¼Į
5 60
K ay
M el
R unning
S im
c er
f ra
i ed
n ie
r ation
u en
v al
w en
Å į
Ð Ŀ
Ø Ń
Ù ĩ
ë ¦
ð Ĳ
Ġ èĢĮ
Ġ åĲĮ
Ġ è½¦
Ġ çŃī
Ġ æĺŁ
Ġ åıĳè¡Į
Ġ èĵĿ
Ġ å¦Ĥæŀľ
Ġ è´º
Ġ km
Ġ 1978
Ġ 1948
Ġ ãĢľ
Ġ æŃ¤åī§
ï¼Į ï¼Į
çļ Ĥ
çļĦ è½¦
çļĦ åıĳçĶŁ
çļĦ ç§ģ
çļĦ åħ±åĲĮ
çļĦ æııè¿°
çļĦ åī§æĥħ
çļĦ æĶ¿çŃĸ
çļĦ å®ĺåĳĺ
çļĦ åİŁå§ĭ
çļĦ åĩ½æķ°
çļĦ çľŁå®ŀ
çļĦ åĬ¿åĬĽ
çļĦ æĤ£èĢħ
çļĦ èģĮåĬ¡
çļĦ é¢ĨåľŁ
çļĦ æ¯ĶåĪĨ
ãĢĤ (
å¹´ åħ¥
å¹´ æ³ķåĽ½
åľ¨ åį¡
åľ¨ æ²¡æľī
åľ¨ å¥³åıĮ
ä¸Ģ åĲĳ
ä¸º çķĻ
åĬ Ī
ä¸Ń æĢ§
ä¸Ń ä¹Ļ
ä¸Ń æī®æ¼Ķ
æĺ¯ åĽ½å®¶
æĺ¯ æ²¡æľī
æĺ¯ æĪĳ
æĺ¯ éĿŀå¸¸
å¤§ éĽ¨
å¤§ éĿ©åĳ½
å¤§ åħ¬åĽ½
å¤§ å±łæĿĢ
å¤§ æ»¡è´¯
éĢ į
åĴĮ ä¸ľ
åĴĮ æĶ¿æ²»
æľĪ æĹ¶
æĹ¥ æľĪ
å¯ ŀ
åĲİ å°Ĩ
ä»¥ ç¾İ
æĹ¶ æĽ¾
ä¸Ĭ çıŃ
ä¼ļ å¯¹
ä¼ļ å½±åĵį
ä»ĸ è¡¨ç¤º
ä»ĸ çĪ¶äº²
æ¯ ¡
æ´ Ļ
ä¸į ä¸ĭ
ä¸į æħİ
ä¸į å¯»å¸¸
ä¹ĭ é¦ĸ
å°Ķ æĽ¼
å®¶ çĶ¨
ä¸» å¸ħ
åħ¬ åŃ¦
åĪĨ åŃĲçļĦ
åŃĲ æĿĳ
åŃĲ æ¤įçī©
æľ¬ éĽĨ
æľ¬ èĪ°
æ± ²
æ± Ľ
è¢« éĩįæĸ°
é¢ ¢
èĭ Ľ
èĢĮ æľª
èĢĮ ä»ĸçļĦ
å¹¶ èİ·
å¹¶ èĦ±ç¦»
åįĹ éĹ¨
åįĹ æ®µ
åįĹ éŁ©
ä¾ ĥ
åıĬ çĽ¸åħ³
ä¸ī åĳ¨
åĲĮ æĥħ
åĲĮ æŀĦ
æľĢ ä¸»è¦ģçļĦ
ä¸ľ å®¶
åĮĹ æ¸¯
åĮĹ èĲ½
äºļ ä¼¦
å¤ļ éĩį
åħĭ æ´Ľæĸ¯
å£ ķ
æĸĩ æĺĮ
æĸĩ æ¡£
æ³ķ çİĭ
è¿Ļ å¹ħ
äºĮ åĨĽ
äºĮ æ¥¼
åĬł çº³
çĶµ é©´
æĸ° æ¸¯
æĸ° æ½®
ä¸ĸ ç³»
å¾Ĺ å¢¨å¿ĴèĢ³
å±± çĶº
æīĢ è½½
æīĢ äº§çĶŁçļĦ
ä¹Ł è®©
å°ı èģĶçĽŁ
å¤© é¡º
å¤© ç«º
é©¬ åŃ£
é©¬ æŃĩå°Ķ
ç»ı åķĨ
ãĢį ï¼ļ
å·ŀ æĹĹ
éĵ ī
æľŁ ä¸º
çĲĨ åŃ¦éĻ¢
çİĭ å®ī
çİĭ çīĮ
å¹³ çº¿
å¹³ æīĭ
å¹³ æģ¯
å¸ĥ è¢ĭ
ä½Ĩ å¯¹
ä½Ĩ ä»ĸçļĦ
å¤ĸ è²Į
éĢļ ä¿Ĺ
åı· åĬłåĪ©ç¦ıå°¼äºļå·ŀ
éĻ¢ çº¿
ç§° åħ¶
åħ¨ å¤©
åħ¨ èĭ±
ç¦ Ģ
è¯¥ ç³»åĪĹ
è¯¥ çī©ç§į
éĩĳ ä¸Ŀ
æ¯Ķ æ´Ľ
ä¸¤ ç»Ħ
éĥ½ æĬ¤
éĥ½ æĺ¯åľ¨
æł¼ è¿ŀ
å£« åįĴ
çĤ ¬
åĬĽ åıĳçĶµ
åı² æıĲ
å¥³ ä¸Ń
å¥³ åįķ
åĽĽ éĿ¢
æķ° åįģå¹´
å¡ Ń
åħ° æ°ı
éĺ¿ éĥ¨
éĺ¿ èĤ¯èī²
èī² ä¸º
è¾¾ å°¼
é¦ĸ åĲį
é¦ĸ åįķæĽ²
æĢ» ä¹¦è®°
æĢ» äº§åĢ¼
éĢī çĶ¨
åı£ å²¸
åı£ èħĶ
èµ· åĪ°
èµ· ä¼ı
åī§ ä½ľå®¶
æ¶ Ł
ä¿Ŀ çº§
å½¢ åĪ¶
äº¤ çĤ¹
éª °
åı¤ éķĩ
èº ¬
çĿ ģ
é¦Ļ æ°´
ç»´ åº¦
å¤ª å¤§
åĮħ åİ¢
å²Ľ å¸Ĥ
åıĹ ç²¾
åıĹ éĩįä¼¤
ä¸ĩ ç«ĭæĸ¹ç±³
å¥¥ æĭī
èĳĹ æīĭ
ä½įäºİ åı°æ¹¾
æĽ´ å®¹æĺĵ
äºĽ æĹ¶åĢĻ
è®¤ çľŁ
æĿİ æĪĲ
è¿ĳ æ±Ł
è¿ĳ è·Ŀç¦»
äº¬ å¹¿
åıĸ çļĦ
al is
é£İ ä¿Ĺ
æ³¢ åĲīäºļ
åı¯ä»¥ è®©
äº² å¯Ĩ
èĬ± èįī
ä¸ĵ å¿ĥ
è§£ æŀĲ
16 8
éĿŀ è£Ķ
éĿŀ çī©è´¨
çĶµå½± å¥ĸ
æł¹ çļĦ
æĶ¾ åĩº
ä»Ĭ å±±è¥¿
æ°Ķ ç®¡
ç¬¬äºĮ çĶ²
ç¬¬äºĮ åľĪ
å¡Ķ å¤«
å¡Ķ çº³
éĿĴ èµĽ
éĿĴ äºĳ
éĿĴ çĿĲ
å¼º åĬĽ
æĴŃ éŁ³
åĵĪ èµ¤
åľŁ åı¸
åĻ¨ åħ·
éŃ Ħ
æĺ¯ä¸Ģ äºĽ
å¸Į å¾·
ä¸ĥ æľĪåįĩ
æ¯ı äºº
äººæ°ĳ å§Ķåĳĺä¼ļ
é²ģ åħĭ
å¾Ī éķ¿
ä»¤ åħ¶
åıĮ æ¡ħ
å¯Ĩ å°ģ
å¡ŀ èĪĮ
æĿĢ æİī
æ¹ĸ çķĶ
å»ºçŃĳ å·¥ç¨ĭ
éĻĪ çİī
ĠM a
ĠM ont
æ·± æ·±
åĪĺ å²±
åĽłä¸º åħ¶
å±Ĥ çº§
è¡Ĺ æľº
ç¥ĸ åĦ¿
æĶ¿åºľ éĥ¨éĹ¨
éŁ³ä¹Ĳ çļĦ
it s
ï¼į ï¼į
æİĴ æ³Ħ
å¯Ł è§ī
åįĬ äººé©¬
éĥ¡ å½¹æīĢ
åĿĩ åı¯
å¢ŀ æı´
è¶Ĭ åīį
èĽ Ł
æ±Ĥ åĴĮ
ä¼Ĺ è®®åĳĺ
ĠB as
ol ly
æ¥¼ æĪ¿
ç²¾ å¿ĥ
æ¡Ī ä¸Ń
èĮĥ æĸĩ
æī¿ å»º
å®ģ å¸Ĥ
æľĢåĲİ è¢«
ur s
ä¸įåĲĮ æĦı
åĪ¶ä½ľ åħ¬åı¸
æĺ¥ å¸Ĥ
æĿ° å¤«
ĠT ur
å¹² è¾¾
28 9
ä¸¹ å¨ľ
ä¸¹ å°¼æĸ¯
åģľ åĪĬ
ĠL ib
çİĽ ä¸¹å¨ľ
äººçī© çļĦ
æī§ äºĭ
å¼Ĥ æĶ»
et ic
åģļ åĪ°
çļ® åħĭ
å½Ĵ éĻĦ
çªģ è¢Ń
éĽħ ç½Ĺæĸ¯
æĳ© çº³åĵ¥
é½Ĳ æ³°
ç®Ĺ åŃĲ
è½» æĺĵ
åĬ¿ åĬĽçļĦ
æķĻèĤ² åİħ
éĴŁ è¡¨
å²© çĶ»
ä¸ºäºĨ çºªå¿µ
æ²ĥ æĸ¯
çİ© ç¬ĳ
è¡ĮæĶ¿ éķ¿å®ĺ
åĪĹè½¦ åľ¨
åĪĹè½¦ åģľéĿł
æ¯ķ åĨįéģĩ
åĩºçĶŁ æ¶¯
çĽ®åīį æķĪåĬĽäºİ
æ¢ģ å±±
æŃĮæĽ² çļĦ
ãĥ³ ãĤ¹
äº¤éĢļ å±Ģ
éĥĳ æĺŃ
èĵĿ é©¬ç¾ļ
åħ¬åĽŃ ç«Ļ
ç±į è´¯
é¥°æ¼Ķ çļĦ
ç»¿ åľ°
æĿľ è¿ª
å¾Ĳ æĤ²
åĲĪä½ľ åįıè®®
åĲįçļĦ æĪĲç»©
æŀª æīĺ
éĨ į
å»ī ä»·
åºŁ å¢Ł
è´§ è½¦
éĢĤ éĢ¢
åĨĪ å±±
èĩªçĶ± è´¸æĺĵ
éĥ¨éĺŁ çļĦ
æľºæŀĦ çļĦ
åĨ° æ²³
ç¼º æ°§
ç§ģ ä¸ĭ
é½¿ éª¨
æŁĲ å¤©
æĪĪ å£ģ
ä¹Ļ ä¸ĳ
Ġç¬¬ äºĶ
Ġç¬¬ åħŃ
è¾Ľ ä¸ĳ
åĪĬ è½½
90 7
åĨ¬ çľł
è¶ħè¿ĩ äºĨ
èĲ§ æĸĮ
ä¸īåįģ åħŃå¹´
ä¸ľåįĹ æİ¥
è¿· å¤±
åĨ· éĿĻ
åįĪ å¤ľ
åŃĿ æŃ¦å¸Ŀ
çĶĺ éľ²
æ±ĩ ç¼ĸ
ers ion
æĬķèµĦ æľīéĻĲåħ¬åı¸
èĩªæ²» åĲĮçĽŁ
äº« å¯¿
èĳ¡èĲĦ ç³ĸ
åģı åįĹ
è·³ èĪŀ
åıĺåĮĸ çļĦ
æ°ĳä¸» èģĶçĽŁ
åĢĴ éĹŃ
ist ory
æµģè¡Į çļĦ
Ch ina
ä¹ĥ æĺ¯
å¤§éĥ¨åĪĨ åľ°åĮº
ç¢ĳ æĸĩ
çĺ «çĹ
åıĤèµĽ çĲĥéĺŁ
å°ĸ åĸĻ
çīłä»¬ æĺ¯
äººä»¬ å¯¹
åıįå¯¹ åħļ
é«ĺçº§ èģĶèµĽ
ãĥ© ãĤ¤ãĥ
åħ¬å¸ĥ çļĦ
çĬ¶æĢģ ä¸ĭ
å¹ħ åº¦
æ§ Ľ
ç¬¬åħŃ æ¬¡
Ġæĸ° éĹ¸è·¯
åĩºèº« çļĦ
åįĴ å¹´
èĨľ çĤİ
èĩªåĬ¨ è½¦éģĵ
æĸľ åĿ¡
ant a
ĠæľĢä½³ å¥³ä¸»è§Ĵ
ĠæľĢä½³ çĶ·ä¸»è§Ĵ
ĠæľĢä½³ çĶ·éħįè§Ĵ
åĩºåľº æľºä¼ļ
å¢¨è¥¿åĵ¥ å·ŀ
åİŁå§ĭ çļĦ
èĥ¶ çīĩ
ç¥ŀç»ı éĢĴ
åĪĽåĬŀ äºĨ
åħĭæĭī èį·é©¬
çĬ¹å¤ª æķĻ
ç¯®çĲĥ åįıä¼ļ
åĽĽåįģ äºĶå¹´
man n
å±¿ å±±
åħĭéĩĮæĸ¯ æ±Ģ
å±ķè§Ī é¦Ĩ
æ¡ĵ æ¸©
å¼Ģè®¾ äºĨ
è¾¾æĪĲ åįıè®®
å¤ļå¹´ çĶŁ
å¥İ å°Ķ
æĶ¶èĹı å®¶
æĸ¯åħĭ å·ŀ
ç¨į åĲİ
èľ¥ ç»ĵ
æŁ¥çĲĨ åħŃä¸ĸ
åĥ§ ä¾£
é¢ĩ æľī
æ³¢æĸ¯ å°¼äºļ
éĥ½çĿ£ åħ¼ä»»
åĬ« æĮģ
å¼ķåħ¥ äºĨ
å§Ĭ å§Ĭ
æģ° å¥½
åĵ¥ä¼¦æ¯Ķäºļ å¤§åŃ¦
å¥ĭ æĸĹ
åĪĨéħį åĪ°
æĺ¥ç§ĭ æĹ¶æľŁ
çĽ´å¾Ħ çº¦
çº¦çĳŁ æĸ¯å¯Ĩ
åĲŀ åĲĲ
æĥ¨ è´¥
åĽ½åĬ¡éĻ¢ æī¹åĩĨ
åħħæ»¡ äºĨ
å²Ľæ´¥ å®¶
è§Ĩè§ī æķĪæŀľ
èĤĿ èĦı
éħ¿ éĢł
æĸ°åŁİ åĬ²çĪĨ
æ»¡æ´² åĽ½
è¸¢ çĲĥ
æŃĮåĶ± å¤§èµĽ
åİĮ æģ¶
çİ«çĳ° ç»ı
å¼Ĺæĭī èĬĴ
çľŁäºº ç§Ģ
å¾·å·Ŀ å®¶åº·
æ¿Ĵ ä¸´
æĹ¥å¸¸ çĶŁæ´»
åĢ¡ è®®
æ»¤ æ³¢
æ©¡ æłĳ
çļĦåĽ½éĻħ èµĽäºĭæĪĲç»©
å¹½å·ŀ éĥ½çĿ£åħ¼ä»»
æİ¢æµĭ åĻ¨
å¸Įä¼¯æĿ¥ è¯Ń
çľ¼éķľ èĽĩ
ä¸įåĬ¨ çĤ¹
åĲĪèĤ¥ å¸Ĥ
ä¼¯åħĭ ä¸Ģåĳĺ
é¹¿åĦ¿ å²Ľåİ¿
å½±è¯Ħ äºº
ÑģÐº Ð¸Ð¹
éºĴ éºŁ
åº·æĸ¯åĿ¦ ä¸ģ
æºľ åĨ°
éĥ½å¯ŁéĻ¢åı³ åī¯éĥ½å¾¡åı²
çĭĻåĩ» æŃ¥æŀª
èľ¥èĦļ ç±»
åĲĪä¼Ļ äºº
å¸¸ä½ı äººåı£
æĹ©å®ī å°ĳå¥³ç»Ħ
éĵľéĶ£ æ¹¾
å²Ĳéĺľ åİ¿
ä¼¦å·´ ç¬¬
èĲ¨å°Ķçĵ¦ å¤ļ
åıªåĪĹåĩº æĽ¾
éĺ¿å§Ĩæĸ¯çī¹ ä¸¹
ç§ĳçļĦä¸Ģç§į é¸Łç±»
éĻĪä¸Ģ ä¸¹
èĭıéĹ¨ çŃĶèħĬ
å½Ńåįļ é¡¿
å¦®èı² å¡Ķèİī
çłĤæĭī è¶Ĭ
å¾ĲæĤ² é¸¿
çĺ«çĹ ª
% ï¼īãĢģ
3 30
6 20
8 50
A H
A ir
A NA
E SP
K BS
L and
M ont
O l
P e
T im
U E
a ff
g u
r us
t i
u j
u ff
Î ¬
Ð Ķ
× ķ
â ĩ
é ĭ
ì ĭ
Ġ æĹ¶
Ġ an
Ġ å¯Į
Ġ å½¹
Ġ æł¹æį®
Ġ 60
Ġ ç§¦
Ġ éº»
Ġ åĬłæĭ¿å¤§
Ġ æ²Ī
Ġ é©¬æĿ¥è¥¿äºļ
Ġ 1960
Ġ 1943
Ġ ÃĹ
çļĦ èĬĤçĽ®
çļĦ æĪĲåĬŁ
çļĦ äº¤éĢļ
çļĦ ä¼ģä¸ļ
çļĦ ä»»åĬ¡
çļĦ åįķæĽ²
çļĦ éĥ¨ä»½
çļĦ æ¡Īä»¶
çļĦ æĦıè§ģ
çļĦ ä¾ĭåŃĲ
åħ ®
åĪ Ī
å¹´ åıĸå¾Ĺ
å¹´ éĢĢä¼ĳ
æĸ ¡
æĺ µ
æĪ ³
åľ¨ å¤ĸ
åľ¨ ä¸ľäº¬
ä¸Ģ ä¾§
ä¸Ģ å®ļçļĦ
ä¸º çĶŁ
ï¼ī ãĢįãĢĤ
ä¸Ń åº¦
ä¸Ń åı¤
ä¸Ń çĻ»åľº
æĺ¯ èĩª
æĺ¯ åĽł
åĽ½ äº§
å¤§ æĪĲ
å¤§ é¸Ń
äºİ æĹ¥æľ¬
éĥ ¢
åĴĮ H
æľĪ ç»ı
æĹ¥ å¼ı
æĹ¥ åī§
æĹ¥ éļı
æĹ¥ å®ĮæĪĲ
å¯ Ľ
æ° ¦
åĲİ ä¸»
åĲİ ç¼Ģ
åŃ¦ æķĻæİĪ
ä»¥ ä¸Ģ
ä»¥ åĲİçļĦ
åľ° çĽĺ
ä¼ļ äºİ
ä¼ļ åĴĮ
ä¼ļ éĢłæĪĲ
ä»ĸ åĲĳ
ç¬ ĭ
ä¸ª å¸Ĥéķĩ
ãĢĭ ï¼īï¼Į
æ¯ ĭ
éĥ¨ åī¯éĥ¨éķ¿
çĶŁ é©¹
ä¸į æĹ¶
ä¸į çĽ¸åĲĮ
ä¸İ å¾·åĽ½
ä¹ĭ äº¤
å®¶ å¢ĥ
èĥ ¥
è¥¿ ç§ĳ
åĪĨ å·¥
åħ¶ äºİ
åıĳ çĹħ
æľ¬ å¸Ĥ
è¢« çĶ¨ä½ľ
è¢« æĭĨéĻ¤
å¹¶ åı¯
å¹¶ åĬłåħ¥
éķ¿ äºİ
ä¸ĭ è½¦
ä¸ĭ èĲ½
ä¸ĭ å±ŀçļĦ
ä¸ĭ èĲ¨åħĭæ£®
èµĽ å¾·
ä¸ī ä¸Ģ
ä¸ī åı·
ä¸ī ç±»
ä¸ī å¹´çļĦ
åĲĮ æºĲ
ä¸ľ éĹ¨
ä¸ľ åįĩ
äºļ åĨł
åı¯ å¤«æĸ¯åŁº
èĩª åį«
å¼Ģ åĩº
å¼Ģ æĪĺ
é«ĺ ä¸Ńéĥ¨
è¿Ļ å°Ĩ
è¿Ļ çīĩ
çĲĥ èıĮ
éĩĮ å¤ļ
éĩĮ æł¹
éĩĮ è¯º
ä»» ä¸º
çĶµ éĺ»
æĸ° çº¦
æĸ° å¥¥å°Ķèī¯
å±± çº¿
å¦ Ĭ
çİ° æľīçļĦ
æĪĺ èŃ¦
ä¹Ł éļıä¹ĭ
å°ı åŀĭçļĦ
åĨħ éħ¯
å¤© çº¿
å¤© å°Ĭ
é©¬ åĪĹ
åħ¥ ä½ı
çŃī å¤ļç§į
å·ŀ è¯¸åĨĽäºĭ
åı° å±±
çº¿ èĻ«
çİĭ åĤ¨
å½ĵ åŃ£
èģĶ æ¬¢
æ¬¡ åĬ©æĶ»
ç½Ĺ çļĦ
ç½Ĺ èĲ¨
å®ī æīĺ
åı· é©±éĢĲèĪ°
æ¡ ľ
è¡¨ åĨ³
ãģ ½
è¯¥ çº¿
éĩĳ çļĦ
éĩĳ äºº
ä¸¤ æŀļ
éĥ½ è®¤ä¸º
éĩį æ¸©
éĩį èĩ£
æ°´ åĴĮ
æ°´ çģ¾
æ°´ é¾Ł
çĽ¸ éĢļ
åŁº å°¼
æķ° åĲį
åħ° å¼Ģ
åħ° éĻµ
éĺ¿ åĬł
éĺ¿ åĪĹ
éĺ¿ ä¼ĬåĬª
åı¸ éķ¿
18 16
18 32
18 43
åħĥ å°±
ä¸ŃåĽ½ å·¥ç¨ĭéĻ¢
æĢ» åĪĨ
æĢ» åħ±æľī
åİĨ å¹´
éĢī æİĪ
ä»İ ä¸Ģä¸ª
Ġ* -
æĹł æ¯Ľ
æĹł ç©·
éĽĨ å¸Ĥ
éĽĨ èµĦ
çķĮ éĿ¢
äº¤ è°Ī
èİ· æİĪ
åı¤ å¡Ķ
çĽ´ èĲ½
é¦Ļ é²¸
é¾Ļ æĺ¯
é¾Ļ ä¸İ
åį¡ çº³
ä¸ĩ çŁ³
ä¸ĩ åŃĹ
å¤§åŃ¦ æł¡
åŃ£ é£İ
å¥¹ æĽ¾
15 62
æĪĲä¸º ä¸ŃåĽ½
æĪĲä¸º ç¾İåĽ½
åºĶ ä¸º
è®¤ å®ļä¸º
æŃ¦ è¿Ľ
æĹ¥æľ¬ æ°Ķè±¡åİħ
ç¼ĸ æĴ°
äº¬ åħĨ
å®ĥ ä¹Ł
al es
åĲĦ çķĮ
æ³¢ éķ¿
è½¬ è§Ĵ
å¼Ģå§ĭ åīį
å¼Ģå§ĭ åĩºçİ°
çĪ± è¾¾èį·
è¿ŀ åĲĪ
è¿ŀ éľ¸
èĬ± çļĦ
ä¸ĵ èĳĹ
é¸ ¯
ä¸»è¦ģ ä½ľåĵģ
ä¸»è¦ģ åĪĨå¸ĥåľ¨
é»Ħ åŃĲ
æ°Ķ çļĦ
åįļ åħĭæĸ¯
éĽ· åĪ©
éĽ· ä¸ģ
åį³ åľ¨
ç»Ī åĪ°
åķĨ éĵ¶è¡Į
ic ol
éĿĴ éľī
ĠC D
è°ĥ è§£
è¶ħ åĩº
æĺ¯ä¸Ģ ç±»
ä¸ĥ æĹ¥
åŃĺ æ¬¾
çļĩ å¤ªæŀģ
æľ¨ ç»ĵæŀĦ
æľ¨ éĽķ
å¾Ī é«ĺçļĦ
åħ¶ä¸Ń ä¹ĭä¸Ģ
åħ´ åĽ½
æĭħ å¿§
è´Ŀ çī¹
è´Ŀ ä¹ħ
éħį ç§į
22 3
å¯Ĩ åħĭç½Ĺ
çıŃ åºķ
é£ŀ æī¶å£ģ
èĥľ åĪ¶
æģ© éĩĮåħĭ
èĲ½ äºİ
èĲ½ éĢī
çĹħ æŃ»
é¹ ī
ĠM il
è¯º è¨Ģ
è¯º çİĽ
å®£ çİĭ
æ¨¡ æł·
åĪĺ è¡¨
åĽ´ å¢Ļ
åĽ´ åĽ°
åıĳçİ° æľī
çĻ¾ èĬ±
ä½ľåĵģ éĽĨ
åī¯ æĢ»çĲĨ
ĠA f
ĠA ug
å½ĵæĹ¶ åľ¨
am s
åı¯èĥ½ ä¸İ
çĥŃ èĥ½
çĥŃ éĩı
éĩİ å¿ĥ
çĿ£ ç½²
èĪ° èĪ¹
ĠB o
å¾ģ ä¼Ĳ
ç´ł è´¨
èĭ±åĽ½ ä¼¦æķ¦
çħ ľ
ç²¾ åĬĽ
åįĥ å²ģ
å·¦ è¾¹
äººåı£ ç»Łè®¡
éĻį çıŃ
è¿ľ èµ´
æ¸© çī¹
ç³»ç»Ł åĴĮ
ä½Ľ æľĹ
å¿µ çıł
å¹² äºĭ
ro up
åĨľ å¤«
24 2
æľĢä½³ å¯¼æ¼Ķ
è®¡åĪĴ çĶŁèĤ²
æ¤į è¢«
ĠF M
ç»ıæµİ åŃ¦éĻ¢
ç»ıæµİ åıĳå±ķ
ä¾Ŀ æ³ķ
ä¾Ŀ çĶ°
èŃ¦ ç½²
èŃ¦ æĪĴ
åģļ è¿ĩ
çªģ èµ·
é¸Ł çļĦ
èĭ¥ æľī
é½Ĳ å¤«æĭī
èīºæľ¯ ä¸İ
èīºæľ¯ ä¸Ńå¿ĥ
è°· çī©
ĠG l
ĠG old
å¼¹ éģĵ
å¼¹ å°Ħ
çļĦäºº æķ°
æ²ĥ çİĽèĴĤäºļ
åĩºçĶŁ çļĦ
éŃĶ çī©
æĬĹ çĶŁç´ł
è¿½ å¹³
åĪĨåĪ« ä¸İ
åĲ¯ å¾·
à¸ Ķ
à¸ Ĺ
åĪĩ åī²
è°¢ å°Ķçľģ
æĿŁ ç¼ļ
æ¯Ĵ éŃĶ
éĢļå¸¸ çĶ±
åĬ³ åĭĥ
æľĢé«ĺ è£ģåĪ¤æīĢ
èģļ çĦ¦
èĪªç©º èĪªå¤©
çĭ¬ç«ĭ æĪĺäºī
ĠK BS
åĪ» æĦı
è´¢ çī©
åīĳ é±¼
ä¼ļè®® çļĦ
æ¤įçī© åŃ¦å®¶
çĮ® åħ¬
æ¬¾ æ¸¸æĪı
çİ°åľ¨ æĺ¯
é²ľ åįĳ
èĬ¬ å¥ĩ
ad o
åºŁ å¸Ŀ
åĪļ éĵİ
å¥ī ç¥Ģ
å¥ī æĹ¨
id ent
èĨ Ľ
ä¾¯ åĪĺ
ot ion
è¯Ńè¨Ģ ä¸Ń
æģĴ å¤§
æļĹ æģĭ
åİ»ä¸ĸ äºĨ
çģ° è¤Ĳèī²
æµ¦ åĮº
åĪĬ è¡Į
çĨĬ éĺŁ
æłĩåĩĨ åĮĸ
å¦® åı¯
èµı èµĲ
éĺ´ å½±
éĺ´ èĮİ
åŃĿ æĸĩå¸Ŀ
éĩĮæĸ¯ æľ¬
å¨ģå»ī æĸ¯
æ¸¡ æ²³
éĻ· èĲ½
éĻ· å®³
å®ŀéĻħ çļĦ
éĿĴå¹´ æ°ĳå»ºèģĶ
ç¹ģ ä½ĵ
æĪª çĦ¶
è¶ħçº§ èµĽ
æ¡ĥ çĮ¿
çĩķ åĽ½
åįĸ ç»ĻäºĨ
å®ª æĶ¿
ri end
åģı åĮĹ
åĲĥ æİī
æģĭ æĥħ
äº¨ çī¹
ç¬¼ çĽĸ
è¾ŀ ä»»
av a
çĨĻ å®Ĺ
éļ¶å±ŀäºİ åı°åįĹ
38 6
ĠÐ Ĳ
æĢª çĽĹ
åŁºæľ¬ çļĦ
çĺ Ł
ian o
æĺĤ è´µ
èıľ ç©Ĥ
æĭĨ åĪĨ
æĭĨ è§£
éŀ ħ
åĲĮæł· æĺ¯
æľ¬ç«Ļ ä¸º
An th
èĬĿ éº»
èĬĿ ç½ĺ
æĮģç»Ń äºĨ
æĮģç»Ń åĪ°
æĶ¶å½ķ åľ¨
å·§ åħĭåĬĽ
è±Ĩ åį¢
St ar
éĥ½ä¼ļ åĮº
å±ı èĶ½
å±ķå¼Ģ äºĨ
é©¬åħĭ è¥¿
180 5
ç¡®å®ļ äºĨ
ãģĹ ãģ¦
æľīæķĪ åľ°
éĽĨä¸Ń äºİ
è² Ĥ
åıĳå°Ħ åĻ¨
èĤĥ å®Ĺ
æĭĵ èįĴ
é³Ħ ç±»
é»Ħéĩĳ å¤ªéĺ³
RE T
å¯Ħ ä¸»
è½° åĬ¨
å¡« è¡¥
å¨ĺ å¨ĺ
å¤ĸäº¤ åħ³ç³»
äºĭä¸ļ åįķä½į
çº· äºī
åĸĢ å°Ķ
ç²Ĺ å£®
åĩī é©¬
è´Ńä¹° äºĨ
éĻĢ ç½Ĺ
oy al
çľŁå®ŀ çļĦ
å¼ĹæľĹ è¥¿æĸ¯ç§ĳ
iz abeth
èĥº åŁº
éĻįä½İ äºĨ
æĪ¿å±ĭ å±Ģ
åŃķ å¦ĩ
åĨķ åº§
å¦ĸ ç²¾
ond on
éĻĦå±ŀ åĮ»éĻ¢
è£ħçĶ² è½¦
åĩºå¸Ń äºĨ
ãĤª ãĥ³
æºĲèĩª äºİ
åħ¬ä¼Ĺ å¼ĢæĶ¾
æľ¬ç§ĳ çĶŁ
Mar ia
æľįè£ħ è®¾è®¡
çļĦå¤´ è¡Ķ
å¸ĥå°Ķ ä»Ģ
åı¸èģĮ ä¸Ńåľº
æ¢µ ç½ĳ
è¯¥çľģä»½ä¸ºæ³ķåĽ½ ä¸ľéĥ¨
çº§åĪ« çļĦ
æĸ¯æ´Ľ ç»´å°¼äºļ
è¥¿èĹı èĩªæ²»åĮº
éĩľ çĶ°
èı± è§Ĵ
åĨįè½¬ åĮĹ
æĳ©å°Ķ å¤ļçĵ¦
åĢ¼å¾Ĺ ä¸ĢæıĲ
å¹³å®ī æĹ¶ä»£
è¶¾ çĪª
éĹ¯ è¿Ľ
ãĥĥãĥ ī
ĠFor ce
ĠFran ce
å®Īå¤ĩ ä½įç½®ä¸º
æĳĺ è¦ģ
ĠBl ack
UN D
å·´çī¹ åĭĴ
æĬ¹ é¦Ļé²¸
DC æ¼«çĶ»
åħ¬æŃ£ åħļ
åĨ¤ å®¶
éĶ» çĤ¼
æĻ®æŀĹ æĸ¯é¡¿
ç½Ĺè®· çľģ
CW å¤įå½¢
æ·¹ æ²¡
æĹ¥åľ¨ç¾İåĽ½ ä¸Ĭæĺł
è¿Ħä»Ĭ ä¸ºæŃ¢
åĢļ å¤©
å¹¼åĦ¿ åĽŃ
é¥¥é¥¿ æ¸¸æĪı
Ġæµ·åĨĽ å¤§ä½Ĳ
ç½¹ æĤ£
è½¦æ¬¡ ä¸º
åıĳè¨Ģ äºº
åĩºå¢ĥåĲİ åı¯åīįå¾Ģ
æĬĴ æĥħ
ĠRep ublic
æĿİåħĭ çĶ¨
ìł ķ
åĬªå°Ķ åĵĪèµ¤
ĠåºĨ åħ¨çº¿
åŀĭåı·ä¸º AKM
çĸĹåħ» éĻ¢
èĤ¯å¡ĶåŁº å·ŀ
ä¸Ńéĥİ å°Ĩ
åħ±éĿĴ åĽ¢
æĴĴåħĭ éĢĬ
ä¸ĩåįĥ æĺŁè¾ī
è¿Ľåħ¥åĩĨåĨ³èµĽ çļĦåĽ½éĻħèµĽäºĭæĪĲç»©
ä¼¯æĺİ ç¿°
ä¾ıç½Ĺ çºª
åĪ©æ¯Ķ éĩĮäºļ
éŃģåĮĹ åħĭ
é¹¦ é¹ī
ä¾¯èµĽ åĽł
éĢį éģ¥
å°ĸåĸĻ é²¸
åıªåĪĹåĩºæĽ¾ è¿Ľåħ¥åĩĨåĨ³èµĽçļĦåĽ½éĻħèµĽäºĭæĪĲç»©
å¯Ĩåħĭç½Ĺ å°¼è¥¿äºļ
2 15
9 78
A ust
C S
C T
E p
I U
J ust
K arl
M il
N T
P R
S he
T rans
U L
b an
e as
e ed
n on
r ol
r ing
t ra
w av
· é«
¹ Ģ
¹ è®¿
Ð ¶
á Ł
ë ĭ
Ġ æĪĲ
Ġ æĸ¯
Ġ åįģ
Ġ å·Ŀ
Ġ çģ«
Ġ ä¸ģ
Ġ å¥³åŃĲ
Ġ è´¾
Ġ å½¼å¾Ĺ
Ġ æĿ°åħĭ
Ġ èĴĭ
Ġ 1963
Ġ 1947
Ġ 1965
Ġ å°ĳä½Ĳ
çļĦ T
çļĦ ä½ĵ
çļĦ åħī
çļĦ æĸĩåĮĸ
çļĦ ä½İ
çļĦ è¡ĮæĶ¿
çļĦ è¿ĲåĬ¨åĳĺ
çļĦ åĬ¨çĶ»
çļĦ è·Ŀç¦»
çļĦ é«ĺåº¦
çļĦ çĶŁåĳ½
çļĦ éĶĢåĶ®
çļĦ èĤ¡ä»½
çļĦ ä½ľèĢħ
çļĦ ç»ıåħ¸
ãĢĤ .
å¹´ åĬłçĽŁ
å¹´ æĽ´åĲįä¸º
å¹´ å·¥åĨľä¸ļ
ä½ Ł
åľ¨ å¤ļ
åľ¨ ç¬¬ä¸Ģ
åľ¨ åİĨåı²ä¸Ĭ
ä¸º å®ĺ
ä¸º åĩĨ
ä¸º èĩªå·±
ä¸º é¢ĺæĿĲ
è¯ ¹è®¿
ä¸Ń å¤§
ä¸Ń ä¹ĭ
ä¸Ń è§Ĩ
æĺ¯ ä½¿çĶ¨
æĺ¯ ä½ľä¸º
æĺ¯ åĬłæĭ¿å¤§
æĺ¯ é©¬æĿ¥è¥¿äºļ
å¤§ ä¸¾
å¤§ ä¿®
ç§ ½
æī Ī
20 3
20 25
æľī è¶ħè¿ĩ
æľī å¤§éĩı
æľī äºīè®®
åĴĮ åĮĹ
åĴĮ æ²Ļ
æĹ¥ èĲ½
æĹ¥ å¼Ģå·¥
æĭ Ĥ
åĲİ å°±
åĲİ æ¢ģ
åĲİ ç§¦
ç« ľ
æ³ ĵ
åī ĥ
æĹ¶ äºĭ
æĹ¶ å·²
è¾ º
ä¸Ĭ èİ·å¾Ĺ
ä¸Ĭ å±Ĭ
ä¸Ĭ çĽĸ
éĹ ·
ä»ĸ æĽ¾ç»ı
ä¸ª éķĩ
éĥ¨ æĹı
éķ ³
çĶŁ äºĨ
æŀ ĭ
ä¸į åħ·
ä¸İ éĻĪ
ä¸İ å¦»åŃĲ
ä¸İ æķ°åŃĹ
ä½ľ çļĦ
èĥ °
åħ¬ æīĢ
åħ¬ è®¤
è¥¿ å¨ħ
åĪĨ æµģ
åħ¶ åĲį
åħ¶ ä½ľåĵģ
åĮº åı·
åŃĲ çŃī
åŃĲ åĽ½å®¶
åıĳ å£°
æľ¬ åĽ½
èĢĮ ä¸Ĭ
èĢĮ åİ»
èĢĮ æĺ¯åľ¨
èĢĮ ä»£ä¹ĭ
çī¹ ä¸¹
çī¹ æĳĦ
ä¸ĭ çĽ®
çĶ± æĿİ
çĶ± äººå·¥
ä¸ī å±±
ä¸ī èī²
ä¸ī åħĥ
å¾· é»ĳåħ°
å¸Ĥ éĥĬ
å¸Ĥ è¾ĸåĮº
å¸Ĥ åįĹåĮº
åĲĮ è¿Ľå£«åĩºèº«
ä¸ľ æµ·å²¸
åĮĹ è¡Į
äºļ çº²
åħĭ æĺŁ
åı¯ çĪ±
æ³ķ ä¼¦
çī© ä»¶
èĩª å¼º
å¼Ģ åĩ¿
é«ĺ å·ŀ
é«ĺ æĿ¾
è¿Ļ è®©
è¿Ļ æĦıåĳ³çĿĢ
åĬł éķ¿
æĸ° è®¾
æĸ° æ³½è¥¿å·ŀ
è·¯ ç¨ĭ
è·¯ è¾¹
è·¯ çĲĥåľº
å¾Ĺ åħĭèĲ¨æĸ¯
å±± èĦĬ
èĪ İ
åĽł ä¸İ
æĪĺ ä¿ĺ
åĨħ åŃĺ
åĨħ èĹ¤
æķĻ éķ¿
æķĻ åĮºçļĦ
é©¬ æł¼
é©¬ åįİ
è½¦ åĨħ
è¶ Ł
çŃī è®¾æĸ½
å·ŀ ç«ĭ
åı° éĺ¶
çİĭ åħĥ
å¹³ éĩĮ
å¸ĥ çĵ¦
å½ĵ å®¶
åĪ¶ è®¢
æĦ į
ãģ Ĵ
æ¯Ķ å¾·
æ¯Ķ è¯º
åİŁ æłī
åİ¿ éķ¿
åİ¿ åĨħ
æĢ§ çĪ±
æł¼ æł¼
æ°´ æµĴ
er d
çĽ¸ æīĳ
æĺİ åĨĽ
åŁº äºļ
ç»Ħ åĳĺ
ç»Ħ éĺģ
éĺ¿ åĽ¾
éĺ¿ åĭĴ
èĭ± æ³ķ
èĭ± äº©
18 19
18 18
åħĥ åĺī
æŀĹ åĮº
å¨ ł
æĢ» éĺŁ
æĪĸ åľ¨
åĶ Ķ
åħ± æ¼Ķ
åı£ çļĦ
åı£ å¤´
åı£ æľį
è§Ĩ å¯Ł
å¸¸ ç»¿
æ¶ ¿
åįİ è§Ĩ
éĴ Ĭ
éĹ¨ äºº
æĺŁ çº§
éª §
éª ħ
éª ·é«
æıĲ åŃ¦
æıĲ åħĭ
åı¤ å¢ĵ
å®ŀ ä¾ĭ
ç»´ çıį
çŁ³ æ¾³
æł¡ æĸ¹
é¾Ļ åįİ
é¾Ļ éĢł
åį¡ åĨħ
çı ª
çı ²æĺ¥
ä¸ĩ ä½Ļäºº
è®® å¤§å¤«
å¸Ī çļĦ
å¸Ī å¦¹
è§Ĵ é¾ĻçļĦ
å¥ĸ æıĲåĲį
å¤§åŃ¦ åŃ¦ä¹ł
å¤§åŃ¦ åĮ»åŃ¦éĻ¢
ç®¡ é¢Ĩ
å¤Ħ ç½®
æĮĩ å®ļçļĦ
åŃ£ ä¸Ń
å®ĺ ä½į
å®ĺ åĥļ
15 77
ä¿¡ èµĸ
æŃ¦ æŀĹ
æŃ¦ åĪĻå¤©
æĹ¥æľ¬ æµ·
ä¼Ĭ é¡¿
åĳ½ é¢ĺ
åıĸ èĢĮä»£ä¹ĭ
åıª éĻĲ
åıª æĺ¯ä¸Ģä¸ª
é¦Ļæ¸¯ å²Ľ
æĻ® æ´Ľ
æīĵ åĢĴ
å®Ĺ æ´¾
æĶ¶ æķĽ
å¼Ģå§ĭ ä½¿çĶ¨
æį® ä¼ł
çĳ ķ
åıĪ è¯ĳä¸º
æ²¡ æĥ³åĪ°
èĬ± åįī
åħ« éĥİ
è§£ æķĳ
17 4
17 5
17 19
16 3
å¨ģ æĸ¯çī¹
é¸ ®
es ter
æ°Ķ æ°Ľ
åĮħæĭ¬ åľ¨
è¿Ľè¡Į çłĶç©¶
åĨł é¥°
å®Į ç¾İçļĦ
ç¬¬äºĮ éĺ¶æ®µ
æ´Ľ ä¼¦
åķĨ åŃ¦éĻ¢
è§ģ çļĦ
ä¹Ŀ æĹ¥
å¼º çĽĹ
å¼º å£®
æ±ī ä¸Ń
çĵ¦ åħĭ
åľŁ è¯Ń
è°ĥ æİ§
å²ģ çĶŁæĹ¥
ä¿® ä¼ļ
èĲ¨ ç±³
èĲ¨ æĻ®
æ¯ı ä½į
èĲ¥ æķĳ
13 4
çļĩ çĶ«
é²ģ çī¹
çľŁ è¨Ģå®Ĺ
å¿Ĺ ä¼Ł
äº¦ è®¾æľī
æĬ¤ åŁİ
æĭħ çº²
å®¢ åº§
è´Ŀ éĩĮ
è´Ŀ åħĭå°Ķ
åıĮ åŃĲ
å®¤ çļĦ
å®¤ åĴĮ
èĥľ æĬķ
çĹħ çĲĨ
æīĺ æ´Ľ
è¯º åħĭ
èĪª éĢŁ
èĢģ é¹°
åĪĺ ç§Ģ
åıĳçİ° èĩªå·±
éŁ³ä¹Ĳ ä¸ĵè¾ĳ
æİĴ æĶ¾
éģĹ çī©
ĠA ct
åĿĩ åľ¨
åĿĩ è¡¡
çĥŃ çĥĪ
è¿ĲåĬ¨ åľº
è¿ª ä¼¦
ä½ı æĮģ
ĠP aul
ä¾§ å¼ı
23 8
è¶³çĲĥ ä¹Ļçº§èģĶèµĽ
ç²¾ ç»Ĩ
å§Ķåĳĺ éķ¿
åįł äºĨ
åįł çĶ¨
åįĥ éĩĳ
as a
å®Ŀ ä¸½
æŃ¢ æŃ¥
æ¡Ī ä¸»
æĹ¶éĹ´ åĴĮ
æĹ¶éĹ´ éĩĮ
æĹ¶éĹ´ è¡¨
çīĮ çħ§
éĢļè¿ĩ çļĦ
åı¶ å¤«
æŃ¥ éģĵ
åĶĲ çİĦå®Ĺ
åı³ åıĤè®®
ç»Ĩ éķ¿
ç¬¬ä¸ī æī¹
å°¾ èļ
ĠH ong
ĠL ee
ç»Ħç»ĩ äºĨ
ç¤¾ä¼ļ å·¥ä½ľ
æĳĦ åıĸ
æĳĦ æ´¥
ĠF re
ä½Ĳ é¢Ĩ
æĪĲåĳĺ ä¹ĭä¸Ģ
éĿ© åħ°æ°ı
åį¢ å¸ĥ
åį¢ åį¡
ä¼¤ å¿ĥ
è°· å·Ŀ
åĮĹäº¬ åľ°éĵģ
æľ« ä»£
27 0
æĿ¨ æ°ı
æĿ¨ æĻĵ
å±ĭ èĭĳ
ac ob
å¸ķ çī¹éĩĮåħĭ
ãĥ¼ ãĥ³
ä½Ĩæĺ¯ ä»ĸ
æ²¿ æ±Ł
éŃĶ èĭŁ
æĿ¿ åŀ£
éĢģ èĩ³
éĢģ åħ¥
å¾¡ åīĳ
æ¢ģ æŃ¦å¸Ŀ
æĺł çĶ»
éĽª å±±
çļĦåľ° åĲį
èĵĿ æĥĬå¥ĩ
æĿĤ è´§
æĿĤ é£ŁæĢ§
æķĮ äººçļĦ
æķĮ æ£ĭ
ä¹Ķ å¤«
èĪªç©º çļĦ
èĪªç©º éĺŁ
å·¡ èĪª
ĠK n
æºª éķĩ
äºĭä»¶ åĲİ
æ®¿ å¤§åŃ¦å£«
å¹³æĸ¹ åĳİ
å¹³æĸ¹ èĭ±éĩĮ
å¥ı è¯·
åı·çº¿ ä¸ĢæľŁ
çĶŁäº§ åķĨ
æĺŃ åħ¬
ç£ º
ç¿¼ å±ķ
éĨ ĭ
éĨ Ĳ
è·Ł ä»İ
um p
um an
æ¨ª æī«
èĩªçĶ± ä¸»ä¹ī
åħħ çĶµ
æĪ´ æĸ¯
id ge
èĨ º
åı¦ä¸Ģ åĲį
é¢ģ æİĪ
èĪį å°Ķ
æģ¶ æĦı
ç§¦ å½¦
çĹĩ åĢĻ
em an
çĴ ŀ
è´Ŀå°Ķ æł¼éĽ·å¤«
op ter
è¿İ æĿ¥
è®Ńç»ĥ ä¸Ńå¿ĥ
ä¸īåįģ ä¸īå¹´
æīİ åħĭ
ard en
éº» éĨī
è±ª æĹı
è±ª å®ħ
é¢ľ æĸĻ
é¹¿ çī¹ä¸¹
ä¸ľäº¬ å¤§åŃ¦
è¿Ļæĺ¯ ä»ĸ
æĤ£ èĢħçļĦ
å¢Ļ ä¸Ĭ
75 9
ç¡¬ çħ§
å¹³åĿĩ æ¯ı
å°Ĭ æķ¬
å¹¿æĴŃ èĬĤçĽ®
è·¨ çľģ
ï¼ģ ãĢĭ
ĠCh urch
og raph
å¤§éģĵ çº¿
å¤©ä¸»æķĻ å¾Ĵ
æłĸ åľ°
æī§è¡Į å§Ķåĳĺä¼ļ
åľ°çĲĥ ä¸Ĭ
åĿĳ åºĦ
æĥĬ è®¶
æ®Ĭ èį£
å¾·éĩĮ å®ī
å®ĹæķĻ æĶ¹éĿ©
åŃŁ åŃĲ
æĿĤå¿Ĺ ä¸Ĭ
ens e
è½´ çº¿
ç´¯ æĸ¯é¡¿
ç»ĵåĲĪ äºĨ
æµ® æ¸¸
èĶ¡ èµŁ
ç¬¬åįģ ä¹Ŀ
Ġv an
Ġ195 3
180 3
çº¿çļĦ éĵģè·¯è½¦ç«Ļ
æĸľ æĭī
ĠæľĢä½³ å¥³éħįè§Ĵ
ä¸Ļ ç»Ħ
çł² å¡Ķ
å®ı ä¼Ł
åĴĮå¹³ åĮº
çĪ¶æ¯į çļĦ
ãģĭ ãĤī
éĶģ å®ļ
èįĴ éĩİ
èµ°åĲĳ ç»ıè¿ĩæľ¬åľ°åĮº
æĲ¬ è¿ģèĩ³
å¯Ħ å®¿
åĩ½æķ° çļĦ
æ¯ĶåĪ© çīĽæĸ¯
å¥Ķ è·ĳ
åħĭèİ± å°Ķ
äºĶæľĪ åĪĿ
æĻ®éģį è®¤ä¸º
é¸Ń ç»¿
æ¹ĺ æ±Ł
æĭ± æ¡¥
æŁ´æ²¹ åĬ¨è½¦ç»Ħ
èµĦäº§ ç®¡çĲĨ
ER O
åįłåľ° çº¦
äººåı£æķ°éĩı ä¸º
à¤ ¾
æŃĩ å±±é¡¶
èħĵ å°¼åŁº
å¼ĵ ç®Ń
å¤§éĢī ä¸Ń
ç¹ģæ®ĸ æľŁ
åĩĨåĨ³èµĽ ä¸Ń
è¤ ¶
ç¾İä¸½ å¥³å£°
æĿı ä»ģ
éĻ·åħ¥ äºĨ
å¾Īå¤§ ç¨ĭåº¦ä¸Ĭ
çļĦå¤´ éĥ¨
ç§įç±» çļĦ
èľĢ æ±ī
åĴı éºŁ
æ°¯ éħ¸
å§ĳ å¨ĺ
ä¸Ńä¹¦ çľģ
èĥĨ ç¢±
éķ¶ é»ĦæĹĹ
ä¸ĭåįĬ åľº
èµ«å°Ķ æĽ¼
æĶĢ çĻ»
ear ch
åĬ£ åĬ¿
ç¼´ åĩº
ç¼´ èİ·
å±ķçİ° åĩº
æ¹ĸåĮĹçľģ åįļçī©é¦Ĩ
å½¢å®¹ è¯į
çĽĪ åĪ©
çª¦ å¨ģ
æµ·åįĹ çľģ
ç¼Ķ éĢł
è®¸åı¯ è¯ģ
å¥ł å®ļäºĨ
ç«ĸ ç«ĭ
è·¯å¾·ç»´ æł¼
é²¤ é±¼
ç¡Ŀ åŁº
Ed ward
ä¸ŃåĽ½ç§ĳåŃ¦éĻ¢ éĻ¢å£«
æľīåĪ© äºİ
æ»¥ çĶ¨
åį«åĨķ åĨłåĨĽ
èĪªæµ· å®¶
éªĦ åĤ²
ven ue
æ±Ĳ æŃ¢
å¤ļæĳ© éĥ¡
èĹī èĳĹ
éĺĲ è¿°
âĢĭ âĢĭ
çļĦé¢Ĩå¯¼ ä¸ĭ
å¤©æ°´ åĽ´
å¤§åĪĨ ä¸īå¥½
ä¸ľå¤§ éĤ±
ä¸Ĭé¢Į éª¨
ĠWilliam s
çĭŃéķ¿ åľ°å¸¦
å¡ŀç»´ åĪ©äºļ
å·ħ å³°
èŃ¬ å¦Ĥ
åĳķ åĲĲ
çĲ¥ çıĢ
ÑģÐºÐ° Ñı
è¾Ĺ è½¬
åıĳæĶ¹ å§Ķ
ä¸ĸçķĮåį«çĶŁ ç»Ħç»ĩ
Ġé»ĦçŁ³ å¸Ĥ
æ³°ç½Ĺ å°¼äºļ
æ±īè¯º å¨ģ
åı·åĬłåĪ©ç¦ıå°¼äºļå·ŀ å·ŀéģĵ
éĿŀçī©è´¨ æĸĩåĮĸéģĹäº§
éĨį éĨĲ
RET Screen
éª·é« ħ
B o
D T
D is
G reat
L P
L eg
M art
M ary
P M
S i
S ec
T y
W ii
c ia
k er
m o
n d
o i
p H
p ro
r d
v an
w ig
w ork
y c
Â »
× Ļ
Ù Ĥ
â ģ
Ġ Ø
Ġ çĶµ
Ġ åı²
Ġ æ±ī
Ġ è¥¿çıŃçīĻ
Ġ è¶ĬåįĹ
Ġ 1949
Ġ 1962
Ġ 1977
ä¸ «
çļĦ éĵģ
çļĦ åħ«
çļĦ æľįåĬ¡
çļĦ æ¬§æ´²
çļĦ èĩªçĶ±
çļĦ ä¸Ńæĸĩ
çļĦ ç»ĦåĲĪ
çļĦ è·¯çº¿
çļĦ è¡¨éĿ¢
çļĦ æĮĳæĪĺ
çļĦ é£Łçī©
çļĦ åľºæĻ¯
çļĦ å¥½åıĭ
å¹´ åĩºä»»
å¹´ äºļè¶³èģĶ
æĺ ķ
åľ¨ ç¬¬ä¸ī
åľ¨ è¥¿çıŃçīĻ
åľ¨ ç¬¬äºĮæ¬¡ä¸ĸçķĮå¤§æĪĺ
ä¸Ģ åı£
ä¸º æķ°
æĺ¯ èĭıèģĶ
æĺ¯ ä¸ŃåĽ½å¤§éĻĨ
æĺ¯ ç¬¬ä¸Ģä¸ª
è® ¹
å¼ ©
äºº åĲį
äºº å¯¹
äºº åĲįåįķ
å¤§ è§Ĵ
å¤§ çł´
å¤§ æ³ķå®ĺ
å¤§ åŁ¤
åĩ ³
åĩ Ľ
æľī ä¼ł
åĴ İ
åĴĮ R
åĴĮ ç¾İ
åĴĮ å¥¹çļĦ
åĴĮ åħ¶å®ĥ
æľĪ å®£å¸ĥ
æ° Ĺ
ä»¥ ç¤º
äºĨ å¥¹
è´ ±
æĸ¯ æ³¢
ä¸ª ç¤¾åĮº
éĥ¨ ä¼Ĺ
ä¸į æĥľ
ä¸į æĦ¿æĦı
ä¸İ åĮĹ
ä¸İ é»ĳ
ä¹ĭ å¤ļ
ä¹ĭ éĹ¨
ä½ľ åĩºäºĨ
å®¶ åºĦæĿĳ
ä¸» åĽŃ
åħ¬ è½¦
è¡Į äºĭ
è¥¿ åĴĮ
åĪĨ æīĵçĤ¹
åħ¶ ä¸Ĭ
åħ¶ ä¸ľä¾§
åŃĲ éĩĮ
æľ¬ çī¹
æľ¬ èĲ¥
è¢« çĶ¨äºİ
çĶ¨ èį¯
ç¾ ģ
èĢĮ æŃ¤
å¹¶ åĴĮ
å¹¶ åıĸå¾Ĺ
åįĹ å²¸
çĶ± ä¸Ĭæµ·
ä¸ī éĿ¢
å¾· ç´¯æĸ¯é¡¿
æĿ¥ æ¸¯
æľĢ ä¸Ĭ
æľĢ æĸ°çļĦ
ä¸ľ å®Ŀ
åĮĹ æľĿ
å¤ļ å¹´åĲİ
åı¯ è¢«
åı¯ çŁ¥
åı¯ è¿½æº¯åĪ°
æĸĩ å§ľ
çī© æĸĻ
å¼Ģ å±Ģ
é«ĺ å¸Ŀ
é«ĺ ç§ĳæĬĢ
é«ĺ æ£ī
åīį æ¯į
åīį åįĬ
è¿Ļ å¼ł
åĬł æ³°ç½Ĺå°¼äºļ
æĸ° æ¡¥
å»º æĿĲ
å±± åĲĳä¸ľ
çİ° æĹ¶çļĦ
åĽł è¢«
ä¹Ł å¸¸
å°ı é±¼
æĭī æľº
æĭī è¾¾
æĭī åĽ¾
æµ· æĬ¥
è° ª
äºĭ åıĺ
é©¬ éĽ·
é©¬ é²ģ
é©¬ èĴĤ
é©¬ å°¼æĭī
éĹ´ è·Ŀ
è¿Ľ æ·±
éļ ½
è½¦ ç¥¨
è½¦ åİĤ
è¿ĩ èĳĹ
åĲĪ åĬŀ
åı° åĲİ
åı° ä¸Ĭ
æľº çĶµ
æľº çİĩ
çº¿ ç»ĪçĤ¹
çİĭ å®Ī
ç§ĳ æĸ¯
èĥ½ ä¸İ
èģĶ æĥ³
æ¼Ķ è¯´
ä½Ĩ åıĪ
å¤ĸ åľĪ
éĢļ å·ŀ
å®ī å¸Ŀ
ä½¿ äºº
åŁİ è·¯
åŁİ ä¹¡
ç§° è°ĵ
ç§° ä»ĸä¸º
åħ¨ åİ¿
10 000
è¯¥ æĽ²
å®ļ åĪ¶
éĩĳ å®ī
ä¸¤ æ®µ
ä¸¤ åĿĹ
éĥ½ çĶ±
éĥ½ å±ŀäºİ
éĩį äºİ
åı² è¿¹
å¥³ å©¿
æ°´ è·¯
æ°´ æ²³
åħ° èİª
æ® Ĩ
éĺ¿ çĳŁ
å°¼ çļĦ
å°¼ æ²»
18 31
18 46
18 34
åĪĹ å²Ľ
åŀ ®
æ²» æīĢ
æ²» å¹³
æ²» éĥİ
åħĥ åħĥå¹´
ä¸ŃåĽ½ éĵģè·¯
ä¸ŃåĽ½ åľ°éľĩ
çĦ ĵ
è¯Ń æĺ¯
çº§ èĪ°
åıĤ å°Ĩ
æĹł åĲį
æĹł èī²
æĹł èĦĬæ¤İåĬ¨çī©
ä¿Ŀ èī¯
æĽ¾ æķĪåĬĽ
éĹ¨ å¸Ĥ
ç±» ç¾¤
éª Ĭ
åı¤ æĸ¯
åŀĭ ä¸º
é¾Ļ å¤´
åį¡ æ¯Ķ
åıĹ çĲĨ
åıĹ æ´Ĺ
è®® è®º
æ±Ł åĮº
åįķ è°ĥ
en cy
åĪ« åĬ¨
åĽŀ è½¬
éĢł çº¸
åħī å·ŀ
å¼ł åĬĽ
15 8
å¤´ é¡¶
å°ĳ å°ī
ä¿¡ ä¸Ń
æĿİ æī¿
äº¬ éĩľ
åıª æĺ¯åľ¨
é¦Ļæ¸¯ ä¸Ńæĸĩå¤§åŃ¦
åľ£ ä¹Ķæ²»
åĽ½å®¶ æĸĩçī©å±Ģ
çĮ ·
åĲĦ æł·çļĦ
çĪ± ä½ł
è¿ŀ è´¥
èĬ± éĴ¿
åħ« ä¸Ģ
åħ« æľĪåįĩ
å±Ģ éĻĲ
17 9
17 97
ä¸ĸçķĮ æİĴåĲį
èı Ī
çļĦä¸Ģ åĪĩ
ĠS il
åĨį çİ°
åĨį çīĪ
æľª å®ĮæĪĲ
å¥½ å¤Ħ
æĬ¥ ç«ł
ç»Ī ç«¯
å·Ŀ æĻ®
è§ģ ä¹ł
ä¼¯ åĽ½
ä¼¯ å¤ļç¦Ħ
éĿĴ æ£ĴéĺŁ
ĠC ont
ĠC ourt
æ±ī æĪĲå¸Ŀ
åĵĪ éĩĮæĸ¯
è¾ĥ å·®
è°ĥ åĬ¨
è¶ħ èĩªçĦ¶
å¸Į æĭī
äººæ°ĳ çļĦ
äººæ°ĳ åĮ»éĻ¢
äºī åĲµ
å¾Ī ä¹ħ
äº¦ åį³
åĭĴ éĺ¿
åĭĴ èı²
ä»ĸçļĦ æ¯įäº²
é»ĳ å±±
æ¸¸æĪı æľº
é£ŀ æ®µ
èĥľ ä»Ĺ
å®¹ ç¥ĸåĦ¿
éĻĪ å¿Ĺ
å®£ æĬļ
çĶ² æĿ¿
æĻ¯ çĶľ
å¤± åĪĨ
åĪĺ å®ĭ
çĻ¾ å¤§
çĻ¾ å®ĺ
é±¼ éľ²
å¢ŀ æ·»
åĺī å¥ĸ
åı¯èĥ½ ä¸º
åĥı ç´ł
æ±Ĥ åŃ¦
çĿ£ å¯Ł
ĠB ank
ä»£è¡¨ æĢ§
ĠP an
ä¾¿ å¼Ģå§ĭ
åħ¸ èĮĥ
è´¹ è¿ªåįĹ
çľĭ æĬ¤
åįĥ ä»£
ä½ķ å¡ŀ
å®Ŀ åº§
ç®Ģ åĮĸ
å·¦ å¸ĥæĶ¿ä½¿
éĻĦ åº¸
è¯ģ äºº
æ°¸ æĺİ
æľĢåĲİ çĶ±
å¯Į å¯Łæ°ı
èįī ä¸Ľ
æµĭ ç»ĺ
ä½Ľ åĥı
å¼Ĺ åĪ©
å¼Ĺ èķ¾
å¼Ĺ åĬ³æģ©
th ur
æĿ¾ é¹¤
le ct
åĩł ä¸ªæľĪ
åĩºçİ° è¿ĩ
èĴĻ å¤§
ç¬¬ä¸ī è½®
åį´ åıĪ
å¹´ä»£ åĴĮ
å¹´ä»£ èµ·
æĭ¿ åĩº
æī¹ åıĳ
éº¦ å¯®
æľĢç»Ī èİ·å¾Ĺ
æĹ§ çº¦
æľĢä½³ çĶ·ä¸»è§Ĵ
æ²¹ çļĦ
è¯Ĺ æĽ¼
50 1
ç«¥ å¥³
ç¥¨ æķ°
èŃ¦ éķ¿
æłĳ èĽĻ
et te
å½Ĵ åĽ½
éĽħ æĹı
é¸Ł åıĸ
åİĭ è¿«
èį¯ çĶ¨
å®ĭ åı²
æ²ĥ å°Ķçī¹
æ´»åĬ¨ ä¸Ńå¿ĥ
éĩįè¦ģ ä½ľçĶ¨
ç»Ŀ å¤§éĥ¨åĪĨ
æĭį çħ§
éŃĶ åĬĽ
åĶ® ä»·
å¿ħ å®ļ
å¿ħ çĥĪ
æľ± æ££
ia z
å®£å¸ĥ ä¸İ
æł¸ åŃĲ
éĽª åħ°èİª
å°½ åĬĽ
åħ¬åĽŃ åĨħ
è¡¥ åĬ©
ä¸ĢèĪ¬ ä¸º
å®½ å®¹
éľį æĻ®
è®² è¯Ŀ
ä¿Ħç½Ĺæĸ¯ å¸ĿåĽ½
ç½² éķ¿
ç½² çĲĨ
ä½© åĲī
å¼Ģåıĳ èĢħ
æ¤įçī© æ¿Ģç´ł
å®ĩ åĴĮ
æ¨ª é¡»è´º
é¢Ŀ å®ļ
å« ī
åı¦å¤ĸ ä¸¤ä¸ª
ad t
åºŁ é»ľ
èµŀ èªī
å¥ī çĮ®
ç§ģ éĢļ
éĵ¶è¡Į çļĦ
èĦļ è¶¾
åı¦ä¸Ģ æĶ¯
çİ©å®¶ åı¯
çļĨ æĺ¯
ä¾į è¯»
éĻ¤äºĨ åľ¨
90 3
éĽ¨ çĩķ
èµĽäºĭ çļĦ
ç»Ĩèĥŀ ä¸Ń
ç¦ģ ä»¤
å®ĥä»¬ æĺ¯
ay s
èĲ§ åŃĲ
èĮĥåĽ´ åĮħæĭ¬
ä¸īåįģ ä¸ĥå¹´
åı¬ è§ģ
åħ±åĲĮ ä½ĵ
æīİ å°Ķ
åŃĿ åŃĲ
ç¥Ń åħ¸
ç¥Ń æĭľ
ç¥Ń åĿĽ
çĲĨè®º åĴĮ
ĠV oice
éĺ» åĬĽ
çĶ³ èĬ±
éĿĴå¹´ åĨĽ
è¯¯ ä¼ļ
ç³ĸ åĪĨ
ç¡¬ å¸ģ
åĽ½æ°ĳ ä¸ŃåŃ¦
è£Ĥ ç¼Ŀ
åħ¬åħ± æľįåĬ¡
ĠÐ ł
å¥¥è¿Ĳ ä¼ļçļĦ
è¡¡ éĩı
èħ¹ é³į
éļĲ å½¢
æĢª å¼Ĥ
åĪĨéĴŁ åĨħ
39 9
èļ ¤
åľ¨æŃ¤ ä¹ĭåīį
ä¸ºä¸Ģ ä½ĵ
èĽĭçĻ½ æł¸
Ġp l
çķª åŃĲ
æĺİæ²» ç»´æĸ°
ç¨İ åĬ¡
æľīäºĽ äºº
èķ¾ éĽħ
è®°å½ķ äºĨ
å¤ºå¾Ĺ äºĨ
åĪĨåŃĲ éĩı
å¿«éĢŁ åħ¬è·¯
çĤİ çĥŃ
ä¿¡åı· çļĦ
éĹª åħī
åŁºåĽł çļĦ
éĶ® çĽĺ
éķ¿æľŁ ä»¥æĿ¥
ãĥ¼ãĥ ĭ
å¼¥ éĻĢ
uc t
éĽĮ é¸Ł
åį«çĶŁ éĥ¨
98 6
ä¼ĺç§Ģ éĢī
æĶ¶åħ¥ ä¸Ńä½į
åĿİ è´Ŀå°Ķ
æ¬² æľĽ
æĦıæĢĿ ä¸º
é©¬å°Ķ ä»£
åĪĽåĬŀ äºİ
åĸĢ éĩĮå¤ļ
é¼» åŃĶ
è´¢æĶ¿ éĥ¨éķ¿
ç° ·
Ġé«ĺ éĽĦ
èľľ èİī
çļĦåİŁ åŀĭ
äººæ°ĳæĶ¿åºľ é©»
è°¦ ä¿¡
iz a
è¡° åıĺ
ann a
é¼İ çĽĽ
è°Ń åĴıéºŁ
åįĳ è¯Ĺ
èģĺ ä¸º
à¤ °
æ°Ķè±¡ å±Ģ
åıĳæĺİ äºĨ
èĤĸ æģ©
åįģä¹Ŀ ä¸ĸçºª
ãģĵ ãģĨ
å¿½ å¿ħçĥĪ
ä½įäºİä¸ŃåĽ½ å¹¿ä¸ľçľģ
è¤ ļ
ç«ĭæ³ķ ä¼ļ
åĲĬ å¸¦
åĲĦèĩª çļĦ
åĵĪåĪ© æ³¢çī¹
æ¼Ĥ äº®
å¾Ĺå¥ĸ åĲįåįķ
æ³¡ æ²«
éĶ¥ å½¢
æĸ°å»º çļĦ
å¤§ä¼Ĺ æĸĩåĮĸ
å·´æĸ¯ èĴĤå®ī
ĠPr ess
èľĺèĽĽ äºº
èľĺèĽĽ ä¸Ŀ
è¿ģç§» èĩ³
æµ¸ ä¿¡
å¾·å·Ŀ å®¶
ram a
ç¥· åĳĬ
åľ¨ä½į æľŁéĹ´
å¯ħ æ¬¡éĥİ
å±¥ åİĨ
éĢļçĶ¨ çĶµæ°Ķ
çī¢ æĪ¿
ç§¯åĪĨ æ¦ľ
éªļ æī°
è¾ĥä½İ çļĦ
tor ia
å¿ĹæĦ¿ åĨĽ
åĭ¾ ç»ĵ
ç»Ĵ æ¯Ľ
é¥¥ èįĴ
åĿĲèĲ½ åľ¨
[...]
