{
  "version": "1.0",
  "truncation": null,
  "padding": null,
  "added_tokens": [
    {
      "id": 0,
      "content": "<|endoftext|>",
      "single_word": false,
      "lstrip": false,
      "rstrip": false,
      "normalized": true,
      "special": true
    }
  ],
  "normalizer": null,
  "pre_tokenizer": {
    "type": "ByteLevel",
    "add_prefix_space": false,
    "trim_offsets": true,
    "use_regex": true
  },
  "post_processor": {
    "type": "ByteLevel",
    "add_prefix_space": true,
    "trim_offsets": false,
    "use_regex": true
  },
  "decoder": {
    "type": "ByteLevel",
    "add_prefix_space": true,
    "trim_offsets": true,
    "use_regex": true
  },
  "model": {
    "type": "BPE",
    "dropout": null,
    "unk_token": null,
    "continuing_subword_prefix": "",
    "end_of_word_suffix": "",
    "fuse_unk": false,
    "byte_fallback": false,
    "ignore_merges": false,
    "vocab": {
      "<|endoftext|>": 0,
      "!": 1,
      "\"": 2,
      "#": 3,
      "$": 4,
      "%": 5,
      "&": 6,
      "'": 7,
      "(": 8,
      ")": 9,
      "*": 10,
      "+": 11,
      ",": 12,
      "-": 13,
      ".": 14,
      "/": 15,
      "0": 16,
      "1": 17,
      "2": 18,
      "3": 19,
      "4": 20,
      "5": 21,
      "6": 22,
      "7": 23,
      "8": 24,
      "9": 25,
      ":": 26,
      ";": 27,
      "<": 28,
      "=": 29,
      ">": 30,
      "?": 31,
      "@": 32,
      "A": 33,
      "B": 34,
      "C": 35,
      "D": 36,
      "E": 37,
      "F": 38,
      "G": 39,
      "H": 40,
      "I": 41,
      "J": 42,
      "K": 43,
      "L": 44,
      "M": 45,
      "N": 46,
      "O": 47,
      "P": 48,
      "Q": 49,
      "R": 50,
      "S": 51,
      "T": 52,
      "U": 53,
      "V": 54,
      "W": 55,
      "X": 56,
      "Y": 57,
      "Z": 58,
      "[": 59,
      "\\": 60,
      "]": 61,
      "^": 62,
      "_": 63,
      "`": 64,
      "a": 65,
      "b": 66,
      "c": 67,
      "d": 68,
      "e": 69,
      "f": 70,
      "g": 71,
      "h": 72,
      "i": 73,
      "j": 74,
      "k": 75,
      "l": 76,
      "m": 77,
      "n": 78,
      "o": 79,
      "p": 80,
      "q": 81,
      "r": 82,
      "s": 83,
      "t": 84,
      "u": 85,
      "v": 86,
      "w": 87,
      "x": 88,
      "y": 89,
      "z": 90,
      "{": 91,
      "|": 92,
      "}": 93,
      "~": 94,
      "¡": 95,
      "¢": 96,
      "£": 97,
      "¤": 98,
      "¥": 99,
      "¦": 100,
      "§": 101,
      "¨": 102,
      "©": 103,
      "ª": 104,
      "«": 105,
      "¬": 106,
      "®": 107,
      "¯": 108,
      "°": 109,
      "±": 110,
      "²": 111,
      "³": 112,
      "´": 113,
      "µ": 114,
      "¶": 115,
      "·": 116,
      "¸": 117,
      "¹": 118,
      "º": 119,
      "»": 120,
      "¼": 121,
      "½": 122,
      "¾": 123,
      "¿": 124,
      "À": 125,
      "Á": 126,
      "Â": 127,
      "Ã": 128,
      "Ä": 129,
      "Å": 130,
      "Æ": 131,
      "Ç": 132,
      "È": 133,
      "É": 134,
      "Ê": 135,
      "Ë": 136,
      "Ì": 137,
      "Í": 138,
      "Î": 139,
      "Ï": 140,
      "Ð": 141,
      "Ñ": 142,
      "Ò": 143,
      "Ó": 144,
      "Ô": 145,
      "Õ": 146,
      "Ö": 147,
      "×": 148,
      "Ø": 149,
      "Ù": 150,
      "Ú": 151,
      "Û": 152,
      "Ü": 153,
      "Ý": 154,
      "Þ": 155,
      "ß": 156,
      "à": 157,
      "á": 158,
      "â": 159,
      "ã": 160,
      "ä": 161,
      "å": 162,
      "æ": 163,
      "ç": 164,
      "è": 165,
      "é": 166,
      "ê": 167,
      "ë": 168,
      "ì": 169,
      "í": 170,
      "î": 171,
      "ï": 172,
      "ð": 173,
      "ñ": 174,
      "ò": 175,
      "ó": 176,
      "ô": 177,
      "õ": 178,
      "ö": 179,
      "÷": 180,
      "ø": 181,
      "ù": 182,
      "ú": 183,
      "û": 184,
      "ü": 185,
      "ý": 186,
      "þ": 187,
      "ÿ": 188,
      "Ā": 189,
      "ā": 190,
      "Ă": 191,
      "ă": 192,
      "Ą": 193,
      "ą": 194,
      "Ć": 195,
      "ć": 196,
      "Ĉ": 197,
      "ĉ": 198,
      "Ċ": 199,
      "ċ": 200,
      "Č": 201,
      "č": 202,
      "Ď": 203,
      "ď": 204,
      "Đ": 205,
      "đ": 206,
      "Ē": 207,
      "ē": 208,
      "Ĕ": 209,
      "ĕ": 210,
      "Ė": 211,
      "ė": 212,
      "Ę": 213,
      "ę": 214,
      "Ě": 215,
      "ě": 216,
      "Ĝ": 217,
      "ĝ": 218,
      "Ğ": 219,
      "ğ": 220,
      "Ġ": 221,
      "ġ": 222,
      "Ģ": 223,
      "ģ": 224,
      "Ĥ": 225,
      "ĥ": 226,
      "Ħ": 227,
      "ħ": 228,
      "Ĩ": 229,
      "ĩ": 230,
      "Ī": 231,
      "ī": 232,
      "Ĭ": 233,
      "ĭ": 234,
      "Į": 235,
      "į": 236,
      "İ": 237,
      "ı": 238,
      "Ĳ": 239,
      "ĳ": 240,
      "Ĵ": 241,
      "ĵ": 242,
      "Ķ": 243,
      "ķ": 244,
      "ĸ": 245,
      "Ĺ": 246,
      "ĺ": 247,
      "Ļ": 248,
      "ļ": 249,
      "Ľ": 250,
      "ľ": 251,
      "Ŀ": 252,
      "ŀ": 253,
      "Ł": 254,
      "ł": 255,
      "Ń": 256,
      "ï¼": 257,
      "ä¸": 258,
      "ãĢ": 259,
      "ï¼Į": 260,
      "äº": 261,
      "çļ": 262,
      "çļĦ": 263,
      "ãĢĤ": 264,
      "æľ": 265,
      "åı": 266,
      "åħ": 267,
      "å¹": 268,
      "ä»": 269,
      "å¤": 270,
      "åľ": 271,
      "åĲ": 272,
      "åĪ": 273,
      "å¹´": 274,
      "å®": 275,
      "åĽ": 276,
      "çĶ": 277,
      "ä½": 278,
      "åį": 279,
      "æĹ": 280,
      "ãĢģ": 281,
      "å°": 282,
      "æĸ": 283,
      "æĺ": 284,
      "ä¹": 285,
      "è¿": 286,
      "ç»": 287,
      "åŃ": 288,
      "æĪ": 289,
      "åľ¨": 290,
      "ä¸Ģ": 291,
      "ä¸º": 292,
      "ï¼Ī": 293,
      "ï¼ī": 294,
      "ä¼": 295,
      "å¸": 296,
      "åĬ": 297,
      "åĨ": 298,
      "åĮ": 299,
      "è¯": 300,
      "æĿ": 301,
      "ä¸Ń": 302,
      "æĺ¯": 303,
      "çī": 304,
      "å·": 305,
      "å¾": 306,
      "è®": 307,
      "åĽ½": 308,
      "åº": 309,
      "å¼": 310,
      "äºº": 311,
      "çº": 312,
      "éĩ": 313,
      "å¤§": 314,
      "ç§": 315,
      "å±": 316,
      "äºİ": 317,
      "æī": 318,
      "åĩ": 319,
      "20": 320,
      "éĥ": 321,
      "æľī": 322,
      "åĴ": 323,
      "èµ": 324,
      "æŃ": 325,
      "è¡": 326,
      "éĢ": 327,
      "åİ": 328,
      "å¥": 329,
      "åĴĮ": 330,
      "æľĪ": 331,
      "å½": 332,
      "èĢ": 333,
      "æķ": 334,
      "éĻ": 335,
      "çİ": 336,
      "çĽ": 337,
      "æĶ": 338,
      "éĺ": 339,
      "19": 340,
      "æĹ¥": 341,
      "å¯": 342,
      "æĭ": 343,
      "âĢ": 344,
      "èĩ": 345,
      "æł": 346,
      "æ°": 347,
      "åĲİ": 348,
      "åŃ¦": 349,
      "æ²": 350,
      "ç«": 351,
      "æ³": 352,
      "è§": 353,
      "ä»¥": 354,
      "æµ": 355,
      "äºĨ": 356,
      "åĳ": 357,
      "çĲ": 358,
      "åī": 359,
      "è´": 360,
      "æĹ¶": 361,
      "æĪĲ": 362,
      "ï¼ļ": 363,
      "åľ°": 364,
      "æĸ¯": 365,
      "è¾": 366,
      "åŁ": 367,
      "ä¸Ĭ": 368,
      "éĹ": 369,
      "ä¼ļ": 370,
      "ä»ĸ": 371,
      "æĢ": 372,
      "ç¬": 373,
      "è½": 374,
      "åĩº": 375,
      "ä¸ª": 376,
      "ãĢĭ": 377,
      "ãĢĬ": 378,
      "æĽ": 379,
      "æ¯": 380,
      "Â·": 381,
      "éĥ¨": 382,
      "éķ": 383,
      "æ´": 384,
      "çĶŁ": 385,
      "æŀ": 386,
      "ä¸į": 387,
      "éĿ": 388,
      "ä¸İ": 389,
      "æ¸": 390,
      "ä¹ĭ": 391,
      "éģ": 392,
      "åĲį": 393,
      "ä½ľ": 394,
      "å°Ķ": 395,
      "ç¬¬": 396,
      "æĬ": 397,
      "å®¶": 398,
      "ä¿": 399,
      "èĥ": 400,
      "ä¸»": 401,
      "è¥": 402,
      "åħ¬": 403,
      "è¡Į": 404,
      "ç½": 405,
      "è¥¿": 406,
      "åĪĨ": 407,
      "åħ¶": 408,
      "æİ": 409,
      "åĮº": 410,
      "è¢": 411,
      "éĽ": 412,
      "åŃĲ": 413,
      "çŃ": 414,
      "è·": 415,
      "å¿": 416,
      "åıĳ": 417,
      "å»": 418,
      "æľ¬": 419,
      "åĨĽ": 420,
      "é¦": 421,
      "åĪ°": 422,
      "æ±": 423,
      "åĵ": 424,
      "è¢«": 425,
      "çĶ¨": 426,
      "æ¬": 427,
      "é¢": 428,
      "èģ": 429,
      "ç¾": 430,
      "å§": 431,
      "èĭ": 432,
      "èĢĮ": 433,
      "å¹¶": 434,
      "åįĹ": 435,
      "çī¹": 436,
      "éķ¿": 437,
      "èī": 438,
      "çľ": 439,
      "ä¸ĭ": 440,
      "ç±": 441,
      "ä¾": 442,
      "èµĽ": 443,
      "çĶ±": 444,
      "é©": 445,
      "201": 446,
      "ä½į": 447,
      "åıĬ": 448,
      "ä¸ī": 449,
      "å¾·": 450,
      "æĿ¥": 451,
      "å¸Ĥ": 452,
      "æĮ": 453,
      "åĲĮ": 454,
      "æľĢ": 455,
      "ä¸ľ": 456,
      "èİ": 457,
      "çŁ": 458,
      "æĻ": 459,
      "ç¥": 460,
      "åĮĹ": 461,
      "äºļ": 462,
      "å¤ļ": 463,
      "åħĭ": 464,
      "åı¯": 465,
      "åĿ": 466,
      "é«": 467,
      "å£": 468,
      "å²": 469,
      "æĸĩ": 470,
      "æ³ķ": 471,
      "çī©": 472,
      "éģĵ": 473,
      "èĩª": 474,
      "å¼Ģ": 475,
      "é«ĺ": 476,
      "åīį": 477,
      "æĸ¹": 478,
      "è¿Ļ": 479,
      "äºĮ": 480,
      "åĬł": 481,
      "çĲĥ": 482,
      "åĳĺ": 483,
      "éĩĮ": 484,
      "ä»»": 485,
      "çĶµ": 486,
      "æĸ°": 487,
      "è·¯": 488,
      "å¯¹": 489,
      "å»º": 490,
      "èĬ": 491,
      "ä¸ĸ": 492,
      "å¾Ĺ": 493,
      "åĪ©": 494,
      "ãĥ": 495,
      "é¡": 496,
      "åĬ¨": 497,
      "200": 498,
      "å±±": 499,
      "ä»£": 500,
      "åįģ": 501,
      "å¦": 502,
      "èĪ": 503,
      "èĩ³": 504,
      "æīĢ": 505,
      "çİ°": 506,
      "åĽł": 507,
      "æĪĺ": 508,
      "ä¹Ł": 509,
      "¦ģ": 510,
      "æ¼": 511,
      "å°ı": 512,
      "æĭī": 513,
      "æµ·": 514,
      "åĨħ": 515,
      "ç¾İ": 516,
      "è°": 517,
      "ç©": 518,
      "çķ": 519,
      "éĺŁ": 520,
      "å¤©": 521,
      "äºĭ": 522,
      "æķĻ": 523,
      "èĲ": 524,
      "é©¬": 525,
      "éĹ´": 526,
      "çĪ": 527,
      "ç»ı": 528,
      "åħ¥": 529,
      "è¿Ľ": 530,
      "éļ": 531,
      "âĢľ": 532,
      "âĢĿ": 533,
      "ãĢĮ": 534,
      "ãĢį": 535,
      "è½¦": 536,
      "è¿ĩ": 537,
      "æŃ¤": 538,
      "è¶": 539,
      "å°Ĩ": 540,
      "è¦ģ": 541,
      "çŃī": 542,
      "å·ŀ": 543,
      "éĵ": 544,
      "ç¤": 545,
      "æĶ¿": 546,
      "åĲĪ": 547,
      "åľº": 548,
      "åı°": 549,
      "å·¥": 550,
      "æľŁ": 551,
      "çĻ": 552,
      "æľº": 553,
      "æ°ĳ": 554,
      "æĥ": 555,
      "çº¿": 556,
      "çĲĨ": 557,
      "çİĭ": 558,
      "ä½ĵ": 559,
      "å¹³": 560,
      "èĤ": 561,
      "ç§ĳ": 562,
      "ç«Ļ": 563,
      "å¸ĥ": 564,
      "èĥ½": 565,
      "ç§į": 566,
      "å½ĵ": 567,
      "é£": 568,
      "åĪ¶": 569,
      "ç«ĭ": 570,
      "èģĶ": 571,
      "æ¬¡": 572,
      "æ¼Ķ": 573,
      "ç½Ĺ": 574,
      "åº¦": 575,
      "éĿ¢": 576,
      "ä½Ĩ": 577,
      "å¤ĸ": 578,
      "éĢļ": 579,
      "ç®": 580,
      "æĦ": 581,
      "å®ī": 582,
      "éŁ": 583,
      "ï¼īï¼Į": 584,
      "è®¾": 585,
      "ä¸ļ": 586,
      "æģ": 587,
      "åĮĸ": 588,
      "åı·": 589,
      "ä½¿": 590,
      "æŁ": 591,
      "æ¡": 592,
      "é»": 593,
      "éĤ": 594,
      "åŁİ": 595,
      "éĻ¢": 596,
      "ç¼": 597,
      "ç§°": 598,
      "ç³": 599,
      "åħ¨": 600,
      "ç¦": 601,
      "10": 602,
      "è¡¨": 603,
      "ãģ": 604,
      "è¯¥": 605,
      "å®ļ": 606,
      "ä¸Ģä¸ª": 607,
      "éĩĳ": 608,
      "æ¯Ķ": 609,
      "æı": 610,
      "ä¸¤": 611,
      "ï¼Ľ": 612,
      "èĢħ": 613,
      "åİŁ": 614,
      "éĥ½": 615,
      "åİ¿": 616,
      "éĩį": 617,
      "æĢ§": 618,
      "çł": 619,
      "æł¼": 620,
      "å£«": 621,
      "çĤ": 622,
      "ãĤ": 623,
      "åĬĽ": 624,
      "åı²": 625,
      "å¥³": 626,
      "æ°´": 627,
      "å¼ı": 628,
      "åĽĽ": 629,
      "er": 630,
      "ç¨": 631,
      "æį": 632,
      "çĽ¸": 633,
      "æĺİ": 634,
      "èį": 635,
      "å½±": 636,
      "èĳ": 637,
      "åŁº": 638,
      "æŃ£": 639,
      "ç³»": 640,
      "å¢": 641,
      "çľģ": 642,
      "éħ": 643,
      "ç»Ħ": 644,
      "æķ°": 645,
      "ç±³": 646,
      "æ£": 647,
      "çģ": 648,
      "å¡": 649,
      "åħ°": 650,
      "an": 651,
      "æ®": 652,
      "éĺ¿": 653,
      "å°¼": 654,
      "çĽ®": 655,
      "èī²": 656,
      "èĭ±": 657,
      "åı¸": 658,
      "çº¦": 659,
      "18": 660,
      "åĪĹ": 661,
      "åģ": 662,
      "åŀ": 663,
      "ä¹Ĳ": 664,
      "æ²»": 665,
      "åħĥ": 666,
      "æŀĹ": 667,
      "è¾¾": 668,
      "ä»¬": 669,
      "ä¸ŃåĽ½": 670,
      "é¦ĸ": 671,
      "å¨": 672,
      "è¿Ĳ": 673,
      "æĢ»": 674,
      "æīĭ": 675,
      "åİĨ": 676,
      "å±ŀ": 677,
      "æĶ¹": 678,
      "éĢī": 679,
      "æĪĸ": 680,
      "é¥": 681,
      "åĶ": 682,
      "åħ±": 683,
      "ä»İ": 684,
      "åı£": 685,
      "çĦ": 686,
      "èµ·": 687,
      "æ¹": 688,
      "éľ": 689,
      "åħ³": 690,
      "è¯Ń": 691,
      "è®¡": 692,
      "è§Ĩ": 693,
      "åī§": 694,
      "on": 695,
      "ç´": 696,
      "æ¸¯": 697,
      "å¿ĥ": 698,
      "é¾": 699,
      "å¸¸": 700,
      "æ·": 701,
      "åł": 702,
      "00": 703,
      "Ġ*": 704,
      "æĽ²": 705,
      "ä¹¦": 706,
      "åĢ": 707,
      "çº§": 708,
      "in": 709,
      "æ¶": 710,
      "éŁ³": 711,
      "è£": 712,
      "éĶ": 713,
      "ç»Ł": 714,
      "12": 715,
      "åįİ": 716,
      "æ²³": 717,
      "åĲĳ": 718,
      "åıĤ": 719,
      "å¦Ĥ": 720,
      "æĹł": 721,
      "æĿĳ": 722,
      "éĴ": 723,
      "åĵģ": 724,
      "äº§": 725,
      "ä¿Ŀ": 726,
      "å¹¿": 727,
      "éĽĨ": 728,
      "æĽ¾": 729,
      "çĦ¶": 730,
      "éĹ¨": 731,
      "æĴ": 732,
      "çķĮ": 733,
      "ç»ĵ": 734,
      "æİ¥": 735,
      "199": 736,
      "å½¢": 737,
      "æĺŁ": 738,
      "äº¤": 739,
      "ar": 740,
      "ç±»": 741,
      "åĭ": 742,
      "éª": 743,
      "å·´": 744,
      "äºĶ": 745,
      "çĭ": 746,
      "æ¢": 747,
      "èİ·": 748,
      "æıĲ": 749,
      "ç¥ŀ": 750,
      "å¤«": 751,
      "åı¤": 752,
      "å§ĭ": 753,
      "è¯´": 754,
      "èº": 755,
      "å®ŀ": 756,
      "çĿ": 757,
      "æĦı": 758,
      "çĽ´": 759,
      "åŀĭ": 760,
      "é¦Ļ": 761,
      "çĥ": 762,
      "å°±": 763,
      "æº": 764,
      "ç»´": 765,
      "çŁ³": 766,
      "å¤ª": 767,
      "æł¡": 768,
      "é¾Ļ": 769,
      "åĮħ": 770,
      "éĩı": 771,
      "11": 772,
      "åį¡": 773,
      "åĽ¢": 774,
      "çºª": 775,
      "å²Ľ": 776,
      "èº«": 777,
      "ç¨ĭ": 778,
      "ä¼ł": 779,
      "çĤ¹": 780,
      "ä¹ī": 781,
      "åºľ": 782,
      "åĪĻ": 783,
      "æ»": 784,
      "åĬ¡": 785,
      "çı": 786,
      "é²": 787,
      "åıĹ": 788,
      "ä¸ĩ": 789,
      "å¥¥": 790,
      "æµģ": 791,
      "è®®": 792,
      "æ±Ł": 793,
      "åįķ": 794,
      "éĵģ": 795,
      "æ¸¸": 796,
      "èĻ": 797,
      "ç¾İåĽ½": 798,
      "èĮ": 799,
      "âĢĶ": 800,
      "å¯¼": 801,
      "å¸Ī": 802,
      "en": 803,
      "é¥°": 804,
      "ç¿": 805,
      "è§Ĵ": 806,
      "å¥ĸ": 807,
      "é¢Ĩ": 808,
      "èĳĹ": 809,
      "å¤§åŃ¦": 810,
      "å·²": 811,
      "ç®¡": 812,
      "å¤Ħ": 813,
      "æľ¯": 814,
      "ä½įäºİ": 815,
      "æĥħ": 816,
      "èĬĤ": 817,
      "ç¤¾": 818,
      "èĦ": 819,
      "åĪ«": 820,
      "æĮĩ": 821,
      "åĽŀ": 822,
      "ç²": 823,
      "æľĿ": 824,
      "åŃ£": 825,
      "å¥¹": 826,
      "éĢł": 827,
      "ç©º": 828,
      "åħī": 829,
      "å¼ł": 830,
      "æĽ´": 831,
      "å®ĺ": 832,
      "15": 833,
      "æĪĲä¸º": 834,
      "èĴ": 835,
      "çº³": 836,
      "è¿ĺ": 837,
      "åıĺ": 838,
      "ï¼īãĢĤ": 839,
      "éķĩ": 840,
      "å¤´": 841,
      "åºĶ": 842,
      "çĻ½": 843,
      "çīĩ": 844,
      "åħ¬åı¸": 845,
      "å°ĳ": 846,
      "åĸ": 847,
      "åĩ»": 848,
      "ä¿¡": 849,
      "çĵ": 850,
      "çĬ": 851,
      "å±ķ": 852,
      "äºĽ": 853,
      "åŃĹ": 854,
      "è®¤": 855,
      "çĹ": 856,
      "or": 857,
      "æĿİ": 858,
      "æŃ¦": 859,
      "è¿ĳ": 860,
      "æĹ¥æľ¬": 861,
      "çŁ¥": 862,
      "ç¼ĸ": 863,
      "æŃĮ": 864,
      "äº¬": 865,
      "å¸¦": 866,
      "æĳ": 867,
      "ä¼Ĭ": 868,
      "åĳ½": 869,
      "èģĮ": 870,
      "æ´»": 871,
      "çīĪ": 872,
      "ç¬¬ä¸Ģ": 873,
      "åıĸ": 874,
      "åħŃ": 875,
      "æ´²": 876,
      "çĶ°": 877,
      "åıª": 878,
      "é¦Ļæ¸¯": 879,
      "èĭı": 880,
      "è¶³": 881,
      "çłĶ": 882,
      "æĮģ": 883,
      "æ¨": 884,
      "å®ĥ": 885,
      "åľ£": 886,
      "æĻ®": 887,
      "æĹı": 888,
      "åĽ½å®¶": 889,
      "al": 890,
      "åĽ¾": 891,
      "çĮ": 892,
      "åħµ": 893,
      "æ®µ": 894,
      "ä¸¾": 895,
      "ä½¿çĶ¨": 896,
      "åĲĦ": 897,
      "çĸ": 898,
      "198": 899,
      "æīĵ": 900,
      "ç¦ı": 901,
      "å®Ĺ": 902,
      "é£İ": 903,
      "æ³¢": 904,
      "åĳ¨": 905,
      "è½¬": 906,
      "æĶ¶": 907,
      "èµĦ": 908,
      "è±": 909,
      "éĻħ": 910,
      "åķ": 911,
      "æĶ¯": 912,
      "å¼Ģå§ĭ": 913,
      "åı¯ä»¥": 914,
      "çĪ±": 915,
      "æį®": 916,
      "åİ»": 917,
      "åĦ": 918,
      "åĪĿ": 919,
      "çĳ": 920,
      "åıĪ": 921,
      "è¿ŀ": 922,
      "ç¡": 923,
      "Ġ(": 924,
      "æ²¡": 925,
      "å¸Ŀ": 926,
      "äº²": 927,
      "èĬ±": 928,
      "å§Ķ": 929,
      "æ¸ħ": 930,
      "ä¸ĵ": 931,
      "èĹ": 932,
      "æłĩ": 933,
      "æĪı": 934,
      "åħĪ": 935,
      "åİĨåı²": 936,
      "åº§": 937,
      "åľ°åĮº": 938,
      "åħ«": 939,
      "è§£": 940,
      "å±Ģ": 941,
      "17": 942,
      "16": 943,
      "åĨ³": 944,
      "éĿŀ": 945,
      "at": 946,
      "æĿ¡": 947,
      "ä¸ĸçķĮ": 948,
      "çĶµå½±": 949,
      "å¨ģ": 950,
      "é¦Ĩ": 951,
      "è®°": 952,
      "ç©¶": 953,
      "é¸": 954,
      "éĺ³": 955,
      "æĭ¬": 956,
      "èı": 957,
      "çļĦä¸Ģ": 958,
      "ä¸»è¦ģ": 959,
      "åĦ¿": 960,
      "æł¹": 961,
      "çĪ¶": 962,
      "æŀľ": 963,
      "æĶ¾": 964,
      "åįĩ": 965,
      "åıį": 966,
      "å¾Ģ": 967,
      "ĠS": 968,
      "é»Ħ": 969,
      "åĨį": 970,
      "21": 971,
      "æŃ»": 972,
      "es": 973,
      "çłĶç©¶": 974,
      "ä»Ĭ": 975,
      "æľª": 976,
      "æ°Ķ": 977,
      "åĮħæĭ¬": 978,
      "è¿Ľè¡Į": 979,
      "è®º": 980,
      "æ¯į": 981,
      "åĨł": 982,
      "ä»¥åıĬ": 983,
      "åĪĽ": 984,
      "åĻ": 985,
      "Ġ-": 986,
      "èħ": 987,
      "å¤į": 988,
      "å®Į": 989,
      "is": 990,
      "ç¬¬äºĮ": 991,
      "æŀĦ": 992,
      "ç¦»": 993,
      "å¡Ķ": 994,
      "åĲī": 995,
      "åįļ": 996,
      "çĶ»": 997,
      "å¥½": 998,
      "åĽŃ": 999,
      "ç¤º": 1000,
      "çĶµè§Ĩ": 1001,
      "å½ķ": 1002,
      "éĽ·": 1003,
      "åį«": 1004,
      "åį³": 1005,
      "æĬ¥": 1006,
      "ç»Ī": 1007,
      "æ´Ľ": 1008,
      "åķĨ": 1009,
      "è§Ĥ": 1010,
      "ä»ĸä»¬": 1011,
      "è´¨": 1012,
      "åħļ": 1013,
      "å·Ŀ": 1014,
      "è§ģ": 1015,
      "åħ¶ä»ĸ": 1016,
      "ĠãĢĬ": 1017,
      "æ¥": 1018,
      "åĪĴ": 1019,
      "ic": 1020,
      "æķħ": 1021,
      "ä¼¯": 1022,
      "ä»¶": 1023,
      "ä¹Ŀ": 1024,
      "éĿĴ": 1025,
      "å¼º": 1026,
      "ĠC": 1027,
      "æĴŃ": 1028,
      "å±ħ": 1029,
      "éļı": 1030,
      "éĥ¨åĪĨ": 1031,
      "èĤ²": 1032,
      "æ±ī": 1033,
      "æļ": 1034,
      "åĵĪ": 1035,
      "çĵ¦": 1036,
      "è¾ĥ": 1037,
      "èİ·å¾Ĺ": 1038,
      "åľŁ": 1039,
      "ç½®": 1040,
      "ç»Ļ": 1041,
      "ä¼¦": 1042,
      "åĻ¨": 1043,
      "el": 1044,
      "éŃ": 1045,
      "è°ĥ": 1046,
      "çŃĳ": 1047,
      "é¡¹": 1048,
      "è¾¹": 1049,
      "ä¸Ķ": 1050,
      "æ´¾": 1051,
      "æ²¡æľī": 1052,
      "è£ħ": 1053,
      "è¶ħ": 1054,
      "æĬķ": 1055,
      "å²ģ": 1056,
      "ä¿®": 1057,
      "æĺ¯ä¸Ģ": 1058,
      "ç»Ń": 1059,
      "å¸Į": 1060,
      "æ¬§": 1061,
      "æĿĥ": 1062,
      "èĲ¨": 1063,
      "åłĤ": 1064,
      "æ¹¾": 1065,
      "ä¸ĥ": 1066,
      "æ¯ı": 1067,
      "èīº": 1068,
      "èĲ¥": 1069,
      "éĢŁ": 1070,
      "åŃĺ": 1071,
      "æĶ»": 1072,
      "åħ·": 1073,
      "äººæ°ĳ": 1074,
      "åĺ": 1075,
      "é¢ĺ": 1076,
      "æ°ı": 1077,
      "13": 1078,
      "14": 1079,
      "éº": 1080,
      "åĥ": 1081,
      "æºĲ": 1082,
      "è®¸": 1083,
      "åĬ©": 1084,
      "å·±": 1085,
      "çļĩ": 1086,
      "çĶ·": 1087,
      "æ£®": 1088,
      "æľ¨": 1089,
      "194": 1090,
      "é²ģ": 1091,
      "äºī": 1092,
      "æ²Ļ": 1093,
      "ï¼īãĢģ": 1094,
      "åįı": 1095,
      "å¾Ī": 1096,
      "çľŁ": 1097,
      "å¿Ĺ": 1098,
      "åĬŁ": 1099,
      "åħ¶ä¸Ń": 1100,
      "æ¡¥": 1101,
      "ä»¤": 1102,
      "195": 1103,
      "åĬŀ": 1104,
      "æľį": 1105,
      "éĻĨ": 1106,
      "äº¦": 1107,
      "åĭĴ": 1108,
      "åŃ¦éĻ¢": 1109,
      "é¡¿": 1110,
      "è¯Ħ": 1111,
      "æĪĳ": 1112,
      "ä»½": 1113,
      "ä»ĸçļĦ": 1114,
      "å¤ĩ": 1115,
      "æĬ¤": 1116,
      "åħ´": 1117,
      "æĭħ": 1118,
      "å®¢": 1119,
      "è´Ŀ": 1120,
      "æł·": 1121,
      "å®«": 1122,
      "éħį": 1123,
      "22": 1124,
      "é»ĳ": 1125,
      "çª": 1126,
      "èĢĥ": 1127,
      "è½¦ç«Ļ": 1128,
      "åıĮ": 1129,
      "éĻ¤": 1130,
      "å¯Ĩ": 1131,
      "å®¤": 1132,
      "ç¢": 1133,
      "ä¹¡": 1134,
      "åĮ»": 1135,
      "çıŃ": 1136,
      "æ¸¸æĪı": 1137,
      "åı¦": 1138,
      "æĹ©": 1139,
      "é£ŀ": 1140,
      "èĥľ": 1141,
      "å¡ŀ": 1142,
      "æģ©": 1143,
      "æŁ¥": 1144,
      "è®¤ä¸º": 1145,
      "èĲ½": 1146,
      "æĿĢ": 1147,
      "æĬĢ": 1148,
      "è¯ķ": 1149,
      "æ¹ĸ": 1150,
      "èİ±": 1151,
      "å»ºçŃĳ": 1152,
      "è¨": 1153,
      "åį°": 1154,
      "å®¹": 1155,
      "è¨Ģ": 1156,
      "çĹħ": 1157,
      "éĤ£": 1158,
      "30": 1159,
      "é¹": 1160,
      "æīĺ": 1161,
      "éĻĪ": 1162,
      "çĶ±äºİ": 1163,
      "å¼ķ": 1164,
      "åºĦ": 1165,
      "çĽŁ": 1166,
      "ĠM": 1167,
      "è¯º": 1168,
      "å®£": 1169,
      "å¥ĩ": 1170,
      "åĩĨ": 1171,
      "çĶ²": 1172,
      "èĩªå·±": 1173,
      "197": 1174,
      "èĪª": 1175,
      "èĢģ": 1176,
      "ç§¯": 1177,
      "é£Ł": 1178,
      "æĻ¯": 1179,
      "å§Ĩ": 1180,
      "æ·±": 1181,
      "å¤±": 1182,
      "è§Ħ": 1183,
      "æ¨¡": 1184,
      "æ¦": 1185,
      "çĬ¶": 1186,
      "åŁŁ": 1187,
      "åĪĺ": 1188,
      "èĩ´": 1189,
      "çİ¯": 1190,
      "çģ«": 1191,
      "åĽłä¸º": 1192,
      "ä¸ŃçļĦ": 1193,
      "çİĩ": 1194,
      "å±Ĥ": 1195,
      "åĽ½éĻħ": 1196,
      "ãĢĭï¼Ī": 1197,
      "ç»§": 1198,
      "ä¸Ńå¿ĥ": 1199,
      "ä¹ĭåĲİ": 1200,
      "è¡Ĺ": 1201,
      "åĽłæŃ¤": 1202,
      "éĹ®": 1203,
      "åĽ´": 1204,
      "æµİ": 1205,
      "åıĳçİ°": 1206,
      "ç¥ĸ": 1207,
      "çº¢": 1208,
      "æĶ¿åºľ": 1209,
      "éŁ³ä¹Ĳ": 1210,
      "ä½ľä¸º": 1211,
      "it": 1212,
      "ï¼į": 1213,
      "çĻ¾": 1214,
      "ç´¢": 1215,
      "å·¥ä½ľ": 1216,
      "æ³°": 1217,
      "æİ¨": 1218,
      "è´¥": 1219,
      "æĽ¼": 1220,
      "æ½": 1221,
      "çĻ»": 1222,
      "æĤ": 1223,
      "é±": 1224,
      "äºĳ": 1225,
      "åŃ¦æł¡": 1226,
      "æħ": 1227,
      "åĵį": 1228,
      "196": 1229,
      "æİĴ": 1230,
      "å¯Ł": 1231,
      "é±¼": 1232,
      "ä½³": 1233,
      "å¢ĥ": 1234,
      "åįĬ": 1235,
      "Ġé¥°": 1236,
      "åĵ¥": 1237,
      "ç¾¤": 1238,
      "é½": 1239,
      "25": 1240,
      "ä¹ĭä¸Ģ": 1241,
      "å©": 1242,
      "èģĶèµĽ": 1243,
      "ä½ľåĵģ": 1244,
      "æĺĵ": 1245,
      "åī¯": 1246,
      "æķ´": 1247,
      "å£°": 1248,
      "æ¤": 1249,
      "ä¾Ľ": 1250,
      "us": 1251,
      "éģĹ": 1252,
      "æĦŁ": 1253,
      "éĥ¡": 1254,
      "åºĵ": 1255,
      "è®¾è®¡": 1256,
      "il": 1257,
      "åıĭ": 1258,
      "ĠA": 1259,
      "åĿĩ": 1260,
      "å¢ŀ": 1261,
      "å½ĵæĹ¶": 1262,
      "am": 1263,
      "åĺī": 1264,
      "åı¯èĥ½": 1265,
      "è¶Ĭ": 1266,
      "åĥı": 1267,
      "çĥŃ": 1268,
      "çĭ¬": 1269,
      "è¿ĲåĬ¨": 1270,
      "è¯į": 1271,
      "åĨłåĨĽ": 1272,
      "èĽ": 1273,
      "å±Ĭ": 1274,
      "åº·": 1275,
      "éĩİ": 1276,
      "ä¾ĭ": 1277,
      "æ±Ĥ": 1278,
      "çĿ£": 1279,
      "ä¼Ĺ": 1280,
      "åĲĮæĹ¶": 1281,
      "è¿ª": 1282,
      "è±¡": 1283,
      "æĸ½": 1284,
      "ç½ĳ": 1285,
      "çķĻ": 1286,
      "ä½ı": 1287,
      "èĪ°": 1288,
      "è®©": 1289,
      "å®Ī": 1290,
      "æ¯ĶèµĽ": 1291,
      "åĨĻ": 1292,
      "çĳŀ": 1293,
      "éĻĲ": 1294,
      "ĠB": 1295,
      "ä»£è¡¨": 1296,
      "ĠP": 1297,
      "æĭħä»»": 1298,
      "å´": 1299,
      "ä¾§": 1300,
      "æ³ķåĽ½": 1301,
      "å¾ģ": 1302,
      "ol": 1303,
      "ç§°ä¸º": 1304,
      "æĥ³": 1305,
      "ç´ł": 1306,
      "å¸Ń": 1307,
      "23": 1308,
      "æĪ¿": 1309,
      "æİĪ": 1310,
      "åĳĬ": 1311,
      "æ¾": 1312,
      "å¤ı": 1313,
      "åł¡": 1314,
      "èĭ±åĽ½": 1315,
      "çħ": 1316,
      "æ¥¼": 1317,
      "ch": 1318,
      "ä¾¿": 1319,
      "çĨ": 1320,
      "è¶³çĲĥ": 1321,
      "åħ¸": 1322,
      "è´¹": 1323,
      "ç²¾": 1324,
      "çľĭ": 1325,
      "å§Ķåĳĺ": 1326,
      "æīį": 1327,
      "åįł": 1328,
      "åįĥ": 1329,
      "ä¸ĸçºª": 1330,
      "çĿĢ": 1331,
      "ç»ĩ": 1332,
      "éĺ²": 1333,
      "ä½ķ": 1334,
      "as": 1335,
      "ä¿Ħ": 1336,
      "ä¸½": 1337,
      "å®Ŀ": 1338,
      "æŃ¢": 1339,
      "æķĪ": 1340,
      "åĶ±": 1341,
      "éĩĩ": 1342,
      "ç®Ģ": 1343,
      "å·¦": 1344,
      "æ¡Ī": 1345,
      "éĥİ": 1346,
      "æĹ¶éĹ´": 1347,
      "éľĢ": 1348,
      "éĵ¶": 1349,
      "èĮĥ": 1350,
      "éĻĦ": 1351,
      "åŁĥ": 1352,
      "æī¿": 1353,
      "å°Ħ": 1354,
      "è¯ģ": 1355,
      "çīĮ": 1356,
      "æ°¸": 1357,
      "éĢļè¿ĩ": 1358,
      "äººåı£": 1359,
      "è¯Ŀ": 1360,
      "åı¶": 1361,
      "æ´ĭ": 1362,
      "å®ģ": 1363,
      "éĻį": 1364,
      "çīĻ": 1365,
      "æĸĩåĮĸ": 1366,
      "æľĢåĲİ": 1367,
      "è¿ľ": 1368,
      "å¼Ł": 1369,
      "çĽĳ": 1370,
      "ur": 1371,
      "åı°æ¹¾": 1372,
      "âĢĿãĢĤ": 1373,
      "ä¹ħ": 1374,
      "ç«ł": 1375,
      "å¯Į": 1376,
      "è¿°": 1377,
      "ä»į": 1378,
      "éĵģè·¯": 1379,
      "ä¸įåĲĮ": 1380,
      "ä¸ģ": 1381,
      "æ¸©": 1382,
      "æŃ¥": 1383,
      "åĪ¶ä½ľ": 1384,
      "èįī": 1385,
      "è´Ł": 1386,
      "æŀģ": 1387,
      "æĪĲç«ĭ": 1388,
      "æĸĻ": 1389,
      "ç»ĥ": 1390,
      "æĶ¿æ²»": 1391,
      "å±ŀäºİ": 1392,
      "åĶĲ": 1393,
      "åĲİæĿ¥": 1394,
      "ç¤¼": 1395,
      "åı³": 1396,
      "ç³»ç»Ł": 1397,
      "åĪ©äºļ": 1398,
      "ä»ħ": 1399,
      "æĺ¥": 1400,
      "æĿ°": 1401,
      "Ġ201": 1402,
      "æµĭ": 1403,
      "å°ģ": 1404,
      "ä½Ľ": 1405,
      "å¼Ĺ": 1406,
      "th": 1407,
      "å¿µ": 1408,
      "æĢģ": 1409,
      "çĲĥéĺŁ": 1410,
      "ä¹Į": 1411,
      "å¹´çļĦ": 1412,
      "åİħ": 1413,
      "193": 1414,
      "æ»¡": 1415,
      "æĪ·": 1416,
      "æĢĿ": 1417,
      "è¾ĳ": 1418,
      "ä½Ļ": 1419,
      "èĴĤ": 1420,
      "æĿ¾": 1421,
      "è¿Ļä¸ª": 1422,
      "åºĹ": 1423,
      "ion": 1424,
      "éļĨ": 1425,
      "å¾ĭ": 1426,
      "le": 1427,
      "åĩł": 1428,
      "åĩºçİ°": 1429,
      "ä»·": 1430,
      "ç»Ĩ": 1431,
      "åıĳå±ķ": 1432,
      "éĤ¦": 1433,
      "çĶº": 1434,
      "èľ": 1435,
      "æ³¨": 1436,
      "åĲįä¸º": 1437,
      "ä½İ": 1438,
      "å³": 1439,
      "ĠT": 1440,
      "çģµ": 1441,
      "å·¥ç¨ĭ": 1442,
      "èĴĻ": 1443,
      "å¹²": 1444,
      "æľĽ": 1445,
      "28": 1446,
      "ä¸¹": 1447,
      "ro": 1448,
      "æĸĹ": 1449,
      "ç¬¬ä¸ī": 1450,
      "éħĴ": 1451,
      "æĬĬ": 1452,
      "åį´": 1453,
      "ãĢĭï¼Į": 1454,
      "åıĤåĬł": 1455,
      "æĿ¯": 1456,
      "åĨľ": 1457,
      "åŃĻ": 1458,
      "è½½": 1459,
      "å¹´ä»£": 1460,
      "åºĨ": 1461,
      "24": 1462,
      "ãĢĭãĢģ": 1463,
      "ç§»": 1464,
      "èµ°": 1465,
      "re": 1466,
      "éĢĢ": 1467,
      "æľŁéĹ´": 1468,
      "æĺ¾": 1469,
      "åĿ¦": 1470,
      "æĭ¿": 1471,
      "å°¾": 1472,
      "è´£": 1473,
      "ãĢįï¼Į": 1474,
      "èĹı": 1475,
      "æ¢ħ": 1476,
      "ä¸ĬçļĦ": 1477,
      "ä¼¼": 1478,
      "èİ«": 1479,
      "èĵ": 1480,
      "æĲ": 1481,
      "é³": 1482,
      "æĹħ": 1483,
      "å½¹": 1484,
      "æ¾³": 1485,
      "âĢĿï¼Į": 1486,
      "é¢Ħ": 1487,
      "ä¹ĭéĹ´": 1488,
      "èī¾": 1489,
      "åģľ": 1490,
      "åĢĻ": 1491,
      "èĪ¹": 1492,
      "äººçļĦ": 1493,
      "æī¹": 1494,
      "å½±åĵį": 1495,
      "åŁİå¸Ĥ": 1496,
      "éº¦": 1497,
      "ä¹Łæĺ¯": 1498,
      "æľĢç»Ī": 1499,
      "æŃ£å¼ı": 1500,
      "æİ§": 1501,
      "å¯º": 1502,
      "å»¶": 1503,
      "å¿«": 1504,
      "ĠH": 1505,
      "ĠL": 1506,
      "ç»Ħç»ĩ": 1507,
      "åºķ": 1508,
      "æĹ§": 1509,
      "æ´¥": 1510,
      "æĵ": 1511,
      "ç®¡çĲĨ": 1512,
      "åĿĢ": 1513,
      "æľĢä½³": 1514,
      "ç¤¾ä¼ļ": 1515,
      "æ²¹": 1516,
      "èį£": 1517,
      "ä¸Ĭæµ·": 1518,
      "çİĽ": 1519,
      "åħ¬éĩĮ": 1520,
      "æĻĭ": 1521,
      "äººçī©": 1522,
      "è¯Ĺ": 1523,
      "å°ļ": 1524,
      "èĬĤçĽ®": 1525,
      "æīĢæľī": 1526,
      "æī§": 1527,
      "æĳĦ": 1528,
      "ãĢĢ": 1529,
      "å¤®": 1530,
      "éªĮ": 1531,
      "50": 1532,
      "æ¶Ī": 1533,
      "é¡º": 1534,
      "âĢĶâĢĶ": 1535,
      "åĸľ": 1536,
      "åħ±åĴĮ": 1537,
      "æł¹æį®": 1538,
      "å¤§çļĦ": 1539,
      "è¿Ľåħ¥": 1540,
      "ç¡®": 1541,
      "ä¼ĺ": 1542,
      "å¾·åĽ½": 1543,
      "è®¡åĪĴ": 1544,
      "26": 1545,
      "èŃ": 1546,
      "è¿ĻäºĽ": 1547,
      "å¼Ĥ": 1548,
      "èĥĮ": 1549,
      "ç«¥": 1550,
      "æ¤į": 1551,
      "éĺµ": 1552,
      "åĲ´": 1553,
      "ĠF": 1554,
      "çļĦä¸Ģä¸ª": 1555,
      "é¼": 1556,
      "ç«¯": 1557,
      "ç¯": 1558,
      "ç»ıæµİ": 1559,
      "ç³»åĪĹ": 1560,
      "éĽĦ": 1561,
      "åıĳè¡Į": 1562,
      "ç¥¨": 1563,
      "ä¾Ŀ": 1564,
      "è¯·": 1565,
      "ä¸¤ä¸ª": 1566,
      "åºŃ": 1567,
      "åĩºçīĪ": 1568,
      "æĭ¥": 1569,
      "èŃ¦": 1570,
      "äº¡": 1571,
      "æłĳ": 1572,
      "èĻ½": 1573,
      "et": 1574,
      "åģļ": 1575,
      "2010": 1576,
      "ç§Ģ": 1577,
      "çļ®": 1578,
      "æľĹ": 1579,
      "å½Ĵ": 1580,
      "å§Ķåĳĺä¼ļ": 1581,
      "æĹ¶æľŁ": 1582,
      "ä¸´": 1583,
      "åĲ«": 1584,
      "ä½Ĳ": 1585,
      "æĪĲåĳĺ": 1586,
      "éĹ»": 1587,
      "åıĳçĶŁ": 1588,
      "çªģ": 1589,
      "çł´": 1590,
      "èī¯": 1591,
      "è½®": 1592,
      "un": 1593,
      "èĢ¶": 1594,
      "ä¹ł": 1595,
      "éĽħ": 1596,
      "éª¨": 1597,
      "éĿ©": 1598,
      "çħ§": 1599,
      "é¸Ł": 1600,
      "åĨµ": 1601,
      "æĸŃ": 1602,
      "åį¢": 1603,
      "èĭ¥": 1604,
      "æĳ©": 1605,
      "é½Ĳ": 1606,
      "ĠR": 1607,
      "åįģäºĮ": 1608,
      "çŁŃ": 1609,
      "ä¼¤": 1610,
      "æģ¯": 1611,
      "æĸ¯çī¹": 1612,
      "ç®Ĺ": 1613,
      "Ġ200": 1614,
      "è¯Ĩ": 1615,
      "ãĢįãĢĤ": 1616,
      "éŁ©": 1617,
      "èĩ£": 1618,
      "2019": 1619,
      "è¡Ģ": 1620,
      "åĪ°äºĨ": 1621,
      "è½»": 1622,
      "èīºæľ¯": 1623,
      "é¡¶": 1624,
      "åŃ¦å®¶": 1625,
      "åİĭ": 1626,
      "çĶŁæ´»": 1627,
      "è®¸å¤ļ": 1628,
      "ä¸Ńå¤®": 1629,
      "åĪĨå¸ĥ": 1630,
      "è°·": 1631,
      "ãĢĭãĢģãĢĬ": 1632,
      "æĻļ": 1633,
      "om": 1634,
      "ä¸»ä¹ī": 1635,
      "åĮĹäº¬": 1636,
      "æľ«": 1637,
      "æľīä¸Ģ": 1638,
      "éĿ¢ç§¯": 1639,
      "27": 1640,
      "ä¸°": 1641,
      "ç½Ĺæĸ¯": 1642,
      "æĪĺäºī": 1643,
      "åĬ¿": 1644,
      "æķĻèĤ²": 1645,
      "æ¼Ķåĳĺ": 1646,
      "å°¼äºļ": 1647,
      "èĪ¬": 1648,
      "æĿ¨": 1649,
      "èı²": 1650,
      "éĴŁ": 1651,
      "è¡¨ç¤º": 1652,
      "ĠG": 1653,
      "of": 1654,
      "å©ļ": 1655,
      "å¼¹": 1656,
      "å·²ç»ı": 1657,
      "å±ĭ": 1658,
      "èį¯": 1659,
      "ãĥ»": 1660,
      "æ¿": 1661,
      "çļĦäºº": 1662,
      "ing": 1663,
      "èģĶçĽŁ": 1664,
      "å®ĭ": 1665,
      "äºĨä¸Ģ": 1666,
      "å²©": 1667,
      "è¯»": 1668,
      "ä¸»æķĻ": 1669,
      "æıĲä¾Ľ": 1670,
      "ä»ģ": 1671,
      "ac": 1672,
      "å¸ķ": 1673,
      "çĶŁå¹³": 1674,
      "æ¯Ľ": 1675,
      "åħ±åĴĮåĽ½": 1676,
      "ä¸ºäºĨ": 1677,
      "ĠD": 1678,
      "éļ¾": 1679,
      "ãĥ¼": 1680,
      "and": 1681,
      "åĢ¼": 1682,
      "æ²ĥ": 1683,
      "äºĮåįģ": 1684,
      "æ´»åĬ¨": 1685,
      "ä½Ĩæĺ¯": 1686,
      "ä¸Ŀ": 1687,
      "éĩįè¦ģ": 1688,
      "è´µ": 1689,
      "çİ©": 1690,
      "çĪµ": 1691,
      "åħ»": 1692,
      "åħ³ç³»": 1693,
      "åħ¨åĽ½": 1694,
      "å¨ľ": 1695,
      "å®¾": 1696,
      "ç»Ŀ": 1697,
      "os": 1698,
      "ä»ĭ": 1699,
      "å®ĮæĪĲ": 1700,
      "æķħäºĭ": 1701,
      "æ²¿": 1702,
      "29": 1703,
      "è¡ĮæĶ¿": 1704,
      "æĬĢæľ¯": 1705,
      "2016": 1706,
      "2012": 1707,
      "åĪĹè½¦": 1708,
      "2013": 1709,
      "2015": 1710,
      "éļ¶": 1711,
      "æ¯ķ": 1712,
      "2020": 1713,
      "2011": 1714,
      "æĭį": 1715,
      "çİī": 1716,
      "å²¸": 1717,
      "åīįå¾Ģ": 1718,
      "éĽĨåĽ¢": 1719,
      "åĩºçĶŁ": 1720,
      "2017": 1721,
      "éŃĶ": 1722,
      "æľįåĬ¡": 1723,
      "è¾ĸ": 1724,
      "çĽ®åīį": 1725,
      "æĬĹ": 1726,
      "è¿½": 1727,
      "æĿ¿": 1728,
      "èµ«": 1729,
      "æ£Ģ": 1730,
      "åĪĨåĪ«": 1731,
      "è®Ń": 1732,
      "éĢģ": 1733,
      "2018": 1734,
      "éľ²": 1735,
      "ç¿°": 1736,
      "å¾¡": 1737,
      "000": 1738,
      "åħ¼": 1739,
      "åĲ¯": 1740,
      "åĶ®": 1741,
      "à¸": 1742,
      "ä¿ĿæĬ¤": 1743,
      "æĭ¥æľī": 1744,
      "æ¬§æ´²": 1745,
      "ä¸¾è¡Į": 1746,
      "±ä¹Ĳ": 1747,
      "de": 1748,
      "å¿ħ": 1749,
      "çķ¥": 1750,
      "èĻ½çĦ¶": 1751,
      "åĮĹéĥ¨": 1752,
      "æ¢ģ": 1753,
      "åĨ³å®ļ": 1754,
      "åĩ¯": 1755,
      "é¡»": 1756,
      "é»İ": 1757,
      "åİĤ": 1758,
      "çº½": 1759,
      "åĬłåħ¥": 1760,
      "ãģ®": 1761,
      "æŃĮæĽ²": 1762,
      "åħ¹": 1763,
      "åĪĩ": 1764,
      "ç»©": 1765,
      "å¤º": 1766,
      "åĪº": 1767,
      "æľ±": 1768,
      "æ³½": 1769,
      "æĹ¶ä»£": 1770,
      "çĽĸ": 1771,
      "è¿ģ": 1772,
      "èİī": 1773,
      "åĸĦ": 1774,
      "åĪ¤": 1775,
      "åĲĽ": 1776,
      "æŀ¶": 1777,
      "çĩ": 1778,
      "è°¢": 1779,
      "æį¢": 1780,
      "è§Ĵèī²": 1781,
      "å¾®": 1782,
      "æĺł": 1783,
      "æł¼åħ°": 1784,
      "æĿŁ": 1785,
      "æ¯Ĵ": 1786,
      "äºķ": 1787,
      "åį·": 1788,
      "ç»ĦæĪĲ": 1789,
      "Ġof": 1790,
      "æĪĲåĬŁ": 1791,
      "èĸ": 1792,
      "éħ¸": 1793,
      "åıĤä¸İ": 1794,
      "å¹¶ä¸Ķ": 1795,
      "2014": 1796,
      "èĥ¡": 1797,
      "éĹ®é¢ĺ": 1798,
      "2021": 1799,
      "ed": 1800,
      "éªĳ": 1801,
      "ia": 1802,
      "åĤ": 1803,
      "ä»ĸåľ¨": 1804,
      "çŃ¾": 1805,
      "åĲĮå¹´": 1806,
      "èĤ¡": 1807,
      "ä»Ģ": 1808,
      "è¯ĳ": 1809,
      "çľ¼": 1810,
      "ä¸¥": 1811,
      "2008": 1812,
      "å®£å¸ĥ": 1813,
      "èģĶåĲĪ": 1814,
      "ç»ĵæŀĦ": 1815,
      "å»ºç«ĭ": 1816,
      "çłģ": 1817,
      "40": 1818,
      "éľĢè¦ģ": 1819,
      "åį°åº¦": 1820,
      "æł¸": 1821,
      "éĢļå¸¸": 1822,
      "éĢĲ": 1823,
      "åħ·æľī": 1824,
      "æĺ¯åľ¨": 1825,
      "æĺĮ": 1826,
      "éĽª": 1827,
      "2009": 1828,
      "éĶ¦": 1829,
      "çĪ¶äº²": 1830,
      "ãĥ³": 1831,
      "æĿ¥èĩª": 1832,
      "äº¤éĢļ": 1833,
      "åĨ²": 1834,
      "ra": 1835,
      "åĬ³": 1836,
      "éĥĳ": 1837,
      "çļĦåľ°": 1838,
      "èĵĿ": 1839,
      "æķ£": 1840,
      "æĿĤ": 1841,
      "å¸Ĥéķĩ": 1842,
      "æľĢé«ĺ": 1843,
      "æķĮ": 1844,
      "æ¶¯": 1845,
      "åŃ¦çĶŁ": 1846,
      "æ¬¢": 1847,
      "å¤ľ": 1848,
      "å°½": 1849,
      "æĸ¹éĿ¢": 1850,
      "å½ĵåľ°": 1851,
      "èģļ": 1852,
      "èŀ": 1853,
      "æĹĹ": 1854,
      "æĻº": 1855,
      "åħĦ": 1856,
      "ä¸Ńåįİ": 1857,
      "æĭľ": 1858,
      "2007": 1859,
      "ï¼īï¼ļ": 1860,
      "æŁı": 1861,
      "åŃĺåľ¨": 1862,
      "åħ¬åĽŃ": 1863,
      "çļĦå¤§": 1864,
      "æĿĲ": 1865,
      "çĽĽ": 1866,
      "ç±į": 1867,
      "ä¸ĵè¾ĳ": 1868,
      "ĠI": 1869,
      "å¦»": 1870,
      "çīĽ": 1871,
      "ä¹Ķ": 1872,
      "è¡¥": 1873,
      "ç§ĳåŃ¦": 1874,
      "å·®": 1875,
      "ĠW": 1876,
      "he": 1877,
      "ä¸ĢèĪ¬": 1878,
      "éĺ¶": 1879,
      "åħ¬è·¯": 1880,
      "è¥¿äºļ": 1881,
      "èĪªç©º": 1882,
      "çĦ¶èĢĮ": 1883,
      "å®½": 1884,
      "é¡¹çĽ®": 1885,
      "å»·": 1886,
      "2006": 1887,
      "å°ıè¯´": 1888,
      "æľīéĻĲ": 1889,
      "åįĹéĥ¨": 1890,
      "çĭ¬ç«ĭ": 1891,
      "åľĨ": 1892,
      "ä¸ĢäºĽ": 1893,
      "âĢĵ": 1894,
      "é¥°æ¼Ķ": 1895,
      "éľį": 1896,
      "åģĩ": 1897,
      "èµµ": 1898,
      "çĲĥåĳĺ": 1899,
      "è®²": 1900,
      "èĪŀ": 1901,
      "190": 1902,
      "å°ĨåĨĽ": 1903,
      "å·¨": 1904,
      "è´Łè´£": 1905,
      "å·¡": 1906,
      "åħį": 1907,
      "ç»¿": 1908,
      "èµĽåŃ£": 1909,
      "ä»ª": 1910,
      "ĠK": 1911,
      "è·Ŀ": 1912,
      "æºª": 1913,
      "éĩĬ": 1914,
      "ä¹ĺ": 1915,
      "æĿľ": 1916,
      "åºı": 1917,
      "å³°": 1918,
      "çĶŁæ¶¯": 1919,
      "ig": 1920,
      "å®¶æĹı": 1921,
      "æķĳ": 1922,
      "èį·": 1923,
      "ä¿Ħç½Ĺæĸ¯": 1924,
      "ç½²": 1925,
      "çī¹åĪ«": 1926,
      "æĮī": 1927,
      "äºĭä»¶": 1928,
      "åĪ»": 1929,
      "è¯¸": 1930,
      "ç§ĺ": 1931,
      "å½¢æĪĲ": 1932,
      "éŃı": 1933,
      "ç©Ĩ": 1934,
      "çŃĸ": 1935,
      "ç½Ĺé©¬": 1936,
      "æ®¿": 1937,
      "60": 1938,
      "å¹³æĸ¹": 1939,
      "éģĹåĿĢ": 1940,
      "åĩı": 1941,
      "çĶ¨äºİ": 1942,
      "çĶŁçī©": 1943,
      "æ£Ĵ": 1944,
      "åª": 1945,
      "éģŃ": 1946,
      "éĶĢ": 1947,
      "å¾Ĳ": 1948,
      "äºĪ": 1949,
      "å¥ı": 1950,
      "èª": 1951,
      "èĹ¤": 1952,
      "èĥŀ": 1953,
      "æıı": 1954,
      "é¦ĸæ¬¡": 1955,
      "ãĢĭãĢĤ": 1956,
      "æİ¢": 1957,
      "æ··": 1958,
      "ä½©": 1959,
      "å¾Ĵ": 1960,
      "ç¾½": 1961,
      "æĮ¥": 1962,
      "èĩªå·±çļĦ": 1963,
      "åıĸå¾Ĺ": 1964,
      "æĶ¯æĮģ": 1965,
      "å¼Ģåıĳ": 1966,
      "åı·çº¿": 1967,
      "äº¿": 1968,
      "ç»ĵæĿŁ": 1969,
      "å¸®": 1970,
      "é¢ĳ": 1971,
      "ä¾ĭå¦Ĥ": 1972,
      "ĠE": 1973,
      "st": 1974,
      "è´¢": 1975,
      "è´Ń": 1976,
      "çĶŁäº§": 1977,
      "æ¦Ĥ": 1978,
      "ĠN": 1979,
      "ä¸ªäºº": 1980,
      "åīĳ": 1981,
      "å¹¶åľ¨": 1982,
      "ä¼ļè®®": 1983,
      "æ¤įçī©": 1984,
      "ä½ł": 1985,
      "éĻ©": 1986,
      "æµ·åĨĽ": 1987,
      "çĮ®": 1988,
      "éĩĩçĶ¨": 1989,
      "éģĩ": 1990,
      "åºĻ": 1991,
      "å¯¼èĩ´": 1992,
      "çĥĪ": 1993,
      "åįķä½į": 1994,
      "å¹´èĩ³": 1995,
      "ç«ŀ": 1996,
      "ç«¹": 1997,
      "åĬ¨çī©": 1998,
      "è½¨": 1999,
      "èģĮä¸ļ": 2000,
      "åĲĪä½ľ": 2001,
      "çĸĹ": 2002,
      "äº§çĶŁ": 2003,
      "å¸ĿåĽ½": 2004,
      "æĺŃ": 2005,
      "ä¼ģ": 2006,
      "ä¼łç»Ł": 2007,
      "éĻµ": 2008,
      "æĸ¹å¼ı": 2009,
      "ĊĠ": 2010,
      "ä¸īå¹´": 2011,
      "çĪĨ": 2012,
      "æĥħåĨµ": 2013,
      "åĨ³èµĽ": 2014,
      "æļ´": 2015,
      "100": 2016,
      "ç£": 2017,
      "è®¾æľī": 2018,
      "la": 2019,
      "åĲįçļĦ": 2020,
      "ç§ĭ": 2021,
      "æ¯«": 2022,
      "ãĢİ": 2023,
      "ãĢı": 2024,
      "å®ĩ": 2025,
      "å°±æĺ¯": 2026,
      "æ¬¾": 2027,
      "æīĢä»¥": 2028,
      "çİ°åľ¨": 2029,
      "çĽ¸åħ³": 2030,
      "è§ī": 2031,
      "è¾ĵ": 2032,
      "æĽ¿": 2033,
      "ir": 2034,
      "æķ¦": 2035,
      "æŀª": 2036,
      "å¯¼æ¼Ķ": 2037,
      "ç¿¼": 2038,
      "é©»": 2039,
      "çĶļ": 2040,
      "éĤ»": 2041,
      "å¢ĵ": 2042,
      "ä¸ŃåŃ¦": 2043,
      "æī¾": 2044,
      "æ¯ķä¸ļ": 2045,
      "2022": 2046,
      "éĢĶ": 2047,
      "éĨ": 2048,
      "æĺ¯ä¸Ģä¸ª": 2049,
      "ä¸įè¿ĩ": 2050,
      "è¿Ļç§į": 2051,
      "è·Ł": 2052,
      "å¦¹": 2053,
      "åįļçī©": 2054,
      "ter": 2055,
      "um": 2056,
      "ä¼ĳ": 2057,
      "å®³": 2058,
      "ä¸Ģèµ·": 2059,
      "é²ľ": 2060,
      "éķľ": 2061,
      "æ³ī": 2062,
      "è¿ĩç¨ĭ": 2063,
      "éĻĦè¿ĳ": 2064,
      "çļĦæĺ¯": 2065,
      "äºĴ": 2066,
      "2005": 2067,
      "æ¨ª": 2068,
      "å¿ł": 2069,
      "å¾ĹåĪ°": 2070,
      "ä½įç½®": 2071,
      "im": 2072,
      "ç©¿": 2073,
      "çº¦ç¿°": 2074,
      "é¢Ŀ": 2075,
      "2000": 2076,
      "ä¸ĢçĽ´": 2077,
      "æĹłæ³ķ": 2078,
      "å«": 2079,
      "å¹ķ": 2080,
      "åĳĪ": 2081,
      "å»ī": 2082,
      "ç»ıè¿ĩ": 2083,
      "èķ": 2084,
      "å®¶åºŃ": 2085,
      "æ¼«": 2086,
      ")ï¼Į": 2087,
      "å°º": 2088,
      "èĬ¬": 2089,
      "åĽ½çİĭ": 2090,
      "æĪĲç»©": 2091,
      "åĿ¡": 2092,
      "åĲĪå¹¶": 2093,
      "æİ§åĪ¶": 2094,
      "éĢĥ": 2095,
      "ï¼ļâĢľ": 2096,
      "åı¦å¤ĸ": 2097,
      "åıªæľī": 2098,
      "éĺ¿å°Ķ": 2099,
      "åıĹåĪ°": 2100,
      "ad": 2101,
      "åŃ©": 2102,
      "éŁ¦": 2103,
      "å¹´éĹ´": 2104,
      "æķĻæİĪ": 2105,
      "åºŁ": 2106,
      "ç¬¬åĽĽ": 2107,
      "å¤§éĻĨ": 2108,
      "è´§": 2109,
      "å¹´åº¦": 2110,
      "æĢĢ": 2111,
      "èĽĭ": 2112,
      "åģ¥": 2113,
      "èĶ": 2114,
      "80": 2115,
      "èĤ¯": 2116,
      "å»ºè®¾": 2117,
      "æ¿Ģ": 2118,
      "æĺ¯çĶ±": 2119,
      "éĢĤ": 2120,
      "åŃĶ": 2121,
      "åħĭæĸ¯": 2122,
      "åĪļ": 2123,
      "åĨĪ": 2124,
      "æ´ŀ": 2125,
      "èĩªçĶ±": 2126,
      "é¡¾": 2127,
      "æ£ĭ": 2128,
      "ation": 2129,
      "åħħ": 2130,
      "æ»ĳ": 2131,
      "ç½ª": 2132,
      "ä½ĵèĤ²": 2133,
      "èµŀ": 2134,
      "å¥ī": 2135,
      "å®¡": 2136,
      "æĪ´": 2137,
      "çĲ´": 2138,
      "çºªå¿µ": 2139,
      "31": 2140,
      "èģĶéĤ¦": 2141,
      "éĿł": 2142,
      "éĥ¨éĺŁ": 2143,
      "æľºæŀĦ": 2144,
      "ĠJ": 2145,
      "åĨ°": 2146,
      "2004": 2147,
      "åĲ¸": 2148,
      "åĢŁ": 2149,
      "ç¼ĺ": 2150,
      "å¥Ī": 2151,
      "åįģä¸Ģ": 2152,
      "ç¼º": 2153,
      "ä¼į": 2154,
      "ç§ģ": 2155,
      "èĢ³": 2156,
      "æ¸Ĳ": 2157,
      "äº®": 2158,
      "èĦ±": 2159,
      "id": 2160,
      "ä»¥ä¸ĭ": 2161,
      "è¦ģæ±Ĥ": 2162,
      "éĵ¶è¡Į": 2163,
      "iv": 2164,
      "èĨ": 2165,
      "ç»§ç»Ń": 2166,
      "éĢı": 2167,
      "æĿ¥çļĦ": 2168,
      "éĿŀå¸¸": 2169,
      "çĶµè§Ĩåī§": 2170,
      "éĴ±": 2171,
      "éĢīæĭ": 2172,
      "åĶ¯": 2173,
      "åĦ¿åŃĲ": 2174,
      "ent": 2175,
      "çĶµè§Ĩåı°": 2176,
      "èªī": 2177,
      "ä¹±": 2178,
      "çī©ç§į": 2179,
      "èĦļ": 2180,
      "åı¦ä¸Ģ": 2181,
      "äººåĳĺ": 2182,
      "æľīéĻĲåħ¬åı¸": 2183,
      "å°Ķæĸ¯": 2184,
      "ä¿±ä¹Ĳ": 2185,
      "ä¹İ": 2186,
      "é½¿": 2187,
      "æĸ°éĹ»": 2188,
      "èĮ¨": 2189,
      "æµĻ": 2190,
      "è¥¿çıŃ": 2191,
      "åįļçī©é¦Ĩ": 2192,
      "æ¨¡å¼ı": 2193,
      "è¥¿çıŃçīĻ": 2194,
      "æ¦ľ": 2195,
      "ä¿±ä¹Ĳéĥ¨": 2196,
      "å¥³åŃĲ": 2197,
      "åŁºçĿ£": 2198,
      "ul": 2199,
      "ç»ĵæŀľ": 2200,
      "Ġï¼Ī": 2201,
      "è¿Ļä¸Ģ": 2202,
      "çºªå½ķ": 2203,
      "ä»»ä½ķ": 2204,
      "å·¥ä¸ļ": 2205,
      "åĲįç§°": 2206,
      "ãĢĤâĢĿ": 2207,
      "é¢ģ": 2208,
      "ãĢįï¼Ī": 2209,
      "è¡£": 2210,
      "éľĩ": 2211,
      "è¿Ľå£«": 2212,
      "ä¾¯": 2213,
      "æŁĲ": 2214,
      "åĮºåŁŁ": 2215,
      "ä¸»è§Ĵ": 2216,
      "æŃ¤å¤ĸ": 2217,
      "ot": 2218,
      "èİİ": 2219,
      "çİ°ä»£": 2220,
      "å¤§åĪ©": 2221,
      "åĪĨä¸º": 2222,
      "çİ©å®¶": 2223,
      "äºİæĺ¯": 2224,
      "åĨħå®¹": 2225,
      "è°ĭ": 2226,
      "æįķ": 2227,
      "è¯Ńè¨Ģ": 2228,
      "æ¼Ķåĩº": 2229,
      "å¤Ł": 2230,
      "å°¤": 2231,
      "æĪĪ": 2232,
      "æ±ł": 2233,
      "èĪį": 2234,
      "é«ĺéĢŁ": 2235,
      "è¡¨çİ°": 2236,
      "å¸ģ": 2237,
      "æģĴ": 2238,
      "åĽĽå¹´": 2239,
      "èĻ«": 2240,
      "ä¸»é¢ĺ": 2241,
      "å¢ŀåĬł": 2242,
      "ä¹Ļ": 2243,
      "æ®ĸ": 2244,
      "çĤ®": 2245,
      "æļĹ": 2246,
      "æī©": 2247,
      "éĢĿ": 2248,
      "å§ĵ": 2249,
      "æģ¶": 2250,
      "Ġç¬¬": 2251,
      "èĤī": 2252,
      "éĢłæĪĲ": 2253,
      "è¿ĲåĬ¨åĳĺ": 2254,
      "ï½": 2255,
      "åįıä¼ļ": 2256,
      "çļĨ": 2257,
      "è®¿": 2258,
      "åİ»ä¸ĸ": 2259,
      "éģĵè·¯": 2260,
      "å¢¨": 2261,
      "ä¸»å¸Ń": 2262,
      "æĥł": 2263,
      "ä¾į": 2264,
      "è¾Ĩ": 2265,
      "è¾Ľ": 2266,
      "è´¡": 2267,
      "çģ°": 2268,
      "æµ¦": 2269,
      "ä¹ĭåīį": 2270,
      "åĩ»è´¥": 2271,
      "éĻ¤äºĨ": 2272,
      "åĪĬ": 2273,
      "90": 2274,
      "èĦī": 2275,
      "70": 2276,
      "¤Ĳ": 2277,
      "æĮĩæĮ¥": 2278,
      "35": 2279,
      "æ´ª": 2280,
      "èħĬ": 2281,
      "è®¨": 2282,
      "æĭįæĳĦ": 2283,
      "åĪĳ": 2284,
      "åĽº": 2285,
      "éĩįæĸ°": 2286,
      "çĨĬ": 2287,
      "åªĴ": 2288,
      "åĨ¬": 2289,
      "ç¿»": 2290,
      "ãĢī": 2291,
      "å¾Ħ": 2292,
      "ç§¦": 2293,
      "åĲİçļĦ": 2294,
      "çĹĩ": 2295,
      "em": 2296,
      "Ð°": 2297,
      "å¯¿": 2298,
      "æĶ¹ä¸º": 2299,
      "è¿Ķ": 2300,
      "æĭĽ": 2301,
      "çģŃ": 2302,
      "çĴ": 2303,
      "åĬª": 2304,
      "æı´": 2305,
      "çĽĬ": 2306,
      "çĽĺ": 2307,
      "æİ¥åıĹ": 2308,
      "éĽ¨": 2309,
      "çĽ´åĪ°": 2310,
      "èµĽäºĭ": 2311,
      "ä»Ļ": 2312,
      "ç»Ĩèĥŀ": 2313,
      "ag": 2314,
      "å¯¹äºİ": 2315,
      "æĢ§çļĦ": 2316,
      "åľ°æĸ¹": 2317,
      "æĺ¯ä¸Ģç§į": 2318,
      "æ¡ĳ": 2319,
      "ãĢĪ": 2320,
      "æĸĩçī©": 2321,
      "è¶ħè¿ĩ": 2322,
      "åĩºçļĦ": 2323,
      "é³į": 2324,
      "ç»į": 2325,
      "çīĪæľ¬": 2326,
      "å¦Ĥæŀľ": 2327,
      "ç¦ģ": 2328,
      "å®ĥä»¬": 2329,
      "æľºåľº": 2330,
      "èĥ½åĬĽ": 2331,
      "éĢīä¸¾": 2332,
      "æ¯«ç±³": 2333,
      "åĨĽéĺŁ": 2334,
      "æĹĭ": 2335,
      "ç¯ĩ": 2336,
      "ay": 2337,
      "æ¢¦": 2338,
      "çİ¯å¢ĥ": 2339,
      "åĿĹ": 2340,
      "åĪĽä½ľ": 2341,
      "èĲ§": 2342,
      "éĥ½æĺ¯": 2343,
      "è¿ĺæľī": 2344,
      "è´Ŀå°Ķ": 2345,
      "ou": 2346,
      "åŃ¦ä¹ł": 2347,
      "op": 2348,
      "çī§": 2349,
      "æĪĺæĸĹ": 2350,
      "åĨħçļĦ": 2351,
      "æłĩåĩĨ": 2352,
      "æ¯įäº²": 2353,
      "æµĻæ±Ł": 2354,
      "èĮĥåĽ´": 2355,
      "èıĮ": 2356,
      "éĢīæĭ©": 2357,
      "48": 2358,
      "çĳŁ": 2359,
      "è¯¾": 2360,
      "åŁ¹": 2361,
      "äºļæ´²": 2362,
      "åĨįæ¬¡": 2363,
      "ä¸ĭçļĦ": 2364,
      "è¿¹": 2365,
      "èĿ": 2366,
      "ä¹Łæľī": 2367,
      "æĹ¥åľ¨": 2368,
      "æĵį": 2369,
      "ä¸»æĮģ": 2370,
      "éĤ®": 2371,
      "å¹¿åľº": 2372,
      "ï¼ļãĢĮ": 2373,
      "æĸ¹æ³ķ": 2374,
      "å¦®": 2375,
      "æĢ»ç»Ł": 2376,
      "èĭıèģĶ": 2377,
      "å¹¶ä¸į": 2378,
      "èĩªçĦ¶": 2379,
      "è¿İ": 2380,
      "åħĥå¹´": 2381,
      "äººæ°ĳåħ±åĴĮåĽ½": 2382,
      "åĮ¹": 2383,
      "æ¯ģ": 2384,
      "åĪ©çĶ¨": 2385,
      "è®Ńç»ĥ": 2386,
      "ä¸īåįģ": 2387,
      "2003": 2388,
      "åĽĽå·Ŀ": 2389,
      "åıįåºĶ": 2390,
      "37": 2391,
      "ä¸ľåįĹ": 2392,
      "å¤©æ´¥": 2393,
      "è¸": 2394,
      "å½©": 2395,
      "è¢Ń": 2396,
      "é©¬æĿ¥": 2397,
      "é»ĺ": 2398,
      "æķ°æį®": 2399,
      "Ġ199": 2400,
      "èµı": 2401,
      "è°Ī": 2402,
      "æŁĵ": 2403,
      "éĴ¢": 2404,
      "å¯»": 2405,
      "åĨĽäºĭ": 2406,
      "ä¸ľåĮĹ": 2407,
      "åĿļ": 2408,
      "èĻİ": 2409,
      "å½¼": 2410,
      "ä½ľçĶ¨": 2411,
      "å¹¸": 2412,
      "åľĪ": 2413,
      "æĹ¶åĢĻ": 2414,
      "ç±»ä¼¼": 2415,
      "åı¬": 2416,
      "è¿·": 2417,
      "æ±¤": 2418,
      "å¥¹çļĦ": 2419,
      "ï¼ĮãĢĬ": 2420,
      "ä»Ķ": 2421,
      "æĽ¾ç»ı": 2422,
      "æ»¨": 2423,
      "éļıåĲİ": 2424,
      "45": 2425,
      "èµ¢": 2426,
      "æĸ°çļĦ": 2427,
      "æŃĮæīĭ": 2428,
      "ä¼ģä¸ļ": 2429,
      "ç»¼": 2430,
      "æĴ¤": 2431,
      "æ¥ļ": 2432,
      "éŁ©åĽ½": 2433,
      "ï¼Ł": 2434,
      "éĺ´": 2435,
      "te": 2436,
      "å¾ħ": 2437,
      "ä¹Ī": 2438,
      "çıł": 2439,
      "åħ±åĲĮ": 2440,
      "å®ľ": 2441,
      "åĲ¬": 2442,
      "çī¹å¾ģ": 2443,
      "ç¼©": 2444,
      "çŁ¿": 2445,
      "å±±ä¸ľ": 2446,
      "æĦ¿": 2447,
      "çĽ´æİ¥": 2448,
      "æĸĩåŃ¦": 2449,
      "æīİ": 2450,
      "åĵ²": 2451,
      "æľĢåĪĿ": 2452,
      "æľºè½¦": 2453,
      "ä¼Ł": 2454,
      "çĬ¯": 2455,
      "ĠO": 2456,
      "åı«": 2457,
      "æ°§": 2458,
      "çº¿è·¯": 2459,
      "åĪ¶éĢł": 2460,
      "ä¸īä¸ª": 2461,
      "ie": 2462,
      "åĨ·": 2463,
      "ä¹°": 2464,
      "éĿĻ": 2465,
      "ard": 2466,
      "åįĪ": 2467,
      "è®¢": 2468,
      "æĽ¹": 2469,
      "189": 2470,
      "åŃĿ": 2471,
      "å¤§éĩı": 2472,
      "è¡ĮåĬ¨": 2473,
      "åĬ¨çĶ»": 2474,
      "æģĲ": 2475,
      "ç¥Ń": 2476,
      "å®ŀéªĮ": 2477,
      "47": 2478,
      "çļĦå¥³": 2479,
      "éº»": 2480,
      "éĵľ": 2481,
      "å¿ħé¡»": 2482,
      "èĭ±æł¼åħ°": 2483,
      "åħ±æľī": 2484,
      "äºĶå¹´": 2485,
      "èĦĳ": 2486,
      "æĶ»åĩ»": 2487,
      "èŀį": 2488,
      "æľīåħ³": 2489,
      "2002": 2490,
      "çĲĨè®º": 2491,
      "éĩĮæĸ¯": 2492,
      "å¹¿ä¸ľ": 2493,
      "è±ª": 2494,
      "éĺģ": 2495,
      "è¥¿åįĹ": 2496,
      "é¢ľ": 2497,
      "åĭĩ": 2498,
      "åĮ»éĻ¢": 2499,
      "è¾ħ": 2500,
      "è½¯": 2501,
      "éļĶ": 2502,
      "çĶ·åŃĲ": 2503,
      "é¹¿": 2504,
      "ĠV": 2505,
      "å¨ģå»ī": 2506,
      "å¹´åľ¨": 2507,
      "ä¸¾åĬŀ": 2508,
      "è¿ŀç»Ń": 2509,
      "å¤ªå¹³": 2510,
      "å¾½": 2511,
      "éĽķ": 2512,
      "æĭīæĸ¯": 2513,
      "æıĲåĩº": 2514,
      "æĪĳä»¬": 2515,
      "åĶ¯ä¸Ģ": 2516,
      "Ð¾": 2517,
      "åĳ³": 2518,
      "å½¢å¼ı": 2519,
      "ä¸ľäº¬": 2520,
      "é¢Ĩå¯¼": 2521,
      "å¤ļæķ°": 2522,
      "2001": 2523,
      "è®®ä¼ļ": 2524,
      "èĳ¡": 2525,
      "ow": 2526,
      "ç¦»å¼Ģ": 2527,
      "åĮħåĲ«": 2528,
      "äººç±»": 2529,
      "éĺ»": 2530,
      "è¿Ļæĺ¯": 2531,
      "å®Įåħ¨": 2532,
      "åįļå£«": 2533,
      "ï½ŀ": 2534,
      "æī¬": 2535,
      "æĬµ": 2536,
      "è¥¿åĮĹ": 2537,
      "ä¸Ńåįİäººæ°ĳåħ±åĴĮåĽ½": 2538,
      "é¬": 2539,
      "æĹ¶çļĦ": 2540,
      "è£Ķ": 2541,
      "ç¡Ģ": 2542,
      "æŀĲ": 2543,
      "85": 2544,
      "çĶĺ": 2545,
      "ç»ĺ": 2546,
      "éĻ¶": 2547,
      "æĹ©æľŁ": 2548,
      "ä¸Ģæ¬¡": 2549,
      "æ±ĩ": 2550,
      "the": 2551,
      "46": 2552,
      "ç¹": 2553,
      "æ¸¡": 2554,
      "å£ģ": 2555,
      "çıį": 2556,
      "å¸ĮèħĬ": 2557,
      "æµª": 2558,
      "åĭĭ": 2559,
      "çĶ³": 2560,
      "åĩ¤": 2561,
      "æŀļ": 2562,
      "æĴŀ": 2563,
      "çĶļèĩ³": 2564,
      "åĳ¼": 2565,
      "ä¾µ": 2566,
      "åĲ¦": 2567,
      "ä¸¤äºº": 2568,
      "æķ°éĩı": 2569,
      "èĽĩ": 2570,
      "åį±": 2571,
      "åĮºçļĦ": 2572,
      "åįĹäº¬": 2573,
      "åĪĨç±»": 2574,
      "æĪĺå½¹": 2575,
      "å¼ĥ": 2576,
      "åīĤ": 2577,
      "è´º": 2578,
      "å§Ĳ": 2579,
      "ä»»åĬ¡": 2580,
      "å·ŀå¸Ĥ": 2581,
      "èĳ£": 2582,
      "çĶµåŃĲ": 2583,
      "æŁ±": 2584,
      "ers": 2585,
      "çļĩå¸Ŀ": 2586,
      "ec": 2587,
      "æ²³åįĹ": 2588,
      "oc": 2589,
      "è°ĥæŁ¥": 2590,
      "åĬłæĭ¿": 2591,
      "çĸĳ": 2592,
      "èĢĮä¸Ķ": 2593,
      "æĤ£": 2594,
      "å¹¶äºİ": 2595,
      "è¢«ç§°ä¸º": 2596,
      "ä¸Ģæł·": 2597,
      "æķĻåłĤ": 2598,
      "çĽ¸å½ĵ": 2599,
      "éĴĪ": 2600,
      "od": 2601,
      "åŁºç¡Ģ": 2602,
      "å¢Ļ": 2603,
      "ä¸ĵä¸ļ": 2604,
      "åħ¶åĲİ": 2605,
      "åĽ¾ä¹¦": 2606,
      "æĬķèµĦ": 2607,
      "ä¼Ĳ": 2608,
      "å¦ĩ": 2609,
      "éĶ¡": 2610,
      "åĨĮ": 2611,
      "çº¹": 2612,
      "å¥Ĺ": 2613,
      "ä¸Ģç§į": 2614,
      "çīł": 2615,
      "æııè¿°": 2616,
      "ap": 2617,
      "æľĭ": 2618,
      "å¹¼": 2619,
      "æľĪåı°": 2620,
      "ç¾İåħĥ": 2621,
      "éħįéŁ³": 2622,
      "éĻ·": 2623,
      "èĴĻåı¤": 2624,
      "äºĮä¸ĸ": 2625,
      "ç»ľ": 2626,
      "æįŁ": 2627,
      "çº½çº¦": 2628,
      "ä¸įèĥ½": 2629,
      "å®ŀéĻħ": 2630,
      "éĿĴå¹´": 2631,
      "ç¹ģ": 2632,
      "æĺ¾ç¤º": 2633,
      "çº¯": 2634,
      "èĳ¬": 2635,
      "è®°è½½": 2636,
      "åĲįåŃĹ": 2637,
      "è¯ī": 2638,
      "è¾½": 2639,
      "ç´«": 2640,
      "è¿«": 2641,
      "æķı": 2642,
      "éģ¿": 2643,
      "æŃ»äº¡": 2644,
      "è·Ŀç¦»": 2645,
      "å¸®åĬ©": 2646,
      "æĪª": 2647,
      "ç¬¦": 2648,
      "ä½ľæĽ²": 2649,
      "è®¾ç«ĭ": 2650,
      "ãĤ¹": 2651,
      "åįķæĽ²": 2652,
      "åĲķ": 2653,
      "åŃ¦åĲį": 2654,
      "æİĮ": 2655,
      "é£İæł¼": 2656,
      "è¯¯": 2657,
      "çĤ¸": 2658,
      "èĭ±è¯Ń": 2659,
      "33": 2660,
      "Ġd": 2661,
      "æĸ¯åĿ¦": 2662,
      "Ġm": 2663,
      "æ²ī": 2664,
      "è´¤": 2665,
      "ä¿Ĺ": 2666,
      "è¶ħçº§": 2667,
      "çĥŃå¸¦": 2668,
      "éĹŃ": 2669,
      "ç³ĸ": 2670,
      "èĩªæ²»": 2671,
      "è®¾ç½®": 2672,
      "æ¡ĥ": 2673,
      "ce": 2674,
      "æ¡£": 2675,
      "æ¶²": 2676,
      "å¸ĮæľĽ": 2677,
      "çĩķ": 2678,
      "äº«": 2679,
      "ä¹ĭéĹ´çļĦ": 2680,
      "75": 2681,
      "åįĸ": 2682,
      "ä¸Ģä¸ĸ": 2683,
      "éĢĬ": 2684,
      "éĥ¨éķ¿": 2685,
      "éĶ¦æłĩ": 2686,
      "æŀ¢": 2687,
      "èĲĦ": 2688,
      "èĳ¡èĲĦ": 2689,
      "Ġå¤§": 2690,
      "ä¸ĺ": 2691,
      "å±ħæ°ĳ": 2692,
      "å®ª": 2693,
      "ä¸ºP": 2694,
      "ç¡¬": 2695,
      "è¥¿éĥ¨": 2696,
      "æĸ¹åĲĳ": 2697,
      "å°ıæĹ¶": 2698,
      "å¹³åĿĩ": 2699,
      "åľ°çĲĨ": 2700,
      "ri": 2701,
      "Ġs": 2702,
      "ä¸»æ¼Ķ": 2703,
      "åģı": 2704,
      "åħŃå¹´": 2705,
      "å°Ĭ": 2706,
      "è¡Įä¸º": 2707,
      "ä»ĺ": 2708,
      "å»ºéĢł": 2709,
      "è£ģ": 2710,
      "ä¸įæĺ¯": 2711,
      "å¹¿æĴŃ": 2712,
      "æĴŃåĩº": 2713,
      "å´ĩ": 2714,
      "ill": 2715,
      "äºĭåĬ¡": 2716,
      "ĠĠ": 2717,
      "è®¯": 2718,
      "ä¸įä¹ħ": 2719,
      "å®īåħ¨": 2720,
      "å´İ": 2721,
      "åĲĥ": 2722,
      "æģĭ": 2723,
      "è¿ŀæİ¥": 2724,
      "æĢ¥": 2725,
      "å¼ĢæĶ¾": 2726,
      "Ġé¥°æ¼Ķ": 2727,
      "åıĳå¸ĥ": 2728,
      "æ±½": 2729,
      "æĻ¶": 2730,
      "æĦıå¤§åĪ©": 2731,
      "ĠSt": 2732,
      "ãĥ«": 2733,
      "é¢Ĺ": 2734,
      "æŁ¯": 2735,
      "åķĨä¸ļ": 2736,
      "è·³": 2737,
      "æ½ľ": 2738,
      "äº¨": 2739,
      "è·¨": 2740,
      "åıĺåĮĸ": 2741,
      "éĢĿä¸ĸ": 2742,
      "è§Ī": 2743,
      "åī§æĥħ": 2744,
      "ä»ĸä»¬çļĦ": 2745,
      "å¤ªéĺ³": 2746,
      "é£ŀæľº": 2747,
      "æ½ĺ": 2748,
      "ç´§": 2749,
      "ä¸ĢåĲį": 2750,
      "æĭĶ": 2751,
      "ï¼ļãĢĬ": 2752,
      "åĮĸåŃ¦": 2753,
      "æļĤ": 2754,
      "åĿı": 2755,
      "åĿĲ": 2756,
      "åĲĦç§į": 2757,
      "æİĴåĲį": 2758,
      "åľ°ä¸ĭ": 2759,
      "é¬¼": 2760,
      "ä¼´": 2761,
      "çĮİ": 2762,
      "è¯Ħä»·": 2763,
      "æ©": 2764,
      "æ³Ľ": 2765,
      "çĽ¸åĲĮ": 2766,
      "Ð¸": 2767,
      "ï¼ģ": 2768,
      "âĢ¦": 2769,
      "æ°ĳä¸»": 2770,
      "éĺ¿æĭī": 2771,
      "ç¬¼": 2772,
      "çŃīåľ°": 2773,
      "ãĤ¤": 2774,
      "çĮª": 2775,
      "ĠCh": 2776,
      "36": 2777,
      "æĸ¯ç§ĳ": 2778,
      "ç¬Ķ": 2779,
      "âĢĿï¼Ī": 2780,
      "åĽ½æ°ĳ": 2781,
      "åħ¨çĲĥ": 2782,
      "åĬłæĭ¿å¤§": 2783,
      "åħ³äºİ": 2784,
      "å®ļçļĦ": 2785,
      "ç¬¬ä¸Ģæ¬¡": 2786,
      "èµ¢å¾Ĺ": 2787,
      "æŁ´": 2788,
      "åĢĴ": 2789,
      "åĳ½åĲį": 2790,
      "è£Ĥ": 2791,
      "å»ºäºİ": 2792,
      "ä»ĵ": 2793,
      "æĺĨ": 2794,
      "éĥŃ": 2795,
      "åħ¬åħ±": 2796,
      "ist": 2797,
      "åĪĨå¸ĥäºİ": 2798,
      "og": 2799,
      "éĶĻ": 2800,
      "ç»Łæ²»": 2801,
      "çĲ³": 2802,
      "è¾ŀ": 2803,
      "ç¬¬äºĶ": 2804,
      "av": 2805,
      "æ¼ĶåĶ±": 2806,
      "çĨĻ": 2807,
      "éļ¶å±ŀäºİ": 2808,
      "æ½®": 2809,
      "éĿĸ": 2810,
      "çĭ±": 2811,
      "æµģè¡Į": 2812,
      "ç©ºéĹ´": 2813,
      "éķ¿çļĦ": 2814,
      "æ¯Ķè¾ĥ": 2815,
      "ç¯®": 2816,
      "äº§åĵģ": 2817,
      "çĽĲ": 2818,
      "æĺİæľĿ": 2819,
      "éĶĭ": 2820,
      "ä¼¦æķ¦": 2821,
      "è½¨éģĵ": 2822,
      "èµĸ": 2823,
      "78": 2824,
      "ä¿Ĭ": 2825,
      "Ġde": 2826,
      "ä¸Ńæĸĩ": 2827,
      "æĬĺ": 2828,
      "åıĪç§°": 2829,
      "äºĮå¹´": 2830,
      "ç»§æī¿": 2831,
      "è¿Ī": 2832,
      "çİĦ": 2833,
      "è¾¾åĪ°": 2834,
      "æľĿé²ľ": 2835,
      "38": 2836,
      "åŁĶ": 2837,
      "æĮ¯": 2838,
      "è°±": 2839,
      "æķĻç»ĥ": 2840,
      "æģ¢": 2841,
      "ä½Ĩåľ¨": 2842,
      "è®¡ç®Ĺ": 2843,
      "æ¹ĸåįĹ": 2844,
      "åħĦå¼Ł": 2845,
      "å¤§éģĵ": 2846,
      "è§¦": 2847,
      "è¿Ļæł·": 2848,
      "ç»´å°Ķ": 2849,
      "ĠÐ": 2850,
      "çĶŁäºİ": 2851,
      "ä¸ľéĥ¨": 2852,
      "ä¸ŃåĽ½å¤§éĻĨ": 2853,
      "åĩºçĶŁäºİ": 2854,
      "Ch": 2855,
      "æĿī": 2856,
      "èµ¤": 2857,
      "ä»¥æĿ¥": 2858,
      "åĪĨæŀĲ": 2859,
      "ç¨³": 2860,
      "éĻķ": 2861,
      "ov": 2862,
      "åİļ": 2863,
      "åľ°éĵģ": 2864,
      "ä»įçĦ¶": 2865,
      "å±ŀçļĦ": 2866,
      "å¥¥è¿Ĳ": 2867,
      "æħķ": 2868,
      "ä¼¸": 2869,
      "å¼ĺ": 2870,
      "ä½ľå®¶": 2871,
      "1999": 2872,
      "çŃīäºº": 2873,
      "èĳĽ": 2874,
      "1990": 2875,
      "è¡¡": 2876,
      "åıĳè¡¨": 2877,
      "åħ¨éĥ¨": 2878,
      "èµĦæĸĻ": 2879,
      "åªĴä½ĵ": 2880,
      "èħ¹": 2881,
      "ç»ıå¸¸": 2882,
      "éĥ¨ä»½": 2883,
      "éĵģéģĵ": 2884,
      "èĳĹåĲį": 2885,
      "ä¹ĥ": 2886,
      "ä¿¡æģ¯": 2887,
      "å¯ŁéĻ¢": 2888,
      "ä¼°": 2889,
      "æķ¬": 2890,
      "æ³ķéĻ¢": 2891,
      "æİ¨åĩº": 2892,
      "å¤§éĥ¨åĪĨ": 2893,
      "è¾ī": 2894,
      "èĥ½å¤Ł": 2895,
      "çĽ®æłĩ": 2896,
      "èī²çļĦ": 2897,
      "å°½ç®¡": 2898,
      "æĸĳ": 2899,
      "çº¸": 2900,
      "å¤©ä¸»æķĻ": 2901,
      "éļĲ": 2902,
      "ine": 2903,
      "Ġthe": 2904,
      "å¤§èĩ£": 2905,
      "æĢª": 2906,
      "å¤ĦçĲĨ": 2907,
      "ç¢ĳ": 2908,
      "å¤§æĪĺ": 2909,
      "æłĸ": 2910,
      "æľĭåıĭ": 2911,
      "ak": 2912,
      "å¹´åĲİ": 2913,
      "çĲĥä¼ļ": 2914,
      "è¿ĽæĶ»": 2915,
      "ä¸įåĲĮçļĦ": 2916,
      "ä¸Ĭæĺł": 2917,
      "åĪĨéĴŁ": 2918,
      "åİŁåĽł": 2919,
      "32": 2920,
      "ab": 2921,
      "åıĻ": 2922,
      "1998": 2923,
      "æī§è¡Į": 2924,
      "39": 2925,
      "èļ": 2926,
      "ĠæĿİ": 2927,
      "åħ½": 2928,
      "é¹°": 2929,
      "åŁºæľ¬": 2930,
      "å¦»åŃĲ": 2931,
      "æ¼«çĶ»": 2932,
      "å¹´è½»": 2933,
      "éĽ¶": 2934,
      "èİ²": 2935,
      "éĤĵ": 2936,
      "ut": 2937,
      "åľ¨æŃ¤": 2938,
      "æ²Ī": 2939,
      "æ²Ł": 2940,
      "æĬļ": 2941,
      "188": 2942,
      "é¾Ħ": 2943,
      "The": 2944,
      "Ðµ": 2945,
      "æĶ¹ç¼ĸ": 2946,
      "çĺ": 2947,
      "ä¸ºä¸Ģ": 2948,
      "ian": 2949,
      "å®¿": 2950,
      "ç²ī": 2951,
      "å±ħä½ı": 2952,
      "æģ¢å¤į": 2953,
      "ãĢĤãĢį": 2954,
      "ä¸ºä¸»": 2955,
      "åĬŁèĥ½": 2956,
      "å¢ĥåĨħ": 2957,
      "å·¦åı³": 2958,
      "çĦ¶åĲİ": 2959,
      "èº«ä»½": 2960,
      "æķĪåĬĽ": 2961,
      "é©±": 2962,
      "æ¡Ĥ": 2963,
      "åľ°çĲĥ": 2964,
      "éļľ": 2965,
      "è¡¨æ¼Ķ": 2966,
      "è·ĳ": 2967,
      "æĮĳ": 2968,
      "éĿ©åĳ½": 2969,
      "å£¤": 2970,
      "æ¾³éĹ¨": 2971,
      "èĽĭçĻ½": 2972,
      "æĺĤ": 2973,
      "å¾Īå¤ļ": 2974,
      "æħ¢": 2975,
      "å¼±": 2976,
      "å¸Ĥåľº": 2977,
      "å°ĳå¹´": 2978,
      "ell": 2979,
      "ç«¥åĨĽ": 2980,
      "å¤§åŀĭ": 2981,
      "æ³ķå¾ĭ": 2982,
      "186": 2983,
      "å¹¿å·ŀ": 2984,
      "æ£®æŀĹ": 2985,
      "55": 2986,
      "è´¸": 2987,
      "ä¸»ä»»": 2988,
      "åħ¬å¼Ģ": 2989,
      "è®¾æĸ½": 2990,
      "æ²»çĸĹ": 2991,
      "ç¦ıå»º": 2992,
      "Ġp": 2993,
      "å¹»": 2994,
      "1997": 2995,
      "å·´é»İ": 2996,
      "èĥĮæĻ¯": 2997,
      "æ±Ĺ": 2998,
      "ç¾¤å²Ľ": 2999,
      "åıĤèµĽ": 3000,
      "çļĦç¬¬": 3001,
      "åĽ¢ä½ĵ": 3002,
      "è®®åĳĺ": 3003,
      "ç®Ģç§°": 3004,
      "çİĭåĽ½": 3005,
      "è§ĦåĪĴ": 3006,
      "é©¬æĿ¥è¥¿äºļ": 3007,
      "æĪĸèĢħ": 3008,
      "Ġc": 3009,
      "åĽ°": 3010,
      "åŃ¦ä½į": 3011,
      "åĿĳ": 3012,
      "è§Ħæ¨¡": 3013,
      "åĪĢ": 3014,
      "çĽĹ": 3015,
      "ç¦Ħ": 3016,
      "é¼ĵ": 3017,
      "èĳĹä½ľ": 3018,
      "ç²¾ç¥ŀ": 3019,
      "æĴĴ": 3020,
      "èıľ": 3021,
      "æľĢæĹ©": 3022,
      "art": 3023,
      "çķª": 3024,
      "è¿ĩåİ»": 3025,
      "æĥĬ": 3026,
      "åŃ¦èĢħ": 3027,
      "åĹ": 3028,
      "ç»ıèĲ¥": 3029,
      "éĢīæīĭ": 3030,
      "åĽŀåĪ°": 3031,
      "æĶ¿æ²»äººçī©": 3032,
      "åĽ¾ä¹¦é¦Ĩ": 3033,
      "ran": 3034,
      "å°ĸ": 3035,
      "è¯ļ": 3036,
      "æĭĨ": 3037,
      "æ¶ī": 3038,
      "æħĪ": 3039,
      "èĮ¶": 3040,
      "æķ´ä¸ª": 3041,
      "34": 3042,
      "èĭĹ": 3043,
      "åģ¶": 3044,
      "å¹´èµ·": 3045,
      "è¡Ķ": 3046,
      "åİ¦": 3047,
      "çī©çĲĨ": 3048,
      "ç»ıåİĨ": 3049,
      "èĹ©": 3050,
      "èľĤ": 3051,
      "çļĦå°ı": 3052,
      "åıĽ": 3053,
      "ä½¿å¾Ĺ": 3054,
      "å¥ĸé¡¹": 3055,
      "çĸ¾": 3056,
      "çŃĶ": 3057,
      "åį¿": 3058,
      "æ°ĳæĹı": 3059,
      "æ®ĭ": 3060,
      "è¦": 3061,
      "æĹģ": 3062,
      "ç§ĳæĬĢ": 3063,
      "éŀ": 3064,
      "æŁ³": 3065,
      "éĶ¦æłĩèµĽ": 3066,
      "Âł": 3067,
      "ç§Ł": 3068,
      "ä¸įä¼ļ": 3069,
      "çĥ§": 3070,
      "åįıåĬ©": 3071,
      "ï¼īï¼Ī": 3072,
      "TC": 3073,
      "åĩ¡": 3074,
      "èº«ä½ĵ": 3075,
      "ne": 3076,
      "åĴ¸": 3077,
      "äºĨä¸Ģä¸ª": 3078,
      "è¢«è®¤ä¸º": 3079,
      "èį£èªī": 3080,
      "èį·åħ°": 3081,
      "èµł": 3082,
      "è·¯æĺĵ": 3083,
      "éĤĢ": 3084,
      "åĬŀåħ¬": 3085,
      "çīłä»¬": 3086,
      "ub": 3087,
      "å¥´": 3088,
      "ç¥ĸçĪ¶": 3089,
      "ä¹¾": 3090,
      "æľĢå¤§çļĦ": 3091,
      "çĬ¹": 3092,
      "Ã©": 3093,
      "æĿ¥æºĲ": 3094,
      "åĪĹè¡¨": 3095,
      "å¥½çļĦ": 3096,
      "çºµ": 3097,
      "å¤§ä¼ļ": 3098,
      "äººä»¬": 3099,
      "ç¾İæ´²": 3100,
      "å¤§çº¦": 3101,
      "æīĢåľ¨": 3102,
      "åĪĻæĺ¯": 3103,
      "çĮ«": 3104,
      "è¯Ħè®º": 3105,
      "å¡ŀå°Ķ": 3106,
      "ä¸¥éĩį": 3107,
      "æ¢°": 3108,
      "åİĺ": 3109,
      "æĸ¯çļĦ": 3110,
      "ãĢįãĢģ": 3111,
      "åıįå¯¹": 3112,
      "âĨ": 3113,
      "åĲĮæł·": 3114,
      "ãģĦ": 3115,
      "çĲĥåľº": 3116,
      "åŁºåľ°": 3117,
      "è¿ĺæĺ¯": 3118,
      "å¤©æĸĩ": 3119,
      "é¢ĳéģĵ": 3120,
      "ç»¼åĲĪ": 3121,
      "ä»¥ä¸Ĭ": 3122,
      "é©¶": 3123,
      "ç¥¥": 3124,
      "æ°´åºĵ": 3125,
      "å®ĺæĸ¹": 3126,
      "æĭĴ": 3127,
      "è´¾": 3128,
      "æľĢå¤§": 3129,
      "çģ¯": 3130,
      "èµĦæł¼": 3131,
      "éĻķè¥¿": 3132,
      "åŃĲçļĦ": 3133,
      "å»ºæĪĲ": 3134,
      "é«ĺçº§": 3135,
      "å½¦": 3136,
      "æ¯Ķäºļ": 3137,
      "éĢĲæ¸Ĳ": 3138,
      "è©": 3139,
      "åįĵ": 3140,
      "1996": 3141,
      "èĭ±æĸĩ": 3142,
      "éĢŁåº¦": 3143,
      "ĠU": 3144,
      "ç»ª": 3145,
      "ä¿ĿæĮģ": 3146,
      "å®ĥçļĦ": 3147,
      "Ġåľ¨": 3148,
      "åħģ": 3149,
      "æ±Łèĭı": 3150,
      "è¡Ĺéģĵ": 3151,
      "Ġ198": 3152,
      "ä¸Ī": 3153,
      "å°ıåŃ¦": 3154,
      "çĭ®": 3155,
      "ç»´äºļ": 3156,
      "åľŁåľ°": 3157,
      "é¤Ĳ": 3158,
      "å®ħ": 3159,
      "æ³³": 3160,
      "å¤ļçļĦ": 3161,
      "è¿ĲèĲ¥": 3162,
      "æĮĩåĩº": 3163,
      "å°ī": 3164,
      "é¸¡": 3165,
      "ç¬¬äºĮæ¬¡": 3166,
      "ph": 3167,
      "ä¸Ńéĥ¨": 3168,
      "åİŁæľ¬": 3169,
      "æ®Ĭ": 3170,
      "åıĸä»£": 3171,
      "çļĦæĸ°": 3172,
      "å¾·éĩĮ": 3173,
      "å®ĹæķĻ": 3174,
      "ä¸ļåĬ¡": 3175,
      "åĶ±çīĩ": 3176,
      "æĲŃ": 3177,
      "Ð½": 3178,
      "çļĦä¸»è¦ģ": 3179,
      "åı¥": 3180,
      "åŃŁ": 3181,
      "çĲĥåŃ£": 3182,
      "ãĥ©": 3183,
      "è©¹": 3184,
      "49": 3185,
      "æľīçļĦ": 3186,
      "æĭŁ": 3187,
      "æ·¡": 3188,
      "Ġf": 3189,
      "åĩºæĪĺ": 3190,
      "åħĪåĲİ": 3191,
      "åĸľæ¬¢": 3192,
      "éĺ¶æ®µ": 3193,
      "ç»ķ": 3194,
      "è´¯": 3195,
      "æĿĤå¿Ĺ": 3196,
      "åįģåħ«": 3197,
      "åĮĸçŁ³": 3198,
      "åħĭåħ°": 3199,
      "åĿĬ": 3200,
      "åºĶçĶ¨": 3201,
      "ç¼ĸçłģ": 3202,
      "ich": 3203,
      "é«ĺçŃī": 3204,
      "é©¾": 3205,
      "å£®": 3206,
      "ens": 3207,
      "ä¼ı": 3208,
      "è½´": 3209,
      "å¹´åı·": 3210,
      "1995": 3211,
      "é£ŀè¡Į": 3212,
      "å°ļä¹¦": 3213,
      "æµħ": 3214,
      "åĬłçĽŁ": 3215,
      "ãĥĪ": 3216,
      "éĥ¨éĹ¨": 3217,
      "éģĤ": 3218,
      "ç´¯": 3219,
      "èĢĥåı¤": 3220,
      "æľ¬ç«Ļ": 3221,
      "An": 3222,
      "åħ¬å¸ĥ": 3223,
      "èĢħçļĦ": 3224,
      "all": 3225,
      "çº²": 3226,
      "æ¾³å¤§": 3227,
      "Ġb": 3228,
      "ç¾½æ¯Ľ": 3229,
      "æŃ¤åĲİ": 3230,
      "èµĲ": 3231,
      "åĩºä»»": 3232,
      "å°Ķé¡¿": 3233,
      "åħ¬å°º": 3234,
      "è®¾å¤ĩ": 3235,
      "å¥³æĢ§": 3236,
      "å¾¡åı²": 3237,
      "76": 3238,
      "èĬĿ": 3239,
      "éĩįçĤ¹": 3240,
      "çŁ¥éģĵ": 3241,
      "æ¾³å¤§åĪ©äºļ": 3242,
      "ï¼ı": 3243,
      "ç½ķ": 3244,
      "ï¼ĮâĢľ": 3245,
      "çļĦåīį": 3246,
      "åĬłåĿ¡": 3247,
      "åıĶ": 3248,
      "çĬ¶æĢģ": 3249,
      "çļĦä¸»": 3250,
      "åºĬ": 3251,
      "ä»»åĳ½": 3252,
      "å°Ĩåħ¶": 3253,
      "åĤ¨": 3254,
      "ob": 3255,
      "å½Ń": 3256,
      "çĶŁéķ¿": 3257,
      "åĨľä¸ļ": 3258,
      "èĩ³ä»Ĭ": 3259,
      "æĺİæ²»": 3260,
      "åĦ¿ç«¥": 3261,
      "å±¯": 3262,
      "å°Ķå¾·": 3263,
      "æĶ¹éĿ©": 3264,
      "ç¼ĸåı·": 3265,
      "æį·": 3266,
      "ä»ĳ": 3267,
      "åĿĽ": 3268,
      "ç¾İæľ¯": 3269,
      "1994": 3270,
      "ä¸Ģä½į": 3271,
      "åĲįåįķ": 3272,
      "è¶ĬåįĹ": 3273,
      "åĩłä¹İ": 3274,
      "è¡ĮæĶ¿åĮº": 3275,
      "è¦Ĩ": 3276,
      "æĶ¿çŃĸ": 3277,
      "ç»ĵå©ļ": 3278,
      "est": 3279,
      "å¹ħ": 3280,
      "åĪĿæľŁ": 3281,
      "è§£æĶ¾": 3282,
      "å°Ķçī¹": 3283,
      "æĸ°åĬłåĿ¡": 3284,
      "å¸ĥé²ģ": 3285,
      "éħĴåºĹ": 3286,
      "åľ³": 3287,
      "è§Ĥä¼Ĺ": 3288,
      "åĨ¯": 3289,
      "ang": 3290,
      "æĶ¹åıĺ": 3291,
      "æĬ¥åĳĬ": 3292,
      "ä¼ļåľ¨": 3293,
      "å²Ń": 3294,
      "1992": 3295,
      "çĥŁ": 3296,
      "çĹĽ": 3297,
      "II": 3298,
      "ä¹ĭåŃĲ": 3299,
      "èĻļ": 3300,
      "æľīæĹ¶": 3301,
      "æµ©": 3302,
      "ä½ľæĪĺ": 3303,
      "ç»ĦåĲĪ": 3304,
      "è¿Ĳè¡Į": 3305,
      "é«ĺéĢŁåħ¬è·¯": 3306,
      "ï¼īï¼Ľ": 3307,
      "çģ¾": 3308,
      "1950": 3309,
      "æŀĿ": 3310,
      "èīĩ": 3311,
      "æ¯ĶèµĽä¸Ń": 3312,
      "44": 3313,
      "95": 3314,
      "èĭ¦": 3315,
      "è½¦è¾Ĩ": 3316,
      "åı¸ä»¤": 3317,
      "æĿ¡ä»¶": 3318,
      "ä»°": 3319,
      "è´ŀ": 3320,
      "ä¹¾éļĨ": 3321,
      "æĽ´åĲįä¸º": 3322,
      "æĺ¯ä¸ŃåĽ½": 3323,
      "ç¨İ": 3324,
      "é¢ĨåŁŁ": 3325,
      "èİ·å¾ĹäºĨ": 3326,
      "ä¸ĥå¹´": 3327,
      "ip": 3328,
      "Ñģ": 3329,
      "ä¼ļçļĦ": 3330,
      "æĽ¾åľ¨": 3331,
      "æĮģç»Ń": 3332,
      "çłĶç©¶æīĢ": 3333,
      "è¶£": 3334,
      "æ¶ħ": 3335,
      "ä¹Ŀå¹´": 3336,
      "Ġ1": 3337,
      "å¸¸è§ģ": 3338,
      "çļĦä¸Ģç§į": 3339,
      "èīĺ": 3340,
      "åħ¥åı£": 3341,
      "1993": 3342,
      "éĩįè¦ģçļĦ": 3343,
      "åĩıå°ĳ": 3344,
      "âĨĴ": 3345,
      "ç±»åŀĭ": 3346,
      "çĸ«": 3347,
      "æ§": 3348,
      "ç¬¬åħŃ": 3349,
      "å¥¥æĸ¯": 3350,
      "ç½ĳç»ľ": 3351,
      "åľ¨è¿Ļ": 3352,
      "å»ºè®®": 3353,
      "ç®Ģä»ĭ": 3354,
      "æ£Ģå¯ŁéĻ¢": 3355,
      "éĩĮçļĦ": 3356,
      "å½±çīĩ": 3357,
      "æĶ¶å½ķ": 3358,
      "2023": 3359,
      "åĩºäºĨ": 3360,
      "å¦Ī": 3361,
      "çĨŁ": 3362,
      "è´¸æĺĵ": 3363,
      "ue": 3364,
      "æľīäºĽ": 3365,
      "éģ£": 3366,
      "ãĥĥ": 3367,
      "éĺŁä¼į": 3368,
      "çº¢èī²": 3369,
      "å·ŀçļĦ": 3370,
      "æĺŁæľŁ": 3371,
      "äº¤æµģ": 3372,
      "åľ°åĮºçļĦ": 3373,
      "åĩĨå¤ĩ": 3374,
      "èĪ°éĺŁ": 3375,
      "èķ¾": 3376,
      "IN": 3377,
      "å¹´è¢«": 3378,
      "å·§": 3379,
      "åıĳåĬ¨": 3380,
      "ç¤¾åĮº": 3381,
      "é¢ģå¥ĸ": 3382,
      "ÑĢ": 3383,
      "åı°åĮĹ": 3384,
      "å¹¿æ³Ľ": 3385,
      "ãĢĤãĢĬ": 3386,
      "65": 3387,
      "éģį": 3388,
      "å°ĶçļĦ": 3389,
      "è±Ĩ": 3390,
      "è®°å½ķ": 3391,
      "åįłé¢Ĩ": 3392,
      "UTC": 3393,
      "ç»ĵåĲĪ": 3394,
      "æ¢¯": 3395,
      "èĬ³": 3396,
      "å¹³åı°": 3397,
      "æĻ®éĢļ": 3398,
      "èŃ¦å¯Ł": 3399,
      "åĩ½": 3400,
      "ä»¥åĲİ": 3401,
      "ç¬ĳ": 3402,
      "åıĬåħ¶": 3403,
      "æĶ¹åĪ¶": 3404,
      "ç¡ķ": 3405,
      "å¹´åīį": 3406,
      "é«ĺä¸Ń": 3407,
      "St": 3408,
      "TV": 3409,
      "éĥ½ä¼ļ": 3410,
      "å¤«äºº": 3411,
      "çļĦä¸Ģéĥ¨åĪĨ": 3412,
      "ä¼¯çī¹": 3413,
      "äººæ°ĳæ£Ģå¯ŁéĻ¢": 3414,
      "çĪĨåıĳ": 3415,
      "ãĢįãĢģãĢĮ": 3416,
      "éĦ": 3417,
      "ä¸§": 3418,
      "åľ°éľĩ": 3419,
      "åħ¬åħĥ": 3420,
      "åįģåĪĨ": 3421,
      "æľºä¼ļ": 3422,
      "éĻĨåĨĽ": 3423,
      "åĮ»åŃ¦": 3424,
      "å½°": 3425,
      "çľģä»½": 3426,
      "åĽ½å®¶éĺŁ": 3427,
      "82": 3428,
      "ç¼ĸåī§": 3429,
      "å§Ķä¼ļ": 3430,
      "åĲı": 3431,
      "å±ı": 3432,
      "èĢĮåľ¨": 3433,
      "åĪ¶åº¦": 3434,
      "éĿ¢çļĦ": 3435,
      "æ³¢åħ°": 3436,
      "åĩºçīĪç¤¾": 3437,
      "å¤ªå¹³æ´ĭ": 3438,
      "çİĭæľĿ": 3439,
      "æĹłçº¿": 3440,
      "1980": 3441,
      "æĮĤ": 3442,
      "è·¯çº¿": 3443,
      "åŀĴ": 3444,
      "æİ¥è¿ĳ": 3445,
      "åħ´å»º": 3446,
      "çĩĥ": 3447,
      "æĺŃåĴĮ": 3448,
      "æĺ¯æĮĩ": 3449,
      "æķĻåĮº": 3450,
      "å½ĵéĢī": 3451,
      "ãĤ¢": 3452,
      "ä¹Ķæ²»": 3453,
      "Ġ2": 3454,
      "Ġæĸ°": 3455,
      "æµ®": 3456,
      "å¹¶åħ¥": 3457,
      "éļ§": 3458,
      "ong": 3459,
      "ç²Ĵ": 3460,
      "åľ°çļĦ": 3461,
      "åŁİåĮº": 3462,
      "å´Ķ": 3463,
      "if": 3464,
      "æİī": 3465,
      "æ¯ıä¸ª": 3466,
      "éī": 3467,
      "ä¸ĢåĲĮ": 3468,
      "åĩºèº«": 3469,
      "å®ļä¹ī": 3470,
      "åŁºéĩĳ": 3471,
      "æµĵ": 3472,
      "èĢĮæĪĲ": 3473,
      "åĢį": 3474,
      "å¤ºå¾Ĺ": 3475,
      "é«ĺåº¦": 3476,
      "ç»Łä¸Ģ": 3477,
      "å¹¿è¥¿": 3478,
      "ess": 3479,
      "å§Ĩæĸ¯": 3480,
      "éģŃåĪ°": 3481,
      "up": 3482,
      "çī©è´¨": 3483,
      "çĸı": 3484,
      "èĶ¡": 3485,
      "å½¼å¾Ĺ": 3486,
      "ry": 3487,
      "ä¸Ģå¹´": 3488,
      "æ³ķåħ°": 3489,
      "å½ĵä¸Ń": 3490,
      "å¹³æĸ¹åħ¬éĩĮ": 3491,
      "åįµ": 3492,
      "å°¸": 3493,
      "ãĤ¯": 3494,
      "äºĳåįĹ": 3495,
      "åĲ¯çĶ¨": 3496,
      "çļĦæĹ¶åĢĻ": 3497,
      "å¯¹æīĭ": 3498,
      "çĻ»åľº": 3499,
      "é¼ł": 3500,
      "åįĴ": 3501,
      "éķ¿çº¦": 3502,
      "çĿ¡": 3503,
      "å±ķå¼Ģ": 3504,
      "å¹³æĸ¹ç±³": 3505,
      "åĪĨåŃĲ": 3506,
      "åĮºä¸º": 3507,
      "ãĥª": 3508,
      "æ®ĸæ°ĳ": 3509,
      "NA": 3510,
      "åĨħéĥ¨": 3511,
      "å¨±ä¹Ĳ": 3512,
      "çĭĤ": 3513,
      "åįĹåĮĹ": 3514,
      "å¼ķèµ·": 3515,
      "åįĬå²Ľ": 3516,
      "å¿«éĢŁ": 3517,
      "æĥħåĨµä¸ĭ": 3518,
      "æ±½è½¦": 3519,
      "è®·": 3520,
      "èĢĢ": 3521,
      "ä¿ĥ": 3522,
      "å¥³åĦ¿": 3523,
      "ç»Łè®¡": 3524,
      "ç¢³": 3525,
      "æ°§åĮĸ": 3526,
      "ĠãĢĤ": 3527,
      "æ¶¦": 3528,
      "1991": 3529,
      "è®®éĻ¢": 3530,
      "çļĩå®¶": 3531,
      "..": 3532,
      "åĬ²": 3533,
      "éĺª": 3534,
      "çī¹çļĦ": 3535,
      "åħ¥éĢī": 3536,
      "çĤİ": 3537,
      "éļ§éģĵ": 3538,
      "åľ°åĪ©": 3539,
      "ä¼łè¯´": 3540,
      "æľªèĥ½": 3541,
      "éŃĤ": 3542,
      "åı¯èĥ½æĺ¯": 3543,
      "èĨľ": 3544,
      "åİĺç±³": 3545,
      "çļĦé¦ĸ": 3546,
      "åħ¬ä¸»": 3547,
      "çĶ¨æĿ¥": 3548,
      "çľł": 3549,
      "ä¾ł": 3550,
      "é©¬åħĭ": 3551,
      "éĵ¾": 3552,
      "æĶ¿æĿĥ": 3553,
      "ä½ĵçļĦ": 3554,
      "ç®Ń": 3555,
      "èĳĹåĲįçļĦ": 3556,
      "æī¹åĩĨ": 3557,
      "æĭĴç»Ŀ": 3558,
      "ah": 3559,
      "çİ»": 3560,
      "æĻĵ": 3561,
      "åįģå¹´": 3562,
      "å¡ĺ": 3563,
      "èĻĳ": 3564,
      "å¤ļä¸ª": 3565,
      "å®ĺåĳĺ": 3566,
      "åıĺæĪĲ": 3567,
      "%ãĢĤ": 3568,
      "Ġt": 3569,
      "å®Ļ": 3570,
      "èĩªåĬ¨": 3571,
      "æıĴ": 3572,
      "åĭĥ": 3573,
      "è¾¹çķĮ": 3574,
      "é¹¤": 3575,
      "éĢıè¿ĩ": 3576,
      "Al": 3577,
      "ok": 3578,
      "è¯¦": 3579,
      "æĪĺåĲİ": 3580,
      "åĬĽçļĦ": 3581,
      "æ·®": 3582,
      "ä¹ĲåĽ¢": 3583,
      "è¿Ĳè¾ĵ": 3584,
      "ç¿ģ": 3585,
      "æĸĩçī©ä¿ĿæĬ¤": 3586,
      "è¿ħ": 3587,
      "ä¹ĭå¤ĸ": 3588,
      "å±±è¥¿": 3589,
      "ä¿¡åı·": 3590,
      "ä¼Ĭæĸ¯": 3591,
      "èĥľåĪ©": 3592,
      "%ï¼Į": 3593,
      "éĹª": 3594,
      "æ´Ĺ": 3595,
      "é¥®": 3596,
      "56": 3597,
      "ge": 3598,
      "è¯ŀ": 3599,
      "æ¬£": 3600,
      "å¸ĥæĭī": 3601,
      "éľ¸": 3602,
      "èĮĤ": 3603,
      "å¹´å¼Ģå§ĭ": 3604,
      "ä¹³": 3605,
      "å¤§æ¥¼": 3606,
      "æľīä¸Ģä¸ª": 3607,
      "åĩºåı£": 3608,
      "ä¸ªæľĪ": 3609,
      "ç¬¬åįģ": 3610,
      "ç¼ĵ": 3611,
      "æİ¥å£¤": 3612,
      "1945": 3613,
      "æ·±åľ³": 3614,
      "æģĴæĺŁ": 3615,
      "åľ¨ç¾İåĽ½": 3616,
      "ä¸įåı¯": 3617,
      "çĻ½èī²": 3618,
      "èµĦæºĲ": 3619,
      "æĳĦå½±": 3620,
      "äºŃ": 3621,
      "æĸ¯åŁº": 3622,
      "æķĻåŃ¦": 3623,
      "çĽ¸ä¼¼": 3624,
      "500": 3625,
      "æĿŃ": 3626,
      "æĹ¥èĩ³": 3627,
      "å¯®": 3628,
      "ä¸ľè¥¿": 3629,
      "åį¡å°Ķ": 3630,
      "Ġï¼Į": 3631,
      "çļĦçī¹": 3632,
      "å¤§æ¡¥": 3633,
      "æľºæ¢°": 3634,
      "ert": 3635,
      "åŁºåĽł": 3636,
      "1988": 3637,
      "éļıçĿĢ": 3638,
      "Ġv": 3639,
      "æ³¥": 3640,
      "çĶŁåĳ½": 3641,
      "å¥¥åľ°åĪ©": 3642,
      "éĿŀæ´²": 3643,
      "è¯ķåĽ¾": 3644,
      "åĪºåı²": 3645,
      "oh": 3646,
      "ç§Ĵ": 3647,
      "ä»ĸæĺ¯": 3648,
      "çŃ¹": 3649,
      "å¤ļæ¬¡": 3650,
      "ãĢĤï¼Ī": 3651,
      "ç¾Ĭ": 3652,
      "çĽ¸å¯¹": 3653,
      "æ¹¿": 3654,
      "éĶ®": 3655,
      "æŃ¦åĻ¨": 3656,
      "Ġçİĭ": 3657,
      "æĹ¦": 3658,
      "åĽ½çļĦ": 3659,
      "åĬĽéĩı": 3660,
      "Ġ195": 3661,
      "ä¸įå°ĳ": 3662,
      "æĸ¹çļĦ": 3663,
      "180": 3664,
      "1986": 3665,
      "ev": 3666,
      "çŀ": 3667,
      "æī®": 3668,
      "å»Ĭ": 3669,
      "è¡¨éĿ¢": 3670,
      "ä¹¦è®°": 3671,
      "æıĲåĲį": 3672,
      "58": 3673,
      "å¤§å¤ļæķ°": 3674,
      "æķĻä¼ļ": 3675,
      "çĵľ": 3676,
      "éĺ¿æĭīä¼¯": 3677,
      "åĽłèĢĮ": 3678,
      "éĩĳå±ŀ": 3679,
      "éĩįå»º": 3680,
      "æ²³åĮĹ": 3681,
      "èģĮæ£Ĵ": 3682,
      "æĹħæ¸¸": 3683,
      "æĿĲæĸĻ": 3684,
      "æ¦Ĥå¿µ": 3685,
      ")ãĢĤ": 3686,
      "io": 3687,
      "çº¿çļĦ": 3688,
      "åı¸é©¬": 3689,
      "çĳŀå£«": 3690,
      "æī§å¯¼": 3691,
      "éķ¿æľŁ": 3692,
      "è£ķ": 3693,
      "1960": 3694,
      "çļĦå¤ĸ": 3695,
      "ç¬¬ä¸Ģä¸ª": 3696,
      "å°¼æĸ¯": 3697,
      "ãĥ¼ãĥ": 3698,
      "æĭ³": 3699,
      "åĪ°è¾¾": 3700,
      "æĢ»éĥ¨": 3701,
      "é¥Ń": 3702,
      "BA": 3703,
      "âĢĿãĢģ": 3704,
      "æĺİæĺ¾": 3705,
      "å¥¥æŀĹ": 3706,
      "è§£éĩĬ": 3707,
      "çļĦå½±åĵį": 3708,
      "äºļåĨĽ": 3709,
      "æķ°åŃĹ": 3710,
      "èĭıæł¼åħ°": 3711,
      "ç½ĳç«Ļ": 3712,
      "åħ¬çĪµ": 3713,
      "åĿĿ": 3714,
      "ä»·åĢ¼": 3715,
      "èģļèĲ½": 3716,
      "Ġand": 3717,
      "å¼¥": 3718,
      "çĶµåı°": 3719,
      "ç§įåŃĲ": 3720,
      "å®īå¾·": 3721,
      "ãĤĵ": 3722,
      "åıĤèĢĥ": 3723,
      "å®ŀæĸ½": 3724,
      "æ±Łè¥¿": 3725,
      "ç²¤": 3726,
      "æĪĲä¸ºäºĨ": 3727,
      "æ¯ıå¹´": 3728,
      "å¤±åİ»": 3729,
      "æĿ°åħĭ": 3730,
      "å§¬": 3731,
      "äºļåİĨ": 3732,
      "æĽ¾ä»»": 3733,
      "42": 3734,
      "uc": 3735,
      "æĩ": 3736,
      "å¹½": 3737,
      "è¢ĸ": 3738,
      "éĽĮ": 3739,
      "å¹¶æ²¡æľī": 3740,
      "åĬłä¸Ĭ": 3741,
      "éĥ½æľī": 3742,
      "è¿ĶåĽŀ": 3743,
      "ç¼ĸçłģä¸ºP": 3744,
      "æĸľ": 3745,
      "å¡ĳ": 3746,
      "ant": 3747,
      "åį«çĶŁ": 3748,
      "è§Ħå®ļ": 3749,
      "éī´": 3750,
      "ain": 3751,
      "ĠãĢĮ": 3752,
      "æľĪåįĩ": 3753,
      "èĭ±éĽĦ": 3754,
      "åĭ¤": 3755,
      "çŁ¥åİ¿": 3756,
      "ç§»åĬ¨": 3757,
      "å²³": 3758,
      "187": 3759,
      "æĺ¯ä¸ĢåĲį": 3760,
      "å¢¨è¥¿": 3761,
      "Ġ3": 3762,
      "ĠæľĢä½³": 3763,
      "ä¸Ļ": 3764,
      "å¤·": 3765,
      "é»ĳèī²": 3766,
      "çĹħæ¯Ĵ": 3767,
      "Ð¾Ð": 3768,
      "98": 3769,
      "çł²": 3770,
      "åŁºäºİ": 3771,
      "ç¡®å®ļ": 3772,
      "åĽĽå·Ŀçľģ": 3773,
      "æĸĩçī©ä¿ĿæĬ¤åįķä½į": 3774,
      "ik": 3775,
      "å®ı": 3776,
      "åĴĮå¹³": 3777,
      "èĥİ": 3778,
      "æĢ»çĿ£": 3779,
      "åİĦ": 3780,
      "èĤĮ": 3781,
      "å®īå¾½": 3782,
      "å®ŀçİ°": 3783,
      "æĲľ": 3784,
      "æĺ¯ä»¥": 3785,
      "åĽ½åĨħ": 3786,
      "æµ·å²¸": 3787,
      "è¿Ľè¡ĮäºĨ": 3788,
      "åĪĽç«ĭ": 3789,
      "ä¹Įåħĭåħ°": 3790,
      "IS": 3791,
      "ä¼ĺç§Ģ": 3792,
      "å±±èĦī": 3793,
      "åħĥç´ł": 3794,
      "ä»İäºĭ": 3795,
      "æŃ»åĲİ": 3796,
      "å¤§åĮº": 3797,
      "å¿Ĩ": 3798,
      "éĢļè½¦": 3799,
      "é¾Ł": 3800,
      "æĶ¶åħ¥": 3801,
      "æħ§": 3802,
      "æ¾³æ´²": 3803,
      "å¥¥æŀĹåĮ¹": 3804,
      "æŁĶ": 3805,
      "äº§ä¸ļ": 3806,
      "Ġå¼ł": 3807,
      "æµ·æĭĶ": 3808,
      "çĬ¬": 3809,
      "ä¸ĢæŃ¥": 3810,
      "åĩºåľº": 3811,
      "ä¸īè§Ĵ": 3812,
      "å¸ĤçļĦ": 3813,
      "æŃ¤æĹ¶": 3814,
      "ãģĹ": 3815,
      "åŃ©åŃĲ": 3816,
      "å¢¨è¥¿åĵ¥": 3817,
      "ä¸¾äºº": 3818,
      "åŃ¦ç§ĳ": 3819,
      "1989": 3820,
      "çĪ¶æ¯į": 3821,
      "æ°ĶåĢĻ": 3822,
      "åħ¸ç¤¼": 3823,
      "çİĽä¸½": 3824,
      "æľīæķĪ": 3825,
      "åı¯åīįå¾Ģ": 3826,
      "åĿİ": 3827,
      "ãģĭ": 3828,
      "ä¿ĿçķĻ": 3829,
      "ä½ĽæķĻ": 3830,
      "ä»²": 3831,
      "éĵĥ": 3832,
      "éĶģ": 3833,
      "å¤ªåŃĲ": 3834,
      "å°ĳå¥³": 3835,
      "æĶ¶è§Ĩ": 3836,
      "å¨ģå°Ķ": 3837,
      "åĹ£": 3838,
      "43": 3839,
      "æĸ¯å¡Ķ": 3840,
      "åĪĹä¸º": 3841,
      "åįģäºĮå¹´": 3842,
      "çĴĥ": 3843,
      "çĶŁæĢģ": 3844,
      "åħ¶å®ĥ": 3845,
      "çĶ¨çļĦ": 3846,
      "æ¬²": 3847,
      "è·¯åı£": 3848,
      "150": 3849,
      "æī¹è¯Ħ": 3850,
      "æłĸæģ¯": 3851,
      "éĤĢè¯·": 3852,
      "96": 3853,
      "å²Ĺ": 3854,
      "åı¤ä»£": 3855,
      "åĳ¨è¾¹": 3856,
      "éĤ®æĶ¿": 3857,
      "æĮĳæĪĺ": 3858,
      "åŃ¤": 3859,
      "å¦ĥ": 3860,
      "åĽĽä¸ª": 3861,
      "éĽĨä¸Ń": 3862,
      "åĨįåº¦": 3863,
      "åĪĽéĢł": 3864,
      "åĪ¸": 3865,
      "ä¸įåĨį": 3866,
      "å°Ķçľģ": 3867,
      "å¼ĢéĢļ": 3868,
      "åİŁå§ĭ": 3869,
      "èįĴ": 3870,
      "æŃ£åľ¨": 3871,
      "éħ¶": 3872,
      "èµ·æĿ¥": 3873,
      "ä¸ĩåħĥ": 3874,
      "ey": 3875,
      "æĢĴ": 3876,
      "ãĢĭï¼ļ": 3877,
      "ãģ¨": 3878,
      "å¿ĥçĲĨ": 3879,
      "é²į": 3880,
      "æ¸ħæľĿ": 3881,
      "æľªæĿ¥": 3882,
      "è²": 3883,
      "è¯¢": 3884,
      "æĹ¥èµ·": 3885,
      "å°ıç»Ħ": 3886,
      "æĭīä¸ģ": 3887,
      "ç¼ħ": 3888,
      "èĳ£äºĭ": 3889,
      "ä¸¸": 3890,
      "å·¢": 3891,
      "éĢĴ": 3892,
      "ä¹ĭæĪĺ": 3893,
      "ä¸ĩäºº": 3894,
      "ä¸ĸçķĮå¤§æĪĺ": 3895,
      "é¸£": 3896,
      "æĿĢæŃ»": 3897,
      "æ¹ĸåĮĹ": 3898,
      "1970": 3899,
      "ud": 3900,
      "å®¶çļĦ": 3901,
      "å¹¿åĳĬ": 3902,
      "1985": 3903,
      "å¤§èĩ´": 3904,
      "ç½ļ": 3905,
      "è°ĵ": 3906,
      "è´¨éĩı": 3907,
      "41": 3908,
      "æĪĴ": 3909,
      "æĿ¥åĪ°": 3910,
      "æĪıåī§": 3911,
      "åħĪçĶŁ": 3912,
      "åįĩçº§": 3913,
      "æŀĦæĪĲ": 3914,
      "äºīè®®": 3915,
      "åģľæŃ¢": 3916,
      "æ¬¢è¿İ": 3917,
      "èµ´": 3918,
      "å¿į": 3919,
      "åĲĮä¸Ģ": 3920,
      "æĦıä¸º": 3921,
      "åıªæĺ¯": 3922,
      "è´¡çĮ®": 3923,
      "èĥ¶": 3924,
      "æĴ°": 3925,
      "äº¤æĺĵ": 3926,
      "çĵ¶": 3927,
      "åİĨåı²ä¸Ĭ": 3928,
      "300": 3929,
      "åıĳå°Ħ": 3930,
      "ç¥ŀç»ı": 3931,
      "å³¡": 3932,
      "éªĳå£«": 3933,
      "çļĦæķħäºĭ": 3934,
      "åİĨä»»": 3935,
      "æł¡éķ¿": 3936,
      "åıĸæ¶Ī": 3937,
      "è¿ĲåĬ¨ä¼ļ": 3938,
      "ĠIn": 3939,
      "igh": 3940,
      "ç¾½æ¯ĽçĲĥ": 3941,
      "æľĢåĲİä¸Ģ": 3942,
      "éĺħ": 3943,
      "åĲĮæĦı": 3944,
      "çĭ¼": 3945,
      "æĬķç¥¨": 3946,
      "çļĦåľ°æĸ¹": 3947,
      "å£«åħµ": 3948,
      "å©Ĩ": 3949,
      "ä¸Ĭæµ·å¸Ĥ": 3950,
      "å«ģ": 3951,
      "Ġå¹´": 3952,
      "éĢĨ": 3953,
      "æľ¬åľ°åĮº": 3954,
      "å·ŀåĪºåı²": 3955,
      "èĤĥ": 3956,
      "ä¸¤ç§į": 3957,
      "å¨ĥ": 3958,
      "æĦıæĢĿ": 3959,
      "è§£åĨ³": 3960,
      "éļıèĳĹ": 3961,
      "æĤ¬": 3962,
      "æµĭè¯ķ": 3963,
      "åĩºçİ°åľ¨": 3964,
      "éĶĢåĶ®": 3965,
      "å°¤åħ¶": 3966,
      "ep": 3967,
      "ä¸ľæĸ¹": 3968,
      "ä½¿çĶ¨çļĦ": 3969,
      "èĸĦ": 3970,
      "åįģåŃĹ": 3971,
      "è§Ĩä¸º": 3972,
      "åĢ¾": 3973,
      "åıªèĥ½": 3974,
      "1984": 3975,
      "æ··åĲĪ": 3976,
      "æĶ¹åĪ¶ä¸º": 3977,
      "è¿Ŀ": 3978,
      "éĥĬ": 3979,
      "ä¸įæĸŃ": 3980,
      "é©¬å°Ķ": 3981,
      "åı°ä¸Ń": 3982,
      "ina": 3983,
      "ä¸ĩåİĨ": 3984,
      "åį¢çĵ¦": 3985,
      "ĠéĻĪ": 3986,
      "ä¸²": 3987,
      "åī§æľ¬": 3988,
      "åĳ½åĲįä¸º": 3989,
      "çľĭåĪ°": 3990,
      "å»¶ä¼¸": 3991,
      "å®ĩå®Ļ": 3992,
      "ä¸Ģåº¦": 3993,
      "äººå£«": 3994,
      "æĭĵ": 3995,
      "åĬ¨ä½ľ": 3996,
      "è¯¾ç¨ĭ": 3997,
      "AT": 3998,
      "æĺ¯åĲ¦": 3999,
      "æ³Ĭ": 4000,
      "è¾°": 4001,
      "åįĹæĸ¹": 4002,
      "çİ°æĹ¶": 4003,
      "ort": 4004,
      "åįıè®®": 4005,
      "ä»ĭç»į": 4006,
      "èĢĮæĺ¯": 4007,
      "éĥ½å¸Ĥ": 4008,
      "æĺİæĺŁ": 4009,
      "é¢Ĩè¢ĸ": 4010,
      "1987": 4011,
      "æłĩæľ¬": 4012,
      "é£Łçī©": 4013,
      "å¤±è´¥": 4014,
      "èµ°åĲĳ": 4015,
      "99": 4016,
      "åįľ": 4017,
      "ç®±": 4018,
      "ä¿ĿåŃĺ": 4019,
      "çĽ´èĩ³": 4020,
      "ç¿»è¯ĳ": 4021,
      "Ðº": 4022,
      "åĮĪ": 4023,
      "åĽ¢éĺŁ": 4024,
      "éªĳåħµ": 4025,
      "åĵ²åŃ¦": 4026,
      "åľ°å¸¦": 4027,
      "åĮĸçļĦ": 4028,
      "ãģĨ": 4029,
      "ç±³å°Ķ": 4030,
      "æº¶": 4031,
      "ç¨ĭåº¦": 4032,
      "åĺ´": 4033,
      "é³Ħ": 4034,
      "è¤Ĳ": 4035,
      "ä¼Ļ": 4036,
      "ä¸ŃéĹ´": 4037,
      "æľīäºº": 4038,
      "èĥģ": 4039,
      "é«ĺçļĦ": 4040,
      "ãĤ¿": 4041,
      "èħº": 4042,
      "åıĮæĸ¹": 4043,
      "Ġ4": 4044,
      "ä¸ĸçķĮæĿ¯": 4045,
      "é»Ħéĩĳ": 4046,
      "ç§ĺä¹¦": 4047,
      "åĬ±": 4048,
      "æ°´å¹³": 4049,
      "å®¢è¿Ĳ": 4050,
      "ity": 4051,
      "å¤ıåŃ£": 4052,
      "âĢĿãĢģâĢľ": 4053,
      "å½»": 4054,
      "åī©": 4055,
      "åħ¶ä½Ļ": 4056,
      "è·ĥ": 4057,
      "éĩĳæĽ²": 4058,
      "éĿĴå²Ľ": 4059,
      "ãģª": 4060,
      "åĵģçīĮ": 4061,
      "æĮĩå¯¼": 4062,
      "å®Įæķ´": 4063,
      "ä¹¡éģĵ": 4064,
      "æĲ¬": 4065,
      "RE": 4066,
      "SE": 4067,
      "ew": 4068,
      "å¤§å¥ĸ": 4069,
      "è¡į": 4070,
      "ç¥Ģ": 4071,
      "ç¿ł": 4072,
      "âĶ": 4073,
      "å¹´çĶ±": 4074,
      "æĬ½": 4075,
      "åŀĤ": 4076,
      "1944": 4077,
      "éĢĢå½¹": 4078,
      "ä»ªå¼ı": 4079,
      "çĶ¸": 4080,
      "åĩŃ": 4081,
      "å¯Ħ": 4082,
      "çŁ¶": 4083,
      "æĸ¹æ¡Ī": 4084,
      "æ»©": 4085,
      "éģĹäº§": 4086,
      "çĳŀåħ¸": 4087,
      "æĹħå®¢": 4088,
      "çĸ¾çĹħ": 4089,
      "çļĦçłĶç©¶": 4090,
      "æĹ¥çļĦ": 4091,
      "è½°": 4092,
      "ç¬¬ä¸ĥ": 4093,
      "äºļç§į": 4094,
      "èĤ¥": 4095,
      "å¡«": 4096,
      "é¦ĸéĥ½": 4097,
      "å¨ĺ": 4098,
      "è¯´æ³ķ": 4099,
      "åıĪåĲį": 4100,
      "äº²çİĭ": 4101,
      "åĺīéĿĸ": 4102,
      "è¿ĩç¨ĭä¸Ń": 4103,
      "åĩ½æķ°": 4104,
      "64": 4105,
      "è¹": 4106,
      "ĠãĢİ": 4107,
      "ä»¿": 4108,
      "ä¹ı": 4109,
      "éĽĢ": 4110,
      "èĢĮè¢«": 4111,
      "èĩ³å°ĳ": 4112,
      "ä¹Łä¼ļ": 4113,
      "çļĩåĲİ": 4114,
      "é¢ľèī²": 4115,
      "son": 4116,
      "Ġ/": 4117,
      "æĺ¯ä½įäºİ": 4118,
      "åĲİæľŁ": 4119,
      "æ´ģ": 4120,
      "çĶµåĬĽ": 4121,
      "æķĻå¸Ī": 4122,
      "åģ¥åº·": 4123,
      "'s": 4124,
      "ä¸Ģå®¶": 4125,
      "çī¹æ®Ĭ": 4126,
      "æĪĸæĺ¯": 4127,
      "åİĿ": 4128,
      "æĻ¨": 4129,
      "éĵº": 4130,
      "BS": 4131,
      "åĩºæĿ¥": 4132,
      "ä¸įå¾Ĺ": 4133,
      "çľģçº§": 4134,
      "èħ¾": 4135,
      "çĽĳçĿ£": 4136,
      "åĨĴ": 4137,
      "æĦıè¯Ĩ": 4138,
      "è¢«è®¤ä¸ºæĺ¯": 4139,
      "ÑĤ": 4140,
      "åĲĪæĪĲ": 4141,
      "ãģŁ": 4142,
      "ç©ºåĨĽ": 4143,
      "æĶ¾å¼ĥ": 4144,
      "æķĪæŀľ": 4145,
      "æī°": 4146,
      "ç¨£": 4147,
      "çº§èģĶèµĽ": 4148,
      "æĦıä¹ī": 4149,
      "åºĶè¯¥": 4150,
      "åħ«å¹´": 4151,
      "1941": 4152,
      "å¾ĭå®¾": 4153,
      "èĢ¶ç¨£": 4154,
      "èı²å¾ĭå®¾": 4155,
      "èĤ¡ä»½": 4156,
      "02": 4157,
      "æĹ¢": 4158,
      "æĹº": 4159,
      "éģĵåħī": 4160,
      "å¤ĸäº¤": 4161,
      "åŃ£åĲİ": 4162,
      "ç¢į": 4163,
      "1979": 4164,
      "è¯ģæĺİ": 4165,
      "æ³¨æĦı": 4166,
      "01": 4167,
      "åĲ¨": 4168,
      "å±±åİ¿": 4169,
      "åī§éĻ¢": 4170,
      "1949": 4171,
      "å®£ä¼ł": 4172,
      "åĤħ": 4173,
      "çļĦé«ĺ": 4174,
      "ä¸ĢæĿ¡": 4175,
      "ä»¥åīį": 4176,
      "è¡ĮæĺŁ": 4177,
      "ä¾¦": 4178,
      "åħ±äº§": 4179,
      "å²ģæĹ¶": 4180,
      "çł´åĿı": 4181,
      "åŁºçĿ£æķĻ": 4182,
      "67": 4183,
      "åıī": 4184,
      "1920": 4185,
      "ä½ľèĢħ": 4186,
      "å°ıçļĦ": 4187,
      "äºĭä¸ļ": 4188,
      "å°±è¯»": 4189,
      "åħģè®¸": 4190,
      "æľ´": 4191,
      "åĽ½ä¼ļ": 4192,
      "çº·": 4193,
      "åĪĽåĬŀ": 4194,
      "èį¯çī©": 4195,
      "åĽ½ç«ĭ": 4196,
      "å¤§èµĽ": 4197,
      "åħĭæĭī": 4198,
      "åĨħéĺģ": 4199,
      "éĺŁçļĦ": 4200,
      "å¦ĤæŃ¤": 4201,
      "é¸¿": 4202,
      "æ³°åĽ½": 4203,
      "Ġä¸Ń": 4204,
      "çļĦä½ľåĵģ": 4205,
      "è¯Ĭ": 4206,
      "æĹ¥åĨĽ": 4207,
      "èĥ¸": 4208,
      "èĭĳ": 4209,
      "ä¸ĭè¾ĸ": 4210,
      "éĩĮäºļ": 4211,
      "å²ģçļĦ": 4212,
      "æ¯ķä¸ļäºİ": 4213,
      "our": 4214,
      "ä»ĩ": 4215,
      "äººæķ°": 4216,
      "æİĺ": 4217,
      "æ±¡": 4218,
      "ãĥŃ": 4219,
      "é¡µ": 4220,
      "ç»ıçĲĨ": 4221,
      "ãĤ·": 4222,
      "æĶ¹éĢł": 4223,
      "ä¿Ŀç½Ĺ": 4224,
      "å½¢æĢģ": 4225,
      "åĸĢ": 4226,
      "åı¦ä¸Ģä¸ª": 4227,
      "é¼»": 4228,
      "ç¨³å®ļ": 4229,
      "å¾Ĺä»¥": 4230,
      "å®īæİĴ": 4231,
      "çłĸ": 4232,
      "æķ°åŃ¦": 4233,
      "ä»İèĢĮ": 4234,
      "åŀĭçļĦ": 4235,
      "çŁ¥åĲį": 4236,
      "è®²è¿°": 4237,
      "çļĦç¬¬ä¸Ģ": 4238,
      "åħ¥ä¾µ": 4239,
      "ord": 4240,
      "äº¨åĪ©": 4241,
      "BC": 4242,
      "ä¸ŀ": 4243,
      "æľĪèĩ³": 4244,
      "è¿Ľä¸ĢæŃ¥": 4245,
      "ç«Ļåı°": 4246,
      "å±ķç¤º": 4247,
      "eg": 4248,
      "Ġé¦Ļæ¸¯": 4249,
      "ä¸Ńæľī": 4250,
      "æĺ¯ç¾İåĽ½": 4251,
      "ä¸īä¸ĸ": 4252,
      "ãĥŀ": 4253,
      "éĴ¦": 4254,
      "çĽĽé¡¿": 4255,
      "Ġå°ı": 4256,
      "å±Ī": 4257,
      "äºĭæķħ": 4258,
      "æ¯ĶåĪ©": 4259,
      "è´¢æĶ¿": 4260,
      "ç°": 4261,
      "ä¸Ĭéĺµ": 4262,
      "å¥¥å°Ķ": 4263,
      "è§ĦåĪĻ": 4264,
      "çİĩé¢Ĩ": 4265,
      "èĸĽ": 4266,
      "åĲĪå¹¶ä¸º": 4267,
      "èĳ¡èĲĦçīĻ": 4268,
      "57": 4269,
      "oun": 4270,
      "æĸ¯æĭī": 4271,
      "ä¼ļéķ¿": 4272,
      "åŁİåł¡": 4273,
      "çĽ®çļĦ": 4274,
      "å·´è¥¿": 4275,
      "æĦŁåĪ°": 4276,
      "ä¸»é¢ĺæĽ²": 4277,
      "çĬ¹å¤ª": 4278,
      "ä¸Ģå¸¦": 4279,
      "æĺ¯æĹ¥æľ¬": 4280,
      "æłª": 4281,
      "åĲİèĢħ": 4282,
      "èĬ±åĽŃ": 4283,
      "åĲ¸å¼ķ": 4284,
      "Ġ9": 4285,
      "ĠY": 4286,
      "ç»´å¥ĩ": 4287,
      "å¤Ħäºİ": 4288,
      "æĤ²": 4289,
      "ä»Ģä¹Ī": 4290,
      "æĪªèĩ³": 4291,
      "ç¯®çĲĥ": 4292,
      "Ġé«ĺ": 4293,
      "Ġéĩĳ": 4294,
      "æĿ¥è¯´": 4295,
      "åĽĽåįģ": 4296,
      "ç®¡è¾ĸ": 4297,
      "æīĵåĩ»": 4298,
      "è§Ĥå¯Ł": 4299,
      "åĬŀåħ¬å®¤": 4300,
      "man": 4301,
      "å¥Ķ": 4302,
      "è¥Ħ": 4303,
      "è¢ģ": 4304,
      "å¤ļç§į": 4305,
      "äºĮäºº": 4306,
      "å·¥åİĤ": 4307,
      "çĦ¦": 4308,
      "é¾ĻçļĦ": 4309,
      "æŃ¦æ±ī": 4310,
      "é³ŀ": 4311,
      "51": 4312,
      "å¼¯": 4313,
      "å±¿": 4314,
      "åī²": 4315,
      "æ¸Ķ": 4316,
      "ç»´æĮģ": 4317,
      "æĬķåħ¥": 4318,
      "è±¡å¾ģ": 4319,
      "èĩªè¡Į": 4320,
      "å¦Ļ": 4321,
      "æķĻå®Ĺ": 4322,
      "èįĲ": 4323,
      "åįİçĽĽé¡¿": 4324,
      "ç²Ĺ": 4325,
      "èĢĥè¯ķ": 4326,
      "ä¹¡è¯ķ": 4327,
      "éĤ£éĩĮ": 4328,
      "å½ĵæĹ¶çļĦ": 4329,
      "ç¤¾ä¼ļä¸»ä¹ī": 4330,
      "Ġin": 4331,
      "æĺ¯æ³ķåĽ½": 4332,
      "å¼¦": 4333,
      "åŃ¦ä¼ļ": 4334,
      "å¦Ĥä¸ĭ": 4335,
      "è£ħé¥°": 4336,
      "æŁıæŀĹ": 4337,
      "éģ¿åħį": 4338,
      "ug": 4339,
      "Ġ:": 4340,
      "Ġ19": 4341,
      "ä»¥å¤ĸ": 4342,
      "åľ°éĿ¢": 4343,
      "ãĤĬ": 4344,
      "æ·ĺ": 4345,
      "çĭŃ": 4346,
      "æĶ¶è´Ń": 4347,
      "å¼Łå¼Ł": 4348,
      "ç£¨": 4349,
      "èĩªæ²»åĮº": 4350,
      "çĺ¤": 4351,
      "AK": 4352,
      "äººåĴĮ": 4353,
      "æ°¢": 4354,
      "åŃ¦æľ¯": 4355,
      "åħ¬åĪĨ": 4356,
      "åįģå¤§": 4357,
      "æ£ĺ": 4358,
      "ark": 4359,
      "1942": 4360,
      "æĪĲç«ĭäºİ": 4361,
      "èŀº": 4362,
      "äº¿åħĥ": 4363,
      "è¸ª": 4364,
      "åľ°ä½į": 4365,
      "åħĭéĩĮæĸ¯": 4366,
      "çİ°åľº": 4367,
      "end": 4368,
      "1982": 4369,
      "è°ĥæķ´": 4370,
      "æ¤İ": 4371,
      "æŃ¢äºİ": 4372,
      "äºļåİĨå±±": 4373,
      "68": 4374,
      "Â°": 4375,
      "è¯ı": 4376,
      "åĩī": 4377,
      "å¹¶éĿŀ": 4378,
      "æĥŁ": 4379,
      "è²Į": 4380,
      "ix": 4381,
      "ly": 4382,
      "ä¹Łè¢«": 4383,
      "ãĤĭ": 4384,
      "çľģéģĵ": 4385,
      "åĳ¨åĽ´": 4386,
      "æĴŃæĶ¾": 4387,
      "ç»ĵæĿŁåĲİ": 4388,
      "åĽ½éĺ²": 4389,
      "åħ¬äº¤": 4390,
      "åħĭèİ±": 4391,
      "é£İæļ´": 4392,
      "èĲ¨åħĭ": 4393,
      "æºĲäºİ": 4394,
      "æ½Ń": 4395,
      "ast": 4396,
      "ç£ģ": 4397,
      "è§£æĶ¾åĨĽ": 4398,
      "ä¸ĳ": 4399,
      "å¤§éĺª": 4400,
      "åĩĢ": 4401,
      "ä¸»åľº": 4402,
      "éļĭ": 4403,
      "éŁµ": 4404,
      "åİŁåĲį": 4405,
      "åĲĦåľ°": 4406,
      "åľ¨è¯¥": 4407,
      "çİ°è±¡": 4408,
      "èģĶç³»": 4409,
      "å°ĳæķ°": 4410,
      "æĹ©å¹´": 4411,
      "ä¾įéĥİ": 4412,
      "æĹ¨": 4413,
      "æµ·æ´ĭ": 4414,
      "çħ¤": 4415,
      "è¯·æ±Ĥ": 4416,
      "å¥¥æŀĹåĮ¹åħĭ": 4417,
      "66": 4418,
      "å¯ĵ": 4419,
      "çĶŁçļĦ": 4420,
      "è¥¿æĸ¯": 4421,
      "åĮºéĹ´": 4422,
      "å§ľ": 4423,
      "å¤©åłĤ": 4424,
      "éĿ¢å¯¹": 4425,
      "åħ¨éķ¿": 4426,
      "ãĤ¸": 4427,
      "åıĤè°ĭ": 4428,
      "å½¢è±¡": 4429,
      "çĮĽ": 4430,
      "éĻĲåĪ¶": 4431,
      "æŁĲäºĽ": 4432,
      "ï¼ĮãĢĮ": 4433,
      "äººåľ¨": 4434,
      "éĻ¢éķ¿": 4435,
      "ç¨¿": 4436,
      "åī§åľº": 4437,
      "é¸Łç±»": 4438,
      "ç§ĺå¯Ĩ": 4439,
      "å¥¥è¿Ĳä¼ļ": 4440,
      "æī®æ¼Ķ": 4441,
      "åŃ£åĲİèµĽ": 4442,
      "54": 4443,
      "çĽ¾": 4444,
      "åĮĹæµ·": 4445,
      "åıĹä¼¤": 4446,
      "èĦı": 4447,
      "æ¨±": 4448,
      "éĻĦè¿ĳçļĦ": 4449,
      "å¯»æī¾": 4450,
      "å¥ĳ": 4451,
      "æĹ¥æľŁ": 4452,
      "åı²ä¸Ĭ": 4453,
      "æİ¥è§¦": 4454,
      "èľľ": 4455,
      "çĮªç¬¼": 4456,
      "åµ": 4457,
      "Ġéĺ¿": 4458,
      "è¿Ł": 4459,
      "åĬ¨åĬĽ": 4460,
      "å®īè£ħ": 4461,
      "æģŃ": 4462,
      "åĳ½ä»¤": 4463,
      "çĸĨ": 4464,
      "æī¿è®¤": 4465,
      "ä¸´æĹ¶": 4466,
      "ç»¿èī²": 4467,
      "è´Ńä¹°": 4468,
      "çİ»çĴĥ": 4469,
      "çĮªç¬¼èįī": 4470,
      "59": 4471,
      "ib": 4472,
      "çĶ±æŃ¤": 4473,
      "èĬĴ": 4474,
      "åįģåħŃ": 4475,
      "ç»ıåħ¸": 4476,
      "çĭĹ": 4477,
      "æĺ¯ä¸Ģä½į": 4478,
      "åĮ»çĸĹ": 4479,
      "ä¸Īå¤«": 4480,
      "çļĦåĲİ": 4481,
      "å°Ķåħ°": 4482,
      "çģĮ": 4483,
      "åī§éĽĨ": 4484,
      "é¡¾éĹ®": 4485,
      "è¢Ńåĩ»": 4486,
      "53": 4487,
      "CD": 4488,
      "çļĦåİŁ": 4489,
      "å°Ŀ": 4490,
      "æĹ¥æ²»": 4491,
      "åľ°çĤ¹": 4492,
      "æ±Ģ": 4493,
      "èĪĴ": 4494,
      "çķĶ": 4495,
      "äºĶæľĪ": 4496,
      "èĲ¨æĸ¯": 4497,
      "çªĹ": 4498,
      "ric": 4499,
      "å¹´é¾Ħ": 4500,
      "åİ¿äºº": 4501,
      "éĩįåºĨ": 4502,
      "æĻĭçº§": 4503,
      "88": 4504,
      "å¸ħ": 4505,
      "å·«": 4506,
      "éĻĢ": 4507,
      "å¸ĤåĮº": 4508,
      "æ²³æµģ": 4509,
      "çļĦä¸Ģåº§": 4510,
      "ç¢İ": 4511,
      "è¡¨æĺİ": 4512,
      "æŃ¦è£ħ": 4513,
      "çĬ¶åĨµ": 4514,
      "ç«ŀäºī": 4515,
      "æħķå®¹": 4516,
      "ç¡ķå£«": 4517,
      "èµ¶": 4518,
      "æĽ°": 4519,
      "æĬĳ": 4520,
      "é¢Ī": 4521,
      "æĸ¹è¨Ģ": 4522,
      "å¾ĹçŁ¥": 4523,
      "å¤©çļĩ": 4524,
      "å°Ĩä¼ļ": 4525,
      "æĽ²çĽ®": 4526,
      "1981": 4527,
      "èĢĥèĻĳ": 4528,
      "åĵ¥ä¼¦": 4529,
      "æĢĿæĥ³": 4530,
      "ãĢĢãĢĢ": 4531,
      "éļ¶å±ŀ": 4532,
      "éŃĶæ³ķ": 4533,
      "åĭĭç«ł": 4534,
      "çĽĨ": 4535,
      "åįģäºĶ": 4536,
      "æĪĺéĺŁ": 4537,
      "ä¹Łåľ¨": 4538,
      "æŃ£æľĪ": 4539,
      "ate": 4540,
      "ç»ĻäºĪ": 4541,
      "äººæ°ĳæĶ¿åºľ": 4542,
      "åĮ»çĶŁ": 4543,
      "å®¹æĺĵ": 4544,
      "åº·çĨĻ": 4545,
      "è´µå·ŀ": 4546,
      "è®¿éĹ®": 4547,
      "è¿ħéĢŁ": 4548,
      "çīµ": 4549,
      "æ°¨": 4550,
      "çĲ¼": 4551,
      "éķ¿åŃĲ": 4552,
      "åĪ©æĸ¯": 4553,
      "ç©´": 4554,
      "å½ĵå¹´": 4555,
      "å¥¹åľ¨": 4556,
      "å±ķè§Ī": 4557,
      "åĺīå®¾": 4558,
      "åĸľåī§": 4559,
      "èĬ¬åħ°": 4560,
      "77": 4561,
      "Ġä¸ī": 4562,
      "ä¸Ĭæľī": 4563,
      "ä¹ĭä¸Ń": 4564,
      "ç¥Ŀ": 4565,
      "çİ°ä»»": 4566,
      "ä¹Łåı¯ä»¥": 4567,
      "åľŁèĢ³": 4568,
      "åĶĲæľĿ": 4569,
      "In": 4570,
      "Ð»": 4571,
      "ä¹ĭä¸ĭ": 4572,
      "æĬ¢": 4573,
      "æľ¬åľ°": 4574,
      "å¾·çļĦ": 4575,
      "åľĨå½¢": 4576,
      "ä¼°è®¡": 4577,
      "qu": 4578,
      "åħĭéĩĮ": 4579,
      "è°¦": 4580,
      "æĶ¿åħļ": 4581,
      "è¡¨è¾¾": 4582,
      "æįĲ": 4583,
      "ç²®": 4584,
      "æŃ¥åħµ": 4585,
      "ĠåĪĺ": 4586,
      "æĮª": 4587,
      "æ°ĳéĹ´": 4588,
      "æĢ»çĲĨ": 4589,
      "æıĲåįĩ": 4590,
      "ä¿¡ä»°": 4591,
      "æĻ®éģį": 4592,
      "åĵĪå°Ķ": 4593,
      "æĺ¯ä¸Ģéĥ¨": 4594,
      "æİĪäºĪ": 4595,
      "æĴŀåĩ»": 4596,
      "åľŁèĢ³åħ¶": 4597,
      "åĴĮåħ¶ä»ĸ": 4598,
      "è´´": 4599,
      "éĵŃ": 4600,
      "æ¼Ķå¥ı": 4601,
      "å®īä¸ľ": 4602,
      "æ¡ĵ": 4603,
      "çĭĦ": 4604,
      "çıĢ": 4605,
      "1983": 4606,
      "ç²¾çģµ": 4607,
      "åİĭåĬĽ": 4608,
      "ive": 4609,
      "120": 4610,
      "çļĦä¸ī": 4611,
      "åıĳçĶµ": 4612,
      "æľ¬èº«": 4613,
      "å£³": 4614,
      "çĪ±å°Ķåħ°": 4615,
      "åĦĴ": 4616,
      "ä¸Ľ": 4617,
      "çļĦä¸Ń": 4618,
      "å¥¶": 4619,
      "åĩºåħ¥åı£": 4620,
      "çĶ¨ä½ľ": 4621,
      "åĲĪçī©": 4622,
      "çĻĮ": 4623,
      "åįģäºĮæľĪ": 4624,
      "Ø§": 4625,
      "æĿĨ": 4626,
      "åĿĤ": 4627,
      "å¼Ģè®¾": 4628,
      "ä¸¤æ¬¡": 4629,
      "çłĤ": 4630,
      "å½±è§Ĩ": 4631,
      "è¾¾æĪĲ": 4632,
      "å¸¦é¢Ĩ": 4633,
      "é¸Ń": 4634,
      "ä¸¾è¡ĮçļĦ": 4635,
      "è¯±": 4636,
      "å¯¸": 4637,
      "åŃ¦å£«": 4638,
      "æĹ¶ä»»": 4639,
      "å¹¶å°Ĩ": 4640,
      "å±±åĮº": 4641,
      "åįģæľĪ": 4642,
      "ä¸ŃåĽ½äººæ°ĳ": 4643,
      "æ·»": 4644,
      "è¾ĥä¸º": 4645,
      "ust": 4646,
      "æµĭéĩı": 4647,
      "éĨĴ": 4648,
      "oy": 4649,
      "æĸ¤": 4650,
      "éĩĳèŀį": 4651,
      "åĸ·": 4652,
      "æĳĩ": 4653,
      "å¨ģèĥģ": 4654,
      "çľŁå®ŀ": 4655,
      "å¼ĹæľĹ": 4656,
      "å¯¨": 4657,
      "è¥¿æ´ĭ": 4658,
      "åħ¨çº¿": 4659,
      "æĶ¹åĲįä¸º": 4660,
      "è®°èĢħ": 4661,
      "çķĻä¸ĭ": 4662,
      "ãĥ³ãĥ": 4663,
      "iz": 4664,
      "çĶľ": 4665,
      "è¡°": 4666,
      "æłı": 4667,
      "æłĹ": 4668,
      "éĽĩ": 4669,
      "éķ¿åº¦": 4670,
      "å¤ļå¹´": 4671,
      "éĺŁéķ¿": 4672,
      "ack": 4673,
      "æī¾åĪ°": 4674,
      "è¦ĨçĽĸ": 4675,
      "62": 4676,
      "çļĦç¥ŀ": 4677,
      "åĲ»": 4678,
      "ä¸Ĭä¸ĭ": 4679,
      "éĥ¨å°ļä¹¦": 4680,
      "åįģä¸ī": 4681,
      "ont": 4682,
      "èĴĭ": 4683,
      "äº¦æľī": 4684,
      "åĩłä¸ª": 4685,
      "ç¼ºä¹ı": 4686,
      "aw": 4687,
      "çļĦæĸ¹å¼ı": 4688,
      "åĩĮ": 4689,
      "åĿª": 4690,
      "ç»Īäºİ": 4691,
      "çĶ·æĢ§": 4692,
      "1940": 4693,
      "400": 4694,
      "Ġ7": 4695,
      "çļĦæĹ¶": 4696,
      "åľ¨ä¸ŃåĽ½": 4697,
      "ä¸įè¶³": 4698,
      "ä¸İåħ¶ä»ĸ": 4699,
      "ä½ľè¯į": 4700,
      "çİĭåŃĲ": 4701,
      "æ¬¡å¹´": 4702,
      "æ¹ĺ": 4703,
      "ary": 4704,
      "çıĬ": 4705,
      "åŁĥåıĬ": 4706,
      "æĵįä½ľ": 4707,
      "é©¾é©¶": 4708,
      "å¥İ": 4709,
      "æĭ±": 4710,
      "è¾Ĳ": 4711,
      "é¦ĸçĽ¸": 4712,
      "èĬĤåº¦": 4713,
      "é£Łåĵģ": 4714,
      "å®ŀéĻħä¸Ĭ": 4715,
      "åĲĲ": 4716,
      "åľ¨ä¸Ģ": 4717,
      "åľ¨ä»ĸ": 4718,
      "åĽ½åĬ¡": 4719,
      "æĸ¯é¡¿": 4720,
      "éĥ¨çļĦ": 4721,
      "è®ºæĸĩ": 4722,
      "æīįèĥ½": 4723,
      "ç®Ģåįķ": 4724,
      "åįģä¸Ģå¹´": 4725,
      "çļĦå¥³åĦ¿": 4726,
      "ä»ĸè¢«": 4727,
      "ä¿ĺ": 4728,
      "è¿Ļéĥ¨": 4729,
      "æıĲé«ĺ": 4730,
      "èĦĬ": 4731,
      "çĪ±æĥħ": 4732,
      "æłĩå¿Ĺ": 4733,
      "çľŁæŃ£": 4734,
      "æ¸©åº¦": 4735,
      "åĲĽä¸»": 4736,
      "çĢ": 4737,
      "èĥº": 4738,
      "åĪ¶çīĩ": 4739,
      "ç»ĪçĤ¹": 4740,
      "è´µæĹı": 4741,
      "åıł": 4742,
      "éĢ¢": 4743,
      "åıĳåĶ®": 4744,
      "å¸ĥèİ±": 4745,
      "åħ«æľĪ": 4746,
      "åį«æĺŁ": 4747,
      "åıĳçİ°äºĨ": 4748,
      "éĨĩ": 4749,
      "è®¨è®º": 4750,
      "é©±éĢĲ": 4751,
      "61": 4752,
      "89": 4753,
      "ton": 4754,
      "åľ¨åħ¶": 4755,
      "ç¬¬åħ«": 4756,
      "çŃīçº§": 4757,
      "åĪ¶çļĦ": 4758,
      "é»Ħèī²": 4759,
      "1975": 4760,
      "çĹĩçĬ¶": 4761,
      "çļĦåĦ¿åŃĲ": 4762,
      "ä»ķ": 4763,
      "æĸ©": 4764,
      "ä¼ª": 4765,
      "å¤§åİ¦": 4766,
      "å¾Īå¿«": 4767,
      "éĺ²å¾¡": 4768,
      "çªģçĦ¶": 4769,
      "Ġh": 4770,
      "åħĭç½Ĺ": 4771,
      "ä¹ĲéĺŁ": 4772,
      "å·´å°Ķ": 4773,
      "å¤ªç©º": 4774,
      "åħ¬åı¸çļĦ": 4775,
      "çŁ¥è¯Ĩ": 4776,
      "ä¼¯çĪµ": 4777,
      "å¢ŀéķ¿": 4778,
      "åįĥç±³": 4779,
      "åŁĥå°Ķ": 4780,
      "ç«ŀèµĽ": 4781,
      "å®ŀéªĮå®¤": 4782,
      "æĬµè¾¾": 4783,
      "Ġãĥ": 4784,
      "åĪ·": 4785,
      "æľīæīĢ": 4786,
      "åĮĹæĸ¹": 4787,
      "æıŃ": 4788,
      "åĢº": 4789,
      "æł¡åĮº": 4790,
      "æĪĳçļĦ": 4791,
      "1962": 4792,
      "çº¤": 4793,
      "ä¸įæķĮ": 4794,
      "é©¬æĭī": 4795,
      "åĲĪçº¦": 4796,
      "åŁİéķĩ": 4797,
      "æľįå½¹": 4798,
      "æŁ´æ²¹": 4799,
      "87": 4800,
      "ai": 4801,
      "ä¸Ģçº§": 4802,
      "æ±°": 4803,
      "æ±Ŀ": 4804,
      "å¯¹æĬĹ": 4805,
      "ç§ĳåŃ¦éĻ¢": 4806,
      "arl": 4807,
      "åĬ¿åĬĽ": 4808,
      "ace": 4809,
      "52": 4810,
      "ff": 4811,
      "å¤§åį«": 4812,
      "å®ļä¸º": 4813,
      "ãĤ«": 4814,
      "åģ·": 4815,
      "æ¶Ĥ": 4816,
      "ä¸ĥæľĪ": 4817,
      "Ġl": 4818,
      "çļĦåĲĮ": 4819,
      "çº¬": 4820,
      "çĲī": 4821,
      "æľ¬ä½ľ": 4822,
      "åĨĽçļĦ": 4823,
      "åīįèº«": 4824,
      "å·ŀåºľ": 4825,
      "ath": 4826,
      "63": 4827,
      "az": 4828,
      "çļĦåİĨåı²": 4829,
      "åĮĹç¾İ": 4830,
      "æĢ§è´¨": 4831,
      "ann": 4832,
      "æ¶µ": 4833,
      "é¾Ļç§ĳ": 4834,
      "ç¼ĸæĽ²": 4835,
      "æĶ¶èĹı": 4836,
      "ä¸ĵéĹ¨": 4837,
      "çĶ»å®¶": 4838,
      "åĬ©çĲĨ": 4839,
      "ass": 4840,
      "éĻįä½İ": 4841,
      "æĺİæľĿæĶ¿æ²»äººçī©": 4842,
      "æĮªå¨ģ": 4843,
      "au": 4844,
      "æł¼éĽ·": 4845,
      "åħ³éĹŃ": 4846,
      "åħīç»ª": 4847,
      "åıĤåĬłäºĨ": 4848,
      "å»¶éķ¿": 4849,
      "å®ªæ³ķ": 4850,
      "å¤§ä½¿": 4851,
      "æĢ¡": 4852,
      "èĦ¸": 4853,
      "åħŃæľĪ": 4854,
      "æĬķæīĭ": 4855,
      "1946": 4856,
      "1973": 4857,
      "åĮĹäº¬å¸Ĥ": 4858,
      "æĸĭ": 4859,
      "ä»¥åĮĹ": 4860,
      "æĸ¯åħĭ": 4861,
      "æ¸Ĭ": 4862,
      "æľĢè¿ĳ": 4863,
      "ä¸¤ä¾§": 4864,
      "åĽĽæľĪ": 4865,
      "çº¦ä¸º": 4866,
      "æ·ĳ": 4867,
      "éĴ»": 4868,
      "èĦĤ": 4869,
      "æľĿå»·": 4870,
      "æĻ®æŁ¥": 4871,
      "åį«è§Ĩ": 4872,
      "æ¼ĶåĶ±ä¼ļ": 4873,
      "åĽ½éģĵ": 4874,
      "ä»ĸäºİ": 4875,
      "æĸĩåŃĹ": 4876,
      "æīĢå±ŀçļĦ": 4877,
      "å¦Ĥä½ķ": 4878,
      "ä¸ĵå®¶": 4879,
      "æĬ¥éģĵ": 4880,
      "è¶³çĲĥèģĶèµĽ": 4881,
      "éĴĪå¯¹": 4882,
      "è¡ĮæĶ¿åĮºåĪĴ": 4883,
      "æī¶": 4884,
      "åĩºæ¼Ķ": 4885,
      "å¹¶æľª": 4886,
      "è¿Ļåº§": 4887,
      "çĪª": 4888,
      "æ¼ĶåĮĸ": 4889,
      "ç¨į": 4890,
      "one": 4891,
      "åħ´è¶£": 4892,
      "å¼ķåıĳ": 4893,
      "åĿ¦åħĭ": 4894,
      "74": 4895,
      "km": 4896,
      "çļĦéĩįè¦ģ": 4897,
      "ä¸Ģåº§": 4898,
      "èµĭ": 4899,
      "éĥ¨èĲ½": 4900,
      "æ±ª": 4901,
      "èĴ¸": 4902,
      "æŃ¦å¸Ŀ": 4903,
      "åľ£ç»ı": 4904,
      "æ¨¡åŀĭ": 4905,
      "åı¯è¾¾": 4906,
      "ç»ıéªĮ": 4907,
      "åĪĹåħ¥": 4908,
      "å°±ä¼ļ": 4909,
      "æĽ´å¤ļ": 4910,
      "èµĦäº§": 4911,
      "çĪ±å¾·": 4912,
      "å¼ºçĥĪ": 4913,
      "ç²¤è¯Ń": 4914,
      "sh": 4915,
      "ç»³": 4916,
      "çŃīçŃī": 4917,
      "ãģ«": 4918,
      "è¯¥åºĦ": 4919,
      "è½¬ä¼ļ": 4920,
      "èħĲ": 4921,
      "èĲ¥è¿Ĳ": 4922,
      "1958": 4923,
      "æĪ¿å±ĭ": 4924,
      "èľ¥": 4925,
      "æĵħ": 4926,
      "èĪŀåı°": 4927,
      "æ£ĴçĲĥ": 4928,
      "çļĦæĪĲåĳĺ": 4929,
      "çļĦåħ³ç³»": 4930,
      "éĺĶ": 4931,
      "çī¹èī²": 4932,
      "ä¸ĭæĿ¥": 4933,
      "å±±åı£": 4934,
      "ãģ¿": 4935,
      "çĽ¸æ¯Ķ": 4936,
      "æŃ£å¸¸": 4937,
      "1939": 4938,
      "çĿ¡çľł": 4939,
      "HK": 4940,
      "Ġä¸ŃåĽ½": 4941,
      "çļĦäºĭ": 4942,
      "åĩĿ": 4943,
      "çĶ¨éĢĶ": 4944,
      "å¹¶æŃ¢äºİ": 4945,
      "æĸĩçĮ®": 4946,
      "äºĮæľĪ": 4947,
      "ç§ĳå°Ķ": 4948,
      "å¥³ä¸»è§Ĵ": 4949,
      "æ£ķ": 4950,
      "æ»ļ": 4951,
      "åħ¬åħĥåīį": 4952,
      "AP": 4953,
      "ER": 4954,
      "Ġ10": 4955,
      "åľ¨å¤§": 4956,
      "åľ°åľ¨": 4957,
      "ãĥ¬": 4958,
      "å·¥äºº": 4959,
      "åį¡æĭī": 4960,
      "ç¢§": 4961,
      "1963": 4962,
      "èİ«æĸ¯ç§ĳ": 4963,
      "å§»": 4964,
      "ä¸īåĽ½": 4965,
      "å¤©çļĦ": 4966,
      "ä¹¦ç±į": 4967,
      "æŁ¥çĲĨ": 4968,
      "æł¸å¿ĥ": 4969,
      "æĮīçħ§": 4970,
      "åŁ¹åħ»": 4971,
      "Ġä¸ľ": 4972,
      "å¤ķ": 4973,
      "åŃķ": 4974,
      "å¯Ĵ": 4975,
      "åħ¬æ°ĳ": 4976,
      "éĩĳçīĮ": 4977,
      "é¥¼": 4978,
      "åŃĹæ¯į": 4979,
      "æł¹å»·": 4980,
      "ç§»æ°ĳ": 4981,
      "éº¦åħĭ": 4982,
      "è¤Ĳèī²": 4983,
      "äºļåİĨå±±å¤§": 4984,
      "æª": 4985,
      "å¾ª": 4986,
      "çİ²": 4987,
      "1930": 4988,
      "ä»ĸä¸İ": 4989,
      "åĲįäºº": 4990,
      "çĶµè¯Ŀ": 4991,
      "æĪĺçķ¥": 4992,
      "åı°é£İ": 4993,
      "æĦıå¤ĸ": 4994,
      "æ´ĽæĿī": 4995,
      "è§Ĥæµĭ": 4996,
      "ä¹ĿæľĪ": 4997,
      "è£ħå¤ĩ": 4998,
      "éĤ£äºĽ": 4999,
      "é¼İ": 5000,
      "åĨ¬åŃ£": 5001,
      "Ar": 5002,
      "ï¼İ": 5003,
      "å¤§åŃĹ": 5004,
      "åĲįä¹ī": 5005,
      "åĲĮçĽŁ": 5006,
      "åįģåĽĽ": 5007,
      "ç»ĻäºĨ": 5008,
      "è¶³çĲĥè¿ĲåĬ¨åĳĺ": 5009,
      "éĥİä¸Ń": 5010,
      "1937": 5011,
      "åĢĻéĢī": 5012,
      "åĨ²çªģ": 5013,
      "âĢ¦âĢ¦": 5014,
      "æ·ĺæ±°": 5015,
      "JR": 5016,
      "å··": 5017,
      "ä¸ĭéĻį": 5018,
      "å¯¹æĸ¹": 5019,
      "è°Ń": 5020,
      "æĹłäºº": 5021,
      "ç¼ĸè¾ĳ": 5022,
      "è½¬ç§»": 5023,
      "ä¿®å»º": 5024,
      "1978": 5025,
      "Ġ2010": 5026,
      "çĪµå£«": 5027,
      "æ´ĽæĿīçŁ¶": 5028,
      "69": 5029,
      "æĪĲå¹´": 5030,
      "è¥¿æĸ¹": 5031,
      "å¼Ģå·¥": 5032,
      "é¾Ļç±»": 5033,
      "åıĺå¾Ĺ": 5034,
      "æĶ¯æı´": 5035,
      "äº¦æĺ¯": 5036,
      "æĤī": 5037,
      "Ġ2015": 5038,
      "ä¸Ģæ®µ": 5039,
      "åĬĿ": 5040,
      "æķ¢": 5041,
      "æłĭ": 5042,
      "è´«": 5043,
      "çŁ®": 5044,
      "ç±³çļĦ": 5045,
      "éĺ³å¸Ĥ": 5046,
      "èħĶ": 5047,
      "å¤įæĿĤ": 5048,
      "1955": 5049,
      "1972": 5050,
      "ST": 5051,
      "åįĳ": 5052,
      "ä¸Ńå±±": 5053,
      "èģĺ": 5054,
      "å°ıåŀĭ": 5055,
      "åľºæ¯ĶèµĽ": 5056,
      "ãģ¾": 5057,
      "åħ³æ³¨": 5058,
      "åĥ§": 5059,
      "1977": 5060,
      "çī©ç§įçļĦ": 5061,
      "åĽºå®ļ": 5062,
      "èŁ": 5063,
      "Ġé»Ħ": 5064,
      "å¹´åºķ": 5065,
      "åľ¨æĹ¥æľ¬": 5066,
      "åīįçļĦ": 5067,
      "æ²¿éĿ©": 5068,
      "æĭĸ": 5069,
      "çĲª": 5070,
      "æľ¬é±¼": 5071,
      "å¤ĸåĽ½": 5072,
      "åį¡æĸ¯": 5073,
      "éºŁ": 5074,
      "1948": 5075,
      "éĢĢä¼ĳ": 5076,
      "æ°ĳä¸»åħļ": 5077,
      "æĿŃå·ŀ": 5078,
      "Ġ5": 5079,
      "ä»Ĩ": 5080,
      "è´¼": 5081,
      "åħ¶å®ŀ": 5082,
      "åĽłç´ł": 5083,
      "ãģ¡": 5084,
      "è¯¥åħļ": 5085,
      "çĽ¸ä¿¡": 5086,
      "çĽ´éļ¶": 5087,
      "ç¿Ķ": 5088,
      "è¶³åįı": 5089,
      "ä¸¹éº¦": 5090,
      "åģľéĿł": 5091,
      "æģĲæĢ": 5092,
      "å®°": 5093,
      "åĨ¢": 5094,
      "ä¸ĭåįĪ": 5095,
      "ä¸ĩç¾İåħĥ": 5096,
      "1956": 5097,
      "åį°å°¼": 5098,
      "1969": 5099,
      "åı¯èĥ½ä¼ļ": 5100,
      "æ²ĥå°Ķ": 5101,
      "çº¿è·¯åı£": 5102,
      "èĬĤåº¦ä½¿": 5103,
      "84": 5104,
      "CO": 5105,
      "aur": 5106,
      "ĠåĴĮ": 5107,
      "æĸĲ": 5108,
      "äºĨè§£": 5109,
      "åŁĭ": 5110,
      "åĪĨç¦»": 5111,
      "å¿ĺ": 5112,
      "é¢ĩ": 5113,
      "éķ¿å®ī": 5114,
      "å¾·å°Ķ": 5115,
      "èĩªæĿĢ": 5116,
      "è¯¥çīĩ": 5117,
      "éĺ¿æł¹å»·": 5118,
      "æĿ¡çº¦": 5119,
      "ĠAl": 5120,
      "æ³¨åĨĮ": 5121,
      "æ¶Īå¤±": 5122,
      "ä¼ĺåĬ¿": 5123,
      "ç¥¨æĪ¿": 5124,
      "ï¼ħ": 5125,
      "å¹´æĹ¶": 5126,
      "è¿¦": 5127,
      "ä¸İåħ¶": 5128,
      "ä»»å¤©åłĤ": 5129,
      "åĬ¨è½¦": 5130,
      "èĤ¢": 5131,
      "æĢ§åĪ«": 5132,
      "ç¥ŀç¤¾": 5133,
      "è§£æķ£": 5134,
      "æĿĥåĬĽ": 5135,
      "1947": 5136,
      "å»ºçŃĳå¸Ī": 5137,
      "åįłåľ°": 5138,
      "æ¡Īä»¶": 5139,
      "ung": 5140,
      "ational": 5141,
      "å¤§å¤«": 5142,
      "ä¼ļåĳĺ": 5143,
      "é«ĺä¸½": 5144,
      "è·¯æ®µ": 5145,
      "åľºæĻ¯": 5146,
      "éĤĳ": 5147,
      "æīĭæľº": 5148,
      "ind": 5149,
      "ç¨ĭåºı": 5150,
      "ä¼łæĴŃ": 5151,
      "å°ĳå°Ĩ": 5152,
      "è§ĤçĤ¹": 5153,
      "1959": 5154,
      "æĹĹä¸ĭ": 5155,
      "ect": 5156,
      "ä»¥ä¸º": 5157,
      "éĽ¾": 5158,
      "ãĤ¨": 5159,
      "äººåı£æķ°éĩı": 5160,
      "ç»ĦæĪĲçļĦ": 5161,
      "çŃ¾ç½²": 5162,
      "ç¦ģæŃ¢": 5163,
      "à¤": 5164,
      "çļĦæ°´": 5165,
      "åŁİçļĦ": 5166,
      "ãģķ": 5167,
      "çĽ¸äºĴ": 5168,
      "åıĹæ¬¢è¿İ": 5169,
      "æ³¢æĸ¯": 5170,
      "1943": 5171,
      "ä¸°å¯Į": 5172,
      "ä¸»æķĻç»ĥ": 5173,
      "éĤ»è¿ĳ": 5174,
      "æĤ£èĢħ": 5175,
      "ï¼ī-": 5176,
      "åľ°åĽ¾": 5177,
      "è¢«è¿«": 5178,
      "åĬłåĪ©": 5179,
      "æĸ°äºº": 5180,
      "éĤ±": 5181,
      "é¦ĸåħĪ": 5182,
      "åĪĽå»º": 5183,
      "ish": 5184,
      "åĳĬè¯ī": 5185,
      "Ġé©¬": 5186,
      "åĨķ": 5187,
      "æĬĵ": 5188,
      "æ¼ł": 5189,
      "éĤª": 5190,
      "ãģĤ": 5191,
      "å¸ĪèĮĥ": 5192,
      "åĪ¶ä½ľäºº": 5193,
      "æĹħè¡Į": 5194,
      "éĩĬæĶ¾": 5195,
      "çİ°åľ¨çļĦ": 5196,
      "é¢ģå¥ĸåħ¸ç¤¼": 5197,
      "æŃĩ": 5198,
      "åĩºåľŁ": 5199,
      "è¥¿åĮĹéĥ¨": 5200,
      "å¹¶ä»¥": 5201,
      "ä¸īæľĪ": 5202,
      "å¦ĸ": 5203,
      "çĪ·": 5204,
      "äº¤çķĮ": 5205,
      "æĥħæĬ¥": 5206,
      "æ°Ķè±¡": 5207,
      "Ġ2014": 5208,
      "çĶ³è¯·": 5209,
      "ial": 5210,
      "æĺ¯é¦Ļæ¸¯": 5211,
      "æĪĲéĥ½": 5212,
      "åıĳæĺİ": 5213,
      "èĢĮè¨Ģ": 5214,
      "çŁ¢": 5215,
      "æıĲåĪ°": 5216,
      "ice": 5217,
      "åī¯ä½¿": 5218,
      "åħ¼ä»»": 5219,
      "éģµ": 5220,
      "åĬłæĭī": 5221,
      "çĶµæ°Ķ": 5222,
      "ä½Ĩä»ĸ": 5223,
      "ä½ĨçĶ±äºİ": 5224,
      "å®īå¨ľ": 5225,
      "éĥ½çĿ£": 5226,
      "è®¤è¯Ĩ": 5227,
      "èģĮåĬ¡": 5228,
      "èħ¿": 5229,
      "åĮ»åŃ¦éĻ¢": 5230,
      "1965": 5231,
      "ĠThe": 5232,
      "èģĶåĲĪåĽ½": 5233,
      "è½¯ä»¶": 5234,
      "ä¼Ĭæĸ¯åħ°": 5235,
      "çľģéģĵåı°": 5236,
      "mm": 5237,
      "Ġg": 5238,
      "çļĦä¸¤": 5239,
      "å¸Ĩ": 5240,
      "åĬ«": 5241,
      "åºŀ": 5242,
      "æĮĸ": 5243,
      "æĭīåħĭ": 5244,
      "çĲĨäºĭ": 5245,
      "èįĨ": 5246,
      "æĽ¾ç¥ĸ": 5247,
      "å¼ķåħ¥": 5248,
      "é£ŁæĢ§": 5249,
      "éĥĳå·ŀ": 5250,
      "ä¹ĺå®¢": 5251,
      "ohn": 5252,
      "Ġn": 5253,
      "çļĦæµ·": 5254,
      "ä¸Ģå®ļ": 5255,
      "å¤§å°ı": 5256,
      "ç½¢": 5257,
      "ä»»èģĮ": 5258,
      "å¾ĹåĪ°äºĨ": 5259,
      "èĤĸ": 5260,
      "èī²åĪĹ": 5261,
      "ond": 5262,
      "ç²¹": 5263,
      "è¾¹ç¼ĺ": 5264,
      "è£ħç½®": 5265,
      "1976": 5266,
      "éĻĦå±ŀ": 5267,
      "ç§ģäºº": 5268,
      "86": 5269,
      "çļĦå·¥ä½ľ": 5270,
      "çļĦéģĵè·¯": 5271,
      "åħĨ": 5272,
      "å§ļ": 5273,
      "è¿Ļæ¬¡": 5274,
      "ãģį": 5275,
      "å°¼å°Ķ": 5276,
      "åįİäºº": 5277,
      "å®ŀè¡Į": 5278,
      "ä¼ĬæľĹ": 5279,
      "åĳ¨æľŁ": 5280,
      "ä¸»è¦ģæĺ¯": 5281,
      "å£°éŁ³": 5282,
      "ä»·æł¼": 5283,
      "ä¾ĿçĦ¶": 5284,
      "å·®å¼Ĥ": 5285,
      "æ¶īåıĬ": 5286,
      "æģĲæĢĸ": 5287,
      "72": 5288,
      "ä¸ºäºº": 5289,
      "åīª": 5290,
      "æĸĩèīº": 5291,
      "æĸĩç«ł": 5292,
      "èĤł": 5293,
      "éĢļéģĵ": 5294,
      "æīĭæľ¯": 5295,
      "æ²³çķĶ": 5296,
      "éĩıçļĦ": 5297,
      "ä¹īå¤§åĪ©": 5298,
      "åĳ¨å¹´": 5299,
      "ä»ĬæĹ¥": 5300,
      "è¯ķéªĮ": 5301,
      "1974": 5302,
      "çĽĳçĭ±": 5303,
      "éĢĢåĩº": 5304,
      "æ¶Īæģ¯": 5305,
      "æĻļä¸Ĭ": 5306,
      "çŃ¾çº¦": 5307,
      "åį±æľº": 5308,
      "79": 5309,
      "ach": 5310,
      "å¤¹": 5311,
      "å¹´åĪ°": 5312,
      "ä¸ºæŃ¢": 5313,
      "ç¦ħ": 5314,
      "ç»Ħå»º": 5315,
      "é¦ĸæĴŃ": 5316,
      "åī§åĽ¢": 5317,
      "çīĻé½¿": 5318,
      "çĽĳåĪ¶": 5319,
      "1936": 5320,
      "æ¯ķä¸ļåĲİ": 5321,
      "æĹłçº¿çĶµè§Ĩ": 5322,
      "å¹´åĴĮ": 5323,
      "åľ¨äºİ": 5324,
      "æĸĩä»¶": 5325,
      "å¯¹è±¡": 5326,
      "å¾ĹåĲį": 5327,
      "å¹³åİŁ": 5328,
      "èµ·ä¹ī": 5329,
      "are": 5330,
      "æĽ´åĬł": 5331,
      "orm": 5332,
      "æŀĦéĢł": 5333,
      "è´£ä»»": 5334,
      "å¹¿ä¸ľçľģ": 5335,
      "è¿Ļæł·çļĦ": 5336,
      "ç¼ħçĶ¸": 5337,
      "åĽĬ": 5338,
      "å§Ĭ": 5339,
      "åİ¿äººæ°ĳæ£Ģå¯ŁéĻ¢": 5340,
      "çĮľ": 5341,
      "ä¸ĸçķĮä¸Ĭ": 5342,
      "åį³ä½¿": 5343,
      "ĠAn": 5344,
      "èĵĿèī²": 5345,
      "çļĦä½įç½®": 5346,
      "åĨ»": 5347,
      "å¤§èģĶçĽŁ": 5348,
      "æİª": 5349,
      "çī¹éĩĮ": 5350,
      "è¯ŃçļĦ": 5351,
      "ä¹Ŀé¾Ļ": 5352,
      "1954": 5353,
      "1961": 5354,
      "1964": 5355,
      "æķ´ä½ĵ": 5356,
      "ä½ıå®ħ": 5357,
      "èīºæľ¯å®¶": 5358,
      "éĴ¢çĲ´": 5359,
      "çĬ¯ç½ª": 5360,
      "èĢĥåı¤éģĹåĿĢ": 5361,
      "ber": 5362,
      "Ġ6": 5363,
      "å®ĥæĺ¯": 5364,
      "æĬķéĻį": 5365,
      "1957": 5366,
      "ä¼Ĺå¤ļ": 5367,
      "èģĮä¸ļçĶŁæ¶¯": 5368,
      "æµĻæ±Łçľģ": 5369,
      "æģĲé¾Ļ": 5370,
      "ae": 5371,
      "ä¸įåĪ°": 5372,
      "å¸Ĥéķ¿": 5373,
      "è¿Ļé¦ĸ": 5374,
      "æģ°": 5375,
      "åİ¿éģĵ": 5376,
      "ç¨»": 5377,
      "ä¿Ŀå®Ī": 5378,
      "å¤§åŃ¦çļĦ": 5379,
      "åįĩä¸º": 5380,
      "1971": 5381,
      "ee": 5382,
      "çĶŁåŃĺ": 5383,
      "éķ¿è¾¾": 5384,
      "å¯¹å¤ĸ": 5385,
      "äºĭå®ŀ": 5386,
      "éĢīä¸º": 5387,
      "ä½įäºİæ³ķåĽ½": 5388,
      "ç©ºæ°Ķ": 5389,
      "ĠSch": 5390,
      "é£ŁçĶ¨": 5391,
      "rit": 5392,
      "ĠçļĦ": 5393,
      "å¤ļåĪ©äºļ": 5394,
      "æĭīå¾·": 5395,
      "æĦĪ": 5396,
      "1000": 5397,
      "èħĵ": 5398,
      "èĢģå¸Ī": 5399,
      "çģ«ç®Ń": 5400,
      "æİĴè¡Į": 5401,
      "å¾ĭå¸Ī": 5402,
      "èĥĮé³į": 5403,
      "å°¼äºļå·ŀ": 5404,
      "å»ºç«ĭäºĨ": 5405,
      "çī¹åĪ«æĺ¯": 5406,
      "ç¬¬äºĮæ¬¡ä¸ĸçķĮå¤§æĪĺ": 5407,
      "ight": 5408,
      "BN": 5409,
      "æľīèĳĹ": 5410,
      "æĸ¯åł¡": 5411,
      "è¢ĭ": 5412,
      "ç¥ł": 5413,
      "åĬłå·ŀ": 5414,
      "æĥ¯": 5415,
      "æ¸¸æ³³": 5416,
      "å·¡åĽŀ": 5417,
      "ĠUn": 5418,
      "åĮĹæµ·éģĵ": 5419,
      "åĵ¥ä¼¦æ¯Ķäºļ": 5420,
      "IC": 5421,
      "ä¸Ńè¢«": 5422,
      "éĺ®": 5423,
      "è¥¿åħ°": 5424,
      "å¹¶ä¸İ": 5425,
      "ç§ĳåŃ¦å®¶": 5426,
      "çĤī": 5427,
      "åį³ä½į": 5428,
      "ç¢°": 5429,
      "éĻĦåĬł": 5430,
      "æĹ§å¸Ĥéķĩ": 5431,
      "ct": 5432,
      "Ð²": 5433,
      "å¸½": 5434,
      "å¥ĭ": 5435,
      "è¾©": 5436,
      "åįģä¹Ŀ": 5437,
      "é¦ĸä¸ª": 5438,
      "åł¤": 5439,
      "å¸¦æľī": 5440,
      "åĽ½éĻħæľºåľº": 5441,
      "73": 5442,
      "Ġ\"": 5443,
      "ãĢĭ(": 5444,
      "æ¯ħ": 5445,
      "å±±å¸Ĥ": 5446,
      "æľºåĻ¨": 5447,
      "ãģĵ": 5448,
      "ç»Ħéķ¿": 5449,
      "å·´åŁº": 5450,
      "åĪĻä¸º": 5451,
      "iss": 5452,
      "å½ķéŁ³": 5453,
      "ä»¤äºº": 5454,
      "å»ºçŃĳçī©": 5455,
      "1966": 5456,
      "è¯ģæį®": 5457,
      "Ġ2016": 5458,
      "Ġ2018": 5459,
      "1938": 5460,
      "æĵİ": 5461,
      "éĹ»åĲį": 5462,
      "âĶĢ": 5463,
      "Ġå¤©": 5464,
      "å¼ĵ": 5465,
      "ä¸Ĭå¸Ĥ": 5466,
      "å¿½": 5467,
      "åıĳåĩº": 5468,
      "ä¹Łä¸į": 5469,
      "åłĨ": 5470,
      "æ»ķ": 5471,
      "æĽ´ä¸º": 5472,
      "éķĩåĮº": 5473,
      "è£ħçĶ²": 5474,
      "å¢ŀå¼º": 5475,
      "ä½ıåľ¨": 5476,
      "æį¢ä¹ĺ": 5477,
      "ä¸ŃåĽ½äººæ°ĳè§£æĶ¾åĨĽ": 5478,
      "å°¹": 5479,
      "æĺ¯ä¸ª": 5480,
      "ä¸įæĺİ": 5481,
      "åı¯è§ģ": 5482,
      "å¾ĹåĪĨ": 5483,
      "çĤ¼": 5484,
      "æĢ»ä¼ļ": 5485,
      "æīĵç®Ĺ": 5486,
      "éħįåĲĪ": 5487,
      "æ¦Ħ": 5488,
      "çķĻåľ¨": 5489,
      "çħ§çīĩ": 5490,
      "éĢĤåĲĪ": 5491,
      "ä¸»æĮģäºº": 5492,
      "è·¯æĺĵæĸ¯": 5493,
      ")ãĢģ": 5494,
      "AR": 5495,
      "çļĦè§Ĵèī²": 5496,
      "ä»¥èī²åĪĹ": 5497,
      "åľ°è´¨": 5498,
      "éĹ²": 5499,
      "åĩºå¸Ń": 5500,
      "åĨĽåĽ¢": 5501,
      "èģª": 5502,
      "ãĤª": 5503,
      "äº¤åĵį": 5504,
      "çĭĲ": 5505,
      "èĻ¹": 5506,
      "ç¿Į": 5507,
      "1953": 5508,
      "æĦŁæŁĵ": 5509,
      "æĹ¶æľŁçļĦ": 5510,
      "åĪĨåĪ«æĺ¯": 5511,
      "èĸĩ": 5512,
      "çŃ¾è®¢": 5513,
      "æĮīå¯Ł": 5514,
      "åĬªåĬĽ": 5515,
      "éĻķè¥¿çľģ": 5516,
      "æ®ĸæ°ĳåľ°": 5517,
      "çļĦæĹ¶éĹ´": 5518,
      "èĢķ": 5519,
      "èĩĢ": 5520,
      "æ²¼": 5521,
      "æĬ«": 5522,
      "å®¶ä¸Ń": 5523,
      "è¥¿å®ī": 5524,
      "åĪĨéħį": 5525,
      "åĳĺå·¥": 5526,
      "å°Ĩé¢Ĩ": 5527,
      "å¸ĥåħ°": 5528,
      "ç§įæ¤į": 5529,
      "ãģ¯": 5530,
      "ä¼łæķĻ": 5531,
      "æºĲèĩª": 5532,
      "å¼ĹéĽ·": 5533,
      "å·¡æĬļ": 5534,
      "ç¬¦åĲĪ": 5535,
      "Sh": 5536,
      "å®¶äºº": 5537,
      "æľ¬çīĩ": 5538,
      "çĶ¨æĪ·": 5539,
      "ä¸ľåįĹéĥ¨": 5540,
      "æĻ´": 5541,
      "ä¹Łå°±æĺ¯": 5542,
      "åİŁæĿ¥": 5543,
      "åłª": 5544,
      "æĦıè§ģ": 5545,
      "åı¯ä»¥åľ¨": 5546,
      "ä¸»è¦ģçļĦ": 5547,
      "æ´Ľåħĭ": 5548,
      "éĿĴæĺ¥": 5549,
      "è¯ģåĪ¸": 5550,
      "å¸¸è§ģçļĦ": 5551,
      "NBA": 5552,
      "åĲ¹": 5553,
      "å®ł": 5554,
      "èĢĹ": 5555,
      "åħ¬æĸ¤": 5556,
      "ä¸īäºº": 5557,
      "ç¥¯": 5558,
      "å®ĺèĩ³": 5559,
      "æĪĲç«ĭçļĦ": 5560,
      "å°ļæľª": 5561,
      "è¹Ī": 5562,
      "æĪĲæľ¬": 5563,
      "éĹ¸": 5564,
      "æľĢå¤ļ": 5565,
      "åĲĳåįĹ": 5566,
      "å½¢çĬ¶": 5567,
      "å¤ªéĥİ": 5568,
      "å¸¦æĿ¥": 5569,
      "èīºäºº": 5570,
      "1952": 5571,
      "æĺ¥ç§ĭ": 5572,
      "ç¡®è®¤": 5573,
      "und": 5574,
      "éļľç¢į": 5575,
      "ä»»åĳ½ä¸º": 5576,
      "å°Ŀè¯ķ": 5577,
      "æĪĲå°±": 5578,
      "çĶµèĦĳ": 5579,
      "é¡·": 5580,
      "èĤ¿": 5581,
      "ç¨Ģ": 5582,
      "çĽ´å¾Ħ": 5583,
      "å·²è¢«": 5584,
      "åıĺä¸º": 5585,
      "æĸ½å·¥": 5586,
      "1935": 5587,
      "é¢Ħè®¡": 5588,
      "å©ļå§»": 5589,
      "å¦¹å¦¹": 5590,
      "åħ±äº§åħļ": 5591,
      "åĲ¾": 5592,
      "å¸Ĥæ°ĳ": 5593,
      "é©¬éĩĮ": 5594,
      "å·¥åħ·": 5595,
      "ç§įæĹı": 5596,
      "ç»´åŁĥ": 5597,
      "é¢ĨåľŁ": 5598,
      "ä½įäºİä¸ŃåĽ½": 5599,
      "ica": 5600,
      "æ¸¸æĪıçļĦ": 5601,
      "Ġ2008": 5602,
      "æ²³åįĹçľģ": 5603,
      "mi": 5604,
      "per": 5605,
      "à¹": 5606,
      "çļĦæĥħåĨµä¸ĭ": 5607,
      "ä¸»äºĭ": 5608,
      "åıĳèµ·": 5609,
      "ç¦§": 5610,
      "çº¦çĳŁ": 5611,
      "åģ¿": 5612,
      "ç¥ŀè¯Ŀ": 5613,
      "æº¯": 5614,
      "å¤ªå®Ī": 5615,
      "èĭıä¸¹": 5616,
      "ä¿®æĶ¹": 5617,
      "æĿĢå®³": 5618,
      "èĽĻ": 5619,
      "æ»¡è¶³": 5620,
      "281": 5621,
      "åįģä¸ĢæľĪ": 5622,
      "è©¹å§Ĩæĸ¯": 5623,
      "çĪ±å¾·åįİ": 5624,
      "Ġç½Ĺ": 5625,
      "åĲŀ": 5626,
      "åľ¨æĸ°": 5627,
      "âĢ§": 5628,
      "å¿§": 5629,
      "éķ¿æ±Ł": 5630,
      "åįģä¸ĥ": 5631,
      "æµ·å¤ĸ": 5632,
      "åº¦çļĦ": 5633,
      "æł¼å°Ķ": 5634,
      "çĮ´": 5635,
      "åıĮæīĵ": 5636,
      "è¯Ĺäºº": 5637,
      "æ£ĢæŁ¥": 5638,
      "è´§å¸ģ": 5639,
      "æĴ¤éĶĢ": 5640,
      "äº«å¹´": 5641,
      "iam": 5642,
      "å¤§å¤ļ": 5643,
      "å¤§éĢī": 5644,
      "åĴĸ": 5645,
      "èĢĲ": 5646,
      "æľ¬äºº": 5647,
      "ä¸ľä¾§": 5648,
      "æĸĩæĺİ": 5649,
      "æ¢¨": 5650,
      "çŁ³æ²¹": 5651,
      "è±«": 5652,
      "çĪ±çļĦ": 5653,
      "æĶ»æīĵ": 5654,
      "å®¤åĨħ": 5655,
      "use": 5656,
      "ä¼¼ä¹İ": 5657,
      "ç¹ģæ®ĸ": 5658,
      "è£ģåĪ¤": 5659,
      "AM": 5660,
      "ÃĹ": 5661,
      "Î±": 5662,
      "ĠæŀĹ": 5663,
      "çļĦå¸Ĥéķĩ": 5664,
      "åľŃ": 5665,
      "åľ¨ä¸Ģèµ·": 5666,
      "å¤§å°ĨåĨĽ": 5667,
      "æī«": 5668,
      "æĥ¨": 5669,
      "èĥ½æºĲ": 5670,
      "åħ¨éĿ¢": 5671,
      "æı¡": 5672,
      "åİ¿çļĦ": 5673,
      "é¦ĸå¸Ń": 5674,
      "æĶ¹å»º": 5675,
      "æľĿæĹ¥": 5676,
      "æ¡¥æ¢ģ": 5677,
      "åĩĨåĨ³èµĽ": 5678,
      "éĩĩåıĸ": 5679,
      "1934": 5680,
      "çŁŃæľŁ": 5681,
      "æ¦Ĥè¦ģ": 5682,
      "ä½ĵèĤ²åľº": 5683,
      "585": 5684,
      "è¤": 5685,
      "Ġw": 5686,
      "ä¸įä»ħ": 5687,
      "éĽį": 5688,
      "å¿Ļ": 5689,
      "ä¸īåĪĨ": 5690,
      "èĬĻ": 5691,
      "çĪ¸": 5692,
      "æľºåħ³": 5693,
      "åı¤åħ¸": 5694,
      "èĴ²": 5695,
      "ore": 5696,
      "ith": 5697,
      "ĠAr": 5698,
      "Ġ2012": 5699,
      "åĳĪçİ°": 5700,
      "éĺ»æŃ¢": 5701,
      "è¾½å®ģ": 5702,
      "mer": 5703,
      "ĠåįĹ": 5704,
      "å¹´çĲĥåŃ£": 5705,
      "èĬ¦": 5706,
      "æĪĺå£«": 5707,
      "æ¯Ķä¾ĭ": 5708,
      "ãĤŃ": 5709,
      "è£´": 5710,
      "æĺŁéĻħ": 5711,
      "åı¤èĢģ": 5712,
      "èĮħ": 5713,
      "èĹ»": 5714,
      "å¤ıä»¤": 5715,
      "374": 5716,
      "åĽ½åĬ¡éĻ¢": 5717,
      "625": 5718,
      "97": 5719,
      "Ġè¥¿": 5720,
      "çļĦè®¾è®¡": 5721,
      "ä¸ŃæľŁ": 5722,
      "æĪĲäºĨ": 5723,
      "çŁĽ": 5724,
      "èĤº": 5725,
      "è¿ĲçĶ¨": 5726,
      "æĢ»çĽĳ": 5727,
      "éĽĨçļĦ": 5728,
      "é¢Ĩåľ°": 5729,
      "å·²æľī": 5730,
      "åľ£æ¯į": 5731,
      "æŃ»äºİ": 5732,
      "å¼ķæĵİ": 5733,
      "ä¾ĭåŃĲ": 5734,
      "éľĢæ±Ĥ": 5735,
      "èĪŀè¹Ī": 5736,
      "æī©å¤§": 5737,
      "æŀ¢å¯Ĩ": 5738,
      "è®¡ç®Ĺæľº": 5739,
      "é«ĺçŃīåŃ¦æł¡": 5740,
      "ä¿ĥè¿Ľ": 5741,
      "SEE": 5742,
      "AS": 5743,
      "Th": 5744,
      "ç«Ł": 5745,
      "åħ¬ä¼Ĺ": 5746,
      "æľ¬ç§ĳ": 5747,
      "å¸ĥæĶ¿": 5748,
      "ç«ĭæ³ķ": 5749,
      "äººåı£æĻ®æŁ¥": 5750,
      "è¾ĸåĮº": 5751,
      "éĢĶä¸Ń": 5752,
      "land": 5753,
      "åĲ§": 5754,
      "æĭ¼": 5755,
      "æĢķ": 5756,
      "çī¹çĤ¹": 5757,
      "æµ·å³¡": 5758,
      "éĹ´çļĦ": 5759,
      "å¸ĥæľĹ": 5760,
      "1082": 5761,
      "ãĤī": 5762,
      "éļıåį³": 5763,
      "ç³»ç»ŁçļĦ": 5764,
      "Ġ2013": 5765,
      "åĪĨåĪ«ä¸º": 5766,
      "çľ¼çĿ": 5767,
      "åĲĬ": 5768,
      "ä¸ºæ³ķåĽ½": 5769,
      "äºİP": 5770,
      "ä»ĸè¿ĺ": 5771,
      "å¹¶çĶ±": 5772,
      "é©³": 5773,
      "ä¸ľåĮº": 5774,
      "èĩ³äºİ": 5775,
      "åĲĪåĲĮ": 5776,
      "åĲĪåĶ±": 5777,
      "å¸ĥéĽ·": 5778,
      "ä¹¦éĻ¢": 5779,
      "æĳĨ": 5780,
      "å¤įåħ´": 5781,
      "æ´¾éģ£": 5782,
      "é¹ı": 5783,
      "åĺīä¹ī": 5784,
      "å¼ĹéĩĮ": 5785,
      "Ġ2009": 5786,
      "åĬłåħ¥äºĨ": 5787,
      "æįŁå¤±": 5788,
      "INSEE": 5789,
      "83": 5790,
      "çļĦçĶµå½±": 5791,
      "ä¸įæ»¡": 5792,
      "æľ¬çº¿": 5793,
      "åħĭçļĦ": 5794,
      "æľºåĪ¶": 5795,
      "ç§°ä½ľ": 5796,
      "ä¸¤èĢħ": 5797,
      "æºĥ": 5798,
      "æĮĩå®ļ": 5799,
      "å¾Ģå¾Ģ": 5800,
      "å®Įå·¥": 5801,
      "åħ¶ä¸ŃåĮħæĭ¬": 5802,
      "èĲ½æĪĲ": 5803,
      "åī¯ä¸»å¸Ń": 5804,
      "ä½Ľç½Ĺ": 5805,
      "æĲº": 5806,
      "åį±éĻ©": 5807,
      "åŃĲå¥³": 5808,
      "åħĭå°Ķ": 5809,
      "ä»£çĲĨ": 5810,
      "çĽ¸éĤ»": 5811,
      "èį¡": 5812,
      "å¨¶": 5813,
      "å©´": 5814,
      "ç½Ĺé©¬å¸ĿåĽ½": 5815,
      "çĪĨçĤ¸": 5816,
      "éķ¿æ²Ļ": 5817,
      "è°¥": 5818,
      "èĤ¤": 5819,
      "ern": 5820,
      "åĲĦèĩª": 5821,
      "ç¡«": 5822,
      "åĵĪåĪ©": 5823,
      "è¶³çĲĥéĺŁ": 5824,
      "1933": 5825,
      "ensis": 5826,
      "å·´åŁºæĸ¯åĿ¦": 5827,
      "sk": 5828,
      "ss": 5829,
      "æľŃ": 5830,
      "åĽļ": 5831,
      "ç¾İä¸½": 5832,
      "éĤµ": 5833,
      "å¥³æ¼Ķåĳĺ": 5834,
      "åķ¡": 5835,
      "å±Ģéķ¿": 5836,
      "çĻ»éĻĨ": 5837,
      "éĺµå®¹": 5838,
      "äºĴçĽ¸": 5839,
      "æĭĨéĻ¤": 5840,
      "çº¤ç»´": 5841,
      "600": 5842,
      "Mar": 5843,
      "ox": 5844,
      "å±ł": 5845,
      "è¾¨": 5846,
      "è¾Ł": 5847,
      "åĪĨæĶ¯": 5848,
      "åħĭæŀĹ": 5849,
      "åı°åįĹ": 5850,
      "ä¸¤åĲį": 5851,
      "åħ³éĶ®": 5852,
      "æľįè£ħ": 5853,
      "æĻļæľŁ": 5854,
      "ies": 5855,
      "å¹´åĪĿ": 5856,
      "æĿı": 5857,
      "ä¸ĬäºĨ": 5858,
      "åıĳèĤ²": 5859,
      "äºļå½ĵ": 5860,
      "è¿ĽçĲĥ": 5861,
      "å¹³éĿ¢": 5862,
      "æ³¢å£«": 5863,
      "1968": 5864,
      "ĠPro": 5865,
      "éļ¾ä»¥": 5866,
      "Ġ&": 5867,
      "çļĦéĥ¨åĪĨ": 5868,
      "å¹´ç¾İåĽ½": 5869,
      "å®´": 5870,
      "éĢ¼": 5871,
      "ä¹ĭå¥³": 5872,
      "å¯¹åºĶ": 5873,
      "æģ¨": 5874,
      "è¯¥çī©ç§įçļĦ": 5875,
      "æ¸¯åı£": 5876,
      "ä¹¦ä¸Ń": 5877,
      "æµģæµª": 5878,
      "è¿ĳå¹´": 5879,
      "äº²èĩª": 5880,
      "é±¼ç±»": 5881,
      "éĻ·åħ¥": 5882,
      "åĽ°éļ¾": 5883,
      "æ±Łèĭıçľģ": 5884,
      "äººåı£æķ°éĩıä¸ºP": 5885,
      "çľ¼çĿĽ": 5886,
      "çļĦå¤©": 5887,
      "èĢĮä¸į": 5888,
      "åįĹä¾§": 5889,
      "ãĥĨ": 5890,
      "æĥľ": 5891,
      "æ¯Ķå¦Ĥ": 5892,
      "ä¹Ŀæ®µ": 5893,
      "å¾Īå¤§": 5894,
      "Ġ2017": 5895,
      "å·¥ç¨ĭå¸Ī": 5896,
      "æ¹ĸåįĹçľģ": 5897,
      "çļĦå¤´": 5898,
      "æľµ": 5899,
      "ä¸Ģèĩ´": 5900,
      "åº¶": 5901,
      "å¤§è¥¿æ´ĭ": 5902,
      "åĴ¨": 5903,
      "éĢ»": 5904,
      "åĲİè¢«": 5905,
      "æĪĲéķ¿": 5906,
      "ä»ĸåĴĮ": 5907,
      "åĮĹä¾§": 5908,
      "çİ°å®ŀ": 5909,
      "éħ¯": 5910,
      "è¾¾å°Ķ": 5911,
      "ç©ºä¸Ń": 5912,
      "åĸĻ": 5913,
      "æĳ§": 5914,
      "èĲ¨å°Ķ": 5915,
      "1951": 5916,
      "åĵ¥åĵ¥": 5917,
      "å´©": 5918,
      "ç¼©åĨĻ": 5919,
      "çļĦç¬¬äºĮ": 5920,
      "çļĦè¯Ŀ": 5921,
      "åľ¨é¦Ļæ¸¯": 5922,
      "ä¼½": 5923,
      "æĪĲçļĦ": 5924,
      "æĬ±": 5925,
      "çľī": 5926,
      "è°ģ": 5927,
      "æ¯Ķå°Ķ": 5928,
      "åĲĳåĮĹ": 5929,
      "åĬ³åĬ¨": 5930,
      "è·Łéļı": 5931,
      "åı¬å¼Ģ": 5932,
      "è¿ŀç»Ńåī§": 5933,
      "åĮºä¸ºUTC": 5934,
      "åĨĴéĻ©": 5935,
      "VD": 5936,
      "ä¸Ńåħ±": 5937,
      "å¤§è¡Ĺ": 5938,
      "æĹ¶æ®µ": 5939,
      "åħ¬é¡·": 5940,
      "é¢Į": 5941,
      "ä»£çĽ®": 5942,
      "æīĢå±ŀ": 5943,
      "æµ·ä¸Ĭ": 5944,
      "ç§įç±»": 5945,
      "éĩĳå±±": 5946,
      "å¥³åŃ©": 5947,
      "äºĶåįģ": 5948,
      "å²Ľå±¿": 5949,
      "å¼łä¸ĵè¾ĳ": 5950,
      "æŃĮè¯į": 5951,
      "åĲ«æľī": 5952,
      "ç«ŀæĬĢ": 5953,
      "ris": 5954,
      "Ã¡": 5955,
      "çļĦåıĳå±ķ": 5956,
      "2046": 5957,
      "èĩªèº«": 5958,
      "ãĥķ": 5959,
      "å¹³è¡¡": 5960,
      "ãģĬ": 5961,
      "ç»Ļäºĭ": 5962,
      "ä¿®éģĵ": 5963,
      "å¯Ĩåº¦": 5964,
      "åĿĩä¸º": 5965,
      "æĶ¿æ²»å®¶": 5966,
      "å¸Ĥéķĩç¼ĸçłģä¸ºP": 5967,
      "éĶĢéĩı": 5968,
      "æİ¥å£¤çļĦå¸Ĥéķĩ": 5969,
      "éĤ®æĶ¿ç¼ĸçłģä¸ºP": 5970,
      "æ¯ĶåĪ©æĹ¶": 5971,
      "INSEEå¸Ĥéķĩç¼ĸçłģä¸ºP": 5972,
      "MV": 5973,
      "ĠæĹ¥æľ¬": 5974,
      "åĩºåĶ®": 5975,
      "ä»»æľŁ": 5976,
      "å¯¹æŃ¤": 5977,
      "åħ¥çĲĥ": 5978,
      "ãĤ£": 5979,
      "å·²çŁ¥": 5980,
      "orn": 5981,
      "èģĮä½į": 5982,
      "åį«æĸ¯": 5983,
      "ç¥ĸåħĪ": 5984,
      "æ»ĳéĽª": 5985,
      "åįļå£«åŃ¦ä½į": 5986,
      "æĹ¶çļĦäººåı£æķ°éĩıä¸ºP": 5987,
      "09": 5988,
      "ĠZ": 5989,
      "çļĦåĽ½å®¶": 5990,
      "å®Ľ": 5991,
      "äººå·¥": 5992,
      "æĸ¯æŀĹ": 5993,
      "ãĢĭï¼ī": 5994,
      "è¥¿ä¾§": 5995,
      "åĮĹéŃı": 5996,
      "åĨħæľī": 5997,
      "çĲĨå·¥": 5998,
      "å¸ĥå°Ķ": 5999,
      "ä¹ĲåĻ¨": 6000,
      "é¦ĸä½į": 6001,
      "æĶ¹åĸĦ": 6002,
      "èµ·æºĲ": 6003,
      "åĸ»": 6004,
      "èı©": 6005,
      "ĠSp": 6006,
      "éĿĴå°ĳå¹´": 6007,
      "ĠLe": 6008,
      "çļĦä¸Ģä¸ªå¸Ĥéķĩ": 6009,
      "Ġ2007": 6010,
      "lay": 6011,
      "åħħæ»¡": 6012,
      "81": 6013,
      "Ġ12": 6014,
      "çļĦçĪ¶äº²": 6015,
      "æĹ¬": 6016,
      "åºļ": 6017,
      "åİ¢": 6018,
      "æĹ¥äºİ": 6019,
      "âĢĻ": 6020,
      "åĪĨè£Ĥ": 6021,
      "é¢Ĥ": 6022,
      "åħĭéĽ·": 6023,
      "å¯¹éĺµ": 6024,
      "éĵİ": 6025,
      "ä½ĵéķ¿": 6026,
      "èĻ¾": 6027,
      "æĥħèĬĤ": 6028,
      "åĽŀå½Ĵ": 6029,
      "åĽ¾æ¡Ī": 6030,
      "æİ¨èįĲ": 6031,
      "è¿ľéķľ": 6032,
      "èľĢ": 6033,
      "éĿ¢ç§¯P": 6034,
      "åħįè´¹": 6035,
      "èĿł": 6036,
      "å±±ä¸ľçľģ": 6037,
      "å¤ıä»¤æĹ¶": 6038,
      "Un": 6039,
      "Ñĥ": 6040,
      "ä¸ŃæľĢ": 6041,
      "å¼Ħ": 6042,
      "åĴı": 6043,
      "åľ°äº§": 6044,
      "ä»ĸæĽ¾": 6045,
      "å¾·æĭī": 6046,
      "ç¾İåĨĽ": 6047,
      "æĦ¤": 6048,
      "éĻ¢å£«": 6049,
      "éĴ¹": 6050,
      "ç¥ŀç§ĺ": 6051,
      "å²Ľæ´¥": 6052,
      "æ±ŁæĪ·": 6053,
      "åĽŀåĲĪ": 6054,
      "ick": 6055,
      "äººæ°ĳæ³ķéĻ¢": 6056,
      "æľĽè¿ľéķľ": 6057,
      "éģĩåĪ°": 6058,
      "èµŀåĬ©": 6059,
      "92": 6060,
      "ä¸Ģäºº": 6061,
      "å¤§å¸Ī": 6062,
      "åĩºéģĵ": 6063,
      "ä½ľåĩº": 6064,
      "æľ¬åľŁ": 6065,
      "æ³ķå®ĺ": 6066,
      "è¿ĻéĩĮ": 6067,
      "æ°ĳä¼Ĺ": 6068,
      "çĲĨæŁ¥": 6069,
      "ç§ĳå¤«": 6070,
      "åĮĸåĲĪçī©": 6071,
      "è¯´æĺİ": 6072,
      "æĦıå¿Ĺ": 6073,
      "ç»´å¤ļåĪ©äºļ": 6074,
      "åį¡æ´Ľ": 6075,
      "ç¿ħ": 6076,
      "éĢłåŀĭ": 6077,
      "åķĨäºº": 6078,
      "æĿ¯åĨłåĨĽ": 6079,
      "ç»ĺçĶ»": 6080,
      "æŀ¢çº½": 6081,
      "çļĦéĹ®é¢ĺ": 6082,
      "èµĮ": 6083,
      "å¯ĩ": 6084,
      "éģ¥": 6085,
      "ä¸ĭä¸Ģ": 6086,
      "ç¥Ĥ": 6087,
      "è¯¥çľģä»½": 6088,
      "æł¼æŀĹ": 6089,
      "çĤŃ": 6090,
      "æ£ī": 6091,
      "åı¸èģĮ": 6092,
      "æĪĸæĹ§å¸Ĥéķĩ": 6093,
      "åįķçĭ¬": 6094,
      "èĮĦ": 6095,
      "çŁ¥åºľ": 6096,
      "åįĩä»»": 6097,
      "æļĸ": 6098,
      "æħİ": 6099,
      "æ¨¡å¼ıäº§": 6100,
      "å¤©æ´¥å¸Ĥ": 6101,
      "èļĢ": 6102,
      "éĺħè¯»": 6103,
      "ood": 6104,
      "æĺ¯ä¸º": 6105,
      "æĹ¥æŃ£å¼ı": 6106,
      "è½©": 6107,
      "å»ĸ": 6108,
      "çī¹æĭī": 6109,
      "ä¸ĭäºĨ": 6110,
      "æµ·åŁŁ": 6111,
      "è°Ĭ": 6112,
      "åı·ä¸º": 6113,
      "å¼ıçļĦ": 6114,
      "èıĬ": 6115,
      "ç¦»åŃĲ": 6116,
      "æ¬§åħĥ": 6117,
      "é¹ħ": 6118,
      "ä¾ĽåºĶ": 6119,
      "çīĻåĪ©": 6120,
      "æľ«æľŁ": 6121,
      "ç¿°æŀĹ": 6122,
      "äº¿ç¾İåħĥ": 6123,
      "å®¡åĪ¤": 6124,
      "ä½ľæĽ²å®¶": 6125,
      "ĠåĽĽå·Ŀçľģ": 6126,
      "åĬłå°Ķ": 6127,
      "è·¯ç«Ļ": 6128,
      "çİĭä½į": 6129,
      "éĩįå¤§": 6130,
      "éĢīåĮºä¸º": 6131,
      "äº¤æį¢": 6132,
      "æ´»è·ĥ": 6133,
      "çĶ°æĿĳ": 6134,
      "èĭıç»´åŁĥ": 6135,
      "ç¦ıå¾·": 6136,
      "æ¯ıå¤©": 6137,
      "ure": 6138,
      "åıĳè¡ĮçļĦ": 6139,
      "éĶĻè¯¯": 6140,
      "åĮĪçīĻåĪ©": 6141,
      "93": 6142,
      "çļĦéŁ³ä¹Ĳ": 6143,
      "æĪĲçĨŁ": 6144,
      "ä»ĸä¸º": 6145,
      "é©¬æģ©": 6146,
      "ä½ĵåŀĭ": 6147,
      "éĢīåĮº": 6148,
      "å¿ĥèĦı": 6149,
      "ä¼łå¥ĩ": 6150,
      "ä¼łåªĴ": 6151,
      "æĻ®é²ģ": 6152,
      "èµĦéĩĳ": 6153,
      "åĪĽå§ĭ": 6154,
      "åħ¶ä¸Ńä¸Ģä¸ª": 6155,
      "ç¢Ł": 6156,
      "è¯ºå¤«": 6157,
      "1967": 6158,
      "è¶³çĲĥä¿±ä¹Ĳéĥ¨": 6159,
      "çģ°çĨĬ": 6160,
      "åıĻåĪ©äºļ": 6161,
      "çľģçº§éĢīåĮºä¸º": 6162,
      "æīĢå±ŀçļĦçľģçº§éĢīåĮºä¸º": 6163,
      "**": 6164,
      "110": 6165,
      "éĹ½": 6166,
      "è¥¿è¥¿": 6167,
      "ä¸ľåĮĹéĥ¨": 6168,
      "åľºåľ°": 6169,
      "èĤ©": 6170,
      "æŁĦ": 6171,
      "ãģı": 6172,
      "ä¸¤å¹´": 6173,
      "æł¼æĭī": 6174,
      "æĶ¹åĲį": 6175,
      "èĮİ": 6176,
      "çĵ·": 6177,
      "å±ħå§Ķä¼ļ": 6178,
      "éħįè§Ĵ": 6179,
      "æĦŁè§ī": 6180,
      "ame": 6181,
      "æĬµæĬĹ": 6182,
      "çļĦæĪĲç»©": 6183,
      "ä¸ºåħ¶": 6184,
      "ä¸Ńå¼ı": 6185,
      "ä»¥åįĹ": 6186,
      "åľ°åĲį": 6187,
      "æľ¬ä¹¦": 6188,
      "æĪĺåĽ½": 6189,
      "äº¤åıī": 6190,
      "èİ·å¥ĸ": 6191,
      "ĠSh": 6192,
      "éħįç½®": 6193,
      "æķĮäºº": 6194,
      "åºŁéĻ¤": 6195,
      "æħĪåĸĦ": 6196,
      "æĬĳåĪ¶": 6197,
      "æĳ§æ¯ģ": 6198,
      "ãĢľ": 6199,
      "æµĨ": 6200,
      "ä¼ļè¯ķ": 6201,
      "å§¿": 6202,
      "åĬłå¼º": 6203,
      "ç«ĭåį³": 6204,
      "æ¶Ľ": 6205,
      "åĭŁ": 6206,
      "æ³¢çī¹": 6207,
      "æ¾Ħ": 6208,
      "åĲ¯åĬ¨": 6209,
      "è½°çĤ¸": 6210,
      "91": 6211,
      "IP": 6212,
      "è¢«æĿĢ": 6213,
      "å²Ĳ": 6214,
      "ãĤµ": 6215,
      "åĲĳä¸ľ": 6216,
      "æĺŁçļĦ": 6217,
      "æ¢µ": 6218,
      "è¶³å¤Ł": 6219,
      "éĺ³åİ¿": 6220,
      "å¥½åıĭ": 6221,
      "ç§¯æŀģ": 6222,
      "amp": 6223,
      "ames": 6224,
      "ä½ıæ°ĳ": 6225,
      "éĿłè¿ĳ": 6226,
      "é¢ģåıĳ": 6227,
      "åĬłåĪ©ç¦ı": 6228,
      "ax": 6229,
      "çĶ«": 6230,
      "äºİæŃ¤": 6231,
      "è´©": 6232,
      "ä¸Ĭåįĩ": 6233,
      "åİŁåŃĲ": 6234,
      "ãĤ°": 6235,
      "å°¼åı¤": 6236,
      "åŀ£": 6237,
      "ä¿ĿéĻ©": 6238,
      "åį¡ç½Ĺ": 6239,
      "æīĵçł´": 6240,
      "åĲīå°Ķ": 6241,
      "ç»¼èīº": 6242,
      "åıĻè¿°": 6243,
      "äº¤æµģéģĵ": 6244,
      "çļĦæĹ¶åĮºä¸ºUTC": 6245,
      "è¯¥çľģä»½ä¸ºæ³ķåĽ½": 6246,
      "Cl": 6247,
      "ire": 6248,
      "ĠæĹ¥": 6249,
      "Ġ2020": 6250,
      "æĺ¯åĽłä¸º": 6251,
      "ä»¥ä¸ĬçļĦ": 6252,
      "åīĬ": 6253,
      "ç«Ļåİħ": 6254,
      "å¤ĸè§Ĥ": 6255,
      "ä»İæŃ¤": 6256,
      "åĲīæŀĹ": 6257,
      "è¾¹çļĦ": 6258,
      "èĴĤäºļ": 6259,
      "ock": 6260,
      "Ħæ¦Ħ": 6261,
      "çļĦåĲįåŃĹ": 6262,
      "æ°¯": 6263,
      "æĬĦ": 6264,
      "åħ¬åĽ½": 6265,
      "å¼Ģå¹ķ": 6266,
      "èĪĮ": 6267,
      "çİ°ä»Ĭ": 6268,
      "å¤©ä½¿": 6269,
      "æĶ¹ç§°": 6270,
      "æĬ¥å¯¼": 6271,
      "åķĨåĵģ": 6272,
      "å´ĸ": 6273,
      "Ġ2011": 6274,
      "æīĢæľīçļĦ": 6275,
      "ä¼įå¾·": 6276,
      "æĮĩæĮ¥å®ĺ": 6277,
      "æ©Ħæ¦Ħ": 6278,
      "åħ¬å¼ĢèµĽ": 6279,
      "08": 6280,
      "71": 6281,
      "ool": 6282,
      "Ġï¼ļ": 6283,
      "çļĦæĶ¯æĮģ": 6284,
      "æĸĮ": 6285,
      "åĩ¶": 6286,
      "æľīæľº": 6287,
      "åŃ¦çļĦ": 6288,
      "åĳĺå¤ĸ": 6289,
      "ç©Ĺ": 6290,
      "çķħ": 6291,
      "èĥ½éĩı": 6292,
      "ç½Ĺå¾·": 6293,
      "ä½¿åħ¶": 6294,
      "æĢ§æł¼": 6295,
      "æĢ»è£ģ": 6296,
      "åįİè¯Ń": 6297,
      "ory": 6298,
      "é»Ħæ²³": 6299,
      "è§ĤéŁ³": 6300,
      "äººæ°ĳå¸ģ": 6301,
      "éĤ£ä¹Ī": 6302,
      "ĠMar": 6303,
      "æķĻèĤ²éĥ¨": 6304,
      "ĠEn": 6305,
      "æķĪåĬĽäºİ": 6306,
      "é¤Ĳåİħ": 6307,
      "REM": 6308,
      "ĠâĢĵ": 6309,
      "çļĦéĤ®æĶ¿ç¼ĸçłģä¸ºP": 6310,
      "ä¸ºæŃ¤": 6311,
      "åľ°ä¸Ĭ": 6312,
      "æ¸ł": 6313,
      "åĲįè¿Ľå£«": 6314,
      "ä¸»åĬŀ": 6315,
      "é©¹": 6316,
      "åĬłåĵ¥": 6317,
      "éĩĮåħĭ": 6318,
      "å®īæīĵ": 6319,
      "è¯¥åħ¬åı¸": 6320,
      "æł¼éĩĮ": 6321,
      "æŃ£å¾·": 6322,
      "éľŀ": 6323,
      "éĶĲ": 6324,
      "èİ·èĥľ": 6325,
      "ence": 6326,
      "å¤ĦçļĦ": 6327,
      "èµĦè®¯": 6328,
      "att": 6329,
      "æİĴåĪĹ": 6330,
      "èģĶèµĽåĨłåĨĽ": 6331,
      "å£°ç§°": 6332,
      "åĨĻçļĦ": 6333,
      "old": 6334,
      "èĬĿåĬłåĵ¥": 6335,
      "ron": 6336,
      "ÙĦ": 6337,
      "áĢ": 6338,
      "ãĢĤãĢĤ": 6339,
      "ä¼ļä¸Ĭ": 6340,
      "ãĢĭï¼Ľ": 6341,
      "å§ĳ": 6342,
      "å¤ļäºº": 6343,
      "çİ°åŃĺ": 6344,
      "ãĤ¦": 6345,
      "æŃ£éĿ¢": 6346,
      "åĶ¤": 6347,
      "è§Ĩè§ī": 6348,
      "çº§åĪ«": 6349,
      "æĮģæľī": 6350,
      "åįĩæł¼": 6351,
      "å¡Ķåħĭ": 6352,
      "æĺ¯ä¸Ģåº§": 6353,
      "çĶ·ä¸»è§Ĵ": 6354,
      "ç¢±": 6355,
      "é¡ºåĪ©": 6356,
      "èĢ¶å¤«": 6357,
      "Ġ2005": 6358,
      "ãĢıï¼Ī": 6359,
      "æ³ķåħ°è¥¿": 6360,
      "è¯¥çī©ç§įçļĦæ¨¡å¼ıäº§": 6361,
      "AN": 6362,
      "æĺ¯åı°æ¹¾": 6363,
      "éĥģ": 6364,
      "ä»ĸä¹Ł": 6365,
      "ä¸»ä½ĵ": 6366,
      "åĨĽåĮº": 6367,
      "å¤ļå°Ķ": 6368,
      "åīįéĶĭ": 6369,
      "æĸ°ç«¹": 6370,
      "æ¼Ĥ": 6371,
      "éĩĳåĪļ": 6372,
      "å¸¸å¸¸": 6373,
      "æĿĢæīĭ": 6374,
      "å½ĵåľ°çļĦ": 6375,
      "å«Į": 6376,
      "åį«æĸ¯çĲĨ": 6377,
      "ment": 6378,
      "ĠåĮĹ": 6379,
      "æĸ¯æ´Ľ": 6380,
      "ç¬¬ä¹Ŀ": 6381,
      "åĲĮåĲį": 6382,
      "æľĢä½İ": 6383,
      "é«ĺéĽĦ": 6384,
      "æ¡Ĳ": 6385,
      "è¿Ĳä½ľ": 6386,
      "æĹłè®º": 6387,
      "éĴł": 6388,
      "æĽ¾äºİ": 6389,
      "æł¡åĽŃ": 6390,
      "æł¡èĪį": 6391,
      "è¿ĳä»£": 6392,
      "çªĦ": 6393,
      "æ·±åº¦": 6394,
      "å¸Ńä½į": 6395,
      "å®ĿçŁ³": 6396,
      "åĪĨå¸ĥåľ¨": 6397,
      "æī©å»º": 6398,
      "ç»Ļäºĭä¸Ń": 6399,
      "94": 6400,
      "ä¸ĢåĪĩ": 6401,
      "è¡Įä¸ļ": 6402,
      "è¥¿èĹı": 6403,
      "åĨĽå®ĺ": 6404,
      "å¹¶è¢«": 6405,
      "æĸĩå¸Ŀ": 6406,
      "ç©·": 6407,
      "èĲĿ": 6408,
      "é©¬ä¸ģ": 6409,
      "éĢļå¾Ģ": 6410,
      "ç§°åĳ¼": 6411,
      "ãģĮ": 6412,
      "è¯¥åī§": 6413,
      "å®ļå±ħ": 6414,
      "éĥ½åľ¨": 6415,
      "æĺŁç³»": 6416,
      "è§Ĥåħī": 6417,
      "å¡ŀçº³": 6418,
      "çĶ²ç»Ħ": 6419,
      "åĽ´æ£ĭ": 6420,
      "å®ĪæĬ¤": 6421,
      "1932": 6422,
      "çŁŃæļĤ": 6423,
      "æ²¿å²¸": 6424,
      "åıĤè°ĭéķ¿": 6425,
      "åĢĻéĢīäºº": 6426,
      "åĬ¨è½¦ç»Ħ": 6427,
      "yn": 6428,
      "çļĦä¸Ĭ": 6429,
      "åľ¨ä¸Ń": 6430,
      "èĢĮéĿŀ": 6431,
      "å¸ĤæĶ¿": 6432,
      "å¤ļæł·": 6433,
      "èĪŁ": 6434,
      "æīĢè°ĵ": 6435,
      "é©¬æĸ¯": 6436,
      "åħ¥åĽ´": 6437,
      "å°¼è¥¿äºļ": 6438,
      "æĹıèĩªæ²»åĮº": 6439,
      "éŃģ": 6440,
      "åĺīåºĨ": 6441,
      "æĭ¿ä¸ĭ": 6442,
      "è¸ı": 6443,
      "æĴ¤éĢĢ": 6444,
      "ä¸¾åĬŀçļĦ": 6445,
      "æŀ¢æľº": 6446,
      "åıĽä¹±": 6447,
      "èĲ¨åħĭæ£®": 6448,
      "Go": 6449,
      "Ġä¼Ĭ": 6450,
      "ä¸Ģè¯į": 6451,
      "å¾Ĺå¥ĸ": 6452,
      "æŃ¤æ¬¡": 6453,
      "å¼ıæľĪåı°": 6454,
      "åķĨåºĹ": 6455,
      "ä¾Ŀæį®": 6456,
      "ost": 6457,
      "ãĤ¤ãĥ": 6458,
      "éĦĤ": 6459,
      "åĴĸåķ¡": 6460,
      "è¯¥çī©ç§įçļĦæ¨¡å¼ıäº§åľ°åľ¨": 6461,
      ")ï¼ļ": 6462,
      "ĠâĢľ": 6463,
      "çļĦåľ£": 6464,
      "çļĦå½¢å¼ı": 6465,
      "æĺ¯ä»İ": 6466,
      "åĽ½è¯Ń": 6467,
      "èĩĤ": 6468,
      "ä¹ĭä¸º": 6469,
      "å¾·è¯Ń": 6470,
      "å¼Ģå±ķ": 6471,
      "æĪĺåľº": 6472,
      "å¤©ä¸ĭ": 6473,
      "éĵ¸": 6474,
      "çĲĨè§£": 6475,
      "ç«ĭæĸ¹": 6476,
      "è®¾å®ļ": 6477,
      "ç§°åı·": 6478,
      "æİ¥æĶ¶": 6479,
      "çĽ´åįĩ": 6480,
      "èĻı": 6481,
      "å¥¹ä»¬": 6482,
      "ç¼ĸåħ¥": 6483,
      "åĽ¾åĥı": 6484,
      "å¦ĩå¥³": 6485,
      "åį¢çĵ¦å°Ķçľģ": 6486,
      "æĹħå®¢éĵģéģĵ": 6487,
      "æĸ¯æĭīå¤«": 6488,
      "å®īä¸ľå°¼": 6489,
      "eb": 6490,
      "ÑĮ": 6491,
      "æīģ": 6492,
      "æľīè®¸å¤ļ": 6493,
      "ä¸įçŁ¥": 6494,
      "æİł": 6495,
      "ç¥Ī": 6496,
      "éģĵå¤«": 6497,
      "åĬłåĪ©äºļ": 6498,
      "ä½ĵç³»": 6499,
      "åİŁä¸º": 6500,
      "äºĶä¸ª": 6501,
      "çĽ´æĴŃ": 6502,
      "åįķåħĥ": 6503,
      "åĽ½å®¶çļĦ": 6504,
      "çĳ°": 6505,
      "ä»Ĭå¤©": 6506,
      "è¯Ħä¼°": 6507,
      "ç¢Ĺ": 6508,
      "æİ¨å¹¿": 6509,
      "çĽĳå¯Ł": 6510,
      "è°¢å°Ķé¡¿": 6511,
      "çłģå¤´": 6512,
      "éķľå¤´": 6513,
      "èĦ±ç¦»": 6514,
      "çģŃç»Ŀ": 6515,
      "å´ĩç¥¯": 6516,
      "ON": 6517,
      "Ġ8": 6518,
      "äº¥": 6519,
      "å°¿": 6520,
      "å¸ĸ": 6521,
      "æĹ¥åĲİ": 6522,
      "æ³¡": 6523,
      "åľ°åŁŁ": 6524,
      "ç¥Ĳ": 6525,
      "äºĮæĪĺ": 6526,
      "è¶ĭ": 6527,
      "åı²èĴĤ": 6528,
      "éĺ¿æĸ¯": 6529,
      "åıĺå½¢": 6530,
      "çļĦä¸ĢæĿ¡": 6531,
      "æ²Ļæ¼ł": 6532,
      "åĬŀäºĭ": 6533,
      "è¿ªå£«": 6534,
      "çĶŁçī©åŃ¦": 6535,
      "æĢĢçĸĳ": 6536,
      "æ»¨æµ·": 6537,
      "å¡ŀå°Ķç»´äºļ": 6538,
      "åľ¨ä¸Ģä¸ª": 6539,
      "äºĨä»ĸçļĦ": 6540,
      "æĪĲäºº": 6541,
      "æĢ¨": 6542,
      "ä¹ĭå¤Ħ": 6543,
      "åĵŃ": 6544,
      "çī¹å®ļ": 6545,
      "ä¸ĭä»¤": 6546,
      "åĮĹèµ·": 6547,
      "å¼Ģä¸ļ": 6548,
      "åĨħèĴĻåı¤": 6549,
      "èĤĿ": 6550,
      "æł¼åĭĴ": 6551,
      "èĭ±è¶ħ": 6552,
      "è§Ĩé¢ĳ": 6553,
      "éĶ¥": 6554,
      "å¦Ĥä»Ĭ": 6555,
      "èº«åĪĨ": 6556,
      "æ±ŁåįĹ": 6557,
      "åįķæīĵ": 6558,
      "åĲĦä¸ª": 6559,
      "è¾ĥå¤§": 6560,
      "æĬ¤åį«": 6561,
      "ç»ĨèıĮ": 6562,
      "è¿½æº¯": 6563,
      "çĽ¸åħ³çļĦ": 6564,
      "è§īå¾Ĺ": 6565,
      "åĭĩå£«": 6566,
      "ä¸ĢçĻ¾": 6567,
      "ç«£": 6568,
      "è¥¿åįĹéĥ¨": 6569,
      "ä¸ľäºļ": 6570,
      "æĪĺèĥľ": 6571,
      "ãģ¦": 6572,
      "éĥ½è¢«": 6573,
      "æĢ§èĥ½": 6574,
      "æįī": 6575,
      "åİĨä»£": 6576,
      "æĦıåĳ³": 6577,
      "é²¸": 6578,
      "èĻŀ": 6579,
      "æĶ¶è´¹": 6580,
      "æ°ĶæĹĭ": 6581,
      "è¶ħè¶Ĭ": 6582,
      "è¯Ħå®¡": 6583,
      "æİ¨åĬ¨": 6584,
      "èĽĽ": 6585,
      "æ´ĭèĪ°": 6586,
      "å·¡æ´ĭèĪ°": 6587,
      "æīĢåľ¨åľ°": 6588,
      "è¿ªå£«å°¼": 6589,
      "çļĦæĢ»": 6590,
      "æĪĬ": 6591,
      "ä¸Ńä¹¦": 6592,
      "å¤§æ°Ķ": 6593,
      "ä¸Ĭè¿°": 6594,
      "èµĽä¸Ń": 6595,
      "åı·ç§įåŃĲ": 6596,
      "åı²å¯Ĩ": 6597,
      "éħ¿": 6598,
      "çĥ¯": 6599,
      "æ¸¸å®¢": 6600,
      "æ³¢ç½Ĺ": 6601,
      "çĶµå½±èĬĤ": 6602,
      "éĻĨç»Ń": 6603,
      "å±Ĭåħ¨åĽ½": 6604,
      "åĲĮæĹ¶ä¹Ł": 6605,
      "æ²¿æµ·": 6606,
      "1901": 6607,
      "æİ¢ç´¢": 6608,
      "æ¡£æ¡Ī": 6609,
      "DVD": 6610,
      "å¸Ĳ": 6611,
      "åĬ¾": 6612,
      "æ³Į": 6613,
      "ãĥ£": 6614,
      "å¤©åĲİ": 6615,
      "è®¾äºİ": 6616,
      "ãĤ³": 6617,
      "æıĲåıĬ": 6618,
      "çĥ·": 6619,
      "ç¬¬ä¸Ģä½į": 6620,
      "è½¬åĲĳ": 6621,
      "æ´Ľéĺ³": 6622,
      "ä»ĸä»¬åľ¨": 6623,
      "ä¸Ńå¿ĥçļĦ": 6624,
      "æĥ³è¦ģ": 6625,
      "çľĭåı°": 6626,
      "æĿ°åĩº": 6627,
      "ley": 6628,
      "çļ®èĤ¤": 6629,
      "æľīä¸ĢäºĽ": 6630,
      "åºıåĪĹ": 6631,
      "åĲ¸æĶ¶": 6632,
      "æ²īç§¯": 6633,
      "çĽ¸åĲĮçļĦ": 6634,
      "èĤ¡ä»½æľīéĻĲåħ¬åı¸": 6635,
      "AC": 6636,
      "Ã¼": 6637,
      "Ġ18": 6638,
      "æĺĶ": 6639,
      "ä¸Ģåľº": 6640,
      "éĢ®": 6641,
      "éĢ¸": 6642,
      "æ³Ħ": 6643,
      "éķĳ": 6644,
      "èĥĨ": 6645,
      "æ³ķè¯Ń": 6646,
      "æĸ°å»º": 6647,
      "éĺŁåĳĺ": 6648,
      "ç»ıçĶ±": 6649,
      "ä¸¤ä½į": 6650,
      "æ·³": 6651,
      "åĪĻåľ¨": 6652,
      "è§Ĵé¾Ļ": 6653,
      "æĶ¶éĽĨ": 6654,
      "åıįæĺł": 6655,
      "åıĳçİ°äºİ": 6656,
      "æĹ¶ä»£çļĦ": 6657,
      "çī§å¸Ī": 6658,
      "åŁ¹è®Ń": 6659,
      "ĠĠĠĠ": 6660,
      "è¾ŀèģĮ": 6661,
      "ex": 6662,
      "âĸ": 6663,
      "Ġ11": 6664,
      "å¤§è§Ħæ¨¡": 6665,
      "åĩºåıĳ": 6666,
      "çŃĴ": 6667,
      "é¢ħ": 6668,
      "èĢĮä¸įæĺ¯": 6669,
      "åįĹéĿŀ": 6670,
      "åħĭèĲ¨æĸ¯": 6671,
      "å¦Ĩ": 6672,
      "å·¥èīº": 6673,
      "æľºçļĦ": 6674,
      "ä¿ĿåĬłåĪ©äºļ": 6675,
      "æİ¥æĽ¿": 6676,
      "çĭ¸": 6677,
      "æ»ŀ": 6678,
      "é²¨": 6679,
      "åıªè¦ģ": 6680,
      "160": 6681,
      "åį³å°Ĩ": 6682,
      "è¯Ħä¸º": 6683,
      "æİ§èĤ¡": 6684,
      "èİīäºļ": 6685,
      "ivers": 6686,
      "åĿļæĮģ": 6687,
      "çĭ®åŃĲ": 6688,
      "å¹¿è¥¿å£®": 6689,
      "ier": 6690,
      "Ġa": 6691,
      "äº©": 6692,
      "æĺı": 6693,
      "çİ«": 6694,
      "1927": 6695,
      "æĬ¼": 6696,
      "æľ¬åī§": 6697,
      "èĭ¯": 6698,
      "èĩªç§°": 6699,
      "æĸ°åŁİ": 6700,
      "è¶ģ": 6701,
      "ä¸ŃåĽ½çļĦ": 6702,
      "ç»´æĸ¯": 6703,
      "çļĦä¸ĢäºĽ": 6704,
      "æ´Ľå¤«": 6705,
      "èĲ¥ä¸ļ": 6706,
      "æĬĢå·§": 6707,
      "æ¦´": 6708,
      "ç»§ä»»": 6709,
      "æ¿ĳ": 6710,
      "å¤©æĸĩåı°": 6711,
      "æ²³åĮĹçľģ": 6712,
      "å¹¿è¥¿å£®æĹıèĩªæ²»åĮº": 6713,
      "Ġ+": 6714,
      "çļĦåŁºç¡Ģ": 6715,
      "çļĦåİŁåĽł": 6716,
      "åĿŁ": 6717,
      "è½¦éģĵ": 6718,
      "ç¤ģ": 6719,
      "åľºæīĢ": 6720,
      "ä½ĵéĩį": 6721,
      "ç½Ĺä¼¯çī¹": 6722,
      "å¤ĸçļĦ": 6723,
      "éĥ½å¾¡åı²": 6724,
      "å¥ĸç«ł": 6725,
      "æĽ´æĸ°": 6726,
      "çłĶåıĳ": 6727,
      "æĬ¥çº¸": 6728,
      "æ´¾åĩº": 6729,
      "åºĦä¸º": 6730,
      "ite": 6731,
      "åĨľæ°ĳ": 6732,
      "å²©çŁ³": 6733,
      "ä¸ŃåįİèģĮæ£Ĵ": 6734,
      "åģĩè®¾": 6735,
      "çģ°èī²": 6736,
      "å¹»æĥ³": 6737,
      "å°¤åħ¶æĺ¯": 6738,
      "ver": 6739,
      "Ġ2021": 6740,
      "çļĦæĸ¹æ³ķ": 6741,
      "å¹´èİ·å¾Ĺ": 6742,
      "å°ĺ": 6743,
      "åº¸": 6744,
      "éĻª": 6745,
      "ä¸»åĬĽ": 6746,
      "æ³ķæ¡Ī": 6747,
      "é»Ľ": 6748,
      "éĺ¿éĩĮ": 6749,
      "è®°å¿Ĩ": 6750,
      "æ¹ĸå¹¿": 6751,
      "çģ«å±±": 6752,
      "åĪ¶ä½ľçļĦ": 6753,
      "èĵĦ": 6754,
      "åıĳçĶŁåľ¨": 6755,
      "ä¿Ĺç§°": 6756,
      "æĻ¶ä½ĵ": 6757,
      "ä¿®éģĵéĻ¢": 6758,
      "æĪĮ": 6759,
      "æ¯Ĺ": 6760,
      "åħ¬ä¼ļ": 6761,
      "åĮºåĪ«": 6762,
      "ä¾£": 6763,
      "èĩªæĪĳ": 6764,
      "ä»£æĽ¿": 6765,
      "çĪ¬": 6766,
      "è¿ĽæŃ¥": 6767,
      "éĩįè¿Ķ": 6768,
      "å¦ĤåĲĮ": 6769,
      "ĠCom": 6770,
      "æ³°å±±": 6771,
      "ä¸ĸçºªçļĦ": 6772,
      "çģµéŃĤ": 6773,
      "äº§çĶŁçļĦ": 6774,
      "çºªå½ķçīĩ": 6775,
      "çŁ¿çī©": 6776,
      "SA": 6777,
      "ward": 6778,
      "æĨ": 6779,
      "Ġå±±": 6780,
      "å¹´èİ·": 6781,
      "æĹŃ": 6782,
      "åĽ½ä¸Ń": 6783,
      "éĩľ": 6784,
      "å¤§å®¶": 6785,
      "å¤§æŃ£": 6786,
      "éķ°": 6787,
      "éķ¶": 6788,
      "åıĳæİĺ": 6789,
      "èĢĮæĿ¥": 6790,
      "å¾·æ¯Ķ": 6791,
      "çŁ©": 6792,
      "äºļç§ĳ": 6793,
      "å¥³çİĭ": 6794,
      "ä¸ĵç§ĳ": 6795,
      "åħĪåıĳ": 6796,
      "åĵĪå¾·": 6797,
      "ä¿®å¤į": 6798,
      "å¸Įå°Ķ": 6799,
      "çªĿ": 6800,
      "è®©ä»ĸ": 6801,
      "ç¥Ńç¥Ģ": 6802,
      "æİĴè¡Įæ¦ľ": 6803,
      "ook": 6804,
      "Ġéķ¿": 6805,
      "çļĦæīĭ": 6806,
      "ç»ĳ": 6807,
      "ï¼īï¼į": 6808,
      "åĽ½èģĶ": 6809,
      "ä¸Ĭæ¸¸": 6810,
      "ä¸ĬåįĪ": 6811,
      "åıĳæĮ¥": 6812,
      "ä¸ĭåįĬ": 6813,
      "åĲĮæĹ¥": 6814,
      "å¤ĸæĺŁ": 6815,
      "è¯¥æł¡": 6816,
      "èº«ä¸Ĭ": 6817,
      "è¶³æĢ»": 6818,
      "çĮ¿": 6819,
      "åı¦æľī": 6820,
      "åĲĮæĹ¶ä¹Łæĺ¯": 6821,
      "ash": 6822,
      "ĠTh": 6823,
      "æ¶Īè´¹": 6824,
      "çªģçł´": 6825,
      "èµ«å°Ķ": 6826,
      "æ£Ģæµĭ": 6827,
      "æľĢé«ĺçļĦ": 6828,
      "ç©Ĩæĸ¯æŀĹ": 6829,
      "è®¨ä¼Ĳ": 6830,
      "ä¼Ļä¼´": 6831,
      "æŀ¢å¯ĨéĻ¢": 6832,
      "PS": 6833,
      "iel": 6834,
      "ĠçĻ½": 6835,
      "ä½¥": 6836,
      "æľĪçĲĥ": 6837,
      "ä¸ªä½ĵ": 6838,
      "å°Ķå¤«": 6839,
      "å¿Į": 6840,
      "èĭį": 6841,
      "ä¾¨": 6842,
      "çĶµç«Ļ": 6843,
      "çĽ®çļĦæĺ¯": 6844,
      "å§ĭå»ºäºİ": 6845,
      "å¾Īå°ĳ": 6846,
      "ä»ħæľī": 6847,
      "æ»¡æ´²": 6848,
      "ä¸´åºĬ": 6849,
      "Ġ2006": 6850,
      "éľ²éľ²": 6851,
      "è¸¢": 6852,
      "çĶĺèĤĥ": 6853,
      "der": 6854,
      "çļĦåħ¶ä»ĸ": 6855,
      "çļĦæ¯įäº²": 6856,
      "å¤§ä¼Ĺ": 6857,
      "æĭ¨": 6858,
      "è¾Ī": 6859,
      "ä¹ĭå¹´åı·": 6860,
      "æ³ķçļĦ": 6861,
      "ä¹Łçº³": 6862,
      "åİ¿çŁ¥åİ¿": 6863,
      "æµģåŁŁ": 6864,
      "çº³ç²¹": 6865,
      "ä½¿çĶ¨äºĨ": 6866,
      "çĶµè§ĨèĬĤçĽ®": 6867,
      "é¢ĺæĿĲ": 6868,
      "èŃ¦æĸ¹": 6869,
      "æ¿Ģç´ł": 6870,
      "å¹¸ç¦ı": 6871,
      "ä¸ľäº¬éĥ½": 6872,
      "è½¨éģĵäº¤éĢļ": 6873,
      "è¯¦ç»Ĩ": 6874,
      "è¾Ĳå°Ħ": 6875,
      "800": 6876,
      "Ġå®ī": 6877,
      "åľ¨èĭ±åĽ½": 6878,
      "ä¸ĢèģĮ": 6879,
      "æĶĢ": 6880,
      "1922": 6881,
      "ç¬ł": 6882,
      "çĶŁæĪĲ": 6883,
      "åħ¬å¯ĵ": 6884,
      "è¥¿æĸ¯ç§ĳ": 6885,
      "å¾·çĶ²": 6886,
      "æĸĩåºĵ": 6887,
      "åĽłåħ¶": 6888,
      "å¤©çĦ¶": 6889,
      "åİŁåħĪ": 6890,
      "æķ°çļĦ": 6891,
      "å·´æĸ¯": 6892,
      "ç¥ŀåľ£": 6893,
      "è®¤åı¯": 6894,
      "ale": 6895,
      "æ¸ħä»£": 6896,
      "çłĶç©¶ä¸Ńå¿ĥ": 6897,
      "åĨłçĬ¶": 6898,
      "åħ¶ä¸Ńä¸Ģ": 6899,
      "è´Ŀåħĭ": 6900,
      "é»ĳæļĹ": 6901,
      "èĥľåĩº": 6902,
      "æ¨¡çī¹": 6903,
      "æİ¨è¿Ľ": 6904,
      "è®¾è®¡çļĦ": 6905,
      "å¯Įå£«": 6906,
      "éĤ¦èģĶ": 6907,
      "åģ¶åĥı": 6908,
      "05": 6909,
      "IV": 6910,
      "af": 6911,
      "yl": 6912,
      "åį¸": 6913,
      "ãĢģãĢĬ": 6914,
      "ç»µ": 6915,
      "æ°®": 6916,
      "ä¼ļæľī": 6917,
      "åĩºå¢ĥ": 6918,
      "è¡ĮçļĦ": 6919,
      "æľĢä¸º": 6920,
      "é«ĺè¾¾": 6921,
      "åĪ©çļĦ": 6922,
      "åľºçļĦ": 6923,
      "æľºç»Ħ": 6924,
      "æŁ¬": 6925,
      "åİŁä½ıæ°ĳ": 6926,
      "ç±³äºļ": 6927,
      "éĢīç§Ģ": 6928,
      "enn": 6929,
      "æŃĮåĶ±": 6930,
      "çĪ±æ²Ļ": 6931,
      "èı±": 6932,
      "è¾¹ä¸º": 6933,
      "çģ«è½¦ç«Ļ": 6934,
      "äºĨä¸ĢäºĽ": 6935,
      "çĭ¬ç«ĭçļĦ": 6936,
      "æĽ¿ä»£": 6937,
      "æŁĵèī²": 6938,
      "è¾ħåĬ©": 6939,
      "éĽķå¡ĳ": 6940,
      "æ³¢å£«é¡¿": 6941,
      "çĪ±æ²Ļå°¼äºļ": 6942,
      "IT": 6943,
      "ear": 6944,
      "çºł": 6945,
      "è¾£": 6946,
      "ä¸»å¼ł": 6947,
      "é¢ł": 6948,
      "åĬłæĸ¯": 6949,
      "æĥ§": 6950,
      "æĢ»éĿ¢ç§¯": 6951,
      "çĥĤ": 6952,
      "ç»´ä¹Łçº³": 6953,
      "åĮħåĽ´": 6954,
      "è½¬æį¢": 6955,
      "å§Ķä»»": 6956,
      "ical": 6957,
      "åıĳçİ°çļĦ": 6958,
      "æĤł": 6959,
      "ç»ĩçĶ°": 6960,
      "æ°¸ä¹ħ": 6961,
      "åĶ¯ä¸ĢçļĦ": 6962,
      "æİªæĸ½": 6963,
      "ä¸ĢæľŁ": 6964,
      "ä¸ºé£Ł": 6965,
      "å¤§å¹ħ": 6966,
      "å±¡": 6967,
      "æī£": 6968,
      "âĢĺ": 6969,
      "åĮºåĨħ": 6970,
      "åĲĮåŃ¦": 6971,
      "é«ĺæŀ¶": 6972,
      "çĲĨæĥ³": 6973,
      "éĿ¢ä¸´": 6974,
      "ä»İæľª": 6975,
      "å²Ľä¸Ĭ": 6976,
      "æ³¢å°Ķ": 6977,
      "åħ·ä½ĵ": 6978,
      "æĬĢèĥ½": 6979,
      "ä¿ĦåĽ½": 6980,
      "åĩºçİ°äºĨ": 6981,
      "æĵ¢": 6982,
      "ç½Ĺé©¬å°¼äºļ": 6983,
      "æ´ŀç©´": 6984,
      "John": 6985,
      "Ġ2022": 6986,
      "ä¸Ģç³»åĪĹ": 6987,
      "äººå¤§": 6988,
      "ä¼ļè¢«": 6989,
      "åĲįä¸¾äºº": 6990,
      "èĬ½": 6991,
      "è¦ģå¡ŀ": 6992,
      "å½ĵå±Ģ": 6993,
      "æ¬¡äºİ": 6994,
      "ãģĻ": 6995,
      "ä¸¤åĽ½": 6996,
      "å¢©": 6997,
      "å°¼åħĭ": 6998,
      "åĪĹæĸ¯": 6999,
      "æŀĹèĤ¯": 7000,
      "å°±åľ¨": 7001,
      "é¾Ļæ±Ł": 7002,
      "åĸī": 7003,
      "æĹıç¾¤": 7004,
      "ç¦ıå°Ķ": 7005,
      "åĨįè½¬": 7006,
      "å¸Įçī¹": 7007,
      "ï¼īãĢģãĢĬ": 7008,
      "ä¹¡æĿĳ": 7009,
      "å»ºçŃĳéĿ¢ç§¯": 7010,
      "çĻ»ä¸Ĭ": 7011,
      "è¯ģå®ŀ": 7012,
      "æ¸©æ³ī": 7013,
      "æĪ·éĥ¨": 7014,
      "ç¡®ä¿Ŀ": 7015,
      "è¿ģèĩ³": 7016,
      "æııç»ĺ": 7017,
      "æ§½": 7018,
      "06": 7019,
      "EN": 7020,
      "uk": 7021,
      "Ġ2019": 7022,
      "ĠæĿ¨": 7023,
      "ĠâĨĴ": 7024,
      "çļĦåĽĽ": 7025,
      "çļĦéĺ¿": 7026,
      "äººç§°": 7027,
      "åĩ°": 7028,
      "æĬĽ": 7029,
      "ä¸»äºº": 7030,
      "åĪ°çļĦ": 7031,
      "å£¬": 7032,
      "æµ·å§Ĩ": 7033,
      "âĢĿï¼ī": 7034,
      "åĪ¶å®ļ": 7035,
      "ä¸ļä½Ļ": 7036,
      "ãģ£": 7037,
      "éħ·": 7038,
      "çº³å¾·": 7039,
      "æ¸¸æĪıä¸Ń": 7040,
      "ĠPr": 7041,
      "å°Ħåĩ»": 7042,
      "é¢Ħå¤ĩ": 7043,
      "å±ħä½ıåľ¨": 7044,
      "ç«£å·¥": 7045,
      "DNA": 7046,
      "ean": 7047,
      "ä½ĳ": 7048,
      "æľĪçļĦ": 7049,
      "æŀ«": 7050,
      "å¤©åºľ": 7051,
      "æĥĳ": 7052,
      "ç³ķ": 7053,
      "éħ°": 7054,
      "èµ·çĤ¹": 7055,
      "å½¢çļĦ": 7056,
      "å¥¥åı¤": 7057,
      "è½¦ç«Ļç»ĵæŀĦ": 7058,
      "ç½ĳçĲĥ": 7059,
      "å¹²éĥ¨": 7060,
      "act": 7061,
      "åĴ¸ä¸°": 7062,
      "èı©èĲ¨": 7063,
      "Ph": 7064,
      "çļĦæĥħ": 7065,
      "å¹´å¤ıåŃ£": 7066,
      "åİĮ": 7067,
      "çĽĴ": 7068,
      "åĲİåį«": 7069,
      "æ²§": 7070,
      "éĹ¹": 7071,
      "åĩºèµĽ": 7072,
      "å®¶ä¹¡": 7073,
      "åĮºåĪĨ": 7074,
      "é¢ĸ": 7075,
      "éķ¿å¤§": 7076,
      "æĿ¥è¶Ĭ": 7077,
      "ç¥¸": 7078,
      "å¤ļé¡¹": 7079,
      "äºĮçº§": 7080,
      "å¢ħ": 7081,
      "èĳĹæľī": 7082,
      "å¤´éĥ¨": 7083,
      "çĹķ": 7084,
      "çĸ¯": 7085,
      "æ´¾çļĦ": 7086,
      "åį°ç¬¬": 7087,
      "èĴĻçī¹": 7088,
      "æĭ¿çł´": 7089,
      "ett": 7090,
      "åıĤä¸İäºĨ": 7091,
      "æ¡ĥåĽŃ": 7092,
      "æĵħéķ¿": 7093,
      "æĻ®é²ģå£«": 7094,
      "æĭ¿çł´ä»ĳ": 7095,
      "àº": 7096,
      "åĬ£": 7097,
      "å¥¸": 7098,
      "1918": 7099,
      "æ²ª": 7100,
      "ç¬ĥ": 7101,
      "æ³ķåºŃ": 7102,
      "çī©çļĦ": 7103,
      "è·¯å¾·": 7104,
      "è°Ĳ": 7105,
      "éĩįéĩı": 7106,
      "åŀ©": 7107,
      "éĢīåĩº": 7108,
      "ara": 7109,
      "è¯´æĺ¯": 7110,
      "å²ĽçļĦ": 7111,
      "å¤´è¡Ķ": 7112,
      "ç¦ıéŁ³": 7113,
      "å¼ºè°ĥ": 7114,
      "çİĩåĨĽ": 7115,
      "è¶ĬæĿ¥è¶Ĭ": 7116,
      "æĿ¥èĩªäºİ": 7117,
      "å¹ķåºľ": 7118,
      "éĢĤåºĶ": 7119,
      "æĺĨèĻ«": 7120,
      "èĩĢé³į": 7121,
      "åį°ç¬¬å®ī": 7122,
      "com": 7123,
      "ide": 7124,
      "sp": 7125,
      "Ġä¸Ĭ": 7126,
      "çļĦèĢģ": 7127,
      "çļĦæ¯ĶèµĽä¸Ń": 7128,
      "å¤§å¸Ŀ": 7129,
      "ãĢĭãĢĬ": 7130,
      "ä¸İæŃ¤": 7131,
      "ä¸»åĬ¨": 7132,
      "çİ°ä¸º": 7133,
      "æĪĺä¸Ń": 7134,
      "å½ĵä»£": 7135,
      "ç¼Ŀ": 7136,
      "èĭ±å°º": 7137,
      "å¨ħ": 7138,
      "äº¤ç»Ļ": 7139,
      "èĮµ": 7140,
      "é¢ĨéĺŁ": 7141,
      "æĽ´å¤ļçļĦ": 7142,
      "äº¬éĥ½": 7143,
      "å¤įæ´»": 7144,
      "èĸª": 7145,
      "å·¨å¤§çļĦ": 7146,
      "è´¢åĬ¡": 7147,
      "è½¯æĿ¡": 7148,
      "æ½ľèīĩ": 7149,
      "åıĳåĬ¨æľº": 7150,
      "æ³ķåħ°åħĭ": 7151,
      "æ±¡æŁĵ": 7152,
      "åĳĺå¤ĸéĥİ": 7153,
      "åĨłçĬ¶çĹħæ¯Ĵ": 7154,
      "Pro": 7155,
      "çļĦçĶŁæ´»": 7156,
      "å¹´ä¸İ": 7157,
      "å¹´æĪĲä¸º": 7158,
      "ä¸ªæĢ§": 7159,
      "æ¬ł": 7160,
      "ä¸ĭæ¸¸": 7161,
      "ä¸īéĥİ": 7162,
      "åĿł": 7163,
      "é«ĺå®Ĺ": 7164,
      "èĬŃ": 7165,
      "åįģä¸īå¹´": 7166,
      "ç»ıçºª": 7167,
      "æĶ¿åįı": 7168,
      "èĤĩ": 7169,
      "ç§ĳå¤§åŃ¦": 7170,
      "åı·çļĦ": 7171,
      "åŁİåİ¿": 7172,
      "å·´æĭī": 7173,
      "æĶ¯æµģ": 7174,
      "æĶ¾éĢģ": 7175,
      "èħ°": 7176,
      "è´¨çĸĳ": 7177,
      "æ¯ıæĹ¥": 7178,
      "é£ŀå¼¹": 7179,
      "å·¥ä½ľå®¤": 7180,
      "å°ģä¸º": 7181,
      "æĳ©å°Ķ": 7182,
      "èªĵ": 7183,
      "ç©¿è¶Ĭ": 7184,
      "å§Ĳå¦¹": 7185,
      "æ©Ļ": 7186,
      "èĻļæŀĦ": 7187,
      "åŁºéĩĳä¼ļ": 7188,
      "æĶ¶è§Ĩçİĩ": 7189,
      "çĽ´åįĩæľº": 7190,
      "çİ«çĳ°": 7191,
      "ium": 7192,
      "ÃŃ": 7193,
      "Ġåĳ¨": 7194,
      "ĺèĽĽ": 7195,
      "åľ¨åīį": 7196,
      "ä¸Ģéĥ¨": 7197,
      "æīĳ": 7198,
      "1929": 7199,
      "åĳİ": 7200,
      "è´·": 7201,
      "åĪĨåĮº": 7202,
      "æľ¬æĿ¥": 7203,
      "è¢«è§Ĩä¸º": 7204,
      "å¹¶æĹł": 7205,
      "æĮº": 7206,
      "ãĥł": 7207,
      "éĺŁåıĭ": 7208,
      "å°Ĩåľ¨": 7209,
      "å·¥éĥ¨": 7210,
      "é»ı": 7211,
      "ç¼´": 7212,
      "æŃ£ä¹ī": 7213,
      "è¾¾å·ŀ": 7214,
      "åĽ¢éķ¿": 7215,
      "çĻ½åŀ©": 7216,
      "è¿ŀè½½": 7217,
      "å¨ģå¤·": 7218,
      "å®«æ®¿": 7219,
      "åį°è±¡": 7220,
      "å¤ıå¨ģå¤·": 7221,
      "åı¶åŃĲ": 7222,
      "1931": 7223,
      "èľĺèĽĽ": 7224,
      "æĺ¾èĳĹ": 7225,
      "èĢ¶å¾ĭ": 7226,
      "è¿ģç§»": 7227,
      "æĭľä»ģ": 7228,
      "åĩ¤åĩ°": 7229,
      "æ·»åĬł": 7230,
      "å¸ĥæĶ¿ä½¿": 7231,
      "El": 7232,
      "Ð´": 7233,
      "çļĦåĨħ": 7234,
      "çļĦæĥħåĨµ": 7235,
      "åºµ": 7236,
      "å¤§çĲĨ": 7237,
      "è¥¿åĮº": 7238,
      "åįĹæĺĮ": 7239,
      "èī³": 7240,
      "èµĽé©¬": 7241,
      "åı¯æĺ¯": 7242,
      "èĩªæŃ¤": 7243,
      "æĸ¹ä¾¿": 7244,
      "ä¸¤åº§": 7245,
      "åİŁåĪĻ": 7246,
      "é¥²": 7247,
      "ä¿Ŀè¯ģ": 7248,
      "æıĲçĲ´": 7249,
      "å¤«å¦ĩ": 7250,
      "é¢ĨåħĪ": 7251,
      "å§Ķæīĺ": 7252,
      "å¡Ķå°Ķ": 7253,
      "å¥½è¯Ħ": 7254,
      "ä¸»ä¹īèĢħ": 7255,
      "èı²å°Ķå¾·": 7256,
      "åĤ¬": 7257,
      "æķĳæı´": 7258,
      "çĽ¸å½ĵäºİ": 7259,
      "ç´§æĢ¥": 7260,
      "çİĽä¸½äºļ": 7261,
      "my": 7262,
      "oth": 7263,
      "sch": 7264,
      "ĠæľĪ": 7265,
      "æĺ¯èĭ±åĽ½": 7266,
      "åĩ¹": 7267,
      "æľĪåľ¨": 7268,
      "1921": 7269,
      "ä»¥æŃ¤": 7270,
      "äºĨä»ĸ": 7271,
      "è´ª": 7272,
      "æĸ¯åľ¨": 7273,
      "ä¸ĬæĿī": 7274,
      "ä¹ĭä¹±": 7275,
      "è¡Įäºº": 7276,
      "çī¹åħ°": 7277,
      "æĪĺç»©": 7278,
      "å¤©çİĭ": 7279,
      "çİĭåĲİ": 7280,
      "ç§ĳè¿Ľå£«": 7281,
      "ç½Ĺå®¾": 7282,
      "ãĤĮ": 7283,
      "æİ¥ä»»": 7284,
      "å±ķçİ°": 7285,
      "èµĦæľ¬": 7286,
      "ä¹Ŀå·ŀ": 7287,
      "æ¨¡æĭŁ": 7288,
      "çĻ¾å§ĵ": 7289,
      "æİĪæĿĥ": 7290,
      "å¼Ĺæĭī": 7291,
      "ä½Ļäºº": 7292,
      "éĽħåħ¸": 7293,
      "ä¼łç»ŁçļĦ": 7294,
      "é¢Ĩå¯¼äºº": 7295,
      "æĶ¹ç¼ĸèĩª": 7296,
      "äºĭå®ŀä¸Ĭ": 7297,
      "ĠâĢĶ": 7298,
      "ĻèĿł": 7299,
      "æīĩ": 7300,
      "æµ¸": 7301,
      "æĪĲåĪĨ": 7302,
      "ä¸Ĭå¸Ŀ": 7303,
      "çī¹æĢ§": 7304,
      "éķ¿å®ĺ": 7305,
      "æĮ¡": 7306,
      "è¿Ļåľº": 7307,
      "åĨħç»´å°Ķ": 7308,
      "æŃ¤åī§": 7309,
      "æ¬¡åŃĲ": 7310,
      "åĽĽä¸ĸ": 7311,
      "çľģçļĦ": 7312,
      "åĭĺ": 7313,
      "éªĹ": 7314,
      "å¤ªåĲİ": 7315,
      "åĪĻæľī": 7316,
      "è¿ĺåľ¨": 7317,
      "åĲĦåĽ½": 7318,
      "æĶ¾åľ¨": 7319,
      "ç¦»å©ļ": 7320,
      "åįıè°ĥ": 7321,
      "åį°åĪ·": 7322,
      "olog": 7323,
      "æŃ¥æŀª": 7324,
      "èĵ¬": 7325,
      "âĢĶâĢĶãĢĬ": 7326,
      "éĢģåĪ°": 7327,
      "tern": 7328,
      "èĿĻèĿł": 7329,
      "èŀįåĲĪ": 7330,
      "REMçĿ¡çľł": 7331,
      "IM": 7332,
      "ĠåĲ´": 7333,
      "1900": 7334,
      "è´¬": 7335,
      "æĸ¯åį¡": 7336,
      "æĸ¯æīĺ": 7337,
      "åĨĽåľ¨": 7338,
      "åħĭé²ģ": 7339,
      "ä½ĨåĽł": 7340,
      "éĩįå¤į": 7341,
      "æł¼çļĦ": 7342,
      "çĽ¸åıį": 7343,
      "åŀ¦": 7344,
      "è¿Ĳæ²³": 7345,
      "å¸¸è§Ħ": 7346,
      "æİ¥èĳĹ": 7347,
      "æıĲè®®": 7348,
      "çŁ³å¤´": 7349,
      "åĽŀå¿Ĩ": 7350,
      "ç¦ıå·ŀ": 7351,
      "çłĶç©¶éĻ¢": 7352,
      "æ¯ıåĳ¨": 7353,
      "çĶ·åŃ©": 7354,
      "çľŁäºº": 7355,
      "è®¾è®¡å¸Ī": 7356,
      "åĨĻçľŁ": 7357,
      "æľĢåĲİçļĦ": 7358,
      "åĨľæĿĳ": 7359,
      "èı²åĪ©": 7360,
      "è¯ĳä¸º": 7361,
      "çļĦåľ°ä½į": 7362,
      "éľįå°Ķ": 7363,
      "å½¢æĪĲçļĦ": 7364,
      "ç«ŀéĢī": 7365,
      "åĳ¼åĲ¸": 7366,
      "illiam": 7367,
      "äºĭåĬ¡æīĢ": 7368,
      "åĲıéĥ¨": 7369,
      "èĩªè¡Įè½¦": 7370,
      "å¥¥æŀĹåĮ¹åħĭè¿ĲåĬ¨ä¼ļ": 7371,
      "çīµå¼ķ": 7372,
      "åĴ¨è¯¢": 7373,
      "07": 7374,
      "BO": 7375,
      "EP": 7376,
      "SP": 7377,
      "ler": 7378,
      "æĸ¥": 7379,
      "åĽ½åħ¬": 7380,
      "ä»¥ä¸ľ": 7381,
      "çĶ±è¯¥": 7382,
      "é©°": 7383,
      "å¾·å·Ŀ": 7384,
      "åīįè¿Ľ": 7385,
      "æµģä¼ł": 7386,
      "é£İéĻ©": 7387,
      "å®¹çº³": 7388,
      "éĺ²æŃ¢": 7389,
      "åĩºçİ°çļĦ": 7390,
      "æĹ§åĿĢ": 7391,
      "é¡ºä½į": 7392,
      "eter": 7393,
      "åĢ¼å¾Ĺ": 7394,
      "ä¿ĿæĬ¤åĮº": 7395,
      "å·¨å¤§": 7396,
      "ç±»ä¼¼çļĦ": 7397,
      "é¼ĵåĬ±": 7398,
      "åİ¦éĹ¨": 7399,
      "æ¹ĸåĮĹçľģ": 7400,
      "NHK": 7401,
      "Sp": 7402,
      "ld": 7403,
      "Ã³": 7404,
      "Ð¹": 7405,
      "æľīä¸ī": 7406,
      "åİ¨": 7407,
      "1919": 7408,
      "åĩºæĿ¥çļĦ": 7409,
      "ä¸įè¯¦": 7410,
      "èĥĥ": 7411,
      "è¥¿éĹ¨": 7412,
      "åįĹèĩ³": 7413,
      "ä½ĵæĵį": 7414,
      "å¥³ç¥ŀ": 7415,
      "æŃ£ç¡®": 7416,
      "å¹¿å·ŀå¸Ĥ": 7417,
      "å½¢å®¹": 7418,
      "æ¸ħæ°´": 7419,
      "æļ¨": 7420,
      "åĭĴæĸ¯": 7421,
      "å®¢æĪ·": 7422,
      "é»ĳé¾Ļæ±Ł": 7423,
      "éģĹä¼ł": 7424,
      "èī¾ä¼¦": 7425,
      "æ¿Ĵ": 7426,
      "æĸ¹éĿ¢çļĦ": 7427,
      "æī©å±ķ": 7428,
      "æĭĽçĶŁ": 7429,
      "éĵľçīĮ": 7430,
      "112": 7431,
      "SS": 7432,
      "Sc": 7433,
      "ram": 7434,
      "se": 7435,
      "Ñı": 7436,
      "Ġæµ·": 7437,
      "ä¸ĢæĹ¦": 7438,
      "æľīä¸¤ä¸ª": 7439,
      "çĽĪ": 7440,
      "ä¸»ç®¡": 7441,
      "éĽģ": 7442,
      "ç¥·": 7443,
      "å¯¹åħ¶": 7444,
      "æ¼Ĩ": 7445,
      "è°ı": 7446,
      "åı¸æ³ķ": 7447,
      "èµ·åĪĿ": 7448,
      "åŀĭæľºè½¦": 7449,
      "å¥ĸçīĮ": 7450,
      "ä¿¡å¾Ĵ": 7451,
      "èµĦåĬ©": 7452,
      "åº§åłĤ": 7453,
      "éļıæľº": 7454,
      "çª¦": 7455,
      "çĶ²çº§èģĶèµĽ": 7456,
      "çĻ»åł¡": 7457,
      "å¾ģæľį": 7458,
      "åĩ¯çī¹": 7459,
      "æİ¢éĻ©": 7460,
      "èĿ¶": 7461,
      "è¯ŀçĶŁ": 7462,
      "Ġæľ¬": 7463,
      "Ġç¬¬äºĮ": 7464,
      "Ġéĥĳ": 7465,
      "çļĦæ¯ĶèµĽ": 7466,
      "åĮł": 7467,
      "å¤§åĲĮ": 7468,
      "æķ²": 7469,
      "åĲįé¢Ŀ": 7470,
      "ä¸»æīĵ": 7471,
      "è·µ": 7472,
      "åĵĢ": 7473,
      "ç¾ļ": 7474,
      "ä»»æķĻ": 7475,
      "è·¯ä¸Ĭ": 7476,
      "åĪ©å¥¥": 7477,
      "å¹³å®ī": 7478,
      "ãģ¤": 7479,
      "çľģçļĦä¸Ģä¸ªå¸Ĥéķĩ": 7480,
      "é¦ĸå°Ķ": 7481,
      "å®ŀåĬĽ": 7482,
      "çĮ©": 7483,
      "é£İäºĳ": 7484,
      "å¤±è¸ª": 7485,
      "æµİåįĹ": 7486,
      "çĻ¾ä¸ĩ": 7487,
      "æŀģä¸º": 7488,
      "æĲŀ": 7489,
      "ä¼ļè®®åĳĺ": 7490,
      "éĻĦåĬłèµĽ": 7491,
      "åºĦä¸ºéĤ»": 7492,
      "Äģ": 7493,
      "çļĦç¾İåĽ½": 7494,
      "åĨ¶": 7495,
      "åĲİäºİ": 7496,
      "åĲİç»Ń": 7497,
      "äºĨè®¸å¤ļ": 7498,
      "åĩºèĩª": 7499,
      "ä¾Ħ": 7500,
      "æĪĺæľ¯": 7501,
      "æĪĺè´¥": 7502,
      "ä¹Łåı¯": 7503,
      "ç§ĳçļĦ": 7504,
      "ç«ĻæĪ¿": 7505,
      "å½ĵå¤©": 7506,
      "å¤ĸåĽ´": 7507,
      "åİŁä½ľ": 7508,
      "ãĤº": 7509,
      "åĽĽå¤§": 7510,
      "èĭ±éķĳ": 7511,
      "åĪĹåĩº": 7512,
      "åī§ä¸Ń": 7513,
      "åĵģç§į": 7514,
      "åĪ«å¢ħ": 7515,
      "èĭıå·ŀ": 7516,
      "æīĵè¿Ľ": 7517,
      "é¸¦": 7518,
      "è§Ĥèµı": 7519,
      "æĴŃæĺł": 7520,
      "äºīå¤º": 7521,
      "æŁ¥å°Ķæĸ¯": 7522,
      "æ³°åĭĴ": 7523,
      "æĦŁæĥħ": 7524,
      "å·¦ç¿¼": 7525,
      "æıĲä¾ĽäºĨ": 7526,
      "1909": 7527,
      "å¤§éĩıçļĦ": 7528,
      "éĽķåĪ»": 7529,
      "æĸĳçĤ¹": 7530,
      "æľĢæĹ©çļĦ": 7531,
      "åı¸ä»¤éĥ¨": 7532,
      "çĸ«æĥħ": 7533,
      "æµĵåº¦": 7534,
      "å®īå¾½çľģ": 7535,
      "è¯ĬæĸŃ": 7536,
      "bur": 7537,
      "na": 7538,
      "å¹´åĩºçīĪ": 7539,
      "åľ¨ä½į": 7540,
      "åľ¨éĤ£éĩĮ": 7541,
      "ä¸Ģåıª": 7542,
      "æĹ¥å¸¸": 7543,
      "å¯ħ": 7544,
      "æĸ¯éĩĮ": 7545,
      "ä¸ĬéĿ¢": 7546,
      "ä¼ļè®¡": 7547,
      "åĪĨæķ°": 7548,
      "å¤ļä¼¦": 7549,
      "åīįåĲİ": 7550,
      "èĬľ": 7551,
      "èĪ±": 7552,
      "å°ıå§Ĳ": 7553,
      "åĨħéĻĨ": 7554,
      "æľŁåĪĬ": 7555,
      "çĻ¸": 7556,
      "å¥³äºº": 7557,
      "é¦ĸåº¦": 7558,
      "é¥¶": 7559,
      "èº«äº¡": 7560,
      "åĪĻçĶ±": 7561,
      "æĮĩç¤º": 7562,
      "æīĵè´¥": 7563,
      "ĠPart": 7564,
      "èĵī": 7565,
      "ç»ıæµİåŃ¦": 7566,
      "Ġ2000": 7567,
      "ç»Ŀå¯¹": 7568,
      "å¾ĲçŁ¥": 7569,
      "å«¡": 7570,
      "æĿ¥æºĲäºİ": 7571,
      "åı°ä¸Ńå¸Ĥ": 7572,
      "æĳĩæ»ļ": 7573,
      "çº¦çĳŁå¤«": 7574,
      "å¤§åİħ": 7575,
      "åĩ¸": 7576,
      "é«ĺåİŁ": 7577,
      "è¿Ļé¡¹": 7578,
      "ä¹Łæ²¡æľī": 7579,
      "çĽ¸è¿ŀ": 7580,
      "èĳµ": 7581,
      "ç»Ħç»Ħéķ¿": 7582,
      "èī²å½©": 7583,
      "éľĸ": 7584,
      "æ²³è°·": 7585,
      "åĲĳè¥¿": 7586,
      "çŁ³åĻ¨": 7587,
      "çº³è¥¿": 7588,
      "ç¼ĸåĪ¶": 7589,
      "çĶ»éĿ¢": 7590,
      "åĥļ": 7591,
      "çĶ·å¥³": 7592,
      "æīĺå°Ķ": 7593,
      "ç´¢æģ©": 7594,
      "æİ¨æµĭ": 7595,
      "åģļåĩº": 7596,
      "éª¨éª": 7597,
      "çħ§é¡¾": 7598,
      "èķĥ": 7599,
      "ä½ĵèĤ²é¦Ĩ": 7600,
      "ä¸ľåįĹäºļ": 7601,
      "å½¼æŃ¤": 7602,
      "è¿·ä½ł": 7603,
      "ä¼ĲåĪ©äºļ": 7604,
      "åĬ²æŃĮ": 7605,
      "å¾ªçİ¯": 7606,
      "èĤ¿çĺ¤": 7607,
      "éĢ®æįķ": 7608,
      "ÙĬ": 7609,
      "çļĦæīĢæľī": 7610,
      "åľ¨åĨħçļĦ": 7611,
      "ä¸Ńå°Ĩ": 7612,
      "äººä¸º": 7613,
      "åĴ¬": 7614,
      "åĩºåĵģ": 7615,
      "ä¸İæİ¥å£¤çļĦå¸Ĥéķĩ": 7616,
      "èĭ»": 7617,
      "åĿŀ": 7618,
      "è¶¾": 7619,
      "å®ļæľŁ": 7620,
      "é¦ĸé¢Ĩ": 7621,
      "è§Ĵåº¦": 7622,
      "ä¼ĬåĪ©": 7623,
      "åħŃä¸ĸ": 7624,
      "æ¸ħçľŁ": 7625,
      "èĢĥå¯Ł": 7626,
      "ä»£è¡¨éĺŁ": 7627,
      "ä¸ĸçºªåĪĿ": 7628,
      "æ°¸è¿ľ": 7629,
      "é¢Ħæµĭ": 7630,
      "æĵ¦": 7631,
      "è¯ĨåĪ«": 7632,
      "è´§è¿Ĳ": 7633,
      "è°ĭæĿĢ": 7634,
      "æ°¨éħ¸": 7635,
      "æŁ´æ²¹æľºè½¦": 7636,
      "AF": 7637,
      "âĦ": 7638,
      "Ġst": 7639,
      "å¹´ä»»": 7640,
      "æīŃ": 7641,
      "æŃ§": 7642,
      "1924": 7643,
      "ä¹ĭåľ°": 7644,
      "ä¹ĭåĲį": 7645,
      "å®¶æĿĳ": 7646,
      "åŃĲåħ¬åı¸": 7647,
      "åĲĮæ²»": 7648,
      "è¿ĻæĹ¶": 7649,
      "ãĥ¥": 7650,
      "çŃīçļĦ": 7651,
      "å¹³æĪĲ": 7652,
      "æł¼æĭīæĸ¯": 7653,
      "ãĤĪ": 7654,
      "é¦ĸåºľ": 7655,
      "å·´å¡ŀ": 7656,
      "å§ĭäºİ": 7657,
      "æ¸¸åĩ»": 7658,
      "æ¸ħæ¥ļ": 7659,
      "è¾¹å¢ĥ": 7660,
      "æ¬§çĽŁ": 7661,
      "èĪªå¤©": 7662,
      "ç¤¼éĥ¨": 7663,
      "åºĨç¥Ŀ": 7664,
      "è´§çī©": 7665,
      "åĪĳéĥ¨": 7666,
      "é¥ŃåºĹ": 7667,
      "LE": 7668,
      "ei": 7669,
      "çļĦéķ¿": 7670,
      "åħĶ": 7671,
      "å¹´æ¯ķä¸ļäºİ": 7672,
      "æĺ¯å¤§": 7673,
      "å¤§äºĭ": 7674,
      "å±¥": 7675,
      "æµĳ": 7676,
      "æ¸Ĺ": 7677,
      "æ±ķ": 7678,
      "å¾·åħĭèĲ¨æĸ¯": 7679,
      "åĲĮæĢ§": 7680,
      "ä¸ľæµ·": 7681,
      "åĬłä»¥": 7682,
      "çİ°æľī": 7683,
      "çĲĨçĶ±": 7684,
      "ãĤĴ": 7685,
      "çĽ¸åºĶ": 7686,
      "æĺİä»£": 7687,
      "å°¼é»ĳ": 7688,
      "æĢ»äººåı£": 7689,
      "æĢ»ç»ıçĲĨ": 7690,
      "åıĤæĶ¿": 7691,
      "åıĤæķ°": 7692,
      "ari": 7693,
      "ç»´åħĭ": 7694,
      "èº«ä¸º": 7695,
      "èĬĤå¥ı": 7696,
      "æĶ¯çº¿": 7697,
      "æĶ¯ä»ĺ": 7698,
      "å¨ģå°¼æĸ¯": 7699,
      "çĻ¾å¹´": 7700,
      "å¤ıå¤©": 7701,
      "éĺ²å®Ī": 7702,
      "çĶŁæ´»åľ¨": 7703,
      "èĪªç©ºåħ¬åı¸": 7704,
      "1905": 7705,
      "åªĽ": 7706,
      "ãĥĥãĤ¯": 7707,
      "æĩ¿": 7708,
      "èĤĮèĤī": 7709,
      "ount": 7710,
      "èŀºæĹĭ": 7711,
      "çĽĨåľ°": 7712,
      "åįĩæł¼ä¸º": 7713,
      "MA": 7714,
      "Ã¤": 7715,
      "ä¸Ģå±Ĥ": 7716,
      "æĺ¯ä¸ºäºĨ": 7717,
      "1912": 7718,
      "æĹ¥å¼Ģå§ĭ": 7719,
      "æĭ¾": 7720,
      "åĵª": 7721,
      "æľĢå¥½çļĦ": 7722,
      "æĸ°åĮº": 7723,
      "è°¨": 7724,
      "è°ķ": 7725,
      "ç§ĳçłĶ": 7726,
      "èģĶç»ľ": 7727,
      "ãĤĤ": 7728,
      "ans": 7729,
      "æīĭä¸Ń": 7730,
      "æ¶Į": 7731,
      "æŃĮåī§": 7732,
      "åħµéĥ¨": 7733,
      "ç¬¬äºĮä¸ª": 7734,
      "åįļè§Ī": 7735,
      "å®£ç§°": 7736,
      "é¡ºåºı": 7737,
      "é¢ĳçİĩ": 7738,
      "éĨī": 7739,
      "åı¦ä¸Ģæĸ¹éĿ¢": 7740,
      "éĽķåĥı": 7741,
      "è¶ħçº§èģĶèµĽ": 7742,
      "æħķå°¼é»ĳ": 7743,
      "èĽĭçĻ½è´¨": 7744,
      "å¡«è¯į": 7745,
      "rand": 7746,
      "rist": 7747,
      "ĠX": 7748,
      "ĠåŃĻ": 7749,
      "åľ¨ä»ĸçļĦ": 7750,
      "ä¸Ģå¤©": 7751,
      "ä¸ºè¯¥": 7752,
      "1926": 7753,
      "æĹ¥æĬ¥": 7754,
      "ä»¥ä¾¿": 7755,
      "æµ´": 7756,
      "ä¸įåıĺ": 7757,
      "æ±¶": 7758,
      "æ¼ı": 7759,
      "æµ·åįĹ": 7760,
      "åİŁåŀĭ": 7761,
      "æł¼é²ģ": 7762,
      "çľģåĴĮ": 7763,
      "æ£ļ": 7764,
      "ance": 7765,
      "æĢ»æĺ¯": 7766,
      "è¯Ńä¸Ń": 7767,
      "åĢ¡": 7768,
      "æµģåĬ¨": 7769,
      "eng": 7770,
      "æĳĶ": 7771,
      "åĳ½åĲįçļĦ": 7772,
      "é£İæĻ¯": 7773,
      "è±¹": 7774,
      "çłĶç©¶çĶŁ": 7775,
      "éĽ·æĸ¯": 7776,
      "åĵĪæĭī": 7777,
      "åĵĪä½Ľ": 7778,
      "çĵ¦å°Ķ": 7779,
      "éĩİçĶŁ": 7780,
      "éĩĩè®¿": 7781,
      "rom": 7782,
      "æĻºåĪ©": 7783,
      "ç¡¬æ£ĺ": 7784,
      "Ð¾Ð²": 7785,
      "æĲľç´¢": 7786,
      "èĢĥåı¤éģĹåĿĢåħ¬åĽŃ": 7787,
      "Ġla": 7788,
      "çļĦåľ°åĮº": 7789,
      "ï¼ĪãĢĬ": 7790,
      "æľĪèµ·": 7791,
      "æĹ¥åıĳè¡Į": 7792,
      "åľ°ä¸Ń": 7793,
      "éĹ¯": 7794,
      "åĲįåı«": 7795,
      "æ±ģ": 7796,
      "åįĹå®ĭ": 7797,
      "æľĢæľī": 7798,
      "åĿ¤": 7799,
      "è¿Ļä¸¤ä¸ª": 7800,
      "çĲĨå¿µ": 7801,
      "éĢļçĶ¨": 7802,
      "æĿĳæ°ĳ": 7803,
      "æĽ¾è¢«": 7804,
      "ç±»çļĦ": 7805,
      "å°±èĥ½": 7806,
      "å¯¼å¼¹": 7807,
      "å·²äºİ": 7808,
      "åĽŀåºĶ": 7809,
      "è¶³èģĶ": 7810,
      "ald": 7811,
      "ç¦ıçī¹": 7812,
      "åĪĿå¹´": 7813,
      "çĶµå½±çļĦ": 7814,
      "å¼ºå¤§çļĦ": 7815,
      "æĿĢäºº": 7816,
      "ited": 7817,
      "éģĹè¿¹": 7818,
      "æķĪåºĶ": 7819,
      "ä»ħæ¬¡äºİ": 7820,
      "èĴĤå®ī": 7821,
      "lex": 7822,
      "æī§æķĻ": 7823,
      "æĪĺäºīä¸Ń": 7824,
      "ose": 7825,
      "åıĤèµĽèĢħ": 7826,
      "04": 7827,
      "PC": 7828,
      "å¹´ä»ĸ": 7829,
      "åį§": 7830,
      "å°§": 7831,
      "åĮ£": 7832,
      "æľīçĿĢ": 7833,
      "å¥ķ": 7834,
      "éĻ¨": 7835,
      "åĲİåľ¨": 7836,
      "ä¸įè¦ģ": 7837,
      "èĥĢ": 7838,
      "åĮĹç«Ļ": 7839,
      "çī©ä½ĵ": 7840,
      "ãĥĬ": 7841,
      "åįģåĽĽå¹´": 7842,
      "æĭīçī¹": 7843,
      "èĤ¾": 7844,
      "éĢļè®¯": 7845,
      "ç¦¾": 7846,
      "è¯¥ç«Ļ": 7847,
      "ä¸¤æĿ¡": 7848,
      "ana": 7849,
      "æ®·": 7850,
      "èĭ±å¯¸": 7851,
      "æīĭæ®µ": 7852,
      "å¸¸åĬ¡": 7853,
      "æĹłéĻĲ": 7854,
      "å¤«æĸ¯åŁº": 7855,
      "å¥¥æīĺ": 7856,
      "ç¾İåĽ½çļĦ": 7857,
      "å¥¹æĺ¯": 7858,
      "åħļçļĦ": 7859,
      "ĠCol": 7860,
      "å®¢ä¸²": 7861,
      "æ¤ħ": 7862,
      "è´¹å°Ķ": 7863,
      "çľĭè§ģ": 7864,
      "åįłæį®": 7865,
      "ç³»åĪĹèµĽ": 7866,
      "å§Ķåĳĺä¼ļå§Ķåĳĺ": 7867,
      "ä½ĲèĹ¤": 7868,
      "è¯¸èĳĽ": 7869,
      "åĨ³èµĽä¸Ń": 7870,
      "è°ĪåĪ¤": 7871,
      "Ġfor": 7872,
      "éĵĥæľ¨": 7873,
      "æĦıæĢĿæĺ¯": 7874,
      "ä¸įå¾Ĺä¸į": 7875,
      "ä¾¦æİ¢": 7876,
      "åĬŀäºĭå¤Ħ": 7877,
      "CV": 7878,
      "IG": 7879,
      "Î¿": 7880,
      "Ġèī¾": 7881,
      "ç»¥": 7882,
      "ä¸ĢçĶŁ": 7883,
      "çī¢": 7884,
      "åĽ½å°ı": 7885,
      "æĹ¶éĴĪ": 7886,
      "ä¸Ĭæĸ¹": 7887,
      "åĪĨè¡Į": 7888,
      "åĪĨæł¡": 7889,
      "å¾Ĺä¸»": 7890,
      "ãĥĭ": 7891,
      "ãĥŁ": 7892,
      "è¿ĩçļĦ": 7893,
      "æŃ¤åľ°": 7894,
      "å±ŀåĲį": 7895,
      "å·´ä¼ĲåĪ©äºļ": 7896,
      "äºĶä¸ĸ": 7897,
      "æĹ¥æľ¬çļĦ": 7898,
      "ĠCl": 7899,
      "æļ¹": 7900,
      "çĭ¬çī¹çļĦ": 7901,
      "å°Ħçº¿": 7902,
      "åıĳçĶŁäºĨ": 7903,
      "ç¦ıå»ºçľģ": 7904,
      "æĺİæ²»ä¸īåįģ": 7905,
      "æłĸæģ¯åľ¨": 7906,
      "åŀĤçĽ´": 7907,
      "ç¿°æŀĹéĻ¢": 7908,
      "å¤ļä¼¦å¤ļ": 7909,
      "ca": 7910,
      "èł": 7911,
      "Ġèĭ¥": 7912,
      "å¹´çĶµå½±": 7913,
      "ä¸Ģä»£": 7914,
      "ä¸ĢçŃī": 7915,
      "æ²Ľ": 7916,
      "åħ¶çĪ¶": 7917,
      "å¯¹æĪĺ": 7918,
      "ãĥĸ": 7919,
      "æĭīçļĦ": 7920,
      "çº¿ä¸Ĭ": 7921,
      "ç§ĳä¼ļè¯ķ": 7922,
      "æ¬¡åĪĹè½¦": 7923,
      "ãģ§": 7924,
      "æ°´åĪ©": 7925,
      "åĶĩ": 7926,
      "éĶħ": 7927,
      "æĿĳåĲĪå¹¶ä¸º": 7928,
      "å·´èµ«": 7929,
      "å¤ªç¥ĸ": 7930,
      "æ»¤": 7931,
      "çĵ£": 7932,
      "æ´»æĢ§": 7933,
      "è¿Ľè¡ĮçļĦ": 7934,
      "æ¯įèĪ°": 7935,
      "å¼ºåº¦": 7936,
      "ä¿®æŃ£": 7937,
      "æ²Ļçī¹": 7938,
      "æĭħå½ĵ": 7939,
      "åĮ»ç§ĳå¤§åŃ¦": 7940,
      "å¼ķè¿Ľ": 7941,
      "è§ĦèĮĥ": 7942,
      "å±ĤçļĦ": 7943,
      "250": 7944,
      "ä¾Ľå¥ī": 7945,
      "åĨĻä½ľ": 7946,
      "éĻįçº§": 7947,
      "ç«¯çĤ¹": 7948,
      "Ġ2004": 7949,
      "ãĥ¼ãĥ«": 7950,
      "à¸²": 7951,
      "åĪºæ¿Ģ": 7952,
      "çģŃäº¡": 7953,
      "èĮĥåĽ´åĨħ": 7954,
      "è£Ķç¾İåĽ½": 7955,
      "ç½ķè§ģ": 7956,
      "âĦĥ": 7957,
      "ID": 7958,
      "cm": 7959,
      "co": 7960,
      "ĠçŁ³": 7961,
      "çļĦå»ºçŃĳ": 7962,
      "å¤¸": 7963,
      "å¹´ä¸Ĭæĺł": 7964,
      "ç»°": 7965,
      "åľ¨å½ĵæĹ¶": 7966,
      "ä¸ĢæĹ¥": 7967,
      "éĺľ": 7968,
      "æĭ¯": 7969,
      "åī¥": 7970,
      "ä¸»åĶ±": 7971,
      "åĪĨè§£": 7972,
      "åĨĽäºº": 7973,
      "èģĤ": 7974,
      "ä¸ĭæĸ¹": 7975,
      "åĬłéĢŁ": 7976,
      "çĶµè½¦": 7977,
      "ãĥĩ": 7978,
      "åĨħåĬ¡": 7979,
      "å¹³æ°ĳ": 7980,
      "æ¼Ķèīº": 7981,
      "èĭ±éĩĮ": 7982,
      "å½¢çĽ®": 7983,
      "åı¤å±ĭ": 7984,
      "orth": 7985,
      "çĮ¬": 7986,
      "é¸ł": 7987,
      "å·Ŀåİ¿": 7988,
      "åĥµ": 7989,
      "çģ«æĺŁ": 7990,
      "åĽ½éĻħèµĽ": 7991,
      "åıĭå¥½": 7992,
      "æĪ¿éĹ´": 7993,
      "é¢Ħç®Ĺ": 7994,
      "çªģåĩ»": 7995,
      "ott": 7996,
      "ç¬¦åı·": 7997,
      "å½°åĮĸ": 7998,
      "Ġk": 7999,
      "çļĦèĥ½åĬĽ": 8000,
      "ãĢĤâĢľ": 8001,
      "åĲĹ": 8002,
      "1928": 8003,
      "åŃ¦éĥ¨": 8004,
      "æİ©": 8005,
      "åįĹæµ·": 8006,
      "åħĭä¼¦": 8007,
      "åĨħæĪĺ": 8008,
      "åľºæ¬¡": 8009,
      "ç«ĭéĻ¶": 8010,
      "çº¦æľī": 8011,
      "æ·ĭ": 8012,
      "ç»´åħĭæĸ¯": 8013,
      "æ»ĭ": 8014,
      "åĽ½å®¶çº§": 8015,
      "åĲĦç±»": 8016,
      "ata": 8017,
      "åĪĽæĸ°": 8018,
      "åĬŁçİĩ": 8019,
      "çªĳ": 8020,
      "ä¼Ĺè®®éĻ¢": 8021,
      "ä»įåľ¨": 8022,
      "æĢģåº¦": 8023,
      "ç®¡çĲĨå±Ģ": 8024,
      "1907": 8025,
      "çŃĸçķ¥": 8026,
      "æ»ĳåĨ°": 8027,
      "æļĤæĹ¶": 8028,
      "å¹´è½»çļĦ": 8029,
      "æĴ°åĨĻ": 8030,
      "ä¹¡éģĵäºĳ": 8031,
      "çŁŃæľŁå¤§åŃ¦": 8032,
      "åı²å¯Ĩæĸ¯": 8033,
      "Qu": 8034,
      "ma": 8035,
      "ĠåĲī": 8036,
      "æĹ±": 8037,
      "åĮ¡": 8038,
      "ç§ī": 8039,
      "åħ¶ä¸º": 8040,
      "åĮĹå®ĭ": 8041,
      "å¼ĢåĲ¯": 8042,
      "åĬ¨å·¥": 8043,
      "å°Ĩäºİ": 8044,
      "æĥ©": 8045,
      "ç§°ä¹ĭä¸º": 8046,
      "æĢ»å±Ģ": 8047,
      "æīĭä¸ĭ": 8048,
      "ä¹¦åºĹ": 8049,
      "å¤ªåİŁ": 8050,
      "åĽŀçŃĶ": 8051,
      "åıĺç§į": 8052,
      "è®¤è¯ģ": 8053,
      "ç¬¬ä¸Ģå±Ĭ": 8054,
      "åıĸèĩª": 8055,
      "ä¼¦æĸ¯": 8056,
      "è°ĥèĬĤ": 8057,
      "æĿĥåĪ©": 8058,
      "æ°ıçļĦ": 8059,
      "åĬ©æĶ»": 8060,
      "æľ¨æĿĲ": 8061,
      "ç§¯åĪĨ": 8062,
      "çģ«è½¦": 8063,
      "æĪ¿åŃĲ": 8064,
      "æ²¿çº¿": 8065,
      "èģĶåĲĪä¼ļ": 8066,
      "éĺ¶çº§": 8067,
      "èİİçĻ½": 8068,
      "å®ĥä»¬çļĦ": 8069,
      "çĩĥæĸĻ": 8070,
      "èĳ£äºĭéķ¿": 8071,
      "ç¡ķå£«åŃ¦ä½į": 8072,
      "é©±éĢĲèĪ°": 8073,
      "ç«ĭéĻ¶å®Ľ": 8074,
      "Ġèµµ": 8075,
      "çļĦèĬ±": 8076,
      "å¹´ç¬¬": 8077,
      "ä¸Ģå¼Ģå§ĭ": 8078,
      "åĽ½æľī": 8079,
      "æĹ¶æĬ¥": 8080,
      "æĢİ": 8081,
      "çĶŁçĲĨ": 8082,
      "ä¸įèī¯": 8083,
      "åĪĨæĪĲ": 8084,
      "ä½įçļĦ": 8085,
      "åīįä½ľ": 8086,
      "æŃ¤äºĭ": 8087,
      "çº¿ç´¢": 8088,
      "éĢļè¡Į": 8089,
      "åŁİå¢Ļ": 8090,
      "å®ļçĲĨ": 8091,
      "ä¹¦æ³ķ": 8092,
      "æĿĳåºĦ": 8093,
      "éĴĻ": 8094,
      "åħīè°±": 8095,
      "ä¿®è®¢": 8096,
      "æĤ¦": 8097,
      "æĥ³æ³ķ": 8098,
      "çĨĶ": 8099,
      "ç»Ħç»ĩçļĦ": 8100,
      "èį£èİ·": 8101,
      "æī§æĶ¿": 8102,
      "åĸľçĪ±": 8103,
      "ä¹łæĥ¯": 8104,
      "ä¼¤å®³": 8105,
      "rad": 8106,
      "çīĽæ´¥": 8107,
      "åħįçĸ«": 8108,
      "ç©Ĩç½ķ": 8109,
      "åİ»ä¸ĸåĲİ": 8110,
      "æĹĭè½¬": 8111,
      "é»ĺå¾·": 8112,
      "æį·åħĭ": 8113,
      "å¥¥æĸ¯æĽ¼": 8114,
      "ãĥĥãĥ": 8115,
      "å¼¯æĽ²": 8116,
      "ç«ĭæĸ¹ç±³": 8117,
      "ÉĽ": 8118,
      "çļĦå±±": 8119,
      "çļĦç»ĵæŀľ": 8120,
      "å¹´ä»¥æĿ¥": 8121,
      "ä½£": 8122,
      "çī²": 8123,
      "æĭĺ": 8124,
      "åįĹè·¯": 8125,
      "åįģåħŃå¹´": 8126,
      "åĨħåľ°": 8127,
      "æ¬¡éĥİ": 8128,
      "æ¡Ĩ": 8129,
      "åĪĹå®ģ": 8130,
      "éĽĨåĲĪ": 8131,
      "è½¬æĬķ": 8132,
      "çĶ·äºº": 8133,
      "å¯ĨåĪĩ": 8134,
      "èĪªçº¿": 8135,
      "æĻ¯çĤ¹": 8136,
      "æ¤Ń": 8137,
      "ä»£è¡¨åĽ¢": 8138,
      "æī¿è¯º": 8139,
      "åĲİæĿ¥çļĦ": 8140,
      "è¯ĹæŃĮ": 8141,
      "çŁŃç¯ĩ": 8142,
      "è¡Ģç®¡": 8143,
      "æııåĨĻ": 8144,
      "ĠNew": 8145,
      "çºªå¿µç¢ĳ": 8146,
      "çĥŃå¸¦é£İæļ´": 8147,
      "ç¼ĸåı·ä¸º": 8148,
      "é¢ģå¥ĸç¤¼": 8149,
      "å°¸ä½ĵ": 8150,
      "ixel": 8151,
      "ä½Ľç½ĹéĩĮ": 8152,
      "Fran": 8153,
      "LS": 8154,
      "ð¬": 8155,
      "çļĦè¥¿": 8156,
      "å¹´ä¸ĸçķĮæĿ¯": 8157,
      "ä¸ºæľŁ": 8158,
      "äººçĶŁ": 8159,
      "åĲįåı¤å±ĭ": 8160,
      "åħ¶åŃĲ": 8161,
      "èĢĮéĹ»åĲį": 8162,
      "åįĹåįĹ": 8163,
      "ä¸īå±Ĥ": 8164,
      "å¸ĤæĶ¿åºľ": 8165,
      "äºĮå±Ĥ": 8166,
      "å¦¾": 8167,
      "æ¡Į": 8168,
      "æ°´åŁŁ": 8169,
      "å¡Į": 8170,
      "åħĥæľĿ": 8171,
      "çĦ°": 8172,
      "org": 8173,
      "ä¸ĵçĶ¨": 8174,
      "åħĪè¿Ľ": 8175,
      "åĽŃåĮº": 8176,
      "éħįä¹Ĳ": 8177,
      "åºĦæĿĳ": 8178,
      "è¯ºæĽ¼": 8179,
      "éŁ³ä¹ĲåŃ¦éĻ¢": 8180,
      "åī¯ä¸»ä»»": 8181,
      "æķ´åĲĪ": 8182,
      "éĵ¶çīĮ": 8183,
      "æĪĲç«ĭäºĨ": 8184,
      "åģľè½¦": 8185,
      "1906": 8186,
      "éĢıéľ²": 8187,
      "çĥŃå¸¦æ°ĶæĹĭ": 8188,
      "éŀĭ": 8189,
      "éĩįçĤ¹æĸĩçī©ä¿ĿæĬ¤åįķä½į": 8190,
      "å¸ĥé²ģåħĭ": 8191,
      "åĬłåĪ©ç¦ıå°¼äºļå·ŀ": 8192,
      "å°¼åı¤æĭī": 8193,
      "ein": 8194,
      "Ð¼": 8195,
      "ä¸¢": 8196,
      "åľ¨è¥¿": 8197,
      "æĺ¯ä¸į": 8198,
      "éĻĩ": 8199,
      "çī¹åĮº": 8200,
      "å¾·æĦıå¿Ĺ": 8201,
      "çİ°å·²": 8202,
      "åĽłåŃĲ": 8203,
      "åĨħäºļ": 8204,
      "é©¬è¾¾": 8205,
      "è¿ĩä¸ĸ": 8206,
      "å·ŀéķ¿": 8207,
      "å¹³å®ļ": 8208,
      "éĢļä¿¡": 8209,
      "æĶ¹è¿Ľ": 8210,
      "ä¿Ŀéļľ": 8211,
      "äº¤æ±ĩ": 8212,
      "åı¤å·´": 8213,
      "ä¿¡ä»»": 8214,
      "åĵĪéĩĮ": 8215,
      "çıŃæľº": 8216,
      "è¯ºæĸ¯": 8217,
      "éŁ³ä¹Ĳä¼ļ": 8218,
      "çĻ»è®°": 8219,
      "ä¹ħçļĦ": 8220,
      "å¯Įæ±Ĺ": 8221,
      "ä¹Įæĸ¯": 8222,
      "åĨľåľº": 8223,
      "çªģåĩº": 8224,
      "è¯»èĢħ": 8225,
      "ä¸»æķĻåº§åłĤ": 8226,
      "å®ĮæĪĲäºĨ": 8227,
      "å¤ºåıĸ": 8228,
      "ä¸ŃåĽ½å¤§éĻĨçļĦ": 8229,
      "èħ¹éĥ¨": 8230,
      "ç¾İæľ¯é¦Ĩ": 8231,
      "åŀĴæīĵ": 8232,
      "é¥®é£Ł": 8233,
      "ÐºÐ°": 8234,
      "pp": 8235,
      "ys": 8236,
      "Êģ": 8237,
      "ìĿ": 8238,
      "Ġr": 8239,
      "Ġç¥ŀ": 8240,
      "çļĦåĨħå®¹": 8241,
      "å¹´ä¸Ń": 8242,
      "åĨ¥": 8243,
      "æľīçº¿": 8244,
      "1925": 8245,
      "ä¼ļç¤¾": 8246,
      "ä¸ĭè®®éĻ¢": 8247,
      "çĲĥè¿·": 8248,
      "ãĥĵ": 8249,
      "çĪ½": 8250,
      "èĤ½": 8251,
      "éĿ¢åĲĳ": 8252,
      "ä½Ĩä¸į": 8253,
      "å¥³æŃĮæīĭ": 8254,
      "æķ°çłģ": 8255,
      "ç±³åħ°": 8256,
      "æ²»æīĢåľ¨": 8257,
      "å±ŀæĢ§": 8258,
      "è£¤": 8259,
      "æĽ¾æĺ¯": 8260,
      "çĿ¿": 8261,
      "å¸Īéķ¿": 8262,
      "åĳ½è¿Ĳ": 8263,
      "å®ĥåľ¨": 8264,
      "æĶ¶åĪ°": 8265,
      "åħ¶ä»ĸçļĦ": 8266,
      "èĲ¨æĭī": 8267,
      "ç¾¤ä½ĵ": 8268,
      "æ´ĭåŁº": 8269,
      "é¢ĦåĳĬ": 8270,
      "å¼Ĥå¸¸": 8271,
      "ç«¯çļĦ": 8272,
      "å½Ĵç±»": 8273,
      "äºĮåįģåİħ": 8274,
      "åŃĺåľ¨äºİ": 8275,
      "åıĸå¾ĹäºĨ": 8276,
      "ç¿¼é¾Ļ": 8277,
      "åŁĶå¯¨": 8278,
      "And": 8279,
      "æĺİæĺ¾çļĦ": 8280,
      "è¡įçĶŁ": 8281,
      "å°±è¯»äºİ": 8282,
      "åĪ¶çīĩäºº": 8283,
      "æŁ¬åŁĶå¯¨": 8284,
      "CC": 8285,
      "Com": 8286,
      "DS": 8287,
      "XX": 8288,
      "ve": 8289,
      "ä¸Ńè·¯": 8290,
      "æķ·": 8291,
      "æĹ¥è¯Ń": 8292,
      "åĲİåıĪ": 8293,
      "ä¸ĭå±ŀ": 8294,
      "ä¸ľæ±ī": 8295,
      "æĸ°è¥¿åħ°": 8296,
      "ç¼Ķ": 8297,
      "è¯¥å¸Ĥ": 8298,
      "ãĤ¬": 8299,
      "æĺİç¡®": 8300,
      "æĴĳ": 8301,
      "ç»ĵå±Ģ": 8302,
      "å°±ä»»": 8303,
      "åįķä¸Ģ": 8304,
      "å¥¹ä¸İ": 8305,
      "ç¬¬ä¸ĢåŃ£": 8306,
      "çĳľ": 8307,
      "æ°Ķåİĭ": 8308,
      "è®¸åı¯": 8309,
      "å®¢åľº": 8310,
      "å®«å»·": 8311,
      "çĹħéĢĿ": 8312,
      "å®ģæ³¢": 8313,
      "ä¾Ŀèµĸ": 8314,
      "èĤ¡æĿĥ": 8315,
      "éģŃéģĩ": 8316,
      "éĩĩçĶ¨äºĨ": 8317,
      "æļĤåģľ": 8318,
      "æ©¡": 8319,
      "ove": 8320,
      "å¥´éļ¶": 8321,
      "é©¬åħĭæĢĿ": 8322,
      "å®Įæķ´çļĦ": 8323,
      "Ġ978": 8324,
      "ç©Ĩç½ķé»ĺå¾·": 8325,
      "03": 8326,
      "OR": 8327,
      "çļĦä¸ĸçķĮ": 8328,
      "çļĦæ¸¸æĪı": 8329,
      "å¹´ä»¥": 8330,
      "æĪļ": 8331,
      "ä¸ŃæŃ£": 8332,
      "æ³ª": 8333,
      "ä¸Ĭå°Ĩ": 8334,
      "ä¸İå¤§": 8335,
      "ä¹ĭæĹħ": 8336,
      "è¢«å¹¶åħ¥": 8337,
      "èī®": 8338,
      "å¸Ĥä¸Ńå¿ĥ": 8339,
      "äºļçĽ®": 8340,
      "æĸ¹å½¢": 8341,
      "å°Ĩä»ĸ": 8342,
      "ä½Ĩåį´": 8343,
      "åİŁå£°": 8344,
      "éħµ": 8345,
      "éªļ": 8346,
      "çĤ¹çļĦ": 8347,
      "å¥ĸéĩĳ": 8348,
      "1500": 8349,
      "æĹıçļĦ": 8350,
      "å®Įé¢ľ": 8351,
      "æķħå®«": 8352,
      "è¾ĥä½İ": 8353,
      "åħ·å¤ĩ": 8354,
      "åĬŀçĲĨ": 8355,
      "çªŁ": 8356,
      "å¼ķçĶ¨": 8357,
      "çİ¯çĲĥ": 8358,
      "usic": 8359,
      "è¿ªäºļ": 8360,
      "çģµæĦŁ": 8361,
      "å®½åº¦": 8362,
      "éĴ¢éĵģ": 8363,
      "å¤©æĸĩåŃ¦å®¶": 8364,
      "æ·¡æ°´": 8365,
      "Ġto": 8366,
      "åĢ¾åĲĳ": 8367,
      "åĵĪå°Ķæ»¨": 8368,
      "çļĦé©¬": 8369,
      "çļĦè¯´æ³ķ": 8370,
      "ä¸ºå¤§": 8371,
      "æľĪåı·": 8372,
      "æĽ¦": 8373,
      "ä¿±": 8374,
      "ä¸īçĶ²": 8375,
      "ä¸ľè·¯": 8376,
      "çī©åĵģ": 8377,
      "å¼ĢåĬŀ": 8378,
      "éĺŁåľ¨": 8379,
      "é£ĺ": 8380,
      "ä½Ĩåħ¶": 8381,
      "ä¹ĲåĿĽ": 8382,
      "æĶ¹è®¾": 8383,
      "æĪĸç§°": 8384,
      "éĽĨæķ°": 8385,
      "èĻĲ": 8386,
      "è¿ĺåİŁ": 8387,
      "ç¼ĸç»Ħ": 8388,
      "ĠCon": 8389,
      "ille": 8390,
      "è´¹çĶ¨": 8391,
      "å¯Įå±±åİ¿": 8392,
      "éĵģè·¯è½¦ç«Ļ": 8393,
      "ä¸ģåł¡": 8394,
      "ç§»å±ħ": 8395,
      "èĪ¹åıª": 8396,
      "å»¶ç»Ń": 8397,
      "é¢ģå¸ĥ": 8398,
      "oci": 8399,
      "æİĮæı¡": 8400,
      "ç²īä¸Ŀ": 8401,
      "ä¿ĺèĻı": 8402,
      "çĢĳ": 8403,
      "å§Ĭå¦¹": 8404,
      "åı¤èĢģçļĦ": 8405,
      "aul": 8406,
      "gl": 8407,
      "tor": 8408,
      "çļĦåıį": 8409,
      "åĴª": 8410,
      "åĴĴ": 8411,
      "âĢ»": 8412,
      "ä¹ĭéĻħ": 8413,
      "åĨĽèĪ°": 8414,
      "åĵº": 8415,
      "çī©èµĦ": 8416,
      "é«ĺæł¡": 8417,
      "æĸ°çķĮ": 8418,
      "çķ¸": 8419,
      "å¸ĥéĩĮ": 8420,
      "åĪ¶æĪĲ": 8421,
      "éĩįç»Ħ": 8422,
      "éĩįè§Ĩ": 8423,
      "æĽ¾ä¸º": 8424,
      "çĥ¦": 8425,
      "ç»´æĬ¤": 8426,
      "ç¾İåĽ½æµ·åĨĽ": 8427,
      "è¾ĥå°ĳ": 8428,
      "å¿ĹæĦ¿": 8429,
      "æĶ¿åºľçļĦ": 8430,
      "æ³°åĿ¦": 8431,
      "ç½ĳä¸Ĭ": 8432,
      "èįīåİŁ": 8433,
      "èĥĮéĿ¢": 8434,
      "éģŃåıĹ": 8435,
      "æļ´åĬĽ": 8436,
      "èĨ¨": 8437,
      "éĢīæĭĶ": 8438,
      "æ¢¦æĥ³": 8439,
      "åı«åģļ": 8440,
      "èµ¢å¾ĹäºĨ": 8441,
      "åŃŁåĬłæĭī": 8442,
      "obert": 8443,
      "ç§ĺä¹¦éķ¿": 8444,
      "åĩŃåĢŁ": 8445,
      "ek": 8446,
      "ii": 8447,
      "çį": 8448,
      "Ġæ°´": 8449,
      "ĠæĽ¾": 8450,
      "ĠçĪ±": 8451,
      "çļĦåĲįç§°": 8452,
      "è¯°": 8453,
      "è¯Ľ": 8454,
      "æĺ¯æľĢ": 8455,
      "åºĩ": 8456,
      "ä»¥è¥¿": 8457,
      "æĹ¶åĪ»": 8458,
      "åĲįèªī": 8459,
      "åĪĨæ³Į": 8460,
      "è·Į": 8461,
      "åĵ©": 8462,
      "ä¸īç§į": 8463,
      "åĲĮæľŁ": 8464,
      "å£¶": 8465,
      "åīįæĿ¥": 8466,
      "åįģä¸ĥå¹´": 8467,
      "ç¾İçļĦ": 8468,
      "å¸ĥç½®": 8469,
      "åĪ¶åĵģ": 8470,
      "æ¬¡æķ°": 8471,
      "åĮĸä¸º": 8472,
      "åħ¨åŀĴæīĵ": 8473,
      "æķ°ä¸ª": 8474,
      "ç±³åĭĴ": 8475,
      "æ£±": 8476,
      "åħ±è®¡": 8477,
      "éľī": 8478,
      "åĭ¾": 8479,
      "çĽ´è¾ĸ": 8480,
      "å¤ªå®Ĺ": 8481,
      "æį®è¯´": 8482,
      "æłĩé¢ĺ": 8483,
      "æŃ»åİ»": 8484,
      "ç¬¬äºĮåŃ£": 8485,
      "å¼ºçļĦ": 8486,
      "æĶ»åįł": 8487,
      "éĤ£ä¸ª": 8488,
      "æĻ¯è§Ĥ": 8489,
      "ä½İäºİ": 8490,
      "å¹²çº¿": 8491,
      "ĠFor": 8492,
      "è¡¥åħħ": 8493,
      "å®¶æĹıçļĦ": 8494,
      "è´Ńçī©": 8495,
      "åı¦ä¸Ģç§į": 8496,
      "æĦ¿æĦı": 8497,
      "å§Ĳå§Ĳ": 8498,
      "ogle": 8499,
      "1889": 8500,
      "çī©çĲĨåŃ¦": 8501,
      "èĦĬæ¤İ": 8502,
      "ç¿Įå¹´": 8503,
      "æĦ¤æĢĴ": 8504,
      "é¥²åħ»": 8505,
      "ç»´åħĭæĸ¯åł¡": 8506,
      "700": 8507,
      "·éħ¸": 8508,
      "ÏĤ": 8509,
      "ð«": 8510,
      "åĪĥ": 8511,
      "ç»Ĵ": 8512,
      "å¾Ļ": 8513,
      "å¤§äºİ": 8514,
      "1917": 8515,
      "1923": 8516,
      "å¯¡": 8517,
      "æĸ¯èĴĤ": 8518,
      "ä¸İä»ĸ": 8519,
      "åĲĮæŃ¥": 8520,
      "ä»»åĨħ": 8521,
      "å±±ä¸Ĭ": 8522,
      "è¿Ľåı£": 8523,
      "å¹³è¡Į": 8524,
      "ç§ĳçī¹": 8525,
      "è¯¥åĽ½": 8526,
      "æķ°åįģ": 8527,
      "éĺ¿å¯Įæ±Ĺ": 8528,
      "inc": 8529,
      "ink": 8530,
      "åıĤè§Ĥ": 8531,
      "éªı": 8532,
      "èº²": 8533,
      "å²Ľåİ¿": 8534,
      "èº«é«ĺ": 8535,
      "å¯¼å¸Ī": 8536,
      "å¥ĸæľĢä½³": 8537,
      "å±ķåĩº": 8538,
      "åĽ½å®¶åħ¬åĽŃ": 8539,
      "æĶ¯çĲĥéĺŁ": 8540,
      "ĠSc": 8541,
      "åĻ¨çļĦ": 8542,
      "äºīåıĸ": 8543,
      "æĭħå¿ĥ": 8544,
      "åıĭè°Ĭ": 8545,
      "åŁĥå¾·": 8546,
      "ä¹Įæĭī": 8547,
      "âĢĶâĢĶâĢĶâĢĶãĢĬ": 8548,
      "ç³»åĪĹçļĦ": 8549,
      "åĪ¤æĸŃ": 8550,
      "è´¢äº§": 8551,
      "å¹¸åŃĺ": 8552,
      "å¸ĮèħĬè¯Ń": 8553,
      "æĲŃéħį": 8554,
      "åįģåħ«å¹´": 8555,
      "çļĦåīįèº«": 8556,
      "å¦Īå¦Ī": 8557,
      "æĮīå¯Łä½¿": 8558,
      "ä¼łæķĻå£«": 8559,
      "CH": 8560,
      "MS": 8561,
      "ech": 8562,
      "gel": 8563,
      "tion": 8564,
      "çļĦä¸ŃåĽ½": 8565,
      "çļĦåĽ½éĻħ": 8566,
      "çļĦèº«ä»½": 8567,
      "ä¼ŀ": 8568,
      "åĨĢ": 8569,
      "åĽ½éĵģ": 8570,
      "å¤§åĨĽ": 8571,
      "åĩºå±Ģ": 8572,
      "è¢«åıĳçİ°": 8573,
      "æĻĸ": 8574,
      "ä¸ĸå®Ĺ": 8575,
      "ä¹Łç§°": 8576,
      "èĲį": 8577,
      "çİĭå®¤": 8578,
      "ä½Ĩä»į": 8579,
      "éĢļçŁ¥": 8580,
      "è®¾åľ¨": 8581,
      "ãģł": 8582,
      "åħ³èģĶ": 8583,
      "int": 8584,
      "å°±åı¯ä»¥": 8585,
      "çīĩå°¾": 8586,
      "èģĮè´£": 8587,
      "åľ£è¯ŀ": 8588,
      "æīĵå¼Ģ": 8589,
      "ä¸ĸçķĮéģĹäº§": 8590,
      "èİ±å¾·": 8591,
      "ç´¢å°Ķ": 8592,
      "æĤŁ": 8593,
      "ä»£è¡¨å¤§ä¼ļ": 8594,
      "åĶĲä»£": 8595,
      "ĠFran": 8596,
      "å±ĭé¡¶": 8597,
      "èĨĢ": 8598,
      "è¡¨çİ°åĩº": 8599,
      "å§ĵæ°ı": 8600,
      "çĴĭ": 8601,
      "age": 8602,
      "é³įé±¼": 8603,
      "TVB": 8604,
      "ISBN": 8605,
      "åĬ²æŃĮéĩĳæĽ²": 8606,
      "æ¸ħçľŁå¯º": 8607,
      "Ste": 8608,
      "aj": 8609,
      "Ùħ": 8610,
      "çļĦæľĢ": 8611,
      "ä¸ĢæĶ¯": 8612,
      "ä¸ºä¸ŃåĽ½": 8613,
      "ä¸Ńä¸ĸçºª": 8614,
      "åŃ¦éĩĳ": 8615,
      "ä»¥åħ¶": 8616,
      "ä»ĸå°Ĩ": 8617,
      "è·ĭ": 8618,
      "æľ¬åĲį": 8619,
      "ä¸īå¥½": 8620,
      "æĸ¹ç¨ĭ": 8621,
      "äºĮæ¬¡": 8622,
      "äºĮæ°§åĮĸ": 8623,
      "åĪ©çĽĬ": 8624,
      "ãĥĲ": 8625,
      "èĪĨ": 8626,
      "å°ıåĲĥ": 8627,
      "è¿ĩäºİ": 8628,
      "åİŁåĪĽ": 8629,
      "éĥ½åŁİ": 8630,
      "éĥ½å¯ŁéĻ¢": 8631,
      "éħī": 8632,
      "æĢ»åĨ³èµĽ": 8633,
      "é¥¥": 8634,
      "åıĤçľĭ": 8635,
      "ä¿Ŀå®ī": 8636,
      "åĭī": 8637,
      "å°±æľī": 8638,
      "åĽŀåĽ½": 8639,
      "æĽ´æį¢": 8640,
      "åľ£æ®¿": 8641,
      "æĻ®æĭī": 8642,
      "å¤įä»ĩ": 8643,
      "éĽ·è¾¾": 8644,
      "è§Ĥçľĭ": 8645,
      "æ±īè¯Ń": 8646,
      "å·¥ä½ľäººåĳĺ": 8647,
      "æ³°å°Ķ": 8648,
      "å®Īå¤ĩ": 8649,
      "æľ«å¹´": 8650,
      "å¼¹åĬ¾": 8651,
      "å¿ħè¦ģ": 8652,
      "å¤ľéĹ´": 8653,
      "èģļéĽĨ": 8654,
      "ague": 8655,
      "å£ģçĶ»": 8656,
      "éħįéŁ³åĳĺ": 8657,
      "è·ĳéģĵ": 8658,
      "è©¹å§Ĩ": 8659,
      "çĬ¹å¤ªäºº": 8660,
      "Pixel": 8661,
      "yp": 8662,
      "ï¹": 8663,
      "åĪł": 8664,
      "å¹´æľŁéĹ´": 8665,
      "å¤§è´¥": 8666,
      "å¤§åī§éĻ¢": 8667,
      "æĹ¥è®°": 8668,
      "è´¦": 8669,
      "ä¸įå¦Ĥ": 8670,
      "ä¸»å¯¼": 8671,
      "çĶ¨ä»¥": 8672,
      "å¤ļä¸º": 8673,
      "éĩĮéĿ¢": 8674,
      "å½±å±ķ": 8675,
      "æĢ»æķĻåĮº": 8676,
      "æ²³åı£": 8677,
      "äº¤æĪĺ": 8678,
      "ç¿¡": 8679,
      "çīĩæ®µ": 8680,
      "åĳ¨åĪĬ": 8681,
      "è½¬ä¸º": 8682,
      "çĳĻ": 8683,
      "è¿ŀç»ĵ": 8684,
      "æĿ¡çº¹": 8685,
      "ä¼¯æł¼": 8686,
      "ĠCar": 8687,
      "æĶ»åħ¥": 8688,
      "ç»§ä½į": 8689,
      "è±¡æ£ĭ": 8690,
      "è¿ľå¾ģ": 8691,
      "èĤ¡ä¸ľ": 8692,
      "æµªæ¼«": 8693,
      "é¹°çº§": 8694,
      "ç§ŁåĢŁ": 8695,
      "åĬ²çĪĨ": 8696,
      "ç°§": 8697,
      "æ¶µçĽĸ": 8698,
      "ä¿Ŀå®Īåħļ": 8699,
      "åĪĽå§ĭäºº": 8700,
      "çĶ±è¯¥éģĵè·¯": 8701,
      "Red": 8702,
      "ts": 8703,
      "Ġæ°¸": 8704,
      "ä¸ķ": 8705,
      "ä¹ŀ": 8706,
      "çºº": 8707,
      "å¤§è¿ŀ": 8708,
      "åİī": 8709,
      "æĹ¥ä¸¾è¡Į": 8710,
      "æ¸¤": 8711,
      "ä¹ĭä¸Ĭ": 8712,
      "åŃĲåŃĻ": 8713,
      "åıĳéŁ³": 8714,
      "æľ¬å±Ĭ": 8715,
      "èµĽè½¦": 8716,
      "ãĥ¡": 8717,
      "è¿ĽåĨĽ": 8718,
      "éĵħ": 8719,
      "ç«ĭå¤§åŃ¦": 8720,
      "çĽ¸è¾ĥ": 8721,
      "çĽ´å±ŀ": 8722,
      "æĽ´æĺ¯": 8723,
      "è¿ĺåĮħæĭ¬": 8724,
      "çĻ½äºº": 8725,
      "æŃ¦å°Ĩ": 8726,
      "æĳĺ": 8727,
      "åķĨåĬ¡": 8728,
      "å®¹éĩı": 8729,
      "è¡ĹåºĦ": 8730,
      "ĠBl": 8731,
      "è¯»ä¹¦": 8732,
      "æĬĹæĹ¥": 8733,
      "1903": 8734,
      "æĢĢåŃķ": 8735,
      "own": 8736,
      "èĳ¬äºİ": 8737,
      "ä¸İæŃ¤åĲĮæĹ¶": 8738,
      "Ġæĺ¯": 8739,
      "Ġ13": 8740,
      "Ġå¯¼æ¼Ķ": 8741,
      "çļĦæĹ¥æľ¬": 8742,
      "çļĦä»£è¡¨": 8743,
      "ä¸Ńåľº": 8744,
      "å·©": 8745,
      "ä»ĸè®¤ä¸º": 8746,
      "åĩºäºİ": 8747,
      "éģ®": 8748,
      "å°Ķæľ¬": 8749,
      "çŃĭ": 8750,
      "è¿Ļæ®µ": 8751,
      "åĬłå·¥": 8752,
      "çĶµç£ģ": 8753,
      "åĬ¨èĦī": 8754,
      "å±±æĿĳ": 8755,
      "åįģäºĶå¹´": 8756,
      "ä¹ŁåĽłæŃ¤": 8757,
      "æŃ¤åīį": 8758,
      "ç«ĻçļĦ": 8759,
      "éĿ¢åīį": 8760,
      "åİŁæľī": 8761,
      "åİ¿åŁİ": 8762,
      "ãĤĦ": 8763,
      "çĽ¸ç»§": 8764,
      "æŃ£æĺ¯": 8765,
      "éľľ": 8766,
      "é²Ī": 8767,
      "æĥħæĦŁ": 8768,
      "æĮĩæİ§": 8769,
      "çĻ½ä¿Ħç½Ĺæĸ¯": 8770,
      "æĻ®å°Ķ": 8771,
      "ä¸ĸçķĮè¯Ń": 8772,
      "å½ķå½±": 8773,
      "è§ģåĪ°": 8774,
      "ĠCo": 8775,
      "æ¯ıæ¬¡": 8776,
      "ç®ĢåİĨ": 8777,
      "åĢĻè½¦": 8778,
      "é¡ºæĹ¶éĴĪ": 8779,
      "ign": 8780,
      "æī©å¼ł": 8781,
      "åĿĲèĲ½": 8782,
      "æ²Īéĺ³": 8783,
      "ube": 8784,
      "çĸ«èĭĹ": 8785,
      "Ø§ÙĦ": 8786,
      "éĢ»è¾ĳ": 8787,
      "çĲĨæŁ¥å¾·": 8788,
      "Pr": 8789,
      "ouse": 8790,
      "pl": 8791,
      "ĠãĢģ": 8792,
      "Ġä¸İ": 8793,
      "Ġæ¢ģ": 8794,
      "Ġå¹¿è¥¿å£®æĹıèĩªæ²»åĮº": 8795,
      "äººæīį": 8796,
      "æĭ¦": 8797,
      "åŃ¦åłĤ": 8798,
      "æĹ¶å¸¸": 8799,
      "ä¹ĭçĪ¶": 8800,
      "èĥļ": 8801,
      "è¡Įé©¶": 8802,
      "çī¹çĥĪ": 8803,
      "çĶ±æĿ¥": 8804,
      "å¤ļæĸ¯": 8805,
      "æīĢéľĢ": 8806,
      "æ¼³": 8807,
      "å¤©æ°Ķ": 8808,
      "ãģĪ": 8809,
      "éħ®": 8810,
      "è¿Ĳä¼ļ": 8811,
      "å§ĭç»Ī": 8812,
      "æµģéĩı": 8813,
      "ç®¡åĪ¶": 8814,
      "æĻ®éĽ·": 8815,
      "å®Ĺå®¤": 8816,
      "å§Ķä¹¦è®°": 8817,
      "æľªæľī": 8818,
      "å½ķåĪ¶": 8819,
      "åĻ¨å®ĺ": 8820,
      "å¸Įä¼¯": 8821,
      "æīĺé©¬æĸ¯": 8822,
      "åĩĨç¡®": 8823,
      "èĪªçıŃ": 8824,
      "åĽ´ç»ķ": 8825,
      "å°Ħæīĭ": 8826,
      "ä»ħä»ħ": 8827,
      "å¼Ĺåħ°": 8828,
      "åģļä¸º": 8829,
      "ĠGro": 8830,
      "éĽĨåĽ¢åĨĽ": 8831,
      "æĪĲåĬŁçļĦ": 8832,
      "ç§ĭåŃ£": 8833,
      "éĢĥäº¡": 8834,
      "å¢ŀåĬłäºĨ": 8835,
      "æİĴåĲįç¬¬": 8836,
      "å¹½å·ŀ": 8837,
      "æĺİæĺŁèµĽ": 8838,
      "ä½ĵéķ¿åı¯è¾¾": 8839,
      "Google": 8840,
      "æĭ¯æķĳ": 8841,
      "åĵºä¹³": 8842,
      "ç¿¡ç¿ł": 8843,
      "--": 8844,
      "5000": 8845,
      "La": 8846,
      "RNA": 8847,
      "ea": 8848,
      "ien": 8849,
      "ren": 8850,
      "çļĦå¼Ģ": 8851,
      "çļĦå¯¹": 8852,
      "å¹´äºİ": 8853,
      "æĹ¥è¢«": 8854,
      "ä¸»çº¿": 8855,
      "å»¿": 8856,
      "èµĽåĮº": 8857,
      "äºļçĳŁ": 8858,
      "åı¯åľ¨": 8859,
      "ãĥı": 8860,
      "çķľ": 8861,
      "çŃīå¾ħ": 8862,
      "éĵĿ": 8863,
      "å½ĵä½ľ": 8864,
      "é¦ĸæĺł": 8865,
      "åıĤæ¼Ķ": 8866,
      "æĺŁåº§": 8867,
      "ç»´ä¿®": 8868,
      "æ»´": 8869,
      "å¤§åŃ¦å£«": 8870,
      "åĽŀæĿ¥": 8871,
      "å¸¦èĳĹ": 8872,
      "çĶ°çº³è¥¿": 8873,
      "å¼Ģå§ĭåľ¨": 8874,
      "åħĪéĶĭ": 8875,
      "éĺ³åħī": 8876,
      "åĪĴåĪĨ": 8877,
      "éħįå¤ĩ": 8878,
      "çªĥ": 8879,
      "æ³°åĽł": 8880,
      "å©·": 8881,
      "ä¼Ĺäºº": 8882,
      "åĳĬçŁ¥": 8883,
      "ç»ĥä¹ł": 8884,
      "Ġ2003": 8885,
      "æ¯ĽåĪ©": 8886,
      "åħ¨åĽ½éĩįçĤ¹æĸĩçī©ä¿ĿæĬ¤åįķä½į": 8887,
      "æ±¤å§Ĩ": 8888,
      "æľĢåĪĿçļĦ": 8889,
      "å®¿èĪį": 8890,
      "èľĤé¸Ł": 8891,
      "å¥¥æĸ¯åį¡": 8892,
      "çĩĥçĥ§": 8893,
      "åµĮ": 8894,
      "å®°çĽ¸": 8895,
      "çĻ½åŀ©çºª": 8896,
      "èı²åĪ©æĻ®": 8897,
      "En": 8898,
      "UN": 8899,
      "Ñĩ": 8900,
      "çļĦå®¶": 8901,
      "çļĦçĪ±": 8902,
      "çļĦå¦»åŃĲ": 8903,
      "æĪİ": 8904,
      "ä¸Ģéĥİ": 8905,
      "äººæ°Ķ": 8906,
      "èµĶ": 8907,
      "å¥ł": 8908,
      "ç«ĸ": 8909,
      "åľ°äºļ": 8910,
      "ä¸ĬåįĬ": 8911,
      "åĲįè¯į": 8912,
      "åĪĨåī²": 8913,
      "ç¾Į": 8914,
      "éķ¿æĺ¥": 8915,
      "ä¸ĭæĿ¥çļĦ": 8916,
      "å¾·æĸ¯": 8917,
      "æľĢåıĹæ¬¢è¿İ": 8918,
      "å»ºæľī": 8919,
      "äºĭè¿¹": 8920,
      "åĲĪæ³ķ": 8921,
      "ç§°èµŀ": 8922,
      "éĩĳæĸ¯": 8923,
      "æĢ»ä½ĵ": 8924,
      "æĶ¹ä»»": 8925,
      "é¥¿": 8926,
      "åıĤè®®éĻ¢": 8927,
      "å®ŀè·µ": 8928,
      "æĥħç»ª": 8929,
      "åº§ä½į": 8930,
      "è´¨çļĦ": 8931,
      "å£°æĺİ": 8932,
      "åĥıæĺ¯": 8933,
      "éĺ²ç©º": 8934,
      "æī¿æĭħ": 8935,
      "æĺ¥åŃ£": 8936,
      "çİĽæł¼": 8937,
      "ä¾ĿéĿł": 8938,
      "èŃ¦æĬ¥": 8939,
      "èī¯å¥½": 8940,
      "éŃĶå¥³": 8941,
      "åĪºçĮ¬": 8942,
      "åĤ²": 8943,
      "æĻºæħ§": 8944,
      "æ¦Ĥçİĩ": 8945,
      "ç´§å¼ł": 8946,
      "ĠChina": 8947,
      "åľ¨è¿ĻéĩĮ": 8948,
      "åı°åĮĹå¸Ĥ": 8949,
      "ä¸īè§Ĵå½¢": 8950,
      "Am": 8951,
      "ef": 8952,
      "Ġç¾İåĽ½": 8953,
      "çļĦçĥŃ": 8954,
      "çļĦå®ĺæĸ¹": 8955,
      "çļĦåľŁåľ°": 8956,
      "ä¸ŃåİŁ": 8957,
      "1914": 8958,
      "çĲ¦": 8959,
      "æĹ¶è¢«": 8960,
      "åħ¬æ¼Ķ": 8961,
      "å¾·ç½Ĺ": 8962,
      "æ³ķä»¤": 8963,
      "åīįèĢħ": 8964,
      "çĶµåĬ¨": 8965,
      "çĶµæ±ł": 8966,
      "åĪ©å®ī": 8967,
      "èĩ³æŃ¤": 8968,
      "è°£": 8969,
      "åŁºéĥ¨": 8970,
      "èĭ±åĨĽ": 8971,
      "é¦ĸä»»": 8972,
      "æĢ»ç®¡": 8973,
      "åłĢ": 8974,
      "éŁ³èĬĤ": 8975,
      "åıĤåĨĽ": 8976,
      "å°ĳåį¿": 8977,
      "ork": 8978,
      "orld": 8979,
      "æŃ¦çĶ°": 8980,
      "åħŃä¸ª": 8981,
      "åı¯ä»¥éĢļè¿ĩ": 8982,
      "å¨ģçī¹": 8983,
      "éĺ³éĥ¡": 8984,
      "åį«éĺŁ": 8985,
      "åį³åı¯": 8986,
      "éºĵ": 8987,
      "æł·æľ¬": 8988,
      "æ·±åħ¥": 8989,
      "ä¸¹å°¼å°Ķ": 8990,
      "èŃ¦åĳĬ": 8991,
      "Ġ2001": 8992,
      "ä¸»ä¹īçļĦ": 8993,
      "åĨ²åĩ»": 8994,
      "æĻºèĥ½": 8995,
      "ç©¿è¿ĩ": 8996,
      "éĢłæĪĲçļĦ": 8997,
      "åĪĳäºĭ": 8998,
      "æıĲåĩºäºĨ": 8999,
      "æĹ©æľŁçļĦ": 9000,
      "ä¼Ĳåħĭ": 9001,
      "ç¬¬ä¸Ģæ¬¡ä¸ĸçķĮå¤§æĪĺ": 9002,
      "éĽ¶åĶ®": 9003,
      "éŀį": 9004,
      "åīįèº«ä¸º": 9005,
      "è¿½æº¯åĪ°": 9006,
      "é¢ħéª¨": 9007,
      "æ¦´å¼¹": 9008,
      "CR": 9009,
      "Met": 9010,
      "eth": 9011,
      "Ã¶": 9012,
      "ĠéĻķè¥¿çľģ": 9013,
      "çļĦéĩĳ": 9014,
      "çļĦçĲĥåĳĺ": 9015,
      "çļĦæľºä¼ļ": 9016,
      "åį¯": 9017,
      "ä¸ºæĸ°": 9018,
      "äººæ¬¡": 9019,
      "çºĤ": 9020,
      "éĢ¾": 9021,
      "æĪĲæŀľ": 9022,
      "ä»ĸå¯¹": 9023,
      "ä¹ĭæĹ¶": 9024,
      "èµĽåĨłåĨĽ": 9025,
      "ä¸īä½į": 9026,
      "ä¹ŁæĽ¾": 9027,
      "æĭīèĦ±": 9028,
      "æŁľ": 9029,
      "æ¡ħ": 9030,
      "åħ¨ä¹¦": 9031,
      "è¯¥å»ºçŃĳ": 9032,
      "åı²å¡Ķåħĭ": 9033,
      "ç¨½": 9034,
      "éĺ¿å¸ĥ": 9035,
      "éĢīä¸Ń": 9036,
      "æ·ĩ": 9037,
      "éĴ§": 9038,
      "å·´çī¹": 9039,
      "ç¥ŀçĪ¶": 9040,
      "åŀĭåı·": 9041,
      "å¥ĸåŃ¦éĩĳ": 9042,
      "èģĮåĳĺ": 9043,
      "æ°Ķä½ĵ": 9044,
      "ç»Īç»ĵ": 9045,
      "åľŁä½Ĳ": 9046,
      "ç»Ļä»ĸ": 9047,
      "è°ĥä»»": 9048,
      "çİ¯ç»ķ": 9049,
      "ä¸ĸçºªæľ«": 9050,
      "éĵ¶æ²³": 9051,
      "æĿ¾æ±Ł": 9052,
      "å°¾å·´": 9053,
      "åŁİå¸ĤçļĦ": 9054,
      "åįģäºĮåİħ": 9055,
      "äºĮåįģå¹´": 9056,
      "çİ©æ³ķ": 9057,
      "æ··åĩĿ": 9058,
      "å¹´åº¦æľĢä½³": 9059,
      "æĪĪå°Ķ": 9060,
      "å¯»æ±Ĥ": 9061,
      "çļĦå¥³æĢ§": 9062,
      "çıįå¦®": 9063,
      "èĳ¡èĲĦéħĴ": 9064,
      "ä¸¥éĩįçļĦ": 9065,
      "...": 9066,
      "åĭĥèī®": 9067,
      "å¸ĪèĮĥå¤§åŃ¦": 9068,
      "èħĵçī¹çĥĪ": 9069,
      "è·¯å¾·ç»´": 9070,
      "éª¨éª¼": 9071,
      "åľ°ä¸Ńæµ·": 9072,
      "à¸²à¸": 9073,
      "æĭīèĦ±ç»´äºļ": 9074,
      "360": 9075,
      "MP": 9076,
      "Play": 9077,
      "Ġæĺİ": 9078,
      "Ġæľ±": 9079,
      "ãĢĲ": 9080,
      "ãĢĳ": 9081,
      "çļĦä½ľçĶ¨": 9082,
      "æľĶ": 9083,
      "ä¸Ģè·¯": 9084,
      "ï¼īï¼ī": 9085,
      "æĺ¯ä¸Ńåįİäººæ°ĳåħ±åĴĮåĽ½": 9086,
      "åºĲ": 9087,
      "å¤§åĴĮ": 9088,
      "å¤§åħ¬": 9089,
      "åĴĮä»ĸçļĦ": 9090,
      "1910": 9091,
      "æĹ¥çĶ±": 9092,
      "åĲİä¸ĸ": 9093,
      "åĲįå½ķ": 9094,
      "æľ¬ç§į": 9095,
      "æ¬º": 9096,
      "åįĹåĮº": 9097,
      "æľĢå¤ļçļĦ": 9098,
      "æ³ķåŃ¦": 9099,
      "é«ĺäºİ": 9100,
      "æĸ°å¢ŀ": 9101,
      "èĬ¯": 9102,
      "å±±é¡¶": 9103,
      "è°ľ": 9104,
      "é©¬åĬĽ": 9105,
      "æľºæŀª": 9106,
      "ç«Ļèĩ³": 9107,
      "ä½¿èĢħ": 9108,
      "é»Ķ": 9109,
      "å¼ıä¼ļç¤¾": 9110,
      "Ġ***": 9111,
      "æ¢ĵ": 9112,
      "åĳ¨æľ«": 9113,
      "çĳ¶": 9114,
      "æł¹æľ¬": 9115,
      "åŃ¦éĻ¢çļĦ": 9116,
      "æĹ©ä¸Ĭ": 9117,
      "æ·±åĪ»": 9118,
      "ild": 9119,
      "èĽ®": 9120,
      "æ¢ħå°Ķ": 9121,
      "æ¶ĪçģŃ": 9122,
      "éĽĦæĢ§": 9123,
      "åĲ«éĩı": 9124,
      "æĪĺäºīæľŁéĹ´": 9125,
      "å©ļç¤¼": 9126,
      "é»İæĺİ": 9127,
      "èĥ¡åĲĮ": 9128,
      "éĢļå¸¸æĺ¯": 9129,
      "èĪªç©ºæ¯įèĪ°": 9130,
      "æİ¢æµĭ": 9131,
      "ä¼ĳæģ¯": 9132,
      "åĩ»è´¥äºĨ": 9133,
      "æĽ¹æĵį": 9134,
      "çīłä»¬çļĦ": 9135,
      "æłĸæģ¯åľ°": 9136,
      "æłªå¼ıä¼ļç¤¾": 9137,
      "çĲīçĲĥ": 9138,
      "æĲºå¸¦": 9139,
      "iversity": 9140,
      "LL": 9141,
      "å¶": 9142,
      "çļĦåĮĹ": 9143,
      "åľ¨åĮĹ": 9144,
      "è®¼": 9145,
      "ç§©": 9146,
      "æĹ¥åŃĲ": 9147,
      "ç¬Ľ": 9148,
      "éĥ¨æĽ²": 9149,
      "ä¸īæ¬¡": 9150,
      "èĪħ": 9151,
      "éĤ¨": 9152,
      "ç¼ł": 9153,
      "101": 9154,
      "éĥ½ç»Ł": 9155,
      "çľģæİ¥å£¤": 9156,
      "åħµåĬĽ": 9157,
      "å¼Ģå§ĭäºĨ": 9158,
      "æĶ¾ç½®": 9159,
      "è§ģäºİ": 9160,
      "éĻ¤æŃ¤": 9161,
      "èĩ´åĬĽ": 9162,
      "ç´¢å°¼": 9163,
      "åĨĻéģĵ": 9164,
      "å¼ŁåŃĲ": 9165,
      "èĴĻå¾·": 9166,
      "æĸĹå£«": 9167,
      "åºĨåħ¸": 9168,
      "red": 9169,
      "å¸ķçī¹": 9170,
      "åŃĺåľ¨çļĦ": 9171,
      "è¾ĵåĩº": 9172,
      "èĶļ": 9173,
      "äº®çĽ¸": 9174,
      "æı´åĬ©": 9175,
      "æĲŃæ¡£": 9176,
      "Ġæĸ°åŁİ": 9177,
      "éĢĨè½¬": 9178,
      "è¾Ĳé³įé±¼": 9179,
      "è¿Ļéĥ¨çĶµå½±": 9180,
      "å©´åĦ¿": 9181,
      "ä½¥äºĭ": 9182,
      "æ··åĩĿåľŁ": 9183,
      "AG": 9184,
      "CE": 9185,
      "Le": 9186,
      "çļĦæĦıæĢĿ": 9187,
      "å¹´åĬłåħ¥": 9188,
      "æĸ§": 9189,
      "åľ¨åĮĹäº¬": 9190,
      "è¯Ī": 9191,
      "æ°Ł": 9192,
      "æ³¾": 9193,
      "çĶŁæĹ¥": 9194,
      "æŀķ": 9195,
      "å¹¶æľī": 9196,
      "åįĹæŀģ": 9197,
      "åĮĹå¸Ĥ": 9198,
      "äºļæĸ¯": 9199,
      "åħĭåĬ³": 9200,
      "é«ĺæ¡¥": 9201,
      "åĬłåĭĴ": 9202,
      "ãĥİ": 9203,
      "å¤©æŃ£": 9204,
      "åħ¥äºĨ": 9205,
      "è½¦åİ¢": 9206,
      "ç³Ĭ": 9207,
      "éĥ½ä¸į": 9208,
      "æ°´éĩı": 9209,
      "ç»ĦçļĦ": 9210,
      "æĶ¹è£ħ": 9211,
      "åħ³èĬĤ": 9212,
      "æ¶¡": 9213,
      "çķĮçļĦ": 9214,
      "å±ĢçļĦ": 9215,
      "ç¬¬äºĮå¤©": 9216,
      "æĴŃåĩºçļĦ": 9217,
      "è¾ĥé«ĺ": 9218,
      "è´Ŀæĭī": 9219,
      "æĹ©åľ¨": 9220,
      "è®¤ä¸ºæĺ¯": 9221,
      "itt": 9222,
      "che": 9223,
      "è¯ģä¹¦": 9224,
      "row": 9225,
      "èİ«å¤«": 9226,
      "å¿«è½¦": 9227,
      "éĺµäº¡": 9228,
      "è¡Ģç»Ł": 9229,
      "é¡¶éĥ¨": 9230,
      "å®ĭæľĿ": 9231,
      "åĩ¯å°Ķ": 9232,
      "å¤ºåĨł": 9233,
      "çļĦå¤§åŀĭ": 9234,
      "å·¨äºº": 9235,
      "éĢĶå¾Ħ": 9236,
      "å«©": 9237,
      "èĤ¯å®ļ": 9238,
      "çļĨä¸º": 9239,
      "åįĵè¶Ĭ": 9240,
      "åĭĥèī®ç¬¬": 9241,
      "Bl": 9242,
      "ael": 9243,
      "oo": 9244,
      "Ø±": 9245,
      "ÙĪ": 9246,
      "ĠåĶĲ": 9247,
      "ï¼Īï¼Ł": 9248,
      "è®½": 9249,
      "åĲİæĸ¹": 9250,
      "æ²ģ": 9251,
      "éĥ¨ä½į": 9252,
      "éĥ¨çĶµå½±": 9253,
      "éĥ¨éĥ¨éķ¿": 9254,
      "æĬ¹": 9255,
      "åıĬåĲİ": 9256,
      "ãĥ§": 9257,
      "äºĭæĥħ": 9258,
      "æľºåĬ¨": 9259,
      "ç«ĭäº¤": 9260,
      "åŁİéĻħ": 9261,
      "ç¼¸": 9262,
      "ãĤį": 9263,
      "æ°´æĻ¶": 9264,
      "æ¸¯åħĥ": 9265,
      "æĽ¾æĭħä»»": 9266,
      "æıĲåīį": 9267,
      "åĽ½å®¶è¶³çĲĥéĺŁ": 9268,
      "æ´Ľæĸ¯": 9269,
      "ä¼¯åĪ©äºļ": 9270,
      "æĺ¯ä¸Ģå®¶": 9271,
      "æĶ»åĬ¿": 9272,
      "é²ģæĸ¯": 9273,
      "å¾Īå¤§çļĦ": 9274,
      "èĢģæĿ¿": 9275,
      "æħ°": 9276,
      "amb": 9277,
      "åĨłåĨĽèµĽ": 9278,
      "ä¾¿æĺ¯": 9279,
      "èľ¡": 9280,
      "æĳ©æ´Ľ": 9281,
      "çŃĸåĪĴ": 9282,
      "é©»æīİ": 9283,
      "å°ºå¯¸": 9284,
      "æĪĺå½¹ä¸Ń": 9285,
      "è·¨è¶Ĭ": 9286,
      "é©±åĬ¨": 9287,
      "çļĦç¬¬ä¸Ģä¸ª": 9288,
      "è¯Ħè®ºå®¶": 9289,
      "å±ıä¸ľ": 9290,
      "ä¸ŀçĽ¸": 9291,
      "ä¼Ĭæĸ¯åħ°æķĻ": 9292,
      "3000": 9293,
      "les": 9294,
      "Ìĥ": 9295,
      "çļĦä¸Ńå¿ĥ": 9296,
      "çļĦè®¡åĪĴ": 9297,
      "åħľ": 9298,
      "åľ¨ç¬¬": 9299,
      "å¤§åľ°": 9300,
      "æľīä¸¤": 9301,
      "çĽĶ": 9302,
      "1911": 9303,
      "æĹ¥èĢ³": 9304,
      "æł½": 9305,
      "æłī": 9306,
      "åĩºäºĳ": 9307,
      "åħ¬çº¦": 9308,
      "éĽ¯": 9309,
      "å¹¶æĪĲä¸º": 9310,
      "å²±": 9311,
      "çī©è¯Ń": 9312,
      "ä½ĵç§¯": 9313,
      "ç§ĳå¹»": 9314,
      "ç¼Ģ": 9315,
      "erv": 9316,
      "æŃ£ç»Ł": 9317,
      "anc": 9318,
      "ä»¬çļĦ": 9319,
      "é¦ĸæī¹": 9320,
      "éĹ¨çļĦ": 9321,
      "é²¤": 9322,
      "åĸĿ": 9323,
      "æĹ¥æľ¬æĹħå®¢éĵģéģĵ": 9324,
      "çĸ¼": 9325,
      "å®Ĺåº§": 9326,
      "åıįèĢĮ": 9327,
      "çłĶç©¶åĳĺ": 9328,
      "æ±īåł¡": 9329,
      "æ²¡æľīä»»ä½ķ": 9330,
      "èĲ¥åħ»": 9331,
      "130": 9332,
      "ä¹ĭåĲİçļĦ": 9333,
      "éĻįèĲ½": 9334,
      "æĹ§éĩĳå±±": 9335,
      "é¡ºæ²»": 9336,
      "æľ«ç«¯": 9337,
      "ime": 9338,
      "æ¸Ĳæ¸Ĳ": 9339,
      "åĪĽä½ľçļĦ": 9340,
      "æĲŃè½½": 9341,
      "éĦļ": 9342,
      "å±±è¥¿çľģ": 9343,
      "æĢ»éĥ¨ä½įäºİ": 9344,
      "å¿ĥçĲĨåŃ¦": 9345,
      "ç¤¾ä¼ļä¸»ä¹īåħ±åĴĮåĽ½": 9346,
      "æľĿæĹ¥çĶµè§Ĩåı°": 9347,
      "ft": 9348,
      "Ġåı¤": 9349,
      "Ġç¬¬ä¸ī": 9350,
      "çļĦåŁİå¸Ĥ": 9351,
      "ä¸Ģåħ±": 9352,
      "ä¸Ģè¯´": 9353,
      "ä¸ŃåŃ¦æł¡": 9354,
      "æľīäºĨ": 9355,
      "æľĪåºķ": 9356,
      "åľ°çĭ±": 9357,
      "ä»ĸä»¥": 9358,
      "èĢĮè¡Į": 9359,
      "ä¸īçº§": 9360,
      "èİ¹": 9361,
      "å¯¹ç§°": 9362,
      "å¤©åĲ¯": 9363,
      "ç«ĭéĿ¢": 9364,
      "æ¡¨": 9365,
      "ç¦½": 9366,
      "åİŁçĲĨ": 9367,
      "ãĤģ": 9368,
      "åĬĽåŃ¦": 9369,
      "ç±³å°Ķæĸ¯": 9370,
      "ines": 9371,
      "åıĹåĪ°äºĨ": 9372,
      "è¿ĺè¦ģ": 9373,
      "ç¦ıçĶ°": 9374,
      "ç¡Ŀ": 9375,
      "ç»ĪæŃ¢": 9376,
      "æ¥ł": 9377,
      "åı¦è§ģ": 9378,
      "æ¨¡ä»¿": 9379,
      "æĪ¿åľ°äº§": 9380,
      "è¶³çĲĥçĶ²çº§èģĶèµĽ": 9381,
      "å°ģéĿ¢": 9382,
      "å¿«ä¹Ĳ": 9383,
      "æĵĴ": 9384,
      "æłĳæľ¨": 9385,
      "ä¸Ńå¤®çĶµè§Ĩåı°": 9386,
      "éĢĲæŃ¥": 9387,
      "æŁıæŁı": 9388,
      "1908": 9389,
      "çĶŁçī©åŃ¦å®¶": 9390,
      "ä¼ģåĽ¾": 9391,
      "iver": 9392,
      "æĹĭå¾ĭ": 9393,
      "out": 9394,
      "1898": 9395,
      "å¨ģå»īæ¸¯": 9396,
      "çĮİäºº": 9397,
      "éĽĮæĢ§": 9398,
      "æĹ¨åľ¨": 9399,
      "èĴ¸æ±½": 9400,
      "èĿĻèĿłä¾ł": 9401,
      "ÙĨ": 9402,
      "åŃ¢": 9403,
      "äººä½ĵ": 9404,
      "å¤§å°Ĩ": 9405,
      "æĹ¶å°ļ": 9406,
      "åħ¬çĽĬ": 9407,
      "èĢĮå¾ĹåĲį": 9408,
      "ä¾ı": 9409,
      "ä¸īåĲį": 9410,
      "æĮ¤": 9411,
      "åĲĮä¸Ģä¸ª": 9412,
      "éģĵå¾·": 9413,
      "è¿Ļä½į": 9414,
      "å±±çļĦ": 9415,
      "çŃīäºİ": 9416,
      "å¸ĥç½Ĺ": 9417,
      "åı·çıŃæľº": 9418,
      "ãĤ±": 9419,
      "åħ°å·ŀ": 9420,
      "å°¼åŃĲ": 9421,
      "æĢ»åħ±": 9422,
      "æĮĩä»¤": 9423,
      "æĽ´åĲį": 9424,
      "é¦Ļæ¸¯ç«¥åĨĽ": 9425,
      "è§£éĻ¤": 9426,
      "åĲīäºļ": 9427,
      "uss": 9428,
      "ä¿ĦåĨĽ": 9429,
      "å°Ħåħ¥": 9430,
      "ä¸ªäººçĶŁæ´»": 9431,
      "äº§çĶŁäºĨ": 9432,
      "èķī": 9433,
      "éĺ¿å°Ķåįĳ": 9434,
      "æŁĲç§į": 9435,
      "å¢¨å°Ķæľ¬": 9436,
      "éĢīä¸¾ä¸Ń": 9437,
      "åı¬åĶ¤": 9438,
      "éļĲèĹı": 9439,
      "å½ĵéĢīä¸º": 9440,
      "è¿Ŀåıį": 9441,
      "éĽįæŃ£": 9442,
      "Ed": 9443,
      "ke": 9444,
      "ĠåĪ¶ä½ľ": 9445,
      "çļĦåħ¨": 9446,
      "ãĢĤãĢĮ": 9447,
      "å¹´ä¸ŃåĽ½": 9448,
      "åľ¨åĨħ": 9449,
      "ä¸Ģåı·": 9450,
      "äººåĿĩ": 9451,
      "1915": 9452,
      "åīĮ": 9453,
      "ä»ĸæĪĲä¸º": 9454,
      "ä»ĸåıĪ": 9455,
      "ä¸įåĪĹ": 9456,
      "çŃł": 9457,
      "æľ¬éĥ¨": 9458,
      "åĲĮçŁ¥": 9459,
      "éģĵçļĦ": 9460,
      "é«ĺéĵģ": 9461,
      "å¤©ç©º": 9462,
      "å·¥åķĨ": 9463,
      "ä½¿å¾Ĵ": 9464,
      "ç³»çļĦ": 9465,
      "é¦ĸè½®": 9466,
      "æ·Ģ": 9467,
      "äºĶä»£": 9468,
      "ä¸ĩåĲ¨": 9469,
      "æĮĩæķ°": 9470,
      "çīĩä¸Ń": 9471,
      "æłĩç¤º": 9472,
      "ä»ĸçļĦçĪ¶äº²": 9473,
      "å®¢è½¦": 9474,
      "çİ¯ä¿Ŀ": 9475,
      "æķ´çĲĨ": 9476,
      "ĠBr": 9477,
      "ç²¾ç¡®": 9478,
      "åįĥäºº": 9479,
      "åĩłåĨħäºļ": 9480,
      "å§Ķåĳĺä¼ļä¸»å¸Ń": 9481,
      "å¸ķå°Ķ": 9482,
      "æĿ¿åĿĹ": 9483,
      "çĩ¥": 9484,
      "æľĢé«ĺæ³ķéĻ¢": 9485,
      "éĢĥç¦»": 9486,
      "åħĭæĸ¯åĿ¦": 9487,
      "èªīä¸º": 9488,
      "Ġ1998": 9489,
      "ä¼Łå¤§çļĦ": 9490,
      "çĤ¸å¼¹": 9491,
      "æŁ¯çĳŀ": 9492,
      "éŀŃ": 9493,
      "æ·±åľ³å¸Ĥ": 9494,
      "æ²¼æ³½": 9495,
      "æ©Ħæ¦ĦçĲĥ": 9496,
      "æŁĵèī²ä½ĵ": 9497,
      "åľºæ¬¡åĺīå®¾": 9498,
      "çĢĳå¸ĥ": 9499,
      "æ¸¤æµ·": 9500,
      "æĹ¥èĢ³æĽ¼": 9501,
      "que": 9502,
      "ĠÎ": 9503,
      "Ġï¼ī": 9504,
      "å¹´ä¸º": 9505,
      "å¹´æīį": 9506,
      "ä¸ºåŁºç¡Ģ": 9507,
      "åŃ¦åĽŃ": 9508,
      "æ´¼": 9509,
      "ä¸įè§ĦåĪĻ": 9510,
      "ç¬¬åįģäºĮ": 9511,
      "åħ¬ç¤¾": 9512,
      "è¥¿å¤ı": 9513,
      "å¹¶ä¸º": 9514,
      "åįĹæĸ¯æĭīå¤«": 9515,
      "åĮĹæĿ¡": 9516,
      "èĩªä»İ": 9517,
      "æŃ¤å¤Ħ": 9518,
      "éĩĳèİ²": 9519,
      "å°¼æ³Ĭ": 9520,
      "æĶ¹èī¯": 9521,
      "çº§çļĦ": 9522,
      "ins": 9523,
      "éĶ¯": 9524,
      "åıĤè®®åĳĺ": 9525,
      "æ¢Ń": 9526,
      "åı¤è¿¹": 9527,
      "çĥ¤": 9528,
      "ä¼łéĢĴ": 9529,
      "é¢Ĩäºĭ": 9530,
      "éĢłçļĦ": 9531,
      "åħīç¦Ħ": 9532,
      "åĸĩ": 9533,
      "ora": 9534,
      "èĹĶ": 9535,
      "è¾ĥå¤§çļĦ": 9536,
      "è¯ºè´Ŀå°Ķ": 9537,
      "çİ¯çº¿": 9538,
      "å·¥ä½ľçļĦ": 9539,
      "ĠAd": 9540,
      "éĺ²åį«": 9541,
      "ase": 9542,
      "è¿ľä¸ľ": 9543,
      "ros": 9544,
      "åģľåĬŀ": 9545,
      "ä¾ĿæĹ§": 9546,
      "èĢ¶é²ģ": 9547,
      "ä¼¤äº¡": 9548,
      "oss": 9549,
      "éľ²èĲ¥": 9550,
      "ĠIS": 9551,
      "1902": 9552,
      "çĶµåŃĲæ¸¸æĪı": 9553,
      "ç»Łæ²»èĢħ": 9554,
      "å¼ĺæ²»": 9555,
      "å±¯éĹ¨": 9556,
      "çľŁæŃ£çļĦ": 9557,
      "çĽ¸éĤ»è½¦ç«Ļ": 9558,
      "åĽļçĬ¯": 9559,
      "çĽĳå¯Łå¾¡åı²": 9560,
      "æĳ©æ´Ľåĵ¥": 9561,
      "Ad": 9562,
      "NH": 9563,
      "ius": 9564,
      "à¦": 9565,
      "Ġal": 9566,
      "çļĦç¬¬ä¸ī": 9567,
      "ä»Ĺ": 9568,
      "å¹´æĭħä»»": 9569,
      "æĪ¦": 9570,
      "ä¸ĢåįĬ": 9571,
[...]
