#version: 0.2
á »
á º
Ġ t
n g
Ġ c
Ã ł
Ġ Ä
ĠÄ ĳ
n h
Ġ v
Ġ l
Æ °
Ġt h
Ã ¡
Ġ h
Æ° á»
Ġ m
Ġt r
á» Ļ
Ġ b
Ġ n
Ġc h
i á»
Ġ k
Ġ s
áº ¿
Ã ª
Ġ nh
áº ¡
Ã ´
áº £
Ã ³
Ġv Ãł
Ġl Ãł
Ã ¢
Ġ d
p h
Ġ g
Ġk h
á» ĳ
á» §
Ġ T
Ġ ng
Ġ ph
Ãª n
Ä ĥ
Ã¡ c
Æ°á» £
á»Ļ t
áº Ń
á» į
áº ¥
Ġc á»§
Ġcá»§ a
o ng
iá» ĩ
Ġm á»Ļt
Æ°á»£ c
Ġ 1
Ã´ ng
á» ĭ
a n
ĠÄĳ Æ°á»£c
áº §
q u
Äĥ m
Ġ C
Ġ qu
o Ãł
Æ ¡
á» ±
Ġ N
Ġtr ong
Ã Ń
Ã¢ n
i áº¿
Æ°á» Ŀ
Ġn Äĥm
Ãł y
Ġv á»
Ġh á»į
Ã £
Ġt á»
áº¡ i
Ġ L
Ľ i
Ġc Ã³
u y
á» Ł
Ġ H
Ã ¬
Ġc Ã¡c
Ġg i
á» ©
i Ãªn
Ġ r
c h
oÃł i
Ġ x
ĠÄĳ á»
Ġ B
e r
Ġ M
áº¥ t
Ġ 2
ĠÄ Ĳ
Ġ S
Ãł nh
o n
a m
Ġ (
Ġ "
áº§ u
Ġn Ãły
o a
Æ°á»Ŀ i
áº ¯
á» ¯
i n
Ã º
Ġth á»
a r
Ġ P
Ã ¹
Æ°á» Ľ
Ã¬ nh
ĠÄĳ Ã£
ĠT h
Ġng Æ°á»Ŀi
á» ¥
Ã ²
iá» ģ
Ġvá» Ľi
Ã¡ ng
Ġ á»Ł
Ġ1 9
á»± c
Ġ V
a i
Æ° Æ¡
á» ĩ
Ġ K
e n
i nh
áºŃ t
Æ°Æ¡ ng
á»Ļ c
iá» ĥ
Ġch o
Ġ A
áº ·
a u
áº§ n
Ġl oÃłi
iá»ĩ n
ĠÄĳ áº§u
a y
Ġs á»ĳ
ĠÄĳ á»Ļ
Ġhá»į c
i a
u ng
Ġth u
ĠT r
ĠvÃł o
á» ĵ
Ġ2 0
áºŃ n
ÃŃ nh
á»ĳ c
áº¿ n
á» ķ
a l
Æ°á»Ŀ ng
áº£ i
Æ°á»Ľ c
iáº¿ n
a ng
Ġ D
o r
a nh
Ġtá» «
áº£ n
a o
iá»ģ u
Ã¢ y
Ġng h
á»© c
Ġ G
Ġth Ã¡ng
Ã¹ ng
Ġth Ãłnh
i d
Ġnh Æ°
á» Ń
ĠC h
á»¯ ng
a e
Ŀ i
áº ±
Ġph Ã¡
áºŃ p
i s
Ġkh Ã´ng
ĠÄĳ áº¿n
e s
ĠÄĳ Ã³
á»ĳ i
Å ©
Ġg iá»
ĠP h
Ġnh á»¯ng
Ġkh i
áº¿ t
e l
a t
i Ãª
Ġt áº¡i
á» ģ
Ġt áº£
e o
u s
Ä ©
Ġng Ãły
ĠN g
Q u
Ġr a
Ġt iÃªn
i m
Ġthá» ĥ
Ġkh oa
iá»ĩ t
Æ¡ n
Ã¡ nh
Ġ Ã
Ġ Qu
Ġc Ã´ng
Ġvá» ģ
ĠÄĳ á»ĭ
Ġl á»
ĠÄĳá» ĥ
Ġv áºŃt
ĠN h
Ġth á»±c
áº± ng
Ã¡ i
Ġb á»ĭ
i l
Ã ©
Ãł i
o l
Ġch ÃŃnh
iáº¿ t
á»Ļ i
Ġs á»±
ĠL oÃłi
Ġ Ã´ng
Ġthu á»Ļc
Ġtr Ãªn
Ġ R
á»ĳ ng
áº· c
i c
á» ī
Ġh o
áº£ ng
á»ģ n
Äĥ ng
Ã¢ u
Ġs au
Å© ng
iÃª u
Ġd Ã¢n
a s
Ġqu Ã¢n
Ġm Ã´
ÃŃ ch
Ã¡ o
id ae
Ġc u
Ġnh Ãł
á» ı
Ã¡ n
oÃł n
á» £
á»¥ c
0 0
Ġgi a
Ġ 3
ĠÄĳá»Ļ ng
Ġl áº¡i
ĠlÃł m
áº¡ t
o s
Ġt iáº¿
áº¯ c
Ġc Å©ng
Ã ½
Ġthá» Ŀi
uy á»ĩ
i t
u r
Ġ20 1
e t
Ġn Ã³
iá»ĩ u
á»© ng
áº¡ o
Ãł o
o m
áº£ o
Ġs á»Ń
Ġkh Ã¡c
áº ©
Ġ I
Ã¢ m
á» ĥ
Ġn Æ°á»Ľc
Æ°á»£ ng
Ġnh áº¥t
u m
Ġh iá»ĩn
á»ĭ ch
áº¥ n
Ġc áº£
uy Ãªn
Ġh Ãłnh
Ãł ng
Ġqu y
iá»ĩ c
áº¡ n
Ġx u
Ãº c
Äĥ n
e m
Ġnh iá»ģu
iá»ĥ n
ĠN am
uyá»ĩ n
ĠphÃ¡ t
ħ n
ĠÄĳá» ĵ
áº¯ t
Ġb á»Ļ
a c
á» ³
Ġh oa
áº «
iá»ĥ u
Ã¡ p
Ã² n
Ġd á»¥
áº¡ c
Ġm Ãł
Ã² ng
Ġch á»ī
iá»ĥ m
áº¥ y
Æ¡ i
Ġth eo
áº¥ u
Ġh ai
Ã¡ t
áº¥ p
Ġv iá»ĩc
Ġ1 8
Ã´ i
Ġqu á»ĳc
Ãº ng
Æ°á» Ł
Â ł
Ã´ n
o áº¡i
Æ°á»Ł ng
Ġnh Ã¢n
áº· t
Ġ E
) ,
Ġ20 0
Ġ F
Ġc on
Ġth áº¿
Ġqu an
Ġ 4
Ġc Ã¹ng
h i
áº¡ ng
Ġh Æ¡n
Ġth á»ĭ
) .
Ġch iáº¿n
Ġ 5
ĠÄĳá» ģ
Ġ J
Ġdá»¥ ng
á»Ł i
a d
Ġx Ã£
á»Ļ ng
t h
ĠÄĳá»ĭ nh
ĠQu á»ĳc
Ġlá» Ľ
Ġ W
Ġth á»©
Ġm á»
Ġv á»ĭ
áº ½
ī nh
Ġd o
Ġh Ã¬nh
Ġxu áº¥t
Ġv iÃªn
á»ķ i
iá»ģ n
T h
iá»ĩ p
ĠÄĳá»ĵ ng
Ġc Ã²n
ĠTr ung
ĠcÃ¡c h
Ġs inh
á» «
â Ģ
o p
áº« n
Ġkh u
l e
á»£ p
Ġ X
Ã³ ng
Ġch á»§
an d
Ġcu á»Ļc
Ġph ÃŃ
u l
Ġtá» ķ
Ġm iÃªu
Ġb áº£n
Ġtr á»Ł
Ġtá» īnh
Ġl áºŃp
iá» ħn
Ġr áº±ng
ĠÄĳá»Ļ i
Ġt á»±
" .
Ġt Ãªn
ĠnhÆ° ng
Ã¡c h
Ġh á»£p
Ġ 6
Ġd á»±
r e
á»į i
ĠV iá»ĩt
Ġgiá» Ľi
ĠÄĳ iá»ĥm
Ġgi áº£i
Ġph áº§n
o t
Ġb áº±ng
Ġk áº¿t
Æ° a
Ġh á»Ļi
Ġtr Æ°á»Ľc
Ġgiá» ¯
Ġnh áºŃn
Ġb á»Łi
á»ĥ n
Ġ y
iá»ĩ m
t er
Ġlá»Ľ n
ĠÄĳ áº¡i
Ãª m
Ġph áº£i
u n
a g
Ġch á»©c
Ãł n
Ġtr Æ°á»Ŀng
Ġc ao
Ġtr Ã¬nh
ĠK h
á»ĵ m
Ġho áº·c
Ã³ a
Ä Ĳ
ĠphÃŃ a
Ġkh o
Ġth Æ°á»Ŀng
Ġv Ã¹ng
Ġth á»§
Ġl Ã½
Ġg á»ĵm
uy á»ĥn
Ġs áº£n
Ã² a
Ġth á»ĳng
á» ¹
Ġtiáº¿ p
ĠÄĳ iá»ģu
o d
á»ĳ n
Ġl Æ°á»£ng
Ġph Ã¢n
Ä© a
Ġqu a
Ġs áº½
" ,
a k
Ġ O
Ġc Æ¡
ĠA nh
Ġ 7
Ġt áº¿
Ġl oáº¡i
uy á»ģn
Ġ U
á»ĵ ng
Æ°á»Ľ ng
u a
Ġtr ung
Ġt Ã¡c
Ġl Ãªn
á»ĵ i
Ġvá» ¥
ĠH oa
Ġt u
áºŃ u
Ġch iáº¿
i r
Ġtiáº¿ ng
t r
o c
Ġd iá»ħn
Ġsá»ĳ ng
ĠÄĳ i
Ġ19 9
Ġt ÃŃnh
Ġb áº¯t
ĠÄĳ á»ĳi
Ġh uyá»ĩn
Ġb ao
Ġtr á»ĭ
o v
Ġ 8
Ġl u
ĠÄĳ áº¥u
ĠK á»³
á» Ĺ
Ġh Ãłng
Ġth Ã´ng
T r
Ġv Ã¬
Ġg á»įi
Ġt ÃŃch
áº© m
Ġh á»ĩ
Ġngh iá»ĩp
Ġ -
Ġm Ã¬nh
Ãł u
Ġquy á»ģn
Ġl á»±c
Ġt áº¡o
Æ° u
áº¯ ng
Ġ1 0
áº »
Ġnh iÃªn
oÃł ng
áº± m
i ng
áº¡ ch
e d
i g
Ġtr áºŃn
Ġl áº§n
ĠÄĳ Ã¡nh
Ġph á»ĳ
Ġv á»±c
Ġc áº¥p
Ġ p
Ġ 9
Ġph im
Ġmá» Ľi
ĠÄĳá»ĭ a
áº¿ u
Ã¡ y
ĠÄĳ Æ°á»Ŀng
Ġ anh
ĠÄĳá» ķ
Æ°á» Ľi
Ġ Y
áº¯ n
Ġgi Ã¡
ĠG i
Ġh Ã³a
Ġth á»©c
am p
Ġ1 2
Ġc áº§u
Ġc Ã¡nh
Ġs Ä©
Ġch uyá»ĥn
ĠÄĲ á»©c
Ġt áºŃp
Ġd iá»ĩn
Ġn á»¯
âĢ ĵ
Ġtr anh
Ġch Ãºng
ĠÄĲ áº¡i
ĠPh Ã¡p
Ġkho áº£ng
a v
Ġth am
ĠT Ã¢y
Ġn Ãªn
ĠphÃ¡ p
Ġc á»©
á»ĩ nh
ĠÄĳ oÃłn
áº£ nh
Ġch i
á»į ng
Ġth Ã¬
a b
Ġl iÃªn
N g
á»ĳ t
Ġt Ãłu
Ãª u
Ġgi Ã¡o
áº¡ nh
Ġc á»Ń
Ġc Ã´
ĠÄĳ Ãªm
Ġth áº¥y
Ġh ay
Ġgi an
1 9
Ġnh áº¡c
Ã¹ a
i on
Ġb á»ĳ
áº ¹
Ġv Äĥn
Ġtá» Ľi
e ae
Ġho áº¡t
ĠÄĳ Ã¢y
el l
Ġngh Ä©a
áº¡ m
n e
Ġtr ÃŃ
Ġgi áº£
Ġm áº·t
i ch
Ġt oÃłn
Ã ¨
Ġh iá»ĩu
ĠA n
á» Ŀ
Ġr áº¥t
Ġph Æ°Æ¡ng
Ġtr uyá»ģn
Ġn Äĥng
ĠC Ã¡c
Ġb an
Ġnh au
ĠTr ong
ĠÄĳ Ã¡
Ķ ng
Ġb iá»ĥn
ĠL an
Ġt Äĥng
a p
Ġk á»³
ĠÄĳ áº¡o
Ġ1 1
Ġgiá»¯ a
Ġtá» Ń
Ġb iá»ĩt
á»ĵ n
Ġb á»į
Ġd anh
ĠN Äĥm
Ġk inh
ĠÄĳ Ã´
Ġb ang
Ġtr iá»ĥn
en s
Ġ19 8
r o
C h
i e
Ġt Ã¢m
2 0
Ġn am
t e
Ġm Ã¡y
i p
Ġn Æ¡i
áº§ m
ĠM á»¹
ĠÄĳá»ķ i
Ġch áº¿
ĠÄĳ áº¥t
. .
Ġch áº¥t
Ġth iáº¿t
ĠÄĳ áº·c
Ã© p
Ġb Ã¬nh
Æ°á»Ľ m
ĠÄĳ ang
r a
Ġc á»©ng
á» Ŀi
Ġcu á»ĳi
Ġd Ãłi
ĠÄĳ o
Ġ19 4
Ġb Æ°á»Ľm
Ġd Æ°á»Ľi
Ġs o
á» ·
Ġn áº±m
Ã³ m
Ġb Ã³ng
Ġng uyÃªn
k m
Æ° ng
á»į c
Ġnh iá»ĩm
e c
Ã¬ m
Ġtá» ¥
Ġph áº©m
Ġt Æ°
ĠÄĳ Æ¡n
Ġthu áºŃt
Ġth ay
Ġ áº£nh
il l
Ġb Ã¡o
Ġv áº«n
ĠB áº¯c
Ġch Æ¡i
Ġch u
ĠÃ ½
Ġb a
ĠN Ã³
Ġk áº¿
ĠnÃ³ i
Ġb áº£o
Ġ19 7
ĠS au
Ġ Ã¢m
Ġ f
Ġb iáº¿t
Ġb iáº¿n
Ġb ay
Ġth i
Ãº t
Ã© t
Ġch Ã¢u
o g
Ġs Ã¡ng
Ġcá»© u
Ġph á»§
ĠL iÃªn
ĠÄĳá»ģ u
o w
Ġd á»ĭch
ĠÃ Ķng
á»ķ ng
t a
o b
Ġph Ã²ng
uy áº¿n
Ġt in
ĠTh Ã¡i
o u
Ġs Ã¡ch
Ġtr á»įng
Ġt Ã¬nh
ĠÄĳ áº·t
Ġl Ã£
Ġt iá»ĥu
ĠNh áºŃt
Ġg áº§n
Ġth Ã¢n
Ġtr Æ°á»Łng
uy áº¿t
Ġm á»¥c
ĠÄĲ Ã´ng
á»ı i
r y
i v
Ġt Ãłi
Ġt iÃªu
in e
Ġt Ã¬m
Ġt iáº¿n
P h
ĠÄĳ iá»ĩn
Ġnh á»ı
Ġng oÃłi
en t
Ġt Æ°Æ¡ng
Ġb u
i an
Ġb Ãłi
Ġd Ã¹ng
Ġ &
Ġtá»ķ ng
Ġt a
ĠC Ã´ng
áº© n
ĠÄ ĥ
Ġb iá»ĥu
Ã µ
ĠÄĥ n
iáº¿ u
ar d
ĠÄĳ Æ°a
Ġ19 6
á» ħn
uy á»ħn
Ġph ong
Ġl á»ĭch
Ġv iáº¿t
Ġh Ã²a
Ġn á»ķi
Ġtá»¥ c
Ġb Ãªn
Ã¡ m
ĠÄĳá» Ŀi
00 0
ĠÄĳ Ã¬nh
áºŃ y
i k
ĠÃ ģ
Ġph á»¥c
Ġt inh
Ġnh áºŃp
Ġd áº«n
C Ã¡c
Ġtu á»ķi
Ġm ang
Ġc Ã¢u
N Äĥm
Ġh áºŃu
Ġquy áº¿t
ĠÄĳ áº£o
Ġ áº
Ġqu áº£
á»« ng
Ġn ay
s t
in a
áº ³
o k
Ġt Æ°á»Ľng
Ġh á»Ļ
ĠM ar
á»į n
Ġnh Ã³m
Ġtá»« ng
ĠmÃł u
ĠS t
Ġv Ã´
Ġm Ã¹a
Ġk á»·
Ġ1 7
áº£ y
ĠÄĳ Ã´ng
ĠA l
Ġs u
Ġtr ang
ĳ ng
áº¡ p
Ġ á»©ng
Ġy áº¿u
Ġb á»ı
Ġth áº¯ng
Ġs Ã¡t
ĠB á»Ļ
Ġb áº¯c
Ġc Ã¡
o i
Ãº p
Ġh oÃłn
Ġl iá»ĩu
Ġth áº§n
Ġr á»Ļng
Ġs á»Ł
Ġt iá»ģn
Ġv iá»ĩn
Ġl áº¡c
Ġb Ãł
Ġm iá»ģn
Ġgi ao
i f
ĠA r
ĠNg uyá»ħn
u t
Ġb áº¥t
Ġv ua
Ġc a
ac eae
Ġqu Ã¡
Ġkh ÃŃ
Ġx e
y l
Ġdá»± ng
áº³ ng
ĠH áº£i
Ġn Ãło
Ġph á»¥
ĠM á»Ļt
e w
Ġ1 5
Ġ19 5
Â ²
Ġth Æ°Æ¡ng
ĠB áº£n
al l
ĠD Æ°Æ¡ng
ĠV Äĥn
Ġd Ã¹
á»§ y
ĠT uy
N h
Ġngh á»ĩ
Ä© nh
Ġch Æ°Æ¡ng
ĠH Ãł
Ġt áº¥n
Ġx Ã¢y
ĠC á»Ļng
Ġt á»Ļc
ĠH oÃłng
e v
ĠTh Ãłnh
áº· ng
Ġs Ã´ng
Ġvá» ĩ
Ġ( "
Ġb Ã¡n
ĠÃ Ĥ
ĠÄĳÃ³ ng
Ġx Ã¡c
Ġqu áºŃn
Ġl o
á»¯ u
Ġ19 3
ĠB an
Ġ á»
Ġh oÃłng
Ġb inh
áº¥ m
áº· p
u á»ĵn
Ġl á»ĩ
r an
s k
Ġgiá» ĳng
Ġm inh
Ġáº ¤
ĠD Ã¢n
ĠM inh
Ġtr Ã²
Ġm á»Ł
Ġch á»ĳng
Ġs ang
Tr ong
ĠB a
Ġch ung
ĠG ia
Ġ Ã¡n
ĠlÃ£ nh
" )
b er
Ġng á»¯
u d
Ġh Ã¡t
Ġchiáº¿ m
Ġg hi
á»Ń a
ĠB Ã¬nh
Ĺ i
Ġh áº¡ng
ĠÄĲ á»Ļ
Ġáº¤ n
Ġv áºŃn
Ġc Ã¡i
Ġd i
á» Ľ
Ġc á»ķ
Ġtr áº¥n
Ġtr á»£
Ġch Æ°a
Ġv ai
ĠL e
t on
ÃŃ t
o f
Ġs Ã¢n
áº¡ y
am b
Ġ201 0
Ġ Z
Ġk iáº¿n
Ġt Æ°á»£ng
Ġv Ã²ng
Ġc ung
Ġd áº¡ng
Ġtr iá»ĩu
i o
ĠlÃł ng
ĠNg a
Ġtr a
Ġm áº¥t
Æ°á»£ t
iÃª m
iÃª ng
Ġy Ãªu
Ġph Ã©p
u c
a ch
áº¿ p
Ġch ia
ĠB r
Ġch á»©ng
Ġc á»Ļng
er s
Ġch ÃŃ
Ġngh iÃªn
Ġm áº¡nh
Ġ1 6
ĠÄĳ áº¡t
Ġng uá»ĵn
Ġchiáº¿ c
u b
Ġth Æ°
Ġk á»ĥ
Ġng Ã´i
ĠV Æ°Æ¡ng
ĠNg h
Ġt Ã¢y
á»© a
ĠÄĳo áº¡n
Ġk iá»ĩn
Ġ1 4
Ġh áº¡n
Ä ĳ
Ġph áº£n
Ãº i
Ġnh iá»ĩt
Ġt áº¥t
Ġv Æ°Æ¡ng
a z
Ã£ i
Ġt o
ĠÄĲ áº£ng
ĠS Æ¡n
a w
Ġh á»¯u
Ġv áºŃy
e g
r i
ĠÄĳá»ĭ ch
Ġch áº¿t
Ġk ÃŃch
Ġqu áº£n
Ġl Ãºc
Ġcáº£ nh
Ġgiá» Ŀ
ĠS h
a h
at a
Ġt y
Ġ al
Ġg Ã¢y
y c
Ã¡ u
Ġt ay
Ġkh á»ıi
Ġgi Ãºp
Ġh Æ°á»Łng
ĠQu Ã¢n
Ġth ÃŃch
Ġk Ã½
áº¯ p
ĠÃĤ u
Ġc áº§n
e x
e p
Ġl Æ°u
Ġth Ãªm
Ġh Æ°á»Ľng
Ġm u
Ġv áº¥n
e b
Ġth uyáº¿t
Ġb á»ĩnh
ĠI n
Ġm áº¡ng
ĠÄĳ á»Ļc
Ġch Ãº
Ġlu áºŃt
Ġ1 3
es t
an t
Ġmá» Ĺi
Ġcáº£ m
Ġ in
u g
Ġch Ã¢n
Ġgi Ãłnh
Ġch á»įn
Ġx áº¿p
is t
Ġn á»Ļi
Ġs áº¯c
ĠX Ã´
ĠCh Ã¢u
Ġtr á»±c
Ġs Æ°
Ġtá» ·
o h
Ġh áº¿t
ĠT á»ķng
á»ĭ nh
Ġtr ai
Ġch á»¯
Ġc Ã¢y
Ġlá» £
y m
Ã³ c
Ġv i
o ph
Ġ19 1
áº« u
oa nh
Ġl áº¥y
Æ°á» ¡
y r
Ġb Ãłn
Ġtr áº»
m an
Ġh uy
Ġkh áº£
Ġb áº¡i
Ġ ÃŃt
Ġ âĢĵ
ĠÄĳ áº¿
Ġt á»ĳt
Ġc Æ°
á»± a
ĠV Ãło
Ġlá» Ŀi
Ġs ao
Ã¬ n
Ġ em
Ġgiáº£ m
Ġx em
u p
Ng Ãły
Ġkh ai
Ġm áº¯t
Ġk Ã©
ĠCh ÃŃnh
Ġ an
Ġthá» Ŀ
« a
ĠI I
Ġth áº£o
Ġl á»ĩnh
Ġkh iáº¿n
Ġg á»ĳc
á» ħ
Ġng oáº¡i
Ġh áº¡t
ĠCh Ãºng
Ġc á»ĳ
or m
iáº¿ ng
Ġs á»©c
Ġngh á»ĭ
áº© u
Ãł m
u k
S au
ĠL ong
Ġ19 2
. )
e y
Ġb áº§u
Ġcá»Ń a
Ġn Ãºi
Ġtr iá»ģu
áº§ y
ens is
á»§ ng
Ġm áºŃt
ĠTh anh
Ġc Ã¡o
Ġn iÃªn
ĠD o
Ġ3 0
i b
Ġ 0
Ġd uy
ĠTh á»ķ
Ġd oanh
Ġch uyÃªn
i um
u e
Ġph á»ķ
op ter
Ġv Å©
Ġlá»£ i
Ġlá» ħ
b um
Ġ Ã¡p
ĠCh iáº¿n
Ġr á»ĵi
ĠNh á»¯ng
Ġch á»ĭ
Ġt Æ°á»Łng
Ġg áº·p
et r
Ġchu áº©n
ĠL a
Ġth Ãºc
ĠH á»Ļi
ĠNh Ä©
ĠNh a
ĠNh Ãł
Ġb iÃªn
áº£ m
s on
ĠTh eo
Ġd Æ°Æ¡ng
Ġb á»ķ
ul a
Ġr u
Ġv Ã¢y
V Ãło
i z
ĠN ew
Ġqu ay
ar t
or d
Ġr iÃªng
ĠK hi
Ġlá»Ľ p
iáº¿ m
e a
Ġt uyáº¿n
1 8
ĠM Ã£
Ġ201 1
Ġtá» ©
ia c
ĠphÃ¡ o
Ġk iá»ĥm
áº¯ m
u Ã¢n
Ġph iÃªn
Ġc oi
Ġngh iá»ĩm
as s
Ġh á»Ĺ
Ġn á»ģn
Ġth anh
áºŃ m
Ġc á»¥
ĠÄĲ áº¿
Ġth Ã¡i
.. .
Ġlu áºŃn
Ġth áº¥t
Ġtá» ĵ
o ur
Ġd e
Ġh áº§u
Ġd á»¥c
Ġ19 0
ĠkhÃ¡c h
ĠC r
en d
Ġk Ãª
i er
u Ã´i
ĠmÃ´ i
ĠÄĳ a
ĠPh i
Ġtu áº§n
ĠphÃ¡ i
ĠH á»ĵ
Ġmu á»ĳn
ĠvÃł ng
Ġt iáº¿t
ĠL Ã½
Æ°á»¡ ng
á»¥ y
Ġtá» ı
Ġb áº£ng
ĠÄĳá» Ľi
Ġt á»ĭch
es s
Ġná»¯ a
c e
Ġt uyÃªn
Ġm á»©c
Ġnh anh
ĠP r
ĠÄĳ á»©ng
Ġd u
Ġxu á»ĳng
ĠH Ã²a
ĠG r
Ġg Ã¡i
ÃŃ n
Ġch áº¡y
Ġd Ã²ng
á» Ľi
uyá»ĩ t
Ġtá»ĵ n
an a
i us
Ġc á»±c
Ġm áº¹
i i
ĠGi áº£i
Ġth iÃªn
ĠT Ã¢n
Ġ18 9
ĠgiÃ¡ m
Ġg iáº¿t
Ġkh áº©u
Ġ áº¥y
ĠH á»ĵng
Ġc áºŃn
ĠH Ã¡n
ĠÄĲ Ã¢y
ĠTh áº¿
Ġ of
Ġgi ai
ĠÃ Ŀ
L oÃłi
iac eae
Ġl Ã¡
Ġng ay
Ġn áº¿u
ĠT iÃªn
ĠÄĳ Ã´i
Ġ20 2
Ġm á»įi
Ġdá»± a
Ġt á»ĳ
Ġnh áº±m
ĠÄĳ á»§
Ġm áº·c
ĠC on
in d
un d
Ġthá»§ y
Ġ2 5
u áº¥n
Ġt uyá»ĥn
Ġtr Ãºc
Ġ Æ°á»Ľc
1 0
Ġk á»¹
Ġthá» ķ
ĠvÃł i
áº¹ p
Ġth áºŃp
y s
ĠÄĳ á»ĳc
ĠÄĳ Ã¡ng
Ġth áº¥p
Ġng Ã´n
ĠTh u
Ã´ m
ĠT á»«
á»ĩ n
Ġl Ã¢u
Ġch áº¥p
Ã£ n
Ġgi Ã¡p
K h
Ġs Ã³ng
ar l
Ċ Ġ
ĠN á»Ļi
ĠkÃ© o
Ġl uyá»ĩn
ĠTh iÃªn
Ġd ung
Ġbu á»Ļc
Ġ .
as t
¦ y
k h
Ã ¼
Ġqu anh
Ġho áº¡ch
Ġth Æ°á»Łng
er n
or t
ĠE l
Ã³ n
ar a
Ġnh á»ĩn
á»Ĺ i
Ġc áº£i
Ġc áº¥u
ĠNg uyÃªn
Ġh áº¡
Ġtá»© c
ĠNh Ã¢n
Ã£ ng
Ġ Q
Ġt á»ĳi
ĠNg Ãły
Ġkh Ã³
y p
Ġr á»«ng
. "
ĠK im
Ġkh Ãºc
ar y
n a
Ġal bum
Ġ w
Ġ200 7
S á»±
Ġth Æ¡
Ġá» ¦y
ĠÄĳ Ãłn
ac k
Ġtr áº£
Ġch á»©a
or n
ic a
ĠTr áº§n
ĠCh á»§
Ġ á»§y
Ġth e
Ġchá»ĭ u
M á»Ļt
eo m
Ġr Ãµ
Ġl á»Ńa
ĠTr Æ°á»Ŀng
Ġph i
on t
at h
Ġch iá»ģu
Ġd Ãłnh
Ġ2 4
e k
at ion
ĠT Æ°
L á»ĭch
Æ°á»Ŀ n
Ġph Ã³ng
á»ģ m
Ġph áº¡m
ĠP ar
ol l
Ġto Ã¡n
Ġvá» £
Ġb áº¡n
Ġkh á»Łi
á»ĭ a
ĠV Å©
Ġt Ã´i
ĠH Ãłn
c t
Ġb á»ĳn
Ġt Ã¹
Ġ( )
Ġm áº«u
Ġm á»ģm
Ġk im
Ġth o
Ġ2 1
g e
ĠL Ãª
ĠÄĲ á»ĵng
á»į a
ĠÄĳ Ä©a
opter a
o x
Ġt Ã´n
ĠÄĳ Ãłi
ĠQu áº£ng
Ġl Ä©nh
t u
Ġch uyá»ĩn
Ġb áº¯n
Ġv á»ĳn
o an
ĠG eom
ĠGeom etr
a in
ĠS ch
ĠmÃ´ n
ĠGeometr idae
is s
e h
ĠNg Æ°á»Ŀi
d on
ĠGia ng
Ġtr áº¡ng
Ġlo áº¡t
Ġkh áº£o
ic k
Ġch a
Ġqu áº§n
Ġtr ao
Ã¨ o
Ġb á»¥
an s
Ġt Ã¡i
ĠGi Ã¡o
l t
Ġc áº¡nh
Ġ2 2
Ġng Ãłnh
e z
ĠC Ã³
m m
y n
Ġh Ã´n
Ġthu á»ĳc
or e
er a
2 00
ĠÄĲ Æ°á»Ŀng
l and
Ġt áº¡p
ar n
Ġc Å©
Ġg Ã³
Ġl á»¥c
Ġm ua
Ġx a
o ch
Ġ200 6
ĠA s
iá» ħ
Ġs ai
Ġn á»ĳi
en n
Th eo
Ġ18 7
ĠC u
Ġtr áº¯ng
Ġtr Ã¹ng
Ġn iá»ĩm
en a
ĠA m
Ġ2 3
ĠH y
X Ã£
Ġv Æ°á»£t
Ġx áº£y
á»£ i
ĠÄĲ Ãłi
Ġsu áº¥t
Ġ18 8
Ġth iáº¿u
ig h
l or
Ġt Ã²a
ĠS er
Ġh áº£i
Ġn áº·ng
ĠT áº¡i
Ġl á»Ļ
Ġh á»ĵ
ĠS an
Ġm Ã©t
i idae
ĠH á»į
Ġr Ãºt
ĠCh u
á»ī nh
Ġthá»ĭ t
Ġph áºŃn
ĠL Æ°u
ĠNg oÃłi
ĠPh il
1 6
Ġnh Ã¬n
Ġh áº¡i
Ġb á»Ŀ
o y
Ġ1 00
ĠC er
Ġru á»ĵi
Ġn Ã´ng
ĠPh Ã³
Ġ201 9
Ġ âĢ
Ġh á»ĵi
Ġm á»ĳi
ĠTh Ã¡ng
1 2
Ġb Ãło
ĠC Ã´
oc k
Ġch im
Ġ á»§ng
ad a
Ġchiáº¿ u
a x
Ã ¶
Ġt Æ°á»Ľc
Ġng áº¯n
os t
Th e
Ġs Ã¢u
5 0
Ġ ,
Ġt á»ĳc
ĠTr iá»ģu
ic o
ag ue
Ġso Ã¡t
Ġ200 4
Ġthu áºŃn
Ġg Ã¬
s inh
Ä ±
ĠÄĲ Ã´
Ġv u
Ã¢ ng
er t
Ġx á»Ń
ic e
it h
l a
ĠK inh
Ġ20 00
Ġ201 6
1 7
Ġ201 5
Ġ2 7
Ġc á»±
Ġ200 8
Ġk iá»ĥu
Ġs Ãºng
G i
Ġb á»©c
an i
Ġ201 7
D anh
ip p
b r
Ġc Ãłng
Ġ2 8
Ġx Ã©t
ĠN oc
ĠC ao
Ġx ung
Ġkh á»ĳi
Ġtr á»¥c
T á»«
ar ia
ĠÄĳ áº¡n
1 5
ĠNoc tu
ĠÄĳ áº§y
ĠX Ã£
ur g
ĠNoctu idae
Ġc áºŃp
Ġthu áº¿
Ġtr á»¥
Ġ18 6
s h
áº· n
Ġ200 9
ĠÄĳ áº£m
Ġtr á»«
Ġd á»ħ
Å į
Ġr á»Ŀi
Ġ u
á» ¡
ĠB l
Ġ199 9
an th
Ġ2 6
áº© y
s e
Ġh Ãłm
yc idae
oh n
ĠÄĳ áº£ng
ĠÄĳ ÃŃch
Ġph á»ĳi
Ġn uÃ´i
Ġm áº¡ch
il e
Ġx uyÃªn
ĠÄĳ Äĥng
in o
Ġch uyáº¿n
Ġk ÃŃnh
ĠB ar
Ġthá» Ń
on e
et t
Ġ200 5
g t
Ġk m
Ã£ o
er m
Ġsu á»ĳt
orm ula
Ġl Æ°á»£c
Ġlu Ã´n
or k
ĠT Ã´ng
et h
A n
áº µ
ĠÄĳ en
ĠCer amb
ĠCeramb ycidae
ĠC Ãºc
Ġ201 8
l l
ĠÄĲ iá»ģu
C N
ĠM an
Ġk á»ĭch
Ġt á»Ļi
Ġc á»Ŀ
Ġm Ã£
ĠC l
Ġx á»ī
an ia
Ġh á»ıi
Ġt ÃŃn
ĠÄĲ áºŃu
Ġtr uyá»ĩn
Ġx á»©
Ġtr Ã¬
ĠC ar
Ġm áº¡i
ĠX uÃ¢n
Ġl Ã²ng
ĠTh Æ°á»£ng
Ġ Æ°Æ¡ng
f f
ĠÄĳ ai
Th Ã¡ng
l av
y d
ĠS c
Ġ5 0
Ġá» ŀ
Ġ201 4
ĊĠ ĊĠ
Ġt áº£i
Ġk iáº¿m
am e
Ġl Æ°á»£t
Ġs ong
ĠL u
Ġtr Ã¡i
Ġtr Æ°ng
Ġtr Ã¡ch
Ġkh Ã¡
ĠPh Ãº
Ġs á»©
ĠH iá»ĩp
ĠÄĳ Ãło
ĠM áº·t
Ġ3 1
Ġn á»ķ
ĠTh á»ĭ
t iáº¿ng
Ġh á»ķ
Ġ201 2
Ġl inh
ĠC al
ĠgÃ³ p
o od
Ġb Äĥng
ĠC an
ĠÄĳ Æ°Æ¡ng
Ġd áº§n
on d
Ġchá»§ ng
Ġh uáº¥n
Ġt uy
ĠÄĲ áº¿n
Ġcu á»ĳn
ĠF ran
t t
ĠS p
ĠR om
I I
ĠT áºŃp
Ġc Äĥn
ĠÄĳá» ı
ĠÄĳ á»Ļt
1 1
Ġs uy
Ġh Ã£ng
Ġ201 3
Ġbá»¥ ng
á»į t
Ġbu á»ķi
ĠchÃº a
A r
Ġthá» ¥
ĠNg Ã´
ĠG u
ĠÃģ o
ĠTh Ã¡nh
ak a
ĠKh Ã´ng
Ġx anh
ell a
Ġg h
ĠCh ÃŃ
Ġk áº»
Ġch Ã³ng
Ġv Ã²
ĠKh u
Ġ á»ĳc
Ġm á»±c
Ġl ao
Ġtr Ãło
Ġ2 9
1 4
Ġh iá»ĩp
Ġd á»¯
Ġb Æ°á»Ľc
Ġd áº¥u
Ãº a
k a
ĠH ai
Ġn áº¡n
Ġ200 1
Ġd á»ĭ
ĠH u
ĠR e
y a
Ġkh Ã³a
ĠL áº¡p
Ġ20 20
Nh á»¯ng
áº§ ng
iáº¿ p
Ġgi áº¥y
Ã£ y
t s
Ã¨ n
ĠTh á»§
au l
e i
ĠN inh
Ġph Ãª
Ġthá» «a
ĠLe ague
Ġth ÃŃ
ĠB Ãł
ĠTh e
Ġm á»Ļ
Ġvá» «a
Ġf ormula
o z
áºµ n
S t
r id
Ġd a
Ġgi Ã¡c
Ġnh á»Ŀ
Ġl ÃŃnh
at us
ry s
ĠB áº£o
re b
Ġt iá»ĩn
ĠH o
u ch
Ġv á»įng
Ġkh áº¯p
i x
Ġhá»į a
Ġsá»Ń a
ne y
á»Ń i
Ġl iá»ĩt
Ġh á»§y
ĠT Ã´n
Ġng á»±a
Ġm a
at e
os a
ĠM al
ĠÄĳ em
al is
ĠY Ãªn
ĠÄĲ á»ĭnh
Ġth oáº¡i
ĠAn d
iá»ģ m
3 0
it t
ĠJ ohn
r om
Ġt Ãłng
Ġh Æ°Æ¡ng
im e
" ),
Ġth áºŃt
ĠQu ang
Ġ200 2
ol d
ĠA le
Ġ18 4
ĠC Æ¡
Ġngh i
á»ı ng
Ġnh u
ĠS á»±
id eo
Ġtr á»Ŀi
Ġb Ãły
ĠM ad
ĠP l
ĠÃ ļ
ĠU n
Ġ4 0
ĠC á»ķ
Ġl a
Ġqu Ã½
am a
Ġtr áº£i
i es
Ġs Æ¡
Ġth Äĥm
Ġnh iá»ħ
Ġng Äĥn
ĠH ung
ĠÄĳ áº©y
1 3
Ġt áº§ng
ĠC ol
Ġt áº·ng
an n
Ġ '
Ġt Ã¡ch
Ġg á»Ńi
Ġlo áº¡n
Ġ [
b ia
l in
al in
v a
Ġs á»Ľ
le y
Ġ and
A l
id e
Ġ /
Ġd iá»ĩt
Ġth ao
C u
ĠV iá»ĩn
ec t
Ġx Ã¢m
at er
ĠvÃł nh
19 9
yl l
Ġc ai
Ġph Ã¹
Ġ200 3
Ġ199 0
ĠGi Ã¡m
Ġl iá»ģn
Ġng áº§m
c o
Ġ18 5
Ġt Ã¡n
op s
Ġt áº§m
Ġm Ã¡u
c a
ur a
Ġp r
Ã Ķng
Ġth Ãº
ĠÄĲ Ãło
r ad
os s
ĠPh ong
os e
Ġc áº¯t
ĠV Ã¬
r is
Ġb Ã²
u á»ķi
Ġkho áº£n
l er
o th
Ġ Ã¡nh
Ġn Ã¢ng
ĠÄĳá» īnh
ĠI s
á»« u
Ġc áº§m
ĠE reb
ĠEreb idae
ĠÄĳ iá»ĥn
Ġth iá»ĩn
ĠT am
on idae
3 4
e in
m a
ĠU S
Ġch áº³ng
Ġc Æ°á»Ŀng
ĠT á»ķ
Ġph iáº¿u
ĠÄĲ áº¥t
l d
Ġqu Ã¡n
in c
ĠmÃł n
Ġsá»Ľ m
Ġh iá»ĥu
ar s
ic t
á»© t
Ġr áº¯n
ĠT á»īnh
Ã¹ i
Ġh iá»ĥm
ĠT CN
Ġl Ã´ng
Ġch Ã³
ĠT á»Ń
ĠB e
ĠM áº·c
in es
it a
ian a
us t
es ia
" ).
ĠTr Ã¡i
Ġngh e
á»ı a
Ġr Ãªu
p er
d e
ĠI ch
ĠÄĳ ua
Ġth Ã¹
ĠL Ã¢m
Ġ ex
ĠÃļ c
Ġn á»Ńa
ĠTh á»¥y
Ġd áº¡y
ÄĲ á»ĭa
9 0
Ġch á»ĵng
Ġchá»ī nh
s il
Ġth áº³ng
ĠPh áºŃt
Ã© m
b urg
Ġph Ãºt
ym en
ĠkÃª nh
Ġl y
Ġs Ã¡u
ĠT Ã²a
Ġtr uy
ĠNh Æ°ng
ĠÄĳ á»įc
ĠphÃ¡ n
Å Ĥ
Ġv ÃŃ
Ġb Ã©
P r
Ġgi áº£n
ĠHung ary
Ġch á»Ĺ
c m
ĠÄĳ Ãºng
ĠE n
Ġb Ã¡nh
Ġthu a
Ġth Æ°á»Ľc
ĠNg á»įc
it y
ĠTr Æ°Æ¡ng
Ġtho Ã¡t
e or
Ġs ung
ĠL Æ°Æ¡ng
ter n
ne um
v er
Ġm Æ°u
Ġx Ãºc
ĠV iá»ĩc
ĠS te
Ġ á»ķ
Ġt Ã²
Ġt áº¯c
at t
Ġth Äĥng
id es
Âł Âł
Ġng Æ°á»£c
Ġ Ã´
Ġkh áº¯c
Ġx in
on ia
Ġth Ã´n
Ġd áº§u
ar k
Ġnhiá»ħ m
Ġl ai
Ġn áº¯m
ĠY ork
Ġ Ã¡o
Ġm Ã³n
Ġph á»©c
ĠÄĲ Ã¬nh
ĠÄĳ e
Ġh Æ¡i
Ġd á»įa
Ng Æ°á»Ŀi
Ġd á»įc
in ae
l y
Ġt uyá»ĩt
as il
om el
Ġkh Ã¡ng
ĠS al
Ġc á»«u
ĠV á»Ľi
ĠW al
Ġs áº¯t
ol a
Ġl áº«n
Ġg áº¯n
2 3
c ar
h am
s p
ĠÄĳ áº¹p
ĠS á»ĳ
ĠA p
Ġ ai
Ġ áº¥n
Ġnh á»Ľ
Ġng uy
Ġph Ã³
ĠPh Ãºc
ĠE d
á»Ļ n
Ġb ÃŃ
Ġ áº©m
Ġl Æ°Æ¡ng
ĠA d
om m
ĠÄĳá» £
Ġtr ÃŃch
ĠH ymen
in i
2 4
ĠB ÃŃ
igh t
% .
i el
Ġth Ã¡p
ĠÄĲ áº¡o
as h
Ġtr áº¡i
Ġhá»į p
ĠL ai
al e
Ãµ i
K hi
ĠÄĳ Ã¡p
Ġs áºµn
im a
Ã² i
Å© i
Ġs Äĥn
Ġkh Ã´
ch e
ĠIch neum
ĠIchneum onidae
Ġc áº¥m
Ġth Æ°á»£ng
Ġthá» ı
y o
Ġtr Ã¡nh
Ã³ t
Ġt á»ĳng
áºŃ c
ĠL oan
ĠCh i
Ġ194 5
ac t
2 5
Ġl Æ°ng
Ġngh á»ģ
ĠPhil ipp
ay a
Ġch áº·n
Ġqu áº£ng
6 0
im on
is h
el and
ĠO l
ber g
Ġ202 1
Ġ198 0
i am
ĠK r
ĠK arn
ĠPh Æ°Æ¡ng
Ġc áº·p
ĠKh Ã¡nh
ĠO r
á»« a
k ra
ĠN a
Ġ a
Ġt Ã¡
ĠÄĳ au
at aka
al d
ber t
Ġx áº¡
Ġt an
ĠC or
ar b
Ġl áº½
Ġb áºŃc
ĠKarn ataka
ĠB er
Ġth Ã¡c
sk y
ĠNgh á»ĭ
Ġtá» Ŀ
T iá»ĥu
Ġl an
au r
ÃŃ a
om b
Ġcá»± u
il le
ĠKh oa
Ġ Æ°u
ĠII I
Ġs á»£
Ġvu Ã´ng
ĠU kra
Ġg áº¯ng
ĠNgh á»ĩ
Ġnh áºŃt
ĠL en
ĠH áº¡
Ġh áº¥p
Ġkh iá»ĥn
Ġngh á»ī
ĠCan ada
Ã© n
a j
Ġd Æ°á»¡ng
ĠR Ãªu
ĠÄĳo Ã¡n
ot t
Ġt eh
ae l
r os
Ġch á»ĳi
ĠPar is
Ġteh sil
Ġb Ã£i
ĠC á»¥c
ĠHymen optera
Ġt ia
Ġc á»ı
Ġb áº¡c
Ġkh Äĥn
ĠPh áº§n
ak h
Ġqu á»¹
ĠS Æ°
ĠP ol
ĠM c
Ġngh iÃªm
l es
ã ĥ
er i
am es
' s
Ġh Ãºt
Ġb áºŃt
Ġn á»Ĺ
Ġtr á»ĳn
in n
Ãº y
or ld
or a
e im
áº· m
Ġv ideo
L e
ĠV iÃªn
al ia
it e
Ġchá»¯ a
ĠN áº¿u
s ia
Ġnh Ã¡nh
ĠNg á»¥y
ou th
u z
Ġqu Ãª
ĠNh iá»ģu
Ġh áº¡m
on s
al a
ĠCh rys
ĠSt alin
Ġh Ãłi
Ġr Ãłng
ĠW ill
ĠÄĳá» ¡
ĠTr Æ°á»Ľc
d er
ĠT á»ĳng
ĠR ob
Ġb Ã¡c
ul l
Ġ199 8
Ġkh Ã¡n
Ġt áº¯t
id a
od es
F A
Ġ ac
Ġh Ã¹ng
ĠH er
ĠH ar
2 1
Ġtá» ī
ĠP er
ĠO s
Ġ197 5
á»¥ p
Æ°Æ¡ i
ĠK iáº¿n
Ġph a
Ġg á»Ĺ
ĠUS D
Â °
Ġc áºŃu
Ġd Ã¢y
Ġm iá»ħn
ĠV Ã¢n
ĠG iá»
i en
Ġt áº¥m
ĠTr á»ĭnh
if ol
Ġnh áº¹
ĠS m
Th am
ĠCh Æ°Æ¡ng
m á»Ļt
Ġ18 3
sk i
Ġ á»ĳng
Ġth iá»ĩu
ĠC up
ĠH Ã³a
ĠTh Æ°á»Ŀng
Ġng á»Ŀ
ĠN e
ĠL inh
Ġch áº£y
an o
4 0
r ich
Ġl á»±a
en z
ĠG eor
áº± n
Ġth áºŃm
ĠH Æ°ng
Ġ199 1
Ġ199 2
m er
ĠL at
ĠÄĲ á»Ļi
à ¸
ow n
Ġr Æ¡i
ar i
ĠQu áºŃn
Ġth áº©m
ĠPh Ã²ng
Ġmá» Ŀi
Ġthá»ı a
Ġt ai
Ġ6 0
á» µ
Ġgi áº£ng
á»ı e
Ġv ong
ĠÄĲ á»ĥ
ĠV Ä©nh
á»ĳ m
ĠA i
h o
Ġtr á»¯
Ġs iÃªu
Ġph áº¡t
Ġr Ã£i
Ġng Ã¢n
Ġng ang
Ġng Å©
ĠS Ä©
ĠAle x
ĠÄĳ uá»ķi
in t
don esia
ĠÄĳ uÃ´i
Ġl Ã¢m
Ġs p
Ġg ame
Ġd áºŃy
ĠD i
ol e
âĢ Ŀ
Ġ ÃŃch
Ġkh á»ıe
8 0
a f
Ġtr Äĥm
Ġlu i
ĠThu áºŃn
] ]
Ġs áº¯p
ĠG re
4 5
e e
Ġtr Ãº
ĠA b
Ã³ i
am m
Ġ196 0
Ġá»ķ n
2 2
Æ°á»Ľ p
ĠW orld
Ġ199 6
au s
Ġngh Ä©
Ġu á»ĳng
l i
Ġch Ã©p
Ġd Ãły
ĠT iáº¿n
ĠD u
Ġb iá»ĩn
ĠÃģ nh
Ġh á»ĵng
on a
in s
ĠP al
Ġk Ã¬
ĠT iá»ĥu
Ġv Æ°á»Ŀn
ĠTh á»§y
Ph Ã¢n
ĠB o
el s
un t
Ġ199 7
ĠIn donesia
Ġth Ã¡nh
Ġh Ã¨
es ter
ĠUkra ina
C Ã³
C hi
ĠB ol
ĠTh Ã´ng
w ard
Ġm Æ°á»Ŀi
Ġph Æ°á»Ŀng
ar p
il a
ĠB á»ĵ
ĠPh áº¡m
Ġh Ã´m
ĠT ok
an e
en e
el le
ĠtÃ¹ y
ĠM or
Ġc Ã´n
Ġv Ä©
ĠC o
Ġ202 2
ĠC Ã¡ch
Ġqu ang
er r
in ia
ĠA ng
Ġl Æ°á»Ľi
ĠD av
ĠCh arl
ĠkÃ© m
Ġch áº¥m
ĠN or
ĠI r
Ġt áºŃn
ĠH en
Ġngh Ã¨o
p e
ai s
Ġ199 3
Ġ197 0
Ġt áº¡m
as hi
ill a
ĠPh an
omel idae
ĠChrys omelidae
Ġb om
ĠS l
Ġch Ã¹a
ĠTh iáº¿n
iv e
if orn
Ġ j
ĠH á»ĵi
Ġx Æ°Æ¡ng
et er
Th á»Ŀi
i ber
Ġ e
á» ŀ
Ġt Ãłn
Ġho Ã¡
7 0
T áº¡i
Ġph e
ĠTr iá»ĩu
ĠD is
Ġkh áº¥u
id aceae
Ġso áº¡n
I D
Ġnh á»ĭ
Æ°á»£ u
ĠH al
y g
z e
ĠM e
ĠS Ãłi
ĠV ua
ĠD e
ĠNgh Ä©a
Ġth uyá»ģn
Ġch áº¯c
Ġg Ã³c
ĠM os
in idae
Ġc áº£ng
ĠL á»¥c
ĠÄĳá»ĵ n
ĠCh á»ī
ĠE r
ak e
ĠâĢ ľ
y ch
ĠÄĳ áº³ng
ĠÄĲ á»ĭa
t ic
ĠC áº£nh
ĠM ac
ĠK az
en k
8 5
á»¯ a
ar g
âĢ Ļ
Ġ199 5
Cu á»Ļc
iforn ia
y an
Ġtr Ã²n
Ġgi Ã³
ĠM us
ot a
Ã¨ m
o ol
ĠR h
7 5
A s
Ġb á»ģ
ĠR ich
) "
Ġl á»ĳi
Ġm áº½
Ġw eb
u el
Ġtr á»ĵng
ĠS e
Ġvá» ı
Ġtá» ĩ
ĠÄĳá»ģ n
Ġ199 4
ĠPhilipp ines
Ġh á»ıa
ĠC áºŃp
Ġr Æ°á»£u
ĠB al
ĠT u
Ġt im
us tr
Nh Ãł
ĊĠĊĠ ĊĠĊĠ
ĠCal ifornia
ĠA th
ĠU y
o o
ĠH á»įc
ur o
Ġc Ã¢n
Ġd Ã£y
ĠTh áº¡ch
ĠnÃ³ ng
om a
C Ã´ng
c i
Ġth iá»ĩt
ĠAlex and
B r
Ġh iáº¿n
b a
l ad
ag n
ig n
Ġc Æ°á»Ľp
ĠB ro
l an
Ġc an
Ġg Ãł
Ġ198 9
ĠH Æ°Æ¡ng
ĠS Ã¢n
i h
ĠÄĳ á»±c
Ġs Ã¡p
om p
Ġch inh
ĠT áº¥n
ĠB Ã¡
Ġ194 1
Ã© c
Ġtr Ã¢u
Ġm á»ĩnh
il idae
o áº£ng
ĠAr ct
ĠM on
ion s
Ġt á»įa
ĠH iá»ĩn
ĠG Ã²n
ain t
ĠK Ã´ng
I n
Å Ł
Ġth áº£i
ĠH e
ĠS á»Ł
ĠP aul
ec k
g h
i inae
qu e
ĠS a
g i
ĠCh amp
ÄĲ áº¡i
ĠÄĳo áº¡t
n ay
Ġb áº£y
Tr Æ°á»Ľc
A c
ĠB en
r en
Ġn Ã¢u
Ġs Ã³t
Ġkh á»§ng
ĠÄĳÃ³ n
Ġm Æ°a
Ġm Å©i
Ġng á»įt
2 8
y ph
ĠC amp
ĠH áºŃu
Ġm ong
en ia
Ġ áº©n
Ġth áº£m
Ġb áº¡o
ĠM ai
ĠQu an
r on
s u
2 9
Ġc am
Ġv Ãµ
ar is
Ġvá»ĭ nh
Ġ7 0
oph yll
ĠArct iinae
Ġ =
Ġm Ã¬
ĠC Ã¢u
ĠL á»±c
ĠV á»ģ
Ġch áº·t
ĠÄĲ iá»ĩn
ĠS ing
Ġ195 0
Ġch Ã¡u
ĠT á»±
Ġ3 5
m ent
Ġb á»Ļt
Æ°á»£ n
ĠC am
ĠS tr
Ġl ong
Ġl Ã´i
ĠL á»Ļc
Ġ18 0
g o
ĠTh á»Ŀi
ĠÃ Ķ
ĠCu á»ĳi
3 5
Ġb Ã¡
Ġg ai
ĠH uy
ĠH áº§u
Ġx Æ°a
ĠM ich
ens e
iv er
ĠLen in
6 4
L iÃªn
Ġ Å
Ġc Ã£i
Ġv áº½
ĠU r
i Ä
ĠS am
ic us
) ;
Ġv inh
Ġtr á»©ng
Ng oÃłi
Ġnh áº¯c
Ġkh Æ¡i
ĠH á»£p
ĠTh á»ĳng
Ġlá» Ĺi
ĠÄĳÃ¡ m
ac e
2 7
it z
s en
Ġh Ãł
ĠB el
s ch
ĠM il
om an
Ġm áº¯c
Ġ198 8
Æ°á»¡ i
A m
Ġc á»Ļt
Ġd á»©t
ĠT uyÃªn
Ġ194 2
ĠCu á»Ļc
ĠÄĳ á»ĳt
ĠÄĳ á»©a
ĠTr á»ĭ
Ġgiá» į
r ist
Ġm Ã¡i
Ġtáº£ ng
k g
Ġh á»©ng
Ġgi Ãłu
D Ã¢n
p t
Ġb Ã¨n
ĠB ang
ar e
ater idae
Ġth iá»ĥu
ĠB ur
Ġhoa ng
Ġc á»ĳt
ĠF re
Ġ194 4
Ġchu á»Ĺi
ĠBr asil
T á»ķng
Ġt am
ĠC áº£
Ġvá» ¡
er o
Ġ194 3
r ia
Ġkh Ã¡m
ĠÄĳá» ĩ
Ġquy á»ĥn
ĠM Ã´ng
ĠT im
d a
Ġs a
ĠL áº¡c
ĠD on
ĠI V
ĠE m
Ġ194 0
Ġm Ãłng
uc k
S h
Ġ el
Ġch áº¡m
as ter
ul t
ĠLu áºŃt
2 6
c k
ĠÄĳ iá»ĩu
Ġh iáº¿m
ĠTr Ãªn
w a
or y
ĠI t
C on
Ġl Ã¡i
Ġkh á»ķ
Ġv áº»
ĠH am
ĠX uyÃªn
T V
Ġd Ãłng
ĠM ex
ai r
áº¹ n
T uy
Ġm á»ĵi
ĠJ e
% ,
Ġm á»ı
ĠT e
ĠÄĲ á»ĳi
is c
ÄĲ Ã¢y
ov ich
4 4
l en
Ġk Ãªu
ĠH iáº¿n
ĠM a
Ġl áº¡nh
ĠH uyá»ĩn
Ġd áº·m
Ä ģ
Ġh Æ°
Ġk ia
ĠÄĲ áº·c
it ed
ĠGr and
e ph
Ġt Æ°á»Ŀng
Ġtr iáº¿t
ĠTr á»Ŀi
ĠCh Ã¢n
Ġtá»ķ n
ĠEl ateridae
Ġs Ã³c
Ġp l
Ġch áº¯n
Ġs t
Ġkh uyáº¿n
ĠT Ãªn
ĠB Ãłi
ĠTr Ãł
ĠW il
ĠWill iam
et a
aw a
ĠT iÃªu
ĠM Ã¹a
Ġáº ¢
ep t
Ġx Æ°ng
ĠV al
ĠG o
Ġbu Ã´n
ĠQ uyá»ģn
ĠÄĳá»£ t
n o
Ġc Æ¡n
Ġh ung
ĠV Ãµ
Ġkhu Ã´n
Ġ9 0
R h
Ġng á»«ng
Ġ198 6
ĠMad rid
Ġs áº»
ĠL á»ħ
Ġ" (
Ġ198 7
Ġchu á»ĵn
ĠMex ico
Ġ Ã¡m
Ġv iá»ħn
Th Ãłnh
ĠÄĳ Ã²i
Ġth áº¡ch
ĠB áº¡ch
Ġlá» µ
n er
ĠPh á»¥
ĠW est
Ġ198 4
amb idae
4 7
j a
Ã §
ĠÄĲ áº§u
or s
as e
Ġ4 5
Ð °
Ġtr á»ĳng
ĠS outh
c ia
r d
Ġv Ãº
Ġd uyá»ĩt
Ġkh Ã¡i
Ġ197 8
man n
ĠCr ambidae
i y
ĠÄĳ á»©c
in us
ta in
Ġph u
ĠD ung
ĠO p
ĠZ e
S ch
v e
Ġph á»ıng
ĠC Ã¹ng
en tr
ĠG ir
ã Ĥ
Ãª nh
Ġd á»«ng
us s
ur e
Ġ198 5
ist an
ĠRe al
ĠD uy
us h
tr ong
Ġ8 0
Ġtr Ãºng
ĠÄĲ an
Ġtá»± a
Ġ Ð
Ġc áº¥t
S c
o e
ĠT Ãło
ĠH á»ķ
ĠÄĲ Ãł
Ġ198 2
ĠHen ry
r op
Ġv áº¡n
ĠT áº§n
Ġkh áº³ng
ĠB á»į
of f
A nh
N A
m ar
Ġ Ã¡c
Ġm áº¡c
Ġch Ã¡y
ĠTh áº§n
âĢ ¦
Ġm áº£nh
Ġb á»ĳi
Ġd Ãłn
ĠB ay
ĠV ÃŃ
Ġ3 3
Ġ193 0
8 7
Ġk Ã¨m
ĠIr eland
w ell
Ġk á»ī
ĠPh Æ°á»Ľc
Gi áº£i
ĠCharl es
b y
o und
Ġk iÃªm
at um
Ġ197 2
Ġgiá»į ng
C l
C al
Ġt áº§n
Ġng á»ĵi
es c
Ġ198 3
ĠRich ard
8 9
c Ã³
v Ãł
Ġ am
ı ng
ĠT or
ĠC O
Ġgi am
ĠTh á»į
is e
se ud
ĠRob ert
6 5
V Ã²ng
ĠÄĲ oÃłn
ĠV inh
ag e
S p
ig er
ĠSer bia
ĠDis ney
Ġn on
Ġch á»©
Ġs Æ¡n
Ġg a
ĠS Ã©c
es h
ĠO tt
Ġ197 9
« ng
Ġc á»¡
nh eim
Ġm ai
Ġs Ãłng
ĠL y
Ġcá»¥ m
M ar
j i
Ġtr i
á»Ļ p
ĠH á»ĩ
Ã© r
ĠY ou
Ġb Ã£o
Ġd Ãµi
te in
r am
Ġ ur
Ġ ox
Ġc á»¥c
ĠM at
ĠÄĲ iá»ĥn
ĠC á»Ń
ĠL on
hi p
Ġpr ot
F ran
Ġr á»ĳi
ĠTr ich
Ġra d
ov a
Ġ193 9
ĠTh iáº¿u
ia l
ĠIn tern
Ġt iÃªm
Ġv áº¿t
Ġ19 20
ĠPh á»ķ
b oa
Ġt Ã¡m
ĠC áº©m
ch á»¯
ĠD á»±
ir g
Ġ198 1
Ġ +
ĠÄĳ áºŃu
ĠH oÃłn
Ġph á»ķi
Ġvá» Ł
á»ĩ t
Ġ3 7
Ġ194 6
ĠMar t
¯ ng
Ġl áº»
Ġqu en
Ġ( ;
ĠC a
el e
Ġ3 00
ifol ia
Ġtr Æ°Æ¡ng
ĠM Ã©
ow s
Ġm ay
Ġch Äĥm
ĠÄĲ inh
ag a
ir a
Ġch áº¥n
ĠNg oáº¡i
ĠQu Ã½
ot o
Ġs Ã¡nh
Ġng áº¡i
ĠC Å©ng
ĠM á»Ĺi
il is
ĠE ng
H uyá»ĩn
Ġv en
Ġv oi
Ġn inh
Ġch e
Ġkh ÃŃch
ĠV Ãł
k e
Ã£ nh
ĠTh Ã¢n
B á»Ļ
o ok
Ð ¾
ĠS u
ĠS ao
ĠCh Ãºa
ĠF C
o on
Ġt Ã¢n
Ġl á»įt
Ġh áº¹p
ĠN ik
Ã¹ y
Ġthu Ãª
8 6
Ġ" "
l ing
Ġh Ã²n
ĠL imon
ĠM el
ĠA ir
Ġvá»£ t
Ġkh ung
ĠÃ ©
ĠÄĳá»ĵ i
ra z
8 3
k y
Ġh uyáº¿t
Ġch áºŃm
Ġs á»£i
ĠM u
ĠV i
á»³ nh
Ġ196 3
ĠLimon iidae
ã ģ
ĠT ach
ĠV en
Ġngh Ã¬n
ĠNh Æ°
st an
kh Ã´ng
ĠGeor ge
iÄ ĩ
ng Æ°á»Ŀi
Ġc o
N E
Ġh Ã´
ĠM ont
ĠTr áºŃn
ym p
Nh Ã¢n
Ġvu i
ĠUn ited
d en
t Ãªn
Ġc áº£n
ĠT áº¥t
Ġng Æ°
ĠC Ã¡
os h
Ġ5 00
Ng h
á»Ľ p
ĠTrich optera
Ġn Ã©m
ai l
Ġh y
Ġch á»Ł
Ġd inh
ĠA g
and a
ap ore
3 9
Ġc al
ĠH au
yr ia
i os
ĠK áº¿t
us e
Ġ197 3
ĠTach inidae
k s
o ot
Ġg áº¥p
Ġh u
Ġng uyá»ĩn
Ġ5 9
ab eth
up er
7 2
Ġh a
ĠN ap
Ġhá»Ĺ n
iel d
Ġ6 5
ĠchÃŃ n
4 6
P ar
l o
ĠC áº§u
or us
tr on
Ġ196 9
áº¿ ch
Ġng á»įn
ĠC arl
ĠG ar
ĠW h
ĠW ind
ĠMal ay
3 6
ĠS ong
ĠPh Ã¡t
Th u
ers on
C P
ĠC ung
ĠL ou
ĠH áº¡m
er e
ĠTr ang
ĠR u
Ġd ao
ĠH á»¯u
ĠA ustr
Ġlá» ıng
y t
ĠL Äĥng
ĠJ ose
ops is
x ico
Ġs áº¡ch
Ġd áº£i
ĠL Ãºc
Ġx oa
er d
ĠR áºŃp
Ġ195 6
ĠSing apore
Ġt Ã´ng
Ġs h
Ġs er
ĠT ur
an us
ĠM Ã´n
ĠM ed
Ġan ime
c el
v ille
Å ¡
Ġch Ã¬m
Ġvá» ¯ng
Ġ196 4
Ġ195 4
N Ã³
Ġc Ã¡n
ĠÄĳ áº»
ph a
ie v
5 5
T Ãªn
c on
ĠTh Æ°
Ġsu b
k er
u i
ĠB iÃªn
ĠK on
ĠD anh
Ġ196 7
ĠMar k
uch ia
4 8
g er
Å «
Ġth áº£
Ġk á»µ
Ġd Æ°
ĠÄĲ Æ°á»£c
ĠTh om
O r
z h
Ġc Ãºng
Ġm áº¡n
ĠT iá»ģn
an c
ĠTr Æ°á»Łng
ĠD iv
ov e
Tr ung
ĠCar ol
ĠÃ© p
9 9
f t
Ġth Ã©p
Ġs Æ°á»Ŀn
ĠB os
im m
B C
V á»ģ
Ġng á»§
Ġr Äĥng
ĠCh rist
Ġ3 6
it an
H ung
N D
h ay
u x
Ġ uy
Ġh oÃł
Ġs Æ°u
ĠT áº¿
ĠT á»ģ
Ġng á»±c
Ġlá» Ĺ
ĠMÃ© xico
H Ãłnh
d o
Ð ¸
ĠÄĳ Ãłm
ĠT oÃłn
Ã¬ a
ĠM áº¡c
ĠPh iÃªn
ol i
3 2
f ord
p r
Ġng Æ°á»¡ng
ĠB iá»ĥn
er us
ra ch
Ġ196 8
O S
w e
is ch
om e
ĠChamp ions
b on
y e
Ã ¤
Ġth ai
Ġn iá»ģm
á»± ng
ĠTh Æ°Æ¡ng
ĠD r
all i
c c
ĠÄĳ áº§m
Ġs an
ĠJ ames
âĢ ĭ
ĠHu áº¿
" ;
c is
Ä Ł
Ġth Ã¡ch
Ġng á»£i
Ġgi Ãł
oa t
Ġ197 6
Ġ196 2
C O
Ġn Ã©t
ĠC Ãºp
áº« m
ĠSl ov
M S
c z
o is
Ġm Æ°á»£n
ĠC L
ÃŃ m
ĠL in
ĠL ao
ĠTr á»įng
ĠCh a
Ġac id
4 9
8 8
Ġtr áº¡m
ĠL am
ap p
ĠDav id
ĠMalay sia
k i
Ġl ang
Ġth ang
ĠL Ãło
ĠA t
4 1
7 7
E FA
Ġv on
ĠT Æ°Æ¡ng
av a
ĠMos k
c u
g ar
Ġn Ã²ng
Ġph Ãºc
ĠN á»¯
or i
as er
Ġ194 7
r oc
Ġ i
ĠC ity
or ia
ĠG al
ĠCh o
ol f
em a
ig a
iz abeth
L a
o ides
Ġk á»ĭ
Ġkh á»ķng
Ġx Æ°á»Łng
á»¥ t
Ã© o
iá»ħ u
u áº¥t
Ġd Æ°á»Ŀng
um b
ian o
ĠCamp uchia
Ġc Ã¡t
ĠT Ãłi
iá»ĩ ng
ĠJ ack
ing rad
Ġf or
Kh Ã´ng
Ġx Ã¡m
is ion
Ġ196 5
ation al
Ġbá»¥ i
ĠâĢ ĭ
G ia
n Äĥm
r ic
u v
ĠL ang
au d
Ġ[ [
E l
Ġl Ãºa
Ġb áº¥y
Ġgi Ã¡n
Ġx áº¥u
Ġ193 6
Ã¼ ll
5 3
g r
Ġc Æ°Æ¡ng
Ġl á»ĵ
Ġtr áº§n
Ġch á»£
ĠH Ãłng
ar m
ĠTh á»ĥ
ĠNh Ã³m
ĠAl bum
ĠâĢĭ âĢĭ
M áº·c
g ent
Ġ å
Ġl áºŃt
Ġl Å©
Ġh yd
Ã¹ m
re f
G iá»
t us
Ġc Ãº
ĠH Ãłnh
ĠP an
Ã¹ n
ĠTh áº¯ng
ĠG en
ĠNg ay
il ton
4 2
b our
p le
Ġg r
ĠT Ä©nh
ĠP et
ul ata
ĠEn ter
S m
p ool
Ġ on
Ġt Ã³c
Ġh Ãło
Ġs á»¥p
ĠCh Ã¡nh
ad e
ĠU EFA
II I
G r
Ġkh Ã´i
ĠT á»©
Ġph áº«u
ĠTh á»«a
ĠNg Ã¢n
Ġ197 7
ĠIn d
ĠQ uyáº¿t
ĠOtt oman
T ÃŃnh
ĠÄĲ á»ĩ
ĠS hi
ĠG h
ĠF r
ak i
V á»Ľi
g a
j e
t á»«
Ġth áº§y
Ġs á»«ng
Ġnh Æ°á»£ng
Ġnh áº¥n
ĠT Ã´
an y
ĠC á»¥
ch i
ĠNh áº¡c
ur i
Ġd Ã¢m
ĠM in
ĠMosk va
3 8
an k
ĠÄĲ iá»ģn
Ġthu áº§n
al i
is p
ĠAn t
Ġ197 1
6 2
Ġl áº¯p
Ġph Ãº
ĠS inh
Ġ( ,
om er
un e
tain ment
Ð µ
Ġch Ãłng
Ġg u
ĠC Ã¡t
ĠB Ãªn
ĠM áº¡ch
ĠP ort
ub e
ĠT áº¿t
Ng uyá»ħn
ro b
Ġ194 8
ine a
Ġt ang
Ġc anh
Ġc á»ķng
Ġm iá»ĩng
ĠG l
Ph áº§n
Ġ195 5
A T
Ġnh áº¡t
Ġnh áº£y
Ġg l
ĠB áº±ng
ĠS il
Ġthá» £
ol y
op e
i ed
Ġ ung
Ġtr Ã´ng
Ġch á»Ŀ
Ġd Ã¡ng
at o
ÄĲ áº·c
Ġ197 4
ĠSer ie
ĠKaz akh
boa rd
N á»Ļi
l et
Ġh ang
Ġm á»įc
ĠM á»¥c
al and
ĠD em
Ġ3 9
ĠLon don
4 3
Ð ½
Ġn Ã£o
Ġng Ãłn
ĠD el
ĠF lor
Ġ194 9
iver pool
Ä į
Ġc Æ°á»Ľi
Ġm Ãª
Ġd á»¡
ĠT ÃŃnh
ĠL iÃªu
ĠS yria
ÄĲ áº¿n
ĠAth ena
Ġxoa y
Ġm Ã£n
Ġgi áºŃn
ĠV ol
ĠV irg
al us
ĠFran k
Ġdá»ĭ p
C r
Ġl á»įc
Ġn Æ°Æ¡ng
Ġch Ãºt
Ġd Ã¢ng
ĠC ap
ĠWind ows
w ood
z a
Ġd Æ°á»£c
ĠS á»Ń
C Ã´
v ia
Ġt Ã´
ir us
Ġmu á»ĳi
ĠEd ward
1 00
C ar
P l
n am
Ġtr á»Ļn
ĠC áº§n
ĠM o
ĠM er
ĠÄĲ á»Ĺ
ĠEl izabeth
ĠHu á»ĩ
Ġh iá»ĥn
ĠH aw
ĠÄĲ Ã³
ae a
ĠW e
ing s
Ġtho Ã¡i
ĠTok yo
) :
M Ã´
s a
Ġ Ãºy
Ľ t
Ġr anh
Ġ3 2
ĠEnter tainment
s ter
Ġx ong
ĠS w
Ġ4 7
Ġbá»į c
ĠOl ymp
t en
Ġ á»©c
Ġl áº¡
an ce
ĠL uc
ĠD iÃªn
ĠF ri
Äĳ Æ°á»£c
Ġ áº¥p
Ġm áº¥y
á»Ļ m
ĠS ant
ĠS aint
am i
ĠPh im
Ch iáº¿n
Ġth iá»ĩp
Ġn áº¡p
ĠTh á»©
en ce
as ia
Ġ196 1
3 3
ä ¸
Ġ Ã¡i
ĠT Ã¢m
ĠH ug
Ġx o
Ġmá» ¡
ĠX I
iv ers
ĠÄĳá»£ i
8 4
V ID
i or
ĠL á»ĭch
ĠF l
ro w
ip es
ĠSc ot
ĠLat inh
E p
V iá»ĩc
r at
Ġm Æ°Æ¡i
ae idae
Ġxu Ã¢n
ĠJ ul
ad or
ĠX V
Ġy Ãªn
Ch Ãºng
Ġur ani
6 9
8 1
T iáº¿ng
ĠC áº£ng
á»± u
ia s
Ġ7 5
Ġ192 9
Ġ202 3
ĠAng el
ĠÄĳ Ã¡y
Ġth Ã¡o
Ġb Ã¹ng
Ġch Ã´n
ĠL uÃ¢n
ĠB or
en es
ĠTr Äĥng
ur y
ag o
ÄĲ á»©c
Ġ15 0
Ġlá»ĩ ch
6 7
f ield
Ġn á»Ļp
Ġch á»¥p
ĠH Ã¹ng
ĠM ah
og l
og le
Ġ196 6
ik e
Ġ193 7
Ġ193 8
Ġ191 4
ĠLou is
5 00
H iá»ĩn
Å Ħ
Ġ ar
Ġv an
ĠH it
ĠK it
Ġ191 8
ophyll um
S A
f l
ĠTh iá»ĩu
ĠK áº¿
Ġbá»į n
, "
D o
Ġd Ã£
ĠH iáº¿u
ĠTh á»±c
Ġso Ã¡i
Ġhá»Ļ p
yl v
8 2
Ġt ÃŃm
ĠÄĳ á»ĳm
Ġs á»¯a
ĠÄĲ Ã´n
ĠTr i
ĠE st
Ġ4 9
Ġthá»ĭ nh
ĠlÃ£ m
Ġ195 8
Ġl Äĥng
Ġh Æ°u
ĠT om
ĠC ast
ĠÄĲ áº£o
ĠK ar
el m
un c
Ġ195 1
ĠAs ilidae
Ġgh áº¿
ho áº·c
d anh
Ġtr eo
ĠL iverpool
ĠV Ã¹ng
ĠA c
and er
ĠO k
Ġprot ein
Ġn áº¥u
á»§ i
ĠM eg
au t
ĠD Ã¹
Ġho áº£ng
ĠE uro
ak er
Ġmang a
uk i
ĠCO VID
Ġl Å©ng
Ġh áº¡nh
Ġb Ãºt
Ġph áº³ng
ĠM ur
ill board
Ġ191 7
d i
r ael
Ġch Äĥn
Ġkh en
ĠC Ã²n
ĠÄĲ a
ĠR ay
Ġtu Ã¢n
ĠAr gent
ĠÃĤ m
Ġ193 4
H á»ĩ
Ñ Ģ
Ġm Æ¡
ĠT ex
Ġr Ã£
ĠS Ã´ng
im b
ĠE x
Th á»ĭ
Ġru á»Ļt
y st
Ġt iá»ģm
Ġh áº¯n
Ġm ac
iáº¿ c
ĠL Ãł
ĠÄĲ áº·ng
ĠX iÃªm
tr a
Ã¼ r
Ġnhu áºŃn
ĠJose ph
3 7
n y
p es
Ġb Ã¨
el i
ol o
Ġ5 5
ĠHam ilton
6 8
B l
P seud
g l
Ġc Äĥng
Ġth Ã¡m
Ġn á»Ĺi
ĠPh á»§
Ġ195 2
Ġ195 9
Ġth an
Ġm Ã¡t
ĠC Ã¡i
ĠL os
ĠK á»ĥ
th er
Ġchu á»Ļt
M Ã¹a
Ã ±
ĠM i
ay s
ĠÄĳ Ãºc
ĠÄĳ á»±ng
Ġb Ã³
Ġn á»ĵng
Ġd Ãª
Ġd áº¹p
ch ester
ĠM ao
Ġp ar
7 1
7 9
M ic
Ġt Ä©nh
Ġn o
Ġd á»Ŀi
ĠT o
ĠS on
ĠG er
ĠAl l
Ġ193 5
C A
y th
an ov
ĠH and
ĠÄĳÃ³ i
eo l
19 5
i et
ĠÄĳ Ã¢u
Ġng Ã£
er g
ĠP at
ĠV iá»ħn
ĠCh iÃªu
os p
ag h
ÄĲ iá»ģu
oi re
t o
Ġ is
Ġ Æ°a
Ġh Ã¢m
Ġn Ãªu
Ġng áºŃp
á»Ľ t
ĠMus ic
ĠCL B
B S
áº ¤
ĠT uáº¥n
ĠH Æ¡n
ĠTr áº¡ch
ĠQu áº£n
il ia
ĠW ars
ĠMar ia
Ġ17 9
Ġ195 7
ÂłÂł ÂłÂł
ĠNe ur
Ġh uyá»ģn
Ġgi Ã¢y
ĠÄĳá» ¥
ĠM et
ab aeidae
Ġ195 3
Ġb á»ĵi
ĠT an
ĠB our
Ġ19 00
ĠR ad
ĠCr om
Kh u
ĠTex as
S Ã¢n
d or
e ng
Ġm en
ĠT Ã¬nh
ĠN Ã´ng
ĠK ing
ĠA k
or b
as p
Th Ã´ng
ĠX Æ°Æ¡ng
Ġ193 1
Ġ191 2
ey n
Ġ189 1
ĠNeur optera
c Ã¡c
Ġh á»ģ
ĠB y
ĠM as
et s
Ġ5 1
if lor
Ġlá»£ n
ĠZe aland
h a
i ph
Ġd áº¯t
Ġg en
ĠC D
ĠP o
ĠCh ung
Ġho an
os hi
Ġ4 8
ad o
Ng uá»ĵn
ell o
ĠAr m
ĊĠĊĠĊĠĊĠ ĊĠĊĠĊĠĊĠ
ĠGo ogle
H ai
S P
d r
g en
ĠM iss
es e
op ol
Ġkho Ã¡ng
od a
Ġbu á»ĵn
Ġ191 3
ĠAnd re
Ġb á»ģn
á»§ a
ĠTh i
at or
le x
ĠlÃ£ ng
ĠCr oat
E n
S car
U B
ĠÄĳ áºŃp
Ġl áº§m
Ġd Ã²
ĠT Ãº
Ġthu áº«n
ÄĲ áº§u
Ch ÃŃnh
ĠCrom well
6 6
B an
Æ ¯
Ġt op
Ġm Ã¢y
ĠlÃł nh
ĠT Ã¡c
ĠTr uyá»ģn
ĠD ie
ub a
ĠNgh iÃªn
Ġká»ĭ p
A R
E r
V Äĥn
Ġc od
Ġh áº£o
Ġch Æ°
Ġph áº¿
ĠH ot
ĠB á»ī
ĠP ro
ĠV ict
ĠK ir
ĠD á»ĭch
c om
e u
Ġ z
Ġt ung
ĠÄĳ áºŃm
Ġl e
Ġth áºŃn
Ã³ w
Ġrad ar
i re
s au
Ġl áº·p
Ġh áº§m
Ġb ia
ĠT w
ĠL áºŃp
ry opter
ĠPr em
Ġgh Ã©p
ĠArgent ina
Ġl Ã¢n
ĠT ai
at ri
ÄĲ á»Ļi
yp od
ĠBl ack
ĠIs rael
ĠIntern et
ĠThom as
S inh
T Ã´i
Ġc ong
Ġv ang
ĠH uyá»ģn
ĠP enn
un n
H oa
t i
Ġ ã
nh Æ°
Ġn á»ģ
ĠT V
ĠM ak
ĠPh Ã¡i
Qu áºŃn
ĠF I
ĠgÃ³ i
ĠWal es
Scar abaeidae
C o
Ġ )
Ġt Ã¡ng
Ġn áº¥m
Ġkh uyÃªn
Ġng á»±
ĠB Ã¡ch
ĠA f
ĠA z
ic s
ul idae
o id
p l
Ġt áº¡ng
Ġd el
ĠM ax
al m
is a
ag r
Ġ190 5
nheim er
ĠÄĳ iá»ģn
ĠT ak
Ġx Ã³a
ic ol
Ġ3 4
Ph Ã¡t
áº³ n
if f
ev ik
ĠBer lin
6 1
O n
c us
s tr
Ġ â
Ġc l
Ġc Ãł
Ġtr áº§m
Ġg á»¡
ĠH ol
ĠM Ã´i
el a
le c
ĠKh áº¯c
Ġchu Ã´ng
Ġ193 3
ĠL á»£i
ĠH Ã¬nh
ĠS o
ĠP t
im ir
ol n
ĠR os
Ġtu á»ĩ
ĠAl b
Ġ193 2
Cu á»ĳi
ashi ng
I A
Ġ $
ĠÄĳ iá»ĩp
Ġl Æ°á»¡ng
Ġh á»©a
Ġcá»§ ng
Ġgi Ã£n
ĠM y
ĠKh an
Ġnhá»ĭ p
Ġox y
Ñ ģ
Ġt Ãºc
Ġl áº±n
Ġnh Ã£n
ĠT op
ĠB Ã¹i
ĠS imon
ar in
Ġ4 00
Ġ192 4
b all
o áº¡t
r it
Ġt Ãºi
Ġch áº½
ĠT iáº¿ng
au x
at s
Ġ3 8
ĠO b
ĠFran cis
pe nheimer
ĠScot land
C Ã¢u
b ao
Ġ op
Ġth á»į
Ġm iáº¿u
Ġm á»ıng
ĠT Æ°á»Ľng
ĠS z
ĠF ab
Ġ12 0
Ġ191 1
ashing ton
Ġb áº¡ch
ĠGia o
oa d
ar o
ĠTh iá»ģn
ĠE ug
áº¹ t
Ġsu á»ĳi
ĠRom a
7 8
N áº¿u
T Ã¡c
b e
i j
s c
å ħ
Ġph un
ĠC as
ĠB ul
ĠS eo
ĠTh iá»ĩn
ĠK iá»ģu
or g
ĠNg Å©
om y
Ġ192 7
Ġ190 6
ĠbÃ© o
ĠSal tic
ĠSaltic idae
D Æ°á»Ľi
E A
k in
Ġt Æ°Æ¡i
ĠÄĳ Ã¡o
Ġm Ã£i
Ġkh áº©n
ĠC omp
Ġx ÃŃch
ĠM ic
ĠS um
ar r
el ia
eo p
it ch
Th iáº¿t
âĢ Ķ
Ġ191 6
3 1
C D
t á»©c
ĠÄĳ eo
Ġg á»£i
ĠS ol
og on
of t
ub l
ĠSm ith
S á»ĳ
V iá»ĩt
Ġh áº³n
Ġs Ãłn
Ġg áº¡o
ĠN et
ÃŃ p
ĠNg Ã´i
ĠI l
ÄĲ á»ĥ
ĠZ h
anth us
ĠKazakh stan
¨ ng
Ġh áº¹n
Ġch Ã¨o
ĠL Æ°
ĠH oÃłi
ĠÄĲ Äĥng
ĠS uper
ĠTh am
ĠTh iáº¿t
ĠK iev
ĠD iá»ĩm
ĠW ashington
ĠlÃ£ i
ĠCá»¥ m
C art
n ik
å ¤
ng h
Ġth áº±n
Ġs á»ķ
ĠN ob
ĠL i
Ġr áº½
ĠM od
Ġmá» ¹
ul us
re c
od on
Ġ192 1
; /
g or
Ġl Ã²
Ġh á»ĵn
Ġn á»Ł
Ġk ÃŃn
Ġnh áº§m
Ġnh á»±a
ĠT Ã¹y
ĠV iáº¿t
es tr
Ġgiá» ı
os ter
Ð¾ Ð
ĠPrem ier
C Æ¡
w ig
Ġc á»į
Ġn á»£
ĠT Ãłu
ĠB ern
Ġ19 19
ĠV á»ĭ
ĠK ur
ĠA P
Ã© on
Th á»ĥ
ĠÄĳ Ã¨n
Ġh á»ıng
Ġx ÃŃt
ĠS oc
ĠTr Ã¢n
ĠNh u
ĠQ uy
c Ã²n
v an
Ġc á»ĳi
Ġl am
ĠS ir
Ġ4 2
ĠJe an
Ġcod ice
. ,
7 4
T ip
Ġb á»ĳc
Ġs c
ĠS ai
ĠX X
oc arp
Ġ191 0
Ġ192 5
Cart ney
u an
Ġnh iáº¿p
Ġqu Ã¡i
er b
ĠM ag
it o
ĠPl ay
ĠCá»Ń u
6 3
M Ã´i
l Ãł
Ġ ob
Ġl Æ°á»¡i
Ġng ai
al t
ol k
áº» o
ow er
st ant
ĠVen ez
0 5
Ġv a
Ġth á»Ł
Ġth Ã´i
ĠB á»ĩnh
er idae
ĠÄĲ á»Ļng
ĠS ang
ĠV Ã´
it ar
op a
ĠHÃł m
Ġ190 9
ĠNor th
ĠAngel es
F O
Ġv Ã©
ĠN ov
Ġal b
Ġ192 2
ĠGeor g
ĠDie go
K inh
V D
Ġt áºŃt
Ġb it
ĠH ir
ĠH uÃ¢n
ĠP av
ĠCh ile
ĠÃ Ĺ
ĠNh áº¥t
ĠJ un
á»Ľ n
ĠMan chester
ĠAp idae
Ġ æ
Ġv iÃªm
Ġm Ã¨o
Ġn ig
ĠT um
on i
ĠG P
os ta
Ã´n e
ĠX Ã¡
enn is
ĠOp penheimer
ĠCarol ina
å ®
Ġ áº¥m
Ġ ax
Ī Ĵ
Ġc r
Ġl Ã´
Ġm áº£ng
Ġm Ã¹i
Ġtr á»«ng
Ġb Æ¡i
Ġch á»¥c
Ġch áº·ng
Ġs á»įc
ĠA v
Ġkhi Ãªu
ou t
Nh iá»ģu
ĠâĢ Ķ
enk o
esc ens
0 1
A g
D P
L Ãł
h e
Ġh áº±ng
Ġb Ãª
Ġs áº¡n
Ġkh á»©
ĠC at
ĠL Æ°á»£ng
ĠL ind
ĠL Ã£nh
Ġr au
ĠJ os
ĠKh ang
á»Ĺ ng
Ġhyd ro
P ol
Ġt á»ĳn
Ġl á»ĵng
Ġnh Ã¬
ĠL ab
at ra
Ġho Ã£n
ĠKh oáº£ng
ĠO n
az on
inc oln
5 9
v ÃŃ
Ñ Ĥ
Ġc á»ĳc
ĠÄĳ áº¡p
Ġl Ãµi
Ġch Ãło
Ġk iÃªn
Ġnh á»įn
Ġd ÃŃnh
ĠT Ã¹ng
ĠM ew
ĠK an
il us
ul b
ed ia
og ne
if orm
ĠGiá» Ľi
= "
B T
s hi
w in
Ġv ay
ĠM á»Ļc
ĠM Ã¼ll
ĠPh Ã¹
ic an
ĠJ an
ĠU l
ĠMar x
Ġ190 8
ĠVirg inia
H á»Ļi
I C
N am
Ġl Æ°á»Ŀn
ĠT our
ĠC áº£i
ĠB raz
Æ°á»Ľ t
ĠV lad
ĠG ro
ĠNg hi
ic idae
Ġ4 6
ov er
ed a
ĠSt ud
ans as
ĠCÃ³ i
yn ch
arb on
A ll
k o
p or
x em
Ġth ung
Ġtr á»Ļm
ĠT Äĥng
ĠT Ã´i
ĠL á»¯
ĠL incoln
es i
Qu Ã¢n
il d
Ġ5 6
re d
ak u
ĠLe on
ĠRom an
ĠFI FA
H yp
T áºŃp
ĠÄĳ iÃªu
Ġs Ãºc
Ġqu Ã©t
ĠL ib
Ġgi áº¥u
ĠP ak
ĠD Å©ng
ĠPh á»¥c
os th
and ra
re v
20 16
ĠDiv ision
Ġgiá»ı i
7 6
Ġb á»¯a
ĠT in
Ġqu Ãł
Ġr á»Ńa
er v
ĠP i
ĠK l
ĠK y
ĠA C
ĠD Æ°á»Ľi
Ġngh iÃªng
ĠF ir
Ġ5 2
ĠIt alia
eyn man
c ol
u ph
Ġ áº£o
Ġl iá»ģu
Ġm áº¡o
Ġnh áºµn
Ġg á»ĳm
ĠS ar
ĠF or
ĠF oot
th ur
op p
Ng uyÃªn
" :
m e
p ur
ĠÄĳ á»©t
áº¥ c
qu ita
Ġqu Ã¡t
ĠL á»ĩ
ĠB ad
Ġlá» «a
em is
ĠW ar
ag on
ĠSh el
Ġ192 3
Ġ192 8
ĠChu áº©n
ĠBol sh
¯ a
Ġk iá»ĩt
ĠT Æ°á»Ŀng
Ġx Ã¡
ĠB áº¡t
ar iidae
ĠTh Æ¡
á»¥ i
ĠR ec
as a
á»ĥ m
Ġ6 4
ĠAr t
ĠPar k
Fran ce
ĠCroat ia
0 9
E C
[ [
v á»Ľi
Ġ ion
Ġv irus
Ġth a
Ġb Ã¢y
Ġb Ãłng
Ġr o
ĠÄĳá» Ĺ
ĠM au
ĠV Ãłng
ĠK en
ĠD C
ĠJ ac
Ġmá» «ng
ĠBraz il
e ch
ç İ
Ġ at
Ġtr Ã¡ng
ĠH ay
ĠH oll
ĠB u
ĠB on
ĠB áº£y
ar us
ol Ã©on
ag as
Ch o
ie w
Ġ191 5
y x
Ġ áº¿ch
Ġth Ã´
Ġth áº»
Ġm Ã¢u
Ġn Ãºt
ĠH oÃł
er ry
ĠP omer
as on
áº« y
ĠO cc
Tr Ãªn
Ġf lav
kh oáº£ng
ĠGu inea
ĠAlexand er
B Ãłi
b an
l u
Ġ ad
nh á»¯ng
Ġnh áº¯m
Ġd er
Ġd á»Ļi
ĠV an
om bia
ĠI ran
ÄĲ á»ĳi
ÄĲ á»Ŀi
ĠAl bert
az z
ĠSh in
ĠGiá» ĳng
quita ine
B Ãł
H uáº¥n
p s
Ġ áº¥u
ĠT el
Ġ1 000
ĠM ass
ar ch
ĠK á»·
ĠA ward
or iz
ĠCh áº¥p
at es
Ġkhu áº©n
ord an
Al pes
act yl
F C
Ġc á»ĳng
Ġc áº¡n
ong o
Ġqu á»·
Ã£ m
ĠP eter
ĠV er
ĠK e
ĠK á»¹
ĠD om
ĠD iá»ħn
ĠJ ava
ÄĲ Æ°á»Ŀng
ÄĲ á»ĭnh
ud a
ĠIn ter
ĠOcc itan
% :
Ġc Æ°á»¡ng
Ġn áº¡t
ĠT á»ĳi
Ġng áº«u
Ġph iáº¿n
ĠL ev
ĠH an
Ġr á»ĵng
Ġx á»©ng
ĠS el
ar io
Ġ4 4
ak ia
ro ph
ut o
ĠLe e
uel a
bour ne
áº¤ u
ĠBolsh evik
C om
Ġ im
Ġm Ã¹
ĠL it
uy a
ĠS Ã³c
am in
ic ran
ĠI ll
ian us
Ġ192 6
Ġhu á»ĳng
ylv ania
B illboard
S á»Ń
y b
ĠÄĳ áº¯c
Ġb Ã¹
Ġs ch
ĠT iber
am s
Ġthá» īnh
Ã² m
ĠD ryopter
is lav
ĠNg uyá»ĩt
ur t
Tr áºŃn
ing ham
st on
ĠDryopter idaceae
S S
y le
Ġt Ã´m
Ġv iáº¿ng
Ġl eo
Ġn Ãłng
Ġk Ä©
Ġph áº¥n
ĠP as
Æ°Æ¡ n
is ter
ĠW ood
Ġtá»± u
ot te
ĠO ne
Tr Æ°á»Ŀng
Ġp op
ĠlÃ£ o
Ġin ch
ĠCol ombia
K áº¿t
T A
Ġt Ã¹ng
Ġl aser
ĠlÃł n
ĠC ent
ĠP u
ai i
or th
um a
ac ia
ĠE ur
th u
ĠGi áº£
ou v
Ġ190 3
Ġ189 5
ĠFoot ball
7 3
c es
g iá»
i ol
Ġl áº¯ng
Ġng á»«a
ic al
hi o
ot us
ot rich
Ġp ol
ik h
ĠSt al
ĠHo ok
Le ague
ĠMart in
5 8
e on
Ġb á»Ľt
Ġn Ã´
Ġn ai
Ġn it
Ġn Æ°á»Ľng
Ġs Ã´i
Ġg á»įn
ĠN av
ĠH ow
re y
ÄĲ Ã´
ed onia
ry pt
Ġ189 9
Ã´m a
ĠMc Cartney
ĠMich ael
C or
H oÃłng
j u
k an
m ina
s ylvania
Ġc áºŃy
Ġl áº§y
Ġh áº¡ch
Ġm Ã¬n
Ġd Å©ng
Ġng o
ĠL Ä©nh
ĠH iá»ĩu
ĠB Ã¡o
en te
ĠG iÃª
ter idaceae
ou d
ÅĤ aw
Ġsp in
B a
M ac
Ġ Ã´n
Ġb r
Ġd uyÃªn
Ġg áº¡ch
ĠM áº¹
ĠD oanh
id ium
ĠPh ÃŃa
ĠR o
Ġ4 1
Ġ5 3
ing er
ĠÃĶ n
ĠBay ern
ĠPenn sylvania
P s
Ġv áº¡ch
Ġnh i
ĠD ev
ol em
et te
om o
Ġp er
ell idae
yc l
Ġ190 7
ĠAs s
ĠCar ib
ĠMil an
ĠHug o
iflor a
T T
k ov
l Ä±
Ġ er
Ġ ang
ĠÄĳ áº¯p
Ġd á»ĳc
ĠC ai
Ġqu áº¿
Ã¢n ia
Ġr ock
ig an
ro g
ut t
ĠthÆ¡ m
ĠFlor ida
osth enes
D i
l tr
Ã Ł
Ġ o
ĠÄĳ Ãł
ĠT inh
ĠT iáº¿p
ur n
Th Ã¢n
tr Æ°á»Ľc
ed rich
ĠTu áº§n
ĠGir ay
Ġtr Ãłn
ĠM áº¡ng
id ia
ĠNh o
ĠNh á»Ŀ
ĠW at
Ġmá» Ŀ
ĠSt an
ĠVlad imir
ĠShel don
A p
Ð º
Ġt Ãºy
ĠÄĳ Ã¢m
Ġm á»Ļc
Ġtr iá»ĩt
ĠT iáº¿t
ĠC Æ°Æ¡ng
ĠH iá»ģn
at ar
it s
un ct
av en
ĠÃĤ n
ĠHo áº±ng
ĠPol ypod
ĠKit Ã´
f a
r es
Ġt áº¯m
Ã¡ s
Ġch á»ĳt
Ġch á»«ng
Ġvá» Ŀi
ch o
er id
al es
or um
Ġngh á»ĭch
ic ul
ĠF A
ĠO hio
ĠSeo ul
9 5
C er
G C
Ġt áº£n
Ġc Ãºp
Ġl áº·ng
ĠC oll
Ġx Ã³m
ĠB ry
ĠV o
al c
ae s
el d
el t
Qu á»ĳc
ĠNh Æ¡n
ĠR ed
Ġ5 4
ĠMar y
yl la
Ġ189 7
Gi ai
Gi Ã¡o
Ġthá»¥ y
ĠBen th
Ġgu itar
ĠPolypod iaceae
d es
Ġr á»§i
ĠB oh
ĠM yan
am o
ĠP ic
ĠTh Äĥng
ĠV á»ĩ
ĠA T
ay lor
ang e
os c
ĠF eynman
Th á»ĳng
Ġdu á»ĩ
Ä± r
ĠTim es
ĠNap olÃ©on
ĠSlov akia
: "
N ÄĲ
S áº£i
T á»īnh
V Ã¬
u h
Ġb á»Ļi
Ġkh uyáº¿t
ĠC Ãł
ĠB ud
ĠÄĲ á»ģ
ĠV á»¥
ĠK iá»ĥu
en i
ia ng
ang a
ĠR Ã´ma
ot on
ĠRom ania
ĠRom Ã¢nia
ĠthÃ¹ y
ĠlÅ© y
çİ ĭ
C ol
E x
S T
r h
w n
Ġ Î
Ġm Ã³c
Ġm iáº¿ng
Ġn áº£y
Ġr Ãło
in k
om or
op idae
and r
ĠKh ai
ĠkhÃŃ a
Ġ187 8
ĠHaw aii
ĠOlymp ic
ĠOccitan ie
m i
s ur
Ã ģ
Ġm an
Ġtr áºŃt
Ġb Ã¡t
Ġch iÃªu
Ġch Ã©m
Ġs Ãºt
ĠT Æ°á»Łng
ĠH áº¡t
on y
ĠK ÃŃnh
ia t
ĠTr inh
ĠG ames
at i
im us
Ġho áº¡i
le ur
Ġf r
Ġ189 4
ĠPhil ip
Ġcá»į p
0 7
0 8
B áº£o
C Å©ng
m id
Ã Ĥ
å Ń
Ġt uyáº¿t
Ġv áº¯ng
Ġm á»ĳc
Ġnh áºŃm
Ġd Ã¡m
ĠN ai
ĠN ight
ĠB inh
ĠB áº£ng
ĠK ol
ĠD an
Ġcu á»ĳng
os us
Ã¨ re
Ch á»§
if e
Ġru á»Ļng
Ġ190 4
ĠDem osthenes
5 4
S aint
V Ã¹ng
s tein
Ġb i
Ġb Ã¡ch
Ġqu á»³
ĠN orm
ĠH ill
ĠB as
ĠS ri
Ġ( ),
ĠTh áº©m
ĠV I
Ġsá»ĳ t
ĠD ak
ĠQu áº£
ic ola
it hi
ad y
ah alli
Ġtá»ı a
ĠkhÃ³ i
ĠPer u
ĠGre en
ĠVenez uela
S an
b l
Ġh Æ°ng
Ġb y
ĠN Æ°á»Ľc
ĠL or
Ġx Æ°á»Ľng
ĠS lav
il y
ĠR y
ag us
ik a
ier z
200 7
Ġu á»ĳn
ĠSte ph
yph iidae
ĠLin yphiidae
ĠStal ingrad
S Ã´ng
Ġ eo
ng Ãły
Ġv áº¹n
Ġm Ã³ng
Ġd es
Ġr áº¡p
ĠS k
ĠÄĳÃ£ i
em at
th Ã¡ng
re g
ra q
ep s
ord s
Ġ190 1
ĠUn ivers
ĠBro th
ĠPhá»¥ ng
ĠMyan mar
C S
Ġl Ã¹i
ĠC uba
ĠN ak
ĠM Æ°á»Ŀi
on es
á»¥ ng
ai os
is m
ĠU FO
ok u
ĠvÃ² m
ĠKr as
9 2
L ept
N ew
Ġ ;
Ġm á»ķ
Ġm ic
Ġch Ã¢m
ĠT en
ĠT Ãºc
ĠB á»ĳ
ĠS en
ĠS ab
ĠR ock
em on
Ġlu á»ĵng
ik i
uc t
199 9
ĠBul g
Ġax it
. -
L Ã½
l ine
m ond
n i
Ġ Æ¯
Ġt áº¥u
Ġv áº£i
Ġv Ä©nh
Ġh á»ĳi
Ġh áº¡c
Ġk i
ĠC omm
ĠM V
ĠM ay
ĠK arl
ĠG ame
es ch
ĠNg Ã£i
ĠNh Æ°á»¡ng
il bert
Th Ã¡i
op us
ul f
Ã¨ ne
20 15
ina wa
Ġmu á»Ļn
eb r
Ġ189 0
ino is
ĠCl ub
ĠHit ler
5 1
B áº£n
B á»ĳi
B áº£ng
D r
R e
j o
s á»ĳ
Ġ Æ°á»Ľt
Ġk Ã©p
Ġkh Ã¡nh
ĠH i
Ġr Ã¡c
ĠB áº¿n
ae us
is hi
us a
as tr
ĠKh Ãª
ĠAn ton
ĠSh ar
ĠAustr alia
4 00
M el
Ġv Æ°Æ¡n
Ġl Ã¢y
Ġh Ã´i
Ġnh áº¡y
an ch
ĠÄĲ áº¡t
ĠS ung
ĠTh áº¥t
ĠV Æ°á»Ŀn
Ã½ t
ĠE sp
ir o
ew is
Nh áºŃt
amb on
Ġ190 2
end o
Ġ189 6
ect ion
ĠNob el
ĠPak istan
D on
m in
m Ã©t
r in
à ¤
Ġl áº¡m
Ġth iÃªng
Ġh Ã£m
ĠT P
ĠC Æ°á»Ŀng
ĠH Æ°á»Ľng
er ia
ĠM id
ĠM un
ĠÄĲ á»ı
áº¯ k
ĠTh Ã¡c
ĠTh áº¡nh
ai t
ĠG ab
ĠQu Ã¡n
ol og
ĠR og
ic um
op l
ĠKh á»ķng
ud e
ĠAm azon
An d
M A
P er
g u
x in
ĠÄĳ Ã²n
ĠÄĳ áº¥y
Ġv áº£y
Ġb áº¿n
Ġng uyá»ĩt
ĠN iger
ĠH el
Ġx en
ĠM ill
is tr
ĠNg áº¡n
os ph
ĠI d
Ġ4 3
Ãµ m
ĠZ ap
uk e
Ġel ec
cu ador
ogl oss
ĠOk inawa
stant in
j an
Å Ļ
Ġm Å©
Ġg Æ°Æ¡ng
ĠC á»ı
ĠC Äĥn
ĠB Ã¡c
ĠB á»Ļt
ĠB ao
au n
id ent
re am
Ġlu Ã¢n
ow a
A t
K á»ĥ
ĠB h
ar ius
ab a
og a
ĠLe g
ort s
erm o
ĠPt olem
ouv elle
% )
0 3
5 6
e f
e us
e et
Ġc Ãłi
Ġd á»ĩt
ĠT ÃŃn
ĠL ove
Ġr á»ħ
ĠM áºŃt
ĠS at
ĠTh ay
ĠV á»ĭnh
ai ll
im p
ic ia
ĠE cuador
th Æ°á»Ŀng
ev ich
ĠMÃ£ n
ophyll aceae
ĠRu á»ĵi
ĠFri edrich
A sp
D S
L A
e ar
Ġt en
Ġtr Æ¡n
Ġg Å©i
ĠK n
ĠK iá»ĥm
it ter
ur es
ĠI c
ĠI raq
um i
em ent
Ġ8 5
ĠMar gar
uk a
A d
c l
s o
u ay
w ay
Ġtr á»Ļi
Ġch uyá»ģn
Ġng áº¡c
ĠN ouvelle
ĠL o
Ġr áº»
ĠV áº¡n
ĠK er
ĠA ug
ĠQu á»¹
ic z
Ġ7 2
ev er
ĠThu áºŃt
ros oft
ĠJos Ã©
r ick
Ġv Ã¡n
Ġch Ã¡nh
Ġd áº»o
ĠT er
Ġng on
Ġtá» ĥ
ĠM á»Ł
ĠM Ã¡y
ĠM inn
ĠK ong
al p
ĠD ani
ĠR am
ĠF ern
ed on
ou gh
Ph il
ett i
ĠOs car
ĠAustr al
ĠNorm and
V Æ°Æ¡ng
a ph
c y
g an
z o
z y
ĠÄĳ áº¯m
Ġl og
Ġm in
Ġm Ã²n
ĠT a
ĠT áº¡ng
ĠB ob
ĠM iáº¿n
ĠM áº«u
ĠÄĲ Æ¡n
ĠTh Ã¡p
as i
ĠI m
ĠJ am
ab r
ich ol
20 14
ĠAm er
áºµ ng
ĠIll inois
0 2
0 6
B A
B ar
G l
H ol
J ohn
n ia
ä º
Ġ Æ¡n
Ġt Æ¡
Ġc or
Ġtr e
ĠM oh
ar ag
ai re
ĠTr áº¥n
al an
ĠD ub
ĠR eg
os idae
Ġ6 00
Ch u
ĠBr it
ĠNik ol
S te
Ġm áº¯n
Ġtr Ãł
Ġb Ã¡m
Ġch Æ°á»Ľng
Æ¡ m
ĠN int
ĠL oire
ĠH Ã£n
ĠB á»Łi
ĠS Ã¡ch
ĠD NA
ĠR od
em ia
ĠF il
re a
ĠU g
ĠGi ai
iv a
Ph áº¡m
ier re
Ġgh Ã©t
ĠHu á»³nh
? "
V á»ĭ
e en
Ä «
Ġ é
Ġ ong
Ġth á»±
Ġm Ãºa
Ġb á»ĩ
Ġph Æ¡i
ĠC á»±c
Ġgi áºŃt
ĠB Ã¡t
ĠTh áºŃp
ĠV ideo
es ota
um e
Ġ5 7
ov sky
ro id
ĠAl g
Ġ188 9
ver g
ĠBour g
ĠNint endo
5 2
T C
v en
Ġm m
Ġb Æ°u
ĠT iá»ĩp
ĠC á»ĳc
ĠN ar
ĠL ith
ĠH on
ĠK am
ĠTr Ã²
ĠD es
ĠD VD
ĠCh áº¿
ĠCh á»£
ĠCh iáº¿c
ĠQu áº§n
it al
ĠJ ordan
ĠY el
Ġ189 8
Ã¼ n
NE S
ĠMinn esota
9 6
L Æ°u
f er
f ormula
Ġ or
Ġl ÃŃ
Ġs áº«m
Ġnh á»¥i
Ġg an
ĠH á»Ļ
ĠTh ÃŃch
el yp
Ã© e
ĠR ain
ĠAn n
20 11
ip ennis
ĠSch ltr
Ã¶ n
ĠBar b
ĠEug Ã¨ne
ĠMic rosoft
ĠRec ords
ĠMargar et
! "
H el
M eg
c á»§a
m en
u th
v el
Ð »
Ġc áº¯n
Ġl Ã¹n
Ġth iá»ģn
Ġm áº·n
Ġb ar
Ġch áº©n
Ġs Ã¹ng
Ġs tr
ĠL á»Ľn
ĠD iá»ĩu
ĠR en
ag ne
Ġ7 6
20 12
Ġ187 6
Ã¶ r
ĠWal ter
K im
M et
N Q
f olk
u ania
Å ¾
Ġth Ã³i
Ġd áº¡
Ġd Ã¢u
ĠN o
ĠL es
ĠL ud
ĠS ur
ĠS av
ĠK em
Ġcu á»Ļn
ur b
ĠJ oh
ĠX Æ°á»Łng
Ġ6 2
ÄĲ Æ°á»£c
od e
od actyl
ĠU p
ĠY am
Ġtá»¥ ng
ĠSp r
ĠMac edonia
ĠÄĳá»¥ ng
Ġã ħ
0 4
B ulb
C Ã¡
C all
H oáº¡t
P A
R A
R ob
h elm
p an
Ġc arbon
Ġh Ã£i
Ġkh á»Ľp
ĠN áºµng
ĠB at
ĠB Ãłn
ĠB aker
ĠS S
ĠG mina
us c
Ġcu á»ĵng
ag ar
ĠKh áº£
oc eph
ip l
ĠAr n
ath er
200 9
Ġ187 7
ĠEng els
omy ia
ĠPtolem aios
E m
P T
d y
Ġb Ã´ng
Ġk em
Ġk iá»ĩm
ĠT áº£
ĠT Æ°á»£ng
ĠL áº¡t
uy nh
ĠH yp
ĠM áº¡nh
ĠÄĲ á»ĳc
ĠS iÃªu
on ne
ĠK or
al s
ĠPh Ã¢n
ĠPh Ã¡o
Ã© s
Ġvá»ĭ t
un a
av ia
ra ph
iv ia
ĠSt and
sk a
Ġ0 1
Ġlá»Ļ n
Ġ186 7
ust in
ĠHau ts
A quitaine
B M
E T
N e
s á»±
å Ĳ
Ġ et
ĠÄĳ Ãły
Ġtr Äĥng
Ġb Ã¡i
Ġn á»ĳt
Ġn atri
Ġnh o
Ġng á»¥
ĠN Ãºi
ĠB áº¡c
ĠK u
ĠG old
Ġcu a
it r
ĠW all
ĠKh mer
ed er
Ġ9 5
20 13
ra h
ok e
ach us
ym e
orn is
oll is
ĠAp ple
ĠCo unt
3 00
X uáº¥t
g y
Ġt iá»ĩc
Ġch Ã²m
ch a
Ġx áº¥p
ĠM and
ĠÄĲ Ã´i
ĠS and
ĠK iÃªn
ĠTr ÃŃ
ĠD iá»ĩp
ĠÃ ĩ
ĠQu Ã¡
as cia
um p
ĠO d
av e
ĠLan ka
Ph iÃªn
Ph Æ°á»Ŀng
Nh Æ°
Ġnhiá»ħ u
ĠWh ite
ĠFrancis co
ĠAward s
ĠAustral asia
ĠLith uania
NES CO
; &
B Ãªn
r ock
z er
z on
Ġv Ã´i
Ġh Ã£y
Ġk il
ĠC ongo
ĠN i
ĠL im
Ġr Ã¬a
ĠB áº¥t
ĠB Ã¡i
ĠP e
ĠP ott
Qu an
ĠR oy
Ġ5 8
th a
ap t
Ch Æ°Æ¡ng
Ġá» Ľt
ach ilidae
ach sen
200 5
ĠNor folk
ĠMeg achilidae
ĠLit va
ĠUg anda
D iá»ħn
N eo
U n
Ġ ç
Ġc Æ°á»Ŀi
Ġl Æ°á»Ŀng
ĠN ad
ĠL G
ĠH iá»ĥn
ĠH all
ĠB ill
ĠM á»Ļ
ĠS ak
ĠP etr
ĠV II
ĠD ar
as c
ĠE s
ĠJ o
Ġ8 00
Ch iá»ģu
20 10
Ġnam e
ĠNÃ³ i
ry m
Äĳ Ã£
Ġ188 5
Ar g
ĠOs bourne
ĠTe ut
A b
M on
t Ã©
ã Ģ
Ġ ?
Ġc m
Ġc Æ°á»¡i
Ġv Ã¢n
Ġl á»Ļi
Ġch ua
Ġs Æ°Æ¡ng
ĠL áº§n
Ġr áº¡n
ĠM iÃªu
al k
el ph
Ġho áº¡n
et o
ing ton
ed y
oph ila
Ä± k
ĠYou T
Ġop era
Ġelec tron
ĠPott iaceae
9 1
C Ã¹ng
D A
b ach
Ġth áº¥u
Ġm áº§m
Ġb Ã³c
Ġb Ã¬a
Ġs áº¯m
an um
ĠH ind
ch en
ĠB ÃŃch
á»¥ a
ĠCh am
ĠQu Ã¡ch
th eo
Ġ6 1
Ġthá»§ ng
Ng ay
20 18
Ġ187 0
Ä± n
ict idae
Ã©r ie
ĠCarib e
ĠBulg aria
M u
O x
T á»ķ
l Ã´
l ov
p ort
w an
Ġv áº¯c
Ġv Æ°á»£ng
Ġth áº¯t
Ã¡ r
Ġng á»Ļ
Ġng Ã²i
ĠC N
ĠL Ã£
ĠcÃ³ c
ĠH á»ıa
ch n
ĠM k
ĠS i
Ġthá» ģ
ĠTh á»ĭnh
ĠK o
em y
ĠE U
ag en
ĠGi Ã¡p
og en
Ġá» ¨ng
ĠIn c
yr t
Ġru f
ĠHar v
ĠLat in
ĠGiÃª su
Ġ un
Ġc ac
Ġh iáº¿u
Ġtr Æ°á»£t
Ġg Ã¡nh
Ġkh uynh
ĠT own
Ġng á»Ļt
ĠL oáº¡i
ĠM ir
ĠÄĲ iá»ĥm
ĠP a
ĠTh Ã¡o
au m
at ch
ĠR io
ur us
ĠU NESCO
ion e
áº¹ o
ell i
omb o
ĠGh ana
ĠKen ya
Bulb ophyllum
E uph
m ad
v in
Ġ ~
ĠÄĳ áº¯t
Ġtr Æ°á»Ľng
Ġk áº½
Ġs ay
ai d
od idae
Tr ich
ell er
20 21
ob a
if era
ĠNgh iá»ĩp
ess a
ĠSan ta
ĠLen ingrad
ĠBro wn
ĠXI X
9 8
C Ã¡ch
T Ã¬nh
h ar
h uyá»ĩn
t hi
Ġ Ã¢n
Ġh iáº¿p
Ġtr Ã´i
Ġkh á»Ń
ĠT uyáº¿t
ĠC re
Ġqu áºŃt
ĠN ep
ĠL Ã¡
ĠL ewis
ĠH Ã£ng
ĠÄĲ en
ĠP od
ĠP art
ĠK enn
en ter
en burg
al ph
ĠCh ar
el y
Ġra p
Ġ6 3
ĠKh o
ĠY u
Ph Æ°Æ¡ng
ĠÃģ i
ĠMar c
ĠBr and
200 8
ĠÄĳá»ĩ m
ĠWil helm
ĠHand el
ĠBourg ogne
Q ÄĲ
j in
k en
w ar
Î ±
Ġ Âł
Ġ ab
Ġtr Ãłng
Ġch á»ķi
Ġg Ã¡c
ĠT Ãł
ĠT ang
Ġqu Ãªn
ĠL yc
Ġr ob
ĠÄĲ á»Ļc
ĠD Ã²ng
Ġtiáº¿ c
et idae
om at
ĠF el
re z
oc a
ig o
Ġ9 7
ĠGi Ã¡
ion idae
20 17
ĠAr thur
ut in
uc e
ant es
ath a
Ġ188 6
ĠPal ermo
ling er
Tip ulidae
M y
M al
o ung
u le
Ġt Ã¡o
Ġv Ã¡ch
Ġth Ã¢m
Ġm el
ĠM old
ĠV erd
ĠK av
ĠG oth
ĠG aga
is ia
os lav
et on
ot s
Ġ8 8
ĠSt ar
sk ie
our i
ys h
Ġ186 0
ult an
ĠNiger ia
ĠYouT ube
E R
H ood
M Ã´ng
V ua
p o
Ġc Ãłnh
Ġl á»¥a
Ġtr inh
Ġnh áº¥m
ĠL á»Ļ
ĠB Ã³ng
ĠM Äĥng
ĠP ap
Æ°Æ¡ u
id er
is ta
ĠQu á»³nh
il i
ac a
hi r
Th áº¿
Ġ6 8
ĠY ang
ich i
20 20
Ġphá»¥ ng
á»Ľ c
Ġtá»ĵ i
end r
Ġ188 2
Ġ186 4
ĠPl at
Ġpl ay
ĠVict oria
ĠComp any
D C
M ah
f orm
Ġh á»¥t
Ġb áº¿p
Ġn Ã©n
ĠT s
ĠL aw
ĠTh r
ĠV u
ĠA u
ĠCh áº¥t
". ..
Ġ6 9
ot e
ÄĲ Ã¡nh
our t
Ġ25 0
Ġ188 0
" "
C M
H Ãł
L u
L á»ħ
M o
X em
b ow
t Æ°Æ¡ng
w ork
Ġ enz
Ľ n
Ġc Ã¡p
Ġl áº¥p
Ġng Ãłi
ĠC osta
ĠH af
ĠB á»ĭ
au c
ae m
ad i
Tr áº§n
amp ton
ap ar
Ġf an
Ġtho áº£ng
Ġ187 5
ĠCor s
ĠAlexand ros
ih an
ĠJul ius
. &
N O
Ġl áº¥n
Ġth Ã¹ng
Ġh Ã¡i
Ġb á»ķng
Ġs olo
ĠN ag
ĠL Ã¢u
ĠL and
ch t
ch á»ī
ĠB us
er man
ĠA h
ĠCh Äĥm
ĠNh á»ĭ
ĠR ick
ĠI a
ot is
ov o
uc a
ĠSer v
ert o
ts in
itt le
Ġ185 9
ĠCor por
ĠHal ictidae
Ġcal ci
shi re
5 7
V ÃŃ
c Ã´
r ai
æ ĸ
ĠC om
ĠC op
ĠN ic
ĠB Äĥng
ĠD ou
ac o
Ġ6 6
od ont
20 19
ob e
ent us
if er
Ġw ith
Ġ187 9
Ġ188 1
Ġser ies
cel ona
agas car
L U
S O
T áº¥t
å ¸
æ ľ
Ġ #
ĠÄĳ Ãłnh
Ġm on
Ġb rev
Ġs on
Ġs in
Ġg Ã£y
Ġph iÃªu
Ġqu Ã£ng
ch á»§
ĠB ig
ĠB all
ĠV asil
ĠD en
is on
et ta
Ġ6 7
ak ar
av an
io ph
ith ec
ifol ium
els ea
iber ia
Ġe uro
ĠGro up
ĠStud ios
Com tÃ©
ĠIc eland
D I
I s
S áº£n
T S
W h
o us
o idae
s z
s er
y wood
Ġ Â
Ġh i
Ġh eo
Ġnh áº¯n
Ġng Æ°ng
ĠC all
ĠN Äĥng
ĠB ell
ĠB oy
ĠA y
ĠG od
ĠG ill
ĠG ran
is ton
ĠR Ã¡y
os aur
ag an
ed o
ap an
ĠBr un
ĠIs land
ĠMos c
ĠRh ein
ĠNormand ie
M an
s m
ĠT aylor
qu ez
ĠC H
ĠC Ã¢y
en th
au h
ĠI owa
ac c
ĠY ok
ell y
ian um
io ides
ile e
ĠMan nheim
St ation
ĠIntern ational
ĠHau te
Gia o
ĊĠĊĠĊĠĊĠĊĠĊĠĊĠĊĠ ĊĠĊĠĊĠĊĠĊĠĊĠĊĠĊĠ
ĠAlg Ã©rie
ĠCorpor ation
B e
H eter
i que
t z
Ġl i
Ġl á»¥t
Ġh am
Ġd ai
Ġng á»įc
ĠC á»Ńa
ĠC ock
ĠL Ãłng
ĠM oz
ĠS in
ĠS un
in am
in ata
ĠG ood
ĠÃ į
as ka
re w
ĠKh á»ĳi
ap e
ĠAs p
Ġ187 1
amm y
imm y
2 000
A M
B er
I T
T am
i ensis
r ay
â ĪĴ
å į
Ġt Ãº
Ġc omp
Ġth áº§u
Ġm iá»ĩn
ĠT Ã¡m
ĠB á»ĳn
ĠM Ã´
ĠM err
in um
ĠP ed
ĠK at
ĠA S
ĠCh ern
ĠR alph
ĠI C
ĠE ver
th e
th á»Ŀi
ĠW es
Ġkhu áº¿ch
ul atus
Ġkho Ã¡n
Ġp all
ĠMar ie
ers ey
ĠSh im
Ġ188 3
rom e
ãĥ ¼
âĢĿ .
ĠBal kan
ĠMed ia
oriz h
ĠHow ard
ĠDak ota
L Ãª
c Å©ng
o áº¡n
Ã ¸
Ġc áº©n
Ġl á»©a
Ġtr Ã¹
Ġch lor
ĠT áº§m
ĠL á»Ĺ
er al
ĠM ua
ĠS ic
ĠG ol
ĠE v
Th iÃªn
19 45
ug h
yr m
ĠmÃ£ nh
ĠDu á»ĩ
unt ze
ĠZap orizh
ogloss um
ĠYel tsin
% ),
T ok
V al
Ġ ap
Ġt iá»ħn
Ġh áºŃn
Ġb l
Ġs im
ĠT áº¡
ĠL omb
ĠL iga
Ġgi Ã¡ng
Ġgi áº·c
Ġr á»ķ
ch er
ĠM Æ°á»Ŀng
ĠM áºŃu
ĠS ec
ĠS ud
ĠV áºŃt
ĠK ansas
or o
es l
os m
ĠI w
un k
od ium
ig in
ell us
te g
Ph im
io ch
ĠBl ue
ĠBar celona
ĠAnd roid
ĠPan ama
Ġxo áº¯n
mid t
9 3
9 7
C áº§u
N S
R S
d ong
w ang
ð Ł
Ġc á»ĵn
nh Ãł
Ġl á»¯
Ġl at
Ġn Ã¡t
Ġs á»į
Ġs Ã³i
Ġg Ã¡n
ĠH igh
ĠB ab
im ierz
ol ep
Ġp iano
Ġf l
oph ora
uk h
Ġ0 5
ĠPr ad
200 6
anth a
As tr
ĠBel arus
ĠBos ton
lec tr
ikh ail
ĠVo iv
H á»į
I NE
P ter
n et
s burg
u á»ĳi
Ġc ar
Ġh Æ°á»Ľc
Ġb ÃŃnh
Ġn eo
Ġn áº¯p
ĠT H
ĠT uyáº¿n
Ġng Ã³n
ĠC á»ĳ
ĠC and
Ġr áº£i
ĠS Ã¡ng
am ine
ĠV at
em er
ĠJ i
ĠJ uv
op ia
ĠÃĤ L
Ã´m Ã©t
ct ic
ox ide
Ġ188 7
rid ge
odes hip
ych idae
ĠGir l
ĠJack son
ĠWars aw
ĠPlay Station
ĠMosc ow
ĠVoiv odeship
G ar
H ar
S al
W ill
d u
u j
Ã Ŀ
Ġt á»ĭ
Ġt áº©y
Ġc áº¯m
Ġv iá»ģn
Ġb Ã¹n
Ġn á»įc
Ġnh Å©ng
ĠT á»ĭnh
ĠC amb
ĠÄĲ Ä©a
ĠP C
ĠV áºŃn
ĠV Ã¢y
ĠK untze
ĠA rec
or idae
es p
us ta
ol in
ĠR á»ĵng
ĠJ ung
Ġkho áº»
Ġ7 3
Ġ7 7
ing en
ĠGi Ã¡ng
Ġchu á»Ļng
ard ia
ev a
ass an
200 3
199 8
gh an
ĠSlov enia
ocarp us
ĠHaf linger
C H
M á»Ĺi
s ection
w ick
ĠÄĳ ÃŃnh
Ġm á»ĵ
Ġm Ã©p
Ġtr á»ı
Ġkh Ã¡t
ĠT á»·
Ġng áº¡n
ĠN S
ĠB ir
er on
ĠÄĲ á»ģn
am an
iá»ģ ng
ĠA tt
ĠCh elsea
es k
us hi
ĠKh Ã¡ch
Ch á»ī
ĠAr k
ym ph
end ron
und a
ĠCol ombo
ĠBe at
ĠMon te
anov iÄĩ
ĠVict or
ĠMod el
8 00
9 4
A C
C amp
E E
G u
L ep
O l
T Ã´n
Ġh Ã£n
Ġng áº¯m
ĠH a
Ġx i
ĠM C
ĠK ra
ĠK rym
al o
ĠD á»¥c
Ġkhoa ng
ĠR ai
Ġkhu áº¥t
ĠKh Æ°Æ¡ng
og n
Ġbu á»ĵng
if t
Äĳ áº·c
eb ook
Ġ186 9
Ar aceae
ĠCol le
sen al
ye ong
' .
N T
l ong
m ed
Ġl Ãª
Ġm et
Ġn áº¯ng
Ġs en
Ġph osph
ĠC Ã´n
ĠN ichol
Ġr em
Ġr ub
ĠM ot
ĠP og
ĠV Ã²ng
en berg
ĠA eg
ia z
ĠG DP
ĠR T
it es
et es
em b
ĠF ox
Ġp in
ow ski
ta ch
Ph Ã¡p
ard o
ĠAr ane
ĠLe pt
Ġ189 2
Ġthá»ķ i
Ġ188 8
ect or
ĠEn d
Thu áºŃt
Giá» ĳng
ĠCock er
ĠArane idae
H Ã¬nh
i ens
l ar
Ġt oÃł
Ġh iá»ģn
Ġtr á»įn
Ġd Ä©
ph ine
Ġkh e
qu er
ĠC Ã¡nh
Ġgi áº¥c
Ġr Ã´
ĠM ess
ĠS Ã¹ng
ĠP s
ĠK un
ia d
ĠR a
em en
le b
ĠKh áº£i
Ġ7 00
ĠAn th
Ch rys
iv al
ard i
ym n
ĠPr od
ĠGr ammy
ĠAm ar
ĠEr n
fl ix
ĠCast ile
ĠMiss ouri
icol or
ĠCors air
A th
H iá»ĩp
S Ã¡ng
T Ã¢y
m s
ä ¹
Ġt Ãł
Ġv á»Ļi
Ġth Æ°a
Ġnh iÃªu
Ġd Ã¡n
ĠL iá»ĩt
ĠL Ã£ng
Ġr áºŃm
Ġx Äĥng
ĠS ph
ĠS Ã¡u
in ce
ĠV Ä©
id o
id us
ĠPh Æ°á»£ng
ol oph
os tr
ac ebook
âĢ ¢
op er
ter aceae
ip t
Nh Ã³m
ĠBr omel
ug a
ĠAnd ren
ĠZe us
bour g
ĠAndre w
ĠBromel iaceae
ĠAndren idae
H áº¡t
s ung
t el
u ter
z ur
z ant
æ ĺ
Ġ è
ĠÄĳ iá»ĥu
Ġl Ã¡nh
Ġh Ãłn
Ġn áº¿p
Ġk á»ģ
ph us
an ian
ĠC áºŃn
ĠH end
ĠB iá»ĩn
ĠS M
ĠS id
ĠK al
ĠA br
al z
ang ul
el en
ĠR aj
it is
et e
ĠI v
ĠJ on
ĠJ immy
th Ãłnh
ĠW in
and o
re ak
ot r
ĠKh áº©u
Ġ7 9
ok Ã©m
ĠMar sh
ib le
ĠSch ool
Ġ187 3
ĠCl ark
Ġ184 5
Ġ184 8
der ick
osp erm
iform is
ĠKras n
verg ne
ĠAu vergne
ĠArec aceae
okÃ©m on
D end
F l
H yd
R oll
b ar
k az
m ir
r as
é Ļ
Ġ ì
Ġh it
Ġm áºŃp
Ġk áº¹p
ĠT áº¡p
Ġng Æ¡i
ĠN ev
ĠL iá»ħu
ĠH or
ĠM ang
ar at
ĠP le
ĠTh á»¥c
ĠK i
al um
ae t
Ġkhoa i
et i
om et
ac ill
ap ur
ĠBan k
ri er
ĠSh ow
Ġdá»ĭ u
Ġ/ &
ĠWal t
Le uc
ĠNet flix
ĠJac ob
Ġcac bon
ĠCocker ell
" (
C Ã¢y
C rypt
V Å©
e ens
s i
u ta
y ne
å °
Ġ as
Ġt Ã³m
Ġl áº¯m
Ġh á»ĳ
Ġch Ãºc
Ġs á»§ng
Ġg Ã¢n
Ġng Ã´
Ġqu áº¡t
ĠN at
Ġr á»ĩt
ĠB BC
ĠM ikhail
ĠP ur
ĠK Ã½
ĠTr Ã¬
al em
es el
Ġho Ã¡n
ĠI van
ĠE ast
ĠW ay
op ogon
te ng
ill o
ation s
ĠSch midt
Ã¶ l
Ġ186 6
eth yl
ĠSc ott
ris on
ĠJe ff
Rh Ã´ne
Ps ych
C a
C am
H áºŃu
M es
S tr
m g
n es
r us
Ġc ay
ĠÄĳ áº±ng
Ġl Ã¹ng
Ġh Ã²
Ġh uÃ¢n
Ġd ec
ĠL Ã´
ĠL ie
ch b
ĠM aur
in z
in er
ĠD uyÃªn
ĠPh á»ĳ
ĠQu a
ĠR on
em s
ĠW eb
le igh
ag i
ir i
if r
Ġ189 3
Kh á»Łi
Ġ188 4
An th
St en
Ġsh ow
ĠChrist ian
ÅĦ ski
ĠSz cz
ĠAC LU
ĠJoh ann
ĠJuv entus
' ,
6 00
M Ã¼ll
T a
g á»ĵm
i ella
l am
n ie
o en
s b
Ġ ant
ĠÄĳ iÃªn
Ġkh á»ī
ĠC á»©
ĠC av
Ġvá» Ľt
Ġr oi
ĠM á»ı
ĠTh áº¡c
ĠTh elyp
id s
ĠCh á»¯
ĠPh Ã¹ng
ĠNg á»±
ĠR ang
ĠR iÃªng
it us
um bia
Ġ18 50
ad t
re e
ÄĲ á»Ļng
oc c
Ġp seud
ri um
Ġ13 0
Ġhuy nh
200 2
ĠAle yr
ĠBol ivia
Fran che
ĠHoll ywood
ĠPrad esh
ĠThelyp teridaceae
C omm
H áº§u
I V
O L
Ð ²
Ð ¹
Ġ Ã¡
Ã³ p
Ġng á»¥c
an idae
or p
Ã© g
ol od
ĠX III
oc t
Ã¨ ze
ĠAl f
200 4
Ġ187 4
ipp i
Ġ186 1
Ġ186 2
Ġ186 8
ĠHo áº¡t
ĠAle ks
Ġ184 0
ĠWilliam s
ĠPat rick
thu á»Ļc
ĠKem per
C yrt
E D
I M
L ong
T Æ°Æ¡ng
b u
v i
x Ã£
Ġl áº·n
Ġb Æ¡m
Ġch iÃªn
ĠT á»Ľi
ĠL ife
ĠH av
ĠS ax
Ġ" .
ĠV ill
ĠK a
ĠTr á»¥
ĠD j
Ġngh iá»ĩt
ĠCh Ã¹a
ĠNh Ã¬n
om ar
em e
em an
ĠW arn
ul d
ĠU B
Ġ9 6
Ġf rom
ou k
Ph ong
ĠSt one
ĠAr senal
amb ia
Ġ0 4
ett s
Ġ185 4
att le
ial is
ĠArm enia
ghan istan
B al
D e
H áº£i
I S
M Ã¡y
M ont
N ar
P al
S o
e um
m und
Ä ħ
È Ļ
å ı
ï ¼
áº ¢
ĠÄĳ inh
ĠÄĳ Ã¹a
Ġm á»Ļng
ĠH áº¡nh
Ġgi Ã£
Ġgi Æ°á»Ŀng
Ġgi ang
Ġr á»ĥ
er es
ĠM ord
ĠM aj
at Ã´
Qu a
Qu Ã¡
ĠR ost
ic ornis
ur ch
ÄĲ á»Ļ
ÄĲ Ã´ng
ĠU ng
ĠY ar
Ph áº£n
ug ge
iss ippi
Ġ186 5
Ar t
ĠMad agascar
Ġ183 8
Ġsp ec
ĠKaz imierz
ĠAlexand ria
ĠAt l
ĠFab ian
ĠDani el
ĠRain bow
ĠTeut ons
ĠSzcz ec
E uc
b le
k ur
Ã ĩ
Ġl Ã¡ng
Ġm áº¿n
Ġb o
Ġch iáº¿t
Ġch á»įc
Ġs Ã©t
ph idae
Ġg á»ĳi
Ġkh Ã³c
qu es
ĠN ational
ĠL áº¡i
Ġr ay
ĠM aster
ĠS achsen
ar idae
ĠTh at
ĠD or
id ge
Ġtáº£ o
ĠQu eens
Ġquy áº¿n
re en
oc er
Ġ8 6
Tr uyá»ģn
Ġ11 0
ĠBa h
ĠThu áº§n
ek i
Ġ185 7
arb or
uz ia
zh ia
ĠBy zant
ĠAf ghanistan
ĠPomer anian
ĠÆ¯ á»Ľc
achus etts
A S
E up
m it
u is
Ġc áº¯p
Ġl anh
Ġth ÃŃnh
Ġh ao
Ġm á»ĭ
Ġtr Ã¡n
Ġb áº¯p
Ġg áº£
an ensis
ĠM iá»ģn
ĠP ot
ĠP ict
ai ca
ĠNh i
ĠR uss
os um
et ter
ĠF acebook
ĠW r
ĠW ik
ul u
ĠO x
ĠcÆ¡ m
sk aya
ĠSh ah
ĠPr ov
Kh oáº£ng
yp e
Ġw as
ĠâĢ ĺ
ĠCar r
ĠFre d
ĠWil son
Ġser v
ĠPet ers
ĠSum atra
ĠMass achusetts
Ġkil Ã´mÃ©t
! !
L ind
M á»¹
] .
c ul
Ä Ľ
æ Ŀ
Ġt áº¡
Ġc Ãµi
Ġnh Æ°á»Ŀng
ĠT ed
ĠC Æ°
Ġx Ãł
ĠS iberia
en o
ĠCh áº³ng
ol is
ĠR áº¯n
os ia
ĠF isch
ak uya
Tr anh
ab le
ĠAn na
ow ell
ik o
Ġvá»ĩ t
uc ci
ep p
ue z
ys s
Ġ184 9
ĠCol umbia
ĠTam il
ons in
ole on
ĠBor is
ĠPomer ania
Ġenz yme
c er
d am
z io
z ania
à ¹
Ġc omm
Ġl á»ģ
Ġm od
Ġm á»ıi
Ġb Ã¬
Ġn eu
Ġs um
Ġd áºŃp
Ġd á»įn
Ġd iá»ħu
Ġkh an
ĠC áºŃu
ĠC á»±u
ĠN ot
Ġgi Ãły
Ġr á»±c
Ġr á»¥ng
ĠÄĲ Ã£
ĠÄĲ áº¯k
ĠV III
ĠD Æ¡i
ĠÃ ī
ĠR ica
ĠJ ersey
ot ep
ÄĲ á»ĵng
ĠY á»ĥm
ĠGi oan
ab e
ip er
ra ham
ĠLe Ã³n
ah ara
oph agus
Ġ0 6
ĠCal c
Ġgh Ã©
ĠJohn son
Ġ185 1
tern et
ĠMi G
B Ã¬nh
H á»ĵ
H ook
L Ãºc
M or
O H
c Ã´ng
c al
c ast
g ia
n aceae
p op
r Ã´
s ud
v ed
Ä Ļ
Ñ ĥ
Ġl á»Ļt
Ġh Æ°Æ¡u
Ġtr uáº¥t
Ġb Ã¡u
Ġn Ã´n
Ġch Ã¹m
Ġnh Æ°á»£c
ĠN GC
ĠB Ã¡n
ĠB ut
ĠÄĲ á»ĵ
ĠS om
ĠP y
ĠP op
ĠTh Ãºy
ai g
ĠTr áº»
or f
or h
á»Ń u
el is
ĠNg Æ°á»£c
ic ulata
ĠW isc
ĠKh á»Łi
od ar
od endron
Ġ8 2
Ġp ro
ec ta
Ġf ul
ta h
ok a
Ġin d
ĠGr uzia
ĠPhil atÃ´
ĠAnd r
Ġ184 1
oth er
omm e
ĠSl am
ĠhoÃł nh
ĠChampions hip
Ġxo Ã¡y
dor f
ĠLud wig
ĠKav kaz
A k
A ng
B áº¯c
G al
N H
O C
T Æ°
W e
h ara
t áº¡m
ä »
å Į
Ġ au
Ġc ap
ĠÄĳ am
Ġm ar
Ġtr Æ°a
Ġtr Ã¹m
Ġb iáº¿m
Ġch ay
Ġs il
Ġd á»ĳi
Ġg áº¯t
Ġkh á»ĳng
ĠC áº¥p
ĠL iÃªm
ĠL ittle
al y
ĠD ay
or bia
ĠG all
ĠCh ris
is i
at em
ĠNg Ã£
et z
um er
ĠF all
ĠJ ason
ad r
ĠW ang
Ġ7 4
Ġ8 1
Ġp ul
ĠY our
ap est
ĠÄĳo an
yr us
ĠHer bert
enz a
ĠGre g
Ġel ip
ĠTor tr
ĠBeat les
ĠWisc onsin
H e
H am
K ing
O h
P t
s el
t ambon
y che
Ġ á»ĵn
Ġ end
Ġt Ãª
ĠÄĳ ao
Ġth iáº¿p
Ġb Ã´i
Ġch Ã¡n
Ġnh Ã´m
ĠT i
Ġqu áº¥y
ĠN ord
Ġr á»Ĺng
Ġx áº£
Ġx Ã´i
ĠB áº¯t
ĠÄĲ á»Ļt
ĠS ev
in son
ĠK om
ĠTr Ãºc
ĠD Æ°
ĠD ae
ĠG áº·m
id i
ĠCh ing
Qu áº£ng
ic ollis
it ion
ĠJ r
Ġy á»ĥm
oc o
ra w
Ġ0 2
200 1
ĠGu ad
ĠAp p
ĠBro ok
ĠÅ ŀ
ĠFre derick
ĠEng l
ĠÄĳá»¥ c
ĠTiber ium
aes ar
edon ÃŃa
ĠCount y
B o
D ys
F r
M áº·t
M ad
N Æ°á»Ľc
T iáº¿p
V Æ°á»Ŀn
r idae
y ath
Å Ľ
Ġ Ãºt
Ġc ol
nh am
Ġl áºŃu
Ġl Æ°á»£n
Ġn áº¡
Ġn á»ĵi
Ġk áº¹t
Ġnh áº«n
Ġnh á»¥y
Ġd áº¡i
ĠT at
ĠT un
Ġng u
ĠL ar
ĠL au
ĠH ab
ĠB á»©c
ĠB ou
ĠM en
ĠÄĲ á»ĭch
ĠS ay
oa c
ĠP au
en ne
ia e
ia go
ĠG áº§n
ĠG or
ĠG ard
ĠR ud
ĠR af
om us
ĠJ ong
Ġ8 3
ig ma
ĠGi Ã¡c
Ã¨ s
ut i
ĠÄĳáº¿ m
ĠCu á»ĳn
ĠVi et
ĠDiv ine
erus alem
Ġgr ac
ĠPu erto
ĠBud apest
ĠZaporizh zhia
A SA
E M
G a
H ÄĲ
M e
V iá»ĩn
r et
u f
u ise
Ġ aur
Ġt own
Ġv it
Ġth áº¡c
Ġm ini
Ġb áºŃn
Ġn uc
Ġk iá»ģm
ĠT áº¯c
ĠT iger
ĠH áº±ng
ĠH uáº¥n
ĠM ol
ĠS ihan
ĠTh Ã´i
ĠV TV
ĠK os
ĠTr in
ĠD a
Ġngh iá»ĩn
id ad
Ġlá» ¡
ĠR oss
ĠF le
ĠJ er
Th anh
op t
ĠX ÃŃch
ul aceae
ul aris
re p
Ġ7 1
Ġ7 8
ip s
Ġbu Ã½t
Ġdi esel
ah n
ex t
ug uay
ass au
ĠAs h
iá»ħ m
Ġ186 3
In d
pha er
ĠEur opa
ĠAT P
thi opia
" |
H u
H em
M er
P I
S D
S e
S il
S yn
f urt
l is
n us
s ol
y on
y te
Ġ und
á» ¨ng
Ġh oÃłi
Ġk ÃŃ
Ġkh iáº¿p
ĠT ÃŃch
ĠC ir
ĠM iÃªn
ĠS n
ĠTh áº£o
ĠTr Ã¹
or ro
as k
á»£ n
om in
ad elph
th es
op oda
ĠX II
ĠKh ÃŃ
ing le
te a
tu áº§n
15 2
ĠBo iss
ID E
ĠÅ Į
Ngh iÃªn
On th
Ġâ ĪĴ
å¤ §
ĠMoh amm
ĠPog ba
ĠUB ND
ĠSihan ouk
E le
M a
O p
S en
c ell
m l
Ġch Ãªnh
ĠC á»ĳt
ĠL áº¡ng
ĠL Ã£o
Ġr ec
Ġx inh
ĠB orn
ĠB urg
ĠB ull
ĠM á»ĵ
ĠM itt
ĠS áº£n
in ch
ar u
ĠP ra
ĠK á»µ
ĠD áº§u
ĠD al
ĠD og
ĠD eb
ur ai
um an
Ġxu Ã´i
âĢ ĺ
od y
Ġvá»¥ n
Ġ8 4
Ġ9 9
av er
Ġcá»Ń u
19 75
ta ff
yl on
ara on
Ġ187 2
ham rock
ĠUkra ine
ĠCarl os
ĠTan zania
ĠOb ama
ĠNhu áºŃn
ĠPart y
L C
M iÃªu
R ed
T á»©
j ect
k ins
y na
z awa
Ġm al
Ġb á»ĥ
Ġn á»©t
Ġkh Ã©o
ĠH áº¡ng
ĠH ond
Ġr Ã¡p
Ġr Æ°á»¡i
Ġr Ã£nh
ĠB le
ĠB uck
ĠM agn
ĠÄĲ ÃŃch
ĠÄĲ Ãłm
ĠS ier
ar th
ĠP ierre
ĠCh iÃªm
ol ia
ic ago
ac ea
ĠF i
ĠKh Ã¡ng
ak ov
ĠY oung
ap a
ro th
ent in
Ġ17 53
aw i
ah l
Ġin ter
ĠCon stantin
Ã´m e
Ã¶ y
ĠvÃ² i
Ġ184 2
Ġ185 6
Ġ183 6
Ġprot on
ĠXV I
ĠNet work
ĠBry aceae
Euph orbia
rai on
ĠMarsh all
ĠMord ellidae
ĠSzczec in
B ol
C an
D av
D own
I t
h r
r ot
r od
Ġc á»Ľ
Ġth iÃªu
Ġch ai
Ġch Ã©o
Ġg Ã¬n
Ġng áº·t
Ġng Ãµ
ĠC orn
ĠL ive
ĠH ong
ĠH un
ĠH oan
Ġx Ã´ng
ĠB oa
ĠS ÃŃp
am on
ĠV á»įng
ĠK aw
en idae
Ġthu Ã´n
ĠTr e
ĠTr áº¡m
ang er
ĠD á»¥
ĠD aw
ĠCh art
ĠPh u
ĠR ose
as u
om i
om um
ĠI ng
ĠE thiopia
ĠJ erusalem
ĠKh ark
ov ina
ow o
ian t
up p
etr agn
ĠMan ila
ham mad
ĠWh it
Bl ack
Ð¾Ð ²
ĠSoc orro
ĠByzant ine
Onth ophagus
B ur
C áº¥u
J e
M c
V á»¥
f eld
g io
w on
z i
å ·
é ĥ
Ġt e
Ġc áº¥y
Ġth áº¡o
Ġb áº§y
Ġd á»ĵn
á»ĳ p
ĠT uyá»ģn
an ne
ĠN AT
ĠH ann
Ġr á»¡
ĠM ans
ar iaceae
ĠP yr
ĠTh Ã¹y
ĠV s
ĠK ent
ĠTr ans
al idae
ĠD ong
ĠD ur
or ius
ĠQu áº¿
as o
as is
ĠX anh
oc al
ro und
ow icz
ĠThu á»ĳc
Kh ÃŃ
iss a
ĠKhu Ãª
Ac anth
ngh Ä©a
ĠColl etidae
ÃĤ m
ĠStand l
ĠNep al
ĠArk ansas
C ast
D Ã¹
M ich
V ideo
b ul
m áº¥t
z illa
å ¾
Ġ ao
Ġt oa
Ġl á»±u
Ġh Ã´ng
Ġm e
Ġm Ã¡
Ġnh ai
Ġg ay
ĠT od
ĠN Ãł
ĠL Æ°á»¡ng
ĠH assan
Ġr et
ĠM ike
ĠS Ã¡t
in ella
ar ov
ĠP il
ĠTh or
ĠTh Ãªm
ĠA M
ĠA ilee
al le
or is
ĠCh ann
el in
ĠR ico
it idae
Ġ18 30
ĠE mm
Th áº§n
ĠX Ã¢y
ed d
ĠGi áº¥y
ip edia
Ph yll
sk Ã½
uc c
ĠBr oad
az e
ib a
ĠPr inc
ĠSp ort
Al bum
ien ce
]] ,
ĠChamp ion
Ð¸ Ñ
ĠXI V
ĠMak edonÃŃa
ĠMax im
nik ov
ĠAmer ican
ĠHind u
ĠHarv ard
ĠColle ge
B inh
H ier
L V
L i
P S
U SS
f alz
o j
t Ã´
y k
Ġ ),
Ġv ir
Ġb áº¡
Ġb Ãłnh
Ġnh an
Ġkh iáº¿u
Ġng Ã¢m
ĠC ard
ĠN ol
ĠN áºŃm
ĠL ig
ĠH ilbert
ch ar
ĠM TV
ĠS A
ĠTh ung
ĠTr Ã¹ng
ĠD uyá»ĩt
ĠG R
ĠCh iá»ģu
Ã© es
ur as
Ġquy Ãªn
ĠF ar
ĠJ uan
ĠW olf
ĠO le
ov el
ig i
Ġp iston
Ġ9 4
ab ilis
og ai
ĠAl ice
uk u
opter is
Ġtho áº£i
Ġ185 8
ĠSal v
ĠSe ine
ĠUy Ãªn
ĠUr uguay
ĠNap oli
Pl at
Ġle uc
Ġang ust
ĠHyp naceae
ĠLyc osidae
A ran
B áº¯t
D icran
L áº§n
M á»¥c
Q uy
T R
T iá»ģn
c r
e ing
g es
l ia
m ont
v Ã¬
v is
v es
Ġ arg
Ġl oa
Ġth áº¥m
Ġb eta
Ġnh á»¥c
ĠH áº¯c
Ġr áº¯c
ĠB illboard
er y
ĠM Ã¡c
ĠM áº«n
ĠM ach
ai k
en ta
ĠTr Ã¬nh
or r
ĠNg Ãłi
um arin
hi ng
ĠJ ane
th us
ag u
ĠO S
ill us
ut sk
ev al
ah o
Ġcá»¥ t
ĠPr es
ĠGr acill
ĠThá»ĭ t
199 6
ifol ius
ĠGre at
ĠTok o
eck er
ĠOp en
ĠMark ov
gor od
ather ine
ĠVerd un
ĠPict ures
Ġneu tron
ĠGracill ariidae
E S
I d
K iáº¿n
T uá»ķi
b in
b it
v ent
Ï Ĥ
Ø §
æ °
æ Ń
Ġc yan
Ġm Ã¡c
Ġm or
Ġm Ã¹ng
Ġb áº«y
Ġn i
Ġd im
ph Ã¡t
Ġg iá»ģng
Ġkh á»ĳc
ĠC aesar
ĠN Æ¡i
ĠL az
ĠH ein
ĠM Ãłu
ĠM ind
ĠM ain
ĠÄĲ áº¯c
in ensis
ĠP ad
ĠV ar
ĠK elly
ĠD un
ĠD ec
ĠG uy
ĠG on
ĠCh Ã³
ĠCh ang
ĠPh Æ°á»Ŀng
os oma
om en
ĠF our
ĠF IDE
Th á»±c
ot es
ot ria
ag os
Ġkho Ã¡c
oc era
Ġ8 9
Ġp ubl
Ġ9 8
ĠLan e
ap on
iv ir
ĠLe je
ri x
Ġ0 3
ĠPhil adelph
Ġvu á»ĳt
Ġ184 4
sp an
ĠUr b
ĠMel oidae
une aceae
ĠAug ust
omat idae
ĠAmar yll
Psych otria
ĠFisch er
ĠLeje uneaceae
C oll
C ten
D ipl
G M
G on
M us
M art
P yr
Q H
S uper
u á»ĳt
á Ģ
å ľ
Ġ en
Ġc áº¡o
ĠÄĳ un
Ġm agn
Ġn ang
Ġs hamrock
Ġnh á»ĳt
ĠT ime
ĠT ake
Ġph ao
ĠN od
ĠH art
er ing
ĠM á»įi
ĠM st
ĠP Ã©
ĠP teridaceae
ĠTh oáº¡i
au lt
ĠTr anh
ang ay
ĠD icran
at ed
ĠR ub
ur al
ĠI b
ĠF ul
ĠW it
ĠX e
Ġkho Ã¡
Ġ10 1
ĠY áº¿n
ion al
ĠSau l
og na
yl and
Nh áºŃn
ĠBr ugge
ant i
Ġin ternet
oph ylla
ĠDo Ã£n
ĠNew s
ont idae
ect us
ĠStr au
len iaceae
Gr ay
Tip ula
Ġnig r
ĠAsp leniaceae
ĠSud an
ĠCand Ã¨ze
áº¢ nh
ĠDicran aceae
" ".
D u
H O
N G
S ar
T u
T Ã²a
c ens
e il
e ed
m oud
v iáº¿t
w art
w ald
y u
Ġ *
Ġ 00
Ġt Ãºng
ĠÄĳ áº«m
Ġl á»ĵi
Ġm Äĥng
Ġm áº»
Ġch Ã¬
Ġg áº¥u
Ġg Ã³a
ĠT Ã½
ĠL inn
ĠH á»ĵn
ĠH MS
Ġr á»ī
ch ÃŃnh
er l
ĠM Ã¢n
ĠS v
ĠS ound
Ġ( ).
Æ°Æ¡ m
ĠD á»±a
ĠG a
ĠCh im
ĠCh iáº¿u
es a
im i
Ġho áº¡
Ġcu r
ĠI z
Ġ4 50
ĠW ol
Th á»§
ag alus
Ġ8 7
Tr Ã²
ro x
Ch á»©c
ĠAl aska
ev in
ĠBr ad
ist ol
ĠSch les
ett o
ĠRom e
Ġthá»¥ c
Ġ185 3
inc l
ĠAng ola
ĠEr ic
ĠCam ero
ĠMu hammad
erd in
Ġgr and
ĠCap e
ĠbÃ³ p
åħ ¬
ascia ta
ãĢ į
ĠMarc os
Astr agalus
atem ala
ĠAmaryll idaceae
' t
? ?
A F
H á»įc
N ot
P o
S er
S am
T Ãłi
g á»įi
| |
Ġl ip
Ġh e
Ġb á»Ļc
Ġb áº¥m
ĠT y
ĠT Ã¡i
ĠT ud
Ġph o
ĠC á»Ŀ
ĠL ady
Ġr e
ĠB á»ĵng
ĠM yrm
ĠS yst
in al
ĠP ass
ĠK um
ĠK och
Ġsá»ĳ c
ĠCh á»©c
ĠNg Æ°
im ation
ĠNh áºŃn
ic ta
et ia
ĠI U
um ber
em o
th áº¿
Th Æ°Æ¡ng
âĢ ľ
ĠKh Ã¡c
ĠU N
ir ac
tr Ãºc
tr ich
ig m
Ġ9 1
ab lan
ro yo
st it
ev o
ĠCr uise
ĠFran z
199 4
burg h
ish ima
Ġ183 9
isc us
Giá» ¯a
ĠVol ga
Car ex
ĠBy akuya
ĠMiss issippi
ĠSir ik
ĠLev i
giá» Ŀ
ĠKenn edy
oca ine
ĠYar oslav
Aran eus
ĠMst islav
B Ã¡n
D ia
H en
M as
T uyáº¿n
U r
b o
s an
u il
u te
w ays
ç ļ
Ġ á»ĳm
ĠÄĳ á»ĳng
ĠÄĳ áº¯ng
Ġl en
Ġm Ãło
Ġm á»ĩt
Ġb all
Ġb rom
ph an
Ġg Ã²
Ġph iá»ģn
ĠN iÃªn
ĠN ow
ĠH ed
ĠH ok
ĠH á»©a
Ġr h
ĠM ob
ĠM eck
ĠÄĲ Ã¡n
on o
ĠP ers
ĠTh erid
ĠV il
ĠK ey
ĠA ch
at ani
ĠNg á»±a
ĠR ep
ic ata
ĠnÃ³ c
ĠF ort
ĠF air
ĠJ u
ĠJ ae
ĠX á»©
re et
ĠKh Ãºc
ÄĲ iá»ĥm
ĠO t
ab i
ĠAn k
Ch a
ie g
ill y
Ph Ã²ng
sk o
Äĳ á»ĥ
est es
enn ess
ĠGu atemala
Ġ185 2
Ġ183 7
Ġrad io
ĠCent re
des ivir
Ġlog ic
Mu ell
Tok yo
ĠGreg ory
ablan ca
ĠTherid iidae
? )
A f
B áº¥t
K r
c Ã¹ng
m el
t es
w i
y es
Ġv iá»ĩt
Ġm anh
Ġb áº¿
Ġb ass
Ġk áº¹o
Ġs em
Ġs ulf
Ġr áº¡c
ĠB iá»ĥu
ĠB á»Ńu
ĠM á»Ļng
ĠM á»Ľi
ĠÄĲ á»īnh
ĠTh áºŃt
ĠK iá»ĩt
ĠG il
ĠCh an
ĠCh Ãºc
at su
ĠNh iá»ĩm
ĠR ic
as y
Ġ18 24
ot sky
ĠY uri
ell es
Ch Ãº
ub an
Ġto ur
uk ov
oll o
ĠBl u
anth es
ĠBar o
tt o
ĠSp ar
ĠIs hi
ĠKr ak
ĠGiá» ¯a
ĠBo eing
ĠInd iana
ĠJun ior
ĠDom in
ĠEsp orts
ĠRog er
Ġmel an
Ġmá»ĭ n
ĠStrau ÃŁ
ĠSchles wig
7 00
C Ã¡i
D á»±
D es
D ol
D Ã²ng
S a
h an
k ok
w oo
å Ľ
Ġt ÃŃa
Ġl áºŃn
Ġm Ãłi
Ġm eg
Ġb rach
Ġd áº¹t
Ġkh iÃªn
Ġkh inh
an ag
ĠL eop
ĠH á»Ĺ
Ġr eg
ĠS U
ĠS á»©c
ĠS ard
ĠP in
en os
ĠCh rome
el ey
at in
ĠR aven
ĠnhÃł ng
Ġ3 000
os er
ĠnÃ³ n
ĠE P
ĠphÃŃ m
ÄĲ Ãłi
ÄĲ áº¡o
od or
oc eridae
ĠY Ãªu
av i
20 22
Ġf orm
og o
ou ch
ent o
ĠNgh iÃªm
ib ia
ath an
ĠCu á»ĵng
ĠLu er
ris h
ÂłÂł Âł
ĠOl iv
ĠLat via
ele ontidae
ĠHand anoviÄĩ
ysh nikov
ĠQueens land
ĠMyrm eleontidae
C ycl
E ri
H á»ĵng
K ir
L am
L yc
P ap
T Ã¢n
c Ã¡ch
f ound
g n
g round
k hi
l yn
m es
Ù Ħ
á ¹
nh Æ°ng
Ġb e
Ġb eg
Ġnh a
Ġd á»«a
ĠT ar
ĠC anth
ĠN eg
ĠN ied
ĠL as
ĠH ans
Ġr áº¡ch
Ġx Ã´
ĠÄĳá» Ľn
ĠB Ãłnh
ĠB á»Ļi
ĠB art
ĠS or
ĠTh o
ĠTh iá»ĥm
ĠTr á»±c
ĠG e
id ens
id ea
ĠCh Ã©n
el er
at ter
il um
ur d
om on
Ġcon c
ĠJ ima
ter a
un ic
ĠKh áº£o
Tr iá»ģu
ich o
ens tein
ob al
if ic
ĠBr uch
Äĳ iá»ģu
ĠSh e
eb ec
est ival
Ã¼ k
yd ney
itt y
ĠBe ach
ĠHar rison
ĠAb d
ĠMich igan
ĠDon ald
Sc op
ĠLin ux
je un
isp a
ĠPort man
ĠHaw k
ĠHug h
ĠWars zawa
ĠAnton io
ĠMun ich
ĠCop el
ĠÃį t
ĠEver ton
ĠProd uct
ĠTud or
ĠCanth aridae
% ).
: /
B le
H er
H ab
M in
S M
S em
b i
b ack
t y
v ar
w er
z en
z ew
å ±
Ġt áº¿t
ĠÄĳ Ã¨o
ĠÄĳ áº·n
ĠÄĳ uá»ĳi
Ġl uyáº¿n
Ġh Äĥng
Ġm Ãµm
Ġb Ãº
Ġs et
Ġg áº¥m
ĠT O
ĠT ol
ĠT Ã¡n
ĠC anh
ĠN K
Ġr Å©
Ġr Ã²ng
ĠB i
ĠB il
ĠB á»Ŀ
ĠB ran
ĠM end
ĠÄĲ Ãłn
ĠS im
ĠS áº¯c
ĠS EA
ĠV oi
au st
ia ta
ĠD áº§n
ĠD iá»ĩn
ĠD ol
ĠG á»«ng
ĠG Ã¶
ĠCh urch
at hi
im al
Ġlá» «ng
il o
ĠR áº¥t
ĠR au
ĠR á»«ng
ĠE p
ad os
un ion
ĠU á»·
ĠU tt
ĠGi áº£n
Ġ12 5
ĠLan c
ry um
st ed
ĠMar io
ĠAr royo
all us
Ġ14 0
Äĳ á»ĵng
Ġin s
Ġ184 3
ops ychidae
rad or
ĠSte in
ĠSte ve
ĠBer g
aus s
As teraceae
lad esh
ren ce
ĠÅ ģ
Ġst ud
ĠOtt o
Ġpar v
Mic r
Co el
Ñģ Ðº
otrich aceae
ĠOd essa
ĠPap ua
ĠAleks andr
Nar uto
ĠHond uras
enness ee
D D
L asi
P hi
R I
R ich
S Ã¡ch
k t
l aw
w ich
y i
Â ·
Ã ī
á ŀ
Ġt áº·c
Ġh ir
Ġch Æ°á»Ľc
Ġch á»Ľp
Ġk Ã¨
Ãª ng
Ġd r
an na
qu a
ch áº³ng
ĠB Ãłng
ĠB and
ĠS ub
ĠS eg
ĠS omme
ĠP or
ĠTh uyáº¿t
en ol
ĠTr iáº¿t
ĠD inh
Ġngh Ãªnh
ĠG M
ĠG yeong
eo g
et sk
ĠF u
ĠF un
ĠF erdin
ĠJ in
th al
ĠW itt
re ct
ĠKh Ã¢m
Ġ7 47
ov inam
ing idae
Ġ9 3
ell ul
ĠAn ne
ap l
ill es
ĠAr d
Nh Æ°ng
amb a
ach i
ĠGr en
ĠCon quer
ary a
ĠSer b
ĠCl ass
ĠFran ce
att an
Ã©n Ã©es
ons o
len burg
ĠNap oleon
Äį iÄĩ
ĠMer c
ĠAc ad
opol is
UB G
ĠHoÃł nh
åŃ Ĳ
ĠKol ar
ĠGab ri
apar te
ĠRT SP
ĠWik ipedia
ĠTortr icidae
ĠPhiladelph ia
, âĢ¦
B Ã¡o
B iá»ĥu
G en
G hi
L á»Ŀi
N U
S y
T hi
T Ã³m
n al
n om
p a
r u
æ Ī
Ġv ar
Ġh á»Ł
Ġh yp
Ġm ont
Ġtr á»ħ
Ġb áº¹
Ġch Ã©n
Ġk ali
Ġnh Ã¡t
ĠT Åį
ĠT ennessee
Ġng á»¥y
Ġng Æ°Æ¡i
Ġ1 19
ĠN Ã´m
ĠL il
ĠL á»Ŀi
Ġx ÃŃ
ĠB Ã©
ĠB og
ĠS und
ĠS hip
am oto
ĠP P
ĠP el
ĠK ash
ĠK Ãªnh
ĠG S
ĠCh uyÃªn
ĠCh icago
ĠNg Æ°u
ĠNg uá»ĵn
Ġ3 60
os ev
ĠJ ay
le v
tr o
tr op
oc aul
ion i
ie c
ra in
ĠZ ach
eb ast
oph on
man uel
Ġ0 7
Ġ0 9
iz ation
Kh Ã¡i
iss ima
ĠBl an
ĠFran co
ei j
St ar
Ġ184 6
yll um
ĠPhilipp os
ĠOr igin
ĠAb b
aus en
ais er
ĠSam uel
ĠBang ladesh
ĠNik e
orus sia
ĠCarol ine
ĠGen eral
ĠSant iago
ĠLib ya
ĠHay es
ĠShar aku
oceph alus
ĠArn old
Mo ore
osaur us
ĠCamero on
ĠMeck lenburg
C á»ĳt
F re
L ove
L oire
M E
N á»¯
N assau
P or
T ur
b b
f ort
m o
m y
à ½
å İ
ç Ķ
Ġl ive
Ġm au
Ġn ung
Ġs áº§u
Ġs Ã²
Ġnh Ã£
Ġg Ãµ
Ġkh Ã´n
Ġph áº£
Ġph áº«n
ĠC E
ĠC ur
ĠC á»«u
ĠC IA
ĠL is
ĠL á»ĩnh
Ġx ay
ĠB est
ĠM anh
ĠM iáº¿u
ĠM Ã³n
on is
ĠP ost
ĠTh á»¥
ĠTh Æ°á»Ľc
ĠTh áºŃm
ĠV Ãłi
al ensis
Ġkhi Ãªm
ĠR et
ĠR ev
ĠR oll
ĠE rich
Th á»©c
Ġkho an
ĠO h
ĠU K
Ġhá»ĩ t
ed es
Ġp H
Ġp unct
st adt
ĠAl i
ut an
Ġdi oxide
yc lin
och i
Gi Ã¡m
ork s
An dr
ĠGu am
199 1
199 2
ĠUS S
ĠBe ng
act aceae
ĠTim or
Ngh á»ĩ
ĠVirg in
ĠFrank furt
ĠMo ore
ĠRay mond
Ġngo áº·t
ĠAss oc
ĠCham ber
ĠHab sburg
ĠChann el
jeun ea
E ug
H al
H ow
H omo
L Ãłng
N o
s ite
u ensis
v á»ģ
z b
Å ¼
Ï ģ
Ð ¼
Ġ aus
Ġt áº©m
ĠÄĳ Ãª
Ġs Ã¢m
Ġg ran
ĠC Ãłn
Ġhá»į ng
ĠL Ã¢n
ĠL Ã²
ĠL aur
Ġr Ã¢u
ĠB áº§u
ĠM az
ĠS ov
ĠTh ai
ĠV ai
ĠV ic
ĠK as
ĠA U
ĠD er
ĠD iam
is co
ĠNh Ã£
ĠNh am
ĠR es
ĠR em
ĠR oan
Ġ3 50
ac km
ĠE A
ĠF eder
th y
ĠW ien
". "
ÄĲ áº£ng
Ġkho áº£nh
ĠO g
ĠO z
ĠU m
tr á»«
Tr ang
Ġp oly
Ġ9 00
ro qu
ut ch
yl us
Nh áº¡c
ĠSh Åį
iz e
ĠCr im
ess en
ĠHy dr
ĠChu á»Ļt
la ph
uch i
ann i
199 7
Ġ185 5
ĠBe au
ĠWal ker
âĢĿ ,
ĠPal omar
ĠNor man
ĠAth ens
ĠSteph en
ĠJosÃ© phine
Ġrap per
Lu áºŃt
ĠPed ro
ĠSier ra
A ustr
C C
C á»Ļng
D F
H Ã¡n
V A
V N
h ai
m us
p id
x i
Î ¿
Ġc á»Łi
ĠÄ °
Ġv áº§n
Ġl au
Ġl Äĥn
Ġm i
Ġn Ãłn
Ġnh á»ĵi
Ġg á»Ļp
Ġkh Ã¢u
Ġkh Ã©p
ĠT al
ĠC ab
ĠC actaceae
ÃŃ o
ĠH eg
Ġr Æ°á»Ľc
ĠB ac
er mann
ĠM S
ĠM ez
ĠS I
ĠS ul
Æ°á»Ľ u
ĠV or
ĠV el
ĠV ers
ĠV illa
au er
al ore
ĠD mit
id el
á»Ń ng
ae c
is idae
Ġgiá» ¥
at ive
ĠR id
it te
ĠI tto
ĠJ im
ot am
ag al
ĠO ld
ir on
tr y
tr am
ig u
ĠGi use
Ch uyá»ĥn
Ġf eet
ry p
ĠMar ÃŃa
ĠLe yte
ord e
ĠGr ay
oy a
ix on
ĠCol or
199 0
199 5
iel s
ĠHer o
ĠGiá» Ŀ
enz o
ĠDav is
ĠHen ri
yph a
TV QH
eph al
ĠTur k
ĠThom isidae
ĠMah moud
ĠGeorg ia
ĠLab rador
ĠMarx ist
opp a
ĠBon aparte
otte nham
ĠBoh emia
ĠDan ube
ĠUnivers ity
ĠRod r
endr um
ĠSic ilia
ĠIw o
ĠAeg is
ĠViet nam
found land
' m
) ",
A P
B ay
E ur
F F
G eor
G ymn
K ar
M áº«u
P an
P aul
R P
R om
S ph
S ang
T Ãłu
T á»·
b ox
c le
d ale
m áº·c
v ens
Ã «
å ¹
Ġ Æ
Ġth oi
Ġb áº»
Ġb Ã³n
Ġg á»¥c
an lÄ±
ĠC ass
ĠC entr
ĠC CD
ĠN áº·c
ĠN ASA
Ġr Ã¨n
ĠB uá»ķi
Ġ2 20
ĠÄĲ oan
ĠS uz
ĠS ultan
ĠP ie
ĠV eg
ĠV ovinam
al yp
ĠG DI
ĠPh áº£n
ĠPh Ãłm
us ter
ĠNh iá»ĩt
ol ine
ĠR oad
ĠR chb
ur ia
ac y
Ġ18 00
Ġ18 34
ĠJ ustin
ĠW imb
Th Æ°á»£ng
ÄĲ Ã³n
Ch áº¿
ĠBr ian
Äĳ á»ı
eg ovina
ug awa
ĠNew foundland
Gi Ã¡
eth e
An t
ond er
Ġ183 2
agn er
len ium
ĠTor ino
ĠTo áº£n
UB TVQH
ĠPav el
ĠNikol ai
æĸ ĩ
Gar onne
ĠHydr opsychidae
Ġgiá»¥ c
B iáº¿n
B rach
E d
T el
V áºŃn
] ,
h iá»ĩn
i ent
k ai
n s
t á»±
w ana
z ig
ä ½
Ġ ol
Ġv á»±ng
Ġl á»Ļc
Ġm ult
Ġtr ans
Ġn an
Ġch Ãły
Ġs al
Ġg áº¡t
ĠT ung
ĠT á»įa
Ġph Ã¡c
ĠN ick
Ġr ung
Ġx Ã¢u
ĠB ia
ĠM Ä©
ĠM ons
ĠÄĲ Ã¡
ĠÄĲ oáº¡n
ĠS Æ¡
ar re
ĠP ac
ĠV H
en cia
ĠA j
ĠA FC
ĠTr áº¡i
ĠTr áº¯ng
ĠD um
ĠPh ao
ĠPh á»ĵn
at ia
im et
ĠÃ ĸ
ĠNh Ã¢m
ĠI X
ac ium
ĠJ ar
ĠW W
ĠX uáº¥t
ĠKh iáº¿t
ĠU d
Ġp ur
ab ad
Ng oáº¡i
ap s
ap ura
Ġf ile
ĠAl an
ud d
Ġ16 0
ex ter
eb u
est idae
iz z
ĠNew ton
ĠMÃ£ ng
ess e
kh am
Ġw h
ĠAm y
sh Å«
ĠFran Ã§
ĠAnd erson
lan ta
In v
ĠHe art
Ac acia
ĠBang alore
ĠWil d
ĠBos na
ĠTo Ã¡n
erid ion
ĠNak atani
ĠLaw rence
ithec ia
ĠLomb ardia
esk Ã½
ĠPra ha
ellul ose
ĠManh attan
ackm ore
1 50
A lex
C áº£
C at
H a
H o
H y
M Ãłu
S ol
c an
d is
f in
l at
r ik
t ÃŃnh
v Ãło
y ac
Ġ art
İ le
Ġt Æ°á»Ľi
Ġl ae
Ġl ine
Ġl iÃªng
Ġth áº§m
Ġtr o
Ġn anh
Ġn iÃªm
Ġk g
Ġs Ãªn
Ġg iáº¿ng
ĠT á»©c
ĠT uÃ¢n
qu y
ĠL um
ĠH il
Ġr Äĥm
ĠM em
ĠM iy
ĠM Ã¼n
ĠS á»©
ĠS Ã£o
ĠS int
ĠS ydney
ĠP it
ĠTh Ãºc
al aceae
ĠD áº¡ng
or ne
ĠNg Ã´n
Ã© b
Ã© l
á»£ t
om ys
Ġ18 10
Ġ18 25
). ..
ĠW ater
Th iáº¿u
le d
ak o
ĠO ch
ĠO ut
Tr iá»ĩu
Ng Ã´
Ch áº¥t
Ch im
ill er
og y
ob r
st en
ĠMar ino
ĠAl am
ach ile
ym us
son s
ox in
Ġnhu á»ĩ
ĠUn ion
Ġpr op
ĠAd am
ãĥ ³
As s
Ġ180 2
ĠMa ine
ĠChrist oph
gl uc
emis ia
ĠNav Ã¡s
Asp lenium
Meg achile
Ġthá»ģ m
akar ta
ĠRhein land
Eup ithecia
ĠProv ence
ĠVs ev
Hier acium
:/ /
C le
L es
L Ãłm
M L
P eter
W il
l b
t áº¡i
w orth
Å º
Ð ´
å º
Ġ ae
Ġ ov
ĵ ng
Ġt iá»ĩm
Ġc Ã¢m
Ġn á»Ļ
Ġs am
Ġs á»¹
Ġd á»Ł
ph oe
ĠT em
ĠT ab
Ġph Ã´
Äĥ k
Æ¡ ng
ĠN ay
ĠL áº¯k
ĠÄĳá» «ng
ĠB ung
ĠB arn
ĠB erm
ĠB ald
ĠM Ãª
ĠM á»©c
ĠM ys
ĠS us
on ic
on na
ĠTh á»©c
ĠK iá»ĩn
ĠA ct
ĠD ai
eo t
ĠR um
os is
em ma
em berg
Ġ18 26
Ġcon s
ad er
ĠW lad
op le
le don
oc kh
Ġp o
ĠY osh
ro ch
ie u
ĠNgh Ãªnh
Äĳ un
ym b
Ġ0 8
ĠThu áº¿
ĠEl m
ont o
Ġu á»·
ei ji
oz a
199 3
ĠHymen ophyllaceae
]] .
ĠMon aco
ĠDon ÄįiÄĩ
Or th
ĠRay leigh
gl as
ĠPo int
ĠTw ain
alt ar
ĠNov gorod
ĠTiber ius
ĠJam aica
olep is
Ġngu á»Ļi
Ġbeg in
ĠVsev olod
" &
A D
A mer
B á»ĳn
G o
H Ãłn
M ord
P oly
P falz
R os
S hi
T om
V Ãł
m ark
n Æ¡i
v Ã¹ng
Ġ oan
Ģ Į
Ġc á»Ĺ
ĠÄĳ an
Ġm Ã´ng
Ã³ d
ph osidae
Ġng oan
Ġph Ãł
Ġph Æ°á»£ng
ĠN á»ģn
á»Ł m
ĠH Ã¢n
Ġx áº»
ĠB is
ĠÄĲ ang
ĠÄĲ á»ĳng
ĠS P
ĠS em
on ly
am er
am el
ĠV y
ĠV is
ĠV áº¥n
ĠV inc
en b
en er
ay at
ĠD á»±c
ĠD iá»ĩc
ĠG as
id is
ĠCh uyá»ĥn
ĠCh uyáº¿n
ae k
at rec
il ov
ic on
it i
le i
ĠX ing
ÄĲ Æ¡n
ĠO reg
ĠGi br
Ng Ã´i
ion a
og aster
Ph one
ĠMar g
ĠBr os
Äĳ Ã´i
ant s
Ġin c
ĠBl ackmore
erm e
ĠSte f
ĠAp ollo
omm ern
ash a
Ġtá»ĩ p
ĠBal tic
ĠÅ ł
ĠBang kok
uck y
Mar it
ĠMat ak
ĠAt lanta
ĠSw ift
ĠRad io
EA N
ngh á»ĭ
ĠTum kur
Ġo Ã¡n
olog y
ĠSpr ing
Ox y
Ġrob ot
ĠHend erson
ĠWarn er
ved ev
ĠBoa teng
ĠRaven na
ĠRoan oke
ĠWimb ledon
B á»ĩnh
B reak
D OS
F L
F or
I P
K az
L im
L á»Ľp
U l
X H
Y ou
f r
j ak
v ey
Ã ¥
Ñ ĭ
Ġ ep
Ġt ambon
ĠÄĳ Ã¹i
Ġv ect
Ġl im
Ġl Ã¡t
Ġm arg
Ġch anh
Ġk ÃŃp
Ġs ter
Ġnh Ã´
ph is
Ġg áº·t
Ġph Ã¬nh
Ġph araon
an al
ĠC S
ĠN T
ĠN icol
ĠH amb
ĠB ec
ĠM ut
ĠS oph
in sky
ĠP ubl
ĠK Åį
ĠA ud
au ri
ĠTr á»¥c
ĠD od
Ġngh iá»ģn
ol t
ĠR ov
ic ana
ĠnhÃł o
em ens
op es
ĠKh a
Ġ9 2
ĠY emen
ab in
Ch Ã¹a
ĠMar vel
ĠSt reet
all y
Ġá» Ĳ
ud son
ĠSh aw
ĠSh erman
yr on
end er
ĠCon ne
kh u
ĠQ atar
Ġtho Ã¡ng
ĠLu is
ĠIch igo
att us
ĠEd o
ald o
Ġ183 5
ins tein
ign y
ĠMed vedev
ĠKon stantin
ĠPort sm
Äį eskÃ½
ĠFrank lin
ĠXV II
ĠHoll and
ĠMill er
arag ua
ĠDub ai
odactyl us
ĠLG BT
ĠIC BM
ĠCamb ridge
ĠKrasn odar
ogai la
incl ude
ĠBaro que
ĠOreg on
ĠGibr altar
ĠPortsm outh
B Æ°á»Ľc
B ack
C op
C ard
F B
K itty
L it
O R
T op
Y u
b urn
f or
h y
y erm
ng oáº¡i
Ġl Ã³t
Ġl iá»ħu
Ġm iÃªn
Ġb á»ĵ
Ġch áºŃu
Ġnh uyá»ħn
Ġd Æ°a
Ġkh anh
ĠT Ã²ng
an ol
ĠC Ã¡n
ĠC áº©n
ch an
ĠB ag
ĠB und
ĠM ant
ĠM aya
ĠÄĲ i
ĠÄĲ áº±ng
am us
ar ic
ĠP ays
ĠP ower
ĠP okÃ©mon
ĠP ucci
ai a
ĠTr otsky
ĠD á»ĭ
ĠD á»ģn
ĠG ot
ĠNg u
ol ob
om ia
om al
ĠI gor
ĠJ es
ĠJ oe
ul osa
un ch
tr Ãªn
oc en
Tr Ã¬nh
Ġp at
ens k
Ch uyáº¿n
Ch lor
Ġf lor
ou z
ik k
st yle
ber l
az a
az i
ug u
ĠCon c
ara j
ack Down
ĠPar ker
oy e
ĠBar yshnikov
rid e
ĠAd ams
che on
Ġweb site
ĠUr al
Ġgiá»į t
ĠTe chn
Sch um
entr is
pr ess
ĠEx p
ÂłÂłÂłÂł ÂłÂłÂł
ĠTw itter
oster one
ĠAP C
iform es
ÃĤ u
Ġten u
ĠFern ando
ĠHon orius
ĠServ ant
ĠVat utin
Ġrem desivir
ĠNAT O
ĠSalv ador
) ".
9 00
A G
C ap
D á»ĭch
G re
H á»£p
L ou
M itt
P ach
T iÃªu
T áº¡p
U S
b ury
c Ã¡i
f ri
h á»į
h Ã¬nh
p ar
ä ¼
é Ľ
Ĥ ¬
Ġt i
Ġc Ãły
ĠÄĳ áº£
ĠÄĳ áº¡c
ĠÄĳ áº¯n
Ġm and
Ġtr áº¯c
Ġn uá»ĳt
Ġk iÃªu
Ġk iÃªng
Ġs áº£nh
Ġs á»¥t
ph áº§n
Ġkh á»ĳ
Ġkh iáº¿t
ĠT yr
ĠT NA
ĠT ottenham
an es
ĠC Ã¢n
Ġqu áº·ng
ĠL Å©ng
ĠL ord
ĠL enn
ĠH amp
ĠH LV
ch in
Ġx Æ¡
ĠB Ã£i
ĠS C
ĠS iv
ĠS ky
am ovich
am ily
ĠP S
ĠP en
ĠP UBG
ĠD ig
ĠG Ã²
ĠG ilbert
id d
ĠCh e
ĠCh Æ°
ĠCh inh
es lav
ĠR us
ĠR Ã©
os uka
om ac
ĠI P
Ġ18 27
ĠE u
ĠE lectr
ĠF err
ĠJ ones
ĠJ apan
th á»±c
Th á»©
ot rop
ak k
ĠO m
ĠO v
tr ung
ig g
ig on
Ġp al
ab ama
ell ata
Ġ11 2
Ch arl
Ġchu á»ĳi
og e
ĠCon t
ek a
ĠSch w
enn es
ĠPhil op
ĠBl ake
ĠCl aud
ĠLu xem
Ġ184 7
inc ible
ĠOr th
ĠChrys opidae
ĠRob in
Ġac et
ien ne
arg a
ĠRh ett
ĠRh ynch
Ġáº¢ nh
entr op
ye on
umb old
Giá» Ľi
ĠOlymp ia
Ep id
ĠXV III
ĠHit s
ĠSon y
ĠTw o
agr ionidae
ĠLib an
ĠFir st
Ġer ectus
ĠBas que
Don ald
Ġcor on
osperm a
Comm and
ĠPeters burg
ĠCalc io
Ġvit amin
Ġlip id
çļ ĩ
ĠFerdin and
ĠAcad emy
Ġaus tr
roqu ois
ĠPhao lÃ´
ĠRhynch itidae
! ".
( "
A N
M im
O c
P et
R ub
T an
V Ã´
b ro
f eet
i ya
m ins
t á»ķng
y ra
ç ¾
Ġ amb
Ġ ãģ
Ĩ Ĵ
á» ¦y
Ġc ast
ĠÄĳ Ã¨
Ġth Ãª
Ġth Ã¢u
Ġh ip
Ġm y
Ġm Ãº
Ġm á»ī
Ġm á»ĵng
Ġb Ã¹a
Ġb áº©n
Ġk Ã¬nh
Ġnh Ãºng
Ġd áº¥y
Ġkh á»ĳn
ĠT á»ĳ
ĠN u
ĠN ur
ĠL Ãªn
ĠL op
ĠL isa
ĠH áº¡o
ĠH ome
Ġgi Ãªng
ch em
er en
ĠM ul
ĠÄĲ Ãłng
in is
in ess
ĠP ir
ĠP ied
ĠTh ao
ai jan
ĠK evin
ĠA qu
ĠA ur
ĠA cc
ĠTr Ã¡c
al ov
ĠD iÃªu
ĠD iÃªm
ĠG eo
ĠCh áº¥n
el ab
ĠÃ İle
as ta
ac ter
Ġ18 28
ĠE R
ĠJ ogaila
ĠX a
and i
ter is
un i
ÄĲ Ãªm
Ġp anch
19 42
ens t
Ch á»¯
ie b
ip e
ent ai
Ġáº ¨
ĠAl t
ĠAr c
all as
ug aya
ier i
ĠRe ich
Ġnhu á»Ļm
ĠUn ix
ĠHar ry
ĠBo ok
ĠTok ugawa
ĠDe f
ĠAth let
ĠÅ ½
ĠMil ano
iy e
ĠMat s
ele ine
ĠMont ana
we et
Ġi OS
Ġgl yc
Cr oton
ĠCent ury
ĠStan ley
ĠSteph ani
Hol stein
ĠNic aragua
ĠYok osuka
ĠLept oceridae
orp ommern
ĠGR UB
ĠBruch idae
Break ing
Ġvect Æ¡
C oa
C ao
D Æ°Æ¡ng
E s
H ed
H yl
K áº¿
M yr
N a
P od
T e
T á»±
T iáº¿n
V ai
f raz
m Ãł
m et
Î ¹
å ¼
ç ¥
Ġ |
Ġc at
Ġc áº©m
ĠÄĳ áºŃy
ĠÄĳ Ãºp
Ġl iv
Ġl Ãµm
Ġch áº£o
Ġk eo
Ġs ec
Ġs ingle
áº¿ m
Ġd áº¡o
Ġg om
Ġg áºŃy
ĠT á»Ŀ
Ġph á»ĵn
ĠN P
ĠN iz
ĠL áº¡nh
Ġr á»Ļ
Ġr Ã²
ĠB uch
ĠM ick
ĠS emat
oa i
in ton
ar ina
ĠK ÃŃch
en aria
au p
ĠD ne
ĠG iÃªng
ĠCh es
ĠCh Æ°á»Łng
ĠCh ina
Ã© d
ol m
ic eps
Æ°á»Ł i
ĠJ ag
ĠJ ura
ĠJ ust
ĠJ osh
Ġdo p
ÄĲ á»ģ
od ia
ak es
Ġ10 5
ig era
Ġp et
Ġ11 5
Ch Ã³
Ġf il
Ġf ran
ian s
ĠSt ars
Ġ17 89
ĠAl abama
Nh iá»ĩm
ĠZ ambia
Äĳ á»Ļng
ass a
ind a
ĠHy d
igh ts
Ġtrá»« u
ĠMan uel
ĠHo use
itt or
ĠPl an
ĠAd olf
ĠBol ogna
Ġ180 3
ĠRobert s
ĠGal icia
ĠGl obal
ä¸ Ń
yth ec
iet y
Ġã ĢĮ
ĠAlb ania
eop atra
erb aijan
ĠStud io
col or
azz i
ĠHan ja
ĠMid d
odactyl idae
ĠBrand enburg
ãĥ¼ ãĥ
ĠErn est
Ġpul ch
ĠJane iro
cens us
å± ±
Inv incible
only include
ĠXing long
umbold t
ĠSemat ophyllaceae
A ph
A zur
B I
D ios
E X
F S
G Ãł
G ame
H oÃłn
I l
I r
J ames
M en
O d
R O
R ad
S u
S ec
V en
c ent
g on
g et
h Ãłnh
l Ãłm
t or
t á»īnh
v iv
Â ³
Î ½
ä ¾
Ġt em
Ġt á»§y
ĠÄĳ iá»ģm
ĠÄĳ á»Łm
Ġl áº§u
Ġl Ã©o
Ġh orm
Ġm ed
Ġb áº©m
Ġk iá»ģu
Ġd iá»ĩu
ph i
Ġg Ã¡y
Ġg áº·m
ĠT uyá»ĥn
ĠC ant
ĠN akh
ĠL Ãłm
ĠL iz
ĠL ake
ĠH ang
ĠH unt
Ġr eb
Ġx Ã©
ĠB ow
ĠB elle
ĠÄĲ á»ķng
ĠS Ãºng
ĠS taff
ar ctic
ĠTh á»ıa
ĠK oh
ĠK ast
en in
au gh
ĠD á»¯
or es
ĠCh Ãº
ĠCh iáº¿t
ĠCh á»©ng
is o
ĠPh áº¡n
at u
at an
ol c
ĠR yan
os z
ĠI den
âĢ ²
un s
Ġkho Ã¡i
Ġ10 4
ig l
Ġp ap
ĠAn ime
ro e
.. .)
ill and
ent z
ĠAr s
io th
az ar
... "
land s
ĠAs ia
ĠGu ill
ĠMal ta
ops yche
oss a
iam i
Ġa f
ĠSm ackDown
ĠCo un
ĠHal ych
ĠUy á»ĥn
Ġ180 1
Äģ li
Rh od
Ngh á»ĭ
CÃ´ te
ster dam
ĠAndre i
ĠAz erbaijan
lec tron
ĠId aho
ĠFel ix
ĠMold ova
ĊĠĊĠĊĠĊĠĊĠĊĠĊĠĊĠĊĠĊĠĊĠĊĠĊĠĊĠĊĠĊĠ ĊĠĊĠĊĠĊĠĊĠĊĠĊĠĊĠĊĠĊĠĊĠĊĠĊĠĊĠĊĠĊĠ
ĠNichol son
Dend rob
Ã³p ez
ĠFred dy
ĠBut ler
ĠTun isia
ĠTrin idad
ĠPÃ© rez
ĠIU CN
osev elt
Nassau via
ĠBeng al
ĠCrim ea
alyp tus
Ġpanch ayat
B arb
D ryopter
E v
M ach
P il
P ard
S Æ°
S el
d ate
k or
u al
v al
z an
Ñ Į
å ¥
æ Ĺ
é ĩ
Ġ :
Ġ ir
Ġ 000
Ġ are
Ġt est
Ġt urb
ng a
Ã¡ k
Ġtr á»ĩ
Ġb á»ĵn
Ġch Ã¨n
Ġs áº¥y
Ġs yn
Ġs ultan
Ã³ r
Ġd ent
ph y
ĠT il
ĠT Ã¡o
ĠT arn
ong a
ĠC á»ĳng
ĠC yath
ĠC atherine
ĠL od
ĠL agr
Ġx Ã¡o
Ġx áº£o
ĠB Æ°u
ĠB ed
ĠM I
ĠÄĲ Ã¡p
ĠÄĲ Ãªm
ĠÄĲ Äĥk
ĠS ig
on n
ar ay
ĠP on
ĠK á»ĭch
en cy
au de
ĠTr iá»ĥn
ĠD Ã£y
ĠD exter
ĠG Ãł
ĠG am
ĠG ur
ĠPh áº¥t
el op
us ton
ĠNh Æ°á»£c
ĠNh ung
ĠR ey
os i
et um
Ġxu a
Ġ18 12
ĠF e
ĠF erm
le z
Ġy áº¿t
un o
ag in
ag li
ag uay
ÄĲ Ã¬nh
ĠO ct
Ġp en
Ġp il
Ng Ã´n
19 87
19 89
ne is
Ã¨ ge
ens h
Ġchu á»Ļc
ard in
ĠAr iz
ev ch
amb ique
io us
ĠBr et
end orf
ĠCon idae
enn y
ĠCu atrec
ost yl
urg a
ett el
ĠLu áºŃn
ĠMal awi
ars us
ĠOs aka
Ġ183 1
ĠCharl otte
yg ium
ĠPaul o
ĠUr ban
ĠGrand e
Ð° Ð½
ĠCharles ton
Cl ub
boa t
ĠAir ways
Ġcal iber
Ġhu á»·
ori ent
Ã± a
agh er
orb es
ĠBad en
ĠGirl s
ĠAleyr odidae
ĠRuss ell
Epid endrum
ĠDne pr
Dryopter is
1 20
A L
F ri
G P
J ac
L á»±c
M os
Q uyá»ģn
T H
T s
T ar
V áº¥n
c omm
h al
h yd
k áº»
r ie
Å Ī
æ µ
ç ¦
Ġ ]
Ġ es
Ġ Ã´m
Ġ à¸
Ġt á»§
Ġc amp
Ġl Äĥm
Ġl á»Ł
Ġh al
Ġb ong
Ġb Ãºa
Ġn ot
Ġch á»ĳn
Ġch áº¡p
Ġk n
Ġk ar
Ġs ol
Ġs ur
ĠT á»Ļ
ĠT ir
ĠT ob
ĠT yc
Ġph iá»ĩt
ĠC P
ĠC á»±
ĠC ad
ĠC ro
ĠN Æ°Æ¡ng
ĠN BA
ĠN ext
ĠL ow
ĠL ub
ĠH inh
ĠH ier
ĠH isp
Ġr ong
ch im
Ġx áº¡o
ĠB iá»ĩt
ĠB re
ĠB eck
ĠÄĲ Æ°Æ¡ng
ĠS Ã¡n
ĠS aw
Ġ" ,
in ski
Ġthá» ĩ
ĠTh an
ĠTh ÃŃ
ĠK ars
ĠA K
ĠA quitaine
ay ev
ĠTr Ãłng
ĠTr ump
ĠD n
ĠG om
ĠG ary
im ac
ĠR och
ic au
os ome
ĠNam ibia
ĠJ ud
ĠX ung
ul ina
re ich
un es
ÄĲ áº¿
ĠU zb
Ġtu á»ĵng
oc entr
Ġ10 6
av o
av el
Ng a
19 85
Ã¨ res
ec io
Ġ17 0
ĠAl len
ut ion
Ġ15 00
ran i
ĠBr id
Äĳ Æ¡n
... ,
Ã¶ h
ff e
ĠIs ab
att i
Ġtá»ī a
ien ces
ĠAb u
ĠCo en
ĠCo ok
ĠKaz an
enk e
ĠBur k
Cal ais
ĠLy on
ĠGar field
ĠMur icidae
Ñģ ÑĤ
ĠZh ukov
Ġob sc
ĠKy oto
giá» ĳng
ĠUnivers al
ĠBrit ish
ĠDou glas
ifr ons
Ġspec ies
Euc alyptus
ĠRaf ael
ĠHein rich
ĠMob ile
back ground
ĠGabri el
ĠBerm uda
ĠAthlet ic
ĠTyc oon
B á»ĭ
B eg
B erry
C T
D á»±a
E F
G er
M ai
N Ã³i
S im
S Æ¡n
W ang
c Ã¡
d t
d Ã¢n
d ad
e aceae
e ira
l us
n ar
s un
w are
Ï Ģ
Ġ Ø
Ġt Ã¢u
Ġt ua
Ġt áº©u
Ġc Äĥm
Ġc ycl
Ġl á»ĳc
Ġl ithi
Ġth on
Ġk iáº¿p
Ġs qu
Ġkh iáº¿m
Ġph Ã²
ĠC el
ĠC ec
ĠC ost
ĠC enter
ĠH D
ĠH T
ĠH as
Ġr Ã¡o
Ġr á»ĳt
Ġr á»Ļn
ĠB ack
ĠB ez
ĠM Ã£i
ĠS as
ĠS ebast
Ãº m
ĠTh Ã¬n
ĠTr o
ĠTr á»£
ĠTr uyá»ĩn
á»ķ n
ĠD áº¡
ĠD erm
ae aceae
Qu e
ĠR Ã´
ic i
as co
it er
ĠI roquois
Ġ18 19
Ġ18 29
ĠF ur
ĠF estival
hi ro
ĠJ is
th á»ĭ
ĠW ell
ul o
ĠKh Ã´i
ÄĲ ND
ĠU s
amp ar
ab an
19 70
Ch Ã¢u
te ch
Ph á»ķ
Ph ÃŃa
ĠÃģ n
ok i
ĠMar oc
est ine
ĠCr ist
ĠGr imm
eh r
anth aceae
23 5
ale igh
enz l
âĢĻ âĢĻ
ĠÅ ļ
ĠBel g
ĠVal ent
Ġox ide
Ġngá»§ i
Car thy
ĠLuc ario
ĠSant o
Ã± o
ĠGer man
áº¤ n
At l
ĠBrun ei
ĠCH D
ĠMoz ambique
ĠNev ada
ĠJohann es
Art emisia
oac eae
HÄĲ BT
ĠWit old
ĠJae ger
ĠWitt mer
Andr ena
Marit ime
ĠHamb urg
ĠOrth otrichaceae
C Ã²n
D ich
I N
K aiser
L oáº¡i
M inh
M ax
R R
T o
T Ã¢m
T etragn
V Ãµ
W ind
X anth
b ie
h u
l ach
m as
n on
r ipt
t ario
y er
Ð ¡
Ñ ı
é ķ
é ĺ
Ġ ed
ng uyÃªn
Ġc Ã²
Ġc Ã´i
ĠÄĳ á»ĳ
ĠÄĳ áº¡m
nh iá»ģu
Ġh eter
Ġtr á»Ĺi
Ġs e
Ġs Ã´
ĠT oÃł
ĠT on
ĠT á»ĳc
ĠT á»ĥ
ĠT uá»ķi
Ġng Ãł
Ġng áº£i
Ġph áºŃt
áº¥ ng
ĠC áº¥m
ĠL uga
ĠH ad
ĠH orn
Ġgi Ã´ng
Ġgi un
ch u
Ġx avan
er c
ĠM r
ĠÄĲ á»Ŀi
oa r
ĠP ick
ĠP oz
ĠV Ãłnh
ĠV in
ĠV Å©ng
ĠV it
ĠV og
ĠK ane
ĠK iy
ia o
Ġthu á»Ł
ĠG ang
id um
ĠCh er
ĠCh ap
el o
ĠNg á»¯
ĠNh an
ol us
ur on
ur fa
ĠF ound
ĠJ oan
ĠW orks
od rom
ir d
ĠGi ov
19 44
19 88
ens on
ens en
ob in
Ph á»¥
st ag
st one
ok h
Ġbá»ı ng
ĠAr ch
ut on
ĠZ oph
Äĳ áº¡i
eb el
oph orus
yr idae
ĠCr uz
ĠGr is
ĠSer ies
anth era
CN D
lav a
ĠSc and
ond o
Cu á»ĳn
ĠBe aut
Ġ183 3
Ġe ng
ĠMe ur
ĠTe am
no op
mar ck
anc y
Ġi Phone
ĠMo un
ĠEst onia
195 4
ĠSol omon
ĠCat al
Ġhydro x
ĠLeon ard
ĠRo osevelt
ĠNichol as
Ġserv ice
ĠÅŀ anlÄ±
Ġgrac ilis
ĠHun ter
ĠKent ucky
ĠGon z
ĠUtt ar
Lasi oglossum
eij ing
ĠAssoc iat
ĠColor ado
ouz ja
ĠCHD CND
Tetragn atha
ĠZoph eridae
ĠÅŀanlÄ± urfa
A v
A ir
A sh
B ryum
L amp
M i
N GC
P el
b áº£n
c áº£
l ic
l ie
n áº¿u
n ick
r ol
s in
t d
u in
Ã Ĺ
Å ıng
Ġ Ã¢u
ĠÄĳ á»įng
Ġv áº·t
Ġb áº¡t
Ġch ÃŃch
Ġk iá»ĩu
Ġs te
Ġs ex
Ġd Æ¡i
ĠT oy
ĠT ony
ĠC áº¥u
ĠL P
ĠL ac
ĠL á»Ľp
ĠL Ã³pez
ĠH iá»ĥu
ch iáº¿n
ĠB ÃŃnh
ĠB Ã¡nh
ĠB TR
ĠB eijing
er cus
er Coa
ĠÄĲ Ã¡ng
ĠS Ã¢m
ĠS ea
ĠP ao
ĠTh áº§y
ĠV ik
ĠK ot
ĠG yr
ĠG ord
Å© a
ĠPh r
at on
at ta
ol one
ĠR ac
ĠR ap
ĠR á»ĭa
ĠR iver
ĠI NS
ĠF orm
th eon
ĠW TA
Th ay
ag ioch
od r
ĠO ber
ir k
ov ic
Tr á»Ł
Ġp ound
ĠY e
ne a
Ch ung
ob ius
ok o
ĠMar s
Ġ17 90
ĠAl oy
Ġsu Ã½t
Ġlo Ã£ng
ĠZ ero
Äĳ á»ĳi
eg r
ah an
eb e
eb es
ĠIn stit
Ġ13 5
oph oridae
yr os
opter us
ord en
ind ong
ek t
iss us
ez a
ost oma
An ime
ond e
ĠCol umb
ict us
ĠbÃ© n
ĠSte yerm
der w
ĠHar p
ole jeunea
yg m
ĠRh Ã´ne
ĠMich el
ĠFre e
ĠEm p
ĠSouth ampton
ãĤ ¤
ĠTor onto
esh ow
cu á»Ļc
ĠSoc iety
ĠTel eg
ĠHook er
rog rad
ĠStan is
Cer at
omor pha
ĠBh utan
ĠVasil y
ctic ut
Will iam
ĠOx ford
sud ski
ĠMohamm ad
ĠBuck ingham
Id aea
ĠSiv as
ĠLuxem bourg
ĠHits ugaya
ĠPied mont
Pard osa
ĠCyath eaceae
ĠAriz ona
Beg onia
erCoa ster
) -
C ir
C amb
O s
R en
S phaer
T aylor
X uÃ¢n
d l
d al
m Ã´ng
m or
n d
n Æ°á»Ľc
t iá»ģn
u it
v Ãłng
w al
å ¯
æ ²
Ġ um
Ġt Äĥm
Ġc Ãłn
Ġv Ã£
Ġv Ã³c
Ġl áº¯c
Ġl ÃŃt
Ġth Ãªu
Ġh á»ĳc
Ġh eli
Ġm o
Ġm ÃŃa
Ġch Ãª
Ġs m
Ġg ram
Ġkh ao
Ġkh á»ıa
Ġng áº¡t
Ġng uyá»ģn
Ġng áº¡ch
ĠN an
ĠN á»ķi
Ġvá» Ŀ
ĠL ot
ĠL og
ĠH op
ĠH ard
ch is
ĠB iáº¿n
ĠB ot
ĠB rach
er land
ĠM áº¡t
ĠM att
ĠS K
ar c
ar it
ar um
ĠP ter
ĠP ut
ĠTh á»Ľi
ai se
ĠA R
ĠA er
ay o
ĠTr ai
ĠD ark
ĠD ance
ĠD ream
us ch
ĠR an
ĠR aw
Ġho i
it or
ac on
hi re
th an
ag awa
ĠKh á»§ng
od inae
od ene
tr ol
Tr uyá»ĩn
19 46
Ã¨ ve
Ch iáº¿c
ra ft
Ġf usc
Ġbu á»ĵm
ian thus
ard ian
Ġ17 88
ran s
Äĳ áº§u
ym er
ĠCon stant
10 1
ack ing
ek ly
ĠSch ult
och rom
ĠAm sterdam
Ġ27 0
yd e
ĠSc inc
ĠLu zon
ĠSp orts
lin es
Pr im
Pr ot
act us
Le e
ĠCo oper
ĠMe ad
ĠStr ai
Ġel eg
isc idae
ĠVal ley
stan bul
Ngh Ä©a
ĠPet rograd
ĠShi r
ĠSon ny
oid eae
ĠEug en
ocarp a
ĠLind l
ĠOn tario
Ã¶n ig
aid Åį
Ġson ar
ĠGran t
ĠShim oga
ĠAtt elab
ĠPs ych
Roll erCoaster
Ġcacbon at
ĠAleyr odinae
Ġnuc le
ĠPyr Ã©nÃ©es
ĠLeop old
ĠMÃ¼n chen
ĠChristoph er
ĠConne cticut
Ġhorm one
ĠNakh on
Ġreb ound
Dendrob ium
ĠUzb ek
ĠCoen agrionidae
ĠGyr inidae
ĠAttelab idae
B iÃªn
B enth
E P
F I
H CM
I m
K á»¹
L Ãªn
L and
L oph
M ak
M all
N eph
P leur
P okÃ©mon
R ac
S w
S ao
S alm
c um
f s
f oot
g ang
l ib
w o
z t
z Ä±
Å ĳ
Ì ģ
Ð ±
å Ī
å Ĭ
é ģ
Ġ Â²
Ġc ir
Ġl ept
Ġch Ã¨
Ġs Ã¡o
Ġd á»Ĺ
Ġd ev
Ġd eb
Ġd isc
Ġd ance
ph in
ĠT Ã²
ĠT Ã¡t
ĠT atar
ĠC ov
ĠN H
ĠL ing
ĠL av
ĠL ec
ĠH Ã¡
ĠH Ã²n
ĠH ipp
Ġr Ã©t
Ġr ib
ĠB áº¡n
ĠB uk
ĠM eh
ĠS H
ĠS Ã³ng
ĠS BS
in ct
ĠP ier
ĠK ad
ĠK ap
al ke
ĠD Æ°á»£c
ĠD am
ĠD Ä©nh
or ea
ao i
ĠG aul
id th
ĠCh en
im es
im um
ĠR aleigh
ic ester
á»ı m
Ġ18 23
hi z
ĠJ ang
Th eridion
ĠX u
ĠX Ãª
re ng
ter i
ag na
ÄĲ áº£o
áº» m
ĠY ak
Ġ12 7
av y
av ier
ab is
te gr
ĠAr agon
yl a
ton e
Äĳ á»ģ
yc t
ist or
ym a
ys teg
ys law
ĠThu á»Ļc
ern er
yp r
ĠSch war
och r
Gi áº£
Ar ct
ts y
oz iaceae
neum on
aur us
ĠWill d
à¸ £
ĠMor aceae
ĠAlexand re
ĠTim berl
cel ot
ĠDel hi
ĠRay theon
ĠKir in
estr is
ĠUl ithi
otrich um
Ġnit Æ¡
ĠSab b
ĠAmer ica
ĠNad u
ĠAnth icidae
cast le
uti aux
Sen ecio
amon u
ĠIshi hara
ĠKrak Ã³w
ĠDmit ry
ĠFranÃ§ ois
ĠScinc idae
ĠTimberl ake
A st
B on
B áº±ng
D er
E laph
F ar
G N
H off
K á»³
L S
M ur
N eol
P ierre
W est
e an
g áº§n
i ot
j amin
m on
n em
s áº½
v ers
y ang
z el
æ ³
Ġ Ãºp
ng er
Ġc Æ°á»Ľc
Ġc om
Ġc Æ°a
Ġc yclin
Ġv Ã¡c
Ġl á»Ļng
Ġm áº¡
Ġm Ã²
Ġm Ãµ
Ġm Æ°á»£t
Ġn Ã©
Ġch iÃªm
Ġs err
Ġg am
Ġg á»Łi
Ġg ris
Ġg Æ°Æ¡m
ĠT iá»ģu
ĠT áº«n
ĠC A
ĠC os
ĠC ebu
ĠL ob
ĠL ight
ĠH Ãło
ĠH eb
ĠH Ã¶
ĠH ee
Ã¬ u
Ġgi eo
Ġr ug
ĠB ak
ĠB amb
ĠB ush
ĠM ey
ĠM ath
ĠM other
ĠM ishima
ĠM iami
ĠS amp
ĠS ylv
ĠS noop
ar ab
ĠTh a
ĠTh Ã¬
á»¥ n
ĠD in
ĠD arl
ĠD own
ĠG raham
ĠCh ia
ĠCh iang
es ir
ĠPh Ãª
el us
ĠNg á»Ļt
il an
ĠR anh
ĠR áº¡ch
ur u
ur idae
ĠI A
ĠE M
ĠF M
ĠJ ess
th áº§n
ul in
ul um
ag aceae
ÄĲ Ä©a
ĠU t
ov i
ov ia
Tr Æ°Æ¡ng
Ġ10 8
Ġp or
Ġbu t
ard on
ik on
ĠMar se
ĠBan ks
eg ro
Ġmu Ã´n
ĠIn form
ant o
ug i
ass in
ass ulaceae
ĠCr oss
ĠCr assulaceae
ier e
ĠPr ess
oy d
ipp us
Ar ch
ĠHo áº¡ch
ĠMal p
ĠÃļ t
ines e
ĠOr ch
eim ar
ĠHer mann
ien na
ĠGre y
ĠStr and
ĠSam sung
Am ph
ĠÐ ¡
Mar ne
ĠMat th
ĠAir lines
ãģ ®
ux oa
Ð¸ Ð¹
ple x
ĠShi ba
ster reich
ĠLuc as
ĠLuc anidae
Ġcl ip
rit ic
ĠVenez ia
ĠGP L
ĠRoman ek
ĠPi ÅĤ
ĠFor est
ĠWat son
äº º
ĠFil m
ĠDar win
ĠThr acia
ĠAS EAN
ĠTH PT
Ġphosph or
ĠSph ingidae
ĠBorn eo
ĠKhark ov
ĠEmm y
Ġbrom ide
ĠProduct ions
åİ ¿
ĠHeg el
idel berg
ĠWlad yslaw
ĠKast amonu
ĠINS EE
% ;
A gr
D ic
E ng
E IC
G S
I X
K un
L o
N Æ¡i
S um
S ab
T illand
a ff
a ÅĤ
b us
m u
m yo
o or
w w
Î ²
Ð ³
å ¦
å ¿
ç «
Ġ up
Ġ á»§i
Ġc er
Ġv á»įt
Ġh Ã¡n
Ġm ol
Ġm aster
Ġb ÃŃch
Ġn á»į
Ġn áº¡i
Ġk á»ĩ
Ġs Æ°ng
Ġs á»ıi
ph Ã¢n
ph áº£i
ph antes
ĠT ik
ĠC le
ĠC áº§m
ĠN in
ĠL ad
ĠL iv
ĠL und
ĠH áº£o
ĠH ood
ĠH umboldt
ch el
ch Æ°a
ĠB it
ĠB áº¥y
ĠB enn
ĠM ig
ĠM itch
ĠS uk
ĠS oft
Ġ" âĢľ
ar ra
ĠP Äģli
ĠTh ong
ĠK ish
ĠK rish
ĠA ID
ĠD J
ĠD á»¯u
ĠD ep
ĠG az
ĠG ust
ĠCh r
ae ng
el ot
at ory
ĠNg ao
Qu ercus
ĠR is
ĠR NA
ĠR ÃŃo
Ġho p
as z
os cel
it aceae
ĠI stanbul
em m
ac ritic
Ġ18 20
ĠE is
Th Æ°
ul ar
ul ia
ÄĲ oÃłn
ĠO ff
ĠU V
oc r
oc as
ig en
Ġ12 8
19 80
19 83
ell ow
ec a
ob i
ob l
ĠSt orm
ĠLe icester
ach el
ah a
ep er
ant ic
ug o
yr iaceae
ue ang
opter yx
ass o
our nal
Ã¼ l
ĠSch imm
ĠSan kt
sh eim
ĠBar tram
ĠFran ces
oz h
ix el
ĠMad eleine
Al p
Pr os
ark om
sp ur
ĠBer k
ott i
Ġnháº¹ n
ĠPal estine
ĠAth yriaceae
ÅŁ e
Ġ180 6
ĠSam oa
ĠWh e
anc ock
ĠPet e
ĠSil ver
ypod ium
ĠBlack Berry
oid ea
ĠAP G
ĠLeon zio
ĠWood s
Ġlog o
ĠRoy al
å¸ Ŀ
ĠGod zilla
Ġbl og
ĠJung ermann
ĠErn st
ĠAbr amovich
ĠWay ne
å· ŀ
Geor ge
fraz ioni
ĠDerm estidae
ĠPiÅĤ sudski
Tilland sia
ĠSchimm el
1 12
; "|
A h
B aker
C ung
C áºŃp
C BS
G od
G ir
H N
H angul
K am
K ÃŃnh
M ey
N om
P O
R T
S outh
W S
b Ãª
c egovina
h ae
h eim
k u
k aidÅį
l as
s l
s te
s erv
t um
w ara
w itz
y ah
Ä ĵ
Ë Ĳ
Î µ
Ñ ħ
é ¦
Ġ á
Ġ á»¥
Ġ orn
Ġc Ã¹
Ġv Æ°á»£n
Ġh Ã¹m
Ġm ur
Ġtr ich
Ġb in
Ġb Ã¨o
Ġb á»Ĺng
Ġn áº£n
Ġch á»įi
Ġch Æ°ng
Ġs á»ĵi
Ġnh áº·t
Ġd á»ĵi
Ġd áº»
ph r
ph ÃŃa
Ġng Ã³i
Ġph Ãłm
á»į p
an ica
qu Ã¢n
ĠC R
ĠC uc
ĠC ope
ĠN Ãªn
ĠL oa
ĠL Ã´i
ĠH angul
ĠH IV
Ġr á»ĳn
Ġx Ãło
ĠB Ã¢n
ĠM á»ĳi
ĠM ov
ĠS áº§m
Ġthá» Ľt
ĠP is
ĠK ann
en yl
ĠA ut
ay er
ia k
ĠD re
ĠD ick
eo ple
eo dor
ĠQu áº¯c
ol le
ĠR and
ĠR yd
ic ius
os ch
os te
it ra
em in
ĠF ed
ad ion
ĠW ÅĤ
ĠW iel
ĠW agner
Th áºŃp
Ġkhu á»·
ul i
ÄĲ iá»ĩn
ĠO st
tr ia
oc erus
oc aust
ĠY a
ell ia
Ġbá»į t
ro gen
og r
ou p
ĠSt ory
ĠAr ist
Nh á»Ŀ
Nh Ã¬n
Ġlo an
Ġ14 5
ah u
est odene
oh ama
up ta
uk ia
ĠDo umer
ĠNew port
ĠCr aig
ys ÅĤaw
Kh áº£
arl ett
ek o
ĠPar aguay
ain s
ax y
ĠBar ca
tt emberg
ĠHo Ã¡
ĠMad onna
ott en
ĠHer ac
à¸ Ļ
ĠBen jamin
ĠSing les
Ġpl at
Ġst en
Rh in
Ġam ino
Ġláº» o
ĠSu á»ĳi
Thu áº¿
ĠFri ese
ĠMur ray
Ã¼r ttemberg
ĠMet acritic
iflor um
ĠHot spur
ĠHol t
ĠBern ard
alt y
ĠHir oshi
alc anal
ĠÎ ²
ĠFil ms
esl iga
ĠMess ier
istol och
Scop ula
ĠStein itz
Sy z
ĠRum ani
ĠElm idae
ĠLenn on
Ġturb ine
Ġeleg ans
ÅŁe hir
ĠJungermann iaceae
A ct
B ul
B uá»ķi
C omp
D E
D or
G h
I ch
K á»·
L T
L inh
L ow
M Ã£
O ber
P ro
P apar
Q G
Q uyáº¿t
S ur
T O
T er
T or
T oÃłn
V ill
X yst
b á»Ļ
b or
b áº¯t
b ut
c á»ķ
f e
h em
i ers
k inh
l it
m ino
n ius
r áº¥t
r ata
s ang
t áº¡o
Ã ļ
Ï Ħ
Ġ Æ¡i
Ġ ).
Ġ Â°
ħ u
Ġv áº¥p
Ġl ung
Ġl Ã¡ch
Ġth Ã¨m
Ġh áº»m
Ġtr if
Ġb icolor
Ġn ovel
Ġch Ãłi
Ġs áºŃp
Ġnh Å©
Ġd iv
Ġg áº§m
ĠT itan
Ġph Ã¬
qu an
qu áºŃn
ĠC Ã©
ĠC Ã¡p
ĠC áº£m
ĠC oss
ĠL ov
ĠL td
ĠH áº¯n
ĠH TV
Ġr Ã¹a
ch ez
ĠB et
ĠB ess
er k
ĠM ae
ĠM Ãłn
ĠM ik
ĠM oon
ĠS D
ĠS up
in ki
in burgh
ĠTh ang
ĠV ir
ĠV ent
ĠK ab
en au
ĠA V
ĠTr Ã¢u
ĠTr ip
al bum
ĠD S
ĠG un
ĠCh uck
Ġgiá» ħu
el son
at z
at ic
at son
eo k
eo ph
ĠQu een
ĠQu Ã©b
il es
ol and
Ġ3 20
ĠI SO
Ġ18 18
ĠE str
ĠE instein
ĠF act
th ay
th ia
Th Æ¡
re al
Ġ7 50
ĠU h
ir t
Ġ10 7
av ar
ab we
ĠAn imation
ap f
20 23
ip al
ra x
km an
Ġchu á»ĵng
og raph
ou g
yl ind
ĠZ imb
ub b
ĠNgh e
ist ena
ib n
ĠTheo d
ge i
ick i
ĠAs ian
igh iaceae
ĠBar r
ĠCal v
ĠTam er
ĠchÃ³ p
Ġa ff
sky i
Ġlan c
omb asa
amm u
Ġj apon
ĠVal encia
Ð° ÑĢ
ĠBay es
ĠMel an
ĠRu th
ĠBos nia
ÄŁ Ä±
ĠFr aser
Ġgl uc
ĠSil va
via t
iph on
å¤ ª
ĠBern stein
Ġcr ass
ĠFir ouzja
ĠWat an
ĠBoh m
Ãģ o
Mel an
ĠKn ow
ĠStand ard
Ä±n ar
ĠCre ek
ape ake
ĠWes ley
ĠVat ican
Roll ing
ĠPy otr
ĠGuad alcanal
ĠFle utiaux
ĠDog g
ĠFi ji
ĠWhit ney
ĠHann ah
ĠSard inia
ĠAlam os
mins ter
ĠBret agne
ĠGiov anni
ĠMalp ighiaceae
Syz ygium
A leur
B or
B Ã¡nh
B áº¡n
B ad
B etter
B FB
C as
C á»Ńa
E st
F u
H ay
H iá»ĩu
H and
H ara
J ose
L B
L ob
L uc
L Ã£nh
M T
M á»ĳi
O M
O z
O ne
P e
R oy
T ai
X X
c ai
d ido
k ow
n en
n um
n arkom
p p
r il
t ime
y at
z ar
Â ½
Ã ¦
Î »
à ®
æ ķ
Ġ id
Ġ ell
Ġ all
Ġ estr
Ġ occ
Ġc ord
Ġc orn
Ġc arb
ĠÄ Į
Ġl áº«y
Ġh ol
Ġtr Å©ng
Ġb Æ¡
Ġb enz
Ġb ase
Ġn Ã£
Ġch rom
Ġs á»Ļ
ph iÃªn
Ġg o
ĠT au
ĠC Ãły
Ġqu áº¥n
ĠL áº·c
ĠH ell
ĠH ers
ĠH á»£i
ĠH á»±u
Ġr uy
Ġr os
ĠM orn
ĠM Ã¨o
ĠM AR
ĠS qu
ĠS ug
ĠS illa
ĠS ele
in avia
ĠP re
ĠP ec
ĠTh Ã¢m
ĠK iáº¿m
ĠA D
ĠA st
ĠTr Ã¡ch
ĠTr Æ°ng
ĠD w
ĠD áºŃu
ĠPh Ã²
ĠPh Ãłn
ĠPh ill
ĠPh ys
at r
ĠNg Ãł
ol et
ĠR ama
ic Ã´
os it
et y
Ġ18 15
Ġ18 21
ĠF in
ĠW o
ĠW ith
le g
re i
ag er
od o
ak Ä±r
Ġ10 9
ig or
19 66
ĠAn field
Ġ11 3
ens ky
Ch am
Ch á»©ng
Ġtá»¥ t
ill aria
ou c
ou ver
st ae
ĠSt ate
Ġ17 75
Ġsu per
ut us
ud h
Äĳ Æ°á»Ŀng
ĠIn cheon
oph ilidae
ĠNew castle
... ).
und us
ĠQ uyÃªn
ĠBar esi
erm a
ĠGu ardian
oz ia
ĠMc K
ĠSm all
ĠDe ep
ĠHe ad
Ġcam era
ĠvÃµ ng
Ġur an
NE T
Ngh á»ģ
ĠSong s
ĠDr agon
ÂłÂłÂłÂł ÂłÂłÂłÂł
asp arov
ĠSo ul
å® ī
ĠBry an
ĠLeg end
elyp teris
åĲ İ
Ã¡r quez
ĠPlat ia
ĠVasil i
auh aus
ĠYok ohama
Ġchlor ide
ĠRost islav
ĠCarr agher
ĠDaw n
Ð¸Ñ ĩ
ĠSyst em
Dol ich
ĠTO EIC
ĠNK VD
ĠCentr al
ĠWW E
Ġster oid
ĠBund esliga
ĠElectr ic
ĠOct av
ĠFound ation
Ġkhuá»· u
Papar azzi
Xyst icus
ĠZimb abwe
) )
. âĢĿ
D T
D em
D re
H z
H Æ¡n
H Ã²a
H apl
L ive
M iss
M ark
M aster
P ort
S H
T ime
V inh
W A
W orld
b á»ĭ
b ur
c áº§n
c ole
d ia
d own
h Ã¡n
k n
k ar
l Ãºc
n m
n ell
n ess
t im
t un
z og
Ġ Ù
Ġ ë
Ġt áº¡c
Ġc áº©u
ĠÄĳ u
ĠÄĳ áº¥m
Ġv áº£
Ġl ac
Ġth uyÃªn
Ġh á»ķng
Ġm áº¯ng
Ġtr Æ°á»£ng
Ġtr Äĥn
Ġtr á»įt
Ġb Ã¡ng
Ġn e
Ġch á»ĵi
Ġk Ã¬m
Ġs anh
Ġnh á»Ł
ĠT Æ°á»Ľc
Ġng áº¡o
Ġcá»§ i
ĠC ot
ĠC ord
Ġqu e
Ġqu á»µ
Ġqu adr
ĠN Ã´
ĠN ova
Ġvá» Ĺ
ĠL áº¥y
ĠL agos
ĠH at
ĠH áº¡c
ĠH ew
ĠH old
ĠH wang
Ġgi áº·t
Ġr ep
Ġx áº¿
Ġx Ã³t
ĠB ug
ĠB agh
er ation
ĠM T
ĠM am
ĠM ers
ĠM ore
ĠÄĲ á»ĵn
ĠS anh
ĠP ale
ĠTh Ã´n
ai b
ĠK v
ĠK le
ĠK áº»
ĠK arp
en is
ĠA ar
ay e
ia h
ia di
ĠTr á»Ł
al ac
ĠD ao
ĠD Ã¢y
ĠD ip
ĠD rop
ĠD iels
ĠG ai
ĠG ao
is che
ĠPh a
at idae
im o
im br
ĠQu ebec
ĠNh Ã£n
il er
il io
ĠR w
ac um
ĠE o
ĠF uk
ĠF amily
ĠJ or
ĠJ Ã©r
ad ysÅĤaw
ĠW ak
Th á»§y
le a
le ct
ĠX L
ĠX box
un j
ĠKh anh
ĠKh Ã¡i
ĠKh oan
od erus
ĠO ed
ir it
oc n
ov iÄĩ
ing o
Ġp an
Ġp us
Ġp yr
amp us
19 41
ell istena
Ġ11 7
te c
iv entris
Ph Ã³
Ph Ãº
ent al
st al
ĠAl ert
ut s
ut sch
ran t
amb us
Äĳ Ã¡nh
ĠSh arp
ug ami
son i
ĠTheo dor
Ġtá»ı i
ez h
ĠAs c
lor a
Ã¶ s
Ã¶ sterreich
ĠBl ock
ĠBl ume
An is
lav e
ĠSc iences
ĠCal der
ĠSp e
Ġgh en
ĠHo uston
ĠMad ison
ley i
inc ta
ÅĤ ach
ĠEd inburgh
aj ang
ĠPer ry
ĠDi y
ĠAb e
ĠDav ies
ci Ã³n
ĠCam eron
ĠBur ke
ck e
ĠIt aly
Ġmá»ı m
ush ima
Cl ark
ĠEng land
ĠAir es
Ġco umarin
ĠGh or
Ðµ ÑĢ
ĠFlor ence
ĠSá»Ń u
ogl obin
ĠMet ro
ĠKing ston
ĠAk ira
atri x
ĠBern ab
ĠCat alan
ild ing
ĠStan ford
ĠSen ior
ĠBrit ton
Ġbar angay
ĠMold enke
ĠEnd om
ĠKun th
ĠJacob y
ĠâĢĺ âĢĻ
Ġful v
ĠBle u
Dav id
ĠThor ell
ĠLinn aeus
ĠLanc aster
ĠRov ers
ĠChes apeake
ĠTeleg ram
ĠSabb ath
ĠBerk eley
ĠQuÃ©b ec
A ul
B el
B Ã£o
C Äĥn
C Ãºp
D á»¯
G áº§n
H Æ°á»Ľng
H ymen
H MS
M at
M ed
N Ã´ng
N es
R a
R eg
V i
b ell
d ez
g ado
i ors
l ang
l og
m Ãłu
n os
w en
Ã Ķ
Ã ĸ
Å ı
æ ´
Ġ á»§
Ġ Æ°á»Ľp
Ġc over
Ġc ellulose
Ġv el
Ġv Ã£n
Ġh um
Ġm ao
Ġm art
Ġtr Ã³i
Ġb us
Ġch áº§u
Ġch áºŃt
Ġs Ã²ng
Ġd ep
ph im
ĠT ay
ĠT Ã¡nh
ĠT ect
Ġph Ã´i
qu il
ĠC oa
ĠC um
ĠC á»ĵn
ĠC yr
ĠC omb
ĠC BS
Ġqu ai
ĠL Ãłnh
ĠL Ãłn
ĠH Ã¨
Ġr Ã¢m
ĠB ey
ĠB ada
ĠM P
ĠM net
ĠÄĲ áº¥u
ĠS is
ĠS ap
ĠS ob
ĠS uez
ĠS ahara
on en
oa h
in ium
ar es
ar ct
ĠP ri
ĠP utin
ĠK m
ĠK ai
ĠTr av
ĠTr ib
al b
al on
ĠD io
or ov
ĠG an
ĠG LA
ĠG leb
ae v
ĠPh áº£i
at ing
eo s
ĠÃ ĵ
Ã© v
ĠR oth
Ġ3 16
it ius
ur an
et own
ĠI S
em us
ac aceae
ĠE ri
ĠF ord
ĠF BI
Ġ5 000
ĠW arm
ĠX á»Ń
and is
ul aria
ul atum
ot al
ot sk
Ġy áº¿n
ÄĲ Ã´i
ĠU FC
tr iá»ĩu
oc ol
ĠY ong
ĠGi an
ab h
ab al
ab ria
19 65
19 78
ne z
Ġ11 8
Ch aet
Ch eil
ra f
ob ry
ou x
ik ov
ĠÃģ p
ĠMar cus
ĠSt ÅĻ
ĠBr uce
Ġ14 4
Äĳ a
ri es
est olone
iz a
ess ion
ĠPr ot
Ã¼ z
ath am
ek k
Ġtho áº£
ĠHy un
An n
ĠMan che
ĠSc arlett
ĠRe itter
aul is
St and
ĠAnd y
ops idae
inc k
Pr esl
tern ational
iel sen
ash tra
ĠOl iver
omb u
ĠMc G
ĠMc Carthy
ĠHer cegovina
yg d
ĠSe iga
ĠBal i
ĠHe idelberg
gi áº£i
Ġ180 4
by ekt
Cal yp
yt es
zh eval
anc ouver
ĠInd ustr
any ang
ĠMin as
ĠSil esia
row n
ias lav
ĠArm s
ĠPro ject
ĠRos berg
Pol yg
Pol ypodium
ĠFir mino
ĠHill s
bl ysteg
Re al
ĠTer rier
ĠlÃŃ u
ĠUp date
ĠMand ya
Ġkáº½ m
ĠBus iness
ðŁ į
Ġte aser
ĠLaz io
ĠGuy ana
ĠHok kaidÅį
ĠVil nius
Ġstud io
otam idae
ĠMons ter
Ġpur pur
ÅĤach owicz
ĠTect ariaceae
2 50
A A
A i
B O
B ao
D is
G et
M ag
N ov
N ap
O T
P at
S Æ¡
S ter
V E
Y P
a hi
b Ãªn
f u
h ood
h ole
j oz
l ow
l ast
p el
p ed
r ian
v Ã´
à ¥
å §
å Ł
æ ¥
æ Ľ
ç ķ
è ¡
ì Ŀ
Ġ Ãł
Ġ ag
Ġ zh
Ġt á»ĭnh
Ġc áº¡p
Ġc ost
Ġl Ã©p
Ġh á»§
Ġh á»Ļt
Ġh Ã©t
Ġb arb
Ġn áº¿n
Ġn á»Ľi
Ġch Äĥng
Ġk Ã¨n
Ġs áº£i
Ġs lave
Ġd iá»ģu
Ġd ich
Ġd Ã©p
Ġd ist
ph e
ĠT ord
ĠT eodor
Ġng áº£
Ġng áºŃm
Ġph Ã¡ch
qu is
ĠC ath
ĠN y
ĠN as
ĠN em
ĠH anh
ĠH os
ĠH ancock
Ġx Ãª
Ġx iÃªm
ĠB ass
ĠB aill
ĠB ots
ĠM Å©i
ĠM AC
Ġ2 10
ĠÄĲ á»ķi
ĠÄĲ Ã¡m
ĠS imp
in y
ar ashtra
ĠP eg
ĠV ienna
ĠK asparov
Ġcho Ã¡n
ĠA I
ĠTr Ã¢m
ĠD á»©a
ĠPh Ã´
ĠPh áº¥n
ĠQu á»³
ĠNh á»¯
et is
om s
ĠI an
em ek
ac i
Ġ4 30
ĠJ as
ĠJ Ã¤
ĠJ akarta
ad es
th am
ĠW el
op is
ĠX i
ĠX em
ĠKh iÃªm
ir Åį
Ġp ed
Ġp ers
ĠGi áº£ng
amp o
19 50
ill on
ob ar
ine ering
Ph an
ik aze
Ġ17 87
ĠAl gar
ĠAl onso
ber ia
ton i
ĠZ im
Ġin ugami
Ġlá»£ p
iz u
ĠPr os
Kh oa
ox a
ĠSer g
ost is
ĠCar p
ĠSc ience
Ġgh á»ģ
ts en
ann on
Ġand rogen
ĠEd mund
yo ung
ĠKr em
ĠOs tr
à¸ ²
int osh
ĠGre ene
ĠMos elle
ĠHe ath
Ac id
Ġ180 5
ĠBur n
ĠGar ena
Thu á»ĳc
ĠGen ova
ĠGer ais
Ġ179 2
ĠPo ir
ĠHol ocaust
ĠSum mer
ĠAP EC
Ġnig ric
ĠTel ev
ĠLor enzo
ait ing
ĠSat oshi
ĠJam ie
edo ÄįeskÃ½
ĠSec ond
ĠJon athan
ĠCá»© u
æĿ İ
ĠKhark iv
Tu áº§n
Ġball ad
eog rad
ĠSov narkom
ĠVic ente
ĠRid l
Lou is
ĠRÃ© union
ĠPhilop otamidae
Ġáº¨ n
ythec iaceae
ĠWÅĤ adysÅĤaw
ĠTamer lan
ĠWatan abe
iadi Ã¨re
ĠRw anda
ĠBada joz
" ãĢį
- -
1 10
B R
C á»¥
C entr
C ephal
D in
D ip
E ry
F est
H ang
H om
H aw
H essen
J ones
L ac
L up
L ib
L ith
M C
M ang
M ill
M arg
P ed
S á»Ł
S Ã³ng
S yr
U P
V iÃªn
V ol
V ict
X yl
c Æ¡
c op
c od
e ad
f ul
g art
h ot
j ung
l iÃªn
n á»¯
p u
p ol
è Ļ
Ġ il
Ġ it
Ġ om
Ġ amp
Ġt etr
ĠÄĳ Å©a
Ġv Ã¡
Ġth en
Ġm es
Ġm il
Ġm ag
Ġtr Ã¨o
Ġb ull
Ġch Ã©t
Ġch rys
Ġs á»¥c
Ġnh ung
Ġd áº·n
ph ia
ĠT Ã¡
Ġph á»ĵng
an ahalli
ÃŃ g
ĠL ak
ĠL yn
ĠL ars
ĠH us
ĠH Æ°u
ĠH aj
ĠH els
ĠH udson
ĠH mÃ´ng
Ġr am
Ġr en
Ġr Æ¡m
ch ev
Ġx anth
ĠB Æ°á»Ľm
ĠB auhaus
ĠB eograd
ĠM es
ĠM á»ĩnh
ĠM etr
ĠM aul
ĠM its
ĠM ueang
ĠM Ã¡rquez
ĠS oy
ĠS ull
ĠS af
ĠS oo
Ġ" ",
in th
in alis
ar en
ĠTh uyá»ģn
ĠTh era
ĠV as
ĠV á»£
ĠK w
ĠK ag
en ius
ay ama
ay ashi
ĠTr á»«
ĠD h
ĠD ÃŃ
ĠD oc
ĠG au
ĠG us
ĠG hi
id en
id as
ĠCh ao
ĠCh it
ĠPh oen
el on
el ii
ĠNg á»Ļ
Qu ay
im ate
ĠNh iáº¿p
ĠR Ã©g
ic ans
as ma
it Ã£o
om ing
ĠI gn
em ann
Ġ18 14
ĠF ire
Ġ5 50
ad h
th Ã´ng
th á»©
áº½ n
Th elypteris
re cht
ÄĲ Ã£
od i
ov sk
Ġp art
Ġ12 4
Ġ12 6
ab ra
19 77
ell an
ell aceae
Ch Ã¢n
Ġf lu
ent ino
ik u
ut th
ut ta
ĠZ am
ach ne
Äĳ Ãª
ep am
Ġmu á»Ĺi
eb o
yr oll
ass er
ys tach
kh otep
ath idae
iss e
ost emon
eth er
ĠMan us
ĠCl ay
St orm
itt ata
ld og
ĠOs man
li ent
ĠMor gan
ign ano
iÄ į
ĠSam sun
ĠGo uld
ky Åį
ĠVen eto
osh ima
ĠLou ise
Ð¸ Ð½
Ġhyd roc
ĠPan zer
ĠMin sk
ä¸ ī
ÅĦ sk
ĠAc id
ĠCD K
Ġâ ĨĴ
Ġcl ass
ĠPt inidae
ĠLind a
Ġpol ymer
Ġbr un
San ta
ĠShar on
ĠGab on
ĠLeg alov
ough t
agne p
rah im
ĠÃĩ orum
ĠSak ura
chn aceae
ĠGoth ic
odont idae
obe khotep
sz at
ĠÂ ±
ĠChern y
ushi ro
ĠAnth ony
oloph ia
ĠCav ani
ĠAlf red
ĠWr est
ĠBoris ovich
ĠConstantin opolis
ĠPrinc eton
ĠCard ot
Dicran omyia
ĠMach ine
æ° ı
ĠDum as
unch yroll
agli ari
Club iona
ĠValent ine
ĠBrach ytheciaceae
ĠUzbek istan
Elaph oglossum
ĠBagh dad
ĠEndom ychidae
ĠStÅĻ edoÄįeskÃ½
zheval sky
ĠBots wana
" -
3 50
A ch
A tr
A tt
B elle
B roth
C áº¥p
C ent
D M
D as
G E
H A
H Ãłng
J ust
L Ã¡
L ai
M oloph
N et
R am
S k
S ai
S at
T P
b h
d in
d ou
g s
h ard
h ampton
j or
k á»ĥ
m ore
n is
r ight
s son
t own
y rium
z u
Ï ĥ
å £
è Ī
Ġ oc
Ġ ãĥ
Ġ arm
Ł ³
Ġc el
Ġc all
Ġc Ã²i
nh Å©
Ġv al
Ġv ill
Ġth at
Ġth Ã³c
Ġh ÃŃt
Ġb il
Ġn áº¥p
Ġn Ãªm
Ġs Ãª
Ġs ap
Ġd emo
ĠT ia
Ġng á»Ĺng
an te
ĠC au
ĠC á»ķng
ĠC art
ĠC agliari
ĠL l
ĠL ine
ĠL iber
ĠH Ãºc
ĠH ou
ĠH Ã£y
ch ia
Ġx Ã³i
ĠB ai
ĠB ij
ĠB ÅĤachowicz
er os
ĠM ello
ĠM ombasa
ĠÄĲ am
ĠÄĲ Ãºng
ĠS ib
on it
on ta
am phoe
Ġ( +
Ġ( ??
Ġ" ".
ĠP ab
ĠP sk
ĠP ont
ĠP anth
ĠTh á»Ń
ĠTh áº¥y
ĠV ancouver
ĠA BC
ay n
ĠTr áº£i
ĠTr áº¯c
al am
ĠD nie
ĠD ixon
or ic
ĠG and
ĠCh ild
is ca
es ta
es per
im er
Ġlá» Ŀ
il and
il ian
ĠR aph
as te
it os
ur ic
et su
ĠI k
ĠE h
ĠE le
ĠE ul
ĠE lectron
ĠF inn
ĠF ield
th á»§
th on
Th á»ķ
Th Ã¡nh
ĠO ver
Ġtu á»³
Ġp ub
Ġp lan
ĠY oo
ĠGi Ãł
av es
19 39
19 81
19 82
ne ph
ĠAn at
Ch rist
Ġtá»¥ y
Ġf us
ent s
Ġbu Ã´ng
ĠSt u
Ġ17 5
ach al
Äĳ á»Ŀi
az ur
ĠSh an
ĠSh indong
yr is
Ġan n
ĠGr ace
ast ic
kh a
Ã¼ m
oll ar
ĠSch r
igh ton
ĠSer ena
Ġ26 0
ĠFran c
ĠHai ti
ĠIs a
ĠchÃ³ t
arb akÄ±r
ĠEr z
ĠMac intosh
ĠBal y
Br it
Ġ180 8
ĠHam let
ram ma
Ġsh ell
ÄŁ r
app a
Giá» Ŀ
ĠWe ise
ĠMah arashtra
ĠLouis iana
unc ulus
Ġno Ã£n
ĠAll ister
ĠMet z
Co us
ĠAz ov
osta ch
ĠKan eda
BT R
ĠWar wick
ĠAlbert o
ĠSel im
ĠWood ville
Ġngo áº¡n
TT g
ĠCai ro
ĠRy u
ĠÆ¯ u
ĠFern and
åį Ĺ
ĠMaur itius
ĠWr ight
ĠSom alia
ĠPy ong
Ele ven
ĠLig ue
ĠIz iaslav
ĠGM M
ĠFu ji
ĠGren ville
Eug enia
Peter burg
ĠBald win
ĠDig ital
Charl es
Ġaustr alis
ĠStaff ord
ĠStrai ts
ĠSchwar z
ĠMarse ille
ĠMatth ew
ĠThera phosidae
Moloph ilus
! ",
A ug
A lt
B ac
C E
F e
H arp
K n
L at
L enin
N ik
O t
P op
P and
P art
R u
T áº¥n
V Ã¢n
W atson
W aiting
X Ã©t
_ _
d ay
d ev
h ra
k ing
l áº§n
m uban
o Å¡
p x
p yros
r um
r ate
s or
s ey
t am
t ube
v us
Ë Ī
Ù İ
á ¸
æ Ģ
ç Ľ
Ġ Ãªm
Ġ oanh
Ġt om
ĠÄĳ Ã²
ĠÄĳ á»ĳn
nh áº¡c
nh agen
Ġv áº¥t
Ġl Æ¡
Ġl iá»ģm
Ġl Ã©n
Ġth oa
Ġth áº¯p
Ġh en
Ġh Ã¨n
Ġm Ãły
Ġm áºŃu
Ġm Ã©o
Ġtr u
Ġb as
Ġn Ã¡o
Ġch ar
Ġs á»ī
Ġs ul
Ġnh am
Ã¢ te
Ġd áº¡t
ph al
Ġg Ã£
ĠT ype
ĠC it
ĠC un
ĠN az
Ġvá» ©
ĠH off
Ġr up
ch Ã¢u
ĠB un
ĠB Ã¬m
ĠB arl
ĠB att
ĠB apt
ĠB attle
er re
ĠM all
ĠM Ã¹i
ĠÄĲ T
ĠÄĲ ao
ĠÄĲ áº³ng
ĠS y
ĠS ag
ĠS eiji
ĠS obekhotep
in atus
Ãº n
ĠP V
ĠTh áºŃn
ĠTh ess
ĠV ang
ĠV ary
ĠK H
ĠK ind
ĠK Ã¼
ĠK ama
ĠK oster
ĠA N
ĠD Ã£
ĠD Ãłn
ĠG ry
ĠG eller
ĠG NU
ĠCh Ã¹m
ĠPh áº¿
at ur
ĠNh áº±m
ĠNh áºŃm
ol on
ĠR á»ĵi
ĠR ah
ĠR ukia
ic ea
Ġho áº£
as us
Ġ3 30
os teg
it ia
et ic
et ing
om is
ĠI beria
em or
em ber
ĠE b
ĠE t
ĠE ure
ĠJ Ã³
ad en
ĠW ah
ĠW ander
Ġdo Ã£n
op od
re is
ĠO ak
ĠO erl
ĠU TC
ir st
tr an
Ġlu á»Ļc
Tr Ã¡i
Ġ10 3
ing a
Ġp rog
Ġ12 2
Ġ12 00
19 40
19 72
19 55
19 79
ap at
Ch en
ie j
te x
Ġf ur
ian ce
ĠAl pha
ĠAl pes
ĠAr ena
Ġ15 2
") ;
á»Ľ m
ach t
ach ia
ĠBr at
ub o
Äĳ rÃ´
az aki
ĠIn tel
ist s
uk os
ĠMÃ£ o
ĠPr im
Ã¼ ck
Ġ24 0
ĠPar ad
ĠPar sons
eh al
och ilus
ĠAs teraceae
ĠSan Ã©
Ã¶ m
br ik
Ġu áº¥t
se i
ĠBar ney
eth ocaine
ĠCl inton
ond or
ĠFran ch
tt um
Ar d
Ġgh áº»
ann ah
Ġnhá»Ľ t
ĠAd v
à¸ ´
ho e
ĠSe ung
ĠSe attle
ĠTu á»ĩ
ign on
ĠBen ed
ĠÅ »
ĠBel ov
oman es
ĠEm brik
Ġst ream
ept ide
Rh ynch
ĠWest minster
Sch iz
ĠYou tube
ĠAir y
ĠVen ice
ĠMont en
app en
ĠGal axy
ĠAnt ioch
Ġxo Ã¡
ĠJul ia
ther hood
ĠMet eor
sau lt
ĠTV B
oriz on
kov Ã¡
ĠNar uto
Å¾ ek
oceph ala
ĠChar ente
Mah an
cht enstein
ĠMoz art
ðŁ Ĵ
ĠNS F
ĠLept odactylidae
ĠClark son
osperm um
Hyd r
bu ilding
ĠSax on
ĠGard en
HÄĲ ND
ĠMohamm ed
ophon otus
Tur ner
agal ur
orde aux
ĠBia ÅĤ
Mord ellistena
ĠPubl ic
ĠMats um
Ġdop amine
Dios pyros
ensh evik
ĠInstit ute
ĠStanis ÅĤaw
Salm on
ĠMeh med
Neol ophonotus
ĠBamb oo
ĠMitch ell
ĠJor ge
ĠDiy arbakÄ±r
ÃŃg uez
Cous inia
ĠWander ers
ĠOerl ikon
- "
B en
B is
B ern
D Ã£y
E c
E u
F icus
H ex
H end
I sch
J o
L G
L os
L ox
M R
M iá»ģn
N á»ģn
N ational
O m
O ph
R em
S ing
S ax
T á»Ľi
T unes
Z ero
b az
g un
g ie
g ow
h l
h op
l s
l ao
l ess
l Ã¨s
n Ã³
n ov
t áº¥t
t áºŃp
x a
z ia
Ø ±
á ł
æ ī
æ ŀ
ç ´
Ġ áº£i
Ġ app
į ng
Ġv áº¿
Ġl iÃªm
Ġl á»ĳp
Ġh em
Ġh Ã²ng
Ġm Ã¢m
Ġm Ãºi
Ġch Æ°á»Łng
Ġch iÃªng
Ġs l
Ã³ s
Ġd Ã¬
Ġd isco
ph Ãºt
Ġg al
ĠT as
ĠT áº¡o
ĠT etragn
an ic
qu i
qu á»ĳc
ĠC z
ĠC ry
ĠC yrus
ĠN ao
ĠN ile
ĠL om
ĠL ag
ĠH um
ĠH od
Ġgi Ã²n
Ġr es
Ġx iÃªn
ĠB omb
ĠB yron
ĠM W
ĠM Ã¡t
ĠM enshevik
ĠS ter
ĠS á»¹
ĠS AR
am ar
am ed
Ġthá» «ng
ĠP ax
ĠTh ebes
ĠV iz
ĠV ys
ĠK ang
ĠA is
ĠA ustin
al ea
ĠG ekk
id on
id ius
ĠCh á»Ń
ĠCh un
ĠCh iba
ĠPh e
ĠPh ÃŃ
ĠPh Ã¬
el ing
el ma
eo c
ĠNg á»į
ĠQu áº¯n
ĠR ur
ĠR end
ĠR ural
ic alis
as m
ur s
et an
om ic
Ġxu á»ĵng
Ġ18 16
ĠF iss
ĠF ish
hi za
ad io
th iÃªn
ĠW omen
ĠW HO
ĠW eimar
ak an
ĠU eda
oc e
ov en
19 63
19 73
ie f
ip zig
ob u
iv il
ok awa
ĠAl m
ut ell
Ġ15 5
all ia
all etti
ach e
ĠBr uss
Äĳ á»ĭnh
aw ara
ĠSh am
ĠIn v
Ġin t
ist o
oh en
man ia
ass idae
ort al
ĠEl gar
yp t
Ġw e
Ġ22 5
arn ais
ĠAs ahara
oy ono
Ġ28 0
ĠMan isa
ĠMan cha
ĠCl ar
ĠCar ey
Ġgh Ãª
ĠKhu Ã´ng
ĠRe ch
ĠAnd hra
ĠSte am
ĠSte wart
ish a
ĠPol yg
ĠPol otsk
Le itÃ£o
ĠSm ol
ĠNe u
enz e
arp a
ĠDe ath
tic ulidae
ih on
In ternational
ÅŁ a
yph l
ĠEm ilia
ck Ã½
Äģ n
ept or
Ð° Ð»
entr y
Sc ot
Ġox i
Ð¾ ÑĢ
Ġhu á»³nh
ĠBos ch
AT A
fl u
ĠMi q
195 1
Ġ179 4
Er ica
Ġâ Ĥ¬
ĠCas ablanca
ĠZh ang
å¤ ©
Ð¾Ð »
ĠSai t
he ad
iew icz
Ġder by
islav a
ĠDev let
unct ata
Ä±r Ä±
ĠBud jak
ĠÎ ±
Ġfr ig
ism und
fer ence
urb itaceae
ĠNep ticulidae
ĠÂ £
Ġhi ÄĳrÃ´
ĠÃį ch
ĠKra enzl
omet hing
ĠJeff erson
ĠRon aldo
Ġlá»ģ u
ĠAndr Ã©
ĠBrook lyn
ĠConstantin ople
ĠFour ier
Des m
ĠHugh es
ocaul aceae
ĠRet ina
ĠÆ ¯ng
ĠCÃ¢n dido
ä¾ ¯
ĠLagr ange
ĠGam ing
ĠDn ies
ĠGrimm iaceae
ĠScand inavia
ĠMoun tain
Ġhydrox ide
ĠMig uel
ĠCuc urbitaceae
udh oyono
ĠEri ocaulaceae
ygd alin
ĠAlgar ve
szat ek
ĠPsk ov
ĠTetragn athidae
ĠGekk onidae
" '
. ".
A z
B Ã¡ch
C ass
D áº¥u
E t
F iss
G B
G ard
G old
H Ã´n
H ero
K an
K ÃŃch
K Ã½
L in
L Ã¢m
M á»Ł
M ay
M áº¡ng
M ess
N áºŃm
O ld
P iper
R ic
S ac
T in
T en
T á»Ń
T im
T iber
V I
V Ä©nh
X e
b áº±ng
b uri
h tt
m ingham
m yeon
n ull
p is
r Åį
t Ã¡c
t an
t in
t ae
v o
w y
w ater
w ait
x icÃ´
y re
z ek
È Ľ
Ð ·
à ¼
Ġ ec
Ġ Ã³c
Ġ ãĤ
Ġ ibn
Ġt iá»ħu
Ġc á»įc
Ġc ard
Ġc áº±n
ĠÄĳ áº½
Ġv áº¯t
Ġv ul
Ġl á»ĭ
Ġm Ã¡ng
Ġm Æ°Æ¡ng
Ġm áº¯m
Ġtr ip
Ġb á»ī
Ġb Ã¬m
Ġb á»Ľi
Ġn áº¡c
Ġch á»ım
Ġs i
Ġs Ãłnh
Ġs Ãºp
Ġnh áº¡o
Ġd Ãło
ĠC i
ĠC Ã¹
ĠC opa
ĠC ypr
Ġqu i
ĠN au
ĠL áº§u
ĠL amb
ĠL ast
ĠL ike
ĠH r
ĠH á»ģ
ĠH im
ĠH ector
Ġr á»£
ch us
Ġx Ã¡t
ĠB av
ĠB ordeaux
ĠM ong
ĠM it
ĠM og
ĠM ID
ĠS V
ĠS ed
ar an
ĠP uy
ĠP us
ĠP ul
ĠV áºŃy
ĠV oss
ĠV ald
ĠK ushiro
en us
ĠA in
ĠA mm
Ġ20 4
al op
al ie
al ya
ĠD ia
ĠD ion
ĠD ort
or ax
Ġngh áº½n
ĠG ad
ĠG da
ĠG ulb
ĠG ambia
id al
ĠCh á»§ng
is k
el ai
Qu áº§n
im oto
ĠR as
ĠR ab
ĠR ush
ic le
as sky
as ci
ĠE uph
ĠF et
ĠF ate
Ġ4 80
ĠJ enn
ad an
ad in
ad ena
ĠW oo
Th Ã¡c
Ġkhu Ã´ng
re j
ag es
ag ement
ÄĲ a
ĠO ri
tr ile
Tr ans
Ġ10 2
ed om
ĠY udhoyono
19 69
19 61
ne by
ich en
Ã©t ico
iv o
Ph Ã¡o
ent i
ian i
ĠMar iana
ĠSt ore
ĠSt ade
ĠSt ockh
Ġ17 83
ĠAl p
if ascia
Ġ15 4
io x
ach a
ĠBr aun
ĠBr emek
ers achsen
Ġ14 71
Äĳ áº¿n
ep ler
oph il
... ]
ĠPr ince
ĠCon s
Kh Ã¡c
Ã¼ t
ick el
ĠgÃ³ t
och rys
och ika
Ġbá»Ŀ m
ost igma
ĠCl eopatra
ĠCl aude
ĠLu ther
ĠMad h
yll us
sil oc
ĠSte ven
att y
ĠYork shire
ĠAd iant
ash ta
ĠOr ange
ĠPol yc
ĠRob inson
ho use
ĠPal au
ĠHen r
ĠDe ad
ĠRh odes
ih ar
Ã¤ r
Ġi od
ĠScot ia
rat es
ĠCast el
imb art
Bl ake
CA F
195 8
agh etti
Ġ179 5
ĠPro f
unn ing
agr ostis
ĠHol ttum
org an
ĠSmith son
ĠRoman ovich
ĠWar ren
ĠBu enos
ĠNav arre
ĠHow e
icul atus
ĠSab er
Phil ipp
Chu áº©n
Ste ph
ĠLim ited
ĠBill y
ĠEs s
Ġrob ust
Ġdai myo
ĠWes tern
ĠBlue hole
ĠBir mingham
ĠDj oser
ĠRost ov
ĠAtl antic
ĠAtl Ã©tico
ĠMaster s
Gal ium
ä» ģ
åĮ º
ĠRoss i
ĠTod d
åľ ĭ
ĠNied ersachsen
etsk ov
ĠShip building
ĠCE O
ĠLis bon
ĠRodr ÃŃguez
ĠSint ashta
Wil son
Amer ican
ĠIgor evich
ĠLÃªn in
Ven ez
ĠLiz ardon
ĠSig ismund
æµ ·
ĠBez os
ĠJis oo
ĠAssociat ion
William s
ĠSoft ware
Nom ada
ĠKann ada
ĠSele ukos
ĠPec kham
ĠJÃ©r Ã´me
ĠCalder Ã³n
ĠBleu ets
ĠHels inki
ĠRÃ©g imbart
ĠMonten egro
ĠMeteor iaceae
ĠPolyg alaceae
ĠDort mund
ĠAdiant aceae
? ".
A sia
B ang
B est
C á»ķ
C ord
C ity
D an
D el
D ry
E uxoa
H áº¡
K e
L ang
L iv
M Æ°á»Ŀi
N eu
P rom
P oaceae
R ay
S ong
S omething
T E
T etr
U SA
W Ã¼rttemberg
b as
b red
c ourt
d ur
d ie
f il
g am
h at
i w
j Åį
j ima
k Ã¶y
l oa
l id
m isch
n or
n eri
r ess
s ide
t ur
t á»±a
t ora
u ber
v ice
w all
x u
y ia
y Å«
Ç İ
å »
å Ĩ
å ĭ
é »
é Ģ
é ĸ
Ġ %
Ġ Ċ
Ġ Ãª
Ġ Ã¡ch
Ġt een
Ġc os
Ġc Ãºi
Ġv Æ°á»Ľng
Ġv irg
Ġl áº©n
Ã¡ l
Ġh Ã³t
Ġm as
Ġtr Ã²ng
Ġn á»¥
Ġn agar
Ġn Ãºm
Ġch Ã³c
Ġs áº¥u
Ġnh á»©c
Ġd ig
ph on
ph yl
ĠT ac
Ġph Ã´ng
Ġph Ãłn
Ġph á»Ľt
qu in
ĠC á»§
ĠC á»ĳi
ĠC ob
Ġqu ark
ĠN D
ĠN ebr
ĠL eo
ĠL iá»ĩu
ĠL uke
ĠH Ã¡t
ĠH ub
ĠH rad
Ġr á»§
Ġr áº¡ng
Ġr ot
ch on
ĠB au
ĠB uc
ĠB Ã£o
er ta
ĠM ett
ĠM anga
ĠÄĲ áº¡
ĠÄĲ Ã¡nh
ĠÄĲ Ä©nh
ĠS r
ĠS ey
am or
Ġ( '
Ġ" ...
ar v
ĠP and
ĠP LA
ĠK Ãª
ĠK in
ĠK od
ĠK uk
ĠK oz
ĠK iel
au se
ay i
ĠTr a
ĠTr Ã¡ng
ĠTr ab
ang ensis
ĠD yn
ĠD uck
ĠCh alle
es un
ĠPh Ã³ng
ĠPh olc
at ae
us ia
ĠQu Ã¡i
ĠNh iÃªn
Ġbá»ĭ p
Ġbá»ĭ t
ĠR ut
ĠR ivers
ic osa
it on
it ol
it rium
ĠI CA
em um
ĠF at
th r
ĠW u
ĠW er
ĠW ard
Ġdo áº¡
Th al
ĠX Ã¡c
ag idae
ĠKh al
Ġkho Ã¡t
Tr á»ĭnh
ig ami
Ġp ixel
Ng á»įc
19 60
19 53
19 68
19 76
ell um
ich um
ĠLan celot
ie i
ent y
ĠMar ch
Ġ17 58
ĠAl c
ĠAl ess
ĠAl iadiÃ¨re
ĠAr i
all a
all is
sk h
ĠGia cÃ´
ĠLe pid
ĠLe ipzig
ĠZ ag
Ġ16 00
az ine
eg a
ĠSh r
Ġ13 6
oh yd
ier a
ess ler
ĠPr om
ind o
ast us
ort ic
ĠQ uyáº¿n
ick s
Åį jin
ĠSp ec
ĠSp ace
St elis
ĠMal at
itt atus
Pr od
ly uch
Ġac um
ĠHar ms
ĠAb raham
ĠBo ys
ĠIr on
ĠMe use
yph us
yph antes
ĠOp era
Anh alt
esc u
ĠRichard s
Sp r
Ġox it
osh ilov
ĠTur ridae
ĠMed ina
ger ia
Ġi Tunes
Ġå ¤
Ġon line
Ðµ Ð½
rob iidae
ĠCap ablanca
ĠWe ekly
ĠSant os
yth ia
eol us
eol ata
195 9
erg ic
ĠThi em
iff in
ĠOb serv
ĠFab aceae
ĠZh u
Ġcr acking
All ium
ĠBu Ã´n
ĠKe ith
Cor yd
ĠDev elop
ĠGreen land
Ġmin or
ĠDub lin
ĠYam ag
ĠGold en
auh arnais
Ġli u
ĠEv il
ĠBab ylon
ĠBir d
aman ca
Ġphosph at
Cyrt andra
NH H
ĠKos ovo
ĠMagn us
Mc Cartney
Phyll anthus
æŃ ¦
Mus ic
ĠSpar assidae
ĠÅģ Ã³d
ĠChamber lin
Ġgran it
ĠDiam andis
ĠMys ore
ĠVsevolod ovich
evch enko
ĠRÃ´ man
ĠPick ard
ĠPoz na
ĠGord on
ĠPale arctic
Ġhydroc arbon
ehal ose
ĠGda ÅĦsk
ĠNebr aska
ĠPholc idae
ĠÅģÃ³d Åº
B ÃŃ
B á»©c
B iá»ĥn
B rid
C ry
C yp
C rep
E sc
G ro
G len
H T
H ir
I U
K on
M áº¹
M anga
N Ãºi
O N
O P
O b
R ock
S iÃªu
S Ãºng
S ir
T Æ°á»Ľng
T mar
V orpommern
W u
X áº¿p
b eck
d áº·m
f ish
g at
g ers
g erme
h á»ĩ
h ito
k Ã½
l im
l ot
l ock
m ia
m ail
n an
n idae
n ot
n agar
r ag
t is
u ther
z ie
z ano
¯ į
Ù Ĩ
ç §
é Ń
Ġ act
Ġt á»§a
Ġc á»ĵng
Ġc oll
Ġc lient
nh ower
Ġv ol
Ġv áº±n
Ġl ay
Ġl iÃªu
Ġl áº©u
Ġl Æ°á»Ľt
Ġth á»ĳn
Ġh at
Ġh Ãºy
Ġm ir
Ġm ex
Ġtr á»į
Ġtr Ãªu
Ġb ol
Ġch áº£
Ġs and
Ġs eri
Ġd ub
Ġg el
Ġg á»įng
ĠT Æ¡
ĠT á»ĳt
ĠT uyá»ĩt
ĠT oshi
ĠT EM
Ġph enol
an p
ĠC J
ĠC M
ĠC T
ĠC ang
ĠC oppa
ĠC á»įp
ĠN C
ĠN á»Ńa
ĠN ull
ÃŃ k
ÃŃ s
ĠL iá»ħn
ĠL ug
ĠL oáº¡t
ĠH S
ĠH iÃªn
ĠH ern
ĠH ama
ĠH amm
ch áº¥t
ch iáº¿m
ĠB R
ĠB Ã²
ĠB Æ°á»Ľc
ĠB á»©a
ĠB eg
ĠB ott
ĠÄĲ áº§m
ĠÄĲ uÃ´i
ĠS E
ĠS entai
ĠS viat
am ia
Ġ( ?
Ġthá» Ľ
ĠP eople
ĠTh er
ĠV á»¹
ĠV á»ĳn
ĠK el
ĠK ul
ĠK ak
ĠK ob
ĠA ne
ay an
ĠD olin
ĠG in
ĠG le
is b
is ar
Ġgiá» Ĺ
eo la
ĠNg Ãłnh
Ã© a
ĠR el
ĠR osa
Ã¡n dez
it rich
ĠI BM
ĠI RS
ac idae
ĠF ant
ĠF LC
ĠF orbes
hi ch
ĠJ ub
ĠJ ournal
ad n
ad ian
th or
Th Æ°á»Ŀng
Th áº£m
Th á»¥y
op et
le ch
ul z
ul ifera
Ġ6 50
ot an
ÄĲ á»ģn
od le
ĠO man
ĠU szatek
ir is
oc os
ig ov
ig ata
Ġp ac
Ġp ost
Ġ12 3
av al
ab ar
ab uri
19 21
19 64
ell ulidae
ne yland
Ġ11 1
Ch r
Ch uyá»ĩn
og an
og rad
ob asis
ry x
iv ar
ine k
ian th
ĠMar yland
ĠSt en
ĠSt ation
Ġ17 2
if ica
ĠBan i
Ġáº¤ p
ud o
ĠLe b
ĠLe one
ĠZ arag
ach er
Äĳ i
aw esi
ĠSh ad
Ġal p
yc osa
ep end
est ion
Ġin f
Ġin tegr
uk yu
iz er
iz en
ĠCr unchyroll
end e
Ġ21 3
eh yde
ans a
ĠAs tr
Ġ23 5
ĠHy e
se ng
ĠSp assky
ĠBe auharnais
ĠAd eridae
ĠAd elai
ĠOl om
ĠCor inn
ĠMc C
ĠNe es
ĠPhan xicÃ´
ĠâĢľ "
ĠBro therhood
Ġ180 7
iÄ Ļ
ĠEm manuel
ise nhower
ling ton
ĠVi olet
ere us
ĠTur ing
ui re
El izabeth
ref ox
ĠGen oa
ĠGl enn
ĠDel ta
Ġar ea
En t
agr ion
IA A
sc ope
ĠCas c
ĠSai pan
ĠLib ellulidae
ĠTiber ian
ĠEur ope
Ġngo áº·c
utt atus
ÃŁ e
icul atum
abr era
ĠKam en
åĲ Ľ
Ä±k esir
ĠKenn eth
ĠBus an
ĠAh med
æľ ĥ
ĠBrun o
ĠPed ley
ĠGol gi
Ġsim ilis
Pter olophia
ogn atha
Ġmet al
ä¹ ĭ
ĠPur ple
ĠLie chtenstein
Pt il
ĠSev illa
thes aban
ĠTod ay
utsk oy
ĠAugust us
ĠSyst ems
ĠMstislav ich
åĽ ½
ÑģÐº Ð¸Ð¹
ĠDiam ond
itte e
ĠJar ed
ĠVinc ent
Oxy opes
entrop odidae
ĠCoun try
ĠFerm i
ĠBelg aum
ĠBeaut y
ĠPhr aya
ĠColumb us
Prim ulina
å¦ ĥ
ĠKrish na
Low ry
Jose ph
Ġestr ogen
ĠOctav ius
unj ab
ĠArms trong
Fest uca
utth aya
Ġvá»© t
ĠGulb arga
ĠStockh olm
ĠPolyc entropodidae
ĠGiacÃ´ bÃª
Tmar us
germe ister
ĠZarag oza
ĠAdelai de
ĠCorinn idae
" /
1 000
1 18
; "
B á»Łi
B Ã³ng
B orn
C ot
C av
C osm
C yath
D L
G yn
G erm
H Ãłm
H ull
J ack
K ur
K em
M yrm
N at
N atri
O ch
R es
R oman
S z
T W
T Ã¡i
T Äĥng
T uyÃªn
T em
W in
W ood
Y oung
Z h
b áº£o
b re
b orn
d an
d era
e au
f i
h oÃłn
h ausen
l on
l ett
l oe
p et
r or
s ens
s ii
t oÃłn
t Ã´m
u atu
Ã ¯
Ê ¼
Î º
è ©
Ġ Æ°ng
Ġ ass
į t
áº ¨
Ġt ib
Ġc lav
nh Ã³m
Ġv Ã¡y
Ġl ep
Ġl á»¥y
Ġth á»ĳi
Ã¡ z
Ã¡ lez
Ġh áº¥n
Ġh igh
Ġm iá»ĩt
Ġm ax
Ġtr Ã¡
Ġtr Ã¢n
Ġb á»«a
Ġn a
Ġn ad
Ġn Ã¡u
Ġch Ã¡o
Ġch áº¯t
Ġs ylv
Ġd iá»ĩp
Ġg neis
ĠT C
ĠT ch
ĠT á»ī
ĠT ad
ĠT ag
ĠT áº§ng
Ġph á»ī
á»ĭ t
ĠC á»Ļt
ĠC áº·p
Ġqu á»³nh
ĠN áº¡i
ĠL ond
ĠH em
ĠH erm
ĠH aus
ĠH ÄĲND
Ġgi Æ¡
Ġr ai
Ġr ig
ch aris
ĠB es
ĠB á»ĳi
ĠB ers
ĠB á»ķn
er st
ĠM Ã¢y
ĠM iz
ĠM ein
ĠÄĲ á»Ľi
ĠS Ãło
ĠS ign
Ġ" [[
in os
Ġthá» ĵ
ar h
ar am
ĠP ep
ĠP ug
ĠP owell
ĠK is
ĠK áº¡n
en ii
ĠA B
ĠA H
ĠA ÄŁr
ĠTr ev
al en
al ay
ĠD im
or st
ĠG y
ĠG ov
ĠG ampo
ĠG agnep
ĠCh ik
ĠCh Ã¨o
is te
es tra
ĠPh ra
ĠPh nom
ĠPh ocas
el es
at is
at ov
at rach
il ie
ol az
ĠR ib
ĠR ox
ĠR eh
ic es
ic ill
ic aceae
ic inae
as an
Ġ3 45
it vice
et us
om ura
ĠI sh
ĠE cc
ĠE isenhower
ĠF oss
ĠF aso
ĠJ ai
ĠJ ump
ĠJ agi
ad ing
Th om
ĠX Ã©t
ot ype
Ġy uri
un us
ĠO byekt
tr i
tr Æ°á»Ŀng
tr em
ov tsy
ing ii
Ġp ach
Ġp ort
ĠY an
ĠY áº¿u
av irus
ab d
19 18
19 86
19 67
ap enko
Ġ11 4
ro h
ro ugh
ip a
ec ium
Ġchu i
Ġf err
ow an
ine us
Ph ys
ok ia
ok ovic
ĠMar cel
ĠSt apf
Ġ17 72
ĠAl derw
ut is
ran a
ber ry
ĠZ ak
Ġ14 6
ri b
ĠSh o
ah ashi
yc ter
Ġkháº£ m
ib u
opter yg
10 2
ĠThu á»Ļt
yp s
Ġw idth
ĠSch ust
yn ia
ĠAm blysteg
la an
la ander
anth e
ĠBar neby
An thur
ĠCan on
ĠPl ant
ĠPl itvice
ris e
ĠBe atty
ĠEn t
ĠSte el
ĠSal amanca
ĠEd u
ott o
ĠMc Cl
ĠPer cy
ĠBal Ä±kesir
ĠPaul us
ĠSing h
ĠStr auss
ĠUr s
itz er
ĠBur ser
Sh in
Sch w
Sch ltr
ĠMel bourne
ĠCarl o
ĠSong tsen
Gr amm
ĠAnt i
ĠGl as
Ġgl ob
ato es
ĠMer etskov
ĠSant ander
ĠFl ow
ĠTom atoes
uki yo
erg us
Ġ179 8
asp is
ĠKir ov
Ġâ ī
be an
ĠLi bert
ĠMod e
ĠSoc cer
ĠGeorg es
ĠPav ia
ĠFir enze
ĠJac ques
Cor p
ĠRy ukyu
Ġmic r
ĠTen cent
uct ion
ĠComm and
ĠNikol ay
Ġnho Ã¡ng
ĠKu ala
Un ivers
ĠJo el
Wh ite
ĠAy utthaya
enth es
ĠChern igov
Sal via
ĠAbr ams
arat skh
ems l
gia o
ĠBroad way
ĠSport iva
Ġdim ethocaine
ĠIb rahim
ĠHed ge
ĠChurch ill
ĠFeder er
ĠÄ° z
ĠPie ce
ĠMem phis
ĠStef an
fri ed
osz cz
ostyl is
ĠGom phidae
ĠBurk ina
Wind ows
ĠMeur sault
ĠHooker iaceae
Camb ridge
Hoff m
ĠFrances co
Ġid li
Clark e
ĠZim mer
ĠPab lo
ĠIsa ac
Ã¢te au
ĠBrat islava
ĠSAR S
ĠRur ik
ĠBruss els
asci ol
ĠAÄŁr Ä±
ĠAmblysteg iaceae
laander en
Anthur ium
ĠBurser aceae
aratskh elia
. ).
1 17
2 20
2 24
A V
A mm
B y
B Ãłn
B rad
D id
D oanh
G ood
H orizon
J an
J ul
K o
L áºŃp
L as
L á»¥c
L ip
L ast
M I
M á»įi
N CA
O st
P C
P ae
P lan
R o
R ud
S U
S á»©c
S ug
T ab
T ÃŃn
W el
W all
W orden
c ore
f ar
g ol
h otep
i opsis
k iá»ĥu
l ah
n ica
o ensis
r ita
s berg
t á»ķ
u ana
w yn
« ĺ
Â µ
Ï Į
Ù ħ
Ù Ĭ
ã ħ
æ ģ
ç Ĳ
è ī
é ©
é ¾
Ġ orient
Ġt or
Ġt ab
ng e
Ġc á»Ļi
Ġc and
ĠÄĳ Ãłng
nh áº¥t
Ġv aria
Ġv áº©y
Ġv áº¹t
Ġtr Æ¡
Ġtr áº§u
Ġtr á»ķ
Ġb Ã£
Ġb al
Ġn om
Ġn ov
Ġch Ã¹
Ġs Ã¡
Ġnh á»įc
Ġd Ã¨
Ġd ens
ph ar
ph one
Ġg á»«ng
Ġkh Äĥng
ĠT all
an ao
ĠC F
ĠC á»ĵ
ĠC app
ĠC osm
Ġqu áº§y
ĠN iáº¿t
ĠN ash
ĠN ecker
ĠL Ã©
ĠL á»Ńa
ĠL ist
ĠL ock
ĠL á»£n
ĠH oly
Ġgi Ã¨m
Ġr Ã¡ch
Ġx Ã¬
Ġx Ã¡ch
ĠB B
ĠB ae
ĠB iz
ĠB ethe
er ker
ĠM Ãł
ĠM und
ĠM IT
ĠM ardin
ĠÄĲ ÃŃnh
ĠS ou
ĠS araj
on c
on ii
am ang
am ea
ar ca
ĠP am
ĠP om
ĠP Ã©t
ĠP ina
ĠP ah
ĠP Ã¶
ĠP rix
ĠTh Ã¡m
ĠV Y
ĠV ie
ĠV Ãłm
ĠV ern
ĠV ettel
á»ĩ p
ĠK il
ĠK ill
ĠK ass
ĠK ont
ĠK ors
ĠK BS
en land
inh o
Ġcho Ã¡ng
ia tus
ĠTr uy
ĠD Ä©
ĠD irac
id idae
id ion
ĠCh ÃŃn
ĠCh iron
es o
es iidae
el f
el orussia
at ula
ĠQu ay
il aceae
ĠR etr
Ġcu p
it sch
Ġ18 17
Ġ18 13
Ġ18 22
ĠE N
ĠE c
ĠE sc
ĠE arth
ĠF ang
Ġ4 20
). "
ĠJ oa
th en
ot er
ot le
ot ea
ag iri
ĠKh Ã¢u
ÄĲ Ã³
od orus
ak s
ĠO ax
ĠO ts
ĠU st
oc l
oc osa
ov Ã¡
Ġ8 44
ig e
ĠY as
amp e
19 84
ich e
ĠAn ura
ec idae
ob ia
ob iidae
iv es
Ph Ã©p
ian ca
st ar
st appen
ĠMar co
Ġ17 7
Ġ17 99
Ġ17 84
ĠAr ts
Ġ15 87
Ġá» ¶
sk ii
Ġáº¤ u
") :
ĠZ od
ub ishi
Ġto áº¡
aw k
eb a
est an
yr odes
uk o
Ġ30 4
Ġ30 8
ib ald
son ii
art s
end a
end s
ĠPr zhevalsky
ĠCon trol
Kh ai
kh ine
ath us
ĠSch alke
arn o
och orus
enn an
ith rid
br idge
ĠSp alletti
11 1
ka f
ĠAnd ers
ĠJohn ston
ĠAle khine
rad urga
inc an
ÅĤ ÅĤ
Pr ince
ver hampton
ĠAd vent
omm y
ash ima
ĠPhilipp e
ĠMc L
ĠMc Donald
der us
ĠPer c
ĠNe il
int o
ĠBo j
ĠBo ul
ĠMor ris
pe are
ĠEr ik
ĠRh yac
Ac al
Ġ180 9
mann ii
ĠÐ Ĳ
ĠTor r
Mar ry
ĠEng el
Hung ary
CO M
gr amm
Sm ith
ĠAnt alya
let on
Ð½ Ñĭ
ä¸ Ģ
ĠFl ash
ĠCast ell
unc il
Ġmac ul
Ã¼r ingen
195 7
ĠRad ar
ĠBy elorussia
ĠAlb u
ĠCas tro
ĠXX I
ĠFor ce
ĠVan uatu
ĠVer stappen
ĠPu eb
Ġer yth
Ã¡s z
elt is
ĠKras inski
Ġmic roph
ĠId lib
ĠSav o
Rob ert
ĠNad al
ĠMold avia
å¸ Ĥ
ĠBab y
Ġrem ix
"( "
ĠDj okovic
ï¼ Į
ĠMaj oris
orh ynch
ĠLar ry
Ġgrac il
ĠJer ome
ĠMans tein
ĠRep ort
ĠAnk ara
yes ebel
ĠRic ci
ĠAbd ul
trop is
ĠAbb as
ĠSul awesi
å¹ ³
ĠÆ ł
ĠSuz uki
ĠLum pur
ĠNT U
ĠMut su
ĠExp lor
akes peare
Ġtest osterone
ĠTil den
ĠSÃ¡n chez
ĠVog el
ĠGris eb
ygm unt
ĠInform er
ĠTik Tok
ĠRis ing
ĠMov ie
ĠWiel k
Ich neumon
ĠCÃ© line
ĠCoss ack
ĠCalv ados
ĠMorn ing
ĠDw ight
ĠChit radurga
Storm es
ĠCherny kh
ĠDnie pr
ĠKoster m
ĠAis ne
à¼ ĭ
ĠBav aria
ĠSmithson ian
ĠTrab zon
ĠLond t
ĠSaraj evo
ĠOax aca
ithrid ates
ĠRhyac ophilidae
) (
- &
A E
B K
C yn
C yph
G Ã¶
I E
I ly
K A
K Ä±
L an
L et
L ab
M O
M ir
P P
P in
P eper
R C
S W
S tach
T ake
U I
U N
U TC
W al
X en
X Ã¢y
b al
b iáº¿n
c Å©
c at
c ie
c ycl
d el
f ast
g g
g ren
h t
j ina
k al
k áº¿t
l v
l au
l Ãłng
l oáº¡i
l oo
m Ã¡y
m aire
n Ã³i
r ica
s s
t Ã¬nh
t em
u er
v ol
v ir
y odor
Ð ļ
Ø ¯
â ĺ
æ ¸
æ Ļ
ç Ī
ç ī
è ¥
è ª
è Ģ
è ĩ
è Ĭ
è ĭ
Ġ ...
Ġ eth
Ġ ochr
Ġt ur
Ġc Ãºc
Ġc op
Ġc ent
Ġc iner
ĠÄĳ Ã´n
Ġv e
Ġv Äĥng
Ġl es
Ġl ev
Ġl ater
Ġl ight
Ġh ist
Ġh ecta
Ġm ad
Ġb ip
Ġch áº»
Ġnh Ã¡i
Ġnh á»Ļn
Ġd ella
Ġd ollar
Ġg ang
ĠT T
ĠT av
ĠT ek
ĠT err
ĠT NHH
Ġph anh
qu el
ĠC ult
á»± t
ĠN ac
ĠN áº±m
ĠN BC
ĠN anyang
ĠL ip
ĠcÃ³ i
ĠH CM
ch ny
ĠB ing
ĠM A
ĠM Ãłng
ĠM uk
ĠM ort
ĠM ond
ĠM BC
ĠÄĲ Ãª
ĠS ae
ĠS ah
ĠS akh
Ġ" [
in it
ĠP oll
ĠP ix
ĠTh un
ĠTh Ã©r
ĠTh Ã¼ringen
ai da
ĠK op
ĠK ok
ĠK Ã¶
ĠK ongo
ĠK Ä±r
ĠA esch
au rea
ĠTr el
ĠTr á»«ng
al ta
ĠD Ãłi
ĠD et
ĠD ow
ĠD ee
ĠD allas
ĠD yesebel
ĠG A
ĠG ork
ĠG ate
ĠG ene
id iidae
ĠCh á»īnh
is le
Qu áº£
Qu áº£n
im ov
im ilis
ĠNh Ã¬
ĠNh Ã¡i
ĠNh áº£y
ĠR i
ĠR ot
ĠR un
ĠR ak
ĠR iga
ic ula
it Ã©
it ic
it ata
ac us
ĠE uc
ĠF ors
ĠF uj
ĠF inch
Ġcon f
th anh
ĠW ing
ĠW ant
ĠW ings
ĠW edd
Th ÃŃ
op ed
op rot
le ya
ĠX Ãł
and e
re ck
Ġy a
un y
un ciÃ³n
ĠKh r
ÄĲ á»Ĺ
od iol
ak ura
ĠO f
oc lad
ov ka
Ġlu c
ig idae
Ġp p
ĠY oshi
ĠGi us
ab ant
Ng á»¥y
19 30
19 49
19 43
19 71
ich l
Ã¨ phe
Ġ11 6
te on
ip us
Ġso i
km agalur
ill idae
Ġf asc
ry a
iv an
ent on
ard s
ĠMar ne
ĠMar ine
Ġ17 3
Ġ17 8
Ġ17 81
if ul
ut ter
Ġ15 8
ev iÄĩ
of ia
ĠZ ampar
ach ev
Ġ14 1
az ium
eg o
ĠSh ell
ĠSh tora
ĠSh akespeare
yc e
ep pe
ĠIn n
Ġ13 4
man i
ib r
Ġbá»ķ n
end i
ess ey
ĠPr oc
Ġdu á»Ĺi
ĠGr os
ern o
Ġ21 4
Ġ21 7
ox yl
lt en
Ġ22 1
12 2
ĠCÃ´ te
ĠBar ry
ett y
erm ont
ĠCan nes
ond a
tt ingen
ĠKhu Ã´n
ts ch
rid a
ĠMal i
ĠJohn ny
Ġ[ ...]
Ġpr oc
ris ing
ler i
ler ia
ĠUS A
ĠBe ch
Pr op
ver e
ĠChi kmagalur
berg ia
aj a
akh t
ãĥ »
uz zo
ĠHer ro
ĠHar ris
ĠMor eno
ĠAng kor
ĠDis tr
yg a
arg inata
ĠMus sol
ĠTu áº¥t
ĠMon tr
ĠMon roe
ÅŁ Ä±
ĠHe aven
eck i
ĠBen in
ace us
Rh yac
ĠSouth ern
ãĤ ¹
Ã©r ica
ĠSu á»ĳt
ks andr
ĠGar ay
erd ita
ĠDr ag
cz yn
ric ius
Ġgl auc
ĠJul ian
unc ta
Ã¼r gen
195 6
Er n
ĠPenn y
ĠTak es
åħ ĥ
ĠCas imir
ĠKur sk
Ġob tus
ĠGeorg y
ĠLab o
opp ler
ĠShin igami
ĠSel ys
åŃ Ŀ
ĠComm elin
ident aceae
Asp idium
aum ont
aem on
NO ME
ĠServ ice
ĠCom ics
ifer um
ĠDen is
ithec us
ĠGill igan
Heter opoda
Ġpall id
Ã¸ n
Lep id
Lep anthes
leb en
éĻ ½
ĠPle iku
Mes ochorus
ĠSax ony
ÈĻ ti
Ġserv o
ĠKom ondor
ocal yx
Mich ael
Ġvir id
Ø§ ÙĦ
Dipl azium
Mart in
AF TA
Sa Ã´ne
ĠGÃ¶ ttingen
sted t
Coel otes
ĠSund erland
ocaul on
Î¿ ÏĤ
Ġsam urai
ĠSus an
Back ers
ĠJes us
Ġcoron avirus
Ġaf ric
Rhod odendron
Mach ine
Mos elle
Ġes te
ĠHT ML
Ġeng ine
usch witz
Ġdeb ut
Ġrib osome
ĠCos enza
arab ia
Agr otis
God zilla
Ġaff inis
stae dt
ĠKv aratskhelia
ĠSerg ey
ĠLl oyd
ĠErz incan
ĠMatsum oto
Bis marck
Ġfrig ate
ĠAless and
ĠNull arbor
ĠNecker aceae
ĠPÃ¶ lten
Peper omia
ĠZampar ini
ĠMussol ini
Rhyac ophila
ĠCommelin aceae
B erg
C áº£nh
C áº£m
D ar
D iá»ĩn
E ver
E CD
F ate
F eynman
F ET
G n
H an
H uy
H Æ°Æ¡ng
H á»ķ
H Ã£y
K áº»
K och
M r
M ol
M ary
M och
M aur
N eon
P oa
P ir
P aris
P erry
R an
R et
S or
S lav
T á»ĳi
T á»ĳng
T ak
T ara
V Æ°á»£t
V ern
V iet
Y e
Y Ãªu
b s
b áº¥t
b is
b ol
b ot
c Ã¢y
d Ã²ng
e q
h á»£p
i Å¾ek
l k
l io
l ike
m Ã´
m ai
m ang
m Ã´n
m áº·t
m od
n ium
p at
p te
s ai
v ez
v olod
w ad
z yn
z burg
æ ®
è ²
é Ŀ
Ġ áº¡t
Ġ Ã¡t
Ġ one
Ġ aut
Ġ organ
Ĥ n
Ġt Ã²ng
ng Ã´n
Ġc entr
nh á»ı
Ġv áº·n
Ġv Ã¹i
Ġm g
Ġm á»įng
Ġm ÃŃt
Ġb or
Ġch Ãł
Ġch eo
Ġch oÃłng
Ġs un
Ġnh Äĥn
Ġd ang
ph alia
Ġkh Ã¢m
ĠT S
ĠT á»³
ĠT á»ĵn
ĠT á»«ng
ĠT oh
ĠT up
ĠT aj
ĠT ogo
ĠT ouch
Ġng á»ı
Ġng áº¯t
Ġph Ãºng
Ġph oton
qu et
qu art
ĠN on
ĠN á»Ĺ
ĠN og
ĠN agas
ÃŃ quez
ĠL uk
ĠL ess
ĠL ori
ĠL Ã£m
ĠH ua
ĠH ob
ĠH á»Ľn
Ġr áº·ng
Ġr á»¥i
ĠB iáº¿t
ĠB od
ĠB Ã¨
ĠB esch
ĠB eti
ĠÄĲ H
ĠÄĲ au
ĠÄĲ áº©u
ĠS á»ĳng
ĠS le
ĠS ta
ĠS end
ĠS PI
am u
Ġ" -
in na
ĠP ope
ĠP unjab
ĠV iÃªm
ĠK amp
ĠA yd
ĠA ve
ĠTr och
Ġ20 3
ĠD y
ĠD ew
ĠD akh
ĠD ors
or c
ĠG ymn
id eae
ĠCh Ãł
ĠCh Ãłng
ĠCh oi
ae ta
is son
es is
es ii
ĠPh iÃªu
ĠPh alac
at ensis
at ica
ĠNg áº£i
ĠNg ang
ĠNg Æ°á»¡ng
im ar
ĠÃ ħ
ĠNh á»±t
il ob
ĠR O
ĠR at
ĠR oc
ĠR ow
ĠR az
ĠR iss
ĠR atch
ĠR IM
ĠR idge
ĠR otten
ĠR utskoy
ic aulis
as aki
os orus
it su
et ine
om ma
em ont
ac r
ĠE X
ĠE a
ĠF und
ĠF ight
ĠF alk
ĠF yodor
hi ra
ĠJ C
ĠJ anus
th iáº¿u
ĠW oj
Ġmá» Ľn
Th uyáº¿t
âĢ ł
ot ion
Ġy um
ter s
ĠKh Ã¡n
ÄĲ áº¥t
ÄĲ Ãło
ak on
Ġ7 37
ir ia
ir chen
tr ack
oc ala
ing u
ing iber
ĠY o
amp le
19 47
19 38
19 37
ens ch
Ch Ãºa
te p
ra ine
ĠÄĳo Ã¡i
ou b
iv az
ian ensis
ard a
ĠMar ina
ĠAr leigh
yl le
Ġ15 6
ĠBr est
ĠBr istol
Ġ16 5
Ġ16 9
Äĳ ang
Äĳ á»Ļi
Äĳ iá»ĥm
aw an
eg al
Ġal pha
Ġal so
yc eph
ĠIn ca
Ġ13 2
ant hi
oph ys
ey a
... ),
ĠCr ic
ind er
und i
Kh á»ĳi
ct ion
iss ion
iss iere
eh baz
ick e
enn staedt
ĠAm au
Ġ23 0
lor ia
ost ema
ost icta
la ine
Gi áº¥y
Ġu Ã½
se ph
ĠCl emens
ff rey
ĠGu j
oz i
St ay
ĠHung aria
ect in
Ġex c
Pr ov
tern us
ly st
23 8
ĠEd ition
act ic
ĠOl sz
ĠOr du
ĠPol y
ãĥ ĥ
ãĥ Ĵ
ĠRob bie
ĠHar old
à¸ ±
ĠDi rect
ĠBo is
ĠAng lo
ĠCharl ie
ĠNor te
ze j
ze ch
ĠMe ng
arg o
ĠMus k
ĠRich mond
ÅŁ k
ĠPaul i
gi Ãł
gi Ã¡
ĠStr ab
ĠMil ey
ĠMil oÅ¡
ĠDon etsk
uck er
Sh ehbaz
ĠJe ju
Sp ir
Mar c
ĠVen us
ĠMont real
ĠHau tes
Par ad
ĠWh at
Ġser ver
Å¡ t
Ġsub s
we ight
ĠGen Ã¨ve
ĠGen eration
Ðµ ÑĤ
Ðµ Ð²
rob i
Pl ay
ĠMo unt
ior ek
ĠCast illa
elm is
ĠEuro League
Mic ros
ĠGer ard
Ġ179 3
pl ay
On c
ĠFab ricius
ĠKy Åį
arch a
yb ra
iol ata
Ġper uv
icul aris
uh n
eps es
ĠBroth ers
emon te
ĠRog volod
aill es
ĠLo ew
ĠNormand y
Ne es
ĠPetr os
ĠThr ace
ser ling
ĠGood man
ĠEv ans
Ġsim plex
ĠLomb ard
Sal ix
ä¹ ¡
ĠSph ecidae
zur um
ĠNev ille
oct or
Ġbo ong
Lind l
ĠNot re
We ber
isi Ã³n
ĠGuad al
Ele uther
Ġrec eptor
ĠFi refox
ĠAM C
ĠPass alidae
ĠAch illes
ĠFair maire
ĠDomin ica
anag ere
Sem ioth
zew ski
ĠBerg amo
ĠSub ic
quy á»ģn
gluc an
Poly st
ĠSoph ia
eren ces
ĠDef ense
ç¥ ŀ
ĠMick ey
å¥ ³
ĠHier on
icau da
ĠIsab el
Ġtua bin
ĠKiy ochika
stag ram
ĠRac ing
ĠEmp ire
Ġdev ice
Kun th
ĠLund ell
ĠBess arabia
ĠMelan esia
ĠAar on
ĠIndustr ies
ĠMaul er
ĠPhoen ix
ĠGry f
ĠFiss identaceae
ĠMID I
ĠMadh ya
lyuch enko
ĠObserv atory
ĠPozna ÅĦ
Cyath ea
opteryg idae
ĠGlas gow
NCA CAF
ĠMutsu hito
ĠGius eppe
ichl idae
ĠLabo issiere
Semioth isa
. ",
1 15
2 25
? ",
A eg
A den
B áº¡ch
B ip
C ym
C yan
C yb
D ev
D ub
D ame
E N
E il
E chin
F lor
G e
G le
G ent
G PT
H uyá»ģn
I G
I p
J ordan
K al
K ids
L M
L on
L Æ°Æ¡ng
L á»ĳi
L Æ°á»£t
M is
M il
M Ã¨o
M agn
N N
N Äĥng
N em
O ff
P F
P ad
P lectr
R á»ĵi
S L
S et
S ant
T inh
T re
T ib
V an
Y Ãªn
c á»Ńa
d Æ°á»Ľi
h of
i ÅĦ
k k
l Ã¡
m Ã£
m edia
r au
s Ã´ng
s áº£n
s á»Ń
s wick
t ai
t Ã¢y
t ag
u va
v ai
y ong
Â º
Ä ĩ
Î ´
Ï Ĩ
å ²
æ ±
æ º
æ ¼
Ġ q
Ġ {
Ġ á»ĵ
Ġ us
Ġ av
Ġ ill
Ġt áº»
Ġc á»ıi
Ġc Ã¡m
Ġc áº³ng
ĠÄĳ Ã¡n
Ġv s
Ġl ab
Ġl ow
Ġl ax
Ġl á»Ńng
Ġth áº«m
Ã¡ d
Ã¡ rez
Ġh iá»ģm
Ġm ah
Ġm ix
Ġtr iá»ģn
Ġtr estolone
Ġb ic
Ġb á»ĵng
Ġn á»ĥ
Ġs á»¥n
Ġnh á»Ń
Ġd ol
Ġd ata
Ġd iac
Ġd ivers
ph ong
Ġkh uya
ĠT á»ĳn
ĠT ina
ĠT ower
Ġng á»Ńa
Æ°á»£ m
ĠC I
ĠC in
ĠC Ã¡m
ĠC our
ĠC ourt
ĠC uster
ĠC abrera
ĠC ichlidae
ĠN ong
ĠN ymph
ĠH C
ĠH E
ĠH ak
ĠH arbor
ĠH uman
Ġgi en
Ġr Ãł
Ġr áºŃp
ch Ãºng
ch io
Ġx Ãºp
ĠB T
ĠB Ãło
ĠB ib
ĠB ath
ĠB ever
er ol
er iana
ĠM áº¯t
ĠM yr
ĠM ini
ĠS T
ĠS ad
ĠS Ãłn
on us
in ac
in ation
ar ium
ĠP T
ĠP ine
Æ°á»Ľ n
ĠV all
ĠV end
á»ĩ ch
ĠK ae
ĠK eo
ĠK ah
ĠK uz
en y
en ing
ĠA uschwitz
ĠTr Æ°á»Ľng
Ġ20 30
ĠD uyá»ĩn
ĠD OS
ĠG amb
id or
id iaceae
ĠCh Æ°a
es ian
at oma
at ure
im ura
il ar
il car
ol om
ol abis
ĠR A
ĠR olf
ic ial
Ġ3 10
os uke
it in
et ok
et ate
om yc
om phus
ac ca
ac tea
ĠE ag
ĠE arl
ĠE zio
ĠF K
ĠF uku
ĠF asciol
hi k
ĠJ a
ad ensis
ĠW y
ĠW ey
Ġkhu áº¥y
ĠX avier
ot i
ot l
ot ov
ot ica
ot oxin
ÄĲ inh
ÄĲ oáº¡n
ĠO c
ĠO wen
ĠU laan
oc us
Tr op
ed i
Ġp it
ĠY er
ĠY outh
ĠGi Ãłng
ab l
Ng Æ°á»£c
19 74
19 08
ĠAn a
ap er
ap idae
ro y
ro oge
Ch Äĥm
Ch á»ĳng
te ca
te pe
ip ur
ta wa
ob le
ou pe
Ph á»¥c
Ġbu ild
ĠMar e
ĠSt or
ĠSt arr
Ġ17 82
ĠAr g
Ġ15 1
Ġ15 3
ĠBan ach
Ġá» Ķ
ĠLe ar
ĠZ ygmunt
uc le
ĠBr om
ĠBr Ã¸n
Ġ16 49
Ġ14 8
Äĳ Ãł
Äĳ áº¡o
Äĳ áº£o
Äĳ á»ĭa
ĠIn s
man s
Ġem ail
up e
iz aki
ass ia
ĠCr eta
ĠGr oss
Ġ202 5
ĠCon ference
ys tr
ĠThu á»µ
kh ov
ĠEl ena
ĠEl vis
ara jan
." "
Ġw ill
ica ine
ek e
ĠPar thia
iss el
yn odiol
ĠCu á»ĳng
ĠAm Ã©rica
16 0
oy er
Åį bon
ĠBl ood
An no
ĠSc ythia
ĠLu ang
ĠCal tech
ĠCal abria
St alin
rom is
ĠPl us
ĠPl ze
Ġ' ,
oth am
Pr em
ĠEn erg
ĠEn iw
ver d
ĠSte vens
ĠEd uc
ĠKr Ã´ng
ĠNa hi
ĠCor p
ĠPol t
ĠGiá» ĵng
ĠGre gor
ĠTok at
ĠDav anagere
Ġj azz
ĠEr zurum
ĠHe ine
gh a
ĠChamp a
ĠCam elot
da ÄŁ
ĠMa alin
Äģ rata
ĠWil ton
Ð° ÑĤ
ĠGir esun
Sc yt
Ġam onia
Sp il
Mar ie
Ġláº» n
ĠMel iaceae
ĠGar uda
ĠTur ner
ĠKon ya
Ã¤ gr
ĠGen eva
ĠInd ian
ĠPort o
ä¸ ĸ
Ġar en
fl at
ĠEx press
ĠEx trem
195 2
ĠPat ric
orb ut
ese arch
ator io
ĠMak oto
ĠTak ahashi
ĠVer de
its ugu
omor skie
Ġfr ut
ĠLor anthaceae
Dr ac
ĠMid way
ĠHel en
ĠId ol
ĠLo ir
odactyl a
itr idae
ĠLim neph
ĠHarv ey
ĠFel ipe
ĠDen iz
ĠSic ily
quer que
ĠWeb b
ĠHav re
ĠSax ifr
å¾ ·
ĠMaxim ilian
ĠOle g
ĠMind anao
Gon omyia
Ġmagn esi
anti ques
ĠWol verhampton
ĠNied er
ĠLas ker
Ġconc ert
Hab enaria
ĠMerc edes
ĠTÅį kyÅį
ĠKash mir
ĠZach aria
ĠBlan che
ĠVers ailles
cle p
Ġlae trile
ĠDod son
Ġá»Ĳ ng
olob us
ĠTechn olog
akk ale
Hed w
Hyl aeus
Ġliv eshow
ĠNiz h
ĠãĢĮ "
ãĥ¼ãĥ Ń
ĠGuill au
Ã¡k osi
ĠTob ago
ĠSebast ian
ĠÅļ w
Atl antiques
Ġnucle on
Neph r
Rac osperma
ĠEis ner
ĠWoods iaceae
ĠCope nhagen
ĠOst apenko
Ãļ c
Dre pan
ĠKarp ov
Nes om
ĠÃĵ c
ĠBurn ley
ĠTelev ision
ĠMits ubishi
onta ine
Hex atoma
Fiss idens
ochrys a
ĠICA O
ĠDevelop ment
Cyp erus
epend ent
ĠBers erker
ĠPÃ©t ain
ĠKors un
ĠZod ariidae
Polyst ichum
ĠFuku oka
ĠFasciol ariidae
ĠPlze ÅĪ
ĠEniw etok
ĠLimneph ilidae
" âĢĶ
) &
7 50
: .
A br
B N
B h
B áº¿n
B ab
B uck
C arl
D ai
D Ã¹ng
D us
D ie
D ec
F P
G yr
G ris
G mina
H on
H Ã£ng
H opl
H annah
I x
J am
L iverpool
L ewis
M Æ°a
M Ãłn
M ik
M aria
N P
N yct
O W
P ie
P erdita
S E
S i
T áº¡m
T itan
V á»ĩ
X in
b ook
c ao
c raft
d Ã¹
d iá»ħn
e er
g ram
h ou
j ou
k es
l á»Ľp
m al
n ow
n ers
o ebe
r ico
t inh
t Ã¢m
u id
u es
w at
y ran
z Åį
Î ¸
Ñ Ĩ
ä ¿
æ ¢
æ ħ
æ ĩ
ç ©
ç ¿
è ¦
è ¶
è ı
è ķ
ê µ
ì Ĺ
Ġ ^
Ġ uyá»ĥn
Ġ ev
Ġ áº©u
Ġ orth
Ġ oai
Ġ ÏĢ
Ġ ukiyo
Ġt Ã¡t
Ġc Æ°ng
Ġc áº·n
nh Ã¢n
Ġl Ã¹a
Ġh Ãºng
Ġm eth
Ġb ur
Ġb áº¹p
Ġb asil
Ġn iv
Ġn ud
Ġch áº£i
Ġch áº¯p
Ġch Ã¬a
Ġch inensis
Ġk in
Ġs k
Ġs áº£
Ġs á»©a
Ġs áºŃm
Ġnh á»ķ
Ġnh Ãºt
Ġd il
Ġd áº§m
Ġd iff
ĠT M
ĠT ong
ĠT ae
ĠT ah
ĠT ara
Ġng a
Ġng Ã¢y
Ġng Ãło
an or
an akkale
qu ist
ĠC ic
ĠC ten
ĠN á»Ļt
ĠN ico
Æ°á»Ŀ m
ĠL áº¡ch
ĠL amp
uy s
ĠH uyáº¿t
ĠH ey
ĠH ert
ĠH elm
ĠH utch
ĠH emsl
Ġr iv
Ġr á»Ĺi
ch ol
ch uyá»ĥn
ch elles
Ġx Äĥm
ĠB uy
ĠB of
ĠB ond
ĠB Ã¶h
ĠM ug
ĠM eland
ĠÄĲ Ã¡i
ĠÄĲ á»ĵi
ĠS entin
on ensis
am ic
oa ng
in ii
in osa
ar ang
ĠP H
ĠP ay
ĠP ow
ĠP ath
ĠP iet
ĠV au
ĠV and
ĠV ille
ai m
ĠK ay
ĠK id
ĠK iá»ĩu
ĠK ud
ĠK ath
ĠK alin
ĠK ato
ĠK epler
en bach
iá»ĥ ng
ĠA G
ĠA il
ĠA man
ĠA ivaz
ĠÄĳá»Ļ n
ĠD art
ĠD ahl
or pha
ĠG na
ĠG Ã¼n
id ar
ĠCh at
ĠCh ess
es ÅĤaw
ĠÄĳÃ³ m
at eg
us te
ĠÃ ľ
ĠQu á»·
ĠNh Ãłn
Ã© u
ol ph
ol or
ol ution
ĠR áº¡ng
ĠR yo
ĠR AM
ĠR ize
ĠR achel
as in
Ġ3 25
Ġ3 65
it ta
ur v
ur is
et ch
ĠI OC
ĠI GN
ac an
ac as
ac ta
Ġ18 11
ĠE un
ĠE manuel
ĠF S
ĠF oster
Ġ4 70
ĠJ oon
ad u
ad ura
ĠW A
ĠW onder
ĠW erner
Th an
Th áº¥t
Th áºŃt
Th Ã¡p
Th iá»ģn
op op
ĠX P
ĠX ÃŃ
ot en
ot ia
ĠKh Ã¡m
ÄĲ i
ÄĲ áº·t
ĠO R
Ġ7 20
ĠU tah
tr áº¯ng
Tr á»¥
Tr iá»ĥn
Tr Æ°á»Łng
ed e
ig el
ĠY ao
Ġ12 1
Ġchi p
ab er
Ng á»±a
19 13
19 25
ell ina
ell enza
ich a
ĠAn c
ip ed
ip tic
ec il
ill ii
Ġf e
Ġf lex
og yne
og ramma
ow ska
ob s
ob acter
iv i
ine ata
Ph áºŃt
ut um
yl i
ĠdÃ¹ i
Ġáº¤ t
ĠGia nh
ub ar
Ġ14 2
Äĳ Ã¢y
eg ee
ĠIn stagram
Ġ13 9
ym per
ĠDo odle
ib o
iz uki
... ".
our ea
Ġ25 4
ĠQ F
ĠQ uyá»ĥn
ĠSch ott
ĠSch imp
iss imus
lt imate
ena ar
ĠHy omin
ĠSer gio
Ġ27 9
sh an
ĠBl ade
ile i
ile uton
ff ee
ĠSc rin
ĠSc apa
ĠSc rooge
ĠCal edonia
ĠSp art
ĠSp reng
11 3
ĠGu inn
14 0
Ġma jor
13 5
Ġ' .
Al b
ĠchÃ³ i
ĠSte ud
che ff
ĠOr ion
ĠCor b
ĠCor r
ott ingham
à¸ §
aus ta
aus anne
ĠPal mer
ĠBol u
ĠDis neyland
ĠRh in
eck ar
ĠCamp bell
ĠEm ir
Ġel ong
Rh aph
ĠGir onde
ĠCO P
osh im
ĠAg uil
Ġsub c
ĠThom son
ĠDr es
ĠLin k
umb ai
ĠJack ie
ĠAlbum s
ref erences
ĠAnt o
oly b
Äį ek
ĠLuc ien
ĠOk lah
ĠMeg a
ĠMur phy
Thá»ĭ t
Bl ue
ĠAll iance
Ġ179 1
com une
Ġã Ħ
Co V
org io
omy iidae
ĠKur d
ĠSai gon
ĠNorth ern
ĠAv ar
erv is
col span
ĠCarib bean
ink l
ĠNai robi
Lept ogaster
à¤ ¾
ĠKer ensky
ĠIm p
verg reen
ĠBarb ara
ĠBarb ados
Ġplay off
Ġenz ym
ĠBrun swick
ĠSec ret
Ġrub r
ĠMot or
Ath yrium
ostr is
Cam us
ĠPot iorek
ĠFall ot
Dys dera
ĠSay aka
enne c
ĠFle isch
ĠCorn ell
ĠPres ton
ĠPres ley
Ġcyan ide
ĠYaroslav ich
ĠKey serling
Ġsulf uric
anag ara
Lyc osa
unic ipal
imal aya
Rich ard
ĠMerc ury
ĠRev iew
ĠBeau fort
ĠAj ax
ĠBung e
ĠMarg in
Kaz akh
ĠSoph ie
ĠTyr ol
ĠHamp e
Rub iaceae
ĠJosh ua
viv or
ĠTro ia
ĠJohannes burg
ĠCatal onia
ĠGonz Ã¡lez
ĠVik tor
Ġum br
ĠPter ophoridae
Arct osa
ĠDarl ing
sheim er
ogr amm
ĠUh mann
ĠHold ings
åŁ İ
Lup inus
ĠEul er
Harp actea
Ard isia
ĠSmol ensk
htt p
ĠNau chny
ĠJenn ifer
Steph ani
ĠND H
Coryd alis
Germ ain
ĠEcc ellenza
ĠÄ°z mir
Did ym
Ġorient alis
ĠAlbu querque
ĠWielk opol
Ily icho
ĠAesch ines
ĠKhr ush
Tara x
ĠNagas aki
ĠPhalac ridae
ĠCric etidae
ĠAmau robiidae
ãĥĴ ãĥ¼ãĥŃ
epses kaf
Eleuther odactylus
flat oxin
ĠExtrem adura
ĠSaxifr agaceae
ĠBof ors
ĠOklah oma
ĠNauchny j
' ll
6 17
A ur
B u
B iá»ĩt
B os
B ook
C I
C áº§n
C á»Ŀ
C rom
C arp
C aut
D a
D am
D ick
F our
G R
H iáº¿n
H á»ĵi
J ung
K E
K T
K it
L D
L Ã¢u
L ife
M od
M ars
M uz
M alus
M azur
N inh
N Ãłng
N ag
N oth
P it
P av
R áº¥t
R chb
S on
S ee
S ymp
S ymph
T á»Ŀ
V á»£
Z yg
a enidae
b os
f lo
g ae
g as
g ad
h el
h ol
i Ã¡n
i ard
j ee
l Ã³
l ip
l Äħ
m art
m á»Ĺi
n ic
n berg
r Ã©
t Æ¡
t uy
t ay
u en
v re
w ei
z al
z eg
Ä °
Å Ń
Å Ľn
É Ļ
Ï ī
á Ł
å ¨
æ ĥ
æ ł
è ¿
è ĥ
é º
é ļ
é «ĺ
í ķ
Ġ Æ¡
Ġ Ãło
Ġ orb
Ġ Ø§ÙĦ
Ġt er
Ġt ÃŃp
ng o
ng oÃłi
Ġc yt
Ġc arin
Ġc ylind
Ġv o
Ġv áº¡ng
Ġv ag
Ġv Ã©t
Ġv acc
Ġl ink
Ġth áº£y
Ġm á»ĳng
Ġm áº¥u
Ġm áº«n
Ġtr á»©
Ġtr au
Ġtr áº·c
Ġn iá»ĩu
Ġn Ã¡ch
Ġch Ä©a
Ġch á»Ńi
Ġch áº¹n
Ġs ep
Ġs á»¡
Ġs ign
Ġd áº¿
Ġd as
Ġkh Æ°á»Ľc
ĠT á»ĭch
ĠT áº¥m
ĠT Ãºy
Ġph Æ°á»Ľc
Ġph ÃŃch
ong k
ĠC ore
ĠC af
ĠN j
ĠN Ãłng
ĠN est
ĠN ation
ĠN ations
ĠN ixon
ĠN ottingham
Ġtá» ³
ĠL Ã´ng
ĠL ÃŃnh
ĠL á»Ĺi
ĠL iberia
ĠH Ãłi
ĠH imalaya
Ġr áº£nh
Ġr oll
ch ung
Ġx á»ķ
ĠB Ã¬
ĠB á»ģ
ĠB ie
ĠB ash
ĠB XH
ĠM K
ĠM á»±c
ĠM ia
ĠM Ã¢u
ĠM á»ħ
ĠM our
ĠM ast
ĠÄĲ á»ķ
ĠÄĲ áº¡n
ĠS ac
am omum
oa s
in tr
ar et
ĠP ia
ĠP es
ĠP att
ĠTh is
ĠTh uyÃªn
ĠTh áº£m
ĠTh omp
ĠV N
ĠV on
ai p
ĠK ant
ĠK yr
ĠK uch
ĠK alm
ĠK uban
Ġcho les
ĠTr á»ĳng
ĠTr uk
Ġ20 5
Ġ20 8
al ar
al om
al th
ang el
ĠD áºŃt
ĠD id
ĠD ry
ĠD up
ĠD esc
ĠD raw
ĠD oppler
ĠD ennstaedt
ĠG ern
ĠG erm
ĠG orb
id alis
ĠCh ong
ĠCh á»ĳng
ĠCh Äĥn
ĠCh lor
ĠCh ester
ae st
ae tus
el os
el ur
at as
at ius
Qu ang
il inea
ol ic
ol anidae
ĠR ams
Ġ3 23
it as
om ierz
ac in
ac id
ĠF ol
ĠF em
hi v
Ġ5 45
ĠW ake
ĠW ise
ĠW emb
ag ona
ĠKh e
ĠKh am
ÄĲ á»Ļc
ak t
ĠO ng
ĠO ran
ĠO ce
ĠO ECD
ir m
ir ol
tr Ã¡i
tr um
ov es
Ġp um
ĠY oz
ĠY oon
ab us
Ng Ãłnh
19 17
19 24
19 35
ell ii
ich y
ĠAn ypha
ap is
Ch il
Ġf all
ow ice
ard e
ik en
ĠSt at
ĠSt ock
ĠSt Ilyicho
Ġ17 4
Ġ17 86
ĠAl ain
ĠAr den
ĠAr istoloch
ut es
ev es
sk rit
ĠZ y
ĠZ in
ĠZ ener
uc o
Ġ16 3
Ġ14 7
Ġ14 9
Äĳ Ã³
Äĳ Ã³ng
Äĳ á»ĳt
eg na
ĠSh er
ĠSh epseskaf
ex ia
Ġ13 8
est osterone
ist is
oh l
ey i
ey er
opter igidae
art o
ord er
ĠCr ime
ess us
ĠPr ig
ĠGr im
10 4
ys ia
ack er
ick et
ick ing
ans en
lt dl
Ġ22 2
ĠAm b
igh ter
16 2
12 6
ost omum
Ä± y
ith ania
15 7
sh in
ĠBl air
ĠBar ack
one ura
erm um
yd os
ĠRe in
ĠHo áº·c
ĠPl agioch
ĠPl essey
ĠUn der
ops idaceae
Ġpr od
oth e
ust ic
ÅĤ a
ĠAd ria
act ion
ald ehyde
ĠCor vey
ull ah
ari ety
ari opsidaceae
ĠAb ydos
ĠDav e
ze f
ĠMe ar
ĠDe utsch
âĢĻ âĢĺ
ĠMus ta
ĠRh ine
ba atar
ih ara
ren ch
ĠSing le
ĠMich onne
ĠEm il
Con us
mann ia
iy ama
ãĤ «
Sc ript
rop us
Ġ33 3
Ġam ygdalin
ĠRobert o
Fran k
ky unk
ãģ Ħ
Ġhu á»ĩ
ĠCarl sen
ĠJose f
ĠTur in
ĠCha ffee
ĠLam bert
ĠCho ice
uv elle
aud i
Gr and
je an
Ġgu á»ĳc
oly ne
Äį ina
ĠCap itol
rat ch
ĠMeg al
Ġmac r
Ġpar ad
Ġ179 6
ĠBour bon
eyn old
ĠArm ad
En d
ĠKir sten
ĠKir itsugu
kin son
Ð¾Ð ´
ĠPlay er
ĠBu ff
ĠShin seng
arch us
ĠPas cal
Ġbr asil
ĠRo om
ĠVladimir ovich
Ap p
ĠBry ant
amo unt
Ex ile
Ġfr ag
CS eq
ĠNak ai
ĠComm unic
ĠEsp irit
ĠKer ch
ĠBob by
ĠIm per
Bar ton
John son
ĠKu iper
ysh ev
po em
ihan na
ĠAh mad
ĠNic ole
ĠGran ada
olep ta
emer obiidae
Ath ena
æĺ İ
bar angay
ĠMaur ice
arbor ough
ĠEngl ish
Ġnuc l
ĠKos z
ĠJer zy
ĠCir cle
ĠCir olanidae
ĠBurg um
ĠDal ton
ĠBle chnaceae
Bol us
Bur tt
Je an
ĠDur an
Ġcur v
ĠBrad ley
trich aceae
ĠGil g
ĠKrak ow
urd ack
ebec ca
Ġins ularis
Gen eral
æĪ Ĳ
ĠLil iaceae
How ard
ĠVor oshilov
ĠUd inese
Sol anum
Ġcons ole
Go ogle
ĠBec c
Ġá»Ĳ c
Lit va
ĠNgu á»µ
ĠÅ½ iÅ¾ek
Barb ula
Ġpen alty
ĠHisp anic
Ġcycl ase
Ġlithi um
ĠPao lo
ĠHarp y
ĠPhÃª rÃ´
ĠAID A
ĠBartram iaceae
ĠWhe eler
ĠRyd berg
ĠHerac l
ĠEstr ada
ĠTheod ore
Ġjapon ica
Ã¶s ler
ajang myeon
ĠKrem lin
Syr phidae
Vict or
cod ice
Ġpub escens
ĠFernand es
á¸ ¥
ĠLom ariopsidaceae
ĠProf ess
ĠSviat oslav
áº¨ m
Thom as
Ġferr ug
è¥ ¿
Ern est
ĠDors et
ĠPoly trichaceae
ĠUlaan baatar
ĠBrÃ¸n sted
ĠNieder Ã¶sterreich
ĠAivaz ovsky
ĠGna phosidae
ĠGuinn ess
Kazakh stan
Ġcholes ter
ĠDennstaedt iaceae
ĠWemb ley
ĠYoz gat
ĠAnypha enidae
ĠAristoloch iaceae
ĠPlagioch ilaceae
kyunk wan
ĠShinseng umi
ĠEspirit u
? ),
A le
A ne
A ut
B V
B as
B ot
B lan
C áº£i
C á»¥c
C áºŃu
C alli
D Æ°á»£c
F ir
G astr
H D
H ill
H uÃ¢n
H eli
I c
J on
K er
K Ã¶nig
L Æ°á»£c
L ig
L Ã£o
M H
M V
N ymph
P en
P etr
P ont
R ain
S in
S is
S up
T w
T Ã´ng
T áº§n
V Ãłi
X Ã¡c
] ;
b Ãłi
b Ã¡n
b Ãłn
b ilis
b ank
c á»¥
d á»ĭch
e nh
f ton
g ens
g rad
h á»ĵ
h á»įc
h og
j ana
k W
k á»³
k ÃŃp
l Ã©
l ich
l uk
m ea
m ethyl
n in
n ier
p in
p al
p us
p Ä±nar
t Äĥng
v á»ĳn
v ing
x e
Ð ¿
Ù Ī
é ¡
ï ½
Ġ ×
Ġ out
ī a
Ġt áº±m
ng ay
ng gol
Ġc Æ°á»£c
Ġc lo
ĠÄĳ iáº¿u
Ġv ung
Ġv ector
Ġl Æ°á»Ŀi
Ã¡ Å¡
Ġh er
Ġh Ã©
Ġh Ã³c
Ġh ave
Ġm ark
Ġm ethyl
Ġtr á»ĵi
Ġtr áº¡ch
Ġb er
Ġb á»¥c
Ġb Æ°á»Ľu
Ġn il
Ġn ew
Ġn ano
Ġch áº±ng
Ġk ey
Ġk Ã¨o
Ġs at
Ġs Ã¡n
Ġs áº¥m
Ġs Æ°á»Łi
Ġd ong
Ġd áº³ng
ph áº£n
ph ria
Ġg áº§y
ĠT p
ĠT á»Ļi
ĠT iá»ħn
ĠT ua
ĠT atra
Ġng áº¥t
Ġng áº§n
Ġph en
an Ã¡
ĠC Æ¡n
ĠC á»§a
ĠC ohen
ĠN ancy
Ġvá» ĵ
ĠL ung
ĠL Ã¡i
ĠL Ã¼
ĠL ycidae
ĠL iet
ĠL ausanne
ĠH Ã´n
ĠH ist
ĠH och
ĠH att
ĠH ahn
ĠH emerobiidae
Ġr i
Ġr Ã¡n
Ġr á»Ľt
ch uyÃªn
Ġx áº¹p
Ġx yan
ĠB Ã¢y
ĠB áº·c
ĠB yr
ĠB ast
ĠB á»īnh
ĠB eth
ĠB agan
ĠB orussia
er ae
er is
ĠM Ã³ng
ĠM Æ°u
ĠM ina
ĠM yc
ĠM ost
ĠM ult
ĠM umbai
ĠS uy
ĠS áº£nh
ĠS á»ıi
ĠS ue
ĠS Ã¼
ĠS arm
ĠS ukh
Ġ( *
oa rd
in as
in ter
ar ap
ar ensis
ĠTh in
ĠV es
ĠV iv
ĠV ista
ĠV PF
ĠK us
ĠK ed
ĠK obe
ĠK ids
ĠK ovel
ĠK Ã¶nig
ĠK orbut
ĠA re
ĠA ks
ĠA FF
ĠA gha
ĠTr áº£
ĠTr ain
ang k
ĠD ro
or u
ĠG ay
ĠG es
ĠG áº¥u
ĠCh ai
ĠCh al
ĠCh uyá»ĩn
ĠCh iá»ĥu
ĠCh áº·ng
ĠCh ick
ĠCh aill
is n
at re
im an
ĠQu inn
il ity
ĠR ider
ĠR Ã¡kosi
ĠR ihanna
ĠR Ã¶sler
á»£ m
Ġ3 40
Ġ3 80
Ġ3 84
os ide
os omatidae
Ġtiáº¿ m
it arsus
ur st
et ra
om edes
ĠI T
ĠI ATA
em i
em era
em agne
ac te
ac antha
), "
Ġ4 000
hi i
ĠJ oc
ĠJ ih
ĠJ NA
th ys
th age
ĠW on
Th r
op odium
ul ly
ot idae
ag s
ag inella
ĠKh un
ÄĲ á»ĵ
od ina
ĠO ur
ĠO VA
ĠU rani
ir es
tr l
tr ick
tr ans
Tr ip
ig of
Ġp od
ĠY ale
ĠGi Ã³
ĠGi orgio
19 10
ap o
ap ter
ap olis
Ch ar
Ch al
20 6
ec ia
ĠSau di
og h
ou ckÃ½
iv en
ent ia
ent ina
ĠAl d
ĠAl gi
ĠAl ps
ĠAr rh
ut idae
ew er
ber n
ĠBr itt
ĠBr ighton
Ġ16 8
Ġ14 3
az u
ri i
ĠSh evchenko
ah r
yc n
eb b
eb urg
Ġ13 7
Ġvi ol
Ġvi olin
oph ilus
art ment
18 67
ĠPr ima
Kh o
Kh Ã¡nh
kh á»ĳi
kh ram
Ã¼ ÅŁ
ath on
oll i
Ġtho áº¡t
ĠSch Ã¶n
Ġ22 8
ĠAs he
ĠAs unciÃ³n
ĠAm or
ĠSan skrit
oy ar
ĠâĢ ¦
12 3
ost om
50 1
ert sch
la f
Ġ27 5
ipp er
br ia
sh a
se in
eth us
ĠMan agement
ĠCl ement
ĠCar ne
ĠCar thage
Ġ29 0
ts u
rid iidae
lin t
ater ina
ĠTam an
Pr oc
att en
ĠAd rian
ĠOl imp
ĠKr am
ĠKr ampus
ull ia
ĠHer r
ĠHer tha
ĠLat ridiidae
à¸ ģ
ĠGre ater
amm ad
ĠPal m
ĠCharl ton
Ġj avan
ĠBal och
Br uch
ĠHe avy
eck Ã½
gh t
Ġlong ipes
ĠSam ar
ace um
ĠBel ize
ĠBur sa
Sh ow
Äģ bh
Ġpl ant
ĠVal le
Cal am
Ġam oni
ĠCO NCACAF
ky i
Ġcal o
ĠHau t
ĠGar c
ĠWind sor
Ð¸ Ðº
ĠcÃº m
ĠShi k
ĠFr ont
Pl agioch
ĠLuc ia
ÑĢ Ð°
Ã¼r k
ĠGer wig
orb iaceae
En ter
Æ¯ T
Er em
ĠBlack burn
arr h
Ð¾Ð ¼
ĠMag azine
ĠHir oshima
ĠPav lyuchenko
Ag ryp
ĠLind s
ĠJos Ã¨phe
ĠOn line
ĠGro uvelle
Hyp num
Ġflav escens
ĠPas te
Ġpol yme
Ġnit rat
utt gart
ĠMV P
ĠSung kyunkwan
ogloss a
ÅĻ ÃŃ
Ġten uis
alp a
ĠBarb ar
ĠLes lie
ĠCount ies
apt or
har ata
ĠLyc aenidae
Ġrob usta
Mal ay
ĠVerd c
ĠPlat nick
Wh at
auh inia
Ol iv
Ġmet all
iaz ione
æĺ ¥
ĠBank iva
ĠIvan ovich
ĠWarn cke
cast ing
tah ya
ĠDae woo
raw ford
ĠLau ra
ĠRud olf
ĠTrin ity
éĥ ½
ĠBroad casting
Ġangust ifolia
ĠFul k
Ġre al
ĠChan son
Ġbrach yp
ĠLeop ard
ĠHá»Ĺ n
ĠSard egna
Ġform os
ĠOliv ier
á¹ Ń
ĠProduct ion
ĠTol edo
ĠBil bao
Coel iox
ĠBlan co
ĠRem ix
ĠOz zy
ĠVeg as
Chim arra
Od ont
Sec ure
hyd rox
ç¦ ı
ĠPsych omyiidae
ĠHÃ¡ gs
inct us
ĠGaul le
Bul ldog
Lob elia
Ġell iptic
Ġocc ident
Ġpus illa
ĠWarm iÅĦ
Get Backers
ĠSimp son
Cá»¥ m
Ġflu or
ĠWrest ling
Cent aurea
Ġsap iens
ĠPanth er
ĠFuji wara
Pand anus
ĠKind b
ĠKÃ¼ tahya
ðŁĴ °
ĠSham rock
Desm odium
ĠHenr ÃŃquez
ĠSey chelles
ĠLepid oziaceae
ĠZag reb
adn ought
ĠOlom ouckÃ½
Res ident
ĠHedge hog
ĠÆł n
ĠDistr ict
Moch izuki
ĠGuj arat
ĠEduc ation
ĠTechnolog ies
ĠSentin el
ĠDres den
ĠMargin ellidae
ãĥĴãĥ¼ãĥŃ ãĥ¼
Mazur skie
ĠKosz alin
nggol an
igof era
ĠAlgi ers
Äģbh Äģrata
Coeliox ys
ĠHÃ¡gs ater
ĠWarmiÅĦ sko
) /
1 19
3 10
4 50
: ãĢ
; .
A qu
A er
A derus
B D
B E
B ig
B ez
B auhinia
C á»ķng
C uc
D ict
F M
F us
F orbes
G I
H il
H ogna
J os
K iá»ĥm
M ex
M azz
N C
N iÃªn
N ep
N ord
N ielsen
O li
O sm
P i
P ia
P og
P LA
R ap
R unning
S ed
S Ã¡u
S ybra
T our
T Ã¹y
V áºŃt
V asil
W ar
W HO
b Ã¡nh
b áº¯c
b á»Łi
b oy
c in
c ox
c aster
d z
d et
f an
f ic
f est
g Ã¢y
g ea
h or
i u
i qu
j j
l ay
l ik
l und
l era
l ight
m at
n áº±m
n Ãºi
n ith
p en
r est
s am
s Ãºng
s ium
t ar
t iá»ĥu
u ata
v Äĥn
v ideo
v iew
y v
z umi
Î ¯
Ñ ĸ
à ¦
à ²
ç ľ
è ´
è µ
ê °
ì Ħ
ì ļ
Ġ ul
Ġ á»ıi
Ġ erg
Ġ asp
Ġ à¤
ĳ ¨
Ł m
Ġt on
Ġc au
Ġc ant
Ġc arn
Ġc abin
Ġv v
Ġv est
Ġl os
Ġl áº¡y
Ġth Ã¢y
Ġth áº±ng
Ġth áº¯n
Ġth áº·ng
Ã¡ lov
Ġh ar
Ġh or
Ġh el
Ġh áº¯c
Ġh á»ĳt
Ġh áº»o
Ġm us
Ġm Ãºt
Ġm ut
Ġm ollis
Ġm olyb
Ġtr Ãºt
Ġtr ehalose
Ġb ung
Ġb ÃŃt
Ġb lu
Ġn áº¿m
Ġch á»ĩch
Ġk ombu
Ġs áº¹o
Ġd ay
Ġg á»ĵ
Ġg Äĥng
Ġg land
Ġkh áº£i
ĠT áº£o
ĠT iáº¿u
ĠT iÃªm
ĠT Ã´m
Ġng áº¡nh
Ġph Ã¨n
ĠC V
ĠC od
ĠC och
ĠC ogn
ĠN eo
ĠN ice
ĠN RA
ĠN elson
Ġtá» Łm
ĠL Å©
ĠL em
ĠL ion
ĠL ED
ĠH O
ĠH ae
ĠH is
ĠH Ã¡ch
ĠH ester
ĠH ope
ĠH Æ°Æ¡u
ĠH essen
Ġgi áº±ng
Ġr ich
Ġr Ã¬u
ch ur
Ġx Ã¹
Ġx á»ĳp
ĠB Ã´ng
ĠB á»įn
ĠB ert
ĠB asil
ĠB eta
ĠB ukh
ĠÄĲ om
ĠS Ãª
ĠS ens
ĠS ok
ĠS uc
ĠS ass
ĠS ind
ĠS Æ°á»Ŀn
ĠS phaer
am ent
am ura
am ori
oa l
ar est
ĠP A
ĠP ai
ĠP ang
ĠP amp
ĠP ent
ĠP ard
ĠP ant
ĠP age
ĠP iano
ĠTh ree
ĠV á»ı
ĠV ul
ĠV ell
ĠV AR
ĠV aux
ĠK Ã¬
ĠK á»ī
ĠK ub
ĠK ola
ĠK ampar
ĠA w
au g
au ng
Ġ20 6
ĠD ord
ĠD ys
ĠD ict
ĠD alm
or as
ĠG á»Ĺ
ĠG ig
ĠG ent
ĠG aya
ĠG ates
ĠG NOME
ĠG loria
ĠCh ag
el ea
at ol
at ea
Qu á»¹
Ã© al
ol ip
ĠR Ã´ng
ĠR ex
as ch
as tern
ĠmÃ´ Äĳun
os o
os ema
ur aceae
ĠI g
um m
um en
ac Ä±
ac ulata
ĠE vel
ĠE FL
ĠF an
ĠF er
ĠF al
ĠF uch
ĠF ace
Ġ4 40
hi b
ĠJ ia
ĠJ ov
ĠJ off
ĠJ une
ĠJ ensen
ĠJ olyne
ad d
ad z
ad ia
ad enia
th Ã¢n
th á»©c
ĠW a
ĠW an
ĠX Ã³m
re us
ot aceae
ot arsus
ÄĲ iá»ģn
od ora
ĠO ahu
Ġtu Ã½
tr ino
ov na
Ġ8 50
Ġlu t
Tr ach
Tr ifolium
ig ua
ig na
Ġp ent
Ġ9 99
ĠY ugi
ĠGi bb
Ġ12 9
ĠthÃ¬ a
Ng Å©
19 28
19 32
ion ale
ell on
ell ing
ne au
ich ett
ich iro
Ch ÃŃ
Ch á»£
ra pha
Ã³m ez
ill um
Ġf irst
Ph e
Ph Ãª
Ph Ãºc
ard ii
ĠSt uttgart
Ġ17 85
Ġ17 67
ĠAl geria
if ied
ew ard
ber s
ber is
ud er
ĠLe uc
ĠLe Con
ach eslav
ĠBr isb
ĠNgh Ã©
Äĳ Ã¡
ri en
ĠSh ak
yc in
ant is
ant Ã¡n
ym an
ym outh
oph y
oph or
man ce
Ġan ion
á»ħ u
18 70
18 02
ĠMÃ£ nh
ĠCr aib
und y
ĠThu idiaceae
Ġw a
Ġw hich
orn o
ath ani
Ġ24 3
ĠPar amount
ĠPar anÃ¡
ez on
land o
och a
Ġ23 8
ĠHy der
ĠPhil odrom
16 1
oy ama
12 1
ost emma
br unn
ll o
ĠCar ter
ff er
ff ect
rys um
uch a
ĠMal aya
ĠAnd alus
ĠÃļ y
13 9
Ġ[ "
oth y
ĠBe e
Pr ion
Pr inz
ly ph
ĠWal d
sp ic
ini que
act ive
ĠOl ive
ĠOr le
ĠOr estes
ald a
arb a
aur idae
ĠPol yn
ãĥ Ī
Le on
ala phidae
Ġac ut
à¸ ĩ
ĠMor avia
ĠDe an
ĠRh ode
ĠRich ter
ĠSa Ã´ne
Ac roc
ĠCamp ania
ĠUr du
Am omum
ĠFre edom
ĠTe ch
ãĤ ¸
ush a
ĠEng ineering
ĠSu ff
86 6
Ġcal c
Thu áºŃn
ĠRu iz
Ġsh Åį
Å¡ inac
ye ar
app y
ĠGal ilei
El ateridae
Ġchá»£ t
ĠInd ia
ĠShi ng
ĠVol t
ĠVol od
ĠCap ital
ĠWe aver
ĠSant alaceae
ĠJul es
Ġmac roc
Bl ume
Pseud op
ĠMas on
ĠOb last
ĠSz lach
ĠComp uter
ubl ic
ĠJean ne
ĠJun iors
Ġæ Ŀ
å® Ĺ
Ġax ÃŃt
ĠPi emonte
ĠPi enaar
ĠSar ah
ĠHay ata
thu á»ĳc
Ġmic ro
ĠRog ers
ĠLeg n
ear er
ĠKer ala
ĠAug usta
ĠDani il
ĠHon shÅ«
Meg al
Ġstr ict
Met al
ĠBat man
ĠÃĩ anakkale
ĠTeut on
ĠHind i
ĠCN RS
odont aceae
Ġsin ensis
ĠDen ver
akar an
osaur ia
ĠGol tz
Pter is
Gar c
Camp yl
lar en
Ġká»ģ nh
ĠPle ist
ĠRon ald
Anth ren
sb ack
ĠDor ado
ĠAndr zej
Ġcap ensis
ĠTortr icinae
Ham ilton
ĠTat ras
opt ila
Ind igofera
ĠDeb ra
âĢĺ âĢĺ
ĠKaw asaki
éĥ ¡
ĠWolf gang
ĠOle ÅĽn
Ġdim idia
ĠLaz ar
Cten us
Pyr Ã©nÃ©es
Sam uel
Ġrh od
Ġhir s
ĠArd ennes
Ġvar ieg
çĶ Ħ
ĠDer by
led ge
ĠBarn ard
ockh eed
amel teon
ĠVy acheslav
ĠNicol as
Ġflor ib
ĠConc ert
Ġmand al
otrop ic
Ġcast ing
Ġfran c
ĠMidd le
Sel aginella
ĠLow e
Ġsqu ad
ĠWell ington
éķ ·
Ash anti
Cir sium
ĠHop kins
zÄ± l
ozh in
Melan otus
ĠHers chel
ĠPhill ips
Miss issippi
ĠMers in
ocn emis
ĠAsc alaphidae
Åı n
alon iki
abh akaran
Nap olÃ©on
ĠPoir ot
ĠStu art
ĠStafford shire
ĠBarl ow
ĠBapt ist
ĠJÃ³ zef
ĠBened ict
Hydr opsyche
Ġrot und
ĠChalle nge
ĠCasc ade
Sug ar
Ã¡sz lÃ³
Ġmad agascar
ĠAyd Ä±n
Eil ema
Scyt odes
Nephr odium
Tarax acum
ĠThomp son
ĠDraw sko
ĠPrig ozhin
Ġcholester ol
ĠLiet uva
Ġxyan ua
Plagioch ila
Malay sia
Oli os
ĠEvel yn
ĠLeCon te
ĠBrisb ane
ĠPhilodrom idae
ĠAndalus ia
ĠOleÅĽn icki
' )
' ),
4 20
5 20
A rach
B ah
C ob
C á»«u
C trl
D Ãłn
D ig
D ist
D ance
D enis
E sp
F ree
G ang
H F
H Ã³a
H all
H erm
H yg
J uno
K S
K iá»ĥu
L O
L áº¥y
L ei
L ike
L ittle
M áº¥t
M au
M Ã³n
N i
N áº¡n
N BC
N orth
O mm
P ak
P ass
P ara
P ark
R ose
R hip
S á»©
S ud
S elen
T Ãło
T áº§m
T Ã¬m
T ax
U FO
V ar
Y or
b iá»ĥu
d re
d á»±a
g ate
h Æ¡n
h Ãłm
h ee
i Å¡
i opterygidae
j k
j ae
k el
l ord
m ei
n u
n Ã´ng
o om
o un
p i
q q
r ina
t Ãłu
t ing
t Ã¹y
u ary
u ff
u age
w est
y uk
z sch
z Ã³w
z egovina
¯ Ģ
Ã °
Î ·
Ð ¢
Ð Ĵ
Ù ĩ
å ½
å Ĥ
å ĸ
æ Ķ
è ¾
è Ĳ
Ġ Ã¡ng
Ġ az
Ġ est
Ġ imm
Ġt á»Ļt
Ġt al
Ġt áº¥p
Ġt weet
Ġc Ãło
Ġc rist
Ġc enter
Ġc ocaine
ĠÄĳ iáº¿m
nh áºŃn
Ġv Å©ng
Ġl ia
Ġl as
Ġl áº¡t
Ġl ind
Ġl ike
Ġl Æ°á»£m
Ġth or
Ġth á»ĳt
Ġm á»§
Ġm áºŃn
Ġm á»©t
Ġm icran
Ġb Ã´
Ġb Äĥm
Ġb oot
Ġb Æ°á»Łi
Ġn Æ¡
Ġch á»ĵn
Ġch á»Ńa
Ġch áºµn
Ġs áº·c
Ġs ess
Ġnh Ä©
Ġnh áº¥p
Ã¢ zÄ±
Ġd isp
ph ne
Ġg Äĥm
Ġg áº¡c
Ġkh áº¥n
Ġkh Ã³m
ĠT ern
ĠT ets
ĠT usc
ĠT LT
ĠT ommy
Äĥ h
ong ensis
qu est
ĠC Ã¡o
ĠC ac
ĠC Ã³c
ĠC arn
ĠC iidae
ĠC omo
ĠC Ma
Ġqu in
ĠN im
ĠN ats
ĠN ishi
ĠN ieu
ĠN eckar
Ġvá» ¯a
Ġvá» ĵng
ĠL Ã¡ng
ĠL un
ĠL LC
ĠH of
ĠH Ã´m
ĠH ast
ĠH ull
ĠH agen
ĠH ask
Ġgi Ãłn
Ġgi áº¥m
Ġr á»ĩp
ch y
ch ed
Ġx Ãºi
ĠB M
ĠB ale
ĠB ors
ĠB aku
ĠB TC
ĠB TS
ĠB ucc
ĠB ecker
er va
ĠM Æ¡
ĠM om
ĠM oto
ĠM aker
ĠM esa
ĠÄĲ Ã¨o
ĠS Æ°Æ¡ng
ĠS ut
ĠS ix
ĠS ee
ĠS ester
ĠS unn
ĠS ÅĤaw
on opidae
am ai
ar ion
ĠP ill
ĠP ack
ĠP ei
ĠP asha
ĠV laanderen
ai th
ĠK ia
ĠK ara
ĠK ris
ĠK ings
ĠK ays
ĠA ce
ĠA ichi
ĠA LG
ay ana
ĠTr áº§m
ĠTr oy
ang o
ĠD D
ĠD eg
ĠD ennis
ĠD iaz
ĠD iá»ħm
ĠG á»ĳc
ĠG ul
ĠG Ã¼r
ĠG Ã³mez
ĠCh á»ĭ
ĠCh Åį
ĠCh Ã¢teau
is ei
is abeth
ĠPh iáº¿n
ĠNg Ãłn
ĠNg á»įn
Ġra don
ĠQu b
ĠNh ai
ĠNh áºŃp
ol ev
ĠR P
ĠR iv
ĠR Ãµ
ĠR oh
ĠR esearch
ĠR ebecca
ic ost
Ġho st
as ca
as than
ĠnhÃł n
os ella
it ation
it sa
ur ius
ĠI on
um Ã©a
Ġ18 1
ĠE C
ĠE con
ĠF P
ĠF ut
ĠF ame
ĠF rid
ĠF ull
ĠF DA
Ġcon tain
Ġ5 90
ĠJ ut
th iáº¿t
ĠW ei
ĠW oman
Th áº¡ch
and y
and ez
ul os
Ġ6 000
Ġ6 60
ot os
", "
ĠO onopidae
ĠU b
ĠU ltimate
Ġtu ber
tr up
oc co
oc arya
ov it
ov irus
Ġlu á»ĵn
Tr áº£i
Ġp re
Ġp rob
Ġp siloc
ĠY ai
ĠY es
ĠY á»ĥn
ĠY ev
ĠY ank
ĠGi u
av ad
19 27
19 36
19 48
ell ig
ich thys
ich rysum
ĠAn im
ĠAn and
Ch e
Ch Ã©n
te i
km en
ill ac
Ġf act
og s
ta ÅŁ
ob ile
iv ka
Ph Ã¹
Ph áº£i
ard t
ĠÃģ ng
ĠMar ian
ĠMar ant
Ġ17 00
Ġ17 77
Ġ17 68
Ġ17 79
Ġsu p
ĠLe ban
ton a
ton ia
ĠZ ur
ach o
Ġ16 4
Ġ16 53
ĠNgh á»ģ
Ġ14 92
Äĳ Ã¡ng
ri que
Ġal t
yc z
ep e
Ġ13 00
est in
est us
ug g
ist es
oph is
oph yl
Ġan nam
uk ar
ey h
ib b
ĠLa j
ord a
18 44
18 78
ana x
Ġof fs
ĠCon iopterygidae
Ġ25 2
10 5
Ã¼ y
ort is
ĠEl Ã¢zÄ±
ĠQ ÄĲND
Ġw ar
ath ia
Ġ21 1
eh ogne
ĠAm en
ĠAm iens
ĠâĢ ¢
12 7
ipp on
ĠCl ara
ĠCl oud
ĠCl aire
ĠSp eed
ĠRom anov
ĠGu antÃ¡n
ĠKhu áº¥t
ĠThe aceae
oz one
ĠAnd es
ĠPl ut
13 2
ann ing
Al oe
Ġpr ol
ris ta
ĠIs lam
ĠBe er
Ã©m ont
Pr ichett
ĠAd idas
ĠKr Ã¡lov
ĠBer ry
Ã©n Ã©g
ĠMc laren
Â° .
à¸ ¡
ari ensis
ho ÄįeskÃ½
Ġsp p
Ġsp aghetti
ĠAb out
ĠDu áºŃt
elle gr
ĠMor aw
err ima
Ġe ur
ĠEr misch
enk ovsky
enk irchen
ĠSe an
aint y
gi áº£m
ĠBen o
ĠBel fast
ĠTim ur
ĠDon caster
ĠEm ily
ck er
Ġpl asma
iy ah
uss er
Ġ33 6
Cal amus
ĠTor re
ĠMat su
ĠMart ÃŃ
Ð¾ Ð½
ĠMu ÅŁ
ĠAg ency
Par ac
lo ilo
ĠGar cia
Å« n
anc ed
pr ot
ĠDr Ã´me
ÄŁ an
MS DF
Ġi Que
aud io
gr ess
Ġå ħ
Ġå į
Gr imm
ĠGh az
ank Åįbon
ĠAnt illes
ĠPort land
ĠSil van
ĠDel gado
Cr otal
ĠCap or
ĠSw an
ĠFri ed
ä¸ »
ĠFl em
ĠMah a
ĠKar ol
imb un
Mic onia
osp ora
Ġ179 7
iflor us
SP Y
ĠAndre y
En ic
UB ND
Æ¯ á»Ľc
Er ig
ĠKir k
lec tra
oad s
ĠEug ene
ĠIl se
odon ta
ĠMag ic
ĠPav lov
ĠLind b
ĠKan eko
iform e
ĠUl tra
ĠPi otr
ĠJac q
ech n
Ġad enyl
ĠShin zÅį
ĠDom ino
ĠJava Script
Ġsch ool
giá» ¯a
ĠDev on
ĠWat ch
Ãģ p
ĠLor raine
astr um
ĠEsp a
ĠReg an
ĠNikol ayev
Ġor atorio
ĠRain ier
Hel ichrysum
ĠRen Ã©
ĠNo umÃ©a
ĠWall ace
ĠCount down
alk ot
ĠCham arajan
ĠMir anda
ĠKho áº£n
ĠKho Ã¡t
ioph orus
Man chester
Ber beris
ĠKat ie
ĠShim izu
ĠZaporizh ia
ĠJi hoÄįeskÃ½
assan id
ĠNS Æ¯T
ĠKra fton
ĠPs yche
ĠKun ze
ĠHend ry
ĠIv ie
ĠJon as
éĻ µ
ĠMaur icius
ĠRang oon
ĠBah rain
ÄĽ d
yss es
Ġind icus
åĮ Ĺ
Ġsil ic
ĠBrook ings
Op penheimer
ĠDeb ehogne
Can ada
ĠSport ing
Coll ett
ĠKum amoto
ĠUN IX
ĠSpar ta
Cycl osorus
icho eres
ĠFun imation
ĠClass ic
lev eland
Hal ichoeres
ĠShÅį nen
ĠHero es
å¹ ´
Ġol ig
Ġtrans istor
imet ime
ĠDai ly
Mord ella
ĠBis marck
abin sk
ĠBag alkot
olob ium
ĠEu nh
Oc otea
ĠMidd les
ĊĠĊĠĊĠĊĠĊĠĊĠĊĠĊĠĊĠĊĠĊĠĊĠĊĠĊĠĊĠĊĠĊĠĊĠĊĠĊĠĊĠĊĠĊĠĊĠĊĠĊĠĊĠĊĠĊĠĊĠĊĠĊĠ ĊĠĊĠĊĠĊĠĊĠĊĠĊĠĊĠĊĠĊĠĊĠĊĠĊĠĊĠĊĠĊĠĊĠĊĠĊĠĊĠĊĠĊĠĊĠĊĠĊĠĊĠĊĠĊĠĊĠĊĠĊĠĊĠ
éĩ ĳ
Fri edrich
ffe ine
Ger an
ĠCel tic
ĠSas ebo
Lamp yridae
ĠKad okawa
ĠSylv iidae
ww w
ĠGust av
Act in
avar man
Aleur oc
Ġuran ium
ĠSpe ars
ĠGhor Ä«
ĠBernab Ã©u
Aul ac
ĠTrib une
Cheil anthes
Stand l
ĠJÃ¤ germeister
dou ble
ostach ys
ĠCun eo
ĠNSF NET
æŀ Ĺ
yphl opidae
Tiber ian
ĠAri Ã¨ge
Corp se
ĠExplor er
ĠEuc lid
ĠSend ai
ĠRiss oidae
ĠKyÅį to
ĠPetros ian
ĠNahi yah
ĠDeniz li
Dus ona
Gris eb
ĠBÃ¶h m
ĠAil en
ĠCrime an
ĠMear sheimer
ĠMusta fa
Ġbrasil iensis
ðŁĴ° ðŁĴ°
:ãĢ Į
Pia get
ĠDord ogne
ĠSester o
ĠMarant aceae
ĠLeban on
Ġoffs et
ĠElÃ¢zÄ± ÄŁ
ĠGuantÃ¡n amo
ĠKrÃ¡lov Ã©
Ã©nÃ©g al
Crotal aria
ĠChamarajan agar
5 67
A gl
A esch
A ilee
B áº§u
B Ã¢y
B at
B Äĥng
B ill
B yr
B rom
B ald
B attle
C áº£ng
C re
C áº·p
C ory
D uy
D Ã´me
D ainty
E U
E ch
E ST
F er
F el
F ab
F ly
G or
G neis
H or
H it
H Ã¡t
H op
H oll
H igh
H ugo
H ampe
I K
I di
I shi
K ad
K ill
L á»ĩnh
L ev
L oáº¡t
L ady
M ong
M oon
M ortal
N or
O en
O ed
P ent
R us
S C
S id
S om
S Ã¼
S cheff
T áº¿t
U rani
V erb
W olf
W agner
W reck
Y Y
Y a
Z e
Z en
b Ãł
b ah
b ull
c á»Ļng
c áº£m
d Æ°Æ¡ng
d Ã¹ng
f ect
f red
g ai
g oszcz
h iá»ĩu
h wa
h arm
j as
j uk
j ord
k ers
k ei
k utsk
l ai
l em
l ab
m b
m á»Ł
m Ã¬
m áº¹
n at
n ophila
n tun
o Äįina
p ing
p ingidae
p rise
r un
r ing
s ong
t ion
t á»·
w ondo
x uáº¥t
y ar
y as
Ã ®
Å ĵ
Î ¼
Ï ħ
Ð Ĳ
Ø ¨
ç »
è §
è Ĺ
Ċ Âł
Ġ uyÃªn
Ġ eg
Ġt ess
Ġc it
Ġc Ã¹i
ĠÄ Ĥn
ĠÄĳ Ã¡i
Ġv is
Ġv err
Ġl on
Ġl or
Ġl Ã³c
Ġth Ãł
Ġth Ã¡n
Ġth Ã©t
Ġh iÃªn
Ġh et
Ġm ul
Ġm uc
Ġtr icolor
Ġb á»±c
Ġb ai
Ġb áº©y
Ġb á»©t
Ġb Ã³i
Ġb lan
Ġn ic
Ġn áº¡o
Ġn Ã´i
Ġn oi
Ġn ub
Ġn áº§y
Ġn ickel
Ġk iáº¿t
Ġs ÃŃt
Ġnh ÃŃ
Ã¢ t
Ã¢ tel
Ġd ia
Ġd áº«u
Ġd iss
Ġd ors
Ġg ao
Ġg á»£n
Ġkh áº¯t
Ġkh Æ°á»Ľu
ĠT us
ĠT á»¥c
ĠT ul
ĠT ig
ĠT ort
ĠT ennis
ĠT aek
ĠT erme
Ġng áº¥m
Ġng á»©a
Ġph il
an as
ĠC W
ĠC ong
ĠC á»¡
ĠC rypt
ĠC ode
ĠC zech
ĠN iÃª
ĠN áº¡n
ĠN iá»ĩm
ĠN un
ĠN ogai
ĠL iá»ģu
ĠL ed
ĠL oph
ĠL owell
ĠL orient
ĠH A
ĠH id
ĠH ur
ĠH az
ĠH ack
ĠH ash
ĠH Ã©r
Ġgi bb
Ġr á»ĵ
Ġr ed
ch áº¿t
ch at
ch á»ĳng
Ġx iáº¿t
Ġx oan
ĠB Ã³
ĠB Ã¹
ĠB eh
ĠB yd
ĠB oss
ĠB Ã©n
ĠB edd
ĠB AFTA
ĠB laine
er ie
er ent
ĠM is
ĠM ab
ĠM ei
ĠM ersey
ĠÄĲ áº£m
ĠÄĲ á»£t
ĠS Ã¡c
ĠS Ã¡i
ĠS os
ĠS verd
ĠS Ã©nÃ©gal
on ot
on ie
am ensis
in yl
in aria
Ãº l
ar aceae
ĠP oc
ĠP yth
ĠTh Ãº
ĠTh áº»
ĠTh ings
ĠV C
ĠV á»Ł
ĠV iew
ĠV NÄĲ
ĠV ector
ĠK atherine
ĠK uhn
en ca
ĠA ra
ĠA ub
ĠA ston
ĠA DC
ung a
ung e
ĠTr ies
al og
ang an
ĠD Ãª
ĠD áº£i
ĠD il
ĠD as
ĠD ob
ĠD ess
ĠD estr
or rh
ĠG oni
ĠG ear
ĠG wang
ĠG upta
id l
ĠCh Æ¡n
ĠCh ad
ĠCh op
ĠCh ul
ĠCh á»ĵng
ĠCh áº©n
ĠCh Ãłm
ĠPh ib
el ius
at te
at ina
at ors
at ostema
eo d
us en
im en
ĠQu int
ol oma
ĠR up
ĠR ita
ĠR SD
ic aria
Ġho use
as ed
as ian
Ġ3 26
ur um
et in
om ant
um s
um ar
um ann
em eridae
em hat
ĠE CM
ĠE vergreen
ĠF ly
ĠF ive
Ġ4 10
ĠJ ew
ĠJ unc
ĠJ erry
ad as
th áº¥t
th á»ĥ
ĠW is
ĠW und
ĠW urdack
Th Ã´i
op ius
re k
re pt
re do
ot in
Ġy aoi
ĠKh Äĥn
ÄĲ T
ÄĲ Ã¡
od om
ĠO anh
ĠO per
Ġ7 14
ir ov
ir sk
tr á»Ł
tr is
oc oma
Ġlu zon
Tr Ãł
Tr á»ĭ
Tr ia
Ġp ter
ĠY in
ĠY en
ĠY eo
ĠY un
ĠY ah
ĠY ury
av ing
ab harata
Ng hi
19 20
19 16
19 14
19 34
19 22
19 29
Ġ11 00
ĠÄĳÃ´ men
ro f
ro ther
ip as
ec l
Ġf asciata
Ġf imbr
og g
ob ryum
ry Å«
ine phr
Ãµ a
st ad
ok er
ok aze
ĠSt Ã©
ĠSt age
ĠSt ones
Ġ17 6
Ġ17 76
Ġsu Ã´n
yl onidae
ew ski
Ġ15 90
Ġ15 85
Nh áº±m
ev ille
ran ce
sk e
ĠBa ch
ĠZ en
ĠZ amb
ach en
ĠBr ux
ĠBr ennan
Ġ16 2
ub ia
ĠNgh iá»ħm
Äĳ á»©ng
yc k
Ġ13 1
est ia
ant om
Ġtrai ler
ym yr
ey e
ue a
iz h
iac a
iac ea
ĠGr ail
ĠGr ove
ĠGr olle
10 3
kh Ã¡c
ort ense
ĠEl isabeth
Ġw al
Ġ21 2
Ġ21 5
ox ia
ain te
ĠSch ne
eh ne
yn idae
land ers
ĠAm az
Ġ23 4
16 3
16 4
ĠCer ylonidae
Ã¶ ll
Ã¶ ren
ost ethus
Ġ27 8
Ġ28 3
Ġtrá»¥ i
anth emum
Ġ26 2
Ġ26 5
ĠCar acas
ĠCal isto
ĠCan n
ĠFran che
11 4
Ar thur
Ar iad
Ar istoloch
ĠRe agan
ĠPl ymouth
ies e
ĠUS B
per g
Pr ist
tern ative
ĠSal pingidae
23 9
ĠAd mir
ĠPhilipp ine
ĠOl ga
ĠOr ton
ĠOr lando
Ġa ph
ĠCor vin
ãĥ ©
ames h
eim er
ĠWill is
ĠHer od
ĠHer man
ĠHer zog
ĠOs ment
Â° ,
ĠDi osc
]] "
ĠBol esÅĤaw
arp us
ĠIr kutsk
ĠDis c
ĠMe Ã±
ĠMac quart
ĠMus eum
As agiri
ĠSe ong
Br and
ign ata
ih la
ĠMon o
ĠMon ica
gi Ã¡o
Ac in
Ac rop
Ġ70 6
Ġ35 1
Ġlong ifolia
ĠBel y
Am ped
ĠFre etown
Sh e
Sh evch
Ġst yle
ĠVal ens
Ã§ e
ĠÐ ľ
ĠÐ ł
Sc utell
ĠRichard son
Sp ec
ĠSu áº¥t
ĠAir bus
ĠMu ang
ĠMu á»ĳi
ĠVi ettel
ymp ic
Ngh e
lo or
Thu á»Ļc
yt um
ĠTur kmen
ft inck
Ð¸ ÑĤ
pr Ã¼
we en
aud in
El atostema
ade us
Gr iffin
ĠFr itz
ĠSil esian
ĠVol k
ĠWe ber
ä¸ Ĭ
ĠKar at
ĠMaria chi
opol itan
ĠAz teca
pl ic
str o
str Ã¶m
ĠSo ult
ĠPt il
ocarp um
ĠCat ania
ĠGro und
ĠKy ung
ĠArt ist
ĠVer ona
ĠSel agin
yb in
Ġnit id
Ġfr ont
bl att
Ġby te
Per rier
Ġxen l
ĠSat Åį
ĠBarb ary
ĠSpr int
ĠSpr uce
gy z
Neo c
Euph yia
ĠÂł Ġ
Wh en
Ġpall ida
Ġchlor at
Ġbl ock
Ġfl ash
ĠNS ND
ĠKra jina
ĠRaj asthan
ĠAtl as
æĿ ±
Ġcomm une
Ġind ica
ĠAsh ley
Hu á»³nh
Se ine
ĠSn ow
Ġte am
ĠPil otrichaceae
Ġvir idis
ĠPad ova
Sam urai
Ġball et
ĠHed w
ĠPers e
ĠChan el
Dol omedes
ific ation
ĠGyeong gi
Sy ng
ĠBÃ© arn
ĠErich son
No MS
Sph ec
ĠVeg a
ĠWW F
Alex ander
Ġlae v
Ġacet yl
Mim osa
bro ugh
ĠGeo trup
ĠReich stag
ĠBuch arest
ĠBow l
Ã³r z
ĠBrid g
éķ ĩ
ĠMeur the
FI FA
Pleur oth
ĠDam as
Äĳá»ģ u
ĠHeb rew
ĠIA EA
ĠJess ie
ĠAID S
ĠArist otle
ĠHerac les
Sur vivor
Ġgluc ose
ĠOed ipus
ĠOed emeridae
Ġdich rom
aci Ã³n
ĠPros kur
ĠHus sein
ĠSull ivan
ĠSchr Ã¶
æĢ Ŀ
ĠCry stal
ĠVys oÄįina
ÅŁa ÄŁÄ±
ĠDion ys
ĠEuph orbiaceae
Thal ass
ĠMalat ya
Glen ea
ĠLeb ed
tÃ´m at
ĠMcCl ellan
Âµ g
ĠCapp araceae
ĠPueb la
oprot ein
ĠWy oming
Spil osoma
ĠNizh ny
Pie ce
obacter ium
ĠKhrush chev
ĠNj oku
ĠKyr gyz
ĠWise au
ĠProfess ional
ĠHist ory
ĠBarbar ossa
Ġoccident alis
Vasil y
Ġerg aster
ĠSphaer omatidae
ĠDict ynidae
ĠOrle ans
ĠHast ings
ĠBucc inidae
ĠALG OL
ĠYank ee
ĠQÄĲND VN
ĠMoraw itz
Scheff lera
ĠByd goszcz
ĠSverd lov
ĠRSD RP
ĠECM O
inephr ine
ĠBrux elles
Aristoloch ia
ĠMeÃ± li
Amped us
Shevch enkovsky
ĠSelagin ellaceae
ĠGeotrup idae
! âĢĿ
+ +
- )
. [
1 30
2 10
3 20
7 47
? âĢĿ
A U
B i
B oa
B re
B ry
B áº£y
B ath
B oy
B omb
C L
C Ã¡o
C Ã¡t
C ab
C ont
C anth
C EC
D iv
D ein
D actyl
D iad
E ul
E ury
F ern
G om
G all
G ib
G rid
G ato
G eol
G reen
G hara
H S
H au
H as
H ist
H esper
J un
J enk
K arl
L om
L Ä©nh
L aur
M Ã©
M and
M yl
M ass
M ast
M ason
N er
N ic
N áº±m
N eop
P all
P ri
R ec
R odr
S Ãłi
S imon
S avo
T á»ĳc
T ol
T ap
T uyáº¿t
T eph
U M
U ng
V ir
V TV
V irg
V ariety
W es
W right
W inkl
X ÃŃch
Y ukar
Z N
b Ã¬nh
c áº§u
c ung
c Ä±k
d om
d áº¥u
d Åįjin
f el
h ynch
i q
i osa
i ola
i odes
i ja
k r
k im
k op
k un
k ent
l á»±c
l inh
l ac
l áº¥y
m p
m ak
m ara
m eri
m are
m unicipal
r ap
s Ã¡ng
s ao
s om
t Ã´i
t yn
t ankÅįbon
v á»ĭ
v Æ°Æ¡ng
v at
v inn
w ai
w ik
x y
x anh
y tr
y av
z em
z ab
z Ã¼
z no
Å ¯
Î ¬
Ñ ĩ
â Ĺ
å ĵ
æ ·
æ ĭ
æ ¯į
ç µ
ç ¸
ç ĥ
ç ı
è £
é Ħ
é Ĺ
é ľ
ë ¦
ë Ĥ
Ġ \
Ġ ê
Ġ og
Ġ oct
Ġt Ã¬
Ġt ao
Ġt Æ¡i
Ġt elen
Ġt wo
Ġc t
Ġc us
Ġc ilia
Ġv áº¡
Ġv Æ¡
Ġv ers
Ġv Ã¢ng
Ġl á»į
Ġl imb
Ġh as
Ġh ex
Ġh uyá»ĩt
Ġm s
Ġm id
Ġm Ä©
Ġm ath
Ġn or
Ġn á»ī
Ġn eg
Ġn uá»ĳi
Ġch áº±m
Ġk am
Ġk et
Ġs el
Ġs áº£ng
Ġs áº¡c
Ġs Æ°á»Ľng
Ġnh Ã£o
Ã³ l
Ġd om
Ġd Æ°á»£ng
Ġd áº·t
Ġd Ä©a
Ġd av
Ġd áº±n
ph osph
Ġg áºŃp
Ġg á»ī
Ġg Ãło
Ġg olf
Ġkh ay
Ġkh Ã©t
ĠT ap
ĠT est
ĠT ver
Ġph áº¥t
Ġph iá»ĩn
ong n
an opsis
qu Ã¡
qu ang
qu Ã©
ĠC Ãº
ĠC es
ĠC Å©
ĠC old
ĠC ase
ĠC asp
ĠC unn
ĠC over
Ġqu áº¡
ĠN Ãª
ĠN op
ĠN Ã¼r
ĠN ever
ĠL á»ĳi
ĠL ic
ĠL oc
ĠL áº¿u
ĠL á»±u
ĠL Ã¡szlÃ³
uy en
ĠH áº¡n
ĠH ip
ĠH Ã¤
ĠH omer
ĠH BO
Ġgi Ã²
Ġr ang
Ġr Ã¢y
Ġr Äĥn
Ġr á»§a
Ġx ao
ĠB C
ĠB j
ĠB op
ĠB akh
ĠB owell
ĠB SD
er oy
ĠM ack
ĠM OS
ĠS G
ĠS O
ĠS it
ĠS áº½
ĠS ich
ĠS alis
ĠS ide
ĠS ato
ĠS ymph
am ana
in em
ĠP ara
ĠP ink
ĠP allas
ĠTh á»ĳ
ĠTh á»ĳc
ĠTh eres
ĠV ichy
ĠK Ã¬nh
ĠK au
ĠK Ã©p
ĠK of
ĠK iÃªm
ĠK ari
ĠK ats
ĠK opp
en ahalli
ĠA IM
au ge
au chi
ay as
ĠTr áº£ng
ĠD z
ĠD áºŃn
ĠD Ã¹ng
ĠD us
ĠD iá»ĩt
ĠD á»įc
ĠD oll
ĠD acia
or ph
or ensis
or ial
ĠG B
ĠG oa
ĠG len
id ippus
ĠCh áº¡p
ĠCh ely
ĠPh á»ī
ĠPh Ã©p
ĠPh ry
at y
at ak
ĠR C
ĠR im
ĠR ok
ĠR oz
ĠR ight
ĠR estion
ic y
Ġ3 15
Ġ3 29
os ÅĤaw
it iat
ur ae
ur ata
om oto
ĠI Q
ĠI ce
ĠI ly
ĠI RR
um ent
em ic
ac io
ĠE yes
ĠF en
ĠF ood
ĠF itz
ĠF ergus
ĠF rench
Ġ4 64
ĠJ ad
ĠJ ak
ĠJ erm
ĠJ oo
ĠJ ammu
ad ev
th is
th alm
ĠW ir
ĠW end
ĠW anda
ĠW roc
ĠW ulf
Th or
âĢ ĳ
op rop
ĠX en
ul la
Ġ6 18
ter ia
ĠKh Ã³a
ak ut
ak Ã¶y
ir ostris
tr á»±c
oc amp
oc rypt
oc rates
ov ir
ov ii
ov ision
ov ela
Tr áº»
Tr ident
ig ne
Ġp erson
Ġp alm
Ġp auc
Ġ9 000
ĠY G
ĠY áº¿t
ĠY uk
ĠY akov
ĠGi ul
av od
ab les
19 33
19 31
ell aris
ell ope
ich t
ich irÅį
ĠAn jou
ro k
te us
ip ter
ip alp
ra hi
Ġf um
og yrus
ob ot
ob yl
ob orus
Ph a
ard ner
ik s
ĠMar che
ĠSt aud
Ġ17 30
Ġ17 80
Ġ17 62
Ġ17 01
ĠAr ag
ĠAr ab
ut y
ut ina
Ġlo Ã©t
ran e
ran o
ĠBa ham
ĠBa ja
ĠZ or
ĠZ Ã¼
ĠZ one
ĠZ ander
Ġ16 7
Ġ14 00
Äĳ Ã´ng
Äĳ á»Ļc
Äĳ á»ķi
Äĳ áº§y
az Ä±
az epam
Ġto áº£
aw at
eg ger
ĠSh l
ĠSh ank
ep ala
eb ab
ĠIn f
ĠIn itiat
est ogen
Ġin ae
ug e
ug in
ist ia
man ii
ib ayashi
art ia
iac co
ass e
ĠCr aven
end ing
ier mark
ĠPr att
ĠPr abhakaran
ĠPr imetime
ĠGr iff
Ġ202 4
ĠCon n
und er
Ġ25 8
Kh Ãºc
Kh Ã¡ch
ast es
ast opol
Ġ24 5
ĠPar ma
oll ow
ĠSch we
Ġ22 9
ez i
och us
ĠAs ahi
ĠAm in
ĠAm es
Ġ23 2
Ġ23 6
12 5
ert y
15 6
sh Åį
anth um
anth ura
se e
ĠBar an
ĠBar th
ett en
eth od
eth odontidae
eth oven
ĠCl uny
ĠCar men
ff ord
ĠLu igi
ond s
tt i
ĠSp in
ts p
aul d
ĠThe ory
St ich
uch o
ix ita
ĠMad eira
ĠPl ethodontidae
ann y
ars en
ĠBe ethoven
ÅĤ ot
Pr es
Pr unus
ĠSal zburg
ola ena
ĠAp ache
ĠAd ana
ĠAd Ä±y
ĠKr on
Ġa flatoxin
bert o
inn er
Ġac anth
ĠPer ez
ĠNe arctic
ĠLat ino
à¸ ¥
ole an
af t
Chi rita
ĠMor i
ĠMor ton
ĠCharl emagne
ashi re
ID S
As c
ĠMon ter
In ter
In donesia
ĠSa ad
gi ai
ĠBen ito
su ta
Ġ70 5
ĠCam us
Am b
ĠBur undi
ĠFre ud
ĠEm b
ĠIt al
ĠTe ng
ĠVal ois
Ð° Ñı
Cl aude
Cal c
Ġam er
ĠTor res
ĠLon ely
ĠMu á»ĳn
Thu á»Ł
ĠMed ic
ĠKon rad
ĠChrist ine
ĠChrist mas
cz yk
app us
umb ens
Ġå Ń
Ġon ly
ĠSil v
Ġ39 5
Cr oat
ten us
Ġ49 5
ĠKar ate
ĠAc rop
ÑĢ Ðµ
ĠGer ai
ĠÄĳá»¥ n
ĠMet al
ĠTan aka
Khu Ã´n
ets ov
Er iger
Co umarin
icol idae
ĠAlb ion
rit us
Ġop er
ĠFab io
ĠCas ey
Ġob long
å® ļ
ĠAv ianca
ĠMÃ¼ll er
ĠJan et
ĠKl eopatra
ĠArt emis
ĠBu f
Ġflav ipes
ĠVan ellope
ĠKe iki
yle ft
thu áº¿
otrich a
Ġnit ida
Ġnit ric
omo ea
Ġang ol
ĠColl ins
iang ensis
mid iaceae
åŃ ¦
ĠRy Å«
ĠSen egal
ĠRock y
ĠClub ionidae
Dr acon
Re ed
ishi ng
ĠAnton ius
gu in
ĠHel ena
Asp id
ĠFern Ã¡ndez
Ġmin uta
ĠTa a
ĠMoh amed
alan x
ĠReg el
Chu á»Ļt
ĠDes mond
ĠDes midiaceae
ĠMand alay
ĠPe ace
asc ens
ĠTang o
ĠBall et
ĠSin op
Ġlat ifolia
Ol ig
ĠRai chur
ĠAeg ean
ĠAbr uzzo
ĠClark e
ĠLie ftinck
ĠBah nar
Ġcomm ittee
åĮ ĸ
sel f
sel or
ĠSev en
ĠRud y
thes izer
ĠBurg undy
ĠFar oe
Ġloa der
ĠDun st
ĠDec can
ĠLinn et
ĠWol ves
Po ecil
umber land
Hen ry
ĠFort une
ĠRic ardo
Kir ov
Ġmont ana
ĠRoll s
ĠVor on
ĠDmit ri
Bay ntun
vens leben
Alex and
ĠHil ary
Ã©l ix
Ass oc
Amer ica
Ġmarg inata
ĠTechn ology
ĠPhilop ator
ĠClaud ius
ĠJag ger
æĹ ¥
imac ulata
ĠTon ight
ĠBot vinn
ĠDin amo
ĠCle itos
ĠBenn ett
Alp aida
Pros op
Kam ikaze
RT SP
é¦ ¬
ograph y
ĠBernab eu
ĠDÃŃ az
ĠClay ton
ĠHou ten
ĠBij apur
ĠCypr inidae
Prom achus
ĠDyn amo
ĠYamag ata
Ġmex icana
Ġbol iv
Ġrai on
ĠPug et
é¾ į
ĠBoj ilie
Acal ypha
lv aro
Ġpp m
orc ester
anthi um
ĠStrab omant
Ġperuv iana
Ip omoea
Ġdiac etate
èı ¯
ìĹ Ń
Crom well
Caut leya
Dick erson
lÄħ skie
ĠGorb achev
ĠArmad illidae
á¸¥ ammad
ĠChaill ot
laf ter
ĠKram nik
ĠLinds aeaceae
ĠJoff re
Selen ops
ĠSunn i
ĠQub ays
ĠJut land
ĠCapor iacco
:ãĢĮ "
ĠBÃ©n in
ĠGwang ju
ĠJunc aceae
Ariad na
Acin odendron
Pleuroth allis
ĠProskur ov
Grid ley
Geol ycosa
Ghara fa
ĠCunn ingham
ĠChely abinsk
ĠRestion aceae
ĠStaud inger
ĠZÃ¼ rich
ĠAdÄ±y aman
Dracon arius
ĠBotvinn ik
ĠStrabomant idae
" ]
% /
' ).
A B
B X
B Ã²
B ÃŃch
B Ã¡t
B ir
B ob
B all
C ai
C ua
C inn
C ivil
D inh
D elph
E un
E ct
F ort
F ors
G ong
G am
G ill
G lad
G raph
G rew
G IT
H oÃłi
H um
H á»Ĺ
H ap
H iáº¿u
H ipp
I ran
J ur
J oh
K ay
K ent
K ost
L P
L ic
L á»£n
M áºŃt
M iá»ħn
M ania
N I
N K
N ay
O ec
O ri
P u
P ell
P ack
P inus
Q L
R B
R od
R á»ĵng
S l
S oph
S ull
S uá»ĳi
T iÃªn
T ach
U p
V el
W ah
W ien
b ÃŃ
b en
b reak
c á»ĳ
c ic
c as
c ula
c air
c á»±u
c orea
d c
d h
d ar
d at
d áº«n
d á»ħ
d Ä±r
f on
f ran
g in
g al
g Åį
h á»Ĺ
j ov
j ah
k ina
k aw
k awa
k lafter
m ud
m outh
m edon
o ena
p ent
r ab
r Ãºt
s v
s is
s ec
s ta
t Æ°
t ia
t á»«ng
t ixita
u o
u et
u um
v Å©
v et
w ide
x x
x it
y ri
z k
z ii
Â Ń
Ã Ĳ
Ð Ł
â ĨĴ
å ´
å ī
å Ĵ
æ Ĥ
æ Ł
ç Ļ
è ·
é ¢
é ł
ë ı
ì §
Ġ ub
Ġ och
ī u
Į Ģ
Ġt erm
Ġt ime
ng uá»ĵn
Ġc á»Ļ
Ġc aud
nh orst
Ġv Ã©c
Ġl oc
Ġl áº¡p
Ġl yc
Ġl ys
Ġl á»ĳm
Ġth is
Ġth áº¹n
Ġh an
Ġh on
Ġh á»ħ
Ġh arp
Ġh isp
Ġm at
Ġm Ãºc
Ġm ot
Ġm ill
Ġm áº©u
Ġm á»¥n
Ġtr áº£m
Ġtr ack
Ġb el
Ġb Ãºp
Ġn in
Ġn Ã²i
Ġn erv
Ġch en
Ġch Ãłm
Ġk l
Ġk ai
Ġk ul
Ġk iá»ĥng
Ġs hi
Ġs ept
Ãª t
Ġnh ang
Ġnh eo
Ġd on
Ġd en
Ġd áºŃt
Ġd Æ°ng
ph idium
Ġg anh
Ġg all
Ġkh eo
ĠT F
ĠT Ãły
ĠT á»Ļc
ĠT áº»
ĠT eller
ĠT oba
ĠT oshim
Ġng á»ĳc
Ġng á»«
Ġph ai
Ġph á»ħu
á»ĭ p
an u
an z
an is
an icus
ĠC ay
ĠC áº¯t
ĠC ym
ĠC yn
ĠC yb
ĠC elt
ĠN il
ĠN á»ĵng
ĠN ou
Ġtá» µ
Ġtá» ħ
ĠL ut
ĠL our
ĠL ille
ĠL ower
ĠH M
ĠH á»§
ĠH om
ĠH ik
ĠH our
ĠH wa
ĠH esse
ĠH ortense
Ġgi áº§y
Ġr Ãºp
Ġr Ã³t
ch es
Ġx oÃłi
ĠB áºŃt
ĠB Ãłu
ĠB oth
ĠB enz
ĠB auer
er ul
er ve
er jee
ĠM áº¡i
ĠM ih
ĠM MA
ĠM ithridates
ĠÄĲ iá»ĩp
ĠÄĲ Ã¡y
ĠÄĲ áº¡m
ĠS Ã´
ĠS yn
ĠS ei
ĠS iber
ĠS ET
ĠS ulu
on ium
on iscidae
am ae
am ex
Ġthá» īu
ar ta
ĠP K
ĠP AL
ĠP seph
ĠP Äĥh
ĠÄĳÃ£ ng
ĠTh oa
ĠTh iá»ĩt
ĠTh iá»ĥu
ĠTh ey
ĠV O
ĠV e
ĠV os
ĠV ad
ĠV ÄĲ
ĠV od
ĠV ig
ĠV Æ°á»£t
ĠV era
ĠV ice
ĠV achal
ai ra
ĠK V
ĠK erry
ĠK aiser
ĠA A
ĠA ung
ĠA esh
au b
ay en
ay la
ĠTr ao
ĠTr og
ĠTr Ã£i
ĠTr eb
ĠD ok
ĠD áº«u
ĠD á»¥ng
ĠD itrich
or hoe
ĠG av
ĠG áº·p
ĠG ala
id ane
id ase
ĠCh um
ĠCh ak
ĠCh Ã¡u
ĠCh ron
ae ma
is en
ĠPh áº¿n
ĠPh Ã¬n
at ro
eo us
us se
im ia
im eth
im edia
ĠÃ Ĳ
ĠQu Ãª
ĠNh á»ı
ĠNh Ã´m
il ius
Ã© z
ol u
ol ar
ol ai
ol it
ĠR ash
ĠR anidae
ĠR IAA
Ġho m
as ton
it ies
it ude
et at
ĠI loilo
á»ĥ u
um in
em ar
ĠF arr
Ġ4 32
Ġ5 25
Ġ5 40
ĠJ el
ĠJ MSDF
ad ona
th ong
ĠW en
ĠW orcester
Th Äĥng
op roc
le ague
and ia
and ri
ul ts
re ga
ot ts
ter y
un zer
ag ia
ÄĲ Ãł
Ġkho Ã©t
ĠO ai
ĠO pt
Ġ7 25
ĠU sh
ir ome
ir daÄŁ
tr áºŃn
tr ib
oc on
oc ene
ov ico
Ġ- &
ing ia
Ġp Ã´
Ġp etr
Ġp rom
Ġp leur
Ġp eso
ĠY ad
ĠY ellow
av skÃ½
av insky
ab uki
19 0
19 12
19 03
ell atus
ich neumon
ro ok
Ch á»ĭ
Ch ap
Ch áº©n
ie ver
ip lex
ra j
Ġso uth
Ġf oot
Ġf ield
Ġf alc
Ġf ascia
Ġf inal
og ard
ow ers
ow iec
ta ins
ob o
ob us
ob indo
ry z
iv re
iv oy
ine ph
Ph or
ik ere
áº³ m
ĠMar i
ĠMar u
ĠSt arg
Ġ17 74
Ġ17 63
Ġ17 09
ĠAl aric
ĠAl vensleben
ĠAr cis
ut or
yl idae
ev sky
sk Ã¡
ud ad
ĠLe h
ĠZ idane
uc alop
ĠBr ett
ĠBr abant
ers a
Ġ16 50
ub ridae
ĠNgh iÃªu
Ġ14 50
Ġ14 83
Äĳ iá»ĩn
Äĳ áº·t
Äĳ Ä©a
Ġto an
aw are
ĠSh en
ah isar
yc le
ĠIn uit
Ġ13 3
ug l
oh o
ym our
oph agidae
yr s
iz za
18 0
18 90
18 87
Ġde ath
ĠCr ete
end t
ĠPr us
ĠPr ice
Ġtá»ĳ p
Kh áº£o
Kh á»ķng
ast is
kh em
ĠEl st
Ġw il
Ġ24 7
ĠPar am
ĠSch ltdl
eh a
Ġ22 3
Ġ22 7
ore aceae
och e
12 9
Ã¶ ner
Ã¶ prÃ¼
15 4
sh it
sh eron
se us
ino e
An c
ĠSc r
Ġ31 1
ĠGu ide
14 4
ĠHu á»ĳng
ĠRe inh
St igm
Ġnhá»Ŀ n
ĠJohn s
ann is
Ġpr inc
oss i
oth ea
ĠIs Ã¨re
ein f
ars is
ĠBe ÅŁ
ĠEn rico
ĠSte p
ĠSte iermark
att o
ĠÃ´ tÃ´mat
ĠSal em
ĠWal ther
sp or
ĠEd en
che ng
act is
ĠOl m
ĠBer d
ĠBer ez
omb ang
aj ar
ros ia
les h
ãĥ «
ãĥ ŀ
der idae
ĠPer th
ĠSm art
à¸ ¢
ho un
ĠAlex is
ĠAb yss
aus ch
ĠBol ton
ĠMor rison
ashi ro
ĠPhan om
ĠDis col
ĠSe ymour
ĠTu va
agn aceae
ign an
ĠCamp an
ĠMich ener
ĠMich aÅĤ
ĠBur y
Äģ j
Ġpl um
Ġpl ace
Ġst ip
ner iaceae
Ã§ a
rd oba
Sch ar
Sch ulz
ush u
ĠÐ ¢
mar achne
ĠBay er
ĠTor ch
Sp erm
Ġ37 8
ĠNik ita
ky Å«
ĠMu h
ãģ Ĩ
ãģ Ĺ
ĠAg elen
ĠDiv isiÃ³n
ĠBos trich
ÄŁ lu
ois son
ĠInd omal
Ġgl abr
Ġgl abra
ĠVol khov
ĠMo or
ĠMer it
ĠOlymp us
row span
ĠBor h
Ġar c
ĠHit ch
ĠKar ius
yst em
tra ÃŁe
ny i
Mic ro
ĠSon ora
osp ilus
ĠRad lk
Ġmen u
iph ora
ĠAndre a
ĠTai ra
ĠAz ul
ĠTak eda
ĠRos well
Ġ$ .
ĠSum er
ĠLi u
ĠMod ern
ĠKur p
ĠKur ibayashi
Ġsc and
ĠSai go
Pol yc
ĠLab or
emis apan
Ġat r
ĠMass a
ĠInter active
ario ides
Ġim p
ente a
ĠRo ewer
TT E
Ap amea
icul aria
omor phus
omor avskÃ½
Ġman avi
ĠNai nggolan
ĠHill iard
ebr ionidae
astr o
ĠShar ma
min istr
ait is
opl istia
ĠBao tixita
At om
zy ÅĦski
Ġlog arit
Ä« n
ĠNar od
Hel ic
ĠNo el
ĠSav iors
ĠSpr ings
Ġ? -
ĠSi emens
Ġruf escens
ĠTs uk
ĠNag oya
ĠServ ices
DI GIT
ĠÂ «
ĠIsland s
ĠMoz illa
Ã¸ r
Ã¸ y
ĠHigh er
ĠMonte video
EE E
enberg ia
ĠRa Ãºl
æĺ Ń
éĻ ¢
Crypt ocarya
Ta ÅŁ
Long itarsus
ĠHav ana
ĠHav eri
ĠOx y
à¹ Ģ
Ġmod ule
orh ina
Ġpro ject
ĠGall ia
He art
ĠSev astopol
ĠDae gu
Ġcol span
ĠBull ock
Black fin
Je ffrey
ĠVs eslav
ĠLig uria
Ġarg ent
ĠMain z
Pyr austa
ĠSirik it
Mas dev
Ġmeg al
á¹ £
ĠFun ariaceae
ĠChamber s
ĠOz z
igu es
ĠPac ific
Cat ocala
Ġart icaine
ĠOch s
ogy akarta
ĠBung aria
ç¾ ħ
ĠLop ez
Myr marachne
ĠPlan ck
Rad ar
Ġsyn thesizer
ĠBed ford
ĠPon te
Ġhal ide
Ġkn own
Ġsur imi
ĠLub lin
ĠBeck ett
ĠCec il
ĠWell s
Max illaria
To Ã¡n
éĺ ®
uron ium
okh os
ĠToy ota
ĠFree DOS
ĠConstant inus
ochrom is
åĬ ī
æ³ ķ
Ġphosphor yl
ç« ĭ
ĠKish imoto
QG HN
ĠFact ory
Ġchrom ic
kn own
Hymen ophyllum
ĠCoa st
ĠTrav is
ĠMcG ill
Calyp so
Polyg ala
à¥ į
Ġghá»ģ nh
"ãĢį .
ĠDh abi
ĠGau guin
ĠEle anor
ĠElectron ic
Ġtom ent
ĠThess aloniki
ĠWah id
ĠBiaÅĤ ogard
ĠTas mania
ĠDnies ter
ÈĽ a
ĠHub ble
ĠHrad ec
Prod uce
Ġacum inata
lim ited
ĠAne uraceae
Gyn oplistia
sens u
olaz oline
ĠRox b
ĠUrs ae
é© Ľ
Ð½Ñĭ Ð¹
Ġciner ea
ĠTek irdaÄŁ
ĠGork y
ĠMontr Ã©al
czyn ski
Maur ice
è² ´
ĠDakh ini
Ġdol ich
ĠRA W
ĠEag le
ĠStor ies
ĠZacharia dis
Ġriv ulatus
ĠAguil era
intr acht
ĠZy flo
eynold s
lÃ© ans
ĠJih omoravskÃ½
ags taff
ĠArrh enius
ĠSuc re
ĠKola Å¡inac
ĠDys deridae
ĠPolyn esia
ĠVolt aire
Garc inia
Yor ck
ĠNieu w
ĠFP X
Ġcontain er
ogs well
ĠZur ich
Ã¼y Ã¼k
ĠMartÃŃ nez
Enic ospilus
ĠEunh yuk
ĠMiddles brough
Ġverr uc
ĠTries te
ĠDiosc oreaceae
Scutell aria
ĠKyrgyz stan
ĠKopp al
Trident atae
ĠShank ly
ĠInitiat ive
Eriger on
Grew ia
ĠAesh nidae
ĠDitrich aceae
ĠArcis zewski
ucalop ride
ĠDiscol omatidae
ĠAgelen idae
ĠBostrich idae
ĠIndomal aya
Masdev allia
. ),
2 30
2 60
6 32
A na
B á»ĳ
B ed
B Ã£i
B iss
B oar
C el
C oc
C our
C roc
C ymb
C ylind
D ung
D áº£i
D ae
D iá»ĩt
D ou
D ianthus
E us
E uch
E NA
E ric
F DA
G es
G á»ĵm
G á»Ĺ
G lor
G erman
G NU
H M
H áº±ng
I ng
I nh
K um
L E
L ar
L áº¡c
L á»ĵng
L aw
L á»£i
M ae
M oh
M edia
N ai
O rect
P D
P M
P a
P le
P ot
P eg
R E
R á»Ŀi
R idl
S ig
S Åį
S eri
S ingle
T á»ī
T Æ°á»Łng
T ox
T erm
U t
V es
V it
V ell
W W
W ith
X ung
Y ug
a Ã§
b áº§u
b ang
b id
b ey
b ign
b ase
b aum
c Ã¢u
d á»±
d ag
e berg
f inger
h er
h áº§u
h in
h á»Ļi
h Ãłng
h oÃłng
j on
j un
k as
l Ã´ng
l oÃłi
m Ã¹a
m ill
m ied
n á»Ļi
n ina
n Ã´m
n akht
p om
r ent
s Ã¢n
s á»ĳng
s aka
t Ãłi
t iÃªu
u ÅĦ
v á»¥
v ua
v ex
v iron
y am
y um
y ak
y ed
Ã įt
Ñ į
Ø ©
à ¶
â ī
æ ¨
ç Ħ
ç ĳ
ç Ĵ
è ¨
è ±
è ³
è »
è ģ
è Ĥ
è Į
ì ĭ
ì ł
Ġ !
Ġ í
Ġ ic
Ġ amm
Ġ Æ°Æ¡m
ı i
Ķ Ĳ
á» Ĳ
Ġt et
Ġt Ãło
Ġt ap
Ġt aur
Ġt áº¥c
Ġt olazoline
Ġc ortic
Ġl Ã³ng
Ġl ove
Ġl Æ°Æ¡n
Ġth ia
Ġth áº¯c
Ġth áº¯m
Ġh ab
Ġh Ã©c
Ġh imal
Ġm ÃŃch
Ġm á»ĳt
Ġm ine
Ġm ent
Ġm ast
Ġm ain
Ġm usc
Ġm Æ°á»Ľn
Ġtr Ãłm
Ġtr á»¥y
Ġb on
Ġb if
Ġb ack
Ġn at
Ġn ap
Ġn á»ĭnh
Ġn umber
Ġch á»Ľ
Ġch Ã¹y
Ġs Ãł
Ġs iáº¿t
Ġs it
Ġs om
Ġs ed
Ġs áºŃy
Ġnh áº§y
Ġd em
Ġd istr
ph Ã¡o
ph yr
Ġg on
Ġg á»Ŀ
Ġg eor
Ġg ene
Ġg estodene
ĠT z
ĠT iá»ĩn
ĠT ao
ĠT ic
ĠT os
ĠT ell
ĠT art
ĠT ash
ĠT oni
ĠT erry
ĠT á»¥ng
qu alis
ĠC ÄĲ
ĠC ist
ĠC urt
ĠC ET
ĠC YP
ĠC rawford
Ġqu ad
Ġqu áº»
Ġqu áºŃy
ĠN umber
ĠN oah
ĠN okia
ĠN ansen
ÃŃ as
ĠL et
ĠL alo
ĠL viv
ĠL acha
ĠL ockheed
uy u
ĠH á»Ļt
ĠH uyÃªn
ĠH á»·
ĠH á»įa
ĠH era
ĠH ale
ĠH á»Ļp
ĠH ampton
ĠH Ã¶l
ĠH oms
ĠH icks
Ġgi gan
Ġr ao
Ġr áº±m
Ġr áº§m
Ġr ect
Ġr ef
ch áº¿
ch Ã¡u
ĠÄĳá» Ŀ
ĠB in
ĠB áº¡o
ĠB ov
ĠB iss
ĠB agn
er as
er ite
ĠM Ã¡i
ĠM ek
ĠM ood
ĠM ins
ĠM enk
Ġ2 18
ĠÄĲ u
ĠÄĲ Ã¡t
ĠÄĲ áº¥ng
ĠS áº¯t
ĠS yl
ĠS ek
ĠS Ã¶
ĠS arr
ĠS andra
ĠS ofia
ĠS eward
Ġ" ."
in ian
in ica
in ame
in ka
Ãº s
ar z
ĠP os
ĠP ip
ĠP all
ĠP Ãªnh
ĠP agan
ĠP enta
ĠP ellegr
ĠP emisapan
ĠTh Ã©p
ĠTh ani
ĠTh ames
ĠTh ales
ĠV ish
ĠV á»«a
ĠV orpommern
ĠK and
ĠK end
ĠK KE
en ch
en ue
en na
ĠA ph
ĠA ude
au v
ĠTr áº¡ng
ĠTr uman
Ġ20 9
al g
al ein
ang ian
ĠD áº«n
ĠD ana
ĠD aj
ĠD ais
or ra
or ough
ao ke
ĠG Ã¡o
ĠG em
ĠG Ã¼
ĠG ond
ĠG ertsch
ĠCh anh
ĠCh ol
ĠCh et
ĠCh and
ĠCh ase
ĠCh eka
ĠCh atham
is er
es le
ĠPh nÃ´m
ĠNg áº¡c
Qu Ãª
ĠÃ Ĭ
ĠQu ir
ĠQu ezon
ĠNh iÃªu
ĠNh iá»ħm
il ey
il ensis
il ight
il oba
Ã© ro
ol id
ol sky
ĠR ou
ĠR CA
ĠR itter
ĠR ump
ĠR ights
as bourg
it ans
it rea
ur p
ur alis
ur ity
et yl
om ot
ĠI st
ĠI ka
em one
ĠNam e
ĠE L
ĠE f
ĠE g
ĠE th
ĠE sh
ĠE mer
ĠF us
ĠF os
ĠF ior
ĠF ontaine
Ġcon d
Ġ4 77
ĠJ ur
ĠJ ab
ĠJ enny
ĠJ avier
ĠJ Ã¼rgen
ad ren
th Æ°Æ¡ng
ĠW ong
ĠW art
ĠW igan
ĠW entz
Th á»Ń
Th á»«a
op eza
op elma
op appus
and s
and et
ul p
Ġ6 17
Ġ6 75
ot ph
ot om
ot ta
un te
un na
ĠKh au
ĠKh ao
ĠKh Ã´n
ĠKh uyáº¿n
ĠKh áº©n
ÄĲ au
ÄĲ Ã³ng
Ġkho e
ak ai
ĠO DA
Ġ7 13
ir n
ir rh
oc om
oc yn
ed u
Ġp ell
Ġp oli
Ġp oster
Ġ9 50
ĠY aga
ĠY eon
amp ur
av is
av at
ab on
Ng Ã¢n
Ng á»¯
19 3
19 19
19 04
ne fer
ne uf
ich s
Ã¨ le
ĠLan cer
Ġtá»Ń u
Ch ia
Ch ang
Ch Æ°a
20 5
te k
Ġso und
Ġf ound
Ġf loor
Ph oebe
ian ella
Ġta xi
Ãµ ng
st ore
ĠMar att
ĠMar gu
ĠSt ad
Ġ17 78
ĠAl ber
ĠAl aw
ĠAl to
if el
ĠAr ad
ĠAr row
ĠAr cher
Ġca ffeine
yl o
ew ay
Ġ15 7
all ana
Nh iá»ĩt
ran ium
Ġáº¤ m
ĠLe ga
amb ang
ĠZ ong
ĠBr on
ers e
ers ch
Ġ16 1
Ġ16 83
Ġ14 75
Äĳ á»ĵ
Äĳ áº¡t
az an
aw ak
ri am
ri ed
ĠSh annon
ĠSh imbun
Ġal d
Ġal k
Ġal ba
eb ra
ĠIn t
ĠIn u
ug ia
ist ica
oph ry
oph idia
oph allus
oph thalm
Ġ30 5
ib al
iz i
ĠNew man
Ġcá»¥ p
our g
ĠCr os
ess es
ĠGr oves
ĠCon an
ĠCon st
Kh áº©u
kh áº£
ĠEl len
ĠQ ajar
ĠKim oto
ary ag
Ġw on
Ġw ood
orn ith
Ġ24 2
ox y
tu al
iss imum
eh ran
ans ha
Ġ22 4
ĠCÃ³ rdoba
arn s
och igi
ĠAs en
ĠAs ter
ĠAm as
Ġ23 1
ĠHy bos
ĠSer ge
ĠChu á»Ĺi
12 4
ĠCÃ´ tes
ost ok
ost ino
ost ola
Ä± Ã§
ert s
ith m
17 0
Ġ27 4
15 9
sh aw
ĠBl oom
ile ii
ino ides
ĠBar ber
ĠBar row
Ġxá»ī n
ff les
lav i
ĠSc ar
ĠSc reen
ĠSc ient
ĠCan adian
Ar ist
Ġ29 5
14 6
ĠRe uter
St an
atus i
ĠHo over
uch e
ĠMal v
ĠAle ut
ĠPl ace
ĠPl aza
ĠCá»ķ n
13 1
Ġ/ /
ect abilis
Ġpr ae
oss iy
ose idon
oth eca
Pr av
ĠSal t
24 1
ash q
ĠCor vus
arb ell
ĠBer gen
aj ara
ull i
ĠHer zegovina
ĠPer kins
ĠGiá» įng
ski y
ĠNe ed
mer ia
ho áº¡t
Ġsp ath
ĠDi or
ĠDi eter
âĢĿ "
ĠPal ais
ĠPal ace
Chi on
arp um
ĠCo ol
ais dale
Ġj a
Ġj e
ĠEr itrea
enk el
yan at
ĠMus ume
ci ent
agn um
ign ot
Ġlong iflora
ĠHuy nh
ĠBur ton
ck ena
ĠIt o
ĠHam ilcar
ĠJe ong
ĠVal eton
ĠWest wood
ĠWest phalia
cia l
mann i
ĠÐ Ł
Ġ33 1
Ġ33 2
Ġ33 8
Cal pe
Cal ci
Ġam azon
Sp reng
ĠMart ÃŃn
ĠNik ola
ĠMu ay
ĠMu ÄŁ
ĠMu á¸¥ammad
ĠAg ain
ios us
uper rey
46 9
tron ics
ĠCarl yle
ĠRu h
ĠKon ev
ĠCarol ing
ĠChrist ie
Ġ36 6
Ð¸ ÑĢ
bon ne
CO N
ĠLao medon
app oro
gar it
Ġå ®
ĠInd ies
ĠInd ependent
ĠShi b
ĠFr em
ĠFr Ã©mont
ĠMin ami
ĠMin amoto
ank Ä±rÄ±
isp idae
ĠGl ouc
Ġ39 8
ĠDel aware
ĠFlor es
Cr em
Car r
ĠWe ather
ĠFri uli
ĠFri ends
ĠAc ri
Ġmac OS
Ġmac roph
iet te
BS D
dor ff
ĠMas lin
ĠCroat oan
ĠHot el
ĠAf rica
ĠAz ores
ĠAz tec
ĠHol mes
ĠRos ita
ats uma
ngh á»ĩ
ĠLi SA
ĠMod i
oster oid
ĠKur t
å® ¶
ĠCat arina
IC EF
over y
ĠLeon ardo
ĠPi Ã´
ĠAC B
opp y
me ister
ĠWar ri
ĠArt uria
lu áºŃt
azz o
actyl us
ĠInter scope
iol us
Ġpol yp
Ġpol ystach
ĠAss am
ĠWat ts
ĠColl Ã¨ge
des a
Ãģ nh
ĠPhilip in
ithi i
ĠUnivers idad
ĠÆ¯ Æ¡ng
ĠMid lands
ĠMun roe
istr ia
ĠIc acin
ĠAug uste
ĠRam os
Ä« rÅį
Hel ioph
Ð» Ð°
ĠRen ly
Ã¶r g
Ã¶r n
Ġãħ ĩ
Call a
raph ic
ĠKu wait
ĠGold blatt
ĠSand omierz
ĠÃĩ ankÄ±rÄ±
ĠSak arya
ĠPetr ov
Arg yr
Ġun icolor
ĠBrand egee
Mah on
ĠThr aup
æĸ °
ĠDou g
acc inium
Be aut
ĠSin yav
Ġpall idus
ĠSec otan
ĠTH CS
EE N
ĠMot ors
ĠSph agnaceae
ĠSid ing
ĠWin ston
ĠJeff rey
ifr aga
lam ys
sb ury
ĠKa ori
Pal ae
ĠBah ia
ĠProv ince
ĠÃī cole
ÄĻ ta
Ak ira
King ston
Pt ych
Op is
ĠBorn m
Dav is
Ð¾Ð² Ð¸Ñĩ
ĠDur ham
ĠEmm a
ĠSA O
ĠGR DP
ĠOle ksandr
ĠBrad ford
Dia leur
wi ÅĤÅĤ
enos ine
Scop aria
ĠbÃº n
ĠMend es
ĠLanc ashire
Ġins ign
Ãī cole
Ġhir suta
Ġdr ama
ĠGM T
ĠArd ahan
Ġmont anus
ĠTÅį chi
ĠPP HN
Fre ycin
ĠRoll ing
ĠAssoc iazione
ĠLaur ent
ĠSov iet
ĠFeder ation
ĠOg gy
Rom agna
Sph agnum
ĠVH TT
ĠMem orial
ĠOch yra
Ġprop in
Ass assin
ĠStef ano
Oxy tropis
fr ont
ĠMant ispidae
ä¼ ¯
ĠEu we
ĠSchw Ã¤gr
ĠClaud ia
ç¾ İ
Ġáº¨ m
ç¥ ĸ
ittor io
Ġpulch ella
Dios corea
FS DS
ĠCant al
ĠCoun selor
Ġir reg
ĠLod ge
comm une
ĠCP U
ĠHier n
ĠSaw yer
Ġobsc ura
ĠCrist iano
odrom us
Mi q
ĠPter obry
ĠPut nam
éģ ĵ
ĠCov id
ĠOrch idaceae
ĠOrch estra
ĠGPL v
ĠThong lao
oscel is
Ġá ¼
Ġorn ata
ĠFact or
rax as
ĠRuth enia
ĠStandard bred
Ġcarb ohyd
ĠHew lett
ries ea
Polyg on
ĠJas per
Ery th
Haw kins
ĠAnat olia
ĠRah man
ĠAdv anced
Ġstream ing
Sax on
ĠDnies tr
Philipp ines
Ġrobust us
Venez ia
Cord ia
Liv eshow
ĠDuck e
IU K
ĠCM ND
ĠShad ows
ĠJagi ellon
ĠEdu ard
ĠAnti okhos
ĠLibert y
Pae pal
ÏĮ ÏĤ
ĠCosm opterigidae
ĠUst ka
èĬ ±
ĠGA IA
ĠDrag ons
ĠTakes hi
Gn oph
ĠÄĲH QGHN
lyst is
ĠOlsz tyn
ĠMiloÅ¡ eviÄĩ
æ¼ ¢
ĠCin ema
omyc es
Buck ley
Ix ora
èķ Ń
ĠCic ero
ĠGÃ¼n ther
ĠBie ber
ĠKalm ius
ĠGern sback
elur illus
ĠAdria tic
Ġkey board
oyar sk
ĠGarc ÃŃa
Agryp nus
Aqu ila
ĠPard ub
ĠHyder abad
ĠSuff olk
ĠVolod ymyr
Ġflorib unda
ĠSÅĤaw no
ĠGÃ¼r ke
Ġpsiloc ybin
ĠSilvan idae
ĠYury evich
ĠPtil odactylidae
Savo ie
Ġtelen ovela
ĠBop yridae
ĠKari ya
ĠBaham as
ĠBuf onidae
Cinn amomum
Civil ization
Delph inium
fon tein
ĠPseph enidae
ĠStarg ard
Schar nhorst
ĠBorh idi
Seri phidium
bign iew
ĠHÃ¶l zel
ĠMaratt iaceae
ĠMargu erite
ĠAlber ta
ĠHybos oridae
ĠMuÄŁ la
ĠGlouc ester
ĠThraup idae
ĠSinyav ino
Freycin etia
ĠPterobry aceae
Paepal anthus
2 70
4 25
6 50
A j
A ÅŁaÄŁÄ±
B F
B Ã¡c
B ai
B iá»ĩn
B á»ĵ
B ell
B ass
B uch
B Ã¹i
C Æ°
C á»ĳ
C orn
C ola
C ons
C yt
C arm
C ellulose
D áº¡ng
D od
D ep
D ream
E L
E ast
E ria
F i
F il
F ur
F un
F orm
G estodene
H oÃł
H ib
H Ã´m
H orn
H ello
I lex
J uss
K O
K om
K enn
K ann
L ess
L ys
L eh
L isson
M F
M áº¡c
M ec
M yc
N V
N u
N á»ķi
N iá»ģm
N ann
N oct
N ihon
N okaze
O k
O re
O ct
O ver
P b
P sil
P ower
P avel
R L
R og
R af
R AR
R aph
S I
S eo
S iph
S EA
S ebast
T al
T at
T uyá»ĥn
T mes
V F
V ille
V aryag
W ater
X u
X yris
Y o
Y am
Z ingiber
b Ã¹
b Ã²
b au
b uk
c áº£i
c ata
c omp
c ulus
c adion
d iá»ĩt
e ir
e ast
f us
f our
g em
g omer
h n
h áº¡t
h áº¡ng
h ua
h olt
j m
j ul
j Å«
j evo
k iáº¿n
k is
k ÃŃch
k ig
k owski
l Ã½
l Ã£nh
l á»Ľn
m iá»ģn
m ut
m uth
n á»ķi
n ort
n ix
n iá»ģm
o ed
o ustic
p Æ¡
p il
p as
p old
r l
r em
r ens
s yn
s sel
t iáº¿n
t á»Ń
t á»ĳi
t iáº¿t
t op
u on
u osa
u itt
u ve
v áºŃt
v iá»ĩc
v Ã²ng
v ie
v ard
v ier
w idth
x ÃŃt
y y
y z
y ber
z s
Ã »
Ä ¾
Ð ¶
à ·
å ³
å Ŀ
æ ¡
ç Ĥ
è ¯
ê ¸
Ġ Ã³ng
Ġ Ãºa
Ġ eri
Ġ ester
Ġ atten
Ī ĺ
á» Ķ
Ġt ÃŃ
Ġt áº¡t
Ġc á»«
Ġc á»¯u
Ġc ris
Ġc ren
Ġc roc
nh ard
Ġv er
Ġv á»±a
Ġv ari
Ġv iew
Ġv oor
Ġv ittata
Ġl it
Ġl em
Ġl áº¡ch
Ġl Ãºn
Ġth áº£n
Ġth Ã²i
Ġh un
Ġh Ãµm
Ġm ÃŃ
Ġm á»Ńa
Ġm Ãªnh
Ġm eridion
Ġtr unc
Ġb et
Ġb ot
Ġb ig
Ġb á»Ľ
Ġb iáº¿ng
Ġb ox
Ġb Ãªnh
Ġb oard
Ġn Ãłnh
Ġn od
Ġch iá»ģn
Ġk r
Ġk at
Ġk ill
Ġs ord
Ġs ax
Ġnh áº£
Ġnh Ã¡p
Ġnh Ã¡y
Ġd Ãł
Ġd ÃŃ
Ġd al
Ġd áº¡n
Ġd Ã¡t
Ġd ie
Ġd up
ph Æ°Æ¡ng
Ġkh ang
ĠT L
ĠT is
ĠT Ã¬m
ĠT amb
ĠT ula
ĠT Ã¡r
ĠT onga
ĠT ehran
Ġng ao
Äĥ u
ong khram
an er
an ula
qu ar
ĠC e
ĠC Ãłnh
ĠC ow
ĠC ort
ĠC yst
ĠC ephal
ĠC leveland
Ġqu áº©n
ĠN O
ĠN ang
ĠN el
ĠN it
ĠN ass
ĠN ish
ĠN ui
ĠN ielsen
ĠN OT
Ġvá» «ng
Ġtá» £
ĠL C
ĠL j
ĠL v
ĠL á»©c
ĠL ae
ĠL Ã£i
ĠL oth
ĠL ima
ĠL otus
ĠL ily
ĠH oh
ĠH arl
ĠH NO
ĠH omme
ĠH orde
ĠH Ä«rÅį
Ġr Æ°Æ¡ng
Ġr á»įc
Ġr ow
Ġr ev
Ġr ele
ch ain
ch ange
Ġx Æ°á»Ľc
Ġx á»Ļn
Ġx Ã©n
ĠB ok
ĠB aba
ĠB rah
ĠB idar
er ule
ĠM b
ĠM w
ĠM Ã¹
ĠM áº¡n
ĠM ap
ĠM ÃŃt
ĠM uz
ĠM Æ°Æ¡i
ĠM unn
ĠM oco
ĠM LS
ĠM Ã¼l
ĠÄĲ iá»ĩu
ĠS J
ĠS á»Ńa
ĠS ep
ĠS eb
ĠS yr
ĠS uss
ĠS olo
ĠS emy
ĠS unda
ĠS asha
ĠS weet
ĠS apporo
on iaceae
on ych
am is
Ġ( &
Ãº j
ar anga
ĠP ag
ĠP az
ĠP erm
ĠP eps
ĠP endr
ĠP oisson
ĠP oseidon
ĠTh ier
Ã² e
ĠV áº«n
ai ensis
ĠK re
ĠK err
ĠK MS
ĠK rypt
ĠA ND
ĠA ube
ĠA rea
ĠA achen
au i
au re
ay oshi
ay ette
ĠTr iá»ĩt
ĠTr op
ĠTr iller
al u
al iidae
ĠD ud
ĠD uma
ĠD arius
ĠD har
or z
or on
or stadt
ao s
ĠG O
ĠG Ã¢y
ĠG at
ĠG á»įi
ĠG ers
ĠG ott
ĠG err
ĠG raz
ĠG EC
ĠG IUK
id io
ĠCh áº£i
ĠCh ae
ĠCh em
ĠCh av
ĠCh uk
ĠCh ance
is epp
es ina
es ium
ĠPh áº«u
el ec
at il
at ali
at oda
Ä© u
ĠNg áº¡ch
Ġra da
ĠNh Æ°á»£ng
il ineata
ol ina
ĠR ip
ĠR ohn
ĠR ask
ic l
ic r
ic er
ic omorpha
ĠnhÃł m
Ġ3 19
Ġ3 35
Ġ3 27
Ġ3 47
Ġ3 86
os ius
it aria
om eta
om itr
ĠI mm
um ea
um per
em ory
em pl
ac es
ac oce
ĠE k
ĠE OS
ĠE kman
ĠF G
ĠF ris
ĠF Ã©lix
Ġ4 39
Ġ4 66
hi ko
Ġ5 30
Ġ5 60
Ġ5 70
Ġ5 87
Ġ5 55
ĠJ um
ĠJ av
ĠJ aw
ĠJ ade
ĠW aw
ĠW ex
ĠW oll
ĠW rit
Ġdo wn
Th a
Th ua
op ion
op yr
op ica
le ge
le Mania
ĠX S
ĠX ia
ul c
ul ans
ul enta
re at
Ġy ou
Ġy unn
Ġy áº¿m
Ġy á»ĥu
ĠKh uyáº¿t
ÄĲ á»ĩ
ÄĲ Ã¡m
ÄĲ áº·ng
od era
ak lÄ±
ĠO br
ĠU Ã´ng
ĠU bon
tr us
tr uyá»ģn
ov iev
Ġ8 40
Tr ÃŃ
Tr iáº¿t
ed r
ig al
Ġp y
Ġp as
Ġp end
Ġp ygm
Ġp eptide
Ġ9 45
ĠY ur
ĠY ura
ĠY ogyakarta
ĠGi b
ĠGi Ã¡n
ĠGi fford
Ġ12 65
ab o
ab ris
ab undus
19 23
19 05
ion n
ion eta
ell ariidae
ĠAn s
ap or
ro ot
Ch er
Ch iÃªu
Ch rome
ip at
ip et
ip itridae
Ġso Ã¡n
Ġso ul
ill az
ob an
ob ium
ry n
ry lic
Ph O
Ph ae
ian or
ĠÃģ lvaro
st and
st ut
ok r
ok ai
ok ee
ĠMar es
ĠSt il
ĠSt art
ĠSt ark
Ġ17 40
Ġ17 08
ĠAl der
ĠAl ba
ĠAl ways
if erus
ut oni
ĠkhÃŃ t
Ġ15 9
all iaceae
ev e
Ġsang u
ĠBa Äį
uc ed
ĠBr emer
Ġ16 45
Ġ16 44
ub in
Ġ14 70
Äĳ á»Ļ
Äĳ Ã´
Äĳ áº¥t
aw e
aw aro
ĠSh ane
ĠSh earer
ah ar
eb ack
est i
est orm
ant an
ant ia
oph le
oph one
oph rys
oph loe
oph ytum
Ġem etine
up a
ĠkÃ© n
ib ul
son zo
iz ed
iz ei
18 6
18 50
18 40
18 81
18 71
18 51
our ce
Ġde i
ĠCr es
ĠCr um
end ra
ess itt
ĠPr ime
ĠPr esl
ĠPr ayer
ĠGr am
ĠGr ad
ĠGr ig
und ai
Ġ25 1
Ġ25 6
10 7
10 8
Ã¼ b
Ã¼ tt
Ã¼ gen
ern a
ĠQ a
ont ia
ont ana
ĠPar ris
Ġ21 6
ox us
eh am
ĠCu enca
Ġ23 3
Ġ23 9
ĠCer ithi
Ã¶ ck
ert i
ith orax
15 24
urg us
ĠBl au
Ġ26 6
se f
ĠBar i
ĠBar ton
ĠBar ker
ĠBar rier
ĠSc ully
Ġ50 2
Ġ31 3
ĠCal ymper
ĠCan is
Ar cu
Ar gent
ĠGu err
ĠGu ignot
ĠRe ad
aul f
oz y
ĠHo áº£ng
ĠMal in
ĠAnd orra
lin son
ca ph
oth oidae
ĠtÃ² i
ĠWal sh
ash in
che id
60 4
Ġa er
Ġtan k
omb e
aj alein
Ġac oustic
ĠHer e
ifol iaceae
ski ÅŁehir
enz i
ĠGeor gi
à¸ ¸
à¸ ķ
à¸ ŀ
af en
22 7
ĠWorld s
ĠDu ff
ester one
ĠBol ivar
ĠMor an
ĠDav alliaceae
enk i
ĠRh oads
As ter
As ura
ĠBal tim
ĠAlexand ra
Br un
ih ito
ĠMon ey
ÅŁ ak
ĠHe at
ĠSa qq
su i
Ġ35 2
Ġ35 4
iÄ ħ
ĠMil ne
ĠBur ret
ĠFre do
ĠDon au
ĠEm inem
uck i
len bergia
eph yran
Ġpl utoni
Rh abd
ner ia
Ġ45 1
Sch oen
entr us
ãĤ ĵ
ĠÐ ²
ĠÐ Ĵ
ĠÐ ĺ
Cl emat
Cal opt
ĠTor uÅĦ
ĠCO M
Sp ot
Ġrad ian
Ġ37 2
Ġ37 3
Ġ37 6
ĠMart inique
ĠNik i
ĠMel is
ĠAir craft
36 7
ĠMed usa
Å¡ ov
iev ich
Ġsub p
ĠMark eting
Or eo
Or nith
ĠChrist ina
we iler
isch es
ĠDr ake
CO OH
ĠAt let
gar h
ĠGal atas
umb o
Sm oke
Gr union
ĠInd re
ĠFr ing
Ðµ Ð»
Ġgu ianensis
rob ios
Ġgl ut
ĠSil o
let cher
Ġ39 7
43 1
ĠEdward s
ĠSw itch
ĠFl ight
ĠFl agstaff
ĠKit ts
ĠKar ab
unc an
ĠEx per
Ġ55 9
Pseud oc
79 4
ĠAll ier
ĠBour b
ĠKing isepp
ĠMas ashi
En cycl
Æ¯ u
Æ¯ á»
Er agrostis
ĠMak ino
ĠAf yon
Ġcl ock
åħ ī
ĠMic ae
itch ie
CD K
Ġsc op
erb i
ĠGeorg etown
ĠHir o
Ġæ ľ
Ag el
ĠLab s
ĠKan agawa
ĠUl tr
ĠUl ugh
All ocosa
ĠLeon or
ĠKy iv
ĠRec ord
arch os
oriz ia
ĠKe Å¾
ĠDev il
ĠAss yria
ĠAss assin
Ġrock et
ĠVo ice
Ãģ n
ĠDan zig
ĠRy holt
ebr idae
And erson
MA ND
aun t
imp la
ĠKn uth
ĠLo oy
ĠTer ebridae
Ġmin ut
ichol si
Gl aisdale
ĠRod gers
vel ines
ĠSur iname
ĠKor ea
ĠEs per
Ab raxas
Mon olepta
ĠGoth ia
ĠTs ub
ĠCom ic
ĠDou aumont
å¸ «
Ġbrev ipes
ĠCH ND
ĠChern obyl
ushi ng
ĠHa ag
iaz ep
ĠMess ina
Chrys ometa
ĠProd uc
ĠKrasn oyarsk
Fl usser
ĠPle dis
Leuc auge
ĠJacob i
Ġas per
Ã¶l n
Cam ellia
Ġant enn
De ad
ĠMaj uro
ĠThat on
ĠRuss ian
ĠCarr oll
Lind s
cul es
æĿ ¨
à¹ ī
à¹ Į
Ġcomm un
We ekly
Ġcap ill
ĠGall o
Ham atali
Bo iss
Fr ont
ĠGard ner
ĠRaf to
Me ioneta
ĠJer emy
Sil ene
ĠÅĮ t
cell ionidae
ĠSier adz
Ġinter med
ĠMans field
Cast el
Mich el
Ġmor phine
ĠFul ler
ĠAnk ole
ĠBlu es
ĠSpar row
Ġreg alis
odor as
urd ay
Ġconc erto
Ble chn
zew o
ĠMend iz
ĠPor cellionidae
thal ma
æĪ ĳ
ĠZach ÄĻta
ĠOrigin al
mo or
aec um
Pan icum
ĠJustin ianus
Brach ythec
gluc ose
ĠBarn es
Ul oborus
ĠKonstantin ovich
ĠHolland ia
for mance
ĠAPC R
AG L
Gre at
ĠHamp shire
ĠPen ang
idd itch
ĠFerr ara
ĠCont est
entrop y
ĠAcc ess
ĠAcc ipitridae
å¼ µ
Ġsec ond
ĠJust ice
ĠJust inus
ĠPlan et
uns ongkhram
éĩ Į
Ġsyn th
ĠLod ovico
ĠLagr angian
Jac ques
TH PT
ĠCad ore
ĠKars ch
ĠDn ip
ocentr us
Ġobsc urus
Ġsqu am
ĠUs ta
Wind ham
egr ass
æ² »
ĠPut nik
ĠShir ley
LÃªn in
ĠLing ayen
vers e
Ġserr ata
ĠLob o
ĠEM B
ĠLad oga
ĠSuk arno
Roy al
pp en
ĠBryan sk
kar ahisar
ĠHwang hae
ĠDrop a
ĠFuk ushima
ĠTheodor o
ĠCyr en
è¡ Į
ĠNem esiidae
ĠSummer h
ĠSoy uz
ĠKw ajalein
Ġcel eb
Ġ(?? ?)
ĠGand hi
Bac charis
ĠBatt ambang
ĠFish er
ĠSait ama
Ġvul g
Ġtrip le
ĠVald ivia
ifascia tum
ĠEss ex
ĠPand ora
Esc obar
ĠKamen ets
Ptil odactyla
Kem per
far wy
ĠVern on
ĠJoa chim
Ġcop yleft
ĠNac ional
ĠSakh arov
ĠPix ar
isle ithania
ĠFors ter
ĠBech yne
Ġafric ana
ĠAlessand ro
mod el
ĠTup olev
ĠAve yron
acr uz
yceph alum
Prov ence
ĠGryf ino
Gent iana
æ± Ł
ĠBever ly
otl ap
ĠGross o
issel burg
ĠPolt ava
ĠGregor ius
ĠHeine ken
Gyr etes
ĠChat GPT
Than atus
ĠAnc ona
ubar ak
ĠCorr Ã¨ze
ĠAnto ine
Didym odon
Ġvacc ae
Ġfall ax
Rain bow
Ġ(* "
ĠJoc quÃ©
ĠCarne gie
Ġjavan ica
Cuc ullia
ĠTets uya
ĠKays eri
ĠAmen emhat
Erig one
Aesch yn
ĠTaek wondo
ĠTurkmen istan
ĠKarat edo
ĠDamas cus
Boa teng
Bomb us
ĠNÃ¼r nberg
ĠShl isselburg
Oec etis
åĴ Į
ĠCym othoidae
ĠBeÅŁ ik
ĠOxy opidae
Boar mia
Yug ure
ĠCist icolidae
ĠPenta phyl
ĠCros by
gomer y
kig ayo
nort estosterone
ĠTÃ¡r rega
Ġrow span
ĠPendr agon
ĠThier ry
ĠKrypt o
ĠCalymper aceae
Arcu phantes
ĠBaltim ore
ĠSaqq ara
Clemat is
Calopt ilia
ĠAtlet ico
ĠAfyon karahisar
Hamatali wa
Brachythec ium
" ",
" âĢĵ
) ).
+ .
2 16
3 30
3 80
3 65
3 86
5 50
5 70
9 80
A I
A ba
A elurillus
B á»Ļt
B om
B uc
B enn
B aill
C app
C uba
C LB
D ay
D áº«n
D yn
D ais
D isc
D NA
E G
E ud
E lectron
F K
H K
H os
H á»įa
H arm
H yllus
I v
I ris
I EC
K av
K Ãªnh
K ST
K uj
L ov
L ight
M á»Ļ
M iáº¿n
M ao
M Ã£i
M ez
M err
M usta
O u
O ur
P V
P au
P ac
P ul
P ers
P les
P ogon
P alp
R á»«ng
S uy
S ung
S uá»ĳt
T Ã´
T ang
T iáº¿t
T á»¥c
T arbell
U EFA
V Ãłnh
V at
V iáº¿t
V ic
V ila
V lad
V riesea
W er
W ak
W ho
W ings
W atusi
Z ebr
] )
b Ã¡o
b áº¡n
b Ã³ng
c os
c enter
d Ãª
e is
e nheim
f ur
f ace
f rey
g ir
h áºŃu
h ill
h yp
h orn
h rad
i ÅĦski
k á»·
k Åį
k Ãªnh
l á»ħ
l ycephalum
m ph
m ac
m oc
m ing
n ak
n Ã¢ng
n ight
n itz
n icholsi
o ir
o ÅĤ
p os
p ut
p orts
p po
q lus
r and
r ene
r inus
s y
s Æ°
s eck
s ace
t Ã¡i
t land
t ail
t obe
v áºŃn
v as
v á»£
v ila
v ette
w s
w ing
y un
y ev
y ana
y ama
z eb
z sef
¨ c
Â »
Ã ľ
Ä Į
Ä Ĺ
É ĳ
Î ³
Ð ĵ
á ¿
å «
æ »
ç ¶
ç ¯Ģ
é ½
é Ĥ
ë ĭ
ë ĮĢ
ì ²
ì ķ
Ġ ip
Ġ ent
Ġ esc
Ġ çİĭ
Ġ arbor
Ġ Ñĥ
ĳ t
á» ¤
Ġt Ã¡nh
Ġt ep
ng Ã´i
Ġc ae
Ġc av
Ġc á»±a
Ġc áº§y
ĠÄĳ áº¥ng
Ġv Ã¡ng
Ġv ic
Ġv ert
Ġv arius
Ġl Æ°
Ġl á»įng
Ġl á»ĳt
Ġl á»¥i
Ġth au
Ġth áº³m
Ġh áº¥t
Ġh Ãºc
Ġh áº¯t
Ġm áº§u
Ġm á»³
Ġm ata
Ġtr ap
Ġb at
Ġb ir
Ġb á»ĳt
Ġb ell
Ġb oy
Ġn áº¥y
Ġn ep
Ġn ana
Ġn áº·n
Ġn iger
Ġn orth
Ġch á»ĳc
Ġch áºŃp
iá» ĳt
Ġk er
Ġs Ãłi
Ġs Ãło
Ġs áº£o
Ġs ag
Ġs ing
Ġnh Ã©t
Ġnh ÃŃm
Ã´ t
Ġd iÃªn
Ġd uperrey
ph á»¥
ph á»ķ
ph yll
ph ylla
Ġg as
Ġg ro
Ġkh áº¿
Ġkh á»Ŀ
ĠT N
ĠT es
ĠT oc
ĠT amp
ĠT if
ĠT eg
ĠT ate
ĠT etsu
ĠT ochigi
Ġng Ã³
Ġph á»Ļng
an ak
qu ine
qu ensis
ĠC áº£o
ĠC Ãłng
ĠC á»«
ĠC row
ĠC opp
ĠC oco
Ġqu áº¥t
Ġqu Ã¡ch
ĠN X
ĠN Ã¹ng
ĠN á»ĳi
ĠN ah
ĠN ana
ĠN iá»ģm
ĠN assau
ĠL H
ĠL Æ°á»£c
ĠL ew
ĠL ah
ĠL ara
ĠL ook
ĠL TE
uy uki
ĠH in
ĠH ul
ĠH ana
ĠH uss
ĠH Cl
ĠH ube
ĠH ello
ĠH AGL
Ġgi Äĥng
Ġr el
Ġr áº«y
Ġr amelteon
ch h
ch iá»ģu
ch et
ch enko
Ġx im
Ġx á»ĭt
ĠB áº¿
ĠB Ãª
ĠB á»ĵi
ĠB ra
ĠB Ãºt
ĠB oz
ĠB ene
ĠB utt
ĠB rew
er ic
er asil
ĠM X
ĠM oss
ĠM aud
ĠM ubarak
Ġ2 19
ĠÄĲ Ã³ng
ĠÄĲ iáº¿m
ĠÄĲ Ã£ng
ĠS L
ĠS á»ī
ĠS CN
ĠS ond
ĠS imm
ĠS oter
Ġ( âĢĺâĢĺ
ar te
ar ies
ĠP ae
ĠP itt
ĠP ush
ĠP SP
ĠTh ur
ĠTh Ã¡t
ĠTh Æ°á»Łng
ĠTh ir
ĠTh iÃªm
ĠTh orn
ĠV ia
ĠV id
ĠV Æ°á»£ng
ĠV ip
ĠV ila
ĠV Ã¡z
ĠK á»ĭ
ĠK es
ĠK iá»ģn
ĠK iá»ĩm
ĠK ut
ĠK est
ĠK iss
ĠK ost
ĠK ishi
ĠK iej
ĠK SW
ĠA O
ĠA x
ĠA ue
ĠA kh
ĠA rach
ĠA GM
ay ensis
ĠTr á»©
ĠTr ust
al er
al ongk
al ympic
ĠD E
ĠD M
ĠD au
ĠD áº¥u
ĠD ag
ĠD ah
ĠD ata
ĠD est
ĠD end
ĠD ans
ĠD ame
ĠD urb
ĠD rew
ĠD Ã¼z
or os
or ah
or ata
or ca
or hiza
ĠG D
ĠG T
ĠG im
ĠG et
ĠG eb
ĠG arn
ĠG org
ĠG Ã¶r
ĠG avan
ĠCh áº¿t
ĠCh ÃŃch
ĠCh os
ĠCh ev
is an
es te
ĠPh Ã¡n
ĠPh alanx
el ina
el yn
el ita
el ope
at ore
eo tti
ĠQu áº¥t
il ova
ol ec
ol ith
ol ept
ĠR S
ĠR Äĥng
ĠR yb
ĠR oland
ic ifolia
ic osta
ic arpa
as ant
Ġcu ne
Ġ3 34
Ġ3 90
Ġ3 24
Ġ3 70
Ġ3 49
os em
os ma
it alis
it pold
ur ellidae
om ir
om era
om ena
om itrium
ĠI ts
ĠI ger
ĠI di
ĠI PhO
um n
ac Ã¡
ac is
ac ina
ĠE ck
ĠE SP
ĠE asy
ĠE skiÅŁehir
ĠF am
ĠF ung
ĠF ig
ĠF arm
ĠF DP
ĠF igo
ĠF agaceae
ĠF landers
Ġcon tr
Ġ4 23
Ġ4 22
Ġ5 12
Ġ5 28
Ġ5 89
Ġ5 48
Ġ5 49
Ġ5 866
ĠJ D
ĠJ P
ĠJ Ã¡n
ĠJ ir
ĠJ esse
ĠJ obs
ad s
ad ov
ad ha
ad olid
th áºŃt
th Ã´n
ĠW id
ĠW ies
ĠW ein
ĠW ester
ĠW ied
ĠW ij
ĠW iki
Ġdo g
Th yr
op il
le w
le nger
le hem
ĠX uyáº¿t
ĠX ibia
ĠX OR
ul h
ul on
ul am
ul is
ul at
Ġ6 30
Ġ6 21
Ġ6 70
re gent
ot ic
ot ene
un ce
ag ua
ag ere
ag iata
ĠKh en
ĠKh á»ī
ĠKh as
ĠKh áº£m
od iazep
ak awa
ĠO K
ĠO Ã¡nh
ĠO ise
ĠO ST
ĠO uter
Ġ7 000
Ġ7 87
ĠU mm
ĠU AE
Ġvá»¥ ng
ir che
tr ÃŃ
tr ang
tr es
oc les
oc ole
Ġ8 60
Tr in
Tr igon
ing don
Ġp a
Ġp e
Ġp ic
Ġp ara
Ġp aul
Ġp ole
ĠY us
ĠY up
ĠY onne
av ag
av era
av ka
ab ile
ab ato
Ng Ãłi
Ng á»įn
19 7
19 26
ion ymus
ell en
Ã¨ che
ap tera
ens a
ro ides
Ch el
Ch at
Ch Äĥn
Ch ev
Ch áº·ng
Ch ern
Ch rom
ie z
20 2
te z
ra er
ec o
ec om
ec ts
Ġchu á»ĳt
Ġf er
Ġf re
Ġf Ã¼r
ow ie
ow ath
ob ots
ou in
iv ora
Ph r
Ph ill
Ph idippus
ian tha
ard en
ik er
ik awa
st ream
ok am
ĠMar ion
ĠSt all
Ġ17 1
Ġ17 69
ĠAr au
ĠAr aki
yl is
all en
ev ac
ĠBan erjee
sk oye
ber ra
ud ic
ĠLe a
ton ii
ĠZ w
ĠZ bigniew
ĠBr od
ers et
Ġ16 48
Ġ16 42
ub ara
az iland
aw iak
eg er
ri us
ri ot
ĠSh ort
Ġ13 50
est is
est own
ant le
Ġin con
ug as
ist icaceae
Ġan no
Ġ30 1
ib an
ĠLa f
son ia
son ne
iz awa
art i
18 1
18 38
18 93
ass i
ass ar
end ables
ĠPr ague
ĠGr ae
ĠGr od
ĠGr av
ius z
ĠCon rad
Ġ25 5
10 6
ys is
ys seus
ĠThu á»Ł
ern sey
Ġ24 1
Ġ24 4
Ġ24 9
ĠPar alympic
oll y
ox it
ĠSch el
ick Ã½
ick ers
Ġ22 6
och th
och lora
och loa
och aeta
enn ai
ĠAm ph
ĠSan ct
16 5
Ã¶ zÃ¼
la ena
Ġ27 1
Gi áº¥c
ipp o
br otica
ĠBl anc
Ġ26 4
erm is
ĠMan n
ĠMan ch
ĠCl yde
yd ia
ĠSc irt
ĠLu Ã´ng
ĠLu itpold
ĠFran cia
Ar n
Ar mor
Ġ29 1
ĠHai ley
ĠRe id
oz ona
St op
ĠHo Ã¡n
ĠHo áº¯c
ix is
ĠMal uku
itt acidae
ĠAle ppo
ĠUn limited
Ġ40 2
ĠCol in
lin er
Al ice
ect es
Ġpr uin
oss osomatidae
Ã©m ie
ÅĤ awa
Pr on
ark ii
omel a
ĠWal k
23 7
ĠAp ril
ĠAp ocyn
24 0
24 9
ish op
ĠKr ug
ĠOr icon
ĠOr lÃ©ans
omb at
ott is
ros us
ĠPol emon
ĠMc N
ĠMc Nam
ĠMc Mahon
ãĥ ª
Le jeunea
ĠRob b
Ġac c
ĠHer ald
ĠNe ust
à¸ Ń
ole uc
âĢĿ ".
ĠWorld wide
ĠDu áº©n
ins atz
ĠBo er
ĠBo ot
unt y
ĠMor itz
ĠCo uncil
ĠNor ris
ĠNor odom
ĠHen rie
pe ira
Ġj ul
Ġe qu
tic us
ĠMac Donald
ĠMus ashi
ota enia
Ã¨m e
In f
Ac er
ĠMai kop
ophyll us
ĠStr asbourg
sch aft
Am es
Am az
ĠBur dur
ero ides
ĠTim aliidae
ĠDon n
Con oderus
ĠHam on
ĠTe ep
44 1524
Äģ d
inus a
ãĤ ¯
uss a
ĠÐ ¸
ĠÐ º
ĠÐ Ŀ
mar ok
Cl em
Cl eom
Ġam in
Sp in
ĠMat o
ĠMat ou
ĠTrich oniscidae
Ġ37 1
Ġ37 4
ĠEng ines
ke aceae
ĠNik opol
ĠMel ara
raz y
ĠMont ed
ĠAg ostino
Par as
ĠTur b
ĠTur n
ĠMed ici
cel i
ville a
iev ed
con i
Ġsub f
Ġsub sp
Ġsan ct
ĠSlov ak
ĠSlov ene
ĠLin kin
cu it
ĠGal eotti
La phria
Ġå Ĭ
Ġhyd ride
ĠPet it
ĠInd och
ga on
ali ensis
ĠAnt wer
omer ia
Ðµ Ð´
ĠGl obe
ĠGl ossosomatidae
ĠFlor entino
Pl ag
Pl eop
nam ent
ĠWe ek
ĠSw aziland
ä¸ ľ
Ġ49 6
unc ed
unc ulata
ĠMeg an
Ġmac ulata
Pseud os
Pseud icius
Ã± ar
Mic rom
Mic roc
ĠTo ulo
eol aria
ĠPat ton
ĠRad zi
ĠMas car
gen y
lex a
ĠCroat an
ĠKir by
Ġz ileuton
ire d
ĠTai gei
ĠMak in
Co en
Ġdel ic
iff ner
str uction
lec ta
ĠRos enst
rit o
ĠBul ldog
ogon um
å¤ «
ĠNob le
estr el
ĠAP FSDS
uan ensis
ĠNov or
ĠPav l
Ġæ ±
å® ®
ĠAv iv
ĠRoman os
ĠKl ot
ĠKl opp
ĠKy Å«
ĠSar ai
ĠMau ry
ĠVer acruz
ĠDom ingo
ĠCent en
ĠCent auri
giá» ¯
Mac br
Mac omb
Mac aranga
ĠDev i
kov sky
utt ata
unct atus
Col olejeunea
omor ph
Ġfr ame
ĠSteph an
ĠSteph ens
Dr agon
ĠTP B
opl us
And rew
ĠLeg acy
ĠSat Ã´
ĠKn ight
so us
Phil ip
Phil odendron
Bar yshnikov
ĠBrit ann
Ġé ĺ
Ġstr ig
ĠLes keaceae
Em p
Ne unzer
ĠSand s
ĠDar yl
aid u
ken azi
ĠLaw son
work s
ĠNag y
ĠNag ano
ĠDou bs
odont ium
ĠEver ett
Ġcar ton
ĠMonte fi
Camp anula
Lep ton
ogn athus
NT EEN
ĠRT P
ĠPs ittacidae
æĺ Ł
ĠSid ney
ĠIv anov
éĻ ³
Leuc ania
ĠAlf onso
uld ak
åı °
ocer as
Ġmod el
Mor ton
Ñĥ ÑĤ
Ġau rant
Ġsil v
ÅĽ c
ĠTun is
ĠLar esle
ĠAsh kenazi
Hu áº¿
Sil va
ĠCir cuit
ĠBurg os
Red stone
Down es
hr er
éĥ Ń
ĠHann over
ĠBroad us
Li u
Dicran um
eval ier
æ° ĳ
apon in
ĠGa on
Ġgrand is
åħ¬ ä¸»
ĠTy ran
ĠUN ICEF
Ur b
çļ Ħ
ĠKey s
Ġsulf ide
Eri ogonum
ĠBart Ä±n
ĠSor icomorpha
ĠShe ikh
Ble phar
ĠBran agh
ĠDol ce
Ġparv iflora
ĠAleksandr ovich
kt op
ĠGyeong ju
Fre derick
ĠRev olution
Ġpunct ata
ĠMaz ovia
ĠRes ort
ĠMez a
ĠTurk estan
ĠRodr igues
Ed ward
Ġol iv
ĠMiy azaki
åº ľ
Ġov al
ĠYosh ida
Orth otrichum
ĠGas ton
FL P
Card iophorus
Chlor oc
ikk im
ĠExp endables
Pach y
ĠRus by
omac entrus
igg s
Ġmá»ī a
ĠAqu ino
ĠAur obindo
ĠHyd ro
Ir eland
Ir win
Ġmed i
ĠKoh l
Fri end
ĠGom ez
imac ula
ĠJis r
Xanth orhoe
Ġheter ophylla
erc ops
ĠBeaut iful
ĠLP L
ĠVik ing
ĠOber Ã¶sterreich
Mak in
Ġdisc olor
ĠLec ce
Ġgris ea
ĠMath emat
ĠJess ica
Lo ir
Gir ls
é¦ Ļ
ĠAut obots
ĠRyd b
ĠMik ul
Hand anoviÄĩ
æķ ¬
ĠPhill ip
ĠCot abato
ĠHat ay
ĠHew itt
Ġvel utina
ĠSis owath
ĠMcG uire
Dis ney
VE NTEEN
æĽ ¸
çķ ¥
ĠSimp sons
Ġbrun nea
ĠWrest leMania
Sai pan
å£ «
ĠCart oon
ĠBai ley
aste vere
ĠEh ren
ĠElectron ics
Ã¼m Ã¼ÅŁ
Ru iz
Ġchar acter
erre ira
osteg ium
apat na
ĠAdv ance
Hend erson
Sax ifraga
ĠHum ph
ĠHod g
Sac char
ichen iaceae
Ã¡l aga
éŃ ı
Ġsand wich
ĠKob ayashi
ĠGin ji
ĠGle icheniaceae
ĠEurope an
Cot inusa
TW C
ĠTC G
ĠAH CA
ĠReh der
èī ¯
Ġdens iflora
ĠPah lavi
ĠRetr iever
ĠAdvent ure
ĠSavo ie
Ġgracil ipes
èĭ ±
ĠBing Ã¶l
Vern onia
Viet nam
ĠHua wei
ĠSle umer
ĠGuadal ajara
Plectr anthus
ĠMyr isticaceae
ĠVall adolid
otham nus
ĠPatric ia
ĠLoir et
ĠGuillau min
æ¢ ģ
ĠCten idae
ĠCorb ett
Muz eum
Ġvag abundus
ĠOce an
ĠMegal optera
ĠBuff alo
ĠGilg amesh
ĠSchÃ¶n brunn
ĠCV W
ĠVell oziaceae
ĠGig andet
Prinz regent
Acroc ercops
ĠLegn ago
dre adnought
Aleuroc lava
Fer ula
Gneis enau
Ishi hara
Ġmuc ron
ĠCrypt ophagidae
ĠAdmir alty
Hau te
ĠBj Ã¶r
ĠWroc ÅĤaw
ĠSaad et
ĠVoron ezh
Ori ent
Ġnin ja
ĠVos ges
Stigm ella
Sperm acoce
ĠDaj oz
ĠZong uldak
ĠScar abaeidae
Ġcarbohyd rate
Lisson ota
Ġtá»£ n
ĠSemy on
ĠPeps i
ĠRask ova
ĠStil icho
ephyran thes
ĠGalatas aray
Ġcommun is
Blechn um
ĠMendiz abal
ĠUsta Å¡
ĠCyren aica
ĠPentaphyl acaceae
Kuj awiak
seck y
phyll ine
ĠTif lis
ĠKiej stut
alongk orn
ĠScirt idae
ĠApocyn aceae
ĠMcNam ara
ĠToulo use
ĠRadzi wiÅĤÅĤ
ĠMontefi ore
" âĢ²
% !!
) ),
- ,
. '
2 34
3 21
6 18
7 42
A sil
A BC
B L
B od
B ut
B our
B oe
B rien
C is
C ad
C up
C ath
C lad
C ors
D ong
D obl
E b
E um
F le
F ire
F aid
F estival
G eo
G ur
G Ã¼
H oh
H ey
H erb
H ilbert
H emer
H omal
H adena
H acÄ±
I L
I f
J P
J ournal
K a
K m
K or
K Ä©
L or
L ao
L Ã£i
L und
L ath
L uz
L á»Ľn
L ardner
M it
M ys
M ini
M amm
N ak
N est
N ass
N ect
O phi
P R
P alm
P icking
P ycn
R up
R oth
R uss
S Æ°á»Ŀn
S ession
T ia
T áº¡o
T Ã¡m
T Ã³c
U D
U kra
V O
V er
V inc
V illa
V ui
W ol
W imm
W he
X Æ°Æ¡ng
Y en
Y ester
Z ulu
Z empl
Z ephyranthes
b inh
b á»©c
b Äĥng
b á»ĩnh
c am
c á»Ŀ
d em
f ica
f ork
f ly
g au
h ab
h sky
h ynia
i Que
j er
j et
j Ã¶
j ira
k ong
k at
k il
k it
k um
k up
k ey
k ovich
k esh
l Æ°u
l ers
l ana
l ain
l ice
l aus
m ong
m Ã¡n
m ah
m á»Ľi
m ix
n ai
n á»ģn
p on
p ap
r áº¯n
r ill
r ice
r ose
s ay
s á»©c
s id
s us
s iÃªu
s ena
s ville
t á»Ŀ
u w
v n
v á»«a
w ith
x b
x áº¿p
y ard
y ts
y Ã¡s
Ã Ģ
Å ĭ
Ç Ĳ
Ð ľ
Ð ł
Ñ Ī
× Ļ
å Ģ
å ĩ
å ŀ
æ £
æ ¬
æ ½
æ Ħ
æ ļ
ç ģ
ç į
è į
è ŀ
é Ł³
ï ¸
Ġ Ê
Ġ áºŃp
Ġ ot
Ġ ak
Ġ á»Ŀ
Ġ Ñģ
Ġ ethyl
Ġ áĢ
Ġt um
Ġt ig
Ġt Ã³p
Ġt ivi
Ġt Ä©u
ng Æ°
ng Æ°á»£c
ng strÃ¶m
Ġc ov
Ġc rypt
Ġc itr
nh ayn
Ġv Ã¡t
Ġv and
Ġv iv
Ġv áº«y
Ġl in
Ġl ar
Ġl un
Ġl Ã²a
Ġl ig
Ġl Ãºt
Ġl ob
Ġl iáº¿m
Ġl act
Ġl ectin
Ġth iáº¿n
Ġth om
Ġh Ã¡o
Ġh ad
Ġh ard
Ġh tt
Ġh ash
Ġh ero
Ġh Ã£nh
Ġh Ã²m
Ġh aem
Ġm er
Ġm Æ°á»Ŀng
Ġm áº¡t
Ġm á»ĵm
Ġm oi
Ġm end
Ġm ost
Ġm aur
Ġm odes
Ġtr an
Ġtr is
Ġtr Ã¡m
Ġtr iang
Ġb en
Ġb and
Ġb re
Ġb Æ°á»Ľng
Ġb Ãºi
Ġb eng
Ġb orne
Ġb ifasciatum
Ġn á»ı
Ġn Äĥn
Ġn á»©a
Ġn á»¡
Ġn áº¥ng
Ġch áº¥u
Ġs Ãº
Ġs ar
Ġs ab
Ġs yr
Ġs Ã©c
Ġs igma
Ġnh áº¥c
Ġd an
Ġd is
Ġd ur
Ġd á»ĳt
Ġd iÃªm
Ġd á»©a
Ġd Ã£i
Ġd elle
Ġd esc
ph Ãª
ph ania
ph ala
ph yllum
Ġg á»Ľm
Ġg uttatus
Ġkh am
ĠT A
ĠT R
ĠT iá»ĩc
ĠT ec
ĠT ian
ĠT Ã³c
ĠT off
ĠT CP
ĠT ÃŃm
ĠT arr
ĠT osc
Ġph ae
an ur
ĠC C
ĠC K
ĠC Ã´i
ĠC iv
ĠC á»§ng
ĠC ura
ĠC yan
ĠC omor
ĠC rown
ĠC ivil
Ġqu Ã¡ng
ĠN ab
ĠN áº¡p
ĠN ara
ĠN á»Ĺi
ĠN SA
ĠN iet
ĠN utt
ĠN itra
ĠN igel
ÃŃ c
ĠL us
ĠL ico
ĠL ynch
ĠL ulu
ĠL AN
ĠL TTE
ĠL allana
ĠH z
ĠH á»Ļc
ĠH Ã©
ĠH Ã¢m
ĠH ep
ĠH Ã³c
ĠH ass
ĠH ary
ĠH ain
ĠH inam
Ġgi gas
Ġr ut
Ġr ÃŃt
Ġr á»±a
Ġr iff
Ġr á»£n
ch ong
ch á»ĭ
ch lor
Ġx á»Ł
Ġx á»ı
ĠB á»ķ
ĠB iá»ģn
ĠB ard
ĠB isc
ĠB anda
ĠB aidu
er ata
ĠM n
ĠM p
ĠM im
ĠM áº¥y
ĠM av
ĠM ou
ĠM ud
ĠM ull
ĠM lad
ĠM aver
ĠM ochi
ĠM ethod
ĠÄĲ iáº¿n
ĠÄĲ iÃªu
ĠÄĲ á»©ng
ĠÄĲ iá»ģm
ĠS áº£ng
ĠS op
ĠS áº¥m
ĠS ex
ĠS aga
ĠS imb
ĠS ection
ĠS rin
ĠS ever
ĠS esiidae
ĠS assanid
on an
on in
on or
on aceae
on ym
on buri
am en
am ani
am aru
Ġ( ~
Ġ" *
in sk
in ervis
ar ica
ĠP W
ĠP ast
ĠP ern
ĠP omp
ĠP eng
ĠP AG
ĠP GE
ĠP omorskie
ĠTh á»ı
ĠTh á»ĳt
ĠTh á»īnh
ĠV á»±c
ĠV ui
ĠV ienne
ĠV QG
ĠV ermont
ai kovsky
ĠK B
ĠK oc
ĠK oi
ĠK ork
ĠK ond
ĠK iáº¿p
ĠK wa
ĠK GB
ĠA it
ĠA ge
ĠA TV
ĠA AS
ĠTr Äĥm
ĠTr áº§u
ĠTr á»©ng
ĠTr ento
ĠTr entino
ĠTr astevere
al os
ang i
ang as
ĠD ays
ĠD uke
ĠD utch
or atus
or ozh
ĠG ag
ĠG est
ĠG Ã³c
ĠG enn
ĠG oy
ĠG ele
ĠG nie
ĠG Ã¼mÃ¼ÅŁ
ĠCh Ã¢m
ĠCh á»Ĺ
ĠCh ey
ĠCh iáº¿m
ĠCh iá»ģng
ĠCh ennai
ae th
es on
es ma
ĠPh áº©m
ĠPh eng
ĠPh araon
ĠPh asian
ĠPh antom
Ġkhi Ãªng
el don
eo don
eo ides
us ik
Qu Ã¡ch
Qu een
im ent
ĠÃ ĺ
ĠNh á»ĩn
Ġbá»ĭ a
il sch
Ã© don
ol am
ol ini
ĠR ÃŃ
ĠR Ã¹a
ĠR amb
ĠR ond
ĠR OM
ic os
Ġho t
as at
as lav
as oma
00 8
Ġ3 12
os ite
os ternus
it arsis
ur odes
et hi
om os
om ach
ĠI f
ĠI os
ĠI ris
ĠI zy
ĠI bar
ĠI EEE
em p
ac ci
ac char
ĠE D
ĠE sch
ĠE ye
ĠE iff
ĠE inz
ĠE hr
ĠE DM
ĠE intracht
ĠF o
ĠF ow
ĠF ry
ĠF aw
ĠF ert
ĠF Ã¼r
ĠF alke
ĠF ennec
Ġ4 85
Ġ4 75
Ġ4 28
Ġ4 47
Ġ4 41
hi an
). .
Ġ5 47
ĠJ Ã¶rg
ad ei
th o
th Ã¬
th á»ĳng
th um
ĠW as
ĠW arb
ĠW BC
Th ymus
âĢ ī
op al
op ec
ĠX oÃłi
ĠX oa
ĠX in
ĠX áº»o
and oah
". .
Ġ6 19
Ġ6 80
Ġ6 72
re ux
ot ella
ot ka
ot oma
ot ions
un b
un ov
ĠKh os
ĠKh ama
ÄĲ Ã¡ng
ÄĲ áº¥u
ÄĲ Ãłn
ÄĲ áºŃu
od in
od at
od ict
ĠO ort
ĠO der
ĠO no
ĠO celot
ĠO chnaceae
Ġ7 12
Ġ7 32
ĠU ly
ĠU ÅŁak
ĠHoa ng
ir ae
ir tus
oc ar
oc roc
oc yma
Ġ8 20
Ġ8 64
Ġlu te
Tr Ã¡ch
Tr ag
Tr á»įng
ed s
ed tsch
Ġp s
Ġp ot
Ġp ir
Ġp av
Ġ9 80
ĠY on
ĠY ap
ĠGi Ãłu
ĠGi áº¥c
Ġ12 20
Ġ12 34
ab at
ell aria
ne ith
ap od
Ch uyÃªn
Ch amp
Ch ase
ie ng
Ġso ku
ec i
ec ik
Ġf m
Ġf o
Ġf u
Ġf em
og eton
ow itz
ob as
ou ti
Ph Ã²
Ph erson
Ph oen
ent ial
ian e
ian tep
ik os
ĠÃģ c
ok ov
ĠMar ek
ĠMar iya
ĠSt ur
ĠSt ing
Ġ17 50
Ġ17 11
Ġ17 60
ĠAl ta
ĠAl me
ĠAl sace
Ġsu br
if y
if usa
if asciata
yl um
ew o
ew are
Ġ15 27
Ġlo Ã¡t
ud en
of asciata
ĠZ o
ĠZ ar
ĠZ iz
ĠZ yg
uc ei
ĠBr end
ĠBr esc
ĠBr emen
Ġ16 60
Ġ16 62
Ġ16 54
ub en
Ġ14 90
Ġ14 84
Ġal ign
yc a
yc us
ex ample
ex amic
Ġmu á»ĳng
ĠIn fin
ĠIn auri
ist en
ist ic
oh a
oph ilum
up o
orm s
Ġ30 3
ib el
ue isha
ĠLa ff
ea f
18 9
18 21
18 85
18 72
18 48
18 77
18 68
18 61
ass us
ĠCr is
ĠGr ab
ĠGr essitt
ĠCon stan
ind y
ind en
und ra
Ġ25 3
10 9
Kh Ã³
kh ai
Ã¼ h
ort ico
ort ipes
ĠEl mer
ĠQ L
ary n
Ġw iki
ath ea
Ġ24 6
Ġ24 8
oll ywood
ct or
ĠSch inz
eh ead
ez o
ez ia
och aris
och rome
och ilum
ĠAs hik
enn er
ock ey
50 3
Ä± ÅŁ
Ġ27 3
Gi Ã³
Ġ28 6
Ġ28 8
15 1
15 5
sh o
sh ausen
ĠBl unt
ĠBl atter
ett ii
eth o
ll eni
ĠCl eridae
ff ield
Ġ50 6
Ġlinh in
ĠCan c
ĠCan av
ĠCan berra
ĠFran secky
ĠSp ot
ĠSp ike
Ar ae
ĠGu aya
ĠGu ernsey
Ġ29 7
Ġ29 9
ĠRe ed
oz ione
ĠMad e
ĠUn i
ĠUn o
ĠUn ter
ĠUn derw
Ġ40 9
ies ia
13 4
13 6
ĠCol igny
ĠCol ubridae
Al ph
Al an
Al pha
Ġpr ost
Ġpr aec
per ger
Ġex t
Ã©m y
ÅĤ aj
ÅĤ owo
Pr inc
omel as
ĠSal am
ĠSal gado
ĠWal p
ĠWal king
ĠOl ivia
ĠKr z
ĠOr t
ĠOr ne
ĠOr issa
ald i
ĠBer land
ĠPol it
ĠMc Pherson
uz i
ĠChrys ostom
der e
ĠPer ugia
ĠOs s
enz ie
à¸ µ
Ġtai wan
ho on
Ġsp r
Ġsp ectabilis
af r
45 3
ĠAb be
amm ar
22 8
aus er
ĠDu el
ins hi
els mann
unt ia
ĠAng u
ĠAng els
ĠIr ving
pe nh
Ġj un
yg ia
ĠMe ch
ĠDe al
ĠEr in
arg i
arg as
ĠMus cic
ĠRh ac
As clep
ĠSe ng
ĠSe en
ih u
ĠMon arch
ĠHe ian
gi áº£
ĠChamp loo
yph ylla
ron i
ĠCam ille
ĠÃĶ hira
ĠSam i
ĠSam ara
ĠSam antha
ĠBel orussia
sch ul
Am azon
Sh ugh
ĠHam lin
ĠJe on
ĠTe ach
44 4
Ġpl us
ĠVal entin
ĠVal jevo
Ã§ ao
ãĤ £
ĠÐ ¾
Sc ler
Sc ott
rop etr
rop oda
Cal Ã©don
Fran Ã§
Ġven ez
ĠSu won
ĠSu Ã¡rez
ĠMel it
ĠMu isca
ãģ Ł
ĠMont gomery
ail le
Ġhy br
ĠAg Br
39 5
Ġcal iforn
ios p
erson ii
ĠAustr ia
yt hing
Ġxoa ng
Ġsh ot
ĠTur cz
Å¡ iÄĩ
Or t
ĠBos worth
Ġ36 7
Ð¸ Ð»
Ã¤ l
Ã¤ n
Ã¤ t
ĠCho j
umb us
Ġgr ive
Sm all
ĠShi zu
je ong
je on
ĠAnt ena
ĠMo ivre
Ġxo Äĥn
Ep icau
ĠBor g
ĠEx eter
Ġmac ro
gl ish
Ã± ez
ĠMi ocen
Ġpar all
ĠAll ison
yth idaceae
ĠTan izaki
ĠBour nem
ĠAndre as
ator ium
ĠPro gress
ire i
ĠAf zal
ĠTak ashi
On itis
ĠRos ario
åħ «
kin en
Ð¾Ð ¹
ĠSai d
ocarp aceae
ĠMag uire
ĠPlay time
Ġob li
ĠSang er
ĠNov os
ĠNov ak
å® £
Ġcr icket
ĠAv enue
ĠLind au
Pol yp
ĠUl m
Hyp s
Hyp ena
ĠDivision e
ĠMau i
Ġad enosine
ĠVer ne
ĠNav arra
Ġspin osa
Ap od
osc irtus
ĠPhilip os
ÃĤ n
ĠKol ubara
Ġmic ans
Ġmic ros
à¤ °
And rei
ĠMill ion
ef eller
ĠLo es
ĠAug ustin
ĠTer esa
ĠRam anagara
ĠRam esses
Phil odromus
Gl auc
äº ĳ
Chu á»Ĺi
ĠNikol aev
ĠDes v
ĠSav oy
ĠYam auchi
ĠYam awaro
Call ionymus
oceph alum
ĠHyp pol
Ã©s ar
ĠGold stein
itr ov
ĠWall achia
ĠPe nh
ĠCN TT
ĠKo Å¡
Trich omanes
ĠCre ed
Ġab d
Ġab out
form is
form ers
aem us
aem ophloe
sz enty
ĠBell uno
ĠBoy z
acc io
ĠAsp Ã¶ck
igin osa
Har ry
Will d
AC E
Camp uchia
Ġphosph olip
Ġrub ic
ĠMot ion
ĠEnd l
ipt ica
ĠIv y
ĠWin ter
Dend roph
Hyd rop
bar ara
ĠNat ure
ĠPur cell
ĠLie b
Anth ophora
sb orough
ĠAlf redo
ĠAleks ey
åı ¸
ĠShah ada
à¹ ģ
ĠbÃ¬ u
Ġsum at
adr ina
Ġpul ver
ĠApp al
ĠApp store
ĠBou c
Ġnuc lit
ĠDal glish
Ġinter r
ĠIng rid
Mc Calla
Acanth oscel
ĠPil g
Phyll onor
Plat yc
æŃ £
æŃ Į
ĠMind szenty
Coll etes
åľ °
ĠRub instein
ĠIb n
Ġnigr escens
ãĢį .
Ur sa
ĠRep ublic
ĠOt tawa
Ġsulf at
ĠBaro Å¡
Pap u
ĠShe ffield
zew al
ĠUtt ara
ĠÅģ uk
Ġstud ent
ĠBand ung
nom idae
ĠShip p
ĠPel op
osev ic
ĠAbb ott
çĶ Ł
ĠCur ie
ĠPie ve
ĠVeg alta
ĠRoad s
Cle ora
ĠAct ion
eot ide
Ġpo ilan
ĠBis kup
ĠGas per
ĠCS CEC
ĠBec amex
ĠPubl ishing
ĠKÅį mei
ĠAud it
ĠJes Ãºs
par ent
ä¼ ļ
ĠTyr olean
otrop is
igg ins
ĠCont in
Ġamb lycephalum
Ġmá»ī m
ĠAqu ifoliaceae
ĠBook s
Ġglyc oprotein
ĠNiz am
Ã©d Ã©r
Il iad
Ġpap ill
ĠArs inoe
azar Ä±
Ev arts
Ġnot ata
ĠRoch e
dt irol
thá»ĭ t
âĢĻâĢĻ )
Max im
ĠMr avinsky
ĠCher okee
Mi G
Pel ec
Ġpound er
ãĤ¤ ãĤ«
ĠLog an
ĠSK S
ĠLec ythidaceae
ĠInform ation
Eng l
ĠGaz iantep
ĠOff icial
Ġblog ger
ĠPis auridae
ĠDre ams
Ġsten ophylla
Comp s
ĠMae da
ĠTrip oli
ĠTheod osius
ĠKnow les
Ġbenz odiazep
ĠWo ozi
ĠRostislav ich
Dolich opeza
ĠMers enne
ĠFuk uda
Anis odes
arct ia
Calyp tr
ĠKrem li
èĻ İ
Ġmag iÃª
ystach ya
Just icia
Ġ(?? ?),
ĠAnat oly
Brit ish
ĠPyong yang
Alt o
Kn udson
Lat inh
ĠPV C
ĠJÃ³ zsef
tran et
ĠParad ox
Rem desivir
ĠBomb ay
ĠMÃ¡t yÃ¡s
Ä±rÄ± m
wait es
ĠHr ub
ĠBau man
ĠBuc ure
amor os
ĠPLA Y
ĠKod ansha
ĠKiel ce
ĠProm ozione
ĠSpec ial
ç§ ¦
Ġmir abilis
anp akut
"/ "
ĠMiz rahi
atrach otoxin
ĠZak op
ĠEdu ardo
Schw einf
Last rea
hotep re
onc Ã©
amang ala
ĠEc nomidae
ĠAdvent ures
Ġmicroph ylla
orhynch us
KÄ± zÄ±l
Stach ys
âĺ ī
ĠTT NT
ĠKÃ¶ ppen
Slav onia
ĠToh saka
ĠEX O
Tib ellus
ĠKuz n
ĠRolf e
ĠBrom wich
ĠEnerg y
ĠPlzeÅĪ skÃ½
Bab y
Nyct emera
æĩ ¿
ĠTah iti
ĠMeland er
arang ers
ĠPiet ro
ĠKalin ingrad
ĠSpart ak
ĠEmir ates
Jung ermann
Symp l
å¨ ĺ
ĠKuch iki
ĠRams ar
ĠZin oviev
ĠRein muth
ĠCommunic ations
ĠDalton iaceae
ĠBeth lehem
ĠAks aray
Calam agrostis
Enter tainment
Ġmus ic
ĠBukh arin
ĠJov anoviÄĩ
éĥ¡ çİĭ
Ġhirs ut
Ġmadagascar iensis
Rhip idia
Ġsess il
ĠBors od
ĠPlut archus
ĠFlem ing
Ġadenyl yl
Ġmul tic
Ġphil ipp
ĠHÃ©r ault
ĠMersey side
ĠPoc ock
ĠDestr oyer
ĠPhib unsongkhram
ĠSchne ider
Ġdichrom at
Yukar Ä±
ë¦ ¬
Ġcus pid
ĠLic ense
ĠTheres a
ĠKau ai
ĠFergus on
ĠWulf run
Croat ia
ĠAcrop oridae
Ġkai ju
ĠShen andoah
ĠHitch c
Biss au
Inh erent
viron ment
ĠCÄĲ V
ĠMins aw
ĠEL ZN
ĠEsh ed
adren ergic
ĠWart burg
ĠAmas ya
ossiy sk
Ġamazon ica
ĠFrem antle
ĠIcacin aceae
Ġinsign is
Ġirreg ularis
Ġmeridion alis
ĠTis za
ĠLv ov
ĠMw otlap
ĠDhar wad
ĠGerr ard
omitr iaceae
ĠMares uke
ĠBourb aki
ĠKeÅ¾ marok
ĠProduc ts
Linds aea
Aba Ãºj
Capp aris
á»¤ C
ĠArach ne
ĠDÃ¼z ce
ĠYup ik
Ġanno unced
ĠGrod no
Pleop eltis
ĠNovor ossiysk
Zempl Ã©n
Ġhash tag
Ġmodes ta
ĠToff oli
ĠCura Ã§ao
ĠHinam ori
ĠPAG ASA
ĠGÃ¼mÃ¼ÅŁ h
ĠEinz bern
Ġsoku on
ĠAlme ida
ĠZyg ophyllaceae
ĠBresc ovit
ortico id
ĠGuaya quil
ĠMuscic apidae
Shugh ur
CalÃ©don ie
ĠShizu oka
Epicau ta
ĠHyppol ite
Acanthoscel ides
Phyllonor ycter
Ġpoilan ei
! ?
" âĢĿ.
' re
, &
. (
0 25
0 70
2 80
3 23
3 60
3 28
4 75
9 60
; -
A don
A pl
A IDS
B B
B Ã¡
B áº¡i
B ia
B áº¥y
B ec
B esch
B udd
C V
C Ã¢n
C Æ¡n
C á»ı
C ur
C áº©m
C yr
C opt
C ogswell
D Ã¢y
D ani
D isa
D irac
D oug
E th
E sk
F in
F isch
F red
F orr
F imbr
G y
G ay
G el
G á»įi
G ian
G OL
H R
H áº¡n
H ul
H ok
H á»ıa
H ubb
H appy
H ortipes
I w
J apan
K ai
K á»ĭch
L Äĥng
L ara
L eth
L inn
L esk
L Ã©v
M Æ°á»Ŀng
M á»©c
M áº¯t
M ew
M ant
M ix
M use
N á»Ńa
N eg
N yc
N ever
N ichol
N arborough
O le
O per
O ryz
P E
P K
P ur
P ou
P rob
P ied
P ucci
P UBG
R ev
R ib
R oma
R ied
S us
S os
S and
S av
S Ã£o
S ond
S uz
S err
S ever
T áº£
T Æ°á»Ŀng
T ob
T ort
T á»įa
T imon
T orr
T wo
T LD
V or
V á»ĳn
V ex
V ienne
V augh
V accinium
W ik
W ei
W itt
W orks
X Ã´
Y T
Y ang
Y ag
Z oster
Z odar
b ay
b el
b and
b ok
b Ã£i
b rach
b orne
c ase
c ode
d Ã©
d Ãłi
d ol
d áº¡ng
d ec
d ice
d ison
d eburg
e iro
f en
f jord
f nakht
g ub
h Ã´
h ang
h Ã¡t
h Æ°á»Ľng
h art
h alli
i ama
i ops
j p
j ay
j ang
j oh
j ani
j uku
k áº¿
k on
k iá»ĥm
k ale
k Ã³w
l á»Ŀi
l ÃŃn
l ement
m áº¯t
m Ã´i
m and
m itt
m olli
n Ãªn
n iÃªn
n it
n ut
n era
o it
o ise
p c
p em
p ect
p oly
r oa
r im
r ig
r icus
s im
s ine
t it
t áº¥n
t ÃŃn
u ÅŁ
v ania
w es
w iga
w agon
w alk
x ima
y ima
y opop
z im
z ac
z avod
µ ·
¾ ch
Ä «ng
Å ļ
Å ŀ
Ç Ĵ
Ø Ń
Ù ı
â Ī
å ł
è «
è Ĵ
è ĸ
è ĺ
é Ł
ë §
ì ŀ
Ġ áº¯t
Ġ áº§m
Ġ ou
Ġ arn
Ġ over
Ġ odor
Ġ á»Ńng
Ġ audio
Ļ ķ
á» Ĩ
á» Ĭ
áº ł
Ġt w
Ġt ie
Ġt err
Ġc in
Ġc áº£o
Ġc le
Ġc occ
Ġc á»£t
ĠÄĳ á»įa
ĠÄĳ iáº¿c
nh a
nh iá»ĩm
Ġv anh
Ġv Ã¡i
Ġv ie
Ġv áº§ng
Ġl amb
Ġth er
Ġh entai
Ġm l
Ġm ov
Ġm Ã³m
Ġm edia
Ġm eme
Ġm ochi
Ġtr op
Ġb á»Ł
Ġb áº§n
Ġb iáº¿u
Ġb rown
Ġb á»£m
Ġn m
Ġn á»©c
Ġn eb
Ġn á»ĩn
Ġn xb
Ġch áº§n
Ġch á»¯ng
Ġch áº¡ng
Ġch ill
Ġk e
Ġk o
Ġk ur
Ġk ebab
Ġs ph
Ġs áº¡t
Ġs á»Ŀ
Ġs áº§m
Ġs uyá»ħn
Ġs ib
Ġs oda
Ġs ector
Ġnh áº¡n
Ġnh áº½
Ġnh áºŃu
Ġnh Ã¡m
Ġnh Ã²m
Ã³ ria
Ġd id
Ġd áº¥n
Ġd re
ph ant
ph aris
Ġg em
Ġg reen
Ġg emm
ĠT E
ĠT á»¥
ĠT áº£n
ĠT ou
ĠT iá»ģm
ĠT ann
ĠT á»µ
ĠT ats
ĠT ito
ĠT NT
ĠT agawa
ĠT IE
Ġph ys
Ġph áº©y
an yl
an ea
an Ã³w
an pur
an mara
qu ay
ĠC Äĥng
ĠC Ã´m
ĠC SS
ĠC auc
ĠC AF
ĠC isleithania
ĠC Ã©sar
Ġqu á»Ł
Ġqu áº·c
Ġqu áº©y
ĠN um
ĠN á»ĳt
ĠN ell
ĠN ine
ĠN ora
ĠN aga
ĠN erv
ĠN CT
ĠN WA
Ġvá» īa
Ġtá» ģ
ĠL A
ĠL Ã²ng
ĠL á»Ļng
ĠL ich
ĠL ok
ĠL á»±a
ĠL ena
ĠL Ã¶
ĠL ines
ĠL Æ°á»¡i
ĠL uck
ĠL Ã©on
ĠL ittor
ĠH K
ĠH Æ°
ĠH Ã´
ĠH ÄĲ
ĠH yl
ĠH á»Ľi
ĠH osp
ĠH idal
á»© u
Ġr Ã¬nh
Ġr á»įi
Ġr Æ°á»£t
Ġr ue
Ġr ose
Ġr á»¯a
Ġr tsp
ch ang
ch ÃŃch
ch Æ¡i
ch iidae
ch eri
Ġx Ãłi
Ġx áº©m
ĠB L
ĠB Ã´i
ĠB ent
ĠB ox
ĠB yan
ĠB unn
ĠB istr
ĠB oca
ĠB ihar
er ne
er ich
er ife
ĠM Ã¡n
ĠM ing
ĠM ok
ĠM ert
ĠM ani
ĠM enz
ĠM ito
ĠM ulb
ĠM otte
ĠM TT
ĠM iko
ĠM Ã¡laga
ĠÄĲ ai
ĠS N
ĠS et
ĠS Ã¡p
ĠS ie
ĠS og
ĠS ik
ĠS ach
ĠS ime
ĠS we
ĠS MS
on ar
on ius
on eta
Ġ( âĪĴ
oa ct
oa nga
in x
in ts
in osus
ar ac
ar actus
ĠP G
ĠP R
ĠP áº¡
ĠP Ã¡c
ĠP end
ĠP ain
ĠP ena
ĠP seud
ĠP rob
ĠP BS
ĠP ech
ĠP ots
ĠP YY
ĠTh oáº¡t
ĠTh under
ĠV S
ĠV ed
ĠV áº£y
ĠV iÃªng
ĠV ass
ĠV FF
ĠV arde
ai ma
ĠK Ä©
ĠK ov
ĠK ro
ĠK ana
ĠK Ä±
ĠK ate
ĠK alis
ĠK itty
ĠK eiji
ĠK enki
en ae
en ic
en ev
en cer
ĠA id
ĠA ina
ĠA CA
au ÃŃ
ĠTr u
ĠTr ag
ĠTr ias
ĠTr yon
Ġ20 7
Ġ20 50
al ick
ang eli
ĠD U
ĠD ang
ĠD Ã¢m
ĠD ot
ĠD ek
ĠD anc
ĠD arm
ĠD unn
ĠD Äħ
ĠD asy
ĠD uty
or in
or it
or ista
ĠG ed
ĠG ud
ĠG lad
ĠG inger
ĠG oku
ĠG ehr
ĠG mb
ĠG Friend
id in
ĠCh il
ĠCh áº¯c
ĠCh ian
ĠCh ew
ĠCh rom
ĠCh á»Ńng
ĠCh evalier
is ing
is ternus
es us
ĠPh Ã¡
ĠPh Ã¡c
ĠPh ok
el ater
at icus
at opsyche
eo is
ĠNg áºŃp
im Ã©t
im nophila
il ion
il iidae
Ã© ry
ol op
ol ica
ol uta
ol ulu
ol ocha
ĠR B
ĠR M
ĠR ao
ĠR ing
ĠR ig
ĠR ank
ĠR hiz
ĠR itchie
ic in
ic atum
as awara
Ġ3 21
Ġ3 75
Ġ3 89
Ġ3 48
Ġ3 43
os au
it age
et as
et ii
et ica
et land
om ai
om ama
um o
Ġxu i
em al
em aceae
em aker
ac ja
ac anthus
ac Ä±k
Ġ18 2
ĠE S
ĠE qu
ĠE va
ĠE ight
ĠE skaya
ĠE astern
ĠF O
ĠF it
ĠF ad
ĠF ell
ĠF ind
ĠF ram
ĠF org
ĠF rog
ĠF idel
ĠF erreira
Ġcon t
Ġcon sp
Ġcon vex
Ġ4 14
Ġ4 34
Ġ4 90
Ġ4 60
Ġ4 38
hi ye
Ġ5 10
Ġ5 85
Ġ5 82
ĠJ B
ĠJ al
ĠJ uz
ĠJ azz
ĠJ YP
th Æ¡
th áºŃp
th á»§y
th ly
ĠW R
ĠW ad
ĠW att
ĠW ho
ĠW anna
Th is
Th at
Th ÃŃch
Th Ã¡m
op y
op leur
op yga
le pt
Ġ6 20
Ġ6 22
Ġ6 88
re peira
ot ch
ot ina
ter bury
un ter
ag ed
ĠKh uy
ĠKh iÃªn
ĠKh áº¥u
ÄĲ o
ÄĲ ang
ÄĲ á»£t
od us
od ic
od icus
ak in
ak orn
ak rit
ĠO ry
Ġ7 28
ĠU M
ĠU man
ir os
tr Ã¬nh
tr Ã²
oc oc
oc actus
ov in
ov ice
ov ych
Ġ8 000
Ġ8 41
Ġ8 43
Ġlu tea
Tr ÃŃch
Ġ10 80
ed en
ig ia
ig ion
ig ona
Ġp inn
Ġp erd
Ġ9 11
ĠY uc
ĠY uki
ĠY velines
ĠGi ulia
amp t
Ġ12 88
ab ang
ab ab
ab all
19 00
19 11
19 62
19 07
ell eri
ne e
ne k
ne cht
ĠAn ast
ap oderus
ens ac
ro ft
Ch em
Ch eum
ip o
ip ar
ip ogon
ip inski
ip uncta
Ġso ft
Ġf t
Ġf ab
Ġf ans
Ġf ull
Ġf olk
Ġf eed
og or
og ue
og ether
og uttatus
og omphus
ry i
iv ostok
ine z
ine um
Ph u
Ph ot
Ph áº«u
ian Ã´
ian eira
Ãµ es
st age
ina x
ĠMar r
Ġ17 29
Ġ17 64
Ġ17 65
Ġ17 02
ĠAl one
ĠAl lan
ĠAl ston
Ġsu t
Ġsu ff
if us
ut z
ut ia
ut ing
ut ton
yl er
Ġ15 71
Ġ15 96
Ġ15 93
all aga
Nh Ã¡nh
Nh á»Ľ
ev i
ev itch
sk n
sk ia
sk Ã©
ĠGia com
ber i
ber hard
ud i
ĠLe p
ĠLe ng
ĠLe ete
ĠLe eds
of en
ĠZ i
ĠZ el
ĠZ av
ĠZ ven
io ideae
ĠBr u
ĠBr ay
ĠBr ock
ĠBr iq
Ġ16 58
Ġ14 34
Ġ14 60
Ġ14 40
Ġ14 69
Äĳ en
Äĳ au
az olam
Ġto Ã¡i
eg ia
ri ya
ri Ã¨re
ĠSh Å«
ĠSh emy
ĠSh ueisha
Ġal ternative
ep us
ep tic
eb sk
Ġ13 74
est ar
est ig
est amp
Ġin tr
ist us
oh yphantes
ym o
oph ia
oph aga
oph anes
yr ick
up skaya
Sau s
Ġ30 7
ib ol
Ġru fa
art ita
18 2
18 89
18 52
18 96
ĠCr us
ĠCr isp
end ens
ĠGr at
ĠCon f
ĠCon ein
ind i
Ġ25 7
Ġ25 00
ast ium
kh o
kh Ã¡
kh an
kh ar
ĠEl on
ĠQ Ä±rÄ±m
yp ta
Ġw olf
ation ale
ox ylon
ox yanat
tu á»ķi
ĠSch um
ĠSch aff
ĠSch iffner
yn n
era x
och ila
ĠAs tron
ĠAs ellidae
ĠAs clep
ĠAm p
ĠAm ur
ĠSer i
ĠSer gei
ĠPhil osc
16 6
16 8
16 20
12 8
Ã¶ v
ost emaceae
Ä± z
Ä± lar
17 5
17 6
17 8
ipp a
br uck
Ġ28 1
Ġ28 2
Ġ28 5
Ġ28 7
Ġ28 9
sh u
Ġ26 8
se ong
ett ia
eth in
An na
An ypha
ĠMan it
ĠCl an
ĠCl eom
ĠCl int
ĠCar ab
ĠCar bon
ff en
ĠSc ratch
ĠCan al
ĠSp eyer
Ar k
Ar gi
ĠGu ine
ĠGu etta
aka jima
Ġgh e
Ġgh áº¹o
14 7
ĠRe ut
St ate
St age
rid es
ĠMal ibu
ĠMal mai
30 8
ĠJohn st
old i
Ġnhu áº§n
ĠMad man
ĠUn ic
Ġ40 6
Al c
Al s
Ġpr im
rad e
ose chi
oth rix
ĠIs mail
ars a
esia s
Pr Ã¼m
ĠEn igma
ĠEd die
ĠAd en
ĠAd dis
24 6
ĠPhilipp in
ĠKr u
ĠKr ai
ĠKr upskaya
ĠBer z
aj o
ĠPol k
ĠPol ska
ĠMc Vaugh
ãĥ ¬
ãĥ ĩ
uz a
uz z
ull gren
ĠHer vey
ĠHer cules
ĠHar ari
ĠPer d
ĠOs ter
ĠSm il
ĠSm ash
Tham n
ĠNe umann
à¸ Ī
ĠDi arm
ĠGre uter
ee ch
22 6
li u
ĠPal i
unt ing
ĠTok ushima
ĠTok yopop
ĠDav y
ĠSl ipinski
ĠHal le
yg us
ĠMe ier
ĠMe yrick
ĠMos es
ĠMac on
ĠMac Book
ĠKaz ants
85 2
ĠMus emin
As ota
ĠSe ason
ĠSe arch
uro ides
Br ug
Br ett
ih a
ih or
ih alli
In ternet
ĠHe ph
ĠHe id
ĠHe ather
ĠHe alth
eck eler
Ac r
ĠBen fica
ron ych
Ġ35 3
Ġ35 5
Ġ35 7
ĠStr oh
ĠBel gorod
ĠMil osevic
pt ion
ĠBur eau
ĠFre der
ĠTim my
ĠEm iya
ĠEm ilio
Sh ar
Sh eldon
ĠIt Åį
ĠHam gy
ĠJe Å¡t
ĠMa as
Äģ s
Ġpl uton
ĠGo ethe
47 2
ĠSouth east
Sch ist
istan ce
ush cr
Ġ80 2
ĠÐ ¿
ĠÐ ĳ
ĠÐ ļ
Sc leria
mar u
Ġ33 9
Cl usia
Cal adenia
Cal athea
Ġam ip
ĠLy thr
Mar ch
Mar io
Ã©r ard
ram anmara
ele on
ĠMÃ© chain
86 1
ĠAir Asia
raz ine
83 2
ãģ ı
ĠMont mart
osh in
ĠAg u
39 9
Ġcal yc
ĠNap les
ĠGar eth
Ġser icea
cel ia
55 7
ĠMark et
anc ourt
anc uronium
99 3
imm ler
Ġ36 2
OS S
Ã¤ s
ĠLin aceae
Ġi Pad
ĠJack lyn
uv oton
ĠLang uage
ĠGh ost
any u
ĠMin erva
38 2
isp ina
Ðµ Ñģ
ĠGl ass
ĠGl iese
Ð½ Ð¾
ĠCap tain
Pl us
ĠMer hotepre
Ġ47 6
ĠLuc a
ĠLuc e
ĠHug uen
Ep ineph
rat ilova
ĠJul io
ĠAngel o
Ġar ab
fl ower
unc us
ĠAc re
ĠEx change
ther ford
Ġpar va
eng oku
ĠAk ihito
ĠAk tobe
Ġgen us
ĠPo it
ĠPo epp
ĠArm and
oda phne
Ġz illii
ĠMax well
str um
str uct
ĠRos al
ĠSimon ov
aro que
åħ ĭ
ĠMic ro
ĠZh uk
estr o
Ð¾Ð ³
ĠNhu á»ĩ
van it
Ġsc abr
ĠSai gÅį
05 1
ĠSang a
ĠNov ara
ĠHir tz
Ġnig ra
Ag ri
Ġkhá»© u
ĠLind enb
ĠVlad ivostok
All oph
ĠPi auÃŃ
ĠKl aus
ĠSar the
ĠSar awak
yx is
ĠVer on
ĠDom en
roph yllum
Ġsch mid
ĠWood son
ĠWood bridge
Ġpol yc
Ġnit ens
ĠNav ratilova
Cor inna
Mac rom
Ġper plex
ĠCarib Ãª
ÃŁ en
Cer cop
Cer astium
eni Ã³w
rh idae
mi ya
iat ion
åŃ «
åŃ ¸
Ġmic roc
ĠTen erife
ĠRock efeller
ĠBulg akov
Dr aba
And re
ĠHel in
ĠZap orozh
aun ton
ident ata
cl us
abr us
Gl yc
äº ĭ
arag od
Ste atoda
Ä« r
Ġé ĩ
ĠAnn onaceae
ĠJoh an
ĠYam azaki
ĠBat angas
oceph alidae
Em b
Ne ur
ĠGold water
ĠÃĩ ay
zon al
ĠPe arl
ĠNad ia
Arg yrodes
Ġ? )
Ġ? ),
Mu á»ĳn
ĠCN N
Ġruf ipes
Euph r
ĠCre use
ĠPod ostemaceae
ĠKenn y
ĠKho Ã¡i
ĠVerd y
ĠGoth a
ĠPlat inum
ĠLand o
ĠAh n
æľ Ī
ĠBall ard
ĠBall apur
Is rael
Wh it
ser ver
ĠBoy acÃ¡
ĠGill es
ĠGill ingham
agan ovich
åį ģ
ĠKat z
ĠWes oÅĤ
ĠGol eniÃ³w
Ġap icalis
Ġfl ag
Ġfl ab
ukh ov
esp a
ĠHa akon
ĠColle ction
ĠAeg ea
ĠProd uce
Ath ous
oloph us
Fl ower
ĠHor st
ĠHor ii
ĠEast wood
Cyrt opogon
Bal ao
Bal art
ÈĻ i
åı ²
ĠMaj or
ĠRost is
ĠSzczec inek
Euc era
ocer os
ĠPot ter
Ġserv ant
Lind b
à¹ Ī
Ġneu trino
sud an
ĠSom erset
aig n
Ang r
Ang el
ĠGall ery
ĠTun celi
ĠBou lenger
ĠPau la
ĠMol otov
ĠKos kin
Ġund er
ĠHond a
rod ite
å· Ŀ
ĠDong hae
Cast anopsis
Cast ianeira
Ġret iculata
ĠPrinc ess
Ð¸Ñ ı
cr oss
vent ion
ĠMind oro
ĠPÃ© trus
ĠSv yat
trich ia
Dia brotica
ĠRic c
ĠOliv idae
Eri ocaulon
á¹ ĩ
ĠNeg an
ĠNeg ros
atter as
ĠAbd el
Her zog
var ez
áŀ ¶
Ġdr iver
ĠSeg eberg
ĠSund ay
ĠCE ST
ĠOh wi
ĠKas zab
ĠRem ote
ĠOg asawara
Austr alia
xi Ã´
ĠCab ot
ĠBac an
ĠMS NBC
ĠVers ion
ĠVers io
ĠRid ley
ĠRodr igo
ä½ ¿
arre al
ĠVH S
imet us
ĠUd ine
Ġae lleni
ĠTem ple
ĠVis ayas
ĠVinc i
Ġep inephrine
ĠCS KA
Cop el
hy un
Ġacet ic
ĠGeo ff
ĠAlt ai
Ġfil iformis
ĠHyd robios
augh t
æĹ ı
ĠFerm at
Ġpil osa
AL GOL
Jac q
Ts IK
ĠCost ellariidae
ĠSebast iÃ¡n
[...]
