{"<|endoftext|>":0,"!":1,"\"":2,"#":3,"$":4,"%":5,"&":6,"'":7,"(":8,")":9,"*":10,"+":11,",":12,"-":13,".":14,"/":15,"0":16,"1":17,"2":18,"3":19,"4":20,"5":21,"6":22,"7":23,"8":24,"9":25,":":26,";":27,"<":28,"=":29,">":30,"?":31,"@":32,"A":33,"B":34,"C":35,"D":36,"E":37,"F":38,"G":39,"H":40,"I":41,"J":42,"K":43,"L":44,"M":45,"N":46,"O":47,"P":48,"Q":49,"R":50,"S":51,"T":52,"U":53,"V":54,"W":55,"X":56,"Y":57,"Z":58,"[":59,"\\":60,"]":61,"^":62,"_":63,"`":64,"a":65,"b":66,"c":67,"d":68,"e":69,"f":70,"g":71,"h":72,"i":73,"j":74,"k":75,"l":76,"m":77,"n":78,"o":79,"p":80,"q":81,"r":82,"s":83,"t":84,"u":85,"v":86,"w":87,"x":88,"y":89,"z":90,"{":91,"|":92,"}":93,"~":94,"¡":95,"¢":96,"£":97,"¤":98,"¥":99,"¦":100,"§":101,"¨":102,"©":103,"ª":104,"«":105,"¬":106,"®":107,"¯":108,"°":109,"±":110,"²":111,"³":112,"´":113,"µ":114,"¶":115,"·":116,"¸":117,"¹":118,"º":119,"»":120,"¼":121,"½":122,"¾":123,"¿":124,"À":125,"Á":126,"Â":127,"Ã":128,"Ä":129,"Å":130,"Æ":131,"Ç":132,"È":133,"É":134,"Ê":135,"Ë":136,"Ì":137,"Í":138,"Î":139,"Ï":140,"Ð":141,"Ñ":142,"Ò":143,"Ó":144,"Ô":145,"Õ":146,"Ö":147,"×":148,"Ø":149,"Ù":150,"Ú":151,"Û":152,"Ü":153,"Ý":154,"Þ":155,"ß":156,"à":157,"á":158,"â":159,"ã":160,"ä":161,"å":162,"æ":163,"ç":164,"è":165,"é":166,"ê":167,"ë":168,"ì":169,"í":170,"î":171,"ï":172,"ð":173,"ñ":174,"ò":175,"ó":176,"ô":177,"õ":178,"ö":179,"÷":180,"ø":181,"ù":182,"ú":183,"û":184,"ü":185,"ý":186,"þ":187,"ÿ":188,"Ā":189,"ā":190,"Ă":191,"ă":192,"Ą":193,"ą":194,"Ć":195,"ć":196,"Ĉ":197,"ĉ":198,"Ċ":199,"ċ":200,"Č":201,"č":202,"Ď":203,"ď":204,"Đ":205,"đ":206,"Ē":207,"ē":208,"Ĕ":209,"ĕ":210,"Ė":211,"ė":212,"Ę":213,"ę":214,"Ě":215,"ě":216,"Ĝ":217,"ĝ":218,"Ğ":219,"ğ":220,"Ġ":221,"ġ":222,"Ģ":223,"ģ":224,"Ĥ":225,"ĥ":226,"Ħ":227,"ħ":228,"Ĩ":229,"ĩ":230,"Ī":231,"ī":232,"Ĭ":233,"ĭ":234,"Į":235,"į":236,"İ":237,"ı":238,"Ĳ":239,"ĳ":240,"Ĵ":241,"ĵ":242,"Ķ":243,"ķ":244,"ĸ":245,"Ĺ":246,"ĺ":247,"Ļ":248,"ļ":249,"Ľ":250,"ľ":251,"Ŀ":252,"ŀ":253,"Ł":254,"ł":255,"Ń":256,"á»":257,"áº":258,"Ġt":259,"ng":260,"Ġc":261,"Ãł":262,"ĠÄ":263,"ĠÄĳ":264,"nh":265,"Ġv":266,"Ġl":267,"Æ°":268,"Ġth":269,"Ã¡":270,"Ġh":271,"Æ°á»":272,"Ġm":273,"Ġtr":274,"á»Ļ":275,"Ġb":276,"Ġn":277,"Ġch":278,"iá»":279,"Ġk":280,"Ġs":281,"áº¿":282,"Ãª":283,"Ġnh":284,"áº¡":285,"Ã´":286,"áº£":287,"Ã³":288,"ĠvÃł":289,"ĠlÃł":290,"Ã¢":291,"Ġd":292,"ph":293,"Ġg":294,"Ġkh":295,"á»ĳ":296,"á»§":297,"ĠT":298,"Ġng":299,"Ġph":300,"Ãªn":301,"Äĥ":302,"Ã¡c":303,"Æ°á»£":304,"á»Ļt":305,"áºŃ":306,"á»į":307,"áº¥":308,"Ġcá»§":309,"Ġcá»§a":310,"ong":311,"iá»ĩ":312,"Ġmá»Ļt":313,"Æ°á»£c":314,"Ġ1":315,"Ã´ng":316,"á»ĭ":317,"an":318,"ĠÄĳÆ°á»£c":319,"áº§":320,"qu":321,"Äĥm":322,"ĠC":323,"Ġqu":324,"oÃł":325,"Æ¡":326,"á»±":327,"ĠN":328,"Ġtrong":329,"ÃŃ":330,"Ã¢n":331,"iáº¿":332,"Æ°á»Ŀ":333,"ĠnÄĥm":334,"Ãły":335,"Ġvá»":336,"Ġhá»į":337,"Ã£":338,"Ġtá»":339,"áº¡i":340,"ĠL":341,"Ľi":342,"ĠcÃ³":343,"uy":344,"á»Ł":345,"ĠH":346,"Ã¬":347,"ĠcÃ¡c":348,"Ġgi":349,"á»©":350,"iÃªn":351,"Ġr":352,"ch":353,"oÃłi":354,"Ġx":355,"ĠÄĳá»":356,"ĠB":357,"er":358,"ĠM":359,"áº¥t":360,"Ġ2":361,"ĠÄĲ":362,"ĠS":363,"Ãłnh":364,"on":365,"am":366,"Ġ(":367,"Ġ\"":368,"áº§u":369,"ĠnÃły":370,"oa":371,"Æ°á»Ŀi":372,"áº¯":373,"á»¯":374,"in":375,"Ãº":376,"Ġthá»":377,"ar":378,"ĠP":379,"Ã¹":380,"Æ°á»Ľ":381,"Ã¬nh":382,"ĠÄĳÃ£":383,"ĠTh":384,"ĠngÆ°á»Ŀi":385,"á»¥":386,"Ã²":387,"iá»ģ":388,"Ġvá»Ľi":389,"Ã¡ng":390,"Ġá»Ł":391,"Ġ19":392,"á»±c":393,"ĠV":394,"ai":395,"Æ°Æ¡":396,"á»ĩ":397,"ĠK":398,"en":399,"inh":400,"áºŃt":401,"Æ°Æ¡ng":402,"á»Ļc":403,"iá»ĥ":404,"Ġcho":405,"ĠA":406,"áº·":407,"au":408,"áº§n":409,"ĠloÃłi":410,"iá»ĩn":411,"ĠÄĳáº§u":412,"ay":413,"Ġsá»ĳ":414,"ĠÄĳá»Ļ":415,"Ġhá»įc":416,"ia":417,"ung":418,"Ġthu":419,"ĠTr":420,"ĠvÃło":421,"á»ĵ":422,"Ġ20":423,"áºŃn":424,"ÃŃnh":425,"á»ĳc":426,"áº¿n":427,"á»ķ":428,"al":429,"Æ°á»Ŀng":430,"áº£i":431,"Æ°á»Ľc":432,"iáº¿n":433,"ang":434,"ĠD":435,"or":436,"anh":437,"Ġtá»«":438,"áº£n":439,"ao":440,"iá»ģu":441,"Ã¢y":442,"Ġngh":443,"á»©c":444,"ĠG":445,"ĠthÃ¡ng":446,"Ã¹ng":447,"ĠthÃłnh":448,"id":449,"ĠnhÆ°":450,"á»Ń":451,"ĠCh":452,"á»¯ng":453,"ae":454,"Ŀi":455,"áº±":456,"ĠphÃ¡":457,"áºŃp":458,"is":459,"ĠkhÃ´ng":460,"ĠÄĳáº¿n":461,"es":462,"ĠÄĳÃ³":463,"á»ĳi":464,"Å©":465,"Ġgiá»":466,"ĠPh":467,"Ġnhá»¯ng":468,"Ġkhi":469,"áº¿t":470,"el":471,"at":472,"iÃª":473,"Ġtáº¡i":474,"á»ģ":475,"Ġtáº£":476,"eo":477,"us":478,"Ä©":479,"ĠngÃły":480,"ĠNg":481,"Qu":482,"Ġra":483,"ĠtiÃªn":484,"im":485,"Ġthá»ĥ":486,"Ġkhoa":487,"iá»ĩt":488,"Æ¡n":489,"Ã¡nh":490,"ĠÃ":491,"ĠQu":492,"ĠcÃ´ng":493,"Ġvá»ģ":494,"ĠÄĳá»ĭ":495,"Ġlá»":496,"ĠÄĳá»ĥ":497,"ĠváºŃt":498,"ĠNh":499,"Ġthá»±c":500,"áº±ng":501,"Ã¡i":502,"Ġbá»ĭ":503,"il":504,"Ã©":505,"Ãłi":506,"ol":507,"ĠchÃŃnh":508,"iáº¿t":509,"á»Ļi":510,"Ġsá»±":511,"ĠLoÃłi":512,"ĠÃ´ng":513,"Ġthuá»Ļc":514,"ĠtrÃªn":515,"ĠR":516,"á»ĳng":517,"áº·c":518,"ic":519,"á»ī":520,"Ġho":521,"áº£ng":522,"á»ģn":523,"Äĥng":524,"Ã¢u":525,"Ġsau":526,"Å©ng":527,"iÃªu":528,"ĠdÃ¢n":529,"as":530,"ĠquÃ¢n":531,"ĠmÃ´":532,"ÃŃch":533,"Ã¡o":534,"idae":535,"Ġcu":536,"ĠnhÃł":537,"á»ı":538,"Ã¡n":539,"oÃłn":540,"á»£":541,"á»¥c":542,"00":543,"Ġgia":544,"Ġ3":545,"ĠÄĳá»Ļng":546,"Ġláº¡i":547,"ĠlÃłm":548,"áº¡t":549,"os":550,"Ġtiáº¿":551,"áº¯c":552,"ĠcÅ©ng":553,"Ã½":554,"Ġthá»Ŀi":555,"uyá»ĩ":556,"it":557,"ur":558,"Ġ201":559,"et":560,"ĠnÃ³":561,"iá»ĩu":562,"á»©ng":563,"áº¡o":564,"Ãło":565,"om":566,"áº£o":567,"Ġsá»Ń":568,"ĠkhÃ¡c":569,"áº©":570,"ĠI":571,"Ã¢m":572,"á»ĥ":573,"ĠnÆ°á»Ľc":574,"Æ°á»£ng":575,"Ġnháº¥t":576,"um":577,"Ġhiá»ĩn":578,"á»ĭch":579,"áº¥n":580,"Ġcáº£":581,"uyÃªn":582,"ĠhÃłnh":583,"Ãłng":584,"Ġquy":585,"iá»ĩc":586,"áº¡n":587,"Ġxu":588,"Ãºc":589,"Äĥn":590,"em":591,"Ġnhiá»ģu":592,"iá»ĥn":593,"ĠNam":594,"uyá»ĩn":595,"ĠphÃ¡t":596,"ħn":597,"ĠÄĳá»ĵ":598,"áº¯t":599,"Ġbá»Ļ":600,"ac":601,"á»³":602,"Ġhoa":603,"áº«":604,"iá»ĥu":605,"Ã¡p":606,"Ã²n":607,"Ġdá»¥":608,"áº¡c":609,"ĠmÃł":610,"Ã²ng":611,"Ġchá»ī":612,"iá»ĥm":613,"áº¥y":614,"Æ¡i":615,"Ġtheo":616,"áº¥u":617,"Ġhai":618,"Ã¡t":619,"áº¥p":620,"Ġviá»ĩc":621,"Ġ18":622,"Ã´i":623,"Ġquá»ĳc":624,"Ãºng":625,"Æ°á»Ł":626,"Âł":627,"Ã´n":628,"oáº¡i":629,"Æ°á»Łng":630,"ĠnhÃ¢n":631,"áº·t":632,"ĠE":633,"),":634,"Ġ200":635,"ĠF":636,"Ġcon":637,"Ġtháº¿":638,"Ġquan":639,"Ġ4":640,"ĠcÃ¹ng":641,"hi":642,"áº¡ng":643,"ĠhÆ¡n":644,"Ġthá»ĭ":645,").":646,"Ġchiáº¿n":647,"Ġ5":648,"ĠÄĳá»ģ":649,"ĠJ":650,"Ġdá»¥ng":651,"á»Łi":652,"ad":653,"ĠxÃ£":654,"á»Ļng":655,"th":656,"ĠÄĳá»ĭnh":657,"ĠQuá»ĳc":658,"Ġlá»Ľ":659,"ĠW":660,"Ġthá»©":661,"Ġmá»":662,"Ġvá»ĭ":663,"áº½":664,"īnh":665,"Ġdo":666,"ĠhÃ¬nh":667,"Ġxuáº¥t":668,"ĠviÃªn":669,"á»ķi":670,"iá»ģn":671,"Th":672,"iá»ĩp":673,"ĠÄĳá»ĵng":674,"ĠcÃ²n":675,"ĠTrung":676,"ĠcÃ¡ch":677,"Ġsinh":678,"á»«":679,"âĢ":680,"op":681,"áº«n":682,"Ġkhu":683,"le":684,"á»£p":685,"ĠX":686,"Ã³ng":687,"Ġchá»§":688,"and":689,"Ġcuá»Ļc":690,"ĠphÃŃ":691,"ul":692,"Ġtá»ķ":693,"ĠmiÃªu":694,"Ġbáº£n":695,"Ġtrá»Ł":696,"Ġtá»īnh":697,"ĠláºŃp":698,"iá»ħn":699,"Ġráº±ng":700,"ĠÄĳá»Ļi":701,"Ġtá»±":702,"\".":703,"ĠtÃªn":704,"ĠnhÆ°ng":705,"Ã¡ch":706,"Ġhá»£p":707,"Ġ6":708,"Ġdá»±":709,"re":710,"á»įi":711,"ĠViá»ĩt":712,"Ġgiá»Ľi":713,"ĠÄĳiá»ĥm":714,"Ġgiáº£i":715,"Ġpháº§n":716,"ot":717,"Ġbáº±ng":718,"Ġkáº¿t":719,"Æ°a":720,"Ġhá»Ļi":721,"ĠtrÆ°á»Ľc":722,"Ġgiá»¯":723,"ĠnháºŃn":724,"Ġbá»Łi":725,"á»ĥn":726,"Ġy":727,"iá»ĩm":728,"ter":729,"Ġlá»Ľn":730,"ĠÄĳáº¡i":731,"Ãªm":732,"Ġpháº£i":733,"un":734,"ag":735,"Ġchá»©c":736,"Ãłn":737,"ĠtrÆ°á»Ŀng":738,"Ġcao":739,"ĠtrÃ¬nh":740,"ĠKh":741,"á»ĵm":742,"Ġhoáº·c":743,"Ã³a":744,"ÄĲ":745,"ĠphÃŃa":746,"Ġkho":747,"ĠthÆ°á»Ŀng":748,"ĠvÃ¹ng":749,"Ġthá»§":750,"ĠlÃ½":751,"Ġgá»ĵm":752,"uyá»ĥn":753,"Ġsáº£n":754,"Ã²a":755,"Ġthá»ĳng":756,"á»¹":757,"Ġtiáº¿p":758,"ĠÄĳiá»ģu":759,"od":760,"á»ĳn":761,"ĠlÆ°á»£ng":762,"ĠphÃ¢n":763,"Ä©a":764,"Ġqua":765,"Ġsáº½":766,"\",":767,"ak":768,"ĠO":769,"ĠcÆ¡":770,"ĠAnh":771,"Ġ7":772,"Ġtáº¿":773,"Ġloáº¡i":774,"uyá»ģn":775,"ĠU":776,"á»ĵng":777,"Æ°á»Ľng":778,"ua":779,"Ġtrung":780,"ĠtÃ¡c":781,"ĠlÃªn":782,"á»ĵi":783,"Ġvá»¥":784,"ĠHoa":785,"Ġtu":786,"áºŃu":787,"Ġchiáº¿":788,"ir":789,"Ġtiáº¿ng":790,"tr":791,"oc":792,"Ġdiá»ħn":793,"Ġsá»ĳng":794,"ĠÄĳi":795,"Ġ199":796,"ĠtÃŃnh":797,"Ġbáº¯t":798,"ĠÄĳá»ĳi":799,"Ġhuyá»ĩn":800,"Ġbao":801,"Ġtrá»ĭ":802,"ov":803,"Ġ8":804,"Ġlu":805,"ĠÄĳáº¥u":806,"ĠKá»³":807,"á»Ĺ":808,"ĠhÃłng":809,"ĠthÃ´ng":810,"Tr":811,"ĠvÃ¬":812,"Ġgá»įi":813,"ĠtÃŃch":814,"áº©m":815,"Ġhá»ĩ":816,"Ġnghiá»ĩp":817,"Ġ-":818,"ĠmÃ¬nh":819,"Ãłu":820,"Ġquyá»ģn":821,"Ġlá»±c":822,"Ġtáº¡o":823,"Æ°u":824,"áº¯ng":825,"Ġ10":826,"áº»":827,"ĠnhiÃªn":828,"oÃłng":829,"áº±m":830,"ing":831,"áº¡ch":832,"ed":833,"ig":834,"ĠtráºŃn":835,"Ġláº§n":836,"ĠÄĳÃ¡nh":837,"Ġphá»ĳ":838,"Ġvá»±c":839,"Ġcáº¥p":840,"Ġp":841,"Ġ9":842,"Ġphim":843,"Ġmá»Ľi":844,"ĠÄĳá»ĭa":845,"áº¿u":846,"Ã¡y":847,"ĠÄĳÆ°á»Ŀng":848,"Ġanh":849,"ĠÄĳá»ķ":850,"Æ°á»Ľi":851,"ĠY":852,"áº¯n":853,"ĠgiÃ¡":854,"ĠGi":855,"ĠhÃ³a":856,"Ġthá»©c":857,"amp":858,"Ġ12":859,"Ġcáº§u":860,"ĠcÃ¡nh":861,"ĠsÄ©":862,"Ġchuyá»ĥn":863,"ĠÄĲá»©c":864,"ĠtáºŃp":865,"Ġdiá»ĩn":866,"Ġná»¯":867,"âĢĵ":868,"Ġtranh":869,"ĠchÃºng":870,"ĠÄĲáº¡i":871,"ĠPhÃ¡p":872,"Ġkhoáº£ng":873,"av":874,"Ġtham":875,"ĠTÃ¢y":876,"ĠnÃªn":877,"ĠphÃ¡p":878,"Ġcá»©":879,"á»ĩnh":880,"ĠÄĳoÃłn":881,"áº£nh":882,"Ġchi":883,"á»įng":884,"ĠthÃ¬":885,"ab":886,"ĠliÃªn":887,"Ng":888,"á»ĳt":889,"ĠtÃłu":890,"Ãªu":891,"ĠgiÃ¡o":892,"áº¡nh":893,"Ġcá»Ń":894,"ĠcÃ´":895,"ĠÄĳÃªm":896,"Ġtháº¥y":897,"Ġhay":898,"Ġgian":899,"19":900,"Ġnháº¡c":901,"Ã¹a":902,"ion":903,"Ġbá»ĳ":904,"áº¹":905,"ĠvÄĥn":906,"Ġtá»Ľi":907,"eae":908,"Ġhoáº¡t":909,"ĠÄĳÃ¢y":910,"ell":911,"ĠnghÄ©a":912,"áº¡m":913,"ne":914,"ĠtrÃŃ":915,"Ġgiáº£":916,"Ġmáº·t":917,"ich":918,"ĠtoÃłn":919,"Ã¨":920,"Ġhiá»ĩu":921,"ĠAn":922,"á»Ŀ":923,"Ġráº¥t":924,"ĠphÆ°Æ¡ng":925,"Ġtruyá»ģn":926,"ĠnÄĥng":927,"ĠCÃ¡c":928,"Ġban":929,"Ġnhau":930,"ĠTrong":931,"ĠÄĳÃ¡":932,"Ķng":933,"Ġbiá»ĥn":934,"ĠLan":935,"ĠtÄĥng":936,"ap":937,"Ġká»³":938,"ĠÄĳáº¡o":939,"Ġ11":940,"Ġgiá»¯a":941,"Ġtá»Ń":942,"Ġbiá»ĩt":943,"á»ĵn":944,"Ġbá»į":945,"Ġdanh":946,"ĠNÄĥm":947,"Ġkinh":948,"ĠÄĳÃ´":949,"Ġbang":950,"Ġtriá»ĥn":951,"ens":952,"Ġ198":953,"ro":954,"Ch":955,"ie":956,"ĠtÃ¢m":957,"20":958,"Ġnam":959,"te":960,"ĠmÃ¡y":961,"ip":962,"ĠnÆ¡i":963,"áº§m":964,"ĠMá»¹":965,"ĠÄĳá»ķi":966,"Ġcháº¿":967,"ĠÄĳáº¥t":968,"..":969,"Ġcháº¥t":970,"Ġthiáº¿t":971,"ĠÄĳáº·c":972,"Ã©p":973,"ĠbÃ¬nh":974,"Æ°á»Ľm":975,"ĠÄĳang":976,"ra":977,"Ġcá»©ng":978,"á»Ŀi":979,"Ġcuá»ĳi":980,"ĠdÃłi":981,"ĠÄĳo":982,"Ġ194":983,"ĠbÆ°á»Ľm":984,"ĠdÆ°á»Ľi":985,"Ġso":986,"á»·":987,"Ġnáº±m":988,"Ã³m":989,"ĠbÃ³ng":990,"ĠnguyÃªn":991,"km":992,"Æ°ng":993,"á»įc":994,"Ġnhiá»ĩm":995,"ec":996,"Ã¬m":997,"Ġtá»¥":998,"Ġpháº©m":999,"ĠtÆ°":1000,"ĠÄĳÆ¡n":1001,"ĠthuáºŃt":1002,"Ġthay":1003,"Ġáº£nh":1004,"ill":1005,"ĠbÃ¡o":1006,"Ġváº«n":1007,"ĠBáº¯c":1008,"ĠchÆ¡i":1009,"Ġchu":1010,"ĠÃ½":1011,"Ġba":1012,"ĠNÃ³":1013,"Ġkáº¿":1014,"ĠnÃ³i":1015,"Ġbáº£o":1016,"Ġ197":1017,"ĠSau":1018,"ĠÃ¢m":1019,"Ġf":1020,"Ġbiáº¿t":1021,"Ġbiáº¿n":1022,"Ġbay":1023,"Ġthi":1024,"Ãºt":1025,"Ã©t":1026,"ĠchÃ¢u":1027,"og":1028,"ĠsÃ¡ng":1029,"Ġcá»©u":1030,"Ġphá»§":1031,"ĠLiÃªn":1032,"ĠÄĳá»ģu":1033,"ow":1034,"Ġdá»ĭch":1035,"ĠÃĶng":1036,"á»ķng":1037,"ta":1038,"ob":1039,"ĠphÃ²ng":1040,"uyáº¿n":1041,"Ġtin":1042,"ĠThÃ¡i":1043,"ou":1044,"ĠsÃ¡ch":1045,"Ġtrá»įng":1046,"ĠtÃ¬nh":1047,"ĠÄĳáº·t":1048,"ĠlÃ£":1049,"Ġtiá»ĥu":1050,"ĠNháºŃt":1051,"Ġgáº§n":1052,"ĠthÃ¢n":1053,"ĠtrÆ°á»Łng":1054,"uyáº¿t":1055,"Ġmá»¥c":1056,"ĠÄĲÃ´ng":1057,"á»ıi":1058,"ry":1059,"iv":1060,"ĠtÃłi":1061,"ĠtiÃªu":1062,"ine":1063,"ĠtÃ¬m":1064,"Ġtiáº¿n":1065,"Ph":1066,"ĠÄĳiá»ĩn":1067,"Ġnhá»ı":1068,"ĠngoÃłi":1069,"ent":1070,"ĠtÆ°Æ¡ng":1071,"Ġbu":1072,"ian":1073,"ĠbÃłi":1074,"ĠdÃ¹ng":1075,"Ġ&":1076,"Ġtá»ķng":1077,"Ġta":1078,"ĠCÃ´ng":1079,"áº©n":1080,"ĠÄĥ":1081,"Ġbiá»ĥu":1082,"Ãµ":1083,"ĠÄĥn":1084,"iáº¿u":1085,"ard":1086,"ĠÄĳÆ°a":1087,"Ġ196":1088,"á»ħn":1089,"uyá»ħn":1090,"Ġphong":1091,"Ġlá»ĭch":1092,"Ġviáº¿t":1093,"ĠhÃ²a":1094,"Ġná»ķi":1095,"Ġtá»¥c":1096,"ĠbÃªn":1097,"Ã¡m":1098,"ĠÄĳá»Ŀi":1099,"000":1100,"ĠÄĳÃ¬nh":1101,"áºŃy":1102,"ik":1103,"ĠÃģ":1104,"Ġphá»¥c":1105,"Ġtinh":1106,"ĠnháºŃp":1107,"Ġdáº«n":1108,"CÃ¡c":1109,"Ġtuá»ķi":1110,"Ġmang":1111,"ĠcÃ¢u":1112,"NÄĥm":1113,"ĠháºŃu":1114,"Ġquyáº¿t":1115,"ĠÄĳáº£o":1116,"Ġáº":1117,"Ġquáº£":1118,"á»«ng":1119,"Ġnay":1120,"st":1121,"ina":1122,"áº³":1123,"ok":1124,"ĠtÆ°á»Ľng":1125,"Ġhá»Ļ":1126,"ĠMar":1127,"á»įn":1128,"ĠnhÃ³m":1129,"Ġtá»«ng":1130,"ĠmÃłu":1131,"ĠSt":1132,"ĠvÃ´":1133,"ĠmÃ¹a":1134,"Ġká»·":1135,"Ġ17":1136,"áº£y":1137,"ĠÄĳÃ´ng":1138,"ĠAl":1139,"Ġsu":1140,"Ġtrang":1141,"ĳng":1142,"áº¡p":1143,"Ġá»©ng":1144,"Ġyáº¿u":1145,"Ġbá»ı":1146,"Ġtháº¯ng":1147,"ĠsÃ¡t":1148,"ĠBá»Ļ":1149,"Ġbáº¯c":1150,"ĠcÃ¡":1151,"oi":1152,"Ãºp":1153,"ĠhoÃłn":1154,"Ġliá»ĩu":1155,"Ġtháº§n":1156,"Ġrá»Ļng":1157,"Ġsá»Ł":1158,"Ġtiá»ģn":1159,"Ġviá»ĩn":1160,"Ġláº¡c":1161,"ĠbÃł":1162,"Ġmiá»ģn":1163,"Ġgiao":1164,"if":1165,"ĠAr":1166,"ĠNguyá»ħn":1167,"ut":1168,"Ġbáº¥t":1169,"Ġvua":1170,"Ġca":1171,"aceae":1172,"ĠquÃ¡":1173,"ĠkhÃŃ":1174,"Ġxe":1175,"yl":1176,"Ġdá»±ng":1177,"áº³ng":1178,"ĠHáº£i":1179,"ĠnÃło":1180,"Ġphá»¥":1181,"ĠMá»Ļt":1182,"ew":1183,"Ġ15":1184,"Ġ195":1185,"Â²":1186,"ĠthÆ°Æ¡ng":1187,"ĠBáº£n":1188,"all":1189,"ĠDÆ°Æ¡ng":1190,"ĠVÄĥn":1191,"ĠdÃ¹":1192,"á»§y":1193,"ĠTuy":1194,"Nh":1195,"Ġnghá»ĩ":1196,"Ä©nh":1197,"ĠchÆ°Æ¡ng":1198,"ĠHÃł":1199,"Ġtáº¥n":1200,"ĠxÃ¢y":1201,"ĠCá»Ļng":1202,"Ġtá»Ļc":1203,"ĠHoÃłng":1204,"ev":1205,"ĠThÃłnh":1206,"áº·ng":1207,"ĠsÃ´ng":1208,"Ġvá»ĩ":1209,"Ġ(\"":1210,"ĠbÃ¡n":1211,"ĠÃĤ":1212,"ĠÄĳÃ³ng":1213,"ĠxÃ¡c":1214,"ĠquáºŃn":1215,"Ġlo":1216,"á»¯u":1217,"Ġ193":1218,"ĠBan":1219,"Ġá»":1220,"ĠhoÃłng":1221,"Ġbinh":1222,"áº¥m":1223,"áº·p":1224,"uá»ĵn":1225,"Ġlá»ĩ":1226,"ran":1227,"sk":1228,"Ġgiá»ĳng":1229,"Ġminh":1230,"Ġáº¤":1231,"ĠDÃ¢n":1232,"ĠMinh":1233,"ĠtrÃ²":1234,"Ġmá»Ł":1235,"Ġchá»ĳng":1236,"Ġsang":1237,"Trong":1238,"ĠBa":1239,"Ġchung":1240,"ĠGia":1241,"ĠÃ¡n":1242,"ĠlÃ£nh":1243,"\")":1244,"ber":1245,"Ġngá»¯":1246,"ud":1247,"ĠhÃ¡t":1248,"Ġchiáº¿m":1249,"Ġghi":1250,"á»Ńa":1251,"ĠBÃ¬nh":1252,"Ĺi":1253,"Ġháº¡ng":1254,"ĠÄĲá»Ļ":1255,"Ġáº¤n":1256,"ĠváºŃn":1257,"ĠcÃ¡i":1258,"Ġdi":1259,"á»Ľ":1260,"Ġcá»ķ":1261,"Ġtráº¥n":1262,"Ġtrá»£":1263,"ĠchÆ°a":1264,"Ġvai":1265,"ĠLe":1266,"ton":1267,"ÃŃt":1268,"of":1269,"ĠsÃ¢n":1270,"áº¡y":1271,"amb":1272,"Ġ2010":1273,"ĠZ":1274,"Ġkiáº¿n":1275,"ĠtÆ°á»£ng":1276,"ĠvÃ²ng":1277,"Ġcung":1278,"Ġdáº¡ng":1279,"Ġtriá»ĩu":1280,"io":1281,"ĠlÃłng":1282,"ĠNga":1283,"Ġtra":1284,"Ġmáº¥t":1285,"Æ°á»£t":1286,"iÃªm":1287,"iÃªng":1288,"ĠyÃªu":1289,"ĠphÃ©p":1290,"uc":1291,"ach":1292,"áº¿p":1293,"Ġchia":1294,"ĠBr":1295,"Ġchá»©ng":1296,"Ġcá»Ļng":1297,"ers":1298,"ĠchÃŃ":1299,"ĠnghiÃªn":1300,"Ġmáº¡nh":1301,"Ġ16":1302,"ĠÄĳáº¡t":1303,"Ġnguá»ĵn":1304,"Ġchiáº¿c":1305,"ub":1306,"ĠthÆ°":1307,"Ġká»ĥ":1308,"ĠngÃ´i":1309,"ĠVÆ°Æ¡ng":1310,"ĠNgh":1311,"ĠtÃ¢y":1312,"á»©a":1313,"ĠÄĳoáº¡n":1314,"Ġkiá»ĩn":1315,"Ġ14":1316,"Ġháº¡n":1317,"Äĳ":1318,"Ġpháº£n":1319,"Ãºi":1320,"Ġnhiá»ĩt":1321,"Ġtáº¥t":1322,"ĠvÆ°Æ¡ng":1323,"az":1324,"Ã£i":1325,"Ġto":1326,"ĠÄĲáº£ng":1327,"ĠSÆ¡n":1328,"aw":1329,"Ġhá»¯u":1330,"ĠváºŃy":1331,"eg":1332,"ri":1333,"ĠÄĳá»ĭch":1334,"Ġcháº¿t":1335,"ĠkÃŃch":1336,"Ġquáº£n":1337,"ĠlÃºc":1338,"Ġcáº£nh":1339,"Ġgiá»Ŀ":1340,"ĠSh":1341,"ah":1342,"ata":1343,"Ġty":1344,"Ġal":1345,"ĠgÃ¢y":1346,"yc":1347,"Ã¡u":1348,"Ġtay":1349,"Ġkhá»ıi":1350,"ĠgiÃºp":1351,"ĠhÆ°á»Łng":1352,"ĠQuÃ¢n":1353,"ĠthÃŃch":1354,"ĠkÃ½":1355,"áº¯p":1356,"ĠÃĤu":1357,"Ġcáº§n":1358,"ex":1359,"ep":1360,"ĠlÆ°u":1361,"ĠthÃªm":1362,"ĠhÆ°á»Ľng":1363,"Ġmu":1364,"Ġváº¥n":1365,"eb":1366,"Ġthuyáº¿t":1367,"Ġbá»ĩnh":1368,"ĠIn":1369,"Ġmáº¡ng":1370,"ĠÄĳá»Ļc":1371,"ĠchÃº":1372,"ĠluáºŃt":1373,"Ġ13":1374,"est":1375,"ant":1376,"Ġmá»Ĺi":1377,"Ġcáº£m":1378,"Ġin":1379,"ug":1380,"ĠchÃ¢n":1381,"ĠgiÃłnh":1382,"Ġchá»įn":1383,"Ġxáº¿p":1384,"ist":1385,"Ġná»Ļi":1386,"Ġsáº¯c":1387,"ĠXÃ´":1388,"ĠChÃ¢u":1389,"Ġtrá»±c":1390,"ĠsÆ°":1391,"Ġtá»·":1392,"oh":1393,"Ġháº¿t":1394,"ĠTá»ķng":1395,"á»ĭnh":1396,"Ġtrai":1397,"Ġchá»¯":1398,"ĠcÃ¢y":1399,"Ġlá»£":1400,"ym":1401,"Ã³c":1402,"Ġvi":1403,"oph":1404,"Ġ191":1405,"áº«u":1406,"oanh":1407,"Ġláº¥y":1408,"Æ°á»¡":1409,"yr":1410,"ĠbÃłn":1411,"Ġtráº»":1412,"man":1413,"Ġhuy":1414,"Ġkháº£":1415,"Ġbáº¡i":1416,"ĠÃŃt":1417,"ĠâĢĵ":1418,"ĠÄĳáº¿":1419,"Ġtá»ĳt":1420,"ĠcÆ°":1421,"á»±a":1422,"ĠVÃło":1423,"Ġlá»Ŀi":1424,"Ġsao":1425,"Ã¬n":1426,"Ġem":1427,"Ġgiáº£m":1428,"Ġxem":1429,"up":1430,"NgÃły":1431,"Ġkhai":1432,"Ġmáº¯t":1433,"ĠkÃ©":1434,"ĠChÃŃnh":1435,"Ġan":1436,"Ġthá»Ŀ":1437,"«a":1438,"ĠII":1439,"Ġtháº£o":1440,"Ġlá»ĩnh":1441,"Ġkhiáº¿n":1442,"Ġgá»ĳc":1443,"á»ħ":1444,"Ġngoáº¡i":1445,"Ġháº¡t":1446,"ĠChÃºng":1447,"Ġcá»ĳ":1448,"orm":1449,"iáº¿ng":1450,"Ġsá»©c":1451,"Ġnghá»ĭ":1452,"áº©u":1453,"Ãłm":1454,"uk":1455,"Sau":1456,"ĠLong":1457,"Ġ192":1458,".)":1459,"ey":1460,"Ġbáº§u":1461,"Ġcá»Ńa":1462,"ĠnÃºi":1463,"Ġtriá»ģu":1464,"áº§y":1465,"ensis":1466,"á»§ng":1467,"ĠmáºŃt":1468,"ĠThanh":1469,"ĠcÃ¡o":1470,"ĠniÃªn":1471,"ĠDo":1472,"Ġ30":1473,"ib":1474,"Ġ0":1475,"Ġduy":1476,"ĠThá»ķ":1477,"Ġdoanh":1478,"ĠchuyÃªn":1479,"ium":1480,"ue":1481,"Ġphá»ķ":1482,"opter":1483,"ĠvÅ©":1484,"Ġlá»£i":1485,"Ġlá»ħ":1486,"bum":1487,"ĠÃ¡p":1488,"ĠChiáº¿n":1489,"Ġrá»ĵi":1490,"ĠNhá»¯ng":1491,"Ġchá»ĭ":1492,"ĠtÆ°á»Łng":1493,"Ġgáº·p":1494,"etr":1495,"Ġchuáº©n":1496,"ĠLa":1497,"ĠthÃºc":1498,"ĠHá»Ļi":1499,"ĠNhÄ©":1500,"ĠNha":1501,"ĠNhÃł":1502,"ĠbiÃªn":1503,"áº£m":1504,"son":1505,"ĠTheo":1506,"ĠdÆ°Æ¡ng":1507,"Ġbá»ķ":1508,"ula":1509,"Ġru":1510,"ĠvÃ¢y":1511,"VÃło":1512,"iz":1513,"ĠNew":1514,"Ġquay":1515,"art":1516,"ord":1517,"ĠriÃªng":1518,"ĠKhi":1519,"Ġlá»Ľp":1520,"iáº¿m":1521,"ea":1522,"Ġtuyáº¿n":1523,"18":1524,"ĠMÃ£":1525,"Ġ2011":1526,"Ġtá»©":1527,"iac":1528,"ĠphÃ¡o":1529,"Ġkiá»ĥm":1530,"áº¯m":1531,"uÃ¢n":1532,"ĠphiÃªn":1533,"Ġcoi":1534,"Ġnghiá»ĩm":1535,"ass":1536,"Ġhá»Ĺ":1537,"Ġná»ģn":1538,"Ġthanh":1539,"áºŃm":1540,"Ġcá»¥":1541,"ĠÄĲáº¿":1542,"ĠthÃ¡i":1543,"...":1544,"ĠluáºŃn":1545,"Ġtháº¥t":1546,"Ġtá»ĵ":1547,"our":1548,"Ġde":1549,"Ġháº§u":1550,"Ġdá»¥c":1551,"Ġ190":1552,"ĠkhÃ¡ch":1553,"ĠCr":1554,"end":1555,"ĠkÃª":1556,"ier":1557,"uÃ´i":1558,"ĠmÃ´i":1559,"ĠÄĳa":1560,"ĠPhi":1561,"Ġtuáº§n":1562,"ĠphÃ¡i":1563,"ĠHá»ĵ":1564,"Ġmuá»ĳn":1565,"ĠvÃłng":1566,"Ġtiáº¿t":1567,"ĠLÃ½":1568,"Æ°á»¡ng":1569,"á»¥y":1570,"Ġtá»ı":1571,"Ġbáº£ng":1572,"ĠÄĳá»Ľi":1573,"Ġtá»ĭch":1574,"ess":1575,"Ġná»¯a":1576,"ce":1577,"ĠtuyÃªn":1578,"Ġmá»©c":1579,"Ġnhanh":1580,"ĠPr":1581,"ĠÄĳá»©ng":1582,"Ġdu":1583,"Ġxuá»ĳng":1584,"ĠHÃ²a":1585,"ĠGr":1586,"ĠgÃ¡i":1587,"ÃŃn":1588,"Ġcháº¡y":1589,"ĠdÃ²ng":1590,"á»Ľi":1591,"uyá»ĩt":1592,"Ġtá»ĵn":1593,"ana":1594,"ius":1595,"Ġcá»±c":1596,"Ġmáº¹":1597,"ii":1598,"ĠGiáº£i":1599,"ĠthiÃªn":1600,"ĠTÃ¢n":1601,"Ġ189":1602,"ĠgiÃ¡m":1603,"Ġgiáº¿t":1604,"Ġkháº©u":1605,"Ġáº¥y":1606,"ĠHá»ĵng":1607,"ĠcáºŃn":1608,"ĠHÃ¡n":1609,"ĠÄĲÃ¢y":1610,"ĠTháº¿":1611,"Ġof":1612,"Ġgiai":1613,"ĠÃĿ":1614,"LoÃłi":1615,"iaceae":1616,"ĠlÃ¡":1617,"Ġngay":1618,"Ġnáº¿u":1619,"ĠTiÃªn":1620,"ĠÄĳÃ´i":1621,"Ġ202":1622,"Ġmá»įi":1623,"Ġdá»±a":1624,"Ġtá»ĳ":1625,"Ġnháº±m":1626,"ĠÄĳá»§":1627,"Ġmáº·c":1628,"ĠCon":1629,"ind":1630,"und":1631,"Ġthá»§y":1632,"Ġ25":1633,"uáº¥n":1634,"Ġtuyá»ĥn":1635,"ĠtrÃºc":1636,"ĠÆ°á»Ľc":1637,"10":1638,"Ġká»¹":1639,"Ġthá»ķ":1640,"ĠvÃłi":1641,"áº¹p":1642,"ĠtháºŃp":1643,"ys":1644,"ĠÄĳá»ĳc":1645,"ĠÄĳÃ¡ng":1646,"Ġtháº¥p":1647,"ĠngÃ´n":1648,"ĠThu":1649,"Ã´m":1650,"ĠTá»«":1651,"á»ĩn":1652,"ĠlÃ¢u":1653,"Ġcháº¥p":1654,"Ã£n":1655,"ĠgiÃ¡p":1656,"Kh":1657,"ĠsÃ³ng":1658,"arl":1659,"ĊĠ":1660,"ĠNá»Ļi":1661,"ĠkÃ©o":1662,"Ġluyá»ĩn":1663,"ĠThiÃªn":1664,"Ġdung":1665,"Ġbuá»Ļc":1666,"Ġ.":1667,"ast":1668,"¦y":1669,"kh":1670,"Ã¼":1671,"Ġquanh":1672,"Ġhoáº¡ch":1673,"ĠthÆ°á»Łng":1674,"ern":1675,"ort":1676,"ĠEl":1677,"Ã³n":1678,"ara":1679,"Ġnhá»ĩn":1680,"á»Ĺi":1681,"Ġcáº£i":1682,"Ġcáº¥u":1683,"ĠNguyÃªn":1684,"Ġháº¡":1685,"Ġtá»©c":1686,"ĠNhÃ¢n":1687,"Ã£ng":1688,"ĠQ":1689,"Ġtá»ĳi":1690,"ĠNgÃły":1691,"ĠkhÃ³":1692,"yp":1693,"Ġrá»«ng":1694,".\"":1695,"ĠKim":1696,"ĠkhÃºc":1697,"ary":1698,"na":1699,"Ġalbum":1700,"Ġw":1701,"Ġ2007":1702,"Sá»±":1703,"ĠthÆ¡":1704,"Ġá»¦y":1705,"ĠÄĳÃłn":1706,"ack":1707,"Ġtráº£":1708,"Ġchá»©a":1709,"orn":1710,"ica":1711,"ĠTráº§n":1712,"ĠChá»§":1713,"Ġá»§y":1714,"Ġthe":1715,"Ġchá»ĭu":1716,"Má»Ļt":1717,"eom":1718,"ĠrÃµ":1719,"Ġlá»Ńa":1720,"ĠTrÆ°á»Ŀng":1721,"Ġphi":1722,"ont":1723,"ath":1724,"Ġchiá»ģu":1725,"ĠdÃłnh":1726,"Ġ24":1727,"ek":1728,"ation":1729,"ĠTÆ°":1730,"Lá»ĭch":1731,"Æ°á»Ŀn":1732,"ĠphÃ³ng":1733,"á»ģm":1734,"Ġpháº¡m":1735,"ĠPar":1736,"oll":1737,"ĠtoÃ¡n":1738,"Ġvá»£":1739,"Ġbáº¡n":1740,"Ġkhá»Łi":1741,"á»ĭa":1742,"ĠVÅ©":1743,"ĠtÃ´i":1744,"ĠHÃłn":1745,"ct":1746,"Ġbá»ĳn":1747,"ĠtÃ¹":1748,"Ġ()":1749,"Ġmáº«u":1750,"Ġmá»ģm":1751,"Ġkim":1752,"Ġtho":1753,"Ġ21":1754,"ge":1755,"ĠLÃª":1756,"ĠÄĲá»ĵng":1757,"á»įa":1758,"ĠÄĳÄ©a":1759,"optera":1760,"ox":1761,"ĠtÃ´n":1762,"ĠÄĳÃłi":1763,"ĠQuáº£ng":1764,"ĠlÄ©nh":1765,"tu":1766,"Ġchuyá»ĩn":1767,"Ġbáº¯n":1768,"Ġvá»ĳn":1769,"oan":1770,"ĠGeom":1771,"ĠGeometr":1772,"ain":1773,"ĠSch":1774,"ĠmÃ´n":1775,"ĠGeometridae":1776,"iss":1777,"eh":1778,"ĠNgÆ°á»Ŀi":1779,"don":1780,"ĠGiang":1781,"Ġtráº¡ng":1782,"Ġloáº¡t":1783,"Ġkháº£o":1784,"ick":1785,"Ġcha":1786,"Ġquáº§n":1787,"Ġtrao":1788,"Ã¨o":1789,"Ġbá»¥":1790,"ans":1791,"ĠtÃ¡i":1792,"ĠGiÃ¡o":1793,"lt":1794,"Ġcáº¡nh":1795,"Ġ22":1796,"ĠngÃłnh":1797,"ez":1798,"ĠCÃ³":1799,"mm":1800,"yn":1801,"ĠhÃ´n":1802,"Ġthuá»ĳc":1803,"ore":1804,"era":1805,"200":1806,"ĠÄĲÆ°á»Ŀng":1807,"land":1808,"Ġtáº¡p":1809,"arn":1810,"ĠcÅ©":1811,"ĠgÃ³":1812,"Ġlá»¥c":1813,"Ġmua":1814,"Ġxa":1815,"och":1816,"Ġ2006":1817,"ĠAs":1818,"iá»ħ":1819,"Ġsai":1820,"Ġná»ĳi":1821,"enn":1822,"Theo":1823,"Ġ187":1824,"ĠCu":1825,"Ġtráº¯ng":1826,"ĠtrÃ¹ng":1827,"Ġniá»ĩm":1828,"ena":1829,"ĠAm":1830,"Ġ23":1831,"ĠHy":1832,"XÃ£":1833,"ĠvÆ°á»£t":1834,"Ġxáº£y":1835,"á»£i":1836,"ĠÄĲÃłi":1837,"Ġsuáº¥t":1838,"Ġ188":1839,"Ġthiáº¿u":1840,"igh":1841,"lor":1842,"ĠtÃ²a":1843,"ĠSer":1844,"Ġháº£i":1845,"Ġnáº·ng":1846,"ĠTáº¡i":1847,"Ġlá»Ļ":1848,"Ġhá»ĵ":1849,"ĠSan":1850,"ĠmÃ©t":1851,"iidae":1852,"ĠHá»į":1853,"ĠrÃºt":1854,"ĠChu":1855,"á»īnh":1856,"Ġthá»ĭt":1857,"ĠpháºŃn":1858,"ĠLÆ°u":1859,"ĠNgoÃłi":1860,"ĠPhil":1861,"16":1862,"ĠnhÃ¬n":1863,"Ġháº¡i":1864,"Ġbá»Ŀ":1865,"oy":1866,"Ġ100":1867,"ĠCer":1868,"Ġruá»ĵi":1869,"ĠnÃ´ng":1870,"ĠPhÃ³":1871,"Ġ2019":1872,"ĠâĢ":1873,"Ġhá»ĵi":1874,"Ġmá»ĳi":1875,"ĠThÃ¡ng":1876,"12":1877,"ĠbÃło":1878,"ĠCÃ´":1879,"ock":1880,"Ġchim":1881,"Ġá»§ng":1882,"ada":1883,"Ġchiáº¿u":1884,"ax":1885,"Ã¶":1886,"ĠtÆ°á»Ľc":1887,"Ġngáº¯n":1888,"ost":1889,"The":1890,"ĠsÃ¢u":1891,"50":1892,"Ġ,":1893,"Ġtá»ĳc":1894,"ĠTriá»ģu":1895,"ico":1896,"ague":1897,"ĠsoÃ¡t":1898,"Ġ2004":1899,"ĠthuáºŃn":1900,"ĠgÃ¬":1901,"sinh":1902,"Ä±":1903,"ĠÄĲÃ´":1904,"Ġvu":1905,"Ã¢ng":1906,"ert":1907,"Ġxá»Ń":1908,"ice":1909,"ith":1910,"la":1911,"ĠKinh":1912,"Ġ2000":1913,"Ġ2016":1914,"17":1915,"Ġ2015":1916,"Ġ27":1917,"Ġcá»±":1918,"Ġ2008":1919,"Ġkiá»ĥu":1920,"ĠsÃºng":1921,"Gi":1922,"Ġbá»©c":1923,"ani":1924,"Ġ2017":1925,"Danh":1926,"ipp":1927,"br":1928,"ĠcÃłng":1929,"Ġ28":1930,"ĠxÃ©t":1931,"ĠNoc":1932,"ĠCao":1933,"Ġxung":1934,"Ġkhá»ĳi":1935,"Ġtrá»¥c":1936,"Tá»«":1937,"aria":1938,"ĠÄĳáº¡n":1939,"15":1940,"ĠNoctu":1941,"ĠÄĳáº§y":1942,"ĠXÃ£":1943,"urg":1944,"ĠNoctuidae":1945,"ĠcáºŃp":1946,"Ġthuáº¿":1947,"Ġtrá»¥":1948,"Ġ186":1949,"sh":1950,"áº·n":1951,"Ġ2009":1952,"ĠÄĳáº£m":1953,"Ġtrá»«":1954,"Ġdá»ħ":1955,"Åį":1956,"Ġrá»Ŀi":1957,"Ġu":1958,"á»¡":1959,"ĠBl":1960,"Ġ1999":1961,"anth":1962,"Ġ26":1963,"áº©y":1964,"se":1965,"ĠhÃłm":1966,"ycidae":1967,"ohn":1968,"ĠÄĳáº£ng":1969,"ĠÄĳÃŃch":1970,"Ġphá»ĳi":1971,"ĠnuÃ´i":1972,"Ġmáº¡ch":1973,"ile":1974,"ĠxuyÃªn":1975,"ĠÄĳÄĥng":1976,"ino":1977,"Ġchuyáº¿n":1978,"ĠkÃŃnh":1979,"ĠBar":1980,"Ġthá»Ń":1981,"one":1982,"ett":1983,"Ġ2005":1984,"gt":1985,"Ġkm":1986,"Ã£o":1987,"erm":1988,"Ġsuá»ĳt":1989,"ormula":1990,"ĠlÆ°á»£c":1991,"ĠluÃ´n":1992,"ork":1993,"ĠTÃ´ng":1994,"eth":1995,"An":1996,"áºµ":1997,"ĠÄĳen":1998,"ĠCeramb":1999,"ĠCerambycidae":2000,"ĠCÃºc":2001,"Ġ2018":2002,"ll":2003,"ĠÄĲiá»ģu":2004,"CN":2005,"ĠMan":2006,"Ġká»ĭch":2007,"Ġtá»Ļi":2008,"Ġcá»Ŀ":2009,"ĠmÃ£":2010,"ĠCl":2011,"Ġxá»ī":2012,"ania":2013,"Ġhá»ıi":2014,"ĠtÃŃn":2015,"ĠÄĲáºŃu":2016,"Ġtruyá»ĩn":2017,"Ġxá»©":2018,"ĠtrÃ¬":2019,"ĠCar":2020,"Ġmáº¡i":2021,"ĠXuÃ¢n":2022,"ĠlÃ²ng":2023,"ĠThÆ°á»£ng":2024,"ĠÆ°Æ¡ng":2025,"ff":2026,"ĠÄĳai":2027,"ThÃ¡ng":2028,"lav":2029,"yd":2030,"ĠSc":2031,"Ġ50":2032,"Ġá»ŀ":2033,"Ġ2014":2034,"ĊĠĊĠ":2035,"Ġtáº£i":2036,"Ġkiáº¿m":2037,"ame":2038,"ĠlÆ°á»£t":2039,"Ġsong":2040,"ĠLu":2041,"ĠtrÃ¡i":2042,"ĠtrÆ°ng":2043,"ĠtrÃ¡ch":2044,"ĠkhÃ¡":2045,"ĠPhÃº":2046,"Ġsá»©":2047,"ĠHiá»ĩp":2048,"ĠÄĳÃło":2049,"ĠMáº·t":2050,"Ġ31":2051,"Ġná»ķ":2052,"ĠThá»ĭ":2053,"tiáº¿ng":2054,"Ġhá»ķ":2055,"Ġ2012":2056,"Ġlinh":2057,"ĠCal":2058,"ĠgÃ³p":2059,"ood":2060,"ĠbÄĥng":2061,"ĠCan":2062,"ĠÄĳÆ°Æ¡ng":2063,"Ġdáº§n":2064,"ond":2065,"Ġchá»§ng":2066,"Ġhuáº¥n":2067,"Ġtuy":2068,"ĠÄĲáº¿n":2069,"Ġcuá»ĳn":2070,"ĠFran":2071,"tt":2072,"ĠSp":2073,"ĠRom":2074,"II":2075,"ĠTáºŃp":2076,"ĠcÄĥn":2077,"ĠÄĳá»ı":2078,"ĠÄĳá»Ļt":2079,"11":2080,"Ġsuy":2081,"ĠhÃ£ng":2082,"Ġ2013":2083,"Ġbá»¥ng":2084,"á»įt":2085,"Ġbuá»ķi":2086,"ĠchÃºa":2087,"Ar":2088,"Ġthá»¥":2089,"ĠNgÃ´":2090,"ĠGu":2091,"ĠÃģo":2092,"ĠThÃ¡nh":2093,"aka":2094,"ĠKhÃ´ng":2095,"Ġxanh":2096,"ella":2097,"Ġgh":2098,"ĠChÃŃ":2099,"Ġkáº»":2100,"ĠchÃ³ng":2101,"ĠvÃ²":2102,"ĠKhu":2103,"Ġá»ĳc":2104,"Ġmá»±c":2105,"Ġlao":2106,"ĠtrÃło":2107,"Ġ29":2108,"14":2109,"Ġhiá»ĩp":2110,"Ġdá»¯":2111,"ĠbÆ°á»Ľc":2112,"Ġdáº¥u":2113,"Ãºa":2114,"ka":2115,"ĠHai":2116,"Ġnáº¡n":2117,"Ġ2001":2118,"Ġdá»ĭ":2119,"ĠHu":2120,"ĠRe":2121,"ya":2122,"ĠkhÃ³a":2123,"ĠLáº¡p":2124,"Ġ2020":2125,"Nhá»¯ng":2126,"áº§ng":2127,"iáº¿p":2128,"Ġgiáº¥y":2129,"Ã£y":2130,"ts":2131,"Ã¨n":2132,"ĠThá»§":2133,"aul":2134,"ei":2135,"ĠNinh":2136,"ĠphÃª":2137,"Ġthá»«a":2138,"ĠLeague":2139,"ĠthÃŃ":2140,"ĠBÃł":2141,"ĠThe":2142,"Ġmá»Ļ":2143,"Ġvá»«a":2144,"Ġformula":2145,"oz":2146,"áºµn":2147,"St":2148,"rid":2149,"Ġda":2150,"ĠgiÃ¡c":2151,"Ġnhá»Ŀ":2152,"ĠlÃŃnh":2153,"atus":2154,"rys":2155,"ĠBáº£o":2156,"reb":2157,"Ġtiá»ĩn":2158,"ĠHo":2159,"uch":2160,"Ġvá»įng":2161,"Ġkháº¯p":2162,"ix":2163,"Ġhá»įa":2164,"Ġsá»Ńa":2165,"ney":2166,"á»Ńi":2167,"Ġliá»ĩt":2168,"Ġhá»§y":2169,"ĠTÃ´n":2170,"Ġngá»±a":2171,"Ġma":2172,"ate":2173,"osa":2174,"ĠMal":2175,"ĠÄĳem":2176,"alis":2177,"ĠYÃªn":2178,"ĠÄĲá»ĭnh":2179,"Ġthoáº¡i":2180,"ĠAnd":2181,"iá»ģm":2182,"30":2183,"itt":2184,"ĠJohn":2185,"rom":2186,"ĠtÃłng":2187,"ĠhÆ°Æ¡ng":2188,"ime":2189,"\"),":2190,"ĠtháºŃt":2191,"ĠQuang":2192,"Ġ2002":2193,"old":2194,"ĠAle":2195,"Ġ184":2196,"ĠCÆ¡":2197,"Ġnghi":2198,"á»ıng":2199,"Ġnhu":2200,"ĠSá»±":2201,"ideo":2202,"Ġtrá»Ŀi":2203,"ĠbÃły":2204,"ĠMad":2205,"ĠPl":2206,"ĠÃļ":2207,"ĠUn":2208,"Ġ40":2209,"ĠCá»ķ":2210,"Ġla":2211,"ĠquÃ½":2212,"ama":2213,"Ġtráº£i":2214,"ies":2215,"ĠsÆ¡":2216,"ĠthÄĥm":2217,"Ġnhiá»ħ":2218,"ĠngÄĥn":2219,"ĠHung":2220,"ĠÄĳáº©y":2221,"13":2222,"Ġtáº§ng":2223,"ĠCol":2224,"Ġtáº·ng":2225,"ann":2226,"Ġ'":2227,"ĠtÃ¡ch":2228,"Ġgá»Ńi":2229,"Ġloáº¡n":2230,"Ġ[":2231,"bia":2232,"lin":2233,"alin":2234,"va":2235,"Ġsá»Ľ":2236,"ley":2237,"Ġand":2238,"Al":2239,"ide":2240,"Ġ/":2241,"Ġdiá»ĩt":2242,"Ġthao":2243,"Cu":2244,"ĠViá»ĩn":2245,"ect":2246,"ĠxÃ¢m":2247,"ater":2248,"ĠvÃłnh":2249,"199":2250,"yll":2251,"Ġcai":2252,"ĠphÃ¹":2253,"Ġ2003":2254,"Ġ1990":2255,"ĠGiÃ¡m":2256,"Ġliá»ģn":2257,"Ġngáº§m":2258,"co":2259,"Ġ185":2260,"ĠtÃ¡n":2261,"ops":2262,"Ġtáº§m":2263,"ĠmÃ¡u":2264,"ca":2265,"ura":2266,"Ġpr":2267,"ÃĶng":2268,"ĠthÃº":2269,"ĠÄĲÃło":2270,"rad":2271,"oss":2272,"ĠPhong":2273,"ose":2274,"Ġcáº¯t":2275,"ĠVÃ¬":2276,"ris":2277,"ĠbÃ²":2278,"uá»ķi":2279,"Ġkhoáº£n":2280,"ler":2281,"oth":2282,"ĠÃ¡nh":2283,"ĠnÃ¢ng":2284,"ĠÄĳá»īnh":2285,"ĠIs":2286,"á»«u":2287,"Ġcáº§m":2288,"ĠEreb":2289,"ĠErebidae":2290,"ĠÄĳiá»ĥn":2291,"Ġthiá»ĩn":2292,"ĠTam":2293,"onidae":2294,"34":2295,"ein":2296,"ma":2297,"ĠUS":2298,"Ġcháº³ng":2299,"ĠcÆ°á»Ŀng":2300,"ĠTá»ķ":2301,"Ġphiáº¿u":2302,"ĠÄĲáº¥t":2303,"ld":2304,"ĠquÃ¡n":2305,"inc":2306,"ĠmÃłn":2307,"Ġsá»Ľm":2308,"Ġhiá»ĥu":2309,"ars":2310,"ict":2311,"á»©t":2312,"Ġráº¯n":2313,"ĠTá»īnh":2314,"Ã¹i":2315,"Ġhiá»ĥm":2316,"ĠTCN":2317,"ĠlÃ´ng":2318,"ĠchÃ³":2319,"ĠTá»Ń":2320,"ĠBe":2321,"ĠMáº·c":2322,"ines":2323,"ita":2324,"iana":2325,"ust":2326,"esia":2327,"\").":2328,"ĠTrÃ¡i":2329,"Ġnghe":2330,"á»ıa":2331,"ĠrÃªu":2332,"per":2333,"de":2334,"ĠIch":2335,"ĠÄĳua":2336,"ĠthÃ¹":2337,"ĠLÃ¢m":2338,"Ġex":2339,"ĠÃļc":2340,"Ġná»Ńa":2341,"ĠThá»¥y":2342,"Ġdáº¡y":2343,"ÄĲá»ĭa":2344,"90":2345,"Ġchá»ĵng":2346,"Ġchá»īnh":2347,"sil":2348,"Ġtháº³ng":2349,"ĠPháºŃt":2350,"Ã©m":2351,"burg":2352,"ĠphÃºt":2353,"ymen":2354,"ĠkÃªnh":2355,"Ġly":2356,"ĠsÃ¡u":2357,"ĠTÃ²a":2358,"Ġtruy":2359,"ĠNhÆ°ng":2360,"ĠÄĳá»įc":2361,"ĠphÃ¡n":2362,"ÅĤ":2363,"ĠvÃŃ":2364,"ĠbÃ©":2365,"Pr":2366,"Ġgiáº£n":2367,"ĠHungary":2368,"Ġchá»Ĺ":2369,"cm":2370,"ĠÄĳÃºng":2371,"ĠEn":2372,"ĠbÃ¡nh":2373,"Ġthua":2374,"ĠthÆ°á»Ľc":2375,"ĠNgá»įc":2376,"ity":2377,"ĠTrÆ°Æ¡ng":2378,"ĠthoÃ¡t":2379,"eor":2380,"Ġsung":2381,"ĠLÆ°Æ¡ng":2382,"tern":2383,"neum":2384,"ver":2385,"ĠmÆ°u":2386,"ĠxÃºc":2387,"ĠViá»ĩc":2388,"ĠSte":2389,"Ġá»ķ":2390,"ĠtÃ²":2391,"Ġtáº¯c":2392,"att":2393,"ĠthÄĥng":2394,"ides":2395,"ÂłÂł":2396,"ĠngÆ°á»£c":2397,"ĠÃ´":2398,"Ġkháº¯c":2399,"Ġxin":2400,"onia":2401,"ĠthÃ´n":2402,"Ġdáº§u":2403,"ark":2404,"Ġnhiá»ħm":2405,"Ġlai":2406,"Ġnáº¯m":2407,"ĠYork":2408,"ĠÃ¡o":2409,"ĠmÃ³n":2410,"Ġphá»©c":2411,"ĠÄĲÃ¬nh":2412,"ĠÄĳe":2413,"ĠhÆ¡i":2414,"Ġdá»įa":2415,"NgÆ°á»Ŀi":2416,"Ġdá»įc":2417,"inae":2418,"ly":2419,"Ġtuyá»ĩt":2420,"asil":2421,"omel":2422,"ĠkhÃ¡ng":2423,"ĠSal":2424,"Ġcá»«u":2425,"ĠVá»Ľi":2426,"ĠWal":2427,"Ġsáº¯t":2428,"ola":2429,"Ġláº«n":2430,"Ġgáº¯n":2431,"23":2432,"car":2433,"ham":2434,"sp":2435,"ĠÄĳáº¹p":2436,"ĠSá»ĳ":2437,"ĠAp":2438,"Ġai":2439,"Ġáº¥n":2440,"Ġnhá»Ľ":2441,"Ġnguy":2442,"ĠphÃ³":2443,"ĠPhÃºc":2444,"ĠEd":2445,"á»Ļn":2446,"ĠbÃŃ":2447,"Ġáº©m":2448,"ĠlÆ°Æ¡ng":2449,"ĠAd":2450,"omm":2451,"ĠÄĳá»£":2452,"ĠtrÃŃch":2453,"ĠHymen":2454,"ini":2455,"24":2456,"ĠBÃŃ":2457,"ight":2458,"%.":2459,"iel":2460,"ĠthÃ¡p":2461,"ĠÄĲáº¡o":2462,"ash":2463,"Ġtráº¡i":2464,"Ġhá»įp":2465,"ĠLai":2466,"ale":2467,"Ãµi":2468,"Khi":2469,"ĠÄĳÃ¡p":2470,"Ġsáºµn":2471,"ima":2472,"Ã²i":2473,"Å©i":2474,"ĠsÄĥn":2475,"ĠkhÃ´":2476,"che":2477,"ĠIchneum":2478,"ĠIchneumonidae":2479,"Ġcáº¥m":2480,"ĠthÆ°á»£ng":2481,"Ġthá»ı":2482,"yo":2483,"ĠtrÃ¡nh":2484,"Ã³t":2485,"Ġtá»ĳng":2486,"áºŃc":2487,"ĠLoan":2488,"ĠChi":2489,"Ġ1945":2490,"act":2491,"25":2492,"ĠlÆ°ng":2493,"Ġnghá»ģ":2494,"ĠPhilipp":2495,"aya":2496,"Ġcháº·n":2497,"Ġquáº£ng":2498,"60":2499,"imon":2500,"ish":2501,"eland":2502,"ĠOl":2503,"berg":2504,"Ġ2021":2505,"Ġ1980":2506,"iam":2507,"ĠKr":2508,"ĠKarn":2509,"ĠPhÆ°Æ¡ng":2510,"Ġcáº·p":2511,"ĠKhÃ¡nh":2512,"ĠOr":2513,"á»«a":2514,"kra":2515,"ĠNa":2516,"Ġa":2517,"ĠtÃ¡":2518,"ĠÄĳau":2519,"ataka":2520,"ald":2521,"bert":2522,"Ġxáº¡":2523,"Ġtan":2524,"ĠCor":2525,"arb":2526,"Ġláº½":2527,"ĠbáºŃc":2528,"ĠKarnataka":2529,"ĠBer":2530,"ĠthÃ¡c":2531,"sky":2532,"ĠNghá»ĭ":2533,"Ġtá»Ŀ":2534,"Tiá»ĥu":2535,"Ġlan":2536,"aur":2537,"ÃŃa":2538,"omb":2539,"Ġcá»±u":2540,"ille":2541,"ĠKhoa":2542,"ĠÆ°u":2543,"ĠIII":2544,"Ġsá»£":2545,"ĠvuÃ´ng":2546,"ĠUkra":2547,"Ġgáº¯ng":2548,"ĠNghá»ĩ":2549,"ĠnháºŃt":2550,"ĠLen":2551,"ĠHáº¡":2552,"Ġháº¥p":2553,"Ġkhiá»ĥn":2554,"Ġnghá»ī":2555,"ĠCanada":2556,"Ã©n":2557,"aj":2558,"ĠdÆ°á»¡ng":2559,"ĠRÃªu":2560,"ĠÄĳoÃ¡n":2561,"ott":2562,"Ġteh":2563,"ael":2564,"ros":2565,"Ġchá»ĳi":2566,"ĠParis":2567,"Ġtehsil":2568,"ĠbÃ£i":2569,"ĠCá»¥c":2570,"ĠHymenoptera":2571,"Ġtia":2572,"Ġcá»ı":2573,"Ġbáº¡c":2574,"ĠkhÄĥn":2575,"ĠPháº§n":2576,"akh":2577,"Ġquá»¹":2578,"ĠSÆ°":2579,"ĠPol":2580,"ĠMc":2581,"ĠnghiÃªm":2582,"les":2583,"ãĥ":2584,"eri":2585,"ames":2586,"'s":2587,"ĠhÃºt":2588,"ĠbáºŃt":2589,"Ġná»Ĺ":2590,"Ġtrá»ĳn":2591,"inn":2592,"Ãºy":2593,"orld":2594,"ora":2595,"eim":2596,"áº·m":2597,"Ġvideo":2598,"Le":2599,"ĠViÃªn":2600,"alia":2601,"ite":2602,"Ġchá»¯a":2603,"ĠNáº¿u":2604,"sia":2605,"ĠnhÃ¡nh":2606,"ĠNgá»¥y":2607,"outh":2608,"uz":2609,"ĠquÃª":2610,"ĠNhiá»ģu":2611,"Ġháº¡m":2612,"ons":2613,"ala":2614,"ĠChrys":2615,"ĠStalin":2616,"ĠhÃłi":2617,"ĠrÃłng":2618,"ĠWill":2619,"ĠÄĳá»¡":2620,"ĠTrÆ°á»Ľc":2621,"der":2622,"ĠTá»ĳng":2623,"ĠRob":2624,"ĠbÃ¡c":2625,"ull":2626,"Ġ1998":2627,"ĠkhÃ¡n":2628,"Ġtáº¯t":2629,"ida":2630,"odes":2631,"FA":2632,"Ġac":2633,"ĠhÃ¹ng":2634,"ĠHer":2635,"ĠHar":2636,"21":2637,"Ġtá»ī":2638,"ĠPer":2639,"ĠOs":2640,"Ġ1975":2641,"á»¥p":2642,"Æ°Æ¡i":2643,"ĠKiáº¿n":2644,"Ġpha":2645,"Ġgá»Ĺ":2646,"ĠUSD":2647,"Â°":2648,"ĠcáºŃu":2649,"ĠdÃ¢y":2650,"Ġmiá»ħn":2651,"ĠVÃ¢n":2652,"ĠGiá»":2653,"ien":2654,"Ġtáº¥m":2655,"ĠTrá»ĭnh":2656,"ifol":2657,"Ġnháº¹":2658,"ĠSm":2659,"Tham":2660,"ĠChÆ°Æ¡ng":2661,"má»Ļt":2662,"Ġ183":2663,"ski":2664,"Ġá»ĳng":2665,"Ġthiá»ĩu":2666,"ĠCup":2667,"ĠHÃ³a":2668,"ĠThÆ°á»Ŀng":2669,"Ġngá»Ŀ":2670,"ĠNe":2671,"ĠLinh":2672,"Ġcháº£y":2673,"ano":2674,"40":2675,"rich":2676,"Ġlá»±a":2677,"enz":2678,"ĠGeor":2679,"áº±n":2680,"ĠtháºŃm":2681,"ĠHÆ°ng":2682,"Ġ1991":2683,"Ġ1992":2684,"mer":2685,"ĠLat":2686,"ĠÄĲá»Ļi":2687,"à¸":2688,"own":2689,"ĠrÆ¡i":2690,"ari":2691,"ĠQuáºŃn":2692,"Ġtháº©m":2693,"ĠPhÃ²ng":2694,"Ġmá»Ŀi":2695,"Ġthá»ıa":2696,"Ġtai":2697,"Ġ60":2698,"á»µ":2699,"Ġgiáº£ng":2700,"á»ıe":2701,"Ġvong":2702,"ĠÄĲá»ĥ":2703,"ĠVÄ©nh":2704,"á»ĳm":2705,"ĠAi":2706,"ho":2707,"Ġtrá»¯":2708,"ĠsiÃªu":2709,"Ġpháº¡t":2710,"ĠrÃ£i":2711,"ĠngÃ¢n":2712,"Ġngang":2713,"ĠngÅ©":2714,"ĠSÄ©":2715,"ĠAlex":2716,"ĠÄĳuá»ķi":2717,"int":2718,"donesia":2719,"ĠÄĳuÃ´i":2720,"ĠlÃ¢m":2721,"Ġsp":2722,"Ġgame":2723,"ĠdáºŃy":2724,"ĠDi":2725,"ole":2726,"âĢĿ":2727,"ĠÃŃch":2728,"Ġkhá»ıe":2729,"80":2730,"af":2731,"ĠtrÄĥm":2732,"Ġlui":2733,"ĠThuáºŃn":2734,"]]":2735,"Ġsáº¯p":2736,"ĠGre":2737,"45":2738,"ee":2739,"ĠtrÃº":2740,"ĠAb":2741,"Ã³i":2742,"amm":2743,"Ġ1960":2744,"Ġá»ķn":2745,"22":2746,"Æ°á»Ľp":2747,"ĠWorld":2748,"Ġ1996":2749,"aus":2750,"ĠnghÄ©":2751,"Ġuá»ĳng":2752,"li":2753,"ĠchÃ©p":2754,"ĠdÃły":2755,"ĠTiáº¿n":2756,"ĠDu":2757,"Ġbiá»ĩn":2758,"ĠÃģnh":2759,"Ġhá»ĵng":2760,"ona":2761,"ins":2762,"ĠPal":2763,"ĠkÃ¬":2764,"ĠTiá»ĥu":2765,"ĠvÆ°á»Ŀn":2766,"ĠThá»§y":2767,"PhÃ¢n":2768,"ĠBo":2769,"els":2770,"unt":2771,"Ġ1997":2772,"ĠIndonesia":2773,"ĠthÃ¡nh":2774,"ĠhÃ¨":2775,"ester":2776,"ĠUkraina":2777,"CÃ³":2778,"Chi":2779,"ĠBol":2780,"ĠThÃ´ng":2781,"ward":2782,"ĠmÆ°á»Ŀi":2783,"ĠphÆ°á»Ŀng":2784,"arp":2785,"ila":2786,"ĠBá»ĵ":2787,"ĠPháº¡m":2788,"ĠhÃ´m":2789,"ĠTok":2790,"ane":2791,"ene":2792,"elle":2793,"ĠtÃ¹y":2794,"ĠMor":2795,"ĠcÃ´n":2796,"ĠvÄ©":2797,"ĠCo":2798,"Ġ2022":2799,"ĠCÃ¡ch":2800,"Ġquang":2801,"err":2802,"inia":2803,"ĠAng":2804,"ĠlÆ°á»Ľi":2805,"ĠDav":2806,"ĠCharl":2807,"ĠkÃ©m":2808,"Ġcháº¥m":2809,"ĠNor":2810,"ĠIr":2811,"ĠtáºŃn":2812,"ĠHen":2813,"ĠnghÃ¨o":2814,"pe":2815,"ais":2816,"Ġ1993":2817,"Ġ1970":2818,"Ġtáº¡m":2819,"ashi":2820,"illa":2821,"ĠPhan":2822,"omelidae":2823,"ĠChrysomelidae":2824,"Ġbom":2825,"ĠSl":2826,"ĠchÃ¹a":2827,"ĠThiáº¿n":2828,"ive":2829,"iforn":2830,"Ġj":2831,"ĠHá»ĵi":2832,"ĠxÆ°Æ¡ng":2833,"eter":2834,"Thá»Ŀi":2835,"iber":2836,"Ġe":2837,"á»ŀ":2838,"ĠtÃłn":2839,"ĠhoÃ¡":2840,"70":2841,"Táº¡i":2842,"Ġphe":2843,"ĠTriá»ĩu":2844,"ĠDis":2845,"Ġkháº¥u":2846,"idaceae":2847,"Ġsoáº¡n":2848,"ID":2849,"Ġnhá»ĭ":2850,"Æ°á»£u":2851,"ĠHal":2852,"yg":2853,"ze":2854,"ĠMe":2855,"ĠSÃłi":2856,"ĠVua":2857,"ĠDe":2858,"ĠNghÄ©a":2859,"Ġthuyá»ģn":2860,"Ġcháº¯c":2861,"ĠgÃ³c":2862,"ĠMos":2863,"inidae":2864,"Ġcáº£ng":2865,"ĠLá»¥c":2866,"ĠÄĳá»ĵn":2867,"ĠChá»ī":2868,"ĠEr":2869,"ake":2870,"ĠâĢľ":2871,"ych":2872,"ĠÄĳáº³ng":2873,"ĠÄĲá»ĭa":2874,"tic":2875,"ĠCáº£nh":2876,"ĠMac":2877,"ĠKaz":2878,"enk":2879,"85":2880,"á»¯a":2881,"arg":2882,"âĢĻ":2883,"Ġ1995":2884,"Cuá»Ļc":2885,"ifornia":2886,"yan":2887,"ĠtrÃ²n":2888,"ĠgiÃ³":2889,"ĠMus":2890,"ota":2891,"Ã¨m":2892,"ool":2893,"ĠRh":2894,"75":2895,"As":2896,"Ġbá»ģ":2897,"ĠRich":2898,")\"":2899,"Ġlá»ĳi":2900,"Ġmáº½":2901,"Ġweb":2902,"uel":2903,"Ġtrá»ĵng":2904,"ĠSe":2905,"Ġvá»ı":2906,"Ġtá»ĩ":2907,"ĠÄĳá»ģn":2908,"Ġ1994":2909,"ĠPhilippines":2910,"Ġhá»ıa":2911,"ĠCáºŃp":2912,"ĠrÆ°á»£u":2913,"ĠBal":2914,"ĠTu":2915,"Ġtim":2916,"ustr":2917,"NhÃł":2918,"ĊĠĊĠĊĠĊĠ":2919,"ĠCalifornia":2920,"ĠAth":2921,"ĠUy":2922,"oo":2923,"ĠHá»įc":2924,"uro":2925,"ĠcÃ¢n":2926,"ĠdÃ£y":2927,"ĠTháº¡ch":2928,"ĠnÃ³ng":2929,"oma":2930,"CÃ´ng":2931,"ci":2932,"Ġthiá»ĩt":2933,"ĠAlexand":2934,"Br":2935,"Ġhiáº¿n":2936,"ba":2937,"lad":2938,"agn":2939,"ign":2940,"ĠcÆ°á»Ľp":2941,"ĠBro":2942,"lan":2943,"Ġcan":2944,"ĠgÃł":2945,"Ġ1989":2946,"ĠHÆ°Æ¡ng":2947,"ĠSÃ¢n":2948,"ih":2949,"ĠÄĳá»±c":2950,"ĠsÃ¡p":2951,"omp":2952,"Ġchinh":2953,"ĠTáº¥n":2954,"ĠBÃ¡":2955,"Ġ1941":2956,"Ã©c":2957,"ĠtrÃ¢u":2958,"Ġmá»ĩnh":2959,"ilidae":2960,"oáº£ng":2961,"ĠArct":2962,"ĠMon":2963,"ions":2964,"Ġtá»įa":2965,"ĠHiá»ĩn":2966,"ĠGÃ²n":2967,"aint":2968,"ĠKÃ´ng":2969,"In":2970,"ÅŁ":2971,"Ġtháº£i":2972,"ĠHe":2973,"ĠSá»Ł":2974,"ĠPaul":2975,"eck":2976,"gh":2977,"iinae":2978,"que":2979,"ĠSa":2980,"gi":2981,"ĠChamp":2982,"ÄĲáº¡i":2983,"ĠÄĳoáº¡t":2984,"nay":2985,"Ġbáº£y":2986,"TrÆ°á»Ľc":2987,"Ac":2988,"ĠBen":2989,"ren":2990,"ĠnÃ¢u":2991,"ĠsÃ³t":2992,"Ġkhá»§ng":2993,"ĠÄĳÃ³n":2994,"ĠmÆ°a":2995,"ĠmÅ©i":2996,"Ġngá»įt":2997,"28":2998,"yph":2999,"ĠCamp":3000,"ĠHáºŃu":3001,"Ġmong":3002,"enia":3003,"Ġáº©n":3004,"Ġtháº£m":3005,"Ġbáº¡o":3006,"ĠMai":3007,"ĠQuan":3008,"ron":3009,"su":3010,"29":3011,"Ġcam":3012,"ĠvÃµ":3013,"aris":3014,"Ġvá»ĭnh":3015,"Ġ70":3016,"ophyll":3017,"ĠArctiinae":3018,"Ġ=":3019,"ĠmÃ¬":3020,"ĠCÃ¢u":3021,"ĠLá»±c":3022,"ĠVá»ģ":3023,"Ġcháº·t":3024,"ĠÄĲiá»ĩn":3025,"ĠSing":3026,"Ġ1950":3027,"ĠchÃ¡u":3028,"ĠTá»±":3029,"Ġ35":3030,"ment":3031,"Ġbá»Ļt":3032,"Æ°á»£n":3033,"ĠCam":3034,"ĠStr":3035,"Ġlong":3036,"ĠlÃ´i":3037,"ĠLá»Ļc":3038,"Ġ180":3039,"go":3040,"ĠThá»Ŀi":3041,"ĠÃĶ":3042,"ĠCuá»ĳi":3043,"35":3044,"ĠbÃ¡":3045,"Ġgai":3046,"ĠHuy":3047,"ĠHáº§u":3048,"ĠxÆ°a":3049,"ĠMich":3050,"ense":3051,"iver":3052,"ĠLenin":3053,"64":3054,"LiÃªn":3055,"ĠÅ":3056,"ĠcÃ£i":3057,"Ġváº½":3058,"ĠUr":3059,"iÄ":3060,"ĠSam":3061,"icus":3062,");":3063,"Ġvinh":3064,"Ġtrá»©ng":3065,"NgoÃłi":3066,"Ġnháº¯c":3067,"ĠkhÆ¡i":3068,"ĠHá»£p":3069,"ĠThá»ĳng":3070,"Ġlá»Ĺi":3071,"ĠÄĳÃ¡m":3072,"ace":3073,"27":3074,"itz":3075,"sen":3076,"ĠhÃł":3077,"ĠBel":3078,"sch":3079,"ĠMil":3080,"oman":3081,"Ġmáº¯c":3082,"Ġ1988":3083,"Æ°á»¡i":3084,"Am":3085,"Ġcá»Ļt":3086,"Ġdá»©t":3087,"ĠTuyÃªn":3088,"Ġ1942":3089,"ĠCuá»Ļc":3090,"ĠÄĳá»ĳt":3091,"ĠÄĳá»©a":3092,"ĠTrá»ĭ":3093,"Ġgiá»į":3094,"rist":3095,"ĠmÃ¡i":3096,"Ġtáº£ng":3097,"kg":3098,"Ġhá»©ng":3099,"ĠgiÃłu":3100,"DÃ¢n":3101,"pt":3102,"ĠbÃ¨n":3103,"ĠBang":3104,"are":3105,"ateridae":3106,"Ġthiá»ĥu":3107,"ĠBur":3108,"Ġhoang":3109,"Ġcá»ĳt":3110,"ĠFre":3111,"Ġ1944":3112,"Ġchuá»Ĺi":3113,"ĠBrasil":3114,"Tá»ķng":3115,"Ġtam":3116,"ĠCáº£":3117,"Ġvá»¡":3118,"ero":3119,"Ġ1943":3120,"ria":3121,"ĠkhÃ¡m":3122,"ĠÄĳá»ĩ":3123,"Ġquyá»ĥn":3124,"ĠMÃ´ng":3125,"ĠTim":3126,"da":3127,"Ġsa":3128,"ĠLáº¡c":3129,"ĠDon":3130,"ĠIV":3131,"ĠEm":3132,"Ġ1940":3133,"ĠmÃłng":3134,"uck":3135,"Sh":3136,"Ġel":3137,"Ġcháº¡m":3138,"aster":3139,"ult":3140,"ĠLuáºŃt":3141,"26":3142,"ck":3143,"ĠÄĳiá»ĩu":3144,"Ġhiáº¿m":3145,"ĠTrÃªn":3146,"wa":3147,"ory":3148,"ĠIt":3149,"Con":3150,"ĠlÃ¡i":3151,"Ġkhá»ķ":3152,"Ġváº»":3153,"ĠHam":3154,"ĠXuyÃªn":3155,"TV":3156,"ĠdÃłng":3157,"ĠMex":3158,"air":3159,"áº¹n":3160,"Tuy":3161,"Ġmá»ĵi":3162,"ĠJe":3163,"%,":3164,"Ġmá»ı":3165,"ĠTe":3166,"ĠÄĲá»ĳi":3167,"isc":3168,"ÄĲÃ¢y":3169,"ovich":3170,"44":3171,"len":3172,"ĠkÃªu":3173,"ĠHiáº¿n":3174,"ĠMa":3175,"Ġláº¡nh":3176,"ĠHuyá»ĩn":3177,"Ġdáº·m":3178,"Äģ":3179,"ĠhÆ°":3180,"Ġkia":3181,"ĠÄĲáº·c":3182,"ited":3183,"ĠGrand":3184,"eph":3185,"ĠtÆ°á»Ŀng":3186,"Ġtriáº¿t":3187,"ĠTrá»Ŀi":3188,"ĠChÃ¢n":3189,"Ġtá»ķn":3190,"ĠElateridae":3191,"ĠsÃ³c":3192,"Ġpl":3193,"Ġcháº¯n":3194,"Ġst":3195,"Ġkhuyáº¿n":3196,"ĠTÃªn":3197,"ĠBÃłi":3198,"ĠTrÃł":3199,"ĠWil":3200,"ĠWilliam":3201,"eta":3202,"awa":3203,"ĠTiÃªu":3204,"ĠMÃ¹a":3205,"Ġáº¢":3206,"ept":3207,"ĠxÆ°ng":3208,"ĠVal":3209,"ĠGo":3210,"ĠbuÃ´n":3211,"ĠQuyá»ģn":3212,"ĠÄĳá»£t":3213,"no":3214,"ĠcÆ¡n":3215,"Ġhung":3216,"ĠVÃµ":3217,"ĠkhuÃ´n":3218,"Ġ90":3219,"Rh":3220,"Ġngá»«ng":3221,"Ġ1986":3222,"ĠMadrid":3223,"Ġsáº»":3224,"ĠLá»ħ":3225,"Ġ\"(":3226,"Ġ1987":3227,"Ġchuá»ĵn":3228,"ĠMexico":3229,"ĠÃ¡m":3230,"Ġviá»ħn":3231,"ThÃłnh":3232,"ĠÄĳÃ²i":3233,"Ġtháº¡ch":3234,"ĠBáº¡ch":3235,"Ġlá»µ":3236,"ner":3237,"ĠPhá»¥":3238,"ĠWest":3239,"Ġ1984":3240,"ambidae":3241,"47":3242,"ja":3243,"Ã§":3244,"ĠÄĲáº§u":3245,"ors":3246,"ase":3247,"Ġ45":3248,"Ð°":3249,"Ġtrá»ĳng":3250,"ĠSouth":3251,"cia":3252,"rd":3253,"ĠvÃº":3254,"Ġduyá»ĩt":3255,"ĠkhÃ¡i":3256,"Ġ1978":3257,"mann":3258,"ĠCrambidae":3259,"iy":3260,"ĠÄĳá»©c":3261,"inus":3262,"tain":3263,"Ġphu":3264,"ĠDung":3265,"ĠOp":3266,"ĠZe":3267,"Sch":3268,"ve":3269,"Ġphá»ıng":3270,"ĠCÃ¹ng":3271,"entr":3272,"ĠGir":3273,"ãĤ":3274,"Ãªnh":3275,"Ġdá»«ng":3276,"uss":3277,"ure":3278,"Ġ1985":3279,"istan":3280,"ĠReal":3281,"ĠDuy":3282,"ush":3283,"trong":3284,"Ġ80":3285,"ĠtrÃºng":3286,"ĠÄĲan":3287,"Ġtá»±a":3288,"ĠÐ":3289,"Ġcáº¥t":3290,"Sc":3291,"oe":3292,"ĠTÃło":3293,"ĠHá»ķ":3294,"ĠÄĲÃł":3295,"Ġ1982":3296,"ĠHenry":3297,"rop":3298,"Ġváº¡n":3299,"ĠTáº§n":3300,"Ġkháº³ng":3301,"ĠBá»į":3302,"off":3303,"Anh":3304,"NA":3305,"mar":3306,"ĠÃ¡c":3307,"Ġmáº¡c":3308,"ĠchÃ¡y":3309,"ĠTháº§n":3310,"âĢ¦":3311,"Ġmáº£nh":3312,"Ġbá»ĳi":3313,"ĠdÃłn":3314,"ĠBay":3315,"ĠVÃŃ":3316,"Ġ33":3317,"Ġ1930":3318,"87":3319,"ĠkÃ¨m":3320,"ĠIreland":3321,"well":3322,"Ġká»ī":3323,"ĠPhÆ°á»Ľc":3324,"Giáº£i":3325,"ĠCharles":3326,"by":3327,"ound":3328,"ĠkiÃªm":3329,"atum":3330,"Ġ1972":3331,"Ġgiá»įng":3332,"Cl":3333,"Cal":3334,"Ġtáº§n":3335,"Ġngá»ĵi":3336,"esc":3337,"Ġ1983":3338,"ĠRichard":3339,"89":3340,"cÃ³":3341,"vÃł":3342,"Ġam":3343,"ıng":3344,"ĠTor":3345,"ĠCO":3346,"Ġgiam":3347,"ĠThá»į":3348,"ise":3349,"seud":3350,"ĠRobert":3351,"65":3352,"VÃ²ng":3353,"ĠÄĲoÃłn":3354,"ĠVinh":3355,"age":3356,"Sp":3357,"iger":3358,"ĠSerbia":3359,"ĠDisney":3360,"Ġnon":3361,"Ġchá»©":3362,"ĠsÆ¡n":3363,"Ġga":3364,"ĠSÃ©c":3365,"esh":3366,"ĠOtt":3367,"Ġ1979":3368,"«ng":3369,"Ġcá»¡":3370,"nheim":3371,"Ġmai":3372,"ĠsÃłng":3373,"ĠLy":3374,"Ġcá»¥m":3375,"Mar":3376,"ji":3377,"Ġtri":3378,"á»Ļp":3379,"ĠHá»ĩ":3380,"Ã©r":3381,"ĠYou":3382,"ĠbÃ£o":3383,"ĠdÃµi":3384,"tein":3385,"ram":3386,"Ġur":3387,"Ġox":3388,"Ġcá»¥c":3389,"ĠMat":3390,"ĠÄĲiá»ĥn":3391,"ĠCá»Ń":3392,"ĠLon":3393,"hip":3394,"Ġprot":3395,"Fran":3396,"Ġrá»ĳi":3397,"ĠTrich":3398,"Ġrad":3399,"ova":3400,"Ġ1939":3401,"ĠThiáº¿u":3402,"ial":3403,"ĠIntern":3404,"ĠtiÃªm":3405,"Ġváº¿t":3406,"Ġ1920":3407,"ĠPhá»ķ":3408,"boa":3409,"ĠtÃ¡m":3410,"ĠCáº©m":3411,"chá»¯":3412,"ĠDá»±":3413,"irg":3414,"Ġ1981":3415,"Ġ+":3416,"ĠÄĳáºŃu":3417,"ĠHoÃłn":3418,"Ġphá»ķi":3419,"Ġvá»Ł":3420,"á»ĩt":3421,"Ġ37":3422,"Ġ1946":3423,"ĠMart":3424,"¯ng":3425,"Ġláº»":3426,"Ġquen":3427,"Ġ(;":3428,"ĠCa":3429,"ele":3430,"Ġ300":3431,"ifolia":3432,"ĠtrÆ°Æ¡ng":3433,"ĠMÃ©":3434,"ows":3435,"Ġmay":3436,"ĠchÄĥm":3437,"ĠÄĲinh":3438,"aga":3439,"ira":3440,"Ġcháº¥n":3441,"ĠNgoáº¡i":3442,"ĠQuÃ½":3443,"oto":3444,"ĠsÃ¡nh":3445,"Ġngáº¡i":3446,"ĠCÅ©ng":3447,"ĠMá»Ĺi":3448,"ilis":3449,"ĠEng":3450,"Huyá»ĩn":3451,"Ġven":3452,"Ġvoi":3453,"Ġninh":3454,"Ġche":3455,"ĠkhÃŃch":3456,"ĠVÃł":3457,"ke":3458,"Ã£nh":3459,"ĠThÃ¢n":3460,"Bá»Ļ":3461,"ook":3462,"Ð¾":3463,"ĠSu":3464,"ĠSao":3465,"ĠChÃºa":3466,"ĠFC":3467,"oon":3468,"ĠtÃ¢n":3469,"Ġlá»įt":3470,"Ġháº¹p":3471,"ĠNik":3472,"Ã¹y":3473,"ĠthuÃª":3474,"86":3475,"Ġ\"\"":3476,"ling":3477,"ĠhÃ²n":3478,"ĠLimon":3479,"ĠMel":3480,"ĠAir":3481,"Ġvá»£t":3482,"Ġkhung":3483,"ĠÃ©":3484,"ĠÄĳá»ĵi":3485,"raz":3486,"83":3487,"ky":3488,"Ġhuyáº¿t":3489,"ĠcháºŃm":3490,"Ġsá»£i":3491,"ĠMu":3492,"ĠVi":3493,"á»³nh":3494,"Ġ1963":3495,"ĠLimoniidae":3496,"ãģ":3497,"ĠTach":3498,"ĠVen":3499,"ĠnghÃ¬n":3500,"ĠNhÆ°":3501,"stan":3502,"khÃ´ng":3503,"ĠGeorge":3504,"iÄĩ":3505,"ngÆ°á»Ŀi":3506,"Ġco":3507,"NE":3508,"ĠhÃ´":3509,"ĠMont":3510,"ĠTráºŃn":3511,"ymp":3512,"NhÃ¢n":3513,"Ġvui":3514,"ĠUnited":3515,"den":3516,"tÃªn":3517,"Ġcáº£n":3518,"ĠTáº¥t":3519,"ĠngÆ°":3520,"ĠCÃ¡":3521,"osh":3522,"Ġ500":3523,"Ngh":3524,"á»Ľp":3525,"ĠTrichoptera":3526,"ĠnÃ©m":3527,"ail":3528,"Ġhy":3529,"Ġchá»Ł":3530,"Ġdinh":3531,"ĠAg":3532,"anda":3533,"apore":3534,"39":3535,"Ġcal":3536,"ĠHau":3537,"yria":3538,"ios":3539,"ĠKáº¿t":3540,"use":3541,"Ġ1973":3542,"ĠTachinidae":3543,"ks":3544,"oot":3545,"Ġgáº¥p":3546,"Ġhu":3547,"Ġnguyá»ĩn":3548,"Ġ59":3549,"abeth":3550,"uper":3551,"72":3552,"Ġha":3553,"ĠNap":3554,"Ġhá»Ĺn":3555,"ield":3556,"Ġ65":3557,"ĠchÃŃn":3558,"46":3559,"Par":3560,"lo":3561,"ĠCáº§u":3562,"orus":3563,"tron":3564,"Ġ1969":3565,"áº¿ch":3566,"Ġngá»įn":3567,"ĠCarl":3568,"ĠGar":3569,"ĠWh":3570,"ĠWind":3571,"ĠMalay":3572,"36":3573,"ĠSong":3574,"ĠPhÃ¡t":3575,"Thu":3576,"erson":3577,"CP":3578,"ĠCung":3579,"ĠLou":3580,"ĠHáº¡m":3581,"ere":3582,"ĠTrang":3583,"ĠRu":3584,"Ġdao":3585,"ĠHá»¯u":3586,"ĠAustr":3587,"Ġlá»ıng":3588,"yt":3589,"ĠLÄĥng":3590,"ĠJose":3591,"opsis":3592,"xico":3593,"Ġsáº¡ch":3594,"Ġdáº£i":3595,"ĠLÃºc":3596,"Ġxoa":3597,"erd":3598,"ĠRáºŃp":3599,"Ġ1956":3600,"ĠSingapore":3601,"ĠtÃ´ng":3602,"Ġsh":3603,"Ġser":3604,"ĠTur":3605,"anus":3606,"ĠMÃ´n":3607,"ĠMed":3608,"Ġanime":3609,"cel":3610,"ville":3611,"Å¡":3612,"ĠchÃ¬m":3613,"Ġvá»¯ng":3614,"Ġ1964":3615,"Ġ1954":3616,"NÃ³":3617,"ĠcÃ¡n":3618,"ĠÄĳáº»":3619,"pha":3620,"iev":3621,"55":3622,"TÃªn":3623,"con":3624,"ĠThÆ°":3625,"Ġsub":3626,"ker":3627,"ui":3628,"ĠBiÃªn":3629,"ĠKon":3630,"ĠDanh":3631,"Ġ1967":3632,"ĠMark":3633,"uchia":3634,"48":3635,"ger":3636,"Å«":3637,"Ġtháº£":3638,"Ġká»µ":3639,"ĠdÆ°":3640,"ĠÄĲÆ°á»£c":3641,"ĠThom":3642,"Or":3643,"zh":3644,"ĠcÃºng":3645,"Ġmáº¡n":3646,"ĠTiá»ģn":3647,"anc":3648,"ĠTrÆ°á»Łng":3649,"ĠDiv":3650,"ove":3651,"Trung":3652,"ĠCarol":3653,"ĠÃ©p":3654,"99":3655,"ft":3656,"ĠthÃ©p":3657,"ĠsÆ°á»Ŀn":3658,"ĠBos":3659,"imm":3660,"BC":3661,"Vá»ģ":3662,"Ġngá»§":3663,"ĠrÄĥng":3664,"ĠChrist":3665,"Ġ36":3666,"itan":3667,"Hung":3668,"ND":3669,"hay":3670,"ux":3671,"Ġuy":3672,"ĠhoÃł":3673,"ĠsÆ°u":3674,"ĠTáº¿":3675,"ĠTá»ģ":3676,"Ġngá»±c":3677,"Ġlá»Ĺ":3678,"ĠMÃ©xico":3679,"HÃłnh":3680,"do":3681,"Ð¸":3682,"ĠÄĳÃłm":3683,"ĠToÃłn":3684,"Ã¬a":3685,"ĠMáº¡c":3686,"ĠPhiÃªn":3687,"oli":3688,"32":3689,"ford":3690,"pr":3691,"ĠngÆ°á»¡ng":3692,"ĠBiá»ĥn":3693,"erus":3694,"rach":3695,"Ġ1968":3696,"OS":3697,"we":3698,"isch":3699,"ome":3700,"ĠChampions":3701,"bon":3702,"ye":3703,"Ã¤":3704,"Ġthai":3705,"Ġniá»ģm":3706,"á»±ng":3707,"ĠThÆ°Æ¡ng":3708,"ĠDr":3709,"alli":3710,"cc":3711,"ĠÄĳáº§m":3712,"Ġsan":3713,"ĠJames":3714,"âĢĭ":3715,"ĠHuáº¿":3716,"\";":3717,"cis":3718,"ÄŁ":3719,"ĠthÃ¡ch":3720,"Ġngá»£i":3721,"ĠgiÃł":3722,"oat":3723,"Ġ1976":3724,"Ġ1962":3725,"CO":3726,"ĠnÃ©t":3727,"ĠCÃºp":3728,"áº«m":3729,"ĠSlov":3730,"MS":3731,"cz":3732,"ois":3733,"ĠmÆ°á»£n":3734,"ĠCL":3735,"ÃŃm":3736,"ĠLin":3737,"ĠLao":3738,"ĠTrá»įng":3739,"ĠCha":3740,"Ġacid":3741,"49":3742,"88":3743,"Ġtráº¡m":3744,"ĠLam":3745,"app":3746,"ĠDavid":3747,"ĠMalaysia":3748,"ki":3749,"Ġlang":3750,"Ġthang":3751,"ĠLÃło":3752,"ĠAt":3753,"41":3754,"77":3755,"EFA":3756,"Ġvon":3757,"ĠTÆ°Æ¡ng":3758,"ava":3759,"ĠMosk":3760,"cu":3761,"gar":3762,"ĠnÃ²ng":3763,"ĠphÃºc":3764,"ĠNá»¯":3765,"ori":3766,"aser":3767,"Ġ1947":3768,"roc":3769,"Ġi":3770,"ĠCity":3771,"oria":3772,"ĠGal":3773,"ĠCho":3774,"olf":3775,"ema":3776,"iga":3777,"izabeth":3778,"La":3779,"oides":3780,"Ġká»ĭ":3781,"Ġkhá»ķng":3782,"ĠxÆ°á»Łng":3783,"á»¥t":3784,"Ã©o":3785,"iá»ħu":3786,"uáº¥t":3787,"ĠdÆ°á»Ŀng":3788,"umb":3789,"iano":3790,"ĠCampuchia":3791,"ĠcÃ¡t":3792,"ĠTÃłi":3793,"iá»ĩng":3794,"ĠJack":3795,"ingrad":3796,"Ġfor":3797,"KhÃ´ng":3798,"ĠxÃ¡m":3799,"ision":3800,"Ġ1965":3801,"ational":3802,"Ġbá»¥i":3803,"ĠâĢĭ":3804,"Gia":3805,"nÄĥm":3806,"ric":3807,"uv":3808,"ĠLang":3809,"aud":3810,"Ġ[[":3811,"El":3812,"ĠlÃºa":3813,"Ġbáº¥y":3814,"ĠgiÃ¡n":3815,"Ġxáº¥u":3816,"Ġ1936":3817,"Ã¼ll":3818,"53":3819,"gr":3820,"ĠcÆ°Æ¡ng":3821,"Ġlá»ĵ":3822,"Ġtráº§n":3823,"Ġchá»£":3824,"ĠHÃłng":3825,"arm":3826,"ĠThá»ĥ":3827,"ĠNhÃ³m":3828,"ĠAlbum":3829,"ĠâĢĭâĢĭ":3830,"Máº·c":3831,"gent":3832,"Ġå":3833,"ĠláºŃt":3834,"ĠlÅ©":3835,"Ġhyd":3836,"Ã¹m":3837,"ref":3838,"Giá»":3839,"tus":3840,"ĠcÃº":3841,"ĠHÃłnh":3842,"ĠPan":3843,"Ã¹n":3844,"ĠTháº¯ng":3845,"ĠGen":3846,"ĠNgay":3847,"ilton":3848,"42":3849,"bour":3850,"ple":3851,"Ġgr":3852,"ĠTÄ©nh":3853,"ĠPet":3854,"ulata":3855,"ĠEnter":3856,"Sm":3857,"pool":3858,"Ġon":3859,"ĠtÃ³c":3860,"ĠhÃło":3861,"Ġsá»¥p":3862,"ĠChÃ¡nh":3863,"ade":3864,"ĠUEFA":3865,"III":3866,"Gr":3867,"ĠkhÃ´i":3868,"ĠTá»©":3869,"Ġpháº«u":3870,"ĠThá»«a":3871,"ĠNgÃ¢n":3872,"Ġ1977":3873,"ĠInd":3874,"ĠQuyáº¿t":3875,"ĠOttoman":3876,"TÃŃnh":3877,"ĠÄĲá»ĩ":3878,"ĠShi":3879,"ĠGh":3880,"ĠFr":3881,"aki":3882,"Vá»Ľi":3883,"ga":3884,"je":3885,"tá»«":3886,"Ġtháº§y":3887,"Ġsá»«ng":3888,"ĠnhÆ°á»£ng":3889,"Ġnháº¥n":3890,"ĠTÃ´":3891,"any":3892,"ĠCá»¥":3893,"chi":3894,"ĠNháº¡c":3895,"uri":3896,"ĠdÃ¢m":3897,"ĠMin":3898,"ĠMoskva":3899,"38":3900,"ank":3901,"ĠÄĲiá»ģn":3902,"Ġthuáº§n":3903,"ali":3904,"isp":3905,"ĠAnt":3906,"Ġ1971":3907,"62":3908,"Ġláº¯p":3909,"ĠphÃº":3910,"ĠSinh":3911,"Ġ(,":3912,"omer":3913,"une":3914,"tainment":3915,"Ðµ":3916,"ĠchÃłng":3917,"Ġgu":3918,"ĠCÃ¡t":3919,"ĠBÃªn":3920,"ĠMáº¡ch":3921,"ĠPort":3922,"ube":3923,"ĠTáº¿t":3924,"Nguyá»ħn":3925,"rob":3926,"Ġ1948":3927,"inea":3928,"Ġtang":3929,"Ġcanh":3930,"Ġcá»ķng":3931,"Ġmiá»ĩng":3932,"ĠGl":3933,"Pháº§n":3934,"Ġ1955":3935,"AT":3936,"Ġnháº¡t":3937,"Ġnháº£y":3938,"Ġgl":3939,"ĠBáº±ng":3940,"ĠSil":3941,"Ġthá»£":3942,"oly":3943,"ope":3944,"ied":3945,"Ġung":3946,"ĠtrÃ´ng":3947,"Ġchá»Ŀ":3948,"ĠdÃ¡ng":3949,"ato":3950,"ÄĲáº·c":3951,"Ġ1974":3952,"ĠSerie":3953,"ĠKazakh":3954,"board":3955,"Ná»Ļi":3956,"let":3957,"Ġhang":3958,"Ġmá»įc":3959,"ĠMá»¥c":3960,"aland":3961,"ĠDem":3962,"Ġ39":3963,"ĠLondon":3964,"43":3965,"Ð½":3966,"ĠnÃ£o":3967,"ĠngÃłn":3968,"ĠDel":3969,"ĠFlor":3970,"Ġ1949":3971,"iverpool":3972,"Äį":3973,"ĠcÆ°á»Ľi":3974,"ĠmÃª":3975,"Ġdá»¡":3976,"ĠTÃŃnh":3977,"ĠLiÃªu":3978,"ĠSyria":3979,"ÄĲáº¿n":3980,"ĠAthena":3981,"Ġxoay":3982,"ĠmÃ£n":3983,"ĠgiáºŃn":3984,"ĠVol":3985,"ĠVirg":3986,"alus":3987,"ĠFrank":3988,"Ġdá»ĭp":3989,"Cr":3990,"Ġlá»įc":3991,"ĠnÆ°Æ¡ng":3992,"ĠchÃºt":3993,"ĠdÃ¢ng":3994,"ĠCap":3995,"ĠWindows":3996,"wood":3997,"za":3998,"ĠdÆ°á»£c":3999,"ĠSá»Ń":4000,"CÃ´":4001,"via":4002,"ĠtÃ´":4003,"irus":4004,"Ġmuá»ĳi":4005,"ĠEdward":4006,"100":4007,"Car":4008,"Pl":4009,"nam":4010,"Ġtrá»Ļn":4011,"ĠCáº§n":4012,"ĠMo":4013,"ĠMer":4014,"ĠÄĲá»Ĺ":4015,"ĠElizabeth":4016,"ĠHuá»ĩ":4017,"Ġhiá»ĥn":4018,"ĠHaw":4019,"ĠÄĲÃ³":4020,"aea":4021,"ĠWe":4022,"ings":4023,"ĠthoÃ¡i":4024,"ĠTokyo":4025,"):":4026,"MÃ´":4027,"sa":4028,"ĠÃºy":4029,"Ľt":4030,"Ġranh":4031,"Ġ32":4032,"ĠEntertainment":4033,"ster":4034,"Ġxong":4035,"ĠSw":4036,"Ġ47":4037,"Ġbá»įc":4038,"ĠOlymp":4039,"ten":4040,"Ġá»©c":4041,"Ġláº¡":4042,"ance":4043,"ĠLuc":4044,"ĠDiÃªn":4045,"ĠFri":4046,"ÄĳÆ°á»£c":4047,"Ġáº¥p":4048,"Ġmáº¥y":4049,"á»Ļm":4050,"ĠSant":4051,"ĠSaint":4052,"ami":4053,"ĠPhim":4054,"Chiáº¿n":4055,"Ġthiá»ĩp":4056,"Ġnáº¡p":4057,"ĠThá»©":4058,"ence":4059,"asia":4060,"Ġ1961":4061,"33":4062,"ä¸":4063,"ĠÃ¡i":4064,"ĠTÃ¢m":4065,"ĠHug":4066,"Ġxo":4067,"Ġmá»¡":4068,"ĠXI":4069,"ivers":4070,"ĠÄĳá»£i":4071,"84":4072,"VID":4073,"ior":4074,"ĠLá»ĭch":4075,"ĠFl":4076,"row":4077,"ipes":4078,"ĠScot":4079,"ĠLatinh":4080,"Ep":4081,"Viá»ĩc":4082,"rat":4083,"ĠmÆ°Æ¡i":4084,"aeidae":4085,"ĠxuÃ¢n":4086,"ĠJul":4087,"ador":4088,"ĠXV":4089,"ĠyÃªn":4090,"ChÃºng":4091,"Ġurani":4092,"69":4093,"81":4094,"Tiáº¿ng":4095,"ĠCáº£ng":4096,"á»±u":4097,"ias":4098,"Ġ75":4099,"Ġ1929":4100,"Ġ2023":4101,"ĠAngel":4102,"ĠÄĳÃ¡y":4103,"ĠthÃ¡o":4104,"ĠbÃ¹ng":4105,"ĠchÃ´n":4106,"ĠLuÃ¢n":4107,"ĠBor":4108,"enes":4109,"ĠTrÄĥng":4110,"ury":4111,"ago":4112,"ÄĲá»©c":4113,"Ġ150":4114,"Ġlá»ĩch":4115,"67":4116,"field":4117,"Ġná»Ļp":4118,"Ġchá»¥p":4119,"ĠHÃ¹ng":4120,"ĠMah":4121,"ogl":4122,"ogle":4123,"Ġ1966":4124,"ike":4125,"Ġ1937":4126,"Ġ1938":4127,"Ġ1914":4128,"ĠLouis":4129,"500":4130,"Hiá»ĩn":4131,"ÅĦ":4132,"Ġar":4133,"Ġvan":4134,"ĠHit":4135,"ĠKit":4136,"Ġ1918":4137,"ophyllum":4138,"SA":4139,"fl":4140,"ĠThiá»ĩu":4141,"ĠKáº¿":4142,"Ġbá»įn":4143,",\"":4144,"Do":4145,"ĠdÃ£":4146,"ĠHiáº¿u":4147,"ĠThá»±c":4148,"ĠsoÃ¡i":4149,"Ġhá»Ļp":4150,"ylv":4151,"82":4152,"ĠtÃŃm":4153,"ĠÄĳá»ĳm":4154,"Ġsá»¯a":4155,"ĠÄĲÃ´n":4156,"ĠTri":4157,"ĠEst":4158,"Ġ49":4159,"Ġthá»ĭnh":4160,"ĠlÃ£m":4161,"Ġ1958":4162,"ĠlÄĥng":4163,"ĠhÆ°u":4164,"ĠTom":4165,"ĠCast":4166,"ĠÄĲáº£o":4167,"ĠKar":4168,"elm":4169,"unc":4170,"Ġ1951":4171,"ĠAsilidae":4172,"Ġgháº¿":4173,"hoáº·c":4174,"danh":4175,"Ġtreo":4176,"ĠLiverpool":4177,"ĠVÃ¹ng":4178,"ĠAc":4179,"ander":4180,"ĠOk":4181,"Ġprotein":4182,"Ġnáº¥u":4183,"á»§i":4184,"ĠMeg":4185,"aut":4186,"ĠDÃ¹":4187,"Ġhoáº£ng":4188,"ĠEuro":4189,"aker":4190,"Ġmanga":4191,"uki":4192,"ĠCOVID":4193,"ĠlÅ©ng":4194,"Ġháº¡nh":4195,"ĠbÃºt":4196,"Ġpháº³ng":4197,"ĠMur":4198,"illboard":4199,"Ġ1917":4200,"di":4201,"rael":4202,"ĠchÄĥn":4203,"Ġkhen":4204,"ĠCÃ²n":4205,"ĠÄĲa":4206,"ĠRay":4207,"ĠtuÃ¢n":4208,"ĠArgent":4209,"ĠÃĤm":4210,"Ġ1934":4211,"Há»ĩ":4212,"ÑĢ":4213,"ĠmÆ¡":4214,"ĠTex":4215,"ĠrÃ£":4216,"ĠSÃ´ng":4217,"imb":4218,"ĠEx":4219,"Thá»ĭ":4220,"Ġruá»Ļt":4221,"yst":4222,"Ġtiá»ģm":4223,"Ġháº¯n":4224,"Ġmac":4225,"iáº¿c":4226,"ĠLÃł":4227,"ĠÄĲáº·ng":4228,"ĠXiÃªm":4229,"tra":4230,"Ã¼r":4231,"ĠnhuáºŃn":4232,"ĠJoseph":4233,"37":4234,"ny":4235,"pes":4236,"ĠbÃ¨":4237,"eli":4238,"olo":4239,"Ġ55":4240,"ĠHamilton":4241,"68":4242,"Bl":4243,"Pseud":4244,"gl":4245,"ĠcÄĥng":4246,"ĠthÃ¡m":4247,"Ġná»Ĺi":4248,"ĠPhá»§":4249,"Ġ1952":4250,"Ġ1959":4251,"Ġthan":4252,"ĠmÃ¡t":4253,"ĠCÃ¡i":4254,"ĠLos":4255,"ĠKá»ĥ":4256,"ther":4257,"Ġchuá»Ļt":4258,"MÃ¹a":4259,"Ã±":4260,"ĠMi":4261,"ays":4262,"ĠÄĳÃºc":4263,"ĠÄĳá»±ng":4264,"ĠbÃ³":4265,"Ġná»ĵng":4266,"ĠdÃª":4267,"Ġdáº¹p":4268,"chester":4269,"ĠMao":4270,"Ġpar":4271,"71":4272,"79":4273,"Mic":4274,"ĠtÄ©nh":4275,"Ġno":4276,"Ġdá»Ŀi":4277,"ĠTo":4278,"ĠSon":4279,"ĠGer":4280,"ĠAll":4281,"Ġ1935":4282,"CA":4283,"yth":4284,"anov":4285,"ĠHand":4286,"ĠÄĳÃ³i":4287,"eol":4288,"195":4289,"iet":4290,"ĠÄĳÃ¢u":4291,"ĠngÃ£":4292,"erg":4293,"ĠPat":4294,"ĠViá»ħn":4295,"ĠChiÃªu":4296,"osp":4297,"agh":4298,"ÄĲiá»ģu":4299,"oire":4300,"to":4301,"Ġis":4302,"ĠÆ°a":4303,"ĠhÃ¢m":4304,"ĠnÃªu":4305,"ĠngáºŃp":4306,"á»Ľt":4307,"ĠMusic":4308,"ĠCLB":4309,"BS":4310,"áº¤":4311,"ĠTuáº¥n":4312,"ĠHÆ¡n":4313,"ĠTráº¡ch":4314,"ĠQuáº£n":4315,"ilia":4316,"ĠWars":4317,"ĠMaria":4318,"Ġ179":4319,"Ġ1957":4320,"ÂłÂłÂłÂł":4321,"ĠNeur":4322,"Ġhuyá»ģn":4323,"ĠgiÃ¢y":4324,"ĠÄĳá»¥":4325,"ĠMet":4326,"abaeidae":4327,"Ġ1953":4328,"Ġbá»ĵi":4329,"ĠTan":4330,"ĠBour":4331,"Ġ1900":4332,"ĠRad":4333,"ĠCrom":4334,"Khu":4335,"ĠTexas":4336,"SÃ¢n":4337,"dor":4338,"eng":4339,"Ġmen":4340,"ĠTÃ¬nh":4341,"ĠNÃ´ng":4342,"ĠKing":4343,"ĠAk":4344,"orb":4345,"asp":4346,"ThÃ´ng":4347,"ĠXÆ°Æ¡ng":4348,"Ġ1931":4349,"Ġ1912":4350,"eyn":4351,"Ġ1891":4352,"ĠNeuroptera":4353,"cÃ¡c":4354,"Ġhá»ģ":4355,"ĠBy":4356,"ĠMas":4357,"ets":4358,"Ġ51":4359,"iflor":4360,"Ġlá»£n":4361,"ĠZealand":4362,"ha":4363,"iph":4364,"Ġdáº¯t":4365,"Ġgen":4366,"ĠCD":4367,"ĠPo":4368,"ĠChung":4369,"Ġhoan":4370,"oshi":4371,"Ġ48":4372,"ado":4373,"Nguá»ĵn":4374,"ello":4375,"ĠArm":4376,"ĊĠĊĠĊĠĊĠĊĠĊĠĊĠĊĠ":4377,"ĠGoogle":4378,"Hai":4379,"SP":4380,"dr":4381,"gen":4382,"ĠMiss":4383,"ese":4384,"opol":4385,"ĠkhoÃ¡ng":4386,"oda":4387,"Ġbuá»ĵn":4388,"Ġ1913":4389,"ĠAndre":4390,"Ġbá»ģn":4391,"á»§a":4392,"ĠThi":4393,"ator":4394,"lex":4395,"ĠlÃ£ng":4396,"ĠCroat":4397,"En":4398,"Scar":4399,"UB":4400,"ĠÄĳáºŃp":4401,"Ġláº§m":4402,"ĠdÃ²":4403,"ĠTÃº":4404,"Ġthuáº«n":4405,"ÄĲáº§u":4406,"ChÃŃnh":4407,"ĠCromwell":4408,"66":4409,"Ban":4410,"Æ¯":4411,"Ġtop":4412,"ĠmÃ¢y":4413,"ĠlÃłnh":4414,"ĠTÃ¡c":4415,"ĠTruyá»ģn":4416,"ĠDie":4417,"uba":4418,"ĠNghiÃªn":4419,"Ġká»ĭp":4420,"AR":4421,"Er":4422,"VÄĥn":4423,"Ġcod":4424,"Ġháº£o":4425,"ĠchÆ°":4426,"Ġpháº¿":4427,"ĠHot":4428,"ĠBá»ī":4429,"ĠPro":4430,"ĠVict":4431,"ĠKir":4432,"ĠDá»ĭch":4433,"com":4434,"eu":4435,"Ġz":4436,"Ġtung":4437,"ĠÄĳáºŃm":4438,"Ġle":4439,"ĠtháºŃn":4440,"Ã³w":4441,"Ġradar":4442,"ire":4443,"sau":4444,"Ġláº·p":4445,"Ġháº§m":4446,"Ġbia":4447,"ĠTw":4448,"ĠLáºŃp":4449,"ryopter":4450,"ĠPrem":4451,"ĠghÃ©p":4452,"ĠArgentina":4453,"ĠlÃ¢n":4454,"ĠTai":4455,"atri":4456,"ÄĲá»Ļi":4457,"ypod":4458,"ĠBlack":4459,"ĠIsrael":4460,"ĠInternet":4461,"ĠThomas":4462,"Sinh":4463,"TÃ´i":4464,"Ġcong":4465,"Ġvang":4466,"ĠHuyá»ģn":4467,"ĠPenn":4468,"unn":4469,"Hoa":4470,"ti":4471,"Ġã":4472,"nhÆ°":4473,"Ġná»ģ":4474,"ĠTV":4475,"ĠMak":4476,"ĠPhÃ¡i":4477,"QuáºŃn":4478,"ĠFI":4479,"ĠgÃ³i":4480,"ĠWales":4481,"Scarabaeidae":4482,"Co":4483,"Ġ)":4484,"ĠtÃ¡ng":4485,"Ġnáº¥m":4486,"ĠkhuyÃªn":4487,"Ġngá»±":4488,"ĠBÃ¡ch":4489,"ĠAf":4490,"ĠAz":4491,"ics":4492,"ulidae":4493,"oid":4494,"pl":4495,"Ġtáº¡ng":4496,"Ġdel":4497,"ĠMax":4498,"alm":4499,"isa":4500,"agr":4501,"Ġ1905":4502,"nheimer":4503,"ĠÄĳiá»ģn":4504,"ĠTak":4505,"ĠxÃ³a":4506,"icol":4507,"Ġ34":4508,"PhÃ¡t":4509,"áº³n":4510,"iff":4511,"evik":4512,"ĠBerlin":4513,"61":4514,"On":4515,"cus":4516,"str":4517,"Ġâ":4518,"Ġcl":4519,"ĠcÃł":4520,"Ġtráº§m":4521,"Ġgá»¡":4522,"ĠHol":4523,"ĠMÃ´i":4524,"ela":4525,"lec":4526,"ĠKháº¯c":4527,"ĠchuÃ´ng":4528,"Ġ1933":4529,"ĠLá»£i":4530,"ĠHÃ¬nh":4531,"ĠSo":4532,"ĠPt":4533,"imir":4534,"oln":4535,"ĠRos":4536,"Ġtuá»ĩ":4537,"ĠAlb":4538,"Ġ1932":4539,"Cuá»ĳi":4540,"ashing":4541,"IA":4542,"Ġ$":4543,"ĠÄĳiá»ĩp":4544,"ĠlÆ°á»¡ng":4545,"Ġhá»©a":4546,"Ġcá»§ng":4547,"ĠgiÃ£n":4548,"ĠMy":4549,"ĠKhan":4550,"Ġnhá»ĭp":4551,"Ġoxy":4552,"Ñģ":4553,"ĠtÃºc":4554,"Ġláº±n":4555,"ĠnhÃ£n":4556,"ĠTop":4557,"ĠBÃ¹i":4558,"ĠSimon":4559,"arin":4560,"Ġ400":4561,"Ġ1924":4562,"ball":4563,"oáº¡t":4564,"rit":4565,"ĠtÃºi":4566,"Ġcháº½":4567,"ĠTiáº¿ng":4568,"aux":4569,"ats":4570,"Ġ38":4571,"ĠOb":4572,"ĠFrancis":4573,"penheimer":4574,"ĠScotland":4575,"CÃ¢u":4576,"bao":4577,"Ġop":4578,"Ġthá»į":4579,"Ġmiáº¿u":4580,"Ġmá»ıng":4581,"ĠTÆ°á»Ľng":4582,"ĠSz":4583,"ĠFab":4584,"Ġ120":4585,"Ġ1911":4586,"ashington":4587,"Ġbáº¡ch":4588,"ĠGiao":4589,"oad":4590,"aro":4591,"ĠThiá»ģn":4592,"ĠEug":4593,"áº¹t":4594,"Ġsuá»ĳi":4595,"ĠRoma":4596,"78":4597,"Náº¿u":4598,"TÃ¡c":4599,"be":4600,"ij":4601,"sc":4602,"åħ":4603,"Ġphun":4604,"ĠCas":4605,"ĠBul":4606,"ĠSeo":4607,"ĠThiá»ĩn":4608,"ĠKiá»ģu":4609,"org":4610,"ĠNgÅ©":4611,"omy":4612,"Ġ1927":4613,"Ġ1906":4614,"ĠbÃ©o":4615,"ĠSaltic":4616,"ĠSalticidae":4617,"DÆ°á»Ľi":4618,"EA":4619,"kin":4620,"ĠtÆ°Æ¡i":4621,"ĠÄĳÃ¡o":4622,"ĠmÃ£i":4623,"Ġkháº©n":4624,"ĠComp":4625,"ĠxÃŃch":4626,"ĠMic":4627,"ĠSum":4628,"arr":4629,"elia":4630,"eop":4631,"itch":4632,"Thiáº¿t":4633,"âĢĶ":4634,"Ġ1916":4635,"31":4636,"CD":4637,"tá»©c":4638,"ĠÄĳeo":4639,"Ġgá»£i":4640,"ĠSol":4641,"ogon":4642,"oft":4643,"ubl":4644,"ĠSmith":4645,"Sá»ĳ":4646,"Viá»ĩt":4647,"Ġháº³n":4648,"ĠsÃłn":4649,"Ġgáº¡o":4650,"ĠNet":4651,"ÃŃp":4652,"ĠNgÃ´i":4653,"ĠIl":4654,"ÄĲá»ĥ":4655,"ĠZh":4656,"anthus":4657,"ĠKazakhstan":4658,"¨ng":4659,"Ġháº¹n":4660,"ĠchÃ¨o":4661,"ĠLÆ°":4662,"ĠHoÃłi":4663,"ĠÄĲÄĥng":4664,"ĠSuper":4665,"ĠTham":4666,"ĠThiáº¿t":4667,"ĠKiev":4668,"ĠDiá»ĩm":4669,"ĠWashington":4670,"ĠlÃ£i":4671,"ĠCá»¥m":4672,"Cart":4673,"nik":4674,"å¤":4675,"ngh":4676,"Ġtháº±n":4677,"Ġsá»ķ":4678,"ĠNob":4679,"ĠLi":4680,"Ġráº½":4681,"ĠMod":4682,"Ġmá»¹":4683,"ulus":4684,"rec":4685,"odon":4686,"Ġ1921":4687,";/":4688,"gor":4689,"ĠlÃ²":4690,"Ġhá»ĵn":4691,"Ġná»Ł":4692,"ĠkÃŃn":4693,"Ġnháº§m":4694,"Ġnhá»±a":4695,"ĠTÃ¹y":4696,"ĠViáº¿t":4697,"estr":4698,"Ġgiá»ı":4699,"oster":4700,"Ð¾Ð":4701,"ĠPremier":4702,"CÆ¡":4703,"wig":4704,"Ġcá»į":4705,"Ġná»£":4706,"ĠTÃłu":4707,"ĠBern":4708,"Ġ1919":4709,"ĠVá»ĭ":4710,"ĠKur":4711,"ĠAP":4712,"Ã©on":4713,"Thá»ĥ":4714,"ĠÄĳÃ¨n":4715,"Ġhá»ıng":4716,"ĠxÃŃt":4717,"ĠSoc":4718,"ĠTrÃ¢n":4719,"ĠNhu":4720,"ĠQuy":4721,"cÃ²n":4722,"van":4723,"Ġcá»ĳi":4724,"Ġlam":4725,"ĠSir":4726,"Ġ42":4727,"ĠJean":4728,"Ġcodice":4729,".,":4730,"74":4731,"Tip":4732,"Ġbá»ĳc":4733,"Ġsc":4734,"ĠSai":4735,"ĠXX":4736,"ocarp":4737,"Ġ1910":4738,"Ġ1925":4739,"Cartney":4740,"uan":4741,"Ġnhiáº¿p":4742,"ĠquÃ¡i":4743,"erb":4744,"ĠMag":4745,"ito":4746,"ĠPlay":4747,"ĠCá»Ńu":4748,"63":4749,"MÃ´i":4750,"lÃł":4751,"Ġob":4752,"ĠlÆ°á»¡i":4753,"Ġngai":4754,"alt":4755,"olk":4756,"áº»o":4757,"ower":4758,"stant":4759,"ĠVenez":4760,"05":4761,"Ġva":4762,"Ġthá»Ł":4763,"ĠthÃ´i":4764,"ĠBá»ĩnh":4765,"eridae":4766,"ĠÄĲá»Ļng":4767,"ĠSang":4768,"ĠVÃ´":4769,"itar":4770,"opa":4771,"ĠHÃłm":4772,"Ġ1909":4773,"ĠNorth":4774,"ĠAngeles":4775,"FO":4776,"ĠvÃ©":4777,"ĠNov":4778,"Ġalb":4779,"Ġ1922":4780,"ĠGeorg":4781,"ĠDiego":4782,"Kinh":4783,"VD":4784,"ĠtáºŃt":4785,"Ġbit":4786,"ĠHir":4787,"ĠHuÃ¢n":4788,"ĠPav":4789,"ĠChile":4790,"ĠÃĹ":4791,"ĠNháº¥t":4792,"ĠJun":4793,"á»Ľn":4794,"ĠManchester":4795,"ĠApidae":4796,"Ġæ":4797,"ĠviÃªm":4798,"ĠmÃ¨o":4799,"Ġnig":4800,"ĠTum":4801,"oni":4802,"ĠGP":4803,"osta":4804,"Ã´ne":4805,"ĠXÃ¡":4806,"ennis":4807,"ĠOppenheimer":4808,"ĠCarolina":4809,"å®":4810,"Ġáº¥m":4811,"Ġax":4812,"ĪĴ":4813,"Ġcr":4814,"ĠlÃ´":4815,"Ġmáº£ng":4816,"ĠmÃ¹i":4817,"Ġtrá»«ng":4818,"ĠbÆ¡i":4819,"Ġchá»¥c":4820,"Ġcháº·ng":4821,"Ġsá»įc":4822,"ĠAv":4823,"ĠkhiÃªu":4824,"out":4825,"Nhiá»ģu":4826,"ĠâĢĶ":4827,"enko":4828,"escens":4829,"01":4830,"Ag":4831,"DP":4832,"LÃł":4833,"he":4834,"Ġháº±ng":4835,"ĠbÃª":4836,"Ġsáº¡n":4837,"Ġkhá»©":4838,"ĠCat":4839,"ĠLÆ°á»£ng":4840,"ĠLind":4841,"ĠLÃ£nh":4842,"Ġrau":4843,"ĠJos":4844,"ĠKhang":4845,"á»Ĺng":4846,"Ġhydro":4847,"Pol":4848,"Ġtá»ĳn":4849,"Ġlá»ĵng":4850,"ĠnhÃ¬":4851,"ĠLab":4852,"atra":4853,"ĠhoÃ£n":4854,"ĠKhoáº£ng":4855,"ĠOn":4856,"azon":4857,"incoln":4858,"59":4859,"vÃŃ":4860,"ÑĤ":4861,"Ġcá»ĳc":4862,"ĠÄĳáº¡p":4863,"ĠlÃµi":4864,"ĠchÃło":4865,"ĠkiÃªn":4866,"Ġnhá»įn":4867,"ĠdÃŃnh":4868,"ĠTÃ¹ng":4869,"ĠMew":4870,"ĠKan":4871,"ilus":4872,"ulb":4873,"edia":4874,"ogne":4875,"iform":4876,"ĠGiá»Ľi":4877,"=\"":4878,"BT":4879,"shi":4880,"win":4881,"Ġvay":4882,"ĠMá»Ļc":4883,"ĠMÃ¼ll":4884,"ĠPhÃ¹":4885,"ican":4886,"ĠJan":4887,"ĠUl":4888,"ĠMarx":4889,"Ġ1908":4890,"ĠVirginia":4891,"Há»Ļi":4892,"IC":4893,"Nam":4894,"ĠlÆ°á»Ŀn":4895,"ĠTour":4896,"ĠCáº£i":4897,"ĠBraz":4898,"Æ°á»Ľt":4899,"ĠVlad":4900,"ĠGro":4901,"ĠNghi":4902,"icidae":4903,"Ġ46":4904,"over":4905,"eda":4906,"ĠStud":4907,"ansas":4908,"ĠCÃ³i":4909,"ynch":4910,"arbon":4911,"All":4912,"ko":4913,"por":4914,"xem":4915,"Ġthung":4916,"Ġtrá»Ļm":4917,"ĠTÄĥng":4918,"ĠTÃ´i":4919,"ĠLá»¯":4920,"ĠLincoln":4921,"esi":4922,"QuÃ¢n":4923,"ild":4924,"Ġ56":4925,"red":4926,"aku":4927,"ĠLeon":4928,"ĠRoman":4929,"ĠFIFA":4930,"Hyp":4931,"TáºŃp":4932,"ĠÄĳiÃªu":4933,"ĠsÃºc":4934,"ĠquÃ©t":4935,"ĠLib":4936,"Ġgiáº¥u":4937,"ĠPak":4938,"ĠDÅ©ng":4939,"ĠPhá»¥c":4940,"osth":4941,"andra":4942,"rev":4943,"2016":4944,"ĠDivision":4945,"Ġgiá»ıi":4946,"76":4947,"Ġbá»¯a":4948,"ĠTin":4949,"ĠquÃł":4950,"Ġrá»Ńa":4951,"erv":4952,"ĠPi":4953,"ĠKl":4954,"ĠKy":4955,"ĠAC":4956,"ĠDÆ°á»Ľi":4957,"ĠnghiÃªng":4958,"ĠFir":4959,"Ġ52":4960,"ĠItalia":4961,"eynman":4962,"col":4963,"uph":4964,"Ġáº£o":4965,"Ġliá»ģu":4966,"Ġmáº¡o":4967,"Ġnháºµn":4968,"Ġgá»ĳm":4969,"ĠSar":4970,"ĠFor":4971,"ĠFoot":4972,"thur":4973,"opp":4974,"NguyÃªn":4975,"\":":4976,"me":4977,"pur":4978,"ĠÄĳá»©t":4979,"áº¥c":4980,"quita":4981,"ĠquÃ¡t":4982,"ĠLá»ĩ":4983,"ĠBad":4984,"Ġlá»«a":4985,"emis":4986,"ĠWar":4987,"agon":4988,"ĠShel":4989,"Ġ1923":4990,"Ġ1928":4991,"ĠChuáº©n":4992,"ĠBolsh":4993,"¯a":4994,"Ġkiá»ĩt":4995,"ĠTÆ°á»Ŀng":4996,"ĠxÃ¡":4997,"ĠBáº¡t":4998,"ariidae":4999,"ĠThÆ¡":5000,"á»¥i":5001,"ĠRec":5002,"asa":5003,"á»ĥm":5004,"Ġ64":5005,"ĠArt":5006,"ĠPark":5007,"France":5008,"ĠCroatia":5009,"09":5010,"EC":5011,"[[":5012,"vá»Ľi":5013,"Ġion":5014,"Ġvirus":5015,"Ġtha":5016,"ĠbÃ¢y":5017,"ĠbÃłng":5018,"Ġro":5019,"ĠÄĳá»Ĺ":5020,"ĠMau":5021,"ĠVÃłng":5022,"ĠKen":5023,"ĠDC":5024,"ĠJac":5025,"Ġmá»«ng":5026,"ĠBrazil":5027,"ech":5028,"çİ":5029,"Ġat":5030,"ĠtrÃ¡ng":5031,"ĠHay":5032,"ĠHoll":5033,"ĠBu":5034,"ĠBon":5035,"ĠBáº£y":5036,"arus":5037,"olÃ©on":5038,"agas":5039,"Cho":5040,"iew":5041,"Ġ1915":5042,"yx":5043,"Ġáº¿ch":5044,"ĠthÃ´":5045,"Ġtháº»":5046,"ĠmÃ¢u":5047,"ĠnÃºt":5048,"ĠHoÃł":5049,"erry":5050,"ĠPomer":5051,"ason":5052,"áº«y":5053,"ĠOcc":5054,"TrÃªn":5055,"Ġflav":5056,"khoáº£ng":5057,"ĠGuinea":5058,"ĠAlexander":5059,"BÃłi":5060,"ban":5061,"lu":5062,"Ġad":5063,"nhá»¯ng":5064,"Ġnháº¯m":5065,"Ġder":5066,"Ġdá»Ļi":5067,"ĠVan":5068,"ombia":5069,"ĠIran":5070,"ÄĲá»ĳi":5071,"ÄĲá»Ŀi":5072,"ĠAlbert":5073,"azz":5074,"ĠShin":5075,"ĠGiá»ĳng":5076,"quitaine":5077,"BÃł":5078,"Huáº¥n":5079,"ps":5080,"Ġáº¥u":5081,"ĠTel":5082,"Ġ1000":5083,"ĠMass":5084,"arch":5085,"ĠKá»·":5086,"ĠAward":5087,"oriz":5088,"ĠCháº¥p":5089,"ates":5090,"Ġkhuáº©n":5091,"ordan":5092,"Alpes":5093,"actyl":5094,"FC":5095,"Ġcá»ĳng":5096,"Ġcáº¡n":5097,"ongo":5098,"Ġquá»·":5099,"Ã£m":5100,"ĠPeter":5101,"ĠVer":5102,"ĠKe":5103,"ĠKá»¹":5104,"ĠDom":5105,"ĠDiá»ħn":5106,"ĠJava":5107,"ÄĲÆ°á»Ŀng":5108,"ÄĲá»ĭnh":5109,"uda":5110,"ĠInter":5111,"ĠOccitan":5112,"%:":5113,"ĠcÆ°á»¡ng":5114,"Ġnáº¡t":5115,"ĠTá»ĳi":5116,"Ġngáº«u":5117,"Ġphiáº¿n":5118,"ĠLev":5119,"ĠHan":5120,"Ġrá»ĵng":5121,"Ġxá»©ng":5122,"ĠSel":5123,"ario":5124,"Ġ44":5125,"akia":5126,"roph":5127,"uto":5128,"ĠLee":5129,"uela":5130,"bourne":5131,"áº¤u":5132,"ĠBolshevik":5133,"Com":5134,"Ġim":5135,"ĠmÃ¹":5136,"ĠLit":5137,"uya":5138,"ĠSÃ³c":5139,"amin":5140,"icran":5141,"ĠIll":5142,"ianus":5143,"Ġ1926":5144,"Ġhuá»ĳng":5145,"ylvania":5146,"Billboard":5147,"Sá»Ń":5148,"yb":5149,"ĠÄĳáº¯c":5150,"ĠbÃ¹":5151,"Ġsch":5152,"ĠTiber":5153,"ams":5154,"Ġthá»īnh":5155,"Ã²m":5156,"ĠDryopter":5157,"islav":5158,"ĠNguyá»ĩt":5159,"urt":5160,"TráºŃn":5161,"ingham":5162,"ston":5163,"ĠDryopteridaceae":5164,"SS":5165,"yle":5166,"ĠtÃ´m":5167,"Ġviáº¿ng":5168,"Ġleo":5169,"ĠnÃłng":5170,"ĠkÄ©":5171,"Ġpháº¥n":5172,"ĠPas":5173,"Æ°Æ¡n":5174,"ister":5175,"ĠWood":5176,"Ġtá»±u":5177,"otte":5178,"ĠOne":5179,"TrÆ°á»Ŀng":5180,"Ġpop":5181,"ĠlÃ£o":5182,"Ġinch":5183,"ĠColombia":5184,"Káº¿t":5185,"TA":5186,"ĠtÃ¹ng":5187,"Ġlaser":5188,"ĠlÃłn":5189,"ĠCent":5190,"ĠPu":5191,"aii":5192,"orth":5193,"uma":5194,"acia":5195,"ĠEur":5196,"thu":5197,"ĠGiáº£":5198,"ouv":5199,"Ġ1903":5200,"Ġ1895":5201,"ĠFootball":5202,"73":5203,"ces":5204,"giá»":5205,"iol":5206,"Ġláº¯ng":5207,"Ġngá»«a":5208,"ical":5209,"hio":5210,"otus":5211,"otrich":5212,"Ġpol":5213,"ikh":5214,"ĠStal":5215,"ĠHook":5216,"League":5217,"ĠMartin":5218,"58":5219,"eon":5220,"Ġbá»Ľt":5221,"ĠnÃ´":5222,"Ġnai":5223,"Ġnit":5224,"ĠnÆ°á»Ľng":5225,"ĠsÃ´i":5226,"Ġgá»įn":5227,"ĠNav":5228,"ĠHow":5229,"rey":5230,"ÄĲÃ´":5231,"edonia":5232,"rypt":5233,"Ġ1899":5234,"Ã´ma":5235,"ĠMcCartney":5236,"ĠMichael":5237,"Cor":5238,"HoÃłng":5239,"ju":5240,"kan":5241,"mina":5242,"sylvania":5243,"ĠcáºŃy":5244,"Ġláº§y":5245,"Ġháº¡ch":5246,"ĠmÃ¬n":5247,"ĠdÅ©ng":5248,"Ġngo":5249,"ĠLÄ©nh":5250,"ĠHiá»ĩu":5251,"ĠBÃ¡o":5252,"ente":5253,"ĠGiÃª":5254,"teridaceae":5255,"oud":5256,"ÅĤaw":5257,"Ġspin":5258,"Ba":5259,"Mac":5260,"ĠÃ´n":5261,"Ġbr":5262,"ĠduyÃªn":5263,"Ġgáº¡ch":5264,"ĠMáº¹":5265,"ĠDoanh":5266,"idium":5267,"ĠPhÃŃa":5268,"ĠRo":5269,"Ġ41":5270,"Ġ53":5271,"inger":5272,"ĠÃĶn":5273,"ĠBayern":5274,"ĠPennsylvania":5275,"Ps":5276,"Ġváº¡ch":5277,"Ġnhi":5278,"ĠDev":5279,"olem":5280,"ette":5281,"omo":5282,"Ġper":5283,"ellidae":5284,"ycl":5285,"Ġ1907":5286,"ĠAss":5287,"ĠCarib":5288,"ĠMilan":5289,"ĠHugo":5290,"iflora":5291,"TT":5292,"kov":5293,"lÄ±":5294,"Ġer":5295,"Ġang":5296,"ĠÄĳáº¯p":5297,"Ġdá»ĳc":5298,"ĠCai":5299,"Ġquáº¿":5300,"Ã¢nia":5301,"Ġrock":5302,"igan":5303,"rog":5304,"utt":5305,"ĠthÆ¡m":5306,"ĠFlorida":5307,"osthenes":5308,"Di":5309,"ltr":5310,"ÃŁ":5311,"Ġo":5312,"ĠÄĳÃł":5313,"ĠTinh":5314,"ĠTiáº¿p":5315,"urn":5316,"ThÃ¢n":5317,"trÆ°á»Ľc":5318,"edrich":5319,"ĠTuáº§n":5320,"ĠGiray":5321,"ĠtrÃłn":5322,"ĠMáº¡ng":5323,"idia":5324,"ĠNho":5325,"ĠNhá»Ŀ":5326,"ĠWat":5327,"Ġmá»Ŀ":5328,"ĠStan":5329,"ĠVladimir":5330,"ĠSheldon":5331,"Ap":5332,"Ðº":5333,"ĠtÃºy":5334,"ĠÄĳÃ¢m":5335,"Ġmá»Ļc":5336,"Ġtriá»ĩt":5337,"ĠTiáº¿t":5338,"ĠCÆ°Æ¡ng":5339,"ĠHiá»ģn":5340,"atar":5341,"its":5342,"unct":5343,"aven":5344,"ĠÃĤn":5345,"ĠHoáº±ng":5346,"ĠPolypod":5347,"ĠKitÃ´":5348,"fa":5349,"res":5350,"Ġtáº¯m":5351,"Ã¡s":5352,"Ġchá»ĳt":5353,"Ġchá»«ng":5354,"Ġvá»Ŀi":5355,"cho":5356,"erid":5357,"ales":5358,"orum":5359,"Ġnghá»ĭch":5360,"icul":5361,"ĠFA":5362,"ĠOhio":5363,"ĠSeoul":5364,"95":5365,"Cer":5366,"GC":5367,"Ġtáº£n":5368,"ĠcÃºp":5369,"Ġláº·ng":5370,"ĠColl":5371,"ĠxÃ³m":5372,"ĠBry":5373,"ĠVo":5374,"alc":5375,"aes":5376,"eld":5377,"elt":5378,"Quá»ĳc":5379,"ĠNhÆ¡n":5380,"ĠRed":5381,"Ġ54":5382,"ĠMary":5383,"ylla":5384,"Ġ1897":5385,"Giai":5386,"GiÃ¡o":5387,"Ġthá»¥y":5388,"ĠBenth":5389,"Ġguitar":5390,"ĠPolypodiaceae":5391,"des":5392,"Ġrá»§i":5393,"ĠBoh":5394,"ĠMyan":5395,"amo":5396,"ĠPic":5397,"ĠThÄĥng":5398,"ĠVá»ĩ":5399,"ĠAT":5400,"aylor":5401,"ange":5402,"osc":5403,"ĠFeynman":5404,"Thá»ĳng":5405,"Ġduá»ĩ":5406,"Ä±r":5407,"ĠTimes":5408,"ĠNapolÃ©on":5409,"ĠSlovakia":5410,":\"":5411,"NÄĲ":5412,"Sáº£i":5413,"Tá»īnh":5414,"VÃ¬":5415,"uh":5416,"Ġbá»Ļi":5417,"Ġkhuyáº¿t":5418,"ĠCÃł":5419,"ĠBud":5420,"ĠÄĲá»ģ":5421,"ĠVá»¥":5422,"ĠKiá»ĥu":5423,"eni":5424,"iang":5425,"anga":5426,"ĠRÃ´ma":5427,"oton":5428,"ĠRomania":5429,"ĠRomÃ¢nia":5430,"ĠthÃ¹y":5431,"ĠlÅ©y":5432,"çİĭ":5433,"Col":5434,"Ex":5435,"ST":5436,"rh":5437,"wn":5438,"ĠÎ":5439,"ĠmÃ³c":5440,"Ġmiáº¿ng":5441,"Ġnáº£y":5442,"ĠrÃło":5443,"ink":5444,"omor":5445,"opidae":5446,"andr":5447,"ĠKhai":5448,"ĠkhÃŃa":5449,"Ġ1878":5450,"ĠHawaii":5451,"ĠOlympic":5452,"ĠOccitanie":5453,"mi":5454,"sur":5455,"Ãģ":5456,"Ġman":5457,"ĠtráºŃt":5458,"ĠbÃ¡t":5459,"ĠchiÃªu":5460,"ĠchÃ©m":5461,"ĠsÃºt":5462,"ĠTÆ°á»Łng":5463,"ĠHáº¡t":5464,"ony":5465,"ĠKÃŃnh":5466,"iat":5467,"ĠTrinh":5468,"ĠGames":5469,"ati":5470,"imus":5471,"Ġhoáº¡i":5472,"leur":5473,"Ġfr":5474,"Ġ1894":5475,"ĠPhilip":5476,"Ġcá»įp":5477,"07":5478,"08":5479,"Báº£o":5480,"CÅ©ng":5481,"mid":5482,"ÃĤ":5483,"åŃ":5484,"Ġtuyáº¿t":5485,"Ġváº¯ng":5486,"Ġmá»ĳc":5487,"ĠnháºŃm":5488,"ĠdÃ¡m":5489,"ĠNai":5490,"ĠNight":5491,"ĠBinh":5492,"ĠBáº£ng":5493,"ĠKol":5494,"ĠDan":5495,"Ġcuá»ĳng":5496,"osus":5497,"Ã¨re":5498,"Chá»§":5499,"ife":5500,"Ġruá»Ļng":5501,"Ġ1904":5502,"ĠDemosthenes":5503,"54":5504,"Saint":5505,"VÃ¹ng":5506,"stein":5507,"Ġbi":5508,"ĠbÃ¡ch":5509,"Ġquá»³":5510,"ĠNorm":5511,"ĠHill":5512,"ĠBas":5513,"ĠSri":5514,"Ġ(),":5515,"ĠTháº©m":5516,"ĠVI":5517,"Ġsá»ĳt":5518,"ĠDak":5519,"ĠQuáº£":5520,"icola":5521,"ithi":5522,"ady":5523,"ahalli":5524,"Ġtá»ıa":5525,"ĠkhÃ³i":5526,"ĠPeru":5527,"ĠGreen":5528,"ĠVenezuela":5529,"San":5530,"bl":5531,"ĠhÆ°ng":5532,"Ġby":5533,"ĠNÆ°á»Ľc":5534,"ĠLor":5535,"ĠxÆ°á»Ľng":5536,"ĠSlav":5537,"ily":5538,"ĠRy":5539,"agus":5540,"ika":5541,"ierz":5542,"2007":5543,"Ġuá»ĳn":5544,"ĠSteph":5545,"yphiidae":5546,"ĠLinyphiidae":5547,"ĠStalingrad":5548,"SÃ´ng":5549,"Ġeo":5550,"ngÃły":5551,"Ġváº¹n":5552,"ĠmÃ³ng":5553,"Ġdes":5554,"Ġráº¡p":5555,"ĠSk":5556,"ĠÄĳÃ£i":5557,"emat":5558,"thÃ¡ng":5559,"reg":5560,"raq":5561,"eps":5562,"ords":5563,"Ġ1901":5564,"ĠUnivers":5565,"ĠBroth":5566,"ĠPhá»¥ng":5567,"ĠMyanmar":5568,"CS":5569,"ĠlÃ¹i":5570,"ĠCuba":5571,"ĠNak":5572,"ĠMÆ°á»Ŀi":5573,"ones":5574,"á»¥ng":5575,"aios":5576,"ism":5577,"ĠUFO":5578,"oku":5579,"ĠvÃ²m":5580,"ĠKras":5581,"92":5582,"Lept":5583,"New":5584,"Ġ;":5585,"Ġmá»ķ":5586,"Ġmic":5587,"ĠchÃ¢m":5588,"ĠTen":5589,"ĠTÃºc":5590,"ĠBá»ĳ":5591,"ĠSen":5592,"ĠSab":5593,"ĠRock":5594,"emon":5595,"Ġluá»ĵng":5596,"iki":5597,"uct":5598,"1999":5599,"ĠBulg":5600,"Ġaxit":5601,".-":5602,"LÃ½":5603,"line":5604,"mond":5605,"ni":5606,"ĠÆ¯":5607,"Ġtáº¥u":5608,"Ġváº£i":5609,"ĠvÄ©nh":5610,"Ġhá»ĳi":5611,"Ġháº¡c":5612,"Ġki":5613,"ĠComm":5614,"ĠMV":5615,"ĠMay":5616,"ĠKarl":5617,"ĠGame":5618,"esch":5619,"ĠNgÃ£i":5620,"ĠNhÆ°á»¡ng":5621,"ilbert":5622,"ThÃ¡i":5623,"opus":5624,"ulf":5625,"Ã¨ne":5626,"2015":5627,"inawa":5628,"Ġmuá»Ļn":5629,"ebr":5630,"Ġ1890":5631,"inois":5632,"ĠClub":5633,"ĠHitler":5634,"51":5635,"Báº£n":5636,"Bá»ĳi":5637,"Báº£ng":5638,"Dr":5639,"Re":5640,"jo":5641,"sá»ĳ":5642,"ĠÆ°á»Ľt":5643,"ĠkÃ©p":5644,"ĠkhÃ¡nh":5645,"ĠHi":5646,"ĠrÃ¡c":5647,"ĠBáº¿n":5648,"aeus":5649,"ishi":5650,"usa":5651,"astr":5652,"ĠKhÃª":5653,"ĠAnton":5654,"ĠShar":5655,"ĠAustralia":5656,"400":5657,"Mel":5658,"ĠvÆ°Æ¡n":5659,"ĠlÃ¢y":5660,"ĠhÃ´i":5661,"Ġnháº¡y":5662,"anch":5663,"ĠÄĲáº¡t":5664,"ĠSung":5665,"ĠTháº¥t":5666,"ĠVÆ°á»Ŀn":5667,"Ã½t":5668,"ĠEsp":5669,"iro":5670,"ewis":5671,"NháºŃt":5672,"ambon":5673,"Ġ1902":5674,"endo":5675,"Ġ1896":5676,"ection":5677,"ĠNobel":5678,"ĠPakistan":5679,"Don":5680,"min":5681,"mÃ©t":5682,"rin":5683,"à¤":5684,"Ġláº¡m":5685,"ĠthiÃªng":5686,"ĠhÃ£m":5687,"ĠTP":5688,"ĠCÆ°á»Ŀng":5689,"ĠHÆ°á»Ľng":5690,"eria":5691,"ĠMid":5692,"ĠMun":5693,"ĠÄĲá»ı":5694,"áº¯k":5695,"ĠThÃ¡c":5696,"ĠTháº¡nh":5697,"ait":5698,"ĠGab":5699,"ĠQuÃ¡n":5700,"olog":5701,"ĠRog":5702,"icum":5703,"opl":5704,"ĠKhá»ķng":5705,"ude":5706,"ĠAmazon":5707,"And":5708,"MA":5709,"Per":5710,"gu":5711,"xin":5712,"ĠÄĳÃ²n":5713,"ĠÄĳáº¥y":5714,"Ġváº£y":5715,"Ġbáº¿n":5716,"Ġnguyá»ĩt":5717,"ĠNiger":5718,"ĠHel":5719,"Ġxen":5720,"ĠMill":5721,"istr":5722,"ĠNgáº¡n":5723,"osph":5724,"ĠId":5725,"Ġ43":5726,"Ãµm":5727,"ĠZap":5728,"uke":5729,"Ġelec":5730,"cuador":5731,"ogloss":5732,"ĠOkinawa":5733,"stantin":5734,"jan":5735,"ÅĻ":5736,"ĠmÅ©":5737,"ĠgÆ°Æ¡ng":5738,"ĠCá»ı":5739,"ĠCÄĥn":5740,"ĠBÃ¡c":5741,"ĠBá»Ļt":5742,"ĠBao":5743,"aun":5744,"ident":5745,"ream":5746,"ĠluÃ¢n":5747,"owa":5748,"At":5749,"Ká»ĥ":5750,"ĠBh":5751,"arius":5752,"aba":5753,"oga":5754,"ĠLeg":5755,"orts":5756,"ermo":5757,"ĠPtolem":5758,"ouvelle":5759,"%)":5760,"03":5761,"56":5762,"ef":5763,"eus":5764,"eet":5765,"ĠcÃłi":5766,"Ġdá»ĩt":5767,"ĠTÃŃn":5768,"ĠLove":5769,"Ġrá»ħ":5770,"ĠMáºŃt":5771,"ĠSat":5772,"ĠThay":5773,"ĠVá»ĭnh":5774,"aill":5775,"imp":5776,"icia":5777,"ĠEcuador":5778,"thÆ°á»Ŀng":5779,"evich":5780,"ĠMÃ£n":5781,"ophyllaceae":5782,"ĠRuá»ĵi":5783,"ĠFriedrich":5784,"Asp":5785,"DS":5786,"LA":5787,"ear":5788,"Ġten":5789,"ĠtrÆ¡n":5790,"ĠgÅ©i":5791,"ĠKn":5792,"ĠKiá»ĥm":5793,"itter":5794,"ures":5795,"ĠIc":5796,"ĠIraq":5797,"umi":5798,"ement":5799,"Ġ85":5800,"ĠMargar":5801,"uka":5802,"Ad":5803,"cl":5804,"so":5805,"uay":5806,"way":5807,"Ġtrá»Ļi":5808,"Ġchuyá»ģn":5809,"Ġngáº¡c":5810,"ĠNouvelle":5811,"ĠLo":5812,"Ġráº»":5813,"ĠVáº¡n":5814,"ĠKer":5815,"ĠAug":5816,"ĠQuá»¹":5817,"icz":5818,"Ġ72":5819,"ever":5820,"ĠThuáºŃt":5821,"rosoft":5822,"ĠJosÃ©":5823,"rick":5824,"ĠvÃ¡n":5825,"ĠchÃ¡nh":5826,"Ġdáº»o":5827,"ĠTer":5828,"Ġngon":5829,"Ġtá»ĥ":5830,"ĠMá»Ł":5831,"ĠMÃ¡y":5832,"ĠMinn":5833,"ĠKong":5834,"alp":5835,"ĠDani":5836,"ĠRam":5837,"ĠFern":5838,"edon":5839,"ough":5840,"Phil":5841,"etti":5842,"ĠOscar":5843,"ĠAustral":5844,"ĠNormand":5845,"VÆ°Æ¡ng":5846,"aph":5847,"cy":5848,"gan":5849,"zo":5850,"zy":5851,"ĠÄĳáº¯m":5852,"Ġlog":5853,"Ġmin":5854,"ĠmÃ²n":5855,"ĠTa":5856,"ĠTáº¡ng":5857,"ĠBob":5858,"ĠMiáº¿n":5859,"ĠMáº«u":5860,"ĠÄĲÆ¡n":5861,"ĠThÃ¡p":5862,"asi":5863,"ĠIm":5864,"ĠJam":5865,"abr":5866,"ichol":5867,"2014":5868,"ĠAmer":5869,"áºµng":5870,"ĠIllinois":5871,"02":5872,"06":5873,"BA":5874,"Bar":5875,"Gl":5876,"Hol":5877,"John":5878,"nia":5879,"äº":5880,"ĠÆ¡n":5881,"ĠtÆ¡":5882,"Ġcor":5883,"Ġtre":5884,"ĠMoh":5885,"arag":5886,"aire":5887,"ĠTráº¥n":5888,"alan":5889,"ĠDub":5890,"ĠReg":5891,"osidae":5892,"Ġ600":5893,"Chu":5894,"ĠBrit":5895,"ĠNikol":5896,"Ste":5897,"Ġmáº¯n":5898,"ĠtrÃł":5899,"ĠbÃ¡m":5900,"ĠchÆ°á»Ľng":5901,"Æ¡m":5902,"ĠNint":5903,"ĠLoire":5904,"ĠHÃ£n":5905,"ĠBá»Łi":5906,"ĠSÃ¡ch":5907,"ĠDNA":5908,"ĠRod":5909,"emia":5910,"ĠFil":5911,"rea":5912,"ĠUg":5913,"ĠGiai":5914,"iva":5915,"Pháº¡m":5916,"ierre":5917,"ĠghÃ©t":5918,"ĠHuá»³nh":5919,"?\"":5920,"Vá»ĭ":5921,"een":5922,"Ä«":5923,"Ġé":5924,"Ġong":5925,"Ġthá»±":5926,"ĠmÃºa":5927,"Ġbá»ĩ":5928,"ĠphÆ¡i":5929,"ĠCá»±c":5930,"ĠgiáºŃt":5931,"ĠBÃ¡t":5932,"ĠTháºŃp":5933,"ĠVideo":5934,"esota":5935,"ume":5936,"Ġ57":5937,"ovsky":5938,"roid":5939,"ĠAlg":5940,"Ġ1889":5941,"verg":5942,"ĠBourg":5943,"ĠNintendo":5944,"52":5945,"TC":5946,"ven":5947,"Ġmm":5948,"ĠbÆ°u":5949,"ĠTiá»ĩp":5950,"ĠCá»ĳc":5951,"ĠNar":5952,"ĠLith":5953,"ĠHon":5954,"ĠKam":5955,"ĠTrÃ²":5956,"ĠDes":5957,"ĠDVD":5958,"ĠCháº¿":5959,"ĠChá»£":5960,"ĠChiáº¿c":5961,"ĠQuáº§n":5962,"ital":5963,"ĠJordan":5964,"ĠYel":5965,"Ġ1898":5966,"Ã¼n":5967,"NES":5968,"ĠMinnesota":5969,"96":5970,"LÆ°u":5971,"fer":5972,"formula":5973,"Ġor":5974,"ĠlÃŃ":5975,"Ġsáº«m":5976,"Ġnhá»¥i":5977,"Ġgan":5978,"ĠHá»Ļ":5979,"ĠThÃŃch":5980,"elyp":5981,"Ã©e":5982,"ĠRain":5983,"ĠAnn":5984,"2011":5985,"ipennis":5986,"ĠSchltr":5987,"Ã¶n":5988,"ĠBarb":5989,"ĠEugÃ¨ne":5990,"ĠMicrosoft":5991,"ĠRecords":5992,"ĠMargaret":5993,"!\"":5994,"Hel":5995,"Meg":5996,"cá»§a":5997,"men":5998,"uth":5999,"vel":6000,"Ð»":6001,"Ġcáº¯n":6002,"ĠlÃ¹n":6003,"Ġthiá»ģn":6004,"Ġmáº·n":6005,"Ġbar":6006,"Ġcháº©n":6007,"ĠsÃ¹ng":6008,"Ġstr":6009,"ĠLá»Ľn":6010,"ĠDiá»ĩu":6011,"ĠRen":6012,"agne":6013,"Ġ76":6014,"2012":6015,"Ġ1876":6016,"Ã¶r":6017,"ĠWalter":6018,"Kim":6019,"Met":6020,"NQ":6021,"folk":6022,"uania":6023,"Å¾":6024,"ĠthÃ³i":6025,"Ġdáº¡":6026,"ĠdÃ¢u":6027,"ĠNo":6028,"ĠLes":6029,"ĠLud":6030,"ĠSur":6031,"ĠSav":6032,"ĠKem":6033,"Ġcuá»Ļn":6034,"urb":6035,"ĠJoh":6036,"ĠXÆ°á»Łng":6037,"Ġ62":6038,"ÄĲÆ°á»£c":6039,"ode":6040,"odactyl":6041,"ĠUp":6042,"ĠYam":6043,"Ġtá»¥ng":6044,"ĠSpr":6045,"ĠMacedonia":6046,"ĠÄĳá»¥ng":6047,"Ġãħ":6048,"04":6049,"Bulb":6050,"CÃ¡":6051,"Call":6052,"Hoáº¡t":6053,"PA":6054,"RA":6055,"Rob":6056,"helm":6057,"pan":6058,"Ġcarbon":6059,"ĠhÃ£i":6060,"Ġkhá»Ľp":6061,"ĠNáºµng":6062,"ĠBat":6063,"ĠBÃłn":6064,"ĠBaker":6065,"ĠSS":6066,"ĠGmina":6067,"usc":6068,"Ġcuá»ĵng":6069,"agar":6070,"ĠKháº£":6071,"oceph":6072,"ipl":6073,"ĠArn":6074,"ather":6075,"2009":6076,"Ġ1877":6077,"ĠEngels":6078,"omyia":6079,"ĠPtolemaios":6080,"Em":6081,"PT":6082,"dy":6083,"ĠbÃ´ng":6084,"Ġkem":6085,"Ġkiá»ĩm":6086,"ĠTáº£":6087,"ĠTÆ°á»£ng":6088,"ĠLáº¡t":6089,"uynh":6090,"ĠHyp":6091,"ĠMáº¡nh":6092,"ĠÄĲá»ĳc":6093,"ĠSiÃªu":6094,"onne":6095,"ĠKor":6096,"als":6097,"ĠPhÃ¢n":6098,"ĠPhÃ¡o":6099,"Ã©s":6100,"Ġvá»ĭt":6101,"una":6102,"avia":6103,"raph":6104,"ivia":6105,"ĠStand":6106,"ska":6107,"Ġ01":6108,"Ġlá»Ļn":6109,"Ġ1867":6110,"ustin":6111,"ĠHauts":6112,"Aquitaine":6113,"BM":6114,"ET":6115,"Ne":6116,"sá»±":6117,"åĲ":6118,"Ġet":6119,"ĠÄĳÃły":6120,"ĠtrÄĥng":6121,"ĠbÃ¡i":6122,"Ġná»ĳt":6123,"Ġnatri":6124,"Ġnho":6125,"Ġngá»¥":6126,"ĠNÃºi":6127,"ĠBáº¡c":6128,"ĠKu":6129,"ĠGold":6130,"Ġcua":6131,"itr":6132,"ĠWall":6133,"ĠKhmer":6134,"eder":6135,"Ġ95":6136,"2013":6137,"rah":6138,"oke":6139,"achus":6140,"yme":6141,"ornis":6142,"ollis":6143,"ĠApple":6144,"ĠCount":6145,"300":6146,"Xuáº¥t":6147,"gy":6148,"Ġtiá»ĩc":6149,"ĠchÃ²m":6150,"cha":6151,"Ġxáº¥p":6152,"ĠMand":6153,"ĠÄĲÃ´i":6154,"ĠSand":6155,"ĠKiÃªn":6156,"ĠTrÃŃ":6157,"ĠDiá»ĩp":6158,"ĠÃĩ":6159,"ĠQuÃ¡":6160,"ascia":6161,"ump":6162,"ĠOd":6163,"ave":6164,"ĠLanka":6165,"PhiÃªn":6166,"PhÆ°á»Ŀng":6167,"NhÆ°":6168,"Ġnhiá»ħu":6169,"ĠWhite":6170,"ĠFrancisco":6171,"ĠAwards":6172,"ĠAustralasia":6173,"ĠLithuania":6174,"NESCO":6175,";&":6176,"BÃªn":6177,"rock":6178,"zer":6179,"zon":6180,"ĠvÃ´i":6181,"ĠhÃ£y":6182,"Ġkil":6183,"ĠCongo":6184,"ĠNi":6185,"ĠLim":6186,"ĠrÃ¬a":6187,"ĠBáº¥t":6188,"ĠBÃ¡i":6189,"ĠPe":6190,"ĠPott":6191,"Quan":6192,"ĠRoy":6193,"Ġ58":6194,"tha":6195,"apt":6196,"ChÆ°Æ¡ng":6197,"Ġá»Ľt":6198,"achilidae":6199,"achsen":6200,"2005":6201,"ĠNorfolk":6202,"ĠMegachilidae":6203,"ĠLitva":6204,"ĠUganda":6205,"Diá»ħn":6206,"Neo":6207,"Un":6208,"Ġç":6209,"ĠcÆ°á»Ŀi":6210,"ĠlÆ°á»Ŀng":6211,"ĠNad":6212,"ĠLG":6213,"ĠHiá»ĥn":6214,"ĠHall":6215,"ĠBill":6216,"ĠMá»Ļ":6217,"ĠSak":6218,"ĠPetr":6219,"ĠVII":6220,"ĠDar":6221,"asc":6222,"ĠEs":6223,"ĠJo":6224,"Ġ800":6225,"Chiá»ģu":6226,"2010":6227,"Ġname":6228,"ĠNÃ³i":6229,"rym":6230,"ÄĳÃ£":6231,"Ġ1885":6232,"Arg":6233,"ĠOsbourne":6234,"ĠTeut":6235,"Ab":6236,"Mon":6237,"tÃ©":6238,"ãĢ":6239,"Ġ?":6240,"Ġcm":6241,"ĠcÆ°á»¡i":6242,"ĠvÃ¢n":6243,"Ġlá»Ļi":6244,"Ġchua":6245,"ĠsÆ°Æ¡ng":6246,"ĠLáº§n":6247,"Ġráº¡n":6248,"ĠMiÃªu":6249,"alk":6250,"elph":6251,"Ġhoáº¡n":6252,"eto":6253,"ington":6254,"edy":6255,"ophila":6256,"Ä±k":6257,"ĠYouT":6258,"Ġopera":6259,"Ġelectron":6260,"ĠPottiaceae":6261,"91":6262,"CÃ¹ng":6263,"DA":6264,"bach":6265,"Ġtháº¥u":6266,"Ġmáº§m":6267,"ĠbÃ³c":6268,"ĠbÃ¬a":6269,"Ġsáº¯m":6270,"anum":6271,"ĠHind":6272,"chen":6273,"ĠBÃŃch":6274,"á»¥a":6275,"ĠCham":6276,"ĠQuÃ¡ch":6277,"theo":6278,"Ġ61":6279,"Ġthá»§ng":6280,"Ngay":6281,"2018":6282,"Ġ1870":6283,"Ä±n":6284,"ictidae":6285,"Ã©rie":6286,"ĠCaribe":6287,"ĠBulgaria":6288,"Mu":6289,"Ox":6290,"Tá»ķ":6291,"lÃ´":6292,"lov":6293,"port":6294,"wan":6295,"Ġváº¯c":6296,"ĠvÆ°á»£ng":6297,"Ġtháº¯t":6298,"Ã¡r":6299,"Ġngá»Ļ":6300,"ĠngÃ²i":6301,"ĠCN":6302,"ĠLÃ£":6303,"ĠcÃ³c":6304,"ĠHá»ıa":6305,"chn":6306,"ĠMk":6307,"ĠSi":6308,"Ġthá»ģ":6309,"ĠThá»ĭnh":6310,"ĠKo":6311,"emy":6312,"ĠEU":6313,"agen":6314,"ĠGiÃ¡p":6315,"ogen":6316,"Ġá»¨ng":6317,"ĠInc":6318,"yrt":6319,"Ġruf":6320,"ĠHarv":6321,"ĠLatin":6322,"ĠGiÃªsu":6323,"Ġun":6324,"Ġcac":6325,"Ġhiáº¿u":6326,"ĠtrÆ°á»£t":6327,"ĠgÃ¡nh":6328,"Ġkhuynh":6329,"ĠTown":6330,"Ġngá»Ļt":6331,"ĠLoáº¡i":6332,"ĠMir":6333,"ĠÄĲiá»ĥm":6334,"ĠPa":6335,"ĠThÃ¡o":6336,"aum":6337,"atch":6338,"ĠRio":6339,"urus":6340,"ĠUNESCO":6341,"ione":6342,"áº¹o":6343,"elli":6344,"ombo":6345,"ĠGhana":6346,"ĠKenya":6347,"Bulbophyllum":6348,"Euph":6349,"mad":6350,"vin":6351,"Ġ~":6352,"ĠÄĳáº¯t":6353,"ĠtrÆ°á»Ľng":6354,"Ġkáº½":6355,"Ġsay":6356,"aid":6357,"odidae":6358,"Trich":6359,"eller":6360,"2021":6361,"oba":6362,"ifera":6363,"ĠNghiá»ĩp":6364,"essa":6365,"ĠSanta":6366,"ĠLeningrad":6367,"ĠBrown":6368,"ĠXIX":6369,"98":6370,"CÃ¡ch":6371,"TÃ¬nh":6372,"har":6373,"huyá»ĩn":6374,"thi":6375,"ĠÃ¢n":6376,"Ġhiáº¿p":6377,"ĠtrÃ´i":6378,"Ġkhá»Ń":6379,"ĠTuyáº¿t":6380,"ĠCre":6381,"ĠquáºŃt":6382,"ĠNep":6383,"ĠLÃ¡":6384,"ĠLewis":6385,"ĠHÃ£ng":6386,"ĠÄĲen":6387,"ĠPod":6388,"ĠPart":6389,"ĠKenn":6390,"enter":6391,"enburg":6392,"alph":6393,"ĠChar":6394,"ely":6395,"Ġrap":6396,"Ġ63":6397,"ĠKho":6398,"ĠYu":6399,"PhÆ°Æ¡ng":6400,"ĠÃģi":6401,"ĠMarc":6402,"ĠBrand":6403,"2008":6404,"ĠÄĳá»ĩm":6405,"ĠWilhelm":6406,"ĠHandel":6407,"ĠBourgogne":6408,"QÄĲ":6409,"jin":6410,"ken":6411,"war":6412,"Î±":6413,"ĠÂł":6414,"Ġab":6415,"ĠtrÃłng":6416,"Ġchá»ķi":6417,"ĠgÃ¡c":6418,"ĠTÃł":6419,"ĠTang":6420,"ĠquÃªn":6421,"ĠLyc":6422,"Ġrob":6423,"ĠÄĲá»Ļc":6424,"ĠDÃ²ng":6425,"Ġtiáº¿c":6426,"etidae":6427,"omat":6428,"ĠFel":6429,"rez":6430,"oca":6431,"igo":6432,"Ġ97":6433,"ĠGiÃ¡":6434,"ionidae":6435,"2017":6436,"ĠArthur":6437,"utin":6438,"uce":6439,"antes":6440,"atha":6441,"Ġ1886":6442,"ĠPalermo":6443,"linger":6444,"Tipulidae":6445,"My":6446,"Mal":6447,"oung":6448,"ule":6449,"ĠtÃ¡o":6450,"ĠvÃ¡ch":6451,"ĠthÃ¢m":6452,"Ġmel":6453,"ĠMold":6454,"ĠVerd":6455,"ĠKav":6456,"ĠGoth":6457,"ĠGaga":6458,"isia":6459,"oslav":6460,"eton":6461,"ots":6462,"Ġ88":6463,"ĠStar":6464,"skie":6465,"ouri":6466,"ysh":6467,"Ġ1860":6468,"ultan":6469,"ĠNigeria":6470,"ĠYouTube":6471,"ER":6472,"Hood":6473,"MÃ´ng":6474,"Vua":6475,"po":6476,"ĠcÃłnh":6477,"Ġlá»¥a":6478,"Ġtrinh":6479,"Ġnháº¥m":6480,"ĠLá»Ļ":6481,"ĠBÃ³ng":6482,"ĠMÄĥng":6483,"ĠPap":6484,"Æ°Æ¡u":6485,"ider":6486,"ista":6487,"ĠQuá»³nh":6488,"ili":6489,"aca":6490,"hir":6491,"Tháº¿":6492,"Ġ68":6493,"ĠYang":6494,"ichi":6495,"2020":6496,"Ġphá»¥ng":6497,"á»Ľc":6498,"Ġtá»ĵi":6499,"endr":6500,"Ġ1882":6501,"Ġ1864":6502,"ĠPlat":6503,"Ġplay":6504,"ĠVictoria":6505,"ĠCompany":6506,"DC":6507,"Mah":6508,"form":6509,"Ġhá»¥t":6510,"Ġbáº¿p":6511,"ĠnÃ©n":6512,"ĠTs":6513,"ĠLaw":6514,"ĠThr":6515,"ĠVu":6516,"ĠAu":6517,"ĠCháº¥t":6518,"\"...":6519,"Ġ69":6520,"ote":6521,"ÄĲÃ¡nh":6522,"ourt":6523,"Ġ250":6524,"Ġ1880":6525,"\"\"":6526,"CM":6527,"HÃł":6528,"Lu":6529,"Lá»ħ":6530,"Mo":6531,"Xem":6532,"bow":6533,"tÆ°Æ¡ng":6534,"work":6535,"Ġenz":6536,"Ľn":6537,"ĠcÃ¡p":6538,"Ġláº¥p":6539,"ĠngÃłi":6540,"ĠCosta":6541,"ĠHaf":6542,"ĠBá»ĭ":6543,"auc":6544,"aem":6545,"adi":6546,"Tráº§n":6547,"ampton":6548,"apar":6549,"Ġfan":6550,"Ġthoáº£ng":6551,"Ġ1875":6552,"ĠCors":6553,"ĠAlexandros":6554,"ihan":6555,"ĠJulius":6556,".&":6557,"NO":6558,"Ġláº¥n":6559,"ĠthÃ¹ng":6560,"ĠhÃ¡i":6561,"Ġbá»ķng":6562,"Ġsolo":6563,"ĠNag":6564,"ĠLÃ¢u":6565,"ĠLand":6566,"cht":6567,"chá»ī":6568,"ĠBus":6569,"erman":6570,"ĠAh":6571,"ĠChÄĥm":6572,"ĠNhá»ĭ":6573,"ĠRick":6574,"ĠIa":6575,"otis":6576,"ovo":6577,"uca":6578,"ĠServ":6579,"erto":6580,"tsin":6581,"ittle":6582,"Ġ1859":6583,"ĠCorpor":6584,"ĠHalictidae":6585,"Ġcalci":6586,"shire":6587,"57":6588,"VÃŃ":6589,"cÃ´":6590,"rai":6591,"æĸ":6592,"ĠCom":6593,"ĠCop":6594,"ĠNic":6595,"ĠBÄĥng":6596,"ĠDou":6597,"aco":6598,"Ġ66":6599,"odont":6600,"2019":6601,"obe":6602,"entus":6603,"ifer":6604,"Ġwith":6605,"Ġ1879":6606,"Ġ1881":6607,"Ġseries":6608,"celona":6609,"agascar":6610,"LU":6611,"SO":6612,"Táº¥t":6613,"å¸":6614,"æľ":6615,"Ġ#":6616,"ĠÄĳÃłnh":6617,"Ġmon":6618,"Ġbrev":6619,"Ġson":6620,"Ġsin":6621,"ĠgÃ£y":6622,"ĠphiÃªu":6623,"ĠquÃ£ng":6624,"chá»§":6625,"ĠBig":6626,"ĠBall":6627,"ĠVasil":6628,"ĠDen":6629,"ison":6630,"etta":6631,"Ġ67":6632,"akar":6633,"avan":6634,"ioph":6635,"ithec":6636,"ifolium":6637,"elsea":6638,"iberia":6639,"Ġeuro":6640,"ĠGroup":6641,"ĠStudios":6642,"ComtÃ©":6643,"ĠIceland":6644,"DI":6645,"Is":6646,"Sáº£n":6647,"TS":6648,"Wh":6649,"ous":6650,"oidae":6651,"sz":6652,"ser":6653,"ywood":6654,"ĠÂ":6655,"Ġhi":6656,"Ġheo":6657,"Ġnháº¯n":6658,"ĠngÆ°ng":6659,"ĠCall":6660,"ĠNÄĥng":6661,"ĠBell":6662,"ĠBoy":6663,"ĠAy":6664,"ĠGod":6665,"ĠGill":6666,"ĠGran":6667,"iston":6668,"ĠRÃ¡y":6669,"osaur":6670,"agan":6671,"edo":6672,"apan":6673,"ĠBrun":6674,"ĠIsland":6675,"ĠMosc":6676,"ĠRhein":6677,"ĠNormandie":6678,"Man":6679,"sm":6680,"ĠTaylor":6681,"quez":6682,"ĠCH":6683,"ĠCÃ¢y":6684,"enth":6685,"auh":6686,"ĠIowa":6687,"acc":6688,"ĠYok":6689,"elly":6690,"ianum":6691,"ioides":6692,"ilee":6693,"ĠMannheim":6694,"Station":6695,"ĠInternational":6696,"ĠHaute":6697,"Giao":6698,"ĊĠĊĠĊĠĊĠĊĠĊĠĊĠĊĠĊĠĊĠĊĠĊĠĊĠĊĠĊĠĊĠ":6699,"ĠAlgÃ©rie":6700,"ĠCorporation":6701,"Be":6702,"Heter":6703,"ique":6704,"tz":6705,"Ġli":6706,"Ġlá»¥t":6707,"Ġham":6708,"Ġdai":6709,"Ġngá»įc":6710,"ĠCá»Ńa":6711,"ĠCock":6712,"ĠLÃłng":6713,"ĠMoz":6714,"ĠSin":6715,"ĠSun":6716,"inam":6717,"inata":6718,"ĠGood":6719,"ĠÃį":6720,"aska":6721,"rew":6722,"ĠKhá»ĳi":6723,"ape":6724,"ĠAsp":6725,"Ġ1871":6726,"ammy":6727,"immy":6728,"2000":6729,"AM":6730,"Ber":6731,"IT":6732,"Tam":6733,"iensis":6734,"ray":6735,"âĪĴ":6736,"åį":6737,"ĠtÃº":6738,"Ġcomp":6739,"Ġtháº§u":6740,"Ġmiá»ĩn":6741,"ĠTÃ¡m":6742,"ĠBá»ĳn":6743,"ĠMÃ´":6744,"ĠMerr":6745,"inum":6746,"ĠPed":6747,"ĠKat":6748,"ĠAS":6749,"ĠChern":6750,"ĠRalph":6751,"ĠIC":6752,"ĠEver":6753,"the":6754,"thá»Ŀi":6755,"ĠWes":6756,"Ġkhuáº¿ch":6757,"ulatus":6758,"ĠkhoÃ¡n":6759,"Ġpall":6760,"ĠMarie":6761,"ersey":6762,"ĠShim":6763,"Ġ1883":6764,"rome":6765,"ãĥ¼":6766,"âĢĿ.":6767,"ĠBalkan":6768,"ĠMedia":6769,"orizh":6770,"ĠHoward":6771,"ĠDakota":6772,"LÃª":6773,"cÅ©ng":6774,"oáº¡n":6775,"Ã¸":6776,"Ġcáº©n":6777,"Ġlá»©a":6778,"ĠtrÃ¹":6779,"Ġchlor":6780,"ĠTáº§m":6781,"ĠLá»Ĺ":6782,"eral":6783,"ĠMua":6784,"ĠSic":6785,"ĠGol":6786,"ĠEv":6787,"ThiÃªn":6788,"1945":6789,"ugh":6790,"yrm":6791,"ĠmÃ£nh":6792,"ĠDuá»ĩ":6793,"untze":6794,"ĠZaporizh":6795,"oglossum":6796,"ĠYeltsin":6797,"%),":6798,"Tok":6799,"Val":6800,"Ġap":6801,"Ġtiá»ħn":6802,"ĠháºŃn":6803,"Ġbl":6804,"Ġsim":6805,"ĠTáº¡":6806,"ĠLomb":6807,"ĠLiga":6808,"ĠgiÃ¡ng":6809,"Ġgiáº·c":6810,"Ġrá»ķ":6811,"cher":6812,"ĠMÆ°á»Ŀng":6813,"ĠMáºŃu":6814,"ĠSec":6815,"ĠSud":6816,"ĠVáºŃt":6817,"ĠKansas":6818,"oro":6819,"esl":6820,"osm":6821,"ĠIw":6822,"unk":6823,"odium":6824,"igin":6825,"ellus":6826,"teg":6827,"Phim":6828,"ioch":6829,"ĠBlue":6830,"ĠBarcelona":6831,"ĠAndroid":6832,"ĠPanama":6833,"Ġxoáº¯n":6834,"midt":6835,"93":6836,"97":6837,"Cáº§u":6838,"NS":6839,"RS":6840,"dong":6841,"wang":6842,"ðŁ":6843,"Ġcá»ĵn":6844,"nhÃł":6845,"Ġlá»¯":6846,"Ġlat":6847,"ĠnÃ¡t":6848,"Ġsá»į":6849,"ĠsÃ³i":6850,"ĠgÃ¡n":6851,"ĠHigh":6852,"ĠBab":6853,"imierz":6854,"olep":6855,"Ġpiano":6856,"Ġfl":6857,"ophora":6858,"ukh":6859,"Ġ05":6860,"ĠPrad":6861,"2006":6862,"antha":6863,"Astr":6864,"ĠBelarus":6865,"ĠBoston":6866,"lectr":6867,"ikhail":6868,"ĠVoiv":6869,"Há»į":6870,"INE":6871,"Pter":6872,"net":6873,"sburg":6874,"uá»ĳi":6875,"Ġcar":6876,"ĠhÆ°á»Ľc":6877,"ĠbÃŃnh":6878,"Ġneo":6879,"Ġnáº¯p":6880,"ĠTH":6881,"ĠTuyáº¿n":6882,"ĠngÃ³n":6883,"ĠCá»ĳ":6884,"ĠCand":6885,"Ġráº£i":6886,"ĠSÃ¡ng":6887,"amine":6888,"ĠVat":6889,"emer":6890,"ĠJi":6891,"ĠJuv":6892,"opia":6893,"ĠÃĤL":6894,"Ã´mÃ©t":6895,"ctic":6896,"oxide":6897,"Ġ1887":6898,"ridge":6899,"odeship":6900,"ychidae":6901,"ĠGirl":6902,"ĠJackson":6903,"ĠWarsaw":6904,"ĠPlayStation":6905,"ĠMoscow":6906,"ĠVoivodeship":6907,"Gar":6908,"Har":6909,"Sal":6910,"Will":6911,"du":6912,"uj":6913,"ÃĿ":6914,"Ġtá»ĭ":6915,"Ġtáº©y":6916,"Ġcáº¯m":6917,"Ġviá»ģn":6918,"ĠbÃ¹n":6919,"Ġná»įc":6920,"ĠnhÅ©ng":6921,"ĠTá»ĭnh":6922,"ĠCamb":6923,"ĠÄĲÄ©a":6924,"ĠPC":6925,"ĠVáºŃn":6926,"ĠVÃ¢y":6927,"ĠKuntze":6928,"ĠArec":6929,"oridae":6930,"esp":6931,"usta":6932,"olin":6933,"ĠRá»ĵng":6934,"ĠJung":6935,"Ġkhoáº»":6936,"Ġ73":6937,"Ġ77":6938,"ingen":6939,"ĠGiÃ¡ng":6940,"Ġchuá»Ļng":6941,"ardia":6942,"eva":6943,"assan":6944,"2003":6945,"1998":6946,"ghan":6947,"ĠSlovenia":6948,"ocarpus":6949,"ĠHaflinger":6950,"CH":6951,"Má»Ĺi":6952,"section":6953,"wick":6954,"ĠÄĳÃŃnh":6955,"Ġmá»ĵ":6956,"ĠmÃ©p":6957,"Ġtrá»ı":6958,"ĠkhÃ¡t":6959,"ĠTá»·":6960,"Ġngáº¡n":6961,"ĠNS":6962,"ĠBir":6963,"eron":6964,"ĠÄĲá»ģn":6965,"aman":6966,"iá»ģng":6967,"ĠAtt":6968,"ĠChelsea":6969,"esk":6970,"ushi":6971,"ĠKhÃ¡ch":6972,"Chá»ī":6973,"ĠArk":6974,"ymph":6975,"endron":6976,"unda":6977,"ĠColombo":6978,"ĠBeat":6979,"ĠMonte":6980,"anoviÄĩ":6981,"ĠVictor":6982,"ĠModel":6983,"800":6984,"94":6985,"AC":6986,"Camp":6987,"EE":6988,"Gu":6989,"Lep":6990,"Ol":6991,"TÃ´n":6992,"ĠhÃ£n":6993,"Ġngáº¯m":6994,"ĠHa":6995,"Ġxi":6996,"ĠMC":6997,"ĠKra":6998,"ĠKrym":6999,"alo":7000,"ĠDá»¥c":7001,"Ġkhoang":7002,"ĠRai":7003,"Ġkhuáº¥t":7004,"ĠKhÆ°Æ¡ng":7005,"ogn":7006,"Ġbuá»ĵng":7007,"ift":7008,"Äĳáº·c":7009,"ebook":7010,"Ġ1869":7011,"Araceae":7012,"ĠColle":7013,"senal":7014,"yeong":7015,"'.":7016,"NT":7017,"long":7018,"med":7019,"ĠlÃª":7020,"Ġmet":7021,"Ġnáº¯ng":7022,"Ġsen":7023,"Ġphosph":7024,"ĠCÃ´n":7025,"ĠNichol":7026,"Ġrem":7027,"Ġrub":7028,"ĠMot":7029,"ĠPog":7030,"ĠVÃ²ng":7031,"enberg":7032,"ĠAeg":7033,"iaz":7034,"ĠGDP":7035,"ĠRT":7036,"ites":7037,"etes":7038,"emb":7039,"ĠFox":7040,"Ġpin":7041,"owski":7042,"tach":7043,"PhÃ¡p":7044,"ardo":7045,"ĠArane":7046,"ĠLept":7047,"Ġ1892":7048,"Ġthá»ķi":7049,"Ġ1888":7050,"ector":7051,"ĠEnd":7052,"ThuáºŃt":7053,"Giá»ĳng":7054,"ĠCocker":7055,"ĠAraneidae":7056,"HÃ¬nh":7057,"iens":7058,"lar":7059,"ĠtoÃł":7060,"Ġhiá»ģn":7061,"Ġtrá»įn":7062,"ĠdÄ©":7063,"phine":7064,"Ġkhe":7065,"quer":7066,"ĠCÃ¡nh":7067,"Ġgiáº¥c":7068,"ĠrÃ´":7069,"ĠMess":7070,"ĠSÃ¹ng":7071,"ĠPs":7072,"ĠKun":7073,"iad":7074,"ĠRa":7075,"emen":7076,"leb":7077,"ĠKháº£i":7078,"Ġ700":7079,"ĠAnth":7080,"Chrys":7081,"ival":7082,"ardi":7083,"ymn":7084,"ĠProd":7085,"ĠGrammy":7086,"ĠAmar":7087,"ĠErn":7088,"flix":7089,"ĠCastile":7090,"ĠMissouri":7091,"icolor":7092,"ĠCorsair":7093,"Ath":7094,"Hiá»ĩp":7095,"SÃ¡ng":7096,"TÃ¢y":7097,"ms":7098,"ä¹":7099,"ĠtÃł":7100,"Ġvá»Ļi":7101,"ĠthÆ°a":7102,"ĠnhiÃªu":7103,"ĠdÃ¡n":7104,"ĠLiá»ĩt":7105,"ĠLÃ£ng":7106,"ĠráºŃm":7107,"ĠxÄĥng":7108,"ĠSph":7109,"ĠSÃ¡u":7110,"ince":7111,"ĠVÄ©":7112,"ido":7113,"idus":7114,"ĠPhÆ°á»£ng":7115,"oloph":7116,"ostr":7117,"acebook":7118,"âĢ¢":7119,"oper":7120,"teraceae":7121,"ipt":7122,"NhÃ³m":7123,"ĠBromel":7124,"uga":7125,"ĠAndren":7126,"ĠZeus":7127,"bourg":7128,"ĠAndrew":7129,"ĠBromeliaceae":7130,"ĠAndrenidae":7131,"Háº¡t":7132,"sung":7133,"tel":7134,"uter":7135,"zur":7136,"zant":7137,"æĺ":7138,"Ġè":7139,"ĠÄĳiá»ĥu":7140,"ĠlÃ¡nh":7141,"ĠhÃłn":7142,"Ġnáº¿p":7143,"Ġká»ģ":7144,"phus":7145,"anian":7146,"ĠCáºŃn":7147,"ĠHend":7148,"ĠBiá»ĩn":7149,"ĠSM":7150,"ĠSid":7151,"ĠKal":7152,"ĠAbr":7153,"alz":7154,"angul":7155,"elen":7156,"ĠRaj":7157,"itis":7158,"ete":7159,"ĠIv":7160,"ĠJon":7161,"ĠJimmy":7162,"thÃłnh":7163,"ĠWin":7164,"ando":7165,"reak":7166,"otr":7167,"ĠKháº©u":7168,"Ġ79":7169,"okÃ©m":7170,"ĠMarsh":7171,"ible":7172,"ĠSchool":7173,"Ġ1873":7174,"ĠClark":7175,"Ġ1845":7176,"Ġ1848":7177,"derick":7178,"osperm":7179,"iformis":7180,"ĠKrasn":7181,"vergne":7182,"ĠAuvergne":7183,"ĠArecaceae":7184,"okÃ©mon":7185,"Dend":7186,"Fl":7187,"Hyd":7188,"Roll":7189,"bar":7190,"kaz":7191,"mir":7192,"ras":7193,"éĻ":7194,"Ġì":7195,"Ġhit":7196,"ĠmáºŃp":7197,"Ġkáº¹p":7198,"ĠTáº¡p":7199,"ĠngÆ¡i":7200,"ĠNev":7201,"ĠLiá»ħu":7202,"ĠHor":7203,"ĠMang":7204,"arat":7205,"ĠPle":7206,"ĠThá»¥c":7207,"ĠKi":7208,"alum":7209,"aet":7210,"Ġkhoai":7211,"eti":7212,"omet":7213,"acill":7214,"apur":7215,"ĠBank":7216,"rier":7217,"ĠShow":7218,"Ġdá»ĭu":7219,"Ġ/&":7220,"ĠWalt":7221,"Leuc":7222,"ĠNetflix":7223,"ĠJacob":7224,"Ġcacbon":7225,"ĠCockerell":7226,"\"(":7227,"CÃ¢y":7228,"Crypt":7229,"VÅ©":7230,"eens":7231,"si":7232,"uta":7233,"yne":7234,"å°":7235,"Ġas":7236,"ĠtÃ³m":7237,"Ġláº¯m":7238,"Ġhá»ĳ":7239,"ĠchÃºc":7240,"Ġsá»§ng":7241,"ĠgÃ¢n":7242,"ĠngÃ´":7243,"Ġquáº¡t":7244,"ĠNat":7245,"Ġrá»ĩt":7246,"ĠBBC":7247,"ĠMikhail":7248,"ĠPur":7249,"ĠKÃ½":7250,"ĠTrÃ¬":7251,"alem":7252,"esel":7253,"ĠhoÃ¡n":7254,"ĠIvan":7255,"ĠEast":7256,"ĠWay":7257,"opogon":7258,"teng":7259,"illo":7260,"ations":7261,"ĠSchmidt":7262,"Ã¶l":7263,"Ġ1866":7264,"ethyl":7265,"ĠScott":7266,"rison":7267,"ĠJeff":7268,"RhÃ´ne":7269,"Psych":7270,"Ca":7271,"Cam":7272,"HáºŃu":7273,"Mes":7274,"Str":7275,"mg":7276,"nes":7277,"rus":7278,"Ġcay":7279,"ĠÄĳáº±ng":7280,"ĠlÃ¹ng":7281,"ĠhÃ²":7282,"ĠhuÃ¢n":7283,"Ġdec":7284,"ĠLÃ´":7285,"ĠLie":7286,"chb":7287,"ĠMaur":7288,"inz":7289,"iner":7290,"ĠDuyÃªn":7291,"ĠPhá»ĳ":7292,"ĠQua":7293,"ĠRon":7294,"ems":7295,"ĠWeb":7296,"leigh":7297,"agi":7298,"iri":7299,"ifr":7300,"Ġ1893":7301,"Khá»Łi":7302,"Ġ1884":7303,"Anth":7304,"Sten":7305,"Ġshow":7306,"ĠChristian":7307,"ÅĦski":7308,"ĠSzcz":7309,"ĠACLU":7310,"ĠJohann":7311,"ĠJuventus":7312,"',":7313,"600":7314,"MÃ¼ll":7315,"Ta":7316,"gá»ĵm":7317,"iella":7318,"lam":7319,"nie":7320,"oen":7321,"sb":7322,"Ġant":7323,"ĠÄĳiÃªn":7324,"Ġkhá»ī":7325,"ĠCá»©":7326,"ĠCav":7327,"Ġvá»Ľt":7328,"Ġroi":7329,"ĠMá»ı":7330,"ĠTháº¡c":7331,"ĠThelyp":7332,"ids":7333,"ĠChá»¯":7334,"ĠPhÃ¹ng":7335,"ĠNgá»±":7336,"ĠRang":7337,"ĠRiÃªng":7338,"itus":7339,"umbia":7340,"Ġ1850":7341,"adt":7342,"ree":7343,"ÄĲá»Ļng":7344,"occ":7345,"Ġpseud":7346,"rium":7347,"Ġ130":7348,"Ġhuynh":7349,"2002":7350,"ĠAleyr":7351,"ĠBolivia":7352,"Franche":7353,"ĠHollywood":7354,"ĠPradesh":7355,"ĠThelypteridaceae":7356,"Comm":7357,"Háº§u":7358,"IV":7359,"OL":7360,"Ð²":7361,"Ð¹":7362,"ĠÃ¡":7363,"Ã³p":7364,"Ġngá»¥c":7365,"anidae":7366,"orp":7367,"Ã©g":7368,"olod":7369,"ĠXIII":7370,"oct":7371,"Ã¨ze":7372,"ĠAlf":7373,"2004":7374,"Ġ1874":7375,"ippi":7376,"Ġ1861":7377,"Ġ1862":7378,"Ġ1868":7379,"ĠHoáº¡t":7380,"ĠAleks":7381,"Ġ1840":7382,"ĠWilliams":7383,"ĠPatrick":7384,"thuá»Ļc":7385,"ĠKemper":7386,"Cyrt":7387,"ED":7388,"IM":7389,"Long":7390,"TÆ°Æ¡ng":7391,"bu":7392,"vi":7393,"xÃ£":7394,"Ġláº·n":7395,"ĠbÆ¡m":7396,"ĠchiÃªn":7397,"ĠTá»Ľi":7398,"ĠLife":7399,"ĠHav":7400,"ĠSax":7401,"Ġ\".":7402,"ĠVill":7403,"ĠKa":7404,"ĠTrá»¥":7405,"ĠDj":7406,"Ġnghiá»ĩt":7407,"ĠChÃ¹a":7408,"ĠNhÃ¬n":7409,"omar":7410,"eme":7411,"eman":7412,"ĠWarn":7413,"uld":7414,"ĠUB":7415,"Ġ96":7416,"Ġfrom":7417,"ouk":7418,"Phong":7419,"ĠStone":7420,"ĠArsenal":7421,"ambia":7422,"Ġ04":7423,"etts":7424,"Ġ1854":7425,"attle":7426,"ialis":7427,"ĠArmenia":7428,"ghanistan":7429,"Bal":7430,"De":7431,"Háº£i":7432,"IS":7433,"MÃ¡y":7434,"Mont":7435,"Nar":7436,"Pal":7437,"So":7438,"eum":7439,"mund":7440,"Äħ":7441,"ÈĻ":7442,"åı":7443,"ï¼":7444,"áº¢":7445,"ĠÄĳinh":7446,"ĠÄĳÃ¹a":7447,"Ġmá»Ļng":7448,"ĠHáº¡nh":7449,"ĠgiÃ£":7450,"ĠgiÆ°á»Ŀng":7451,"Ġgiang":7452,"Ġrá»ĥ":7453,"eres":7454,"ĠMord":7455,"ĠMaj":7456,"atÃ´":7457,"Qua":7458,"QuÃ¡":7459,"ĠRost":7460,"icornis":7461,"urch":7462,"ÄĲá»Ļ":7463,"ÄĲÃ´ng":7464,"ĠUng":7465,"ĠYar":7466,"Pháº£n":7467,"ugge":7468,"issippi":7469,"Ġ1865":7470,"Art":7471,"ĠMadagascar":7472,"Ġ1838":7473,"Ġspec":7474,"ĠKazimierz":7475,"ĠAlexandria":7476,"ĠAtl":7477,"ĠFabian":7478,"ĠDaniel":7479,"ĠRainbow":7480,"ĠTeutons":7481,"ĠSzczec":7482,"Euc":7483,"ble":7484,"kur":7485,"Ãĩ":7486,"ĠlÃ¡ng":7487,"Ġmáº¿n":7488,"Ġbo":7489,"Ġchiáº¿t":7490,"Ġchá»įc":7491,"ĠsÃ©t":7492,"phidae":7493,"Ġgá»ĳi":7494,"ĠkhÃ³c":7495,"ques":7496,"ĠNational":7497,"ĠLáº¡i":7498,"Ġray":7499,"ĠMaster":7500,"ĠSachsen":7501,"aridae":7502,"ĠThat":7503,"ĠDor":7504,"idge":7505,"Ġtáº£o":7506,"ĠQueens":7507,"Ġquyáº¿n":7508,"reen":7509,"ocer":7510,"Ġ86":7511,"Truyá»ģn":7512,"Ġ110":7513,"ĠBah":7514,"ĠThuáº§n":7515,"eki":7516,"Ġ1857":7517,"arbor":7518,"uzia":7519,"zhia":7520,"ĠByzant":7521,"ĠAfghanistan":7522,"ĠPomeranian":7523,"ĠÆ¯á»Ľc":7524,"achusetts":7525,"AS":7526,"Eup":7527,"mit":7528,"uis":7529,"Ġcáº¯p":7530,"Ġlanh":7531,"ĠthÃŃnh":7532,"Ġhao":7533,"Ġmá»ĭ":7534,"ĠtrÃ¡n":7535,"Ġbáº¯p":7536,"Ġgáº£":7537,"anensis":7538,"ĠMiá»ģn":7539,"ĠPot":7540,"ĠPict":7541,"aica":7542,"ĠNhi":7543,"ĠRuss":7544,"osum":7545,"etter":7546,"ĠFacebook":7547,"ĠWr":7548,"ĠWik":7549,"ulu":7550,"ĠOx":7551,"ĠcÆ¡m":7552,"skaya":7553,"ĠShah":7554,"ĠProv":7555,"Khoáº£ng":7556,"ype":7557,"Ġwas":7558,"ĠâĢĺ":7559,"ĠCarr":7560,"ĠFred":7561,"ĠWilson":7562,"Ġserv":7563,"ĠPeters":7564,"ĠSumatra":7565,"ĠMassachusetts":7566,"ĠkilÃ´mÃ©t":7567,"!!":7568,"Lind":7569,"Má»¹":7570,"].":7571,"cul":7572,"ÄĽ":7573,"æĿ":7574,"Ġtáº¡":7575,"ĠcÃµi":7576,"ĠnhÆ°á»Ŀng":7577,"ĠTed":7578,"ĠCÆ°":7579,"ĠxÃł":7580,"ĠSiberia":7581,"eno":7582,"ĠCháº³ng":7583,"olis":7584,"ĠRáº¯n":7585,"osia":7586,"ĠFisch":7587,"akuya":7588,"Tranh":7589,"able":7590,"ĠAnna":7591,"owell":7592,"iko":7593,"Ġvá»ĩt":7594,"ucci":7595,"epp":7596,"uez":7597,"yss":7598,"Ġ1849":7599,"ĠColumbia":7600,"ĠTamil":7601,"onsin":7602,"oleon":7603,"ĠBoris":7604,"ĠPomerania":7605,"Ġenzyme":7606,"cer":7607,"dam":7608,"zio":7609,"zania":7610,"à¹":7611,"Ġcomm":7612,"Ġlá»ģ":7613,"Ġmod":7614,"Ġmá»ıi":7615,"ĠbÃ¬":7616,"Ġneu":7617,"Ġsum":7618,"ĠdáºŃp":7619,"Ġdá»įn":7620,"Ġdiá»ħu":7621,"Ġkhan":7622,"ĠCáºŃu":7623,"ĠCá»±u":7624,"ĠNot":7625,"ĠgiÃły":7626,"Ġrá»±c":7627,"Ġrá»¥ng":7628,"ĠÄĲÃ£":7629,"ĠÄĲáº¯k":7630,"ĠVIII":7631,"ĠDÆ¡i":7632,"ĠÃī":7633,"ĠRica":7634,"ĠJersey":7635,"otep":7636,"ÄĲá»ĵng":7637,"ĠYá»ĥm":7638,"ĠGioan":7639,"abe":7640,"iper":7641,"raham":7642,"ĠLeÃ³n":7643,"ahara":7644,"ophagus":7645,"Ġ06":7646,"ĠCalc":7647,"ĠghÃ©":7648,"ĠJohnson":7649,"Ġ1851":7650,"ternet":7651,"ĠMiG":7652,"BÃ¬nh":7653,"Há»ĵ":7654,"Hook":7655,"LÃºc":7656,"Mor":7657,"OH":7658,"cÃ´ng":7659,"cal":7660,"cast":7661,"gia":7662,"naceae":7663,"pop":7664,"rÃ´":7665,"sud":7666,"ved":7667,"ÄĻ":7668,"Ñĥ":7669,"Ġlá»Ļt":7670,"ĠhÆ°Æ¡u":7671,"Ġtruáº¥t":7672,"ĠbÃ¡u":7673,"ĠnÃ´n":7674,"ĠchÃ¹m":7675,"ĠnhÆ°á»£c":7676,"ĠNGC":7677,"ĠBÃ¡n":7678,"ĠBut":7679,"ĠÄĲá»ĵ":7680,"ĠSom":7681,"ĠPy":7682,"ĠPop":7683,"ĠThÃºy":7684,"aig":7685,"ĠTráº»":7686,"orf":7687,"orh":7688,"á»Ńu":7689,"elis":7690,"ĠNgÆ°á»£c":7691,"iculata":7692,"ĠWisc":7693,"ĠKhá»Łi":7694,"odar":7695,"odendron":7696,"Ġ82":7697,"Ġpro":7698,"ecta":7699,"Ġful":7700,"tah":7701,"oka":7702,"Ġind":7703,"ĠGruzia":7704,"ĠPhilatÃ´":7705,"ĠAndr":7706,"Ġ1841":7707,"other":7708,"omme":7709,"ĠSlam":7710,"ĠhoÃłnh":7711,"ĠChampionship":7712,"ĠxoÃ¡y":7713,"dorf":7714,"ĠLudwig":7715,"ĠKavkaz":7716,"Ak":7717,"Ang":7718,"Báº¯c":7719,"Gal":7720,"NH":7721,"OC":7722,"TÆ°":7723,"We":7724,"hara":7725,"táº¡m":7726,"ä»":7727,"åĮ":7728,"Ġau":7729,"Ġcap":7730,"ĠÄĳam":7731,"Ġmar":7732,"ĠtrÆ°a":7733,"ĠtrÃ¹m":7734,"Ġbiáº¿m":7735,"Ġchay":7736,"Ġsil":7737,"Ġdá»ĳi":7738,"Ġgáº¯t":7739,"Ġkhá»ĳng":7740,"ĠCáº¥p":7741,"ĠLiÃªm":7742,"ĠLittle":7743,"aly":7744,"ĠDay":7745,"orbia":7746,"ĠGall":7747,"ĠChris":7748,"isi":7749,"atem":7750,"ĠNgÃ£":7751,"etz":7752,"umer":7753,"ĠFall":7754,"ĠJason":7755,"adr":7756,"ĠWang":7757,"Ġ74":7758,"Ġ81":7759,"Ġpul":7760,"ĠYour":7761,"apest":7762,"ĠÄĳoan":7763,"yrus":7764,"ĠHerbert":7765,"enza":7766,"ĠGreg":7767,"Ġelip":7768,"ĠTortr":7769,"ĠBeatles":7770,"ĠWisconsin":7771,"He":7772,"Ham":7773,"King":7774,"Oh":7775,"Pt":7776,"sel":7777,"tambon":7778,"yche":7779,"Ġá»ĵn":7780,"Ġend":7781,"ĠtÃª":7782,"ĠÄĳao":7783,"Ġthiáº¿p":7784,"ĠbÃ´i":7785,"ĠchÃ¡n":7786,"ĠnhÃ´m":7787,"ĠTi":7788,"Ġquáº¥y":7789,"ĠNord":7790,"Ġrá»Ĺng":7791,"Ġxáº£":7792,"ĠxÃ´i":7793,"ĠBáº¯t":7794,"ĠÄĲá»Ļt":7795,"ĠSev":7796,"inson":7797,"ĠKom":7798,"ĠTrÃºc":7799,"ĠDÆ°":7800,"ĠDae":7801,"ĠGáº·m":7802,"idi":7803,"ĠChing":7804,"Quáº£ng":7805,"icollis":7806,"ition":7807,"ĠJr":7808,"Ġyá»ĥm":7809,"oco":7810,"raw":7811,"Ġ02":7812,"2001":7813,"ĠGuad":7814,"ĠApp":7815,"ĠBrook":7816,"ĠÅŀ":7817,"ĠFrederick":7818,"ĠEngl":7819,"ĠÄĳá»¥c":7820,"ĠTiberium":7821,"aesar":7822,"edonÃŃa":7823,"ĠCounty":7824,"Bo":7825,"Dys":7826,"Fr":7827,"Máº·t":7828,"Mad":7829,"NÆ°á»Ľc":7830,"Tiáº¿p":7831,"VÆ°á»Ŀn":7832,"ridae":7833,"yath":7834,"ÅĽ":7835,"ĠÃºt":7836,"Ġcol":7837,"nham":7838,"ĠláºŃu":7839,"ĠlÆ°á»£n":7840,"Ġnáº¡":7841,"Ġná»ĵi":7842,"Ġkáº¹t":7843,"Ġnháº«n":7844,"Ġnhá»¥y":7845,"Ġdáº¡i":7846,"ĠTat":7847,"ĠTun":7848,"Ġngu":7849,"ĠLar":7850,"ĠLau":7851,"ĠHab":7852,"ĠBá»©c":7853,"ĠBou":7854,"ĠMen":7855,"ĠÄĲá»ĭch":7856,"ĠSay":7857,"oac":7858,"ĠPau":7859,"enne":7860,"iae":7861,"iago":7862,"ĠGáº§n":7863,"ĠGor":7864,"ĠGard":7865,"ĠRud":7866,"ĠRaf":7867,"omus":7868,"ĠJong":7869,"Ġ83":7870,"igma":7871,"ĠGiÃ¡c":7872,"Ã¨s":7873,"uti":7874,"ĠÄĳáº¿m":7875,"ĠCuá»ĳn":7876,"ĠViet":7877,"ĠDivine":7878,"erusalem":7879,"Ġgrac":7880,"ĠPuerto":7881,"ĠBudapest":7882,"ĠZaporizhzhia":7883,"ASA":7884,"EM":7885,"Ga":7886,"HÄĲ":7887,"Me":7888,"Viá»ĩn":7889,"ret":7890,"uf":7891,"uise":7892,"Ġaur":7893,"Ġtown":7894,"Ġvit":7895,"Ġtháº¡c":7896,"Ġmini":7897,"ĠbáºŃn":7898,"Ġnuc":7899,"Ġkiá»ģm":7900,"ĠTáº¯c":7901,"ĠTiger":7902,"ĠHáº±ng":7903,"ĠHuáº¥n":7904,"ĠMol":7905,"ĠSihan":7906,"ĠThÃ´i":7907,"ĠVTV":7908,"ĠKos":7909,"ĠTrin":7910,"ĠDa":7911,"Ġnghiá»ĩn":7912,"idad":7913,"Ġlá»¡":7914,"ĠRoss":7915,"ĠFle":7916,"ĠJer":7917,"Thanh":7918,"opt":7919,"ĠXÃŃch":7920,"ulaceae":7921,"ularis":7922,"rep":7923,"Ġ71":7924,"Ġ78":7925,"ips":7926,"ĠbuÃ½t":7927,"Ġdiesel":7928,"ahn":7929,"ext":7930,"uguay":7931,"assau":7932,"ĠAsh":7933,"iá»ħm":7934,"Ġ1863":7935,"Ind":7936,"phaer":7937,"ĠEuropa":7938,"ĠATP":7939,"thiopia":7940,"\"|":7941,"Hu":7942,"Hem":7943,"Mer":7944,"PI":7945,"SD":7946,"Se":7947,"Sil":7948,"Syn":7949,"furt":7950,"lis":7951,"nus":7952,"sol":7953,"yon":7954,"yte":7955,"Ġund":7956,"á»¨ng":7957,"ĠhoÃłi":7958,"ĠkÃŃ":7959,"Ġkhiáº¿p":7960,"ĠTÃŃch":7961,"ĠCir":7962,"ĠMiÃªn":7963,"ĠSn":7964,"ĠTháº£o":7965,"ĠTrÃ¹":7966,"orro":7967,"ask":7968,"á»£n":7969,"omin":7970,"adelph":7971,"thes":7972,"opoda":7973,"ĠXII":7974,"ĠKhÃŃ":7975,"ingle":7976,"tea":7977,"tuáº§n":7978,"152":7979,"ĠBoiss":7980,"IDE":7981,"ĠÅĮ":7982,"NghiÃªn":7983,"Onth":7984,"ĠâĪĴ":7985,"å¤§":7986,"ĠMohamm":7987,"ĠPogba":7988,"ĠUBND":7989,"ĠSihanouk":7990,"Ele":7991,"Ma":7992,"Op":7993,"Sen":7994,"cell":7995,"ml":7996,"ĠchÃªnh":7997,"ĠCá»ĳt":7998,"ĠLáº¡ng":7999,"ĠLÃ£o":8000,"Ġrec":8001,"Ġxinh":8002,"ĠBorn":8003,"ĠBurg":8004,"ĠBull":8005,"ĠMá»ĵ":8006,"ĠMitt":8007,"ĠSáº£n":8008,"inch":8009,"aru":8010,"ĠPra":8011,"ĠKá»µ":8012,"ĠDáº§u":8013,"ĠDal":8014,"ĠDog":8015,"ĠDeb":8016,"urai":8017,"uman":8018,"ĠxuÃ´i":8019,"âĢĺ":8020,"ody":8021,"Ġvá»¥n":8022,"Ġ84":8023,"Ġ99":8024,"aver":8025,"Ġcá»Ńu":8026,"1975":8027,"taff":8028,"ylon":8029,"araon":8030,"Ġ1872":8031,"hamrock":8032,"ĠUkraine":8033,"ĠCarlos":8034,"ĠTanzania":8035,"ĠObama":8036,"ĠNhuáºŃn":8037,"ĠParty":8038,"LC":8039,"MiÃªu":8040,"Red":8041,"Tá»©":8042,"ject":8043,"kins":8044,"yna":8045,"zawa":8046,"Ġmal":8047,"Ġbá»ĥ":8048,"Ġná»©t":8049,"ĠkhÃ©o":8050,"ĠHáº¡ng":8051,"ĠHond":8052,"ĠrÃ¡p":8053,"ĠrÆ°á»¡i":8054,"ĠrÃ£nh":8055,"ĠBle":8056,"ĠBuck":8057,"ĠMagn":8058,"ĠÄĲÃŃch":8059,"ĠÄĲÃłm":8060,"ĠSier":8061,"arth":8062,"ĠPierre":8063,"ĠChiÃªm":8064,"olia":8065,"icago":8066,"acea":8067,"ĠFi":8068,"ĠKhÃ¡ng":8069,"akov":8070,"ĠYoung":8071,"apa":8072,"roth":8073,"entin":8074,"Ġ1753":8075,"awi":8076,"ahl":8077,"Ġinter":8078,"ĠConstantin":8079,"Ã´me":8080,"Ã¶y":8081,"ĠvÃ²i":8082,"Ġ1842":8083,"Ġ1856":8084,"Ġ1836":8085,"Ġproton":8086,"ĠXVI":8087,"ĠNetwork":8088,"ĠBryaceae":8089,"Euphorbia":8090,"raion":8091,"ĠMarshall":8092,"ĠMordellidae":8093,"ĠSzczecin":8094,"Bol":8095,"Can":8096,"Dav":8097,"Down":8098,"It":8099,"hr":8100,"rot":8101,"rod":8102,"Ġcá»Ľ":8103,"ĠthiÃªu":8104,"Ġchai":8105,"ĠchÃ©o":8106,"ĠgÃ¬n":8107,"Ġngáº·t":8108,"ĠngÃµ":8109,"ĠCorn":8110,"ĠLive":8111,"ĠHong":8112,"ĠHun":8113,"ĠHoan":8114,"ĠxÃ´ng":8115,"ĠBoa":8116,"ĠSÃŃp":8117,"amon":8118,"ĠVá»įng":8119,"ĠKaw":8120,"enidae":8121,"ĠthuÃ´n":8122,"ĠTre":8123,"ĠTráº¡m":8124,"anger":8125,"ĠDá»¥":8126,"ĠDaw":8127,"ĠChart":8128,"ĠPhu":8129,"ĠRose":8130,"asu":8131,"omi":8132,"omum":8133,"ĠIng":8134,"ĠEthiopia":8135,"ĠJerusalem":8136,"ĠKhark":8137,"ovina":8138,"owo":8139,"iant":8140,"upp":8141,"etragn":8142,"ĠManila":8143,"hammad":8144,"ĠWhit":8145,"Black":8146,"Ð¾Ð²":8147,"ĠSocorro":8148,"ĠByzantine":8149,"Onthophagus":8150,"Bur":8151,"Cáº¥u":8152,"Je":8153,"Mc":8154,"Vá»¥":8155,"feld":8156,"gio":8157,"won":8158,"zi":8159,"å·":8160,"éĥ":8161,"Ġte":8162,"Ġcáº¥y":8163,"Ġtháº¡o":8164,"Ġbáº§y":8165,"Ġdá»ĵn":8166,"á»ĳp":8167,"ĠTuyá»ģn":8168,"anne":8169,"ĠNAT":8170,"ĠHann":8171,"Ġrá»¡":8172,"ĠMans":8173,"ariaceae":8174,"ĠPyr":8175,"ĠThÃ¹y":8176,"ĠVs":8177,"ĠKent":8178,"ĠTrans":8179,"alidae":8180,"ĠDong":8181,"ĠDur":8182,"orius":8183,"ĠQuáº¿":8184,"aso":8185,"asis":8186,"ĠXanh":8187,"ocal":8188,"round":8189,"owicz":8190,"ĠThuá»ĳc":8191,"KhÃŃ":8192,"issa":8193,"ĠKhuÃª":8194,"Acanth":8195,"nghÄ©a":8196,"ĠColletidae":8197,"ÃĤm":8198,"ĠStandl":8199,"ĠNepal":8200,"ĠArkansas":8201,"Cast":8202,"DÃ¹":8203,"Mich":8204,"Video":8205,"bul":8206,"máº¥t":8207,"zilla":8208,"å¾":8209,"Ġao":8210,"Ġtoa":8211,"Ġlá»±u":8212,"ĠhÃ´ng":8213,"Ġme":8214,"ĠmÃ¡":8215,"Ġnhai":8216,"Ġgay":8217,"ĠTod":8218,"ĠNÃł":8219,"ĠLÆ°á»¡ng":8220,"ĠHassan":8221,"Ġret":8222,"ĠMike":8223,"ĠSÃ¡t":8224,"inella":8225,"arov":8226,"ĠPil":8227,"ĠThor":8228,"ĠThÃªm":8229,"ĠAM":8230,"ĠAilee":8231,"alle":8232,"oris":8233,"ĠChann":8234,"elin":8235,"ĠRico":8236,"itidae":8237,"Ġ1830":8238,"ĠEmm":8239,"Tháº§n":8240,"ĠXÃ¢y":8241,"edd":8242,"ĠGiáº¥y":8243,"ipedia":8244,"Phyll":8245,"skÃ½":8246,"ucc":8247,"ĠBroad":8248,"aze":8249,"iba":8250,"ĠPrinc":8251,"ĠSport":8252,"Album":8253,"ience":8254,"]],":8255,"ĠChampion":8256,"Ð¸Ñ":8257,"ĠXIV":8258,"ĠMakedonÃŃa":8259,"ĠMaxim":8260,"nikov":8261,"ĠAmerican":8262,"ĠHindu":8263,"ĠHarvard":8264,"ĠCollege":8265,"Binh":8266,"Hier":8267,"LV":8268,"Li":8269,"PS":8270,"USS":8271,"falz":8272,"oj":8273,"tÃ´":8274,"yk":8275,"Ġ),":8276,"Ġvir":8277,"Ġbáº¡":8278,"ĠbÃłnh":8279,"Ġnhan":8280,"Ġkhiáº¿u":8281,"ĠngÃ¢m":8282,"ĠCard":8283,"ĠNol":8284,"ĠNáºŃm":8285,"ĠLig":8286,"ĠHilbert":8287,"char":8288,"ĠMTV":8289,"ĠSA":8290,"ĠThung":8291,"ĠTrÃ¹ng":8292,"ĠDuyá»ĩt":8293,"ĠGR":8294,"ĠChiá»ģu":8295,"Ã©es":8296,"uras":8297,"ĠquyÃªn":8298,"ĠFar":8299,"ĠJuan":8300,"ĠWolf":8301,"ĠOle":8302,"ovel":8303,"igi":8304,"Ġpiston":8305,"Ġ94":8306,"abilis":8307,"ogai":8308,"ĠAlice":8309,"uku":8310,"opteris":8311,"Ġthoáº£i":8312,"Ġ1858":8313,"ĠSalv":8314,"ĠSeine":8315,"ĠUyÃªn":8316,"ĠUruguay":8317,"ĠNapoli":8318,"Plat":8319,"Ġleuc":8320,"Ġangust":8321,"ĠHypnaceae":8322,"ĠLycosidae":8323,"Aran":8324,"Báº¯t":8325,"Dicran":8326,"Láº§n":8327,"Má»¥c":8328,"Quy":8329,"TR":8330,"Tiá»ģn":8331,"cr":8332,"eing":8333,"ges":8334,"lia":8335,"mont":8336,"vÃ¬":8337,"vis":8338,"ves":8339,"Ġarg":8340,"Ġloa":8341,"Ġtháº¥m":8342,"Ġbeta":8343,"Ġnhá»¥c":8344,"ĠHáº¯c":8345,"Ġráº¯c":8346,"ĠBillboard":8347,"ery":8348,"ĠMÃ¡c":8349,"ĠMáº«n":8350,"ĠMach":8351,"aik":8352,"enta":8353,"ĠTrÃ¬nh":8354,"orr":8355,"ĠNgÃłi":8356,"umarin":8357,"hing":8358,"ĠJane":8359,"thus":8360,"agu":8361,"ĠOS":8362,"illus":8363,"utsk":8364,"eval":8365,"aho":8366,"Ġcá»¥t":8367,"ĠPres":8368,"ĠGracill":8369,"ĠThá»ĭt":8370,"1996":8371,"ifolius":8372,"ĠGreat":8373,"ĠToko":8374,"ecker":8375,"ĠOpen":8376,"ĠMarkov":8377,"gorod":8378,"atherine":8379,"ĠVerdun":8380,"ĠPictures":8381,"Ġneutron":8382,"ĠGracillariidae":8383,"ES":8384,"Id":8385,"Kiáº¿n":8386,"Tuá»ķi":8387,"bin":8388,"bit":8389,"vent":8390,"ÏĤ":8391,"Ø§":8392,"æ°":8393,"æŃ":8394,"Ġcyan":8395,"ĠmÃ¡c":8396,"Ġmor":8397,"ĠmÃ¹ng":8398,"Ġbáº«y":8399,"Ġni":8400,"Ġdim":8401,"phÃ¡t":8402,"Ġgiá»ģng":8403,"Ġkhá»ĳc":8404,"ĠCaesar":8405,"ĠNÆ¡i":8406,"ĠLaz":8407,"ĠHein":8408,"ĠMÃłu":8409,"ĠMind":8410,"ĠMain":8411,"ĠÄĲáº¯c":8412,"inensis":8413,"ĠPad":8414,"ĠVar":8415,"ĠKelly":8416,"ĠDun":8417,"ĠDec":8418,"ĠGuy":8419,"ĠGon":8420,"ĠChÃ³":8421,"ĠChang":8422,"ĠPhÆ°á»Ŀng":8423,"osoma":8424,"omen":8425,"ĠFour":8426,"ĠFIDE":8427,"Thá»±c":8428,"otes":8429,"otria":8430,"agos":8431,"ĠkhoÃ¡c":8432,"ocera":8433,"Ġ89":8434,"Ġpubl":8435,"Ġ98":8436,"ĠLane":8437,"apon":8438,"ivir":8439,"ĠLeje":8440,"rix":8441,"Ġ03":8442,"ĠPhiladelph":8443,"Ġvuá»ĳt":8444,"Ġ1844":8445,"span":8446,"ĠUrb":8447,"ĠMeloidae":8448,"uneaceae":8449,"ĠAugust":8450,"omatidae":8451,"ĠAmaryll":8452,"Psychotria":8453,"ĠFischer":8454,"ĠLejeuneaceae":8455,"Coll":8456,"Cten":8457,"Dipl":8458,"GM":8459,"Gon":8460,"Mus":8461,"Mart":8462,"Pyr":8463,"QH":8464,"Super":8465,"uá»ĳt":8466,"áĢ":8467,"åľ":8468,"Ġen":8469,"Ġcáº¡o":8470,"ĠÄĳun":8471,"Ġmagn":8472,"Ġnang":8473,"Ġshamrock":8474,"Ġnhá»ĳt":8475,"ĠTime":8476,"ĠTake":8477,"Ġphao":8478,"ĠNod":8479,"ĠHart":8480,"ering":8481,"ĠMá»įi":8482,"ĠMst":8483,"ĠPÃ©":8484,"ĠPteridaceae":8485,"ĠThoáº¡i":8486,"ault":8487,"ĠTranh":8488,"angay":8489,"ĠDicran":8490,"ated":8491,"ĠRub":8492,"ural":8493,"ĠIb":8494,"ĠFul":8495,"ĠWit":8496,"ĠXe":8497,"ĠkhoÃ¡":8498,"Ġ101":8499,"ĠYáº¿n":8500,"ional":8501,"ĠSaul":8502,"ogna":8503,"yland":8504,"NháºŃn":8505,"ĠBrugge":8506,"anti":8507,"Ġinternet":8508,"ophylla":8509,"ĠDoÃ£n":8510,"ĠNews":8511,"ontidae":8512,"ectus":8513,"ĠStrau":8514,"leniaceae":8515,"Gray":8516,"Tipula":8517,"Ġnigr":8518,"ĠAspleniaceae":8519,"ĠSudan":8520,"ĠCandÃ¨ze":8521,"áº¢nh":8522,"ĠDicranaceae":8523,"\"\".":8524,"Du":8525,"HO":8526,"NG":8527,"Sar":8528,"Tu":8529,"TÃ²a":8530,"cens":8531,"eil":8532,"eed":8533,"moud":8534,"viáº¿t":8535,"wart":8536,"wald":8537,"yu":8538,"Ġ*":8539,"Ġ00":8540,"ĠtÃºng":8541,"ĠÄĳáº«m":8542,"Ġlá»ĵi":8543,"ĠmÄĥng":8544,"Ġmáº»":8545,"ĠchÃ¬":8546,"Ġgáº¥u":8547,"ĠgÃ³a":8548,"ĠTÃ½":8549,"ĠLinn":8550,"ĠHá»ĵn":8551,"ĠHMS":8552,"Ġrá»ī":8553,"chÃŃnh":8554,"erl":8555,"ĠMÃ¢n":8556,"ĠSv":8557,"ĠSound":8558,"Ġ().":8559,"Æ°Æ¡m":8560,"ĠDá»±a":8561,"ĠGa":8562,"ĠChim":8563,"ĠChiáº¿u":8564,"esa":8565,"imi":8566,"Ġhoáº¡":8567,"Ġcur":8568,"ĠIz":8569,"Ġ450":8570,"ĠWol":8571,"Thá»§":8572,"agalus":8573,"Ġ87":8574,"TrÃ²":8575,"rox":8576,"Chá»©c":8577,"ĠAlaska":8578,"evin":8579,"ĠBrad":8580,"istol":8581,"ĠSchles":8582,"etto":8583,"ĠRome":8584,"Ġthá»¥c":8585,"Ġ1853":8586,"incl":8587,"ĠAngola":8588,"ĠEric":8589,"ĠCamero":8590,"ĠMuhammad":8591,"erdin":8592,"Ġgrand":8593,"ĠCape":8594,"ĠbÃ³p":8595,"åħ¬":8596,"asciata":8597,"ãĢį":8598,"ĠMarcos":8599,"Astragalus":8600,"atemala":8601,"ĠAmaryllidaceae":8602,"'t":8603,"??":8604,"AF":8605,"Há»įc":8606,"Not":8607,"Po":8608,"Ser":8609,"Sam":8610,"TÃłi":8611,"gá»įi":8612,"||":8613,"Ġlip":8614,"Ġhe":8615,"Ġbá»Ļc":8616,"Ġbáº¥m":8617,"ĠTy":8618,"ĠTÃ¡i":8619,"ĠTud":8620,"Ġpho":8621,"ĠCá»Ŀ":8622,"ĠLady":8623,"Ġre":8624,"ĠBá»ĵng":8625,"ĠMyrm":8626,"ĠSyst":8627,"inal":8628,"ĠPass":8629,"ĠKum":8630,"ĠKoch":8631,"Ġsá»ĳc":8632,"ĠChá»©c":8633,"ĠNgÆ°":8634,"imation":8635,"ĠNháºŃn":8636,"icta":8637,"etia":8638,"ĠIU":8639,"umber":8640,"emo":8641,"tháº¿":8642,"ThÆ°Æ¡ng":8643,"âĢľ":8644,"ĠKhÃ¡c":8645,"ĠUN":8646,"irac":8647,"trÃºc":8648,"trich":8649,"igm":8650,"Ġ91":8651,"ablan":8652,"royo":8653,"stit":8654,"evo":8655,"ĠCruise":8656,"ĠFranz":8657,"1994":8658,"burgh":8659,"ishima":8660,"Ġ1839":8661,"iscus":8662,"Giá»¯a":8663,"ĠVolga":8664,"Carex":8665,"ĠByakuya":8666,"ĠMississippi":8667,"ĠSirik":8668,"ĠLevi":8669,"giá»Ŀ":8670,"ĠKennedy":8671,"ocaine":8672,"ĠYaroslav":8673,"Araneus":8674,"ĠMstislav":8675,"BÃ¡n":8676,"Dia":8677,"Hen":8678,"Mas":8679,"Tuyáº¿n":8680,"Ur":8681,"bo":8682,"san":8683,"uil":8684,"ute":8685,"ways":8686,"çļ":8687,"Ġá»ĳm":8688,"ĠÄĳá»ĳng":8689,"ĠÄĳáº¯ng":8690,"Ġlen":8691,"ĠmÃło":8692,"Ġmá»ĩt":8693,"Ġball":8694,"Ġbrom":8695,"phan":8696,"ĠgÃ²":8697,"Ġphiá»ģn":8698,"ĠNiÃªn":8699,"ĠNow":8700,"ĠHed":8701,"ĠHok":8702,"ĠHá»©a":8703,"Ġrh":8704,"ĠMob":8705,"ĠMeck":8706,"ĠÄĲÃ¡n":8707,"ono":8708,"ĠPers":8709,"ĠTherid":8710,"ĠVil":8711,"ĠKey":8712,"ĠAch":8713,"atani":8714,"ĠNgá»±a":8715,"ĠRep":8716,"icata":8717,"ĠnÃ³c":8718,"ĠFort":8719,"ĠFair":8720,"ĠJu":8721,"ĠJae":8722,"ĠXá»©":8723,"reet":8724,"ĠKhÃºc":8725,"ÄĲiá»ĥm":8726,"ĠOt":8727,"abi":8728,"ĠAnk":8729,"Cha":8730,"ieg":8731,"illy":8732,"PhÃ²ng":8733,"sko":8734,"Äĳá»ĥ":8735,"estes":8736,"enness":8737,"ĠGuatemala":8738,"Ġ1852":8739,"Ġ1837":8740,"Ġradio":8741,"ĠCentre":8742,"desivir":8743,"Ġlogic":8744,"Muell":8745,"Tokyo":8746,"ĠGregory":8747,"ablanca":8748,"ĠTheridiidae":8749,"?)":8750,"Af":8751,"Báº¥t":8752,"Kr":8753,"cÃ¹ng":8754,"mel":8755,"tes":8756,"wi":8757,"yes":8758,"Ġviá»ĩt":8759,"Ġmanh":8760,"Ġbáº¿":8761,"Ġbass":8762,"Ġkáº¹o":8763,"Ġsem":8764,"Ġsulf":8765,"Ġráº¡c":8766,"ĠBiá»ĥu":8767,"ĠBá»Ńu":8768,"ĠMá»Ļng":8769,"ĠMá»Ľi":8770,"ĠÄĲá»īnh":8771,"ĠTháºŃt":8772,"ĠKiá»ĩt":8773,"ĠGil":8774,"ĠChan":8775,"ĠChÃºc":8776,"atsu":8777,"ĠNhiá»ĩm":8778,"ĠRic":8779,"asy":8780,"Ġ1824":8781,"otsky":8782,"ĠYuri":8783,"elles":8784,"ChÃº":8785,"uban":8786,"Ġtour":8787,"ukov":8788,"ollo":8789,"ĠBlu":8790,"anthes":8791,"ĠBaro":8792,"tto":8793,"ĠSpar":8794,"ĠIshi":8795,"ĠKrak":8796,"ĠGiá»¯a":8797,"ĠBoeing":8798,"ĠIndiana":8799,"ĠJunior":8800,"ĠDomin":8801,"ĠEsports":8802,"ĠRoger":8803,"Ġmelan":8804,"Ġmá»ĭn":8805,"ĠStrauÃŁ":8806,"ĠSchleswig":8807,"700":8808,"CÃ¡i":8809,"Dá»±":8810,"Des":8811,"Dol":8812,"DÃ²ng":8813,"Sa":8814,"han":8815,"kok":8816,"woo":8817,"åĽ":8818,"ĠtÃŃa":8819,"ĠláºŃn":8820,"ĠmÃłi":8821,"Ġmeg":8822,"Ġbrach":8823,"Ġdáº¹t":8824,"ĠkhiÃªn":8825,"Ġkhinh":8826,"anag":8827,"ĠLeop":8828,"ĠHá»Ĺ":8829,"Ġreg":8830,"ĠSU":8831,"ĠSá»©c":8832,"ĠSard":8833,"ĠPin":8834,"enos":8835,"ĠChrome":8836,"eley":8837,"atin":8838,"ĠRaven":8839,"ĠnhÃłng":8840,"Ġ3000":8841,"oser":8842,"ĠnÃ³n":8843,"ĠEP":8844,"ĠphÃŃm":8845,"ÄĲÃłi":8846,"ÄĲáº¡o":8847,"odor":8848,"oceridae":8849,"ĠYÃªu":8850,"avi":8851,"2022":8852,"Ġform":8853,"ogo":8854,"ouch":8855,"ento":8856,"ĠNghiÃªm":8857,"ibia":8858,"athan":8859,"ĠCuá»ĵng":8860,"ĠLuer":8861,"rish":8862,"ÂłÂłÂł":8863,"ĠOliv":8864,"ĠLatvia":8865,"eleontidae":8866,"ĠHandanoviÄĩ":8867,"yshnikov":8868,"ĠQueensland":8869,"ĠMyrmeleontidae":8870,"Cycl":8871,"Eri":8872,"Há»ĵng":8873,"Kir":8874,"Lam":8875,"Lyc":8876,"Pap":8877,"TÃ¢n":8878,"cÃ¡ch":8879,"found":8880,"gn":8881,"ground":8882,"khi":8883,"lyn":8884,"mes":8885,"ÙĦ":8886,"á¹":8887,"nhÆ°ng":8888,"Ġbe":8889,"Ġbeg":8890,"Ġnha":8891,"Ġdá»«a":8892,"ĠTar":8893,"ĠCanth":8894,"ĠNeg":8895,"ĠNied":8896,"ĠLas":8897,"ĠHans":8898,"Ġráº¡ch":8899,"ĠxÃ´":8900,"ĠÄĳá»Ľn":8901,"ĠBÃłnh":8902,"ĠBá»Ļi":8903,"ĠBart":8904,"ĠSor":8905,"ĠTho":8906,"ĠThiá»ĥm":8907,"ĠTrá»±c":8908,"ĠGe":8909,"idens":8910,"idea":8911,"ĠChÃ©n":8912,"eler":8913,"atter":8914,"ilum":8915,"urd":8916,"omon":8917,"Ġconc":8918,"ĠJima":8919,"tera":8920,"unic":8921,"ĠKháº£o":8922,"Triá»ģu":8923,"icho":8924,"enstein":8925,"obal":8926,"ific":8927,"ĠBruch":8928,"Äĳiá»ģu":8929,"ĠShe":8930,"ebec":8931,"estival":8932,"Ã¼k":8933,"ydney":8934,"itty":8935,"ĠBeach":8936,"ĠHarrison":8937,"ĠAbd":8938,"ĠMichigan":8939,"ĠDonald":8940,"Scop":8941,"ĠLinux":8942,"jeun":8943,"ispa":8944,"ĠPortman":8945,"ĠHawk":8946,"ĠHugh":8947,"ĠWarszawa":8948,"ĠAntonio":8949,"ĠMunich":8950,"ĠCopel":8951,"ĠÃįt":8952,"ĠEverton":8953,"ĠProduct":8954,"ĠTudor":8955,"ĠCantharidae":8956,"%).":8957,":/":8958,"Ble":8959,"Her":8960,"Hab":8961,"Min":8962,"SM":8963,"Sem":8964,"bi":8965,"back":8966,"ty":8967,"var":8968,"wer":8969,"zen":8970,"zew":8971,"å±":8972,"Ġtáº¿t":8973,"ĠÄĳÃ¨o":8974,"ĠÄĳáº·n":8975,"ĠÄĳuá»ĳi":8976,"Ġluyáº¿n":8977,"ĠhÄĥng":8978,"ĠmÃµm":8979,"ĠbÃº":8980,"Ġset":8981,"Ġgáº¥m":8982,"ĠTO":8983,"ĠTol":8984,"ĠTÃ¡n":8985,"ĠCanh":8986,"ĠNK":8987,"ĠrÅ©":8988,"ĠrÃ²ng":8989,"ĠBi":8990,"ĠBil":8991,"ĠBá»Ŀ":8992,"ĠBran":8993,"ĠMend":8994,"ĠÄĲÃłn":8995,"ĠSim":8996,"ĠSáº¯c":8997,"ĠSEA":8998,"ĠVoi":8999,"aust":9000,"iata":9001,"ĠDáº§n":9002,"ĠDiá»ĩn":9003,"ĠDol":9004,"ĠGá»«ng":9005,"ĠGÃ¶":9006,"ĠChurch":9007,"athi":9008,"imal":9009,"Ġlá»«ng":9010,"ilo":9011,"ĠRáº¥t":9012,"ĠRau":9013,"ĠRá»«ng":9014,"ĠEp":9015,"ados":9016,"union":9017,"ĠUá»·":9018,"ĠUtt":9019,"ĠGiáº£n":9020,"Ġ125":9021,"ĠLanc":9022,"ryum":9023,"sted":9024,"ĠMario":9025,"ĠArroyo":9026,"allus":9027,"Ġ140":9028,"Äĳá»ĵng":9029,"Ġins":9030,"Ġ1843":9031,"opsychidae":9032,"rador":9033,"ĠStein":9034,"ĠSteve":9035,"ĠBerg":9036,"auss":9037,"Asteraceae":9038,"ladesh":9039,"rence":9040,"ĠÅģ":9041,"Ġstud":9042,"ĠOtto":9043,"Ġparv":9044,"Micr":9045,"Coel":9046,"ÑģÐº":9047,"otrichaceae":9048,"ĠOdessa":9049,"ĠPapua":9050,"ĠAleksandr":9051,"Naruto":9052,"ĠHonduras":9053,"ennessee":9054,"DD":9055,"Lasi":9056,"Phi":9057,"RI":9058,"Rich":9059,"SÃ¡ch":9060,"kt":9061,"law":9062,"wich":9063,"yi":9064,"Â·":9065,"Ãī":9066,"áŀ":9067,"Ġtáº·c":9068,"Ġhir":9069,"ĠchÆ°á»Ľc":9070,"Ġchá»Ľp":9071,"ĠkÃ¨":9072,"Ãªng":9073,"Ġdr":9074,"anna":9075,"qua":9076,"cháº³ng":9077,"ĠBÃłng":9078,"ĠBand":9079,"ĠSub":9080,"ĠSeg":9081,"ĠSomme":9082,"ĠPor":9083,"ĠThuyáº¿t":9084,"enol":9085,"ĠTriáº¿t":9086,"ĠDinh":9087,"ĠnghÃªnh":9088,"ĠGM":9089,"ĠGyeong":9090,"eog":9091,"etsk":9092,"ĠFu":9093,"ĠFun":9094,"ĠFerdin":9095,"ĠJin":9096,"thal":9097,"ĠWitt":9098,"rect":9099,"ĠKhÃ¢m":9100,"Ġ747":9101,"ovinam":9102,"ingidae":9103,"Ġ93":9104,"ellul":9105,"ĠAnne":9106,"apl":9107,"illes":9108,"ĠArd":9109,"NhÆ°ng":9110,"amba":9111,"achi":9112,"ĠGren":9113,"ĠConquer":9114,"arya":9115,"ĠSerb":9116,"ĠClass":9117,"ĠFrance":9118,"attan":9119,"Ã©nÃ©es":9120,"onso":9121,"lenburg":9122,"ĠNapoleon":9123,"ÄįiÄĩ":9124,"ĠMerc":9125,"ĠAcad":9126,"opolis":9127,"UBG":9128,"ĠHoÃłnh":9129,"åŃĲ":9130,"ĠKolar":9131,"ĠGabri":9132,"aparte":9133,"ĠRTSP":9134,"ĠWikipedia":9135,"ĠTortricidae":9136,"ĠPhiladelphia":9137,",âĢ¦":9138,"BÃ¡o":9139,"Biá»ĥu":9140,"Gen":9141,"Ghi":9142,"Lá»Ŀi":9143,"NU":9144,"Sy":9145,"Thi":9146,"TÃ³m":9147,"nal":9148,"nom":9149,"pa":9150,"ru":9151,"æĪ":9152,"Ġvar":9153,"Ġhá»Ł":9154,"Ġhyp":9155,"Ġmont":9156,"Ġtrá»ħ":9157,"Ġbáº¹":9158,"ĠchÃ©n":9159,"Ġkali":9160,"ĠnhÃ¡t":9161,"ĠTÅį":9162,"ĠTennessee":9163,"Ġngá»¥y":9164,"ĠngÆ°Æ¡i":9165,"Ġ119":9166,"ĠNÃ´m":9167,"ĠLil":9168,"ĠLá»Ŀi":9169,"ĠxÃŃ":9170,"ĠBÃ©":9171,"ĠBog":9172,"ĠSund":9173,"ĠShip":9174,"amoto":9175,"ĠPP":9176,"ĠPel":9177,"ĠKash":9178,"ĠKÃªnh":9179,"ĠGS":9180,"ĠChuyÃªn":9181,"ĠChicago":9182,"ĠNgÆ°u":9183,"ĠNguá»ĵn":9184,"Ġ360":9185,"osev":9186,"ĠJay":9187,"lev":9188,"tro":9189,"trop":9190,"ocaul":9191,"ioni":9192,"iec":9193,"rain":9194,"ĠZach":9195,"ebast":9196,"ophon":9197,"manuel":9198,"Ġ07":9199,"Ġ09":9200,"ization":9201,"KhÃ¡i":9202,"issima":9203,"ĠBlan":9204,"ĠFranco":9205,"eij":9206,"Star":9207,"Ġ1846":9208,"yllum":9209,"ĠPhilippos":9210,"ĠOrigin":9211,"ĠAbb":9212,"ausen":9213,"aiser":9214,"ĠSamuel":9215,"ĠBangladesh":9216,"ĠNike":9217,"orussia":9218,"ĠCaroline":9219,"ĠGeneral":9220,"ĠSantiago":9221,"ĠLibya":9222,"ĠHayes":9223,"ĠSharaku":9224,"ocephalus":9225,"ĠArnold":9226,"Moore":9227,"osaurus":9228,"ĠCameroon":9229,"ĠMecklenburg":9230,"Cá»ĳt":9231,"Fre":9232,"Love":9233,"Loire":9234,"ME":9235,"Ná»¯":9236,"Nassau":9237,"Por":9238,"Tur":9239,"bb":9240,"fort":9241,"mo":9242,"my":9243,"à½":9244,"åİ":9245,"çĶ":9246,"Ġlive":9247,"Ġmau":9248,"Ġnung":9249,"Ġsáº§u":9250,"ĠsÃ²":9251,"ĠnhÃ£":9252,"ĠgÃµ":9253,"ĠkhÃ´n":9254,"Ġpháº£":9255,"Ġpháº«n":9256,"ĠCE":9257,"ĠCur":9258,"ĠCá»«u":9259,"ĠCIA":9260,"ĠLis":9261,"ĠLá»ĩnh":9262,"Ġxay":9263,"ĠBest":9264,"ĠManh":9265,"ĠMiáº¿u":9266,"ĠMÃ³n":9267,"onis":9268,"ĠPost":9269,"ĠThá»¥":9270,"ĠThÆ°á»Ľc":9271,"ĠTháºŃm":9272,"ĠVÃłi":9273,"alensis":9274,"ĠkhiÃªm":9275,"ĠRet":9276,"ĠRev":9277,"ĠRoll":9278,"ĠErich":9279,"Thá»©c":9280,"Ġkhoan":9281,"ĠOh":9282,"ĠUK":9283,"Ġhá»ĩt":9284,"edes":9285,"ĠpH":9286,"Ġpunct":9287,"stadt":9288,"ĠAli":9289,"utan":9290,"Ġdioxide":9291,"yclin":9292,"ochi":9293,"GiÃ¡m":9294,"orks":9295,"Andr":9296,"ĠGuam":9297,"1991":9298,"1992":9299,"ĠUSS":9300,"ĠBeng":9301,"actaceae":9302,"ĠTimor":9303,"Nghá»ĩ":9304,"ĠVirgin":9305,"ĠFrankfurt":9306,"ĠMoore":9307,"ĠRaymond":9308,"Ġngoáº·t":9309,"ĠAssoc":9310,"ĠChamber":9311,"ĠHabsburg":9312,"ĠChannel":9313,"jeunea":9314,"Eug":9315,"Hal":9316,"How":9317,"Homo":9318,"LÃłng":9319,"No":9320,"site":9321,"uensis":9322,"vá»ģ":9323,"zb":9324,"Å¼":9325,"Ïģ":9326,"Ð¼":9327,"Ġaus":9328,"Ġtáº©m":9329,"ĠÄĳÃª":9330,"ĠsÃ¢m":9331,"Ġgran":9332,"ĠCÃłn":9333,"Ġhá»įng":9334,"ĠLÃ¢n":9335,"ĠLÃ²":9336,"ĠLaur":9337,"ĠrÃ¢u":9338,"ĠBáº§u":9339,"ĠMaz":9340,"ĠSov":9341,"ĠThai":9342,"ĠVai":9343,"ĠVic":9344,"ĠKas":9345,"ĠAU":9346,"ĠDer":9347,"ĠDiam":9348,"isco":9349,"ĠNhÃ£":9350,"ĠNham":9351,"ĠRes":9352,"ĠRem":9353,"ĠRoan":9354,"Ġ350":9355,"ackm":9356,"ĠEA":9357,"ĠFeder":9358,"thy":9359,"ĠWien":9360,"\".\"":9361,"ÄĲáº£ng":9362,"Ġkhoáº£nh":9363,"ĠOg":9364,"ĠOz":9365,"ĠUm":9366,"trá»«":9367,"Trang":9368,"Ġpoly":9369,"Ġ900":9370,"roqu":9371,"utch":9372,"ylus":9373,"Nháº¡c":9374,"ĠShÅį":9375,"ize":9376,"ĠCrim":9377,"essen":9378,"ĠHydr":9379,"ĠChuá»Ļt":9380,"laph":9381,"uchi":9382,"anni":9383,"1997":9384,"Ġ1855":9385,"ĠBeau":9386,"ĠWalker":9387,"âĢĿ,":9388,"ĠPalomar":9389,"ĠNorman":9390,"ĠAthens":9391,"ĠStephen":9392,"ĠJosÃ©phine":9393,"Ġrapper":9394,"LuáºŃt":9395,"ĠPedro":9396,"ĠSierra":9397,"Austr":9398,"CC":9399,"Cá»Ļng":9400,"DF":9401,"HÃ¡n":9402,"VA":9403,"VN":9404,"hai":9405,"mus":9406,"pid":9407,"xi":9408,"Î¿":9409,"Ġcá»Łi":9410,"ĠÄ°":9411,"Ġváº§n":9412,"Ġlau":9413,"ĠlÄĥn":9414,"Ġmi":9415,"ĠnÃłn":9416,"Ġnhá»ĵi":9417,"Ġgá»Ļp":9418,"ĠkhÃ¢u":9419,"ĠkhÃ©p":9420,"ĠTal":9421,"ĠCab":9422,"ĠCactaceae":9423,"ÃŃo":9424,"ĠHeg":9425,"ĠrÆ°á»Ľc":9426,"ĠBac":9427,"ermann":9428,"ĠMS":9429,"ĠMez":9430,"ĠSI":9431,"ĠSul":9432,"Æ°á»Ľu":9433,"ĠVor":9434,"ĠVel":9435,"ĠVers":9436,"ĠVilla":9437,"auer":9438,"alore":9439,"ĠDmit":9440,"idel":9441,"á»Ńng":9442,"aec":9443,"isidae":9444,"Ġgiá»¥":9445,"ative":9446,"ĠRid":9447,"itte":9448,"ĠItto":9449,"ĠJim":9450,"otam":9451,"agal":9452,"ĠOld":9453,"iron":9454,"try":9455,"tram":9456,"igu":9457,"ĠGiuse":9458,"Chuyá»ĥn":9459,"Ġfeet":9460,"ryp":9461,"ĠMarÃŃa":9462,"ĠLeyte":9463,"orde":9464,"ĠGray":9465,"oya":9466,"ixon":9467,"ĠColor":9468,"1990":9469,"1995":9470,"iels":9471,"ĠHero":9472,"ĠGiá»Ŀ":9473,"enzo":9474,"ĠDavis":9475,"ĠHenri":9476,"ypha":9477,"TVQH":9478,"ephal":9479,"ĠTurk":9480,"ĠThomisidae":9481,"ĠMahmoud":9482,"ĠGeorgia":9483,"ĠLabrador":9484,"ĠMarxist":9485,"oppa":9486,"ĠBonaparte":9487,"ottenham":9488,"ĠBohemia":9489,"ĠDanube":9490,"ĠUniversity":9491,"ĠRodr":9492,"endrum":9493,"ĠSicilia":9494,"ĠIwo":9495,"ĠAegis":9496,"ĠVietnam":9497,"foundland":9498,"'m":9499,")\",":9500,"AP":9501,"Bay":9502,"Eur":9503,"FF":9504,"Geor":9505,"Gymn":9506,"Kar":9507,"Máº«u":9508,"Pan":9509,"Paul":9510,"RP":9511,"Rom":9512,"Sph":9513,"Sang":9514,"TÃłu":9515,"Tá»·":9516,"box":9517,"cle":9518,"dale":9519,"máº·c":9520,"vens":9521,"Ã«":9522,"å¹":9523,"ĠÆ":9524,"Ġthoi":9525,"Ġbáº»":9526,"ĠbÃ³n":9527,"Ġgá»¥c":9528,"anlÄ±":9529,"ĠCass":9530,"ĠCentr":9531,"ĠCCD":9532,"ĠNáº·c":9533,"ĠNASA":9534,"ĠrÃ¨n":9535,"ĠBuá»ķi":9536,"Ġ220":9537,"ĠÄĲoan":9538,"ĠSuz":9539,"ĠSultan":9540,"ĠPie":9541,"ĠVeg":9542,"ĠVovinam":9543,"alyp":9544,"ĠGDI":9545,"ĠPháº£n":9546,"ĠPhÃłm":9547,"uster":9548,"ĠNhiá»ĩt":9549,"oline":9550,"ĠRoad":9551,"ĠRchb":9552,"uria":9553,"acy":9554,"Ġ1800":9555,"Ġ1834":9556,"ĠJustin":9557,"ĠWimb":9558,"ThÆ°á»£ng":9559,"ÄĲÃ³n":9560,"Cháº¿":9561,"ĠBrian":9562,"Äĳá»ı":9563,"egovina":9564,"ugawa":9565,"ĠNewfoundland":9566,"GiÃ¡":9567,"ethe":9568,"Ant":9569,"onder":9570,"Ġ1832":9571,"agner":9572,"lenium":9573,"ĠTorino":9574,"ĠToáº£n":9575,"UBTVQH":9576,"ĠPavel":9577,"ĠNikolai":9578,"æĸĩ":9579,"Garonne":9580,"ĠHydropsychidae":9581,"Ġgiá»¥c":9582,"Biáº¿n":9583,"Brach":9584,"Ed":9585,"Tel":9586,"VáºŃn":9587,"],":9588,"hiá»ĩn":9589,"ient":9590,"kai":9591,"ns":9592,"tá»±":9593,"wana":9594,"zig":9595,"ä½":9596,"Ġol":9597,"Ġvá»±ng":9598,"Ġlá»Ļc":9599,"Ġmult":9600,"Ġtrans":9601,"Ġnan":9602,"ĠchÃły":9603,"Ġsal":9604,"Ġgáº¡t":9605,"ĠTung":9606,"ĠTá»įa":9607,"ĠphÃ¡c":9608,"ĠNick":9609,"Ġrung":9610,"ĠxÃ¢u":9611,"ĠBia":9612,"ĠMÄ©":9613,"ĠMons":9614,"ĠÄĲÃ¡":9615,"ĠÄĲoáº¡n":9616,"ĠSÆ¡":9617,"arre":9618,"ĠPac":9619,"ĠVH":9620,"encia":9621,"ĠAj":9622,"ĠAFC":9623,"ĠTráº¡i":9624,"ĠTráº¯ng":9625,"ĠDum":9626,"ĠPhao":9627,"ĠPhá»ĵn":9628,"atia":9629,"imet":9630,"ĠÃĸ":9631,"ĠNhÃ¢m":9632,"ĠIX":9633,"acium":9634,"ĠJar":9635,"ĠWW":9636,"ĠXuáº¥t":9637,"ĠKhiáº¿t":9638,"ĠUd":9639,"Ġpur":9640,"abad":9641,"Ngoáº¡i":9642,"aps":9643,"apura":9644,"Ġfile":9645,"ĠAlan":9646,"udd":9647,"Ġ160":9648,"exter":9649,"ebu":9650,"estidae":9651,"izz":9652,"ĠNewton":9653,"ĠMÃ£ng":9654,"esse":9655,"kham":9656,"Ġwh":9657,"ĠAmy":9658,"shÅ«":9659,"ĠFranÃ§":9660,"ĠAnderson":9661,"lanta":9662,"Inv":9663,"ĠHeart":9664,"Acacia":9665,"ĠBangalore":9666,"ĠWild":9667,"ĠBosna":9668,"ĠToÃ¡n":9669,"eridion":9670,"ĠNakatani":9671,"ĠLawrence":9672,"ithecia":9673,"ĠLombardia":9674,"eskÃ½":9675,"ĠPraha":9676,"ellulose":9677,"ĠManhattan":9678,"ackmore":9679,"150":9680,"Alex":9681,"Cáº£":9682,"Cat":9683,"Ha":9684,"Ho":9685,"Hy":9686,"MÃłu":9687,"Sol":9688,"can":9689,"dis":9690,"fin":9691,"lat":9692,"rik":9693,"tÃŃnh":9694,"vÃło":9695,"yac":9696,"Ġart":9697,"İle":9698,"ĠtÆ°á»Ľi":9699,"Ġlae":9700,"Ġline":9701,"ĠliÃªng":9702,"Ġtháº§m":9703,"Ġtro":9704,"Ġnanh":9705,"ĠniÃªm":9706,"Ġkg":9707,"ĠsÃªn":9708,"Ġgiáº¿ng":9709,"ĠTá»©c":9710,"ĠTuÃ¢n":9711,"quy":9712,"ĠLum":9713,"ĠHil":9714,"ĠrÄĥm":9715,"ĠMem":9716,"ĠMiy":9717,"ĠMÃ¼n":9718,"ĠSá»©":9719,"ĠSÃ£o":9720,"ĠSint":9721,"ĠSydney":9722,"ĠPit":9723,"ĠThÃºc":9724,"alaceae":9725,"ĠDáº¡ng":9726,"orne":9727,"ĠNgÃ´n":9728,"Ã©b":9729,"Ã©l":9730,"á»£t":9731,"omys":9732,"Ġ1810":9733,"Ġ1825":9734,")...":9735,"ĠWater":9736,"Thiáº¿u":9737,"led":9738,"ako":9739,"ĠOch":9740,"ĠOut":9741,"Triá»ĩu":9742,"NgÃ´":9743,"Cháº¥t":9744,"Chim":9745,"iller":9746,"ogy":9747,"obr":9748,"sten":9749,"ĠMarino":9750,"ĠAlam":9751,"achile":9752,"ymus":9753,"sons":9754,"oxin":9755,"Ġnhuá»ĩ":9756,"ĠUnion":9757,"Ġprop":9758,"ĠAdam":9759,"ãĥ³":9760,"Ass":9761,"Ġ1802":9762,"ĠMaine":9763,"ĠChristoph":9764,"gluc":9765,"emisia":9766,"ĠNavÃ¡s":9767,"Asplenium":9768,"Megachile":9769,"Ġthá»ģm":9770,"akarta":9771,"ĠRheinland":9772,"Eupithecia":9773,"ĠProvence":9774,"ĠVsev":9775,"Hieracium":9776,"://":9777,"Cle":9778,"Les":9779,"LÃłm":9780,"ML":9781,"Peter":9782,"Wil":9783,"lb":9784,"táº¡i":9785,"worth":9786,"Åº":9787,"Ð´":9788,"åº":9789,"Ġae":9790,"Ġov":9791,"ĵng":9792,"Ġtiá»ĩm":9793,"ĠcÃ¢m":9794,"Ġná»Ļ":9795,"Ġsam":9796,"Ġsá»¹":9797,"Ġdá»Ł":9798,"phoe":9799,"ĠTem":9800,"ĠTab":9801,"ĠphÃ´":9802,"Äĥk":9803,"Æ¡ng":9804,"ĠNay":9805,"ĠLáº¯k":9806,"ĠÄĳá»«ng":9807,"ĠBung":9808,"ĠBarn":9809,"ĠBerm":9810,"ĠBald":9811,"ĠMÃª":9812,"ĠMá»©c":9813,"ĠMys":9814,"ĠSus":9815,"onic":9816,"onna":9817,"ĠThá»©c":9818,"ĠKiá»ĩn":9819,"ĠAct":9820,"ĠDai":9821,"eot":9822,"ĠRum":9823,"osis":9824,"emma":9825,"emberg":9826,"Ġ1826":9827,"Ġcons":9828,"ader":9829,"ĠWlad":9830,"ople":9831,"ledon":9832,"ockh":9833,"Ġpo":9834,"ĠYosh":9835,"roch":9836,"ieu":9837,"ĠNghÃªnh":9838,"Äĳun":9839,"ymb":9840,"Ġ08":9841,"ĠThuáº¿":9842,"ĠElm":9843,"onto":9844,"Ġuá»·":9845,"eiji":9846,"oza":9847,"1993":9848,"ĠHymenophyllaceae":9849,"]].":9850,"ĠMonaco":9851,"ĠDonÄįiÄĩ":9852,"Orth":9853,"ĠRayleigh":9854,"glas":9855,"ĠPoint":9856,"ĠTwain":9857,"altar":9858,"ĠNovgorod":9859,"ĠTiberius":9860,"ĠJamaica":9861,"olepis":9862,"Ġnguá»Ļi":9863,"Ġbegin":9864,"ĠVsevolod":9865,"\"&":9866,"AD":9867,"Amer":9868,"Bá»ĳn":9869,"Go":9870,"HÃłn":9871,"Mord":9872,"Poly":9873,"Pfalz":9874,"Ros":9875,"Shi":9876,"Tom":9877,"VÃł":9878,"mark":9879,"nÆ¡i":9880,"vÃ¹ng":9881,"Ġoan":9882,"ĢĮ":9883,"Ġcá»Ĺ":9884,"ĠÄĳan":9885,"ĠmÃ´ng":9886,"Ã³d":9887,"phosidae":9888,"Ġngoan":9889,"ĠphÃł":9890,"ĠphÆ°á»£ng":9891,"ĠNá»ģn":9892,"á»Łm":9893,"ĠHÃ¢n":9894,"Ġxáº»":9895,"ĠBis":9896,"ĠÄĲang":9897,"ĠÄĲá»ĳng":9898,"ĠSP":9899,"ĠSem":9900,"only":9901,"amer":9902,"amel":9903,"ĠVy":9904,"ĠVis":9905,"ĠVáº¥n":9906,"ĠVinc":9907,"enb":9908,"ener":9909,"ayat":9910,"ĠDá»±c":9911,"ĠDiá»ĩc":9912,"ĠGas":9913,"idis":9914,"ĠChuyá»ĥn":9915,"ĠChuyáº¿n":9916,"aek":9917,"atrec":9918,"ilov":9919,"icon":9920,"iti":9921,"lei":9922,"ĠXing":9923,"ÄĲÆ¡n":9924,"ĠOreg":9925,"ĠGibr":9926,"NgÃ´i":9927,"iona":9928,"ogaster":9929,"Phone":9930,"ĠMarg":9931,"ĠBros":9932,"ÄĳÃ´i":9933,"ants":9934,"Ġinc":9935,"ĠBlackmore":9936,"erme":9937,"ĠStef":9938,"ĠApollo":9939,"ommern":9940,"asha":9941,"Ġtá»ĩp":9942,"ĠBaltic":9943,"ĠÅł":9944,"ĠBangkok":9945,"ucky":9946,"Marit":9947,"ĠMatak":9948,"ĠAtlanta":9949,"ĠSwift":9950,"ĠRadio":9951,"EAN":9952,"nghá»ĭ":9953,"ĠTumkur":9954,"ĠoÃ¡n":9955,"ology":9956,"ĠSpring":9957,"Oxy":9958,"Ġrobot":9959,"ĠHenderson":9960,"ĠWarner":9961,"vedev":9962,"ĠBoateng":9963,"ĠRavenna":9964,"ĠRoanoke":9965,"ĠWimbledon":9966,"Bá»ĩnh":9967,"Break":9968,"DOS":9969,"FL":9970,"For":9971,"IP":9972,"Kaz":9973,"Lim":9974,"Lá»Ľp":9975,"Ul":9976,"XH":9977,"You":9978,"fr":9979,"jak":9980,"vey":9981,"Ã¥":9982,"Ñĭ":9983,"Ġep":9984,"Ġtambon":9985,"ĠÄĳÃ¹i":9986,"Ġvect":9987,"Ġlim":9988,"ĠlÃ¡t":9989,"Ġmarg":9990,"Ġchanh":9991,"ĠkÃŃp":9992,"Ġster":9993,"ĠnhÃ´":9994,"phis":9995,"Ġgáº·t":9996,"ĠphÃ¬nh":9997,"Ġpharaon":9998,"anal":9999,"ĠCS":10000,"ĠNT":10001,"ĠNicol":10002,"ĠHamb":10003,"ĠBec":10004,"ĠMut":10005,"ĠSoph":10006,"insky":10007,"ĠPubl":10008,"ĠKÅį":10009,"ĠAud":10010,"auri":10011,"ĠTrá»¥c":10012,"ĠDod":10013,"Ġnghiá»ģn":10014,"olt":10015,"ĠRov":10016,"icana":10017,"ĠnhÃło":10018,"emens":10019,"opes":10020,"ĠKha":10021,"Ġ92":10022,"ĠYemen":10023,"abin":10024,"ChÃ¹a":10025,"ĠMarvel":10026,"ĠStreet":10027,"ally":10028,"Ġá»Ĳ":10029,"udson":10030,"ĠShaw":10031,"ĠSherman":10032,"yron":10033,"ender":10034,"ĠConne":10035,"khu":10036,"ĠQatar":10037,"ĠthoÃ¡ng":10038,"ĠLuis":10039,"ĠIchigo":10040,"attus":10041,"ĠEdo":10042,"aldo":10043,"Ġ1835":10044,"instein":10045,"igny":10046,"ĠMedvedev":10047,"ĠKonstantin":10048,"ĠPortsm":10049,"ÄįeskÃ½":10050,"ĠFranklin":10051,"ĠXVII":10052,"ĠHolland":10053,"ĠMiller":10054,"aragua":10055,"ĠDubai":10056,"odactylus":10057,"ĠLGBT":10058,"ĠICBM":10059,"ĠCambridge":10060,"ĠKrasnodar":10061,"ogaila":10062,"include":10063,"ĠBaroque":10064,"ĠOregon":10065,"ĠGibraltar":10066,"ĠPortsmouth":10067,"BÆ°á»Ľc":10068,"Back":10069,"Cop":10070,"Card":10071,"FB":10072,"Kitty":10073,"Lit":10074,"OR":10075,"Top":10076,"Yu":10077,"burn":10078,"for":10079,"hy":10080,"yerm":10081,"ngoáº¡i":10082,"ĠlÃ³t":10083,"Ġliá»ħu":10084,"ĠmiÃªn":10085,"Ġbá»ĵ":10086,"ĠcháºŃu":10087,"Ġnhuyá»ħn":10088,"ĠdÆ°a":10089,"Ġkhanh":10090,"ĠTÃ²ng":10091,"anol":10092,"ĠCÃ¡n":10093,"ĠCáº©n":10094,"chan":10095,"ĠBag":10096,"ĠBund":10097,"ĠMant":10098,"ĠMaya":10099,"ĠÄĲi":10100,"ĠÄĲáº±ng":10101,"amus":10102,"aric":10103,"ĠPays":10104,"ĠPower":10105,"ĠPokÃ©mon":10106,"ĠPucci":10107,"aia":10108,"ĠTrotsky":10109,"ĠDá»ĭ":10110,"ĠDá»ģn":10111,"ĠGot":10112,"ĠNgu":10113,"olob":10114,"omia":10115,"omal":10116,"ĠIgor":10117,"ĠJes":10118,"ĠJoe":10119,"ulosa":10120,"unch":10121,"trÃªn":10122,"ocen":10123,"TrÃ¬nh":10124,"Ġpat":10125,"ensk":10126,"Chuyáº¿n":10127,"Chlor":10128,"Ġflor":10129,"ouz":10130,"ikk":10131,"style":10132,"berl":10133,"aza":10134,"azi":10135,"ugu":10136,"ĠConc":10137,"araj":10138,"ackDown":10139,"ĠParker":10140,"oye":10141,"ĠBaryshnikov":10142,"ride":10143,"ĠAdams":10144,"cheon":10145,"Ġwebsite":10146,"ĠUral":10147,"Ġgiá»įt":10148,"ĠTechn":10149,"Schum":10150,"entris":10151,"press":10152,"ĠExp":10153,"ÂłÂłÂłÂłÂłÂłÂł":10154,"ĠTwitter":10155,"osterone":10156,"ĠAPC":10157,"iformes":10158,"ÃĤu":10159,"Ġtenu":10160,"ĠFernando":10161,"ĠHonorius":10162,"ĠServant":10163,"ĠVatutin":10164,"Ġremdesivir":10165,"ĠNATO":10166,"ĠSalvador":10167,")\".":10168,"900":10169,"AG":10170,"Cap":10171,"Dá»ĭch":10172,"Gre":10173,"Há»£p":10174,"Lou":10175,"Mitt":10176,"Pach":10177,"TiÃªu":10178,"Táº¡p":10179,"US":10180,"bury":10181,"cÃ¡i":10182,"fri":10183,"há»į":10184,"hÃ¬nh":10185,"par":10186,"ä¼":10187,"éĽ":10188,"Ĥ¬":10189,"Ġti":10190,"ĠcÃły":10191,"ĠÄĳáº£":10192,"ĠÄĳáº¡c":10193,"ĠÄĳáº¯n":10194,"Ġmand":10195,"Ġtráº¯c":10196,"Ġnuá»ĳt":10197,"ĠkiÃªu":10198,"ĠkiÃªng":10199,"Ġsáº£nh":10200,"Ġsá»¥t":10201,"pháº§n":10202,"Ġkhá»ĳ":10203,"Ġkhiáº¿t":10204,"ĠTyr":10205,"ĠTNA":10206,"ĠTottenham":10207,"anes":10208,"ĠCÃ¢n":10209,"Ġquáº·ng":10210,"ĠLÅ©ng":10211,"ĠLord":10212,"ĠLenn":10213,"ĠHamp":10214,"ĠHLV":10215,"chin":10216,"ĠxÆ¡":10217,"ĠBÃ£i":10218,"ĠSC":10219,"ĠSiv":10220,"ĠSky":10221,"amovich":10222,"amily":10223,"ĠPS":10224,"ĠPen":10225,"ĠPUBG":10226,"ĠDig":10227,"ĠGÃ²":10228,"ĠGilbert":10229,"idd":10230,"ĠChe":10231,"ĠChÆ°":10232,"ĠChinh":10233,"eslav":10234,"ĠRus":10235,"ĠRÃ©":10236,"osuka":10237,"omac":10238,"ĠIP":10239,"Ġ1827":10240,"ĠEu":10241,"ĠElectr":10242,"ĠFerr":10243,"ĠJones":10244,"ĠJapan":10245,"thá»±c":10246,"Thá»©":10247,"otrop":10248,"akk":10249,"ĠOm":10250,"ĠOv":10251,"trung":10252,"igg":10253,"igon":10254,"Ġpal":10255,"abama":10256,"ellata":10257,"Ġ112":10258,"Charl":10259,"Ġchuá»ĳi":10260,"oge":10261,"ĠCont":10262,"eka":10263,"ĠSchw":10264,"ennes":10265,"ĠPhilop":10266,"ĠBlake":10267,"ĠClaud":10268,"ĠLuxem":10269,"Ġ1847":10270,"incible":10271,"ĠOrth":10272,"ĠChrysopidae":10273,"ĠRobin":10274,"Ġacet":10275,"ienne":10276,"arga":10277,"ĠRhett":10278,"ĠRhynch":10279,"Ġáº¢nh":10280,"entrop":10281,"yeon":10282,"umbold":10283,"Giá»Ľi":10284,"ĠOlympia":10285,"Epid":10286,"ĠXVIII":10287,"ĠHits":10288,"ĠSony":10289,"ĠTwo":10290,"agrionidae":10291,"ĠLiban":10292,"ĠFirst":10293,"Ġerectus":10294,"ĠBasque":10295,"Donald":10296,"Ġcoron":10297,"osperma":10298,"Command":10299,"ĠPetersburg":10300,"ĠCalcio":10301,"Ġvitamin":10302,"Ġlipid":10303,"çļĩ":10304,"ĠFerdinand":10305,"ĠAcademy":10306,"Ġaustr":10307,"roquois":10308,"ĠPhaolÃ´":10309,"ĠRhynchitidae":10310,"!\".":10311,"(\"":10312,"AN":10313,"Mim":10314,"Oc":10315,"Pet":10316,"Rub":10317,"Tan":10318,"VÃ´":10319,"bro":10320,"feet":10321,"iya":10322,"mins":10323,"tá»ķng":10324,"yra":10325,"ç¾":10326,"Ġamb":10327,"Ġãģ":10328,"ĨĴ":10329,"á»¦y":10330,"Ġcast":10331,"ĠÄĳÃ¨":10332,"ĠthÃª":10333,"ĠthÃ¢u":10334,"Ġhip":10335,"Ġmy":10336,"ĠmÃº":10337,"Ġmá»ī":10338,"Ġmá»ĵng":10339,"ĠbÃ¹a":10340,"Ġbáº©n":10341,"ĠkÃ¬nh":10342,"ĠnhÃºng":10343,"Ġdáº¥y":10344,"Ġkhá»ĳn":10345,"ĠTá»ĳ":10346,"ĠNu":10347,"ĠNur":10348,"ĠLÃªn":10349,"ĠLop":10350,"ĠLisa":10351,"ĠHáº¡o":10352,"ĠHome":10353,"ĠgiÃªng":10354,"chem":10355,"eren":10356,"ĠMul":10357,"ĠÄĲÃłng":10358,"inis":10359,"iness":10360,"ĠPir":10361,"ĠPied":10362,"ĠThao":10363,"aijan":10364,"ĠKevin":10365,"ĠAqu":10366,"ĠAur":10367,"ĠAcc":10368,"ĠTrÃ¡c":10369,"alov":10370,"ĠDiÃªu":10371,"ĠDiÃªm":10372,"ĠGeo":10373,"ĠCháº¥n":10374,"elab":10375,"ĠÃİle":10376,"asta":10377,"acter":10378,"Ġ1828":10379,"ĠER":10380,"ĠJogaila":10381,"ĠXa":10382,"andi":10383,"teris":10384,"uni":10385,"ÄĲÃªm":10386,"Ġpanch":10387,"1942":10388,"enst":10389,"Chá»¯":10390,"ieb":10391,"ipe":10392,"entai":10393,"Ġáº¨":10394,"ĠAlt":10395,"ĠArc":10396,"allas":10397,"ugaya":10398,"ieri":10399,"ĠReich":10400,"Ġnhuá»Ļm":10401,"ĠUnix":10402,"ĠHarry":10403,"ĠBook":10404,"ĠTokugawa":10405,"ĠDef":10406,"ĠAthlet":10407,"ĠÅ½":10408,"ĠMilano":10409,"iye":10410,"ĠMats":10411,"eleine":10412,"ĠMontana":10413,"weet":10414,"ĠiOS":10415,"Ġglyc":10416,"Croton":10417,"ĠCentury":10418,"ĠStanley":10419,"ĠStephani":10420,"Holstein":10421,"ĠNicaragua":10422,"ĠYokosuka":10423,"ĠLeptoceridae":10424,"orpommern":10425,"ĠGRUB":10426,"ĠBruchidae":10427,"Breaking":10428,"ĠvectÆ¡":10429,"Coa":10430,"Cao":10431,"DÆ°Æ¡ng":10432,"Es":10433,"Hed":10434,"Hyl":10435,"Káº¿":10436,"Myr":10437,"Na":10438,"Pod":10439,"Te":10440,"Tá»±":10441,"Tiáº¿n":10442,"Vai":10443,"fraz":10444,"mÃł":10445,"met":10446,"Î¹":10447,"å¼":10448,"ç¥":10449,"Ġ|":10450,"Ġcat":10451,"Ġcáº©m":10452,"ĠÄĳáºŃy":10453,"ĠÄĳÃºp":10454,"Ġliv":10455,"ĠlÃµm":10456,"Ġcháº£o":10457,"Ġkeo":10458,"Ġsec":10459,"Ġsingle":10460,"áº¿m":10461,"Ġdáº¡o":10462,"Ġgom":10463,"ĠgáºŃy":10464,"ĠTá»Ŀ":10465,"Ġphá»ĵn":10466,"ĠNP":10467,"ĠNiz":10468,"ĠLáº¡nh":10469,"Ġrá»Ļ":10470,"ĠrÃ²":10471,"ĠBuch":10472,"ĠMick":10473,"ĠSemat":10474,"oai":10475,"inton":10476,"arina":10477,"ĠKÃŃch":10478,"enaria":10479,"aup":10480,"ĠDne":10481,"ĠGiÃªng":10482,"ĠChes":10483,"ĠChÆ°á»Łng":10484,"ĠChina":10485,"Ã©d":10486,"olm":10487,"iceps":10488,"Æ°á»Łi":10489,"ĠJag":10490,"ĠJura":10491,"ĠJust":10492,"ĠJosh":10493,"Ġdop":10494,"ÄĲá»ģ":10495,"odia":10496,"akes":10497,"Ġ105":10498,"igera":10499,"Ġpet":10500,"Ġ115":10501,"ChÃ³":10502,"Ġfil":10503,"Ġfran":10504,"ians":10505,"ĠStars":10506,"Ġ1789":10507,"ĠAlabama":10508,"Nhiá»ĩm":10509,"ĠZambia":10510,"Äĳá»Ļng":10511,"assa":10512,"inda":10513,"ĠHyd":10514,"ights":10515,"Ġtrá»«u":10516,"ĠManuel":10517,"ĠHouse":10518,"ittor":10519,"ĠPlan":10520,"ĠAdolf":10521,"ĠBologna":10522,"Ġ1803":10523,"ĠRoberts":10524,"ĠGalicia":10525,"ĠGlobal":10526,"ä¸Ń":10527,"ythec":10528,"iety":10529,"ĠãĢĮ":10530,"ĠAlbania":10531,"eopatra":10532,"erbaijan":10533,"ĠStudio":10534,"color":10535,"azzi":10536,"ĠHanja":10537,"ĠMidd":10538,"odactylidae":10539,"ĠBrandenburg":10540,"ãĥ¼ãĥ":10541,"ĠErnest":10542,"Ġpulch":10543,"ĠJaneiro":10544,"census":10545,"å±±":10546,"Invincible":10547,"onlyinclude":10548,"ĠXinglong":10549,"umboldt":10550,"ĠSematophyllaceae":10551,"Aph":10552,"Azur":10553,"BI":10554,"Dios":10555,"EX":10556,"FS":10557,"GÃł":10558,"Game":10559,"HoÃłn":10560,"Il":10561,"Ir":10562,"James":10563,"Men":10564,"Od":10565,"RO":10566,"Rad":10567,"Su":10568,"Sec":10569,"Ven":10570,"cent":10571,"gon":10572,"get":10573,"hÃłnh":10574,"lÃłm":10575,"tor":10576,"tá»īnh":10577,"viv":10578,"Â³":10579,"Î½":10580,"ä¾":10581,"Ġtem":10582,"Ġtá»§y":10583,"ĠÄĳiá»ģm":10584,"ĠÄĳá»Łm":10585,"Ġláº§u":10586,"ĠlÃ©o":10587,"Ġhorm":10588,"Ġmed":10589,"Ġbáº©m":10590,"Ġkiá»ģu":10591,"Ġdiá»ĩu":10592,"phi":10593,"ĠgÃ¡y":10594,"Ġgáº·m":10595,"ĠTuyá»ĥn":10596,"ĠCant":10597,"ĠNakh":10598,"ĠLÃłm":10599,"ĠLiz":10600,"ĠLake":10601,"ĠHang":10602,"ĠHunt":10603,"Ġreb":10604,"ĠxÃ©":10605,"ĠBow":10606,"ĠBelle":10607,"ĠÄĲá»ķng":10608,"ĠSÃºng":10609,"ĠStaff":10610,"arctic":10611,"ĠThá»ıa":10612,"ĠKoh":10613,"ĠKast":10614,"enin":10615,"augh":10616,"ĠDá»¯":10617,"ores":10618,"ĠChÃº":10619,"ĠChiáº¿t":10620,"ĠChá»©ng":10621,"iso":10622,"ĠPháº¡n":10623,"atu":10624,"atan":10625,"olc":10626,"ĠRyan":10627,"osz":10628,"ĠIden":10629,"âĢ²":10630,"uns":10631,"ĠkhoÃ¡i":10632,"Ġ104":10633,"igl":10634,"Ġpap":10635,"ĠAnime":10636,"roe":10637,"...)":10638,"illand":10639,"entz":10640,"ĠArs":10641,"ioth":10642,"azar":10643,"...\"":10644,"lands":10645,"ĠAsia":10646,"ĠGuill":10647,"ĠMalta":10648,"opsyche":10649,"ossa":10650,"iami":10651,"Ġaf":10652,"ĠSmackDown":10653,"ĠCoun":10654,"ĠHalych":10655,"ĠUyá»ĥn":10656,"Ġ1801":10657,"Äģli":10658,"Rhod":10659,"Nghá»ĭ":10660,"CÃ´te":10661,"sterdam":10662,"ĠAndrei":10663,"ĠAzerbaijan":10664,"lectron":10665,"ĠIdaho":10666,"ĠFelix":10667,"ĠMoldova":10668,"ĊĠĊĠĊĠĊĠĊĠĊĠĊĠĊĠĊĠĊĠĊĠĊĠĊĠĊĠĊĠĊĠĊĠĊĠĊĠĊĠĊĠĊĠĊĠĊĠĊĠĊĠĊĠĊĠĊĠĊĠĊĠĊĠ":10669,"ĠNicholson":10670,"Dendrob":10671,"Ã³pez":10672,"ĠFreddy":10673,"ĠButler":10674,"ĠTunisia":10675,"ĠTrinidad":10676,"ĠPÃ©rez":10677,"ĠIUCN":10678,"osevelt":10679,"Nassauvia":10680,"ĠBengal":10681,"ĠCrimea":10682,"alyptus":10683,"Ġpanchayat":10684,"Barb":10685,"Dryopter":10686,"Ev":10687,"Mach":10688,"Pil":10689,"Pard":10690,"SÆ°":10691,"Sel":10692,"date":10693,"kor":10694,"ual":10695,"val":10696,"zan":10697,"ÑĮ":10698,"å¥":10699,"æĹ":10700,"éĩ":10701,"Ġ:":10702,"Ġir":10703,"Ġ000":10704,"Ġare":10705,"Ġtest":10706,"Ġturb":10707,"nga":10708,"Ã¡k":10709,"Ġtrá»ĩ":10710,"Ġbá»ĵn":10711,"ĠchÃ¨n":10712,"Ġsáº¥y":10713,"Ġsyn":10714,"Ġsultan":10715,"Ã³r":10716,"Ġdent":10717,"phy":10718,"ĠTil":10719,"ĠTÃ¡o":10720,"ĠTarn":10721,"onga":10722,"ĠCá»ĳng":10723,"ĠCyath":10724,"ĠCatherine":10725,"ĠLod":10726,"ĠLagr":10727,"ĠxÃ¡o":10728,"Ġxáº£o":10729,"ĠBÆ°u":10730,"ĠBed":10731,"ĠMI":10732,"ĠÄĲÃ¡p":10733,"ĠÄĲÃªm":10734,"ĠÄĲÄĥk":10735,"ĠSig":10736,"onn":10737,"aray":10738,"ĠPon":10739,"ĠKá»ĭch":10740,"ency":10741,"aude":10742,"ĠTriá»ĥn":10743,"ĠDÃ£y":10744,"ĠDexter":10745,"ĠGÃł":10746,"ĠGam":10747,"ĠGur":10748,"ĠPháº¥t":10749,"elop":10750,"uston":10751,"ĠNhÆ°á»£c":10752,"ĠNhung":10753,"ĠRey":10754,"osi":10755,"etum":10756,"Ġxua":10757,"Ġ1812":10758,"ĠFe":10759,"ĠFerm":10760,"lez":10761,"Ġyáº¿t":10762,"uno":10763,"agin":10764,"agli":10765,"aguay":10766,"ÄĲÃ¬nh":10767,"ĠOct":10768,"Ġpen":10769,"Ġpil":10770,"NgÃ´n":10771,"1987":10772,"1989":10773,"neis":10774,"Ã¨ge":10775,"ensh":10776,"Ġchuá»Ļc":10777,"ardin":10778,"ĠAriz":10779,"evch":10780,"ambique":10781,"ious":10782,"ĠBret":10783,"endorf":10784,"ĠConidae":10785,"enny":10786,"ĠCuatrec":10787,"ostyl":10788,"urga":10789,"ettel":10790,"ĠLuáºŃn":10791,"ĠMalawi":10792,"arsus":10793,"ĠOsaka":10794,"Ġ1831":10795,"ĠCharlotte":10796,"ygium":10797,"ĠPaulo":10798,"ĠUrban":10799,"ĠGrande":10800,"Ð°Ð½":10801,"ĠCharleston":10802,"Club":10803,"boat":10804,"ĠAirways":10805,"Ġcaliber":10806,"Ġhuá»·":10807,"orient":10808,"Ã±a":10809,"agher":10810,"orbes":10811,"ĠBaden":10812,"ĠGirls":10813,"ĠAleyrodidae":10814,"ĠRussell":10815,"Epidendrum":10816,"ĠDnepr":10817,"Dryopteris":10818,"120":10819,"AL":10820,"Fri":10821,"GP":10822,"Jac":10823,"Lá»±c":10824,"Mos":10825,"Quyá»ģn":10826,"TH":10827,"Ts":10828,"Tar":10829,"Váº¥n":10830,"comm":10831,"hal":10832,"hyd":10833,"káº»":10834,"rie":10835,"ÅĪ":10836,"æµ":10837,"ç¦":10838,"Ġ]":10839,"Ġes":10840,"ĠÃ´m":10841,"Ġà¸":10842,"Ġtá»§":10843,"Ġcamp":10844,"ĠlÄĥm":10845,"Ġlá»Ł":10846,"Ġhal":10847,"Ġbong":10848,"ĠbÃºa":10849,"Ġnot":10850,"Ġchá»ĳn":10851,"Ġcháº¡p":10852,"Ġkn":10853,"Ġkar":10854,"Ġsol":10855,"Ġsur":10856,"ĠTá»Ļ":10857,"ĠTir":10858,"ĠTob":10859,"ĠTyc":10860,"Ġphiá»ĩt":10861,"ĠCP":10862,"ĠCá»±":10863,"ĠCad":10864,"ĠCro":10865,"ĠNÆ°Æ¡ng":10866,"ĠNBA":10867,"ĠNext":10868,"ĠLow":10869,"ĠLub":10870,"ĠHinh":10871,"ĠHier":10872,"ĠHisp":10873,"Ġrong":10874,"chim":10875,"Ġxáº¡o":10876,"ĠBiá»ĩt":10877,"ĠBre":10878,"ĠBeck":10879,"ĠÄĲÆ°Æ¡ng":10880,"ĠSÃ¡n":10881,"ĠSaw":10882,"Ġ\",":10883,"inski":10884,"Ġthá»ĩ":10885,"ĠThan":10886,"ĠThÃŃ":10887,"ĠKars":10888,"ĠAK":10889,"ĠAquitaine":10890,"ayev":10891,"ĠTrÃłng":10892,"ĠTrump":10893,"ĠDn":10894,"ĠGom":10895,"ĠGary":10896,"imac":10897,"ĠRoch":10898,"icau":10899,"osome":10900,"ĠNamibia":10901,"ĠJud":10902,"ĠXung":10903,"ulina":10904,"reich":10905,"unes":10906,"ÄĲáº¿":10907,"ĠUzb":10908,"Ġtuá»ĵng":10909,"ocentr":10910,"Ġ106":10911,"avo":10912,"avel":10913,"Nga":10914,"1985":10915,"Ã¨res":10916,"ecio":10917,"Ġ170":10918,"ĠAllen":10919,"ution":10920,"Ġ1500":10921,"rani":10922,"ĠBrid":10923,"ÄĳÆ¡n":10924,"...,":10925,"Ã¶h":10926,"ffe":10927,"ĠIsab":10928,"atti":10929,"Ġtá»īa":10930,"iences":10931,"ĠAbu":10932,"ĠCoen":10933,"ĠCook":10934,"ĠKazan":10935,"enke":10936,"ĠBurk":10937,"Calais":10938,"ĠLyon":10939,"ĠGarfield":10940,"ĠMuricidae":10941,"ÑģÑĤ":10942,"ĠZhukov":10943,"Ġobsc":10944,"ĠKyoto":10945,"giá»ĳng":10946,"ĠUniversal":10947,"ĠBritish":10948,"ĠDouglas":10949,"ifrons":10950,"Ġspecies":10951,"Eucalyptus":10952,"ĠRafael":10953,"ĠHeinrich":10954,"ĠMobile":10955,"background":10956,"ĠGabriel":10957,"ĠBermuda":10958,"ĠAthletic":10959,"ĠTycoon":10960,"Bá»ĭ":10961,"Beg":10962,"Berry":10963,"CT":10964,"Dá»±a":10965,"EF":10966,"Ger":10967,"Mai":10968,"NÃ³i":10969,"Sim":10970,"SÆ¡n":10971,"Wang":10972,"cÃ¡":10973,"dt":10974,"dÃ¢n":10975,"dad":10976,"eaceae":10977,"eira":10978,"lus":10979,"nar":10980,"sun":10981,"ware":10982,"ÏĢ":10983,"ĠØ":10984,"ĠtÃ¢u":10985,"Ġtua":10986,"Ġtáº©u":10987,"ĠcÄĥm":10988,"Ġcycl":10989,"Ġlá»ĳc":10990,"Ġlithi":10991,"Ġthon":10992,"Ġkiáº¿p":10993,"Ġsqu":10994,"Ġkhiáº¿m":10995,"ĠphÃ²":10996,"ĠCel":10997,"ĠCec":10998,"ĠCost":10999,"ĠCenter":11000,"ĠHD":11001,"ĠHT":11002,"ĠHas":11003,"ĠrÃ¡o":11004,"Ġrá»ĳt":11005,"Ġrá»Ļn":11006,"ĠBack":11007,"ĠBez":11008,"ĠMÃ£i":11009,"ĠSas":11010,"ĠSebast":11011,"Ãºm":11012,"ĠThÃ¬n":11013,"ĠTro":11014,"ĠTrá»£":11015,"ĠTruyá»ĩn":11016,"á»ķn":11017,"ĠDáº¡":11018,"ĠDerm":11019,"aeaceae":11020,"Que":11021,"ĠRÃ´":11022,"ici":11023,"asco":11024,"iter":11025,"ĠIroquois":11026,"Ġ1819":11027,"Ġ1829":11028,"ĠFur":11029,"ĠFestival":11030,"hiro":11031,"ĠJis":11032,"thá»ĭ":11033,"ĠWell":11034,"ulo":11035,"ĠKhÃ´i":11036,"ÄĲND":11037,"ĠUs":11038,"ampar":11039,"aban":11040,"1970":11041,"ChÃ¢u":11042,"tech":11043,"Phá»ķ":11044,"PhÃŃa":11045,"ĠÃģn":11046,"oki":11047,"ĠMaroc":11048,"estine":11049,"ĠCrist":11050,"ĠGrimm":11051,"ehr":11052,"anthaceae":11053,"235":11054,"aleigh":11055,"enzl":11056,"âĢĻâĢĻ":11057,"ĠÅļ":11058,"ĠBelg":11059,"ĠValent":11060,"Ġoxide":11061,"Ġngá»§i":11062,"Carthy":11063,"ĠLucario":11064,"ĠSanto":11065,"Ã±o":11066,"ĠGerman":11067,"áº¤n":11068,"Atl":11069,"ĠBrunei":11070,"ĠCHD":11071,"ĠMozambique":11072,"ĠNevada":11073,"ĠJohannes":11074,"Artemisia":11075,"oaceae":11076,"HÄĲBT":11077,"ĠWitold":11078,"ĠJaeger":11079,"ĠWittmer":11080,"Andrena":11081,"Maritime":11082,"ĠHamburg":11083,"ĠOrthotrichaceae":11084,"CÃ²n":11085,"Dich":11086,"IN":11087,"Kaiser":11088,"Loáº¡i":11089,"Minh":11090,"Max":11091,"RR":11092,"To":11093,"TÃ¢m":11094,"Tetragn":11095,"VÃµ":11096,"Wind":11097,"Xanth":11098,"bie":11099,"hu":11100,"lach":11101,"mas":11102,"non":11103,"ript":11104,"tario":11105,"yer":11106,"Ð¡":11107,"Ñı":11108,"éķ":11109,"éĺ":11110,"Ġed":11111,"nguyÃªn":11112,"ĠcÃ²":11113,"ĠcÃ´i":11114,"ĠÄĳá»ĳ":11115,"ĠÄĳáº¡m":11116,"nhiá»ģu":11117,"Ġheter":11118,"Ġtrá»Ĺi":11119,"Ġse":11120,"ĠsÃ´":11121,"ĠToÃł":11122,"ĠTon":11123,"ĠTá»ĳc":11124,"ĠTá»ĥ":11125,"ĠTuá»ķi":11126,"ĠngÃł":11127,"Ġngáº£i":11128,"ĠpháºŃt":11129,"áº¥ng":11130,"ĠCáº¥m":11131,"ĠLuga":11132,"ĠHad":11133,"ĠHorn":11134,"ĠgiÃ´ng":11135,"Ġgiun":11136,"chu":11137,"Ġxavan":11138,"erc":11139,"ĠMr":11140,"ĠÄĲá»Ŀi":11141,"oar":11142,"ĠPick":11143,"ĠPoz":11144,"ĠVÃłnh":11145,"ĠVin":11146,"ĠVÅ©ng":11147,"ĠVit":11148,"ĠVog":11149,"ĠKane":11150,"ĠKiy":11151,"iao":11152,"Ġthuá»Ł":11153,"ĠGang":11154,"idum":11155,"ĠCher":11156,"ĠChap":11157,"elo":11158,"ĠNgá»¯":11159,"ĠNhan":11160,"olus":11161,"uron":11162,"urfa":11163,"ĠFound":11164,"ĠJoan":11165,"ĠWorks":11166,"odrom":11167,"ird":11168,"ĠGiov":11169,"1944":11170,"1988":11171,"enson":11172,"ensen":11173,"obin":11174,"Phá»¥":11175,"stag":11176,"stone":11177,"okh":11178,"Ġbá»ıng":11179,"ĠArch":11180,"uton":11181,"ĠZoph":11182,"Äĳáº¡i":11183,"ebel":11184,"ophorus":11185,"yridae":11186,"ĠCruz":11187,"ĠGris":11188,"ĠSeries":11189,"anthera":11190,"CND":11191,"lava":11192,"ĠScand":11193,"ondo":11194,"Cuá»ĳn":11195,"ĠBeaut":11196,"Ġ1833":11197,"Ġeng":11198,"ĠMeur":11199,"ĠTeam":11200,"noop":11201,"marck":11202,"ancy":11203,"ĠiPhone":11204,"ĠMoun":11205,"ĠEstonia":11206,"1954":11207,"ĠSolomon":11208,"ĠCatal":11209,"Ġhydrox":11210,"ĠLeonard":11211,"ĠRoosevelt":11212,"ĠNicholas":11213,"Ġservice":11214,"ĠÅŀanlÄ±":11215,"Ġgracilis":11216,"ĠHunter":11217,"ĠKentucky":11218,"ĠGonz":11219,"ĠUttar":11220,"Lasioglossum":11221,"eijing":11222,"ĠAssociat":11223,"ĠColorado":11224,"ouzja":11225,"ĠCHDCND":11226,"Tetragnatha":11227,"ĠZopheridae":11228,"ĠÅŀanlÄ±urfa":11229,"Av":11230,"Air":11231,"Ash":11232,"Bryum":11233,"Lamp":11234,"Mi":11235,"NGC":11236,"Pel":11237,"báº£n":11238,"cáº£":11239,"lic":11240,"lie":11241,"náº¿u":11242,"nick":11243,"rol":11244,"sin":11245,"td":11246,"uin":11247,"ÃĹ":11248,"Åıng":11249,"ĠÃ¢u":11250,"ĠÄĳá»įng":11251,"Ġváº·t":11252,"Ġbáº¡t":11253,"ĠchÃŃch":11254,"Ġkiá»ĩu":11255,"Ġste":11256,"Ġsex":11257,"ĠdÆ¡i":11258,"ĠToy":11259,"ĠTony":11260,"ĠCáº¥u":11261,"ĠLP":11262,"ĠLac":11263,"ĠLá»Ľp":11264,"ĠLÃ³pez":11265,"ĠHiá»ĥu":11266,"chiáº¿n":11267,"ĠBÃŃnh":11268,"ĠBÃ¡nh":11269,"ĠBTR":11270,"ĠBeijing":11271,"ercus":11272,"erCoa":11273,"ĠÄĲÃ¡ng":11274,"ĠSÃ¢m":11275,"ĠSea":11276,"ĠPao":11277,"ĠTháº§y":11278,"ĠVik":11279,"ĠKot":11280,"ĠGyr":11281,"ĠGord":11282,"Å©a":11283,"ĠPhr":11284,"aton":11285,"atta":11286,"olone":11287,"ĠRac":11288,"ĠRap":11289,"ĠRá»ĭa":11290,"ĠRiver":11291,"ĠINS":11292,"ĠForm":11293,"theon":11294,"ĠWTA":11295,"Thay":11296,"agioch":11297,"odr":11298,"ĠOber":11299,"irk":11300,"ovic":11301,"Trá»Ł":11302,"Ġpound":11303,"ĠYe":11304,"nea":11305,"Chung":11306,"obius":11307,"oko":11308,"ĠMars":11309,"Ġ1790":11310,"ĠAloy":11311,"ĠsuÃ½t":11312,"ĠloÃ£ng":11313,"ĠZero":11314,"Äĳá»ĳi":11315,"egr":11316,"ahan":11317,"ebe":11318,"ebes":11319,"ĠInstit":11320,"Ġ135":11321,"ophoridae":11322,"yros":11323,"opterus":11324,"orden":11325,"indong":11326,"ekt":11327,"issus":11328,"eza":11329,"ostoma":11330,"Anime":11331,"onde":11332,"ĠColumb":11333,"ictus":11334,"ĠbÃ©n":11335,"ĠSteyerm":11336,"derw":11337,"ĠHarp":11338,"olejeunea":11339,"ygm":11340,"ĠRhÃ´ne":11341,"ĠMichel":11342,"ĠFree":11343,"ĠEmp":11344,"ĠSouthampton":11345,"ãĤ¤":11346,"ĠToronto":11347,"eshow":11348,"cuá»Ļc":11349,"ĠSociety":11350,"ĠTeleg":11351,"ĠHooker":11352,"rograd":11353,"ĠStanis":11354,"Cerat":11355,"omorpha":11356,"ĠBhutan":11357,"ĠVasily":11358,"cticut":11359,"William":11360,"ĠOxford":11361,"sudski":11362,"ĠMohammad":11363,"ĠBuckingham":11364,"Idaea":11365,"ĠSivas":11366,"ĠLuxembourg":11367,"ĠHitsugaya":11368,"ĠPiedmont":11369,"Pardosa":11370,"ĠCyatheaceae":11371,"ĠArizona":11372,"Begonia":11373,"erCoaster":11374,")-":11375,"Cir":11376,"Camb":11377,"Os":11378,"Ren":11379,"Sphaer":11380,"Taylor":11381,"XuÃ¢n":11382,"dl":11383,"dal":11384,"mÃ´ng":11385,"mor":11386,"nd":11387,"nÆ°á»Ľc":11388,"tiá»ģn":11389,"uit":11390,"vÃłng":11391,"wal":11392,"å¯":11393,"æ²":11394,"Ġum":11395,"ĠtÄĥm":11396,"ĠcÃłn":11397,"ĠvÃ£":11398,"ĠvÃ³c":11399,"Ġláº¯c":11400,"ĠlÃŃt":11401,"ĠthÃªu":11402,"Ġhá»ĳc":11403,"Ġheli":11404,"Ġmo":11405,"ĠmÃŃa":11406,"ĠchÃª":11407,"Ġsm":11408,"Ġgram":11409,"Ġkhao":11410,"Ġkhá»ıa":11411,"Ġngáº¡t":11412,"Ġnguyá»ģn":11413,"Ġngáº¡ch":11414,"ĠNan":11415,"ĠNá»ķi":11416,"Ġvá»Ŀ":11417,"ĠLot":11418,"ĠLog":11419,"ĠHop":11420,"ĠHard":11421,"chis":11422,"ĠBiáº¿n":11423,"ĠBot":11424,"ĠBrach":11425,"erland":11426,"ĠMáº¡t":11427,"ĠMatt":11428,"ĠSK":11429,"arc":11430,"arit":11431,"arum":11432,"ĠPter":11433,"ĠPut":11434,"ĠThá»Ľi":11435,"aise":11436,"ĠAR":11437,"ĠAer":11438,"ayo":11439,"ĠTrai":11440,"ĠDark":11441,"ĠDance":11442,"ĠDream":11443,"usch":11444,"ĠRan":11445,"ĠRaw":11446,"Ġhoi":11447,"itor":11448,"acon":11449,"hire":11450,"than":11451,"agawa":11452,"ĠKhá»§ng":11453,"odinae":11454,"odene":11455,"trol":11456,"Truyá»ĩn":11457,"1946":11458,"Ã¨ve":11459,"Chiáº¿c":11460,"raft":11461,"Ġfusc":11462,"Ġbuá»ĵm":11463,"ianthus":11464,"ardian":11465,"Ġ1788":11466,"rans":11467,"Äĳáº§u":11468,"ymer":11469,"ĠConstant":11470,"101":11471,"acking":11472,"ekly":11473,"ĠSchult":11474,"ochrom":11475,"ĠAmsterdam":11476,"Ġ270":11477,"yde":11478,"ĠScinc":11479,"ĠLuzon":11480,"ĠSports":11481,"lines":11482,"Prim":11483,"Prot":11484,"actus":11485,"Lee":11486,"ĠCooper":11487,"ĠMead":11488,"ĠStrai":11489,"Ġeleg":11490,"iscidae":11491,"ĠValley":11492,"stanbul":11493,"NghÄ©a":11494,"ĠPetrograd":11495,"ĠShir":11496,"ĠSonny":11497,"oideae":11498,"ĠEugen":11499,"ocarpa":11500,"ĠLindl":11501,"ĠOntario":11502,"Ã¶nig":11503,"aidÅį":11504,"Ġsonar":11505,"ĠGrant":11506,"ĠShimoga":11507,"ĠAttelab":11508,"ĠPsych":11509,"RollerCoaster":11510,"Ġcacbonat":11511,"ĠAleyrodinae":11512,"Ġnucle":11513,"ĠPyrÃ©nÃ©es":11514,"ĠLeopold":11515,"ĠMÃ¼nchen":11516,"ĠChristopher":11517,"ĠConnecticut":11518,"Ġhormone":11519,"ĠNakhon":11520,"Ġrebound":11521,"Dendrobium":11522,"ĠUzbek":11523,"ĠCoenagrionidae":11524,"ĠGyrinidae":11525,"ĠAttelabidae":11526,"BiÃªn":11527,"Benth":11528,"EP":11529,"FI":11530,"HCM":11531,"Im":11532,"Ká»¹":11533,"LÃªn":11534,"Land":11535,"Loph":11536,"Mak":11537,"Mall":11538,"Neph":11539,"Pleur":11540,"PokÃ©mon":11541,"Rac":11542,"Sw":11543,"Sao":11544,"Salm":11545,"cum":11546,"fs":11547,"foot":11548,"gang":11549,"lib":11550,"wo":11551,"zt":11552,"zÄ±":11553,"Åĳ":11554,"Ìģ":11555,"Ð±":11556,"åĪ":11557,"åĬ":11558,"éģ":11559,"ĠÂ²":11560,"Ġcir":11561,"Ġlept":11562,"ĠchÃ¨":11563,"ĠsÃ¡o":11564,"Ġdá»Ĺ":11565,"Ġdev":11566,"Ġdeb":11567,"Ġdisc":11568,"Ġdance":11569,"phin":11570,"ĠTÃ²":11571,"ĠTÃ¡t":11572,"ĠTatar":11573,"ĠCov":11574,"ĠNH":11575,"ĠLing":11576,"ĠLav":11577,"ĠLec":11578,"ĠHÃ¡":11579,"ĠHÃ²n":11580,"ĠHipp":11581,"ĠrÃ©t":11582,"Ġrib":11583,"ĠBáº¡n":11584,"ĠBuk":11585,"ĠMeh":11586,"ĠSH":11587,"ĠSÃ³ng":11588,"ĠSBS":11589,"inct":11590,"ĠPier":11591,"ĠKad":11592,"ĠKap":11593,"alke":11594,"ĠDÆ°á»£c":11595,"ĠDam":11596,"ĠDÄ©nh":11597,"orea":11598,"aoi":11599,"ĠGaul":11600,"idth":11601,"ĠChen":11602,"imes":11603,"imum":11604,"ĠRaleigh":11605,"icester":11606,"á»ım":11607,"Ġ1823":11608,"hiz":11609,"ĠJang":11610,"Theridion":11611,"ĠXu":11612,"ĠXÃª":11613,"reng":11614,"teri":11615,"agna":11616,"ÄĲáº£o":11617,"áº»m":11618,"ĠYak":11619,"Ġ127":11620,"avy":11621,"avier":11622,"abis":11623,"tegr":11624,"ĠAragon":11625,"yla":11626,"tone":11627,"Äĳá»ģ":11628,"yct":11629,"istor":11630,"yma":11631,"ysteg":11632,"yslaw":11633,"ĠThuá»Ļc":11634,"erner":11635,"ypr":11636,"ĠSchwar":11637,"ochr":11638,"Giáº£":11639,"Arct":11640,"tsy":11641,"oziaceae":11642,"neumon":11643,"aurus":11644,"ĠWilld":11645,"à¸£":11646,"ĠMoraceae":11647,"ĠAlexandre":11648,"ĠTimberl":11649,"celot":11650,"ĠDelhi":11651,"ĠRaytheon":11652,"ĠKirin":11653,"estris":11654,"ĠUlithi":11655,"otrichum":11656,"ĠnitÆ¡":11657,"ĠSabb":11658,"ĠAmerica":11659,"ĠNadu":11660,"ĠAnthicidae":11661,"castle":11662,"utiaux":11663,"Senecio":11664,"amonu":11665,"ĠIshihara":11666,"ĠKrakÃ³w":11667,"ĠDmitry":11668,"ĠFranÃ§ois":11669,"ĠScincidae":11670,"ĠTimberlake":11671,"Ast":11672,"Bon":11673,"Báº±ng":11674,"Der":11675,"Elaph":11676,"Far":11677,"GN":11678,"Hoff":11679,"Ká»³":11680,"LS":11681,"Mur":11682,"Neol":11683,"Pierre":11684,"West":11685,"ean":11686,"gáº§n":11687,"iot":11688,"jamin":11689,"mon":11690,"nem":11691,"sáº½":11692,"vers":11693,"yang":11694,"zel":11695,"æ³":11696,"ĠÃºp":11697,"nger":11698,"ĠcÆ°á»Ľc":11699,"Ġcom":11700,"ĠcÆ°a":11701,"Ġcyclin":11702,"ĠvÃ¡c":11703,"Ġlá»Ļng":11704,"Ġmáº¡":11705,"ĠmÃ²":11706,"ĠmÃµ":11707,"ĠmÆ°á»£t":11708,"ĠnÃ©":11709,"ĠchiÃªm":11710,"Ġserr":11711,"Ġgam":11712,"Ġgá»Łi":11713,"Ġgris":11714,"ĠgÆ°Æ¡m":11715,"ĠTiá»ģu":11716,"ĠTáº«n":11717,"ĠCA":11718,"ĠCos":11719,"ĠCebu":11720,"ĠLob":11721,"ĠLight":11722,"ĠHÃło":11723,"ĠHeb":11724,"ĠHÃ¶":11725,"ĠHee":11726,"Ã¬u":11727,"Ġgieo":11728,"Ġrug":11729,"ĠBak":11730,"ĠBamb":11731,"ĠBush":11732,"ĠMey":11733,"ĠMath":11734,"ĠMother":11735,"ĠMishima":11736,"ĠMiami":11737,"ĠSamp":11738,"ĠSylv":11739,"ĠSnoop":11740,"arab":11741,"ĠTha":11742,"ĠThÃ¬":11743,"á»¥n":11744,"ĠDin":11745,"ĠDarl":11746,"ĠDown":11747,"ĠGraham":11748,"ĠChia":11749,"ĠChiang":11750,"esir":11751,"ĠPhÃª":11752,"elus":11753,"ĠNgá»Ļt":11754,"ilan":11755,"ĠRanh":11756,"ĠRáº¡ch":11757,"uru":11758,"uridae":11759,"ĠIA":11760,"ĠEM":11761,"ĠFM":11762,"ĠJess":11763,"tháº§n":11764,"ulin":11765,"ulum":11766,"agaceae":11767,"ÄĲÄ©a":11768,"ĠUt":11769,"ovi":11770,"ovia":11771,"TrÆ°Æ¡ng":11772,"Ġ108":11773,"Ġpor":11774,"Ġbut":11775,"ardon":11776,"ikon":11777,"ĠMarse":11778,"ĠBanks":11779,"egro":11780,"ĠmuÃ´n":11781,"ĠInform":11782,"anto":11783,"ugi":11784,"assin":11785,"assulaceae":11786,"ĠCross":11787,"ĠCrassulaceae":11788,"iere":11789,"ĠPress":11790,"oyd":11791,"ippus":11792,"Arch":11793,"ĠHoáº¡ch":11794,"ĠMalp":11795,"ĠÃļt":11796,"inese":11797,"ĠOrch":11798,"eimar":11799,"ĠHermann":11800,"ienna":11801,"ĠGrey":11802,"ĠStrand":11803,"ĠSamsung":11804,"Amph":11805,"ĠÐ¡":11806,"Marne":11807,"ĠMatth":11808,"ĠAirlines":11809,"ãģ®":11810,"uxoa":11811,"Ð¸Ð¹":11812,"plex":11813,"ĠShiba":11814,"sterreich":11815,"ĠLucas":11816,"ĠLucanidae":11817,"Ġclip":11818,"ritic":11819,"ĠVenezia":11820,"ĠGPL":11821,"ĠRomanek":11822,"ĠPiÅĤ":11823,"ĠForest":11824,"ĠWatson":11825,"äºº":11826,"ĠFilm":11827,"ĠDarwin":11828,"ĠThracia":11829,"ĠASEAN":11830,"ĠTHPT":11831,"Ġphosphor":11832,"ĠSphingidae":11833,"ĠBorneo":11834,"ĠKharkov":11835,"ĠEmmy":11836,"Ġbromide":11837,"ĠProductions":11838,"åİ¿":11839,"ĠHegel":11840,"idelberg":11841,"ĠWladyslaw":11842,"ĠKastamonu":11843,"ĠINSEE":11844,"%;":11845,"Agr":11846,"Dic":11847,"Eng":11848,"EIC":11849,"GS":11850,"IX":11851,"Kun":11852,"Lo":11853,"NÆ¡i":11854,"Sum":11855,"Sab":11856,"Tilland":11857,"aff":11858,"aÅĤ":11859,"bus":11860,"mu":11861,"myo":11862,"oor":11863,"ww":11864,"Î²":11865,"Ð³":11866,"å¦":11867,"å¿":11868,"ç«":11869,"Ġup":11870,"Ġá»§i":11871,"Ġcer":11872,"Ġvá»įt":11873,"ĠhÃ¡n":11874,"Ġmol":11875,"Ġmaster":11876,"ĠbÃŃch":11877,"Ġná»į":11878,"Ġnáº¡i":11879,"Ġká»ĩ":11880,"ĠsÆ°ng":11881,"Ġsá»ıi":11882,"phÃ¢n":11883,"pháº£i":11884,"phantes":11885,"ĠTik":11886,"ĠCle":11887,"ĠCáº§m":11888,"ĠNin":11889,"ĠLad":11890,"ĠLiv":11891,"ĠLund":11892,"ĠHáº£o":11893,"ĠHood":11894,"ĠHumboldt":11895,"chel":11896,"chÆ°a":11897,"ĠBit":11898,"ĠBáº¥y":11899,"ĠBenn":11900,"ĠMig":11901,"ĠMitch":11902,"ĠSuk":11903,"ĠSoft":11904,"Ġ\"âĢľ":11905,"arra":11906,"ĠPÄģli":11907,"ĠThong":11908,"ĠKish":11909,"ĠKrish":11910,"ĠAID":11911,"ĠDJ":11912,"ĠDá»¯u":11913,"ĠDep":11914,"ĠGaz":11915,"ĠGust":11916,"ĠChr":11917,"aeng":11918,"elot":11919,"atory":11920,"ĠNgao":11921,"Quercus":11922,"ĠRis":11923,"ĠRNA":11924,"ĠRÃŃo":11925,"Ġhop":11926,"asz":11927,"oscel":11928,"itaceae":11929,"ĠIstanbul":11930,"emm":11931,"acritic":11932,"Ġ1820":11933,"ĠEis":11934,"ThÆ°":11935,"ular":11936,"ulia":11937,"ÄĲoÃłn":11938,"ĠOff":11939,"ĠUV":11940,"ocr":11941,"ocas":11942,"igen":11943,"Ġ128":11944,"1980":11945,"1983":11946,"ellow":11947,"eca":11948,"obi":11949,"obl":11950,"ĠStorm":11951,"ĠLeicester":11952,"achel":11953,"aha":11954,"eper":11955,"antic":11956,"ugo":11957,"yriaceae":11958,"ueang":11959,"opteryx":11960,"asso":11961,"ournal":11962,"Ã¼l":11963,"ĠSchimm":11964,"ĠSankt":11965,"sheim":11966,"ĠBartram":11967,"ĠFrances":11968,"ozh":11969,"ixel":11970,"ĠMadeleine":11971,"Alp":11972,"Pros":11973,"arkom":11974,"spur":11975,"ĠBerk":11976,"otti":11977,"Ġnháº¹n":11978,"ĠPalestine":11979,"ĠAthyriaceae":11980,"ÅŁe":11981,"Ġ1806":11982,"ĠSamoa":11983,"ĠWhe":11984,"ancock":11985,"ĠPete":11986,"ĠSilver":11987,"ypodium":11988,"ĠBlackBerry":11989,"oidea":11990,"ĠAPG":11991,"ĠLeonzio":11992,"ĠWoods":11993,"Ġlogo":11994,"ĠRoyal":11995,"å¸Ŀ":11996,"ĠGodzilla":11997,"Ġblog":11998,"ĠJungermann":11999,"ĠErnst":12000,"ĠAbramovich":12001,"ĠWayne":12002,"å·ŀ":12003,"George":12004,"frazioni":12005,"ĠDermestidae":12006,"ĠPiÅĤsudski":12007,"Tillandsia":12008,"ĠSchimmel":12009,"112":12010,";\"|":12011,"Ah":12012,"Baker":12013,"Cung":12014,"CáºŃp":12015,"CBS":12016,"God":12017,"Gir":12018,"HN":12019,"Hangul":12020,"Kam":12021,"KÃŃnh":12022,"Mey":12023,"Nom":12024,"PO":12025,"RT":12026,"South":12027,"WS":12028,"bÃª":12029,"cegovina":12030,"hae":12031,"heim":12032,"ku":12033,"kaidÅį":12034,"las":12035,"sl":12036,"ste":12037,"serv":12038,"tum":12039,"wara":12040,"witz":12041,"yah":12042,"Äĵ":12043,"ËĲ":12044,"Îµ":12045,"Ñħ":12046,"é¦":12047,"Ġá":12048,"Ġá»¥":12049,"Ġorn":12050,"ĠcÃ¹":12051,"ĠvÆ°á»£n":12052,"ĠhÃ¹m":12053,"Ġmur":12054,"Ġtrich":12055,"Ġbin":12056,"ĠbÃ¨o":12057,"Ġbá»Ĺng":12058,"Ġnáº£n":12059,"Ġchá»įi":12060,"ĠchÆ°ng":12061,"Ġsá»ĵi":12062,"Ġnháº·t":12063,"Ġdá»ĵi":12064,"Ġdáº»":12065,"phr":12066,"phÃŃa":12067,"ĠngÃ³i":12068,"ĠphÃłm":12069,"á»įp":12070,"anica":12071,"quÃ¢n":12072,"ĠCR":12073,"ĠCuc":12074,"ĠCope":12075,"ĠNÃªn":12076,"ĠLoa":12077,"ĠLÃ´i":12078,"ĠHangul":12079,"ĠHIV":12080,"Ġrá»ĳn":12081,"ĠxÃło":12082,"ĠBÃ¢n":12083,"ĠMá»ĳi":12084,"ĠMov":12085,"ĠSáº§m":12086,"Ġthá»Ľt":12087,"ĠPis":12088,"ĠKann":12089,"enyl":12090,"ĠAut":12091,"ayer":12092,"iak":12093,"ĠDre":12094,"ĠDick":12095,"eople":12096,"eodor":12097,"ĠQuáº¯c":12098,"olle":12099,"ĠRand":12100,"ĠRyd":12101,"icius":12102,"osch":12103,"oste":12104,"itra":12105,"emin":12106,"ĠFed":12107,"adion":12108,"ĠWÅĤ":12109,"ĠWiel":12110,"ĠWagner":12111,"TháºŃp":12112,"Ġkhuá»·":12113,"uli":12114,"ÄĲiá»ĩn":12115,"ĠOst":12116,"tria":12117,"ocerus":12118,"ocaust":12119,"ĠYa":12120,"ellia":12121,"Ġbá»įt":12122,"rogen":12123,"ogr":12124,"oup":12125,"ĠStory":12126,"ĠArist":12127,"Nhá»Ŀ":12128,"NhÃ¬n":12129,"Ġloan":12130,"Ġ145":12131,"ahu":12132,"estodene":12133,"ohama":12134,"upta":12135,"ukia":12136,"ĠDoumer":12137,"ĠNewport":12138,"ĠCraig":12139,"ysÅĤaw":12140,"Kháº£":12141,"arlett":12142,"eko":12143,"ĠParaguay":12144,"ains":12145,"axy":12146,"ĠBarca":12147,"ttemberg":12148,"ĠHoÃ¡":12149,"ĠMadonna":12150,"otten":12151,"ĠHerac":12152,"à¸Ļ":12153,"ĠBenjamin":12154,"ĠSingles":12155,"Ġplat":12156,"Ġsten":12157,"Rhin":12158,"Ġamino":12159,"Ġláº»o":12160,"ĠSuá»ĳi":12161,"Thuáº¿":12162,"ĠFriese":12163,"ĠMurray":12164,"Ã¼rttemberg":12165,"ĠMetacritic":12166,"iflorum":12167,"ĠHotspur":12168,"ĠHolt":12169,"ĠBernard":12170,"alty":12171,"ĠHiroshi":12172,"alcanal":12173,"ĠÎ²":12174,"ĠFilms":12175,"esliga":12176,"ĠMessier":12177,"istoloch":12178,"Scopula":12179,"ĠSteinitz":12180,"Syz":12181,"ĠRumani":12182,"ĠElmidae":12183,"ĠLennon":12184,"Ġturbine":12185,"Ġelegans":12186,"ÅŁehir":12187,"ĠJungermanniaceae":12188,"Act":12189,"Bul":12190,"Buá»ķi":12191,"Comp":12192,"DE":12193,"Dor":12194,"Gh":12195,"Ich":12196,"Ká»·":12197,"LT":12198,"Linh":12199,"Low":12200,"MÃ£":12201,"Ober":12202,"Pro":12203,"Papar":12204,"QG":12205,"Quyáº¿t":12206,"Sur":12207,"TO":12208,"Ter":12209,"Tor":12210,"ToÃłn":12211,"Vill":12212,"Xyst":12213,"bá»Ļ":12214,"bor":12215,"báº¯t":12216,"but":12217,"cá»ķ":12218,"fe":12219,"hem":12220,"iers":12221,"kinh":12222,"lit":12223,"mino":12224,"nius":12225,"ráº¥t":12226,"rata":12227,"sang":12228,"táº¡o":12229,"Ãļ":12230,"ÏĦ":12231,"ĠÆ¡i":12232,"Ġ).":12233,"ĠÂ°":12234,"ħu":12235,"Ġváº¥p":12236,"Ġlung":12237,"ĠlÃ¡ch":12238,"ĠthÃ¨m":12239,"Ġháº»m":12240,"Ġtrif":12241,"Ġbicolor":12242,"Ġnovel":12243,"ĠchÃłi":12244,"ĠsáºŃp":12245,"ĠnhÅ©":12246,"Ġdiv":12247,"Ġgáº§m":12248,"ĠTitan":12249,"ĠphÃ¬":12250,"quan":12251,"quáºŃn":12252,"ĠCÃ©":12253,"ĠCÃ¡p":12254,"ĠCáº£m":12255,"ĠCoss":12256,"ĠLov":12257,"ĠLtd":12258,"ĠHáº¯n":12259,"ĠHTV":12260,"ĠrÃ¹a":12261,"chez":12262,"ĠBet":12263,"ĠBess":12264,"erk":12265,"ĠMae":12266,"ĠMÃłn":12267,"ĠMik":12268,"ĠMoon":12269,"ĠSD":12270,"ĠSup":12271,"inki":12272,"inburgh":12273,"ĠThang":12274,"ĠVir":12275,"ĠVent":12276,"ĠKab":12277,"enau":12278,"ĠAV":12279,"ĠTrÃ¢u":12280,"ĠTrip":12281,"album":12282,"ĠDS":12283,"ĠGun":12284,"ĠChuck":12285,"Ġgiá»ħu":12286,"elson":12287,"atz":12288,"atic":12289,"atson":12290,"eok":12291,"eoph":12292,"ĠQueen":12293,"ĠQuÃ©b":12294,"iles":12295,"oland":12296,"Ġ320":12297,"ĠISO":12298,"Ġ1818":12299,"ĠEstr":12300,"ĠEinstein":12301,"ĠFact":12302,"thay":12303,"thia":12304,"ThÆ¡":12305,"real":12306,"Ġ750":12307,"ĠUh":12308,"irt":12309,"Ġ107":12310,"avar":12311,"abwe":12312,"ĠAnimation":12313,"apf":12314,"2023":12315,"ipal":12316,"rax":12317,"kman":12318,"Ġchuá»ĵng":12319,"ograph":12320,"oug":12321,"ylind":12322,"ĠZimb":12323,"ubb":12324,"ĠNghe":12325,"istena":12326,"ibn":12327,"ĠTheod":12328,"gei":12329,"icki":12330,"ĠAsian":12331,"ighiaceae":12332,"ĠBarr":12333,"ĠCalv":12334,"ĠTamer":12335,"ĠchÃ³p":12336,"Ġaff":12337,"skyi":12338,"Ġlanc":12339,"ombasa":12340,"ammu":12341,"Ġjapon":12342,"ĠValencia":12343,"Ð°ÑĢ":12344,"ĠBayes":12345,"ĠMelan":12346,"ĠRuth":12347,"ĠBosnia":12348,"ÄŁÄ±":12349,"ĠFraser":12350,"Ġgluc":12351,"ĠSilva":12352,"viat":12353,"iphon":12354,"å¤ª":12355,"ĠBernstein":12356,"Ġcrass":12357,"ĠFirouzja":12358,"ĠWatan":12359,"ĠBohm":12360,"Ãģo":12361,"Melan":12362,"ĠKnow":12363,"ĠStandard":12364,"Ä±nar":12365,"ĠCreek":12366,"apeake":12367,"ĠWesley":12368,"ĠVatican":12369,"Rolling":12370,"ĠPyotr":12371,"ĠGuadalcanal":12372,"ĠFleutiaux":12373,"ĠDogg":12374,"ĠFiji":12375,"ĠWhitney":12376,"ĠHannah":12377,"ĠSardinia":12378,"ĠAlamos":12379,"minster":12380,"ĠBretagne":12381,"ĠGiovanni":12382,"ĠMalpighiaceae":12383,"Syzygium":12384,"Aleur":12385,"Bor":12386,"BÃ¡nh":12387,"Báº¡n":12388,"Bad":12389,"Better":12390,"BFB":12391,"Cas":12392,"Cá»Ńa":12393,"Est":12394,"Fu":12395,"Hay":12396,"Hiá»ĩu":12397,"Hand":12398,"Hara":12399,"Jose":12400,"LB":12401,"Lob":12402,"Luc":12403,"LÃ£nh":12404,"MT":12405,"Má»ĳi":12406,"OM":12407,"Oz":12408,"One":12409,"Pe":12410,"Roy":12411,"Tai":12412,"XX":12413,"cai":12414,"dido":12415,"kow":12416,"nen":12417,"num":12418,"narkom":12419,"pp":12420,"ril":12421,"time":12422,"yat":12423,"zar":12424,"Â½":12425,"Ã¦":12426,"Î»":12427,"à®":12428,"æķ":12429,"Ġid":12430,"Ġell":12431,"Ġall":12432,"Ġestr":12433,"Ġocc":12434,"Ġcord":12435,"Ġcorn":12436,"Ġcarb":12437,"ĠÄĮ":12438,"Ġláº«y":12439,"Ġhol":12440,"ĠtrÅ©ng":12441,"ĠbÆ¡":12442,"Ġbenz":12443,"Ġbase":12444,"ĠnÃ£":12445,"Ġchrom":12446,"Ġsá»Ļ":12447,"phiÃªn":12448,"Ġgo":12449,"ĠTau":12450,"ĠCÃły":12451,"Ġquáº¥n":12452,"ĠLáº·c":12453,"ĠHell":12454,"ĠHers":12455,"ĠHá»£i":12456,"ĠHá»±u":12457,"Ġruy":12458,"Ġros":12459,"ĠMorn":12460,"ĠMÃ¨o":12461,"ĠMAR":12462,"ĠSqu":12463,"ĠSug":12464,"ĠSilla":12465,"ĠSele":12466,"inavia":12467,"ĠPre":12468,"ĠPec":12469,"ĠThÃ¢m":12470,"ĠKiáº¿m":12471,"ĠAD":12472,"ĠAst":12473,"ĠTrÃ¡ch":12474,"ĠTrÆ°ng":12475,"ĠDw":12476,"ĠDáºŃu":12477,"ĠPhÃ²":12478,"ĠPhÃłn":12479,"ĠPhill":12480,"ĠPhys":12481,"atr":12482,"ĠNgÃł":12483,"olet":12484,"ĠRama":12485,"icÃ´":12486,"osit":12487,"ety":12488,"Ġ1815":12489,"Ġ1821":12490,"ĠFin":12491,"ĠWo":12492,"ĠWith":12493,"leg":12494,"rei":12495,"ager":12496,"odo":12497,"akÄ±r":12498,"Ġ109":12499,"igor":12500,"1966":12501,"ĠAnfield":12502,"Ġ113":12503,"ensky":12504,"Cham":12505,"Chá»©ng":12506,"Ġtá»¥t":12507,"illaria":12508,"ouc":12509,"ouver":12510,"stae":12511,"ĠState":12512,"Ġ1775":12513,"Ġsuper":12514,"utus":12515,"udh":12516,"ÄĳÆ°á»Ŀng":12517,"ĠIncheon":12518,"ophilidae":12519,"ĠNewcastle":12520,"...).":12521,"undus":12522,"ĠQuyÃªn":12523,"ĠBaresi":12524,"erma":12525,"ĠGuardian":12526,"ozia":12527,"ĠMcK":12528,"ĠSmall":12529,"ĠDeep":12530,"ĠHead":12531,"Ġcamera":12532,"ĠvÃµng":12533,"Ġuran":12534,"NET":12535,"Nghá»ģ":12536,"ĠSongs":12537,"ĠDragon":12538,"ÂłÂłÂłÂłÂłÂłÂłÂł":12539,"asparov":12540,"ĠSoul":12541,"å®ī":12542,"ĠBryan":12543,"ĠLegend":12544,"elypteris":12545,"åĲİ":12546,"Ã¡rquez":12547,"ĠPlatia":12548,"ĠVasili":12549,"auhaus":12550,"ĠYokohama":12551,"Ġchloride":12552,"ĠRostislav":12553,"ĠCarragher":12554,"ĠDawn":12555,"Ð¸Ñĩ":12556,"ĠSystem":12557,"Dolich":12558,"ĠTOEIC":12559,"ĠNKVD":12560,"ĠCentral":12561,"ĠWWE":12562,"Ġsteroid":12563,"ĠBundesliga":12564,"ĠElectric":12565,"ĠOctav":12566,"ĠFoundation":12567,"Ġkhuá»·u":12568,"Paparazzi":12569,"Xysticus":12570,"ĠZimbabwe":12571,"))":12572,".âĢĿ":12573,"DT":12574,"Dem":12575,"Dre":12576,"Hz":12577,"HÆ¡n":12578,"HÃ²a":12579,"Hapl":12580,"Live":12581,"Miss":12582,"Mark":12583,"Master":12584,"Port":12585,"SH":12586,"Time":12587,"Vinh":12588,"WA":12589,"World":12590,"bá»ĭ":12591,"bur":12592,"cáº§n":12593,"cole":12594,"dia":12595,"down":12596,"hÃ¡n":12597,"kn":12598,"kar":12599,"lÃºc":12600,"nm":12601,"nell":12602,"ness":12603,"tim":12604,"tun":12605,"zog":12606,"ĠÙ":12607,"Ġë":12608,"Ġtáº¡c":12609,"Ġcáº©u":12610,"ĠÄĳu":12611,"ĠÄĳáº¥m":12612,"Ġváº£":12613,"Ġlac":12614,"ĠthuyÃªn":12615,"Ġhá»ķng":12616,"Ġmáº¯ng":12617,"ĠtrÆ°á»£ng":12618,"ĠtrÄĥn":12619,"Ġtrá»įt":12620,"ĠbÃ¡ng":12621,"Ġne":12622,"Ġchá»ĵi":12623,"ĠkÃ¬m":12624,"Ġsanh":12625,"Ġnhá»Ł":12626,"ĠTÆ°á»Ľc":12627,"Ġngáº¡o":12628,"Ġcá»§i":12629,"ĠCot":12630,"ĠCord":12631,"Ġque":12632,"Ġquá»µ":12633,"Ġquadr":12634,"ĠNÃ´":12635,"ĠNova":12636,"Ġvá»Ĺ":12637,"ĠLáº¥y":12638,"ĠLagos":12639,"ĠHat":12640,"ĠHáº¡c":12641,"ĠHew":12642,"ĠHold":12643,"ĠHwang":12644,"Ġgiáº·t":12645,"Ġrep":12646,"Ġxáº¿":12647,"ĠxÃ³t":12648,"ĠBug":12649,"ĠBagh":12650,"eration":12651,"ĠMT":12652,"ĠMam":12653,"ĠMers":12654,"ĠMore":12655,"ĠÄĲá»ĵn":12656,"ĠSanh":12657,"ĠPale":12658,"ĠThÃ´n":12659,"aib":12660,"ĠKv":12661,"ĠKle":12662,"ĠKáº»":12663,"ĠKarp":12664,"enis":12665,"ĠAar":12666,"aye":12667,"iah":12668,"iadi":12669,"ĠTrá»Ł":12670,"alac":12671,"ĠDao":12672,"ĠDÃ¢y":12673,"ĠDip":12674,"ĠDrop":12675,"ĠDiels":12676,"ĠGai":12677,"ĠGao":12678,"ische":12679,"ĠPha":12680,"atidae":12681,"imo":12682,"imbr":12683,"ĠQuebec":12684,"ĠNhÃ£n":12685,"iler":12686,"ilio":12687,"ĠRw":12688,"acum":12689,"ĠEo":12690,"ĠFuk":12691,"ĠFamily":12692,"ĠJor":12693,"ĠJÃ©r":12694,"adysÅĤaw":12695,"ĠWak":12696,"Thá»§y":12697,"lea":12698,"lect":12699,"ĠXL":12700,"ĠXbox":12701,"unj":12702,"ĠKhanh":12703,"ĠKhÃ¡i":12704,"ĠKhoan":12705,"oderus":12706,"ĠOed":12707,"irit":12708,"ocn":12709,"oviÄĩ":12710,"ingo":12711,"Ġpan":12712,"Ġpus":12713,"Ġpyr":12714,"ampus":12715,"1941":12716,"ellistena":12717,"Ġ117":12718,"tec":12719,"iventris":12720,"PhÃ³":12721,"PhÃº":12722,"ental":12723,"stal":12724,"ĠAlert":12725,"uts":12726,"utsch":12727,"rant":12728,"ambus":12729,"ÄĳÃ¡nh":12730,"ĠSharp":12731,"ugami":12732,"soni":12733,"ĠTheodor":12734,"Ġtá»ıi":12735,"ezh":12736,"ĠAsc":12737,"lora":12738,"Ã¶s":12739,"Ã¶sterreich":12740,"ĠBlock":12741,"ĠBlume":12742,"Anis":12743,"lave":12744,"ĠSciences":12745,"ĠCalder":12746,"ĠSpe":12747,"Ġghen":12748,"ĠHouston":12749,"ĠMadison":12750,"leyi":12751,"incta":12752,"ÅĤach":12753,"ĠEdinburgh":12754,"ajang":12755,"ĠPerry":12756,"ĠDiy":12757,"ĠAbe":12758,"ĠDavies":12759,"ciÃ³n":12760,"ĠCameron":12761,"ĠBurke":12762,"cke":12763,"ĠItaly":12764,"Ġmá»ım":12765,"ushima":12766,"Clark":12767,"ĠEngland":12768,"ĠAires":12769,"Ġcoumarin":12770,"ĠGhor":12771,"ÐµÑĢ":12772,"ĠFlorence":12773,"ĠSá»Ńu":12774,"oglobin":12775,"ĠMetro":12776,"ĠKingston":12777,"ĠAkira":12778,"atrix":12779,"ĠBernab":12780,"ĠCatalan":12781,"ilding":12782,"ĠStanford":12783,"ĠSenior":12784,"ĠBritton":12785,"Ġbarangay":12786,"ĠMoldenke":12787,"ĠEndom":12788,"ĠKunth":12789,"ĠJacoby":12790,"ĠâĢĺâĢĻ":12791,"Ġfulv":12792,"ĠBleu":12793,"David":12794,"ĠThorell":12795,"ĠLinnaeus":12796,"ĠLancaster":12797,"ĠRovers":12798,"ĠChesapeake":12799,"ĠTelegram":12800,"ĠSabbath":12801,"ĠBerkeley":12802,"ĠQuÃ©bec":12803,"Aul":12804,"Bel":12805,"BÃ£o":12806,"CÄĥn":12807,"CÃºp":12808,"Dá»¯":12809,"Gáº§n":12810,"HÆ°á»Ľng":12811,"Hymen":12812,"HMS":12813,"Mat":12814,"Med":12815,"NÃ´ng":12816,"Nes":12817,"Ra":12818,"Reg":12819,"Vi":12820,"bell":12821,"dez":12822,"gado":12823,"iors":12824,"lang":12825,"log":12826,"mÃłu":12827,"nos":12828,"wen":12829,"ÃĶ":12830,"Ãĸ":12831,"Åı":12832,"æ´":12833,"Ġá»§":12834,"ĠÆ°á»Ľp":12835,"Ġcover":12836,"Ġcellulose":12837,"Ġvel":12838,"ĠvÃ£n":12839,"Ġhum":12840,"Ġmao":12841,"Ġmart":12842,"ĠtrÃ³i":12843,"Ġbus":12844,"Ġcháº§u":12845,"ĠcháºŃt":12846,"ĠsÃ²ng":12847,"Ġdep":12848,"phim":12849,"ĠTay":12850,"ĠTÃ¡nh":12851,"ĠTect":12852,"ĠphÃ´i":12853,"quil":12854,"ĠCoa":12855,"ĠCum":12856,"ĠCá»ĵn":12857,"ĠCyr":12858,"ĠComb":12859,"ĠCBS":12860,"Ġquai":12861,"ĠLÃłnh":12862,"ĠLÃłn":12863,"ĠHÃ¨":12864,"ĠrÃ¢m":12865,"ĠBey":12866,"ĠBada":12867,"ĠMP":12868,"ĠMnet":12869,"ĠÄĲáº¥u":12870,"ĠSis":12871,"ĠSap":12872,"ĠSob":12873,"ĠSuez":12874,"ĠSahara":12875,"onen":12876,"oah":12877,"inium":12878,"ares":12879,"arct":12880,"ĠPri":12881,"ĠPutin":12882,"ĠKm":12883,"ĠKai":12884,"ĠTrav":12885,"ĠTrib":12886,"alb":12887,"alon":12888,"ĠDio":12889,"orov":12890,"ĠGan":12891,"ĠGLA":12892,"ĠGleb":12893,"aev":12894,"ĠPháº£i":12895,"ating":12896,"eos":12897,"ĠÃĵ":12898,"Ã©v":12899,"ĠRoth":12900,"Ġ316":12901,"itius":12902,"uran":12903,"etown":12904,"ĠIS":12905,"emus":12906,"acaceae":12907,"ĠEri":12908,"ĠFord":12909,"ĠFBI":12910,"Ġ5000":12911,"ĠWarm":12912,"ĠXá»Ń":12913,"andis":12914,"ularia":12915,"ulatum":12916,"otal":12917,"otsk":12918,"Ġyáº¿n":12919,"ÄĲÃ´i":12920,"ĠUFC":12921,"triá»ĩu":12922,"ocol":12923,"ĠYong":12924,"ĠGian":12925,"abh":12926,"abal":12927,"abria":12928,"1965":12929,"1978":12930,"nez":12931,"Ġ118":12932,"Chaet":12933,"Cheil":12934,"raf":12935,"obry":12936,"oux":12937,"ikov":12938,"ĠÃģp":12939,"ĠMarcus":12940,"ĠStÅĻ":12941,"ĠBruce":12942,"Ġ144":12943,"Äĳa":12944,"ries":12945,"estolone":12946,"iza":12947,"ession":12948,"ĠProt":12949,"Ã¼z":12950,"atham":12951,"ekk":12952,"Ġthoáº£":12953,"ĠHyun":12954,"Ann":12955,"ĠManche":12956,"ĠScarlett":12957,"ĠReitter":12958,"aulis":12959,"Stand":12960,"ĠAndy":12961,"opsidae":12962,"inck":12963,"Presl":12964,"ternational":12965,"ielsen":12966,"ashtra":12967,"ĠOliver":12968,"ombu":12969,"ĠMcG":12970,"ĠMcCarthy":12971,"ĠHercegovina":12972,"ygd":12973,"ĠSeiga":12974,"ĠBali":12975,"ĠHeidelberg":12976,"giáº£i":12977,"Ġ1804":12978,"byekt":12979,"Calyp":12980,"ytes":12981,"zheval":12982,"ancouver":12983,"ĠIndustr":12984,"anyang":12985,"ĠMinas":12986,"ĠSilesia":12987,"rown":12988,"iaslav":12989,"ĠArms":12990,"ĠProject":12991,"ĠRosberg":12992,"Polyg":12993,"Polypodium":12994,"ĠFirmino":12995,"ĠHills":12996,"blysteg":12997,"Real":12998,"ĠTerrier":12999,"ĠlÃŃu":13000,"ĠUpdate":13001,"ĠMandya":13002,"Ġkáº½m":13003,"ĠBusiness":13004,"ðŁį":13005,"Ġteaser":13006,"ĠLazio":13007,"ĠGuyana":13008,"ĠHokkaidÅį":13009,"ĠVilnius":13010,"Ġstudio":13011,"otamidae":13012,"ĠMonster":13013,"Ġpurpur":13014,"ÅĤachowicz":13015,"ĠTectariaceae":13016,"250":13017,"AA":13018,"Ai":13019,"BO":13020,"Bao":13021,"Dis":13022,"Get":13023,"Mag":13024,"Nov":13025,"Nap":13026,"OT":13027,"Pat":13028,"SÆ¡":13029,"Ster":13030,"VE":13031,"YP":13032,"ahi":13033,"bÃªn":13034,"fu":13035,"hood":13036,"hole":13037,"joz":13038,"low":13039,"last":13040,"pel":13041,"ped":13042,"rian":13043,"vÃ´":13044,"à¥":13045,"å§":13046,"åŁ":13047,"æ¥":13048,"æĽ":13049,"çķ":13050,"è¡":13051,"ìĿ":13052,"ĠÃł":13053,"Ġag":13054,"Ġzh":13055,"Ġtá»ĭnh":13056,"Ġcáº¡p":13057,"Ġcost":13058,"ĠlÃ©p":13059,"Ġhá»§":13060,"Ġhá»Ļt":13061,"ĠhÃ©t":13062,"Ġbarb":13063,"Ġnáº¿n":13064,"Ġná»Ľi":13065,"ĠchÄĥng":13066,"ĠkÃ¨n":13067,"Ġsáº£i":13068,"Ġslave":13069,"Ġdiá»ģu":13070,"Ġdich":13071,"ĠdÃ©p":13072,"Ġdist":13073,"phe":13074,"ĠTord":13075,"ĠTeodor":13076,"Ġngáº£":13077,"ĠngáºŃm":13078,"ĠphÃ¡ch":13079,"quis":13080,"ĠCath":13081,"ĠNy":13082,"ĠNas":13083,"ĠNem":13084,"ĠHanh":13085,"ĠHos":13086,"ĠHancock":13087,"ĠxÃª":13088,"ĠxiÃªm":13089,"ĠBass":13090,"ĠBaill":13091,"ĠBots":13092,"ĠMÅ©i":13093,"ĠMAC":13094,"Ġ210":13095,"ĠÄĲá»ķi":13096,"ĠÄĲÃ¡m":13097,"ĠSimp":13098,"iny":13099,"arashtra":13100,"ĠPeg":13101,"ĠVienna":13102,"ĠKasparov":13103,"ĠchoÃ¡n":13104,"ĠAI":13105,"ĠTrÃ¢m":13106,"ĠDá»©a":13107,"ĠPhÃ´":13108,"ĠPháº¥n":13109,"ĠQuá»³":13110,"ĠNhá»¯":13111,"etis":13112,"oms":13113,"ĠIan":13114,"emek":13115,"aci":13116,"Ġ430":13117,"ĠJas":13118,"ĠJÃ¤":13119,"ĠJakarta":13120,"ades":13121,"tham":13122,"ĠWel":13123,"opis":13124,"ĠXi":13125,"ĠXem":13126,"ĠKhiÃªm":13127,"irÅį":13128,"Ġped":13129,"Ġpers":13130,"ĠGiáº£ng":13131,"ampo":13132,"1950":13133,"illon":13134,"obar":13135,"ineering":13136,"Phan":13137,"ikaze":13138,"Ġ1787":13139,"ĠAlgar":13140,"ĠAlonso":13141,"beria":13142,"toni":13143,"ĠZim":13144,"Ġinugami":13145,"Ġlá»£p":13146,"izu":13147,"ĠPros":13148,"Khoa":13149,"oxa":13150,"ĠSerg":13151,"ostis":13152,"ĠCarp":13153,"ĠScience":13154,"Ġghá»ģ":13155,"tsen":13156,"annon":13157,"Ġandrogen":13158,"ĠEdmund":13159,"young":13160,"ĠKrem":13161,"ĠOstr":13162,"à¸²":13163,"intosh":13164,"ĠGreene":13165,"ĠMoselle":13166,"ĠHeath":13167,"Acid":13168,"Ġ1805":13169,"ĠBurn":13170,"ĠGarena":13171,"Thuá»ĳc":13172,"ĠGenova":13173,"ĠGerais":13174,"Ġ1792":13175,"ĠPoir":13176,"ĠHolocaust":13177,"ĠSummer":13178,"ĠAPEC":13179,"Ġnigric":13180,"ĠTelev":13181,"ĠLorenzo":13182,"aiting":13183,"ĠSatoshi":13184,"ĠJamie":13185,"edoÄįeskÃ½":13186,"ĠSecond":13187,"ĠJonathan":13188,"ĠCá»©u":13189,"æĿİ":13190,"ĠKharkiv":13191,"Tuáº§n":13192,"Ġballad":13193,"eograd":13194,"ĠSovnarkom":13195,"ĠVicente":13196,"ĠRidl":13197,"Louis":13198,"ĠRÃ©union":13199,"ĠPhilopotamidae":13200,"Ġáº¨n":13201,"ytheciaceae":13202,"ĠWÅĤadysÅĤaw":13203,"ĠTamerlan":13204,"ĠWatanabe":13205,"iadiÃ¨re":13206,"ĠRwanda":13207,"ĠBadajoz":13208,"\"ãĢį":13209,"--":13210,"110":13211,"BR":13212,"Cá»¥":13213,"Centr":13214,"Cephal":13215,"Din":13216,"Dip":13217,"Ery":13218,"Fest":13219,"Hang":13220,"Hom":13221,"Haw":13222,"Hessen":13223,"Jones":13224,"Lac":13225,"Lup":13226,"Lib":13227,"Lith":13228,"MC":13229,"Mang":13230,"Mill":13231,"Marg":13232,"Ped":13233,"Sá»Ł":13234,"SÃ³ng":13235,"Syr":13236,"UP":13237,"ViÃªn":13238,"Vol":13239,"Vict":13240,"Xyl":13241,"cÆ¡":13242,"cop":13243,"cod":13244,"ead":13245,"ful":13246,"gart":13247,"hot":13248,"jung":13249,"liÃªn":13250,"ná»¯":13251,"pu":13252,"pol":13253,"èĻ":13254,"Ġil":13255,"Ġit":13256,"Ġom":13257,"Ġamp":13258,"Ġtetr":13259,"ĠÄĳÅ©a":13260,"ĠvÃ¡":13261,"Ġthen":13262,"Ġmes":13263,"Ġmil":13264,"Ġmag":13265,"ĠtrÃ¨o":13266,"Ġbull":13267,"ĠchÃ©t":13268,"Ġchrys":13269,"Ġsá»¥c":13270,"Ġnhung":13271,"Ġdáº·n":13272,"phia":13273,"ĠTÃ¡":13274,"Ġphá»ĵng":13275,"anahalli":13276,"ÃŃg":13277,"ĠLak":13278,"ĠLyn":13279,"ĠLars":13280,"ĠHus":13281,"ĠHÆ°u":13282,"ĠHaj":13283,"ĠHels":13284,"ĠHudson":13285,"ĠHmÃ´ng":13286,"Ġram":13287,"Ġren":13288,"ĠrÆ¡m":13289,"chev":13290,"Ġxanth":13291,"ĠBÆ°á»Ľm":13292,"ĠBauhaus":13293,"ĠBeograd":13294,"ĠMes":13295,"ĠMá»ĩnh":13296,"ĠMetr":13297,"ĠMaul":13298,"ĠMits":13299,"ĠMueang":13300,"ĠMÃ¡rquez":13301,"ĠSoy":13302,"ĠSull":13303,"ĠSaf":13304,"ĠSoo":13305,"Ġ\"\",":13306,"inth":13307,"inalis":13308,"aren":13309,"ĠThuyá»ģn":13310,"ĠThera":13311,"ĠVas":13312,"ĠVá»£":13313,"ĠKw":13314,"ĠKag":13315,"enius":13316,"ayama":13317,"ayashi":13318,"ĠTrá»«":13319,"ĠDh":13320,"ĠDÃŃ":13321,"ĠDoc":13322,"ĠGau":13323,"ĠGus":13324,"ĠGhi":13325,"iden":13326,"idas":13327,"ĠChao":13328,"ĠChit":13329,"ĠPhoen":13330,"elon":13331,"elii":13332,"ĠNgá»Ļ":13333,"Quay":13334,"imate":13335,"ĠNhiáº¿p":13336,"ĠRÃ©g":13337,"icans":13338,"asma":13339,"itÃ£o":13340,"oming":13341,"ĠIgn":13342,"emann":13343,"Ġ1814":13344,"ĠFire":13345,"Ġ550":13346,"adh":13347,"thÃ´ng":13348,"thá»©":13349,"áº½n":13350,"Thelypteris":13351,"recht":13352,"ÄĲÃ£":13353,"odi":13354,"ovsk":13355,"Ġpart":13356,"Ġ124":13357,"Ġ126":13358,"abra":13359,"1977":13360,"ellan":13361,"ellaceae":13362,"ChÃ¢n":13363,"Ġflu":13364,"entino":13365,"iku":13366,"utth":13367,"utta":13368,"ĠZam":13369,"achne":13370,"ÄĳÃª":13371,"epam":13372,"Ġmuá»Ĺi":13373,"ebo":13374,"yroll":13375,"asser":13376,"ystach":13377,"khotep":13378,"athidae":13379,"isse":13380,"ostemon":13381,"ether":13382,"ĠManus":13383,"ĠClay":13384,"Storm":13385,"ittata":13386,"ldog":13387,"ĠOsman":13388,"lient":13389,"ĠMorgan":13390,"ignano":13391,"iÄį":13392,"ĠSamsun":13393,"ĠGould":13394,"kyÅį":13395,"ĠVeneto":13396,"oshima":13397,"ĠLouise":13398,"Ð¸Ð½":13399,"Ġhydroc":13400,"ĠPanzer":13401,"ĠMinsk":13402,"ä¸ī":13403,"ÅĦsk":13404,"ĠAcid":13405,"ĠCDK":13406,"ĠâĨĴ":13407,"Ġclass":13408,"ĠPtinidae":13409,"ĠLinda":13410,"Ġpolymer":13411,"Ġbrun":13412,"Santa":13413,"ĠSharon":13414,"ĠGabon":13415,"ĠLegalov":13416,"ought":13417,"agnep":13418,"rahim":13419,"ĠÃĩorum":13420,"ĠSakura":13421,"chnaceae":13422,"ĠGothic":13423,"odontidae":13424,"obekhotep":13425,"szat":13426,"ĠÂ±":13427,"ĠCherny":13428,"ushiro":13429,"ĠAnthony":13430,"olophia":13431,"ĠCavani":13432,"ĠAlfred":13433,"ĠWrest":13434,"ĠBorisovich":13435,"ĠConstantinopolis":13436,"ĠPrinceton":13437,"ĠCardot":13438,"Dicranomyia":13439,"ĠMachine":13440,"æ°ı":13441,"ĠDumas":13442,"unchyroll":13443,"agliari":13444,"Clubiona":13445,"ĠValentine":13446,"ĠBrachytheciaceae":13447,"ĠUzbekistan":13448,"Elaphoglossum":13449,"ĠBaghdad":13450,"ĠEndomychidae":13451,"ĠStÅĻedoÄįeskÃ½":13452,"zhevalsky":13453,"ĠBotswana":13454,"\"-":13455,"350":13456,"Ach":13457,"Atr":13458,"Att":13459,"Belle":13460,"Broth":13461,"Cáº¥p":13462,"Cent":13463,"DM":13464,"Das":13465,"GE":13466,"HA":13467,"HÃłng":13468,"Just":13469,"LÃ¡":13470,"Lai":13471,"Moloph":13472,"Net":13473,"Ram":13474,"Sk":13475,"Sai":13476,"Sat":13477,"TP":13478,"bh":13479,"din":13480,"dou":13481,"gs":13482,"hard":13483,"hampton":13484,"jor":13485,"ká»ĥ":13486,"more":13487,"nis":13488,"right":13489,"sson":13490,"town":13491,"yrium":13492,"zu":13493,"Ïĥ":13494,"å£":13495,"èĪ":13496,"Ġoc":13497,"Ġãĥ":13498,"Ġarm":13499,"Ł³":13500,"Ġcel":13501,"Ġcall":13502,"ĠcÃ²i":13503,"nhÅ©":13504,"Ġval":13505,"Ġvill":13506,"Ġthat":13507,"ĠthÃ³c":13508,"ĠhÃŃt":13509,"Ġbil":13510,"Ġnáº¥p":13511,"ĠnÃªm":13512,"ĠsÃª":13513,"Ġsap":13514,"Ġdemo":13515,"ĠTia":13516,"Ġngá»Ĺng":13517,"ante":13518,"ĠCau":13519,"ĠCá»ķng":13520,"ĠCart":13521,"ĠCagliari":13522,"ĠLl":13523,"ĠLine":13524,"ĠLiber":13525,"ĠHÃºc":13526,"ĠHou":13527,"ĠHÃ£y":13528,"chia":13529,"ĠxÃ³i":13530,"ĠBai":13531,"ĠBij":13532,"ĠBÅĤachowicz":13533,"eros":13534,"ĠMello":13535,"ĠMombasa":13536,"ĠÄĲam":13537,"ĠÄĲÃºng":13538,"ĠSib":13539,"onit":13540,"onta":13541,"amphoe":13542,"Ġ(+":13543,"Ġ(??":13544,"Ġ\"\".":13545,"ĠPab":13546,"ĠPsk":13547,"ĠPont":13548,"ĠPanth":13549,"ĠThá»Ń":13550,"ĠTháº¥y":13551,"ĠVancouver":13552,"ĠABC":13553,"ayn":13554,"ĠTráº£i":13555,"ĠTráº¯c":13556,"alam":13557,"ĠDnie":13558,"ĠDixon":13559,"oric":13560,"ĠGand":13561,"ĠChild":13562,"isca":13563,"esta":13564,"esper":13565,"imer":13566,"Ġlá»Ŀ":13567,"iland":13568,"ilian":13569,"ĠRaph":13570,"aste":13571,"itos":13572,"uric":13573,"etsu":13574,"ĠIk":13575,"ĠEh":13576,"ĠEle":13577,"ĠEul":13578,"ĠElectron":13579,"ĠFinn":13580,"ĠField":13581,"thá»§":13582,"thon":13583,"Thá»ķ":13584,"ThÃ¡nh":13585,"ĠOver":13586,"Ġtuá»³":13587,"Ġpub":13588,"Ġplan":13589,"ĠYoo":13590,"ĠGiÃł":13591,"aves":13592,"1939":13593,"1981":13594,"1982":13595,"neph":13596,"ĠAnat":13597,"Christ":13598,"Ġtá»¥y":13599,"Ġfus":13600,"ents":13601,"ĠbuÃ´ng":13602,"ĠStu":13603,"Ġ175":13604,"achal":13605,"Äĳá»Ŀi":13606,"azur":13607,"ĠShan":13608,"ĠShindong":13609,"yris":13610,"Ġann":13611,"ĠGrace":13612,"astic":13613,"kha":13614,"Ã¼m":13615,"ollar":13616,"ĠSchr":13617,"ighton":13618,"ĠSerena":13619,"Ġ260":13620,"ĠFranc":13621,"ĠHaiti":13622,"ĠIsa":13623,"ĠchÃ³t":13624,"arbakÄ±r":13625,"ĠErz":13626,"ĠMacintosh":13627,"ĠBaly":13628,"Brit":13629,"Ġ1808":13630,"ĠHamlet":13631,"ramma":13632,"Ġshell":13633,"ÄŁr":13634,"appa":13635,"Giá»Ŀ":13636,"ĠWeise":13637,"ĠMaharashtra":13638,"ĠLouisiana":13639,"unculus":13640,"ĠnoÃ£n":13641,"ĠAllister":13642,"ĠMetz":13643,"Cous":13644,"ĠAzov":13645,"ostach":13646,"ĠKaneda":13647,"BTR":13648,"ĠWarwick":13649,"ĠAlberto":13650,"ĠSelim":13651,"ĠWoodville":13652,"Ġngoáº¡n":13653,"TTg":13654,"ĠCairo":13655,"ĠRyu":13656,"ĠÆ¯u":13657,"ĠFernand":13658,"åįĹ":13659,"ĠMauritius":13660,"ĠWright":13661,"ĠSomalia":13662,"ĠPyong":13663,"Eleven":13664,"ĠLigue":13665,"ĠIziaslav":13666,"ĠGMM":13667,"ĠFuji":13668,"ĠGrenville":13669,"Eugenia":13670,"Peterburg":13671,"ĠBaldwin":13672,"ĠDigital":13673,"Charles":13674,"Ġaustralis":13675,"ĠStafford":13676,"ĠStraits":13677,"ĠSchwarz":13678,"ĠMarseille":13679,"ĠMatthew":13680,"ĠTheraphosidae":13681,"Molophilus":13682,"!\",":13683,"Aug":13684,"Alt":13685,"Bac":13686,"CE":13687,"Fe":13688,"Harp":13689,"Kn":13690,"Lat":13691,"Lenin":13692,"Nik":13693,"Ot":13694,"Pop":13695,"Pand":13696,"Part":13697,"Ru":13698,"Táº¥n":13699,"VÃ¢n":13700,"Watson":13701,"Waiting":13702,"XÃ©t":13703,"__":13704,"day":13705,"dev":13706,"hra":13707,"king":13708,"láº§n":13709,"muban":13710,"oÅ¡":13711,"px":13712,"pyros":13713,"rum":13714,"rate":13715,"sor":13716,"sey":13717,"tam":13718,"tube":13719,"vus":13720,"ËĪ":13721,"Ùİ":13722,"á¸":13723,"æĢ":13724,"çĽ":13725,"ĠÃªm":13726,"Ġoanh":13727,"Ġtom":13728,"ĠÄĳÃ²":13729,"ĠÄĳá»ĳn":13730,"nháº¡c":13731,"nhagen":13732,"Ġváº¥t":13733,"ĠlÆ¡":13734,"Ġliá»ģm":13735,"ĠlÃ©n":13736,"Ġthoa":13737,"Ġtháº¯p":13738,"Ġhen":13739,"ĠhÃ¨n":13740,"ĠmÃły":13741,"ĠmáºŃu":13742,"ĠmÃ©o":13743,"Ġtru":13744,"Ġbas":13745,"ĠnÃ¡o":13746,"Ġchar":13747,"Ġsá»ī":13748,"Ġsul":13749,"Ġnham":13750,"Ã¢te":13751,"Ġdáº¡t":13752,"phal":13753,"ĠgÃ£":13754,"ĠType":13755,"ĠCit":13756,"ĠCun":13757,"ĠNaz":13758,"Ġvá»©":13759,"ĠHoff":13760,"Ġrup":13761,"chÃ¢u":13762,"ĠBun":13763,"ĠBÃ¬m":13764,"ĠBarl":13765,"ĠBatt":13766,"ĠBapt":13767,"ĠBattle":13768,"erre":13769,"ĠMall":13770,"ĠMÃ¹i":13771,"ĠÄĲT":13772,"ĠÄĲao":13773,"ĠÄĲáº³ng":13774,"ĠSy":13775,"ĠSag":13776,"ĠSeiji":13777,"ĠSobekhotep":13778,"inatus":13779,"Ãºn":13780,"ĠPV":13781,"ĠTháºŃn":13782,"ĠThess":13783,"ĠVang":13784,"ĠVary":13785,"ĠKH":13786,"ĠKind":13787,"ĠKÃ¼":13788,"ĠKama":13789,"ĠKoster":13790,"ĠAN":13791,"ĠDÃ£":13792,"ĠDÃłn":13793,"ĠGry":13794,"ĠGeller":13795,"ĠGNU":13796,"ĠChÃ¹m":13797,"ĠPháº¿":13798,"atur":13799,"ĠNháº±m":13800,"ĠNháºŃm":13801,"olon":13802,"ĠRá»ĵi":13803,"ĠRah":13804,"ĠRukia":13805,"icea":13806,"Ġhoáº£":13807,"asus":13808,"Ġ330":13809,"osteg":13810,"itia":13811,"etic":13812,"eting":13813,"omis":13814,"ĠIberia":13815,"emor":13816,"ember":13817,"ĠEb":13818,"ĠEt":13819,"ĠEure":13820,"ĠJÃ³":13821,"aden":13822,"ĠWah":13823,"ĠWander":13824,"ĠdoÃ£n":13825,"opod":13826,"reis":13827,"ĠOak":13828,"ĠOerl":13829,"ĠUTC":13830,"irst":13831,"tran":13832,"Ġluá»Ļc":13833,"TrÃ¡i":13834,"Ġ103":13835,"inga":13836,"Ġprog":13837,"Ġ122":13838,"Ġ1200":13839,"1940":13840,"1972":13841,"1955":13842,"1979":13843,"apat":13844,"Chen":13845,"iej":13846,"tex":13847,"Ġfur":13848,"iance":13849,"ĠAlpha":13850,"ĠAlpes":13851,"ĠArena":13852,"Ġ152":13853,"\");":13854,"á»Ľm":13855,"acht":13856,"achia":13857,"ĠBrat":13858,"ubo":13859,"ÄĳrÃ´":13860,"azaki":13861,"ĠIntel":13862,"ists":13863,"ukos":13864,"ĠMÃ£o":13865,"ĠPrim":13866,"Ã¼ck":13867,"Ġ240":13868,"ĠParad":13869,"ĠParsons":13870,"ehal":13871,"ochilus":13872,"ĠAsteraceae":13873,"ĠSanÃ©":13874,"Ã¶m":13875,"brik":13876,"Ġuáº¥t":13877,"sei":13878,"ĠBarney":13879,"ethocaine":13880,"ĠClinton":13881,"ondor":13882,"ĠFranch":13883,"ttum":13884,"Ard":13885,"Ġgháº»":13886,"annah":13887,"Ġnhá»Ľt":13888,"ĠAdv":13889,"à¸´":13890,"hoe":13891,"ĠSeung":13892,"ĠSeattle":13893,"ĠTuá»ĩ":13894,"ignon":13895,"ĠBened":13896,"ĠÅ»":13897,"ĠBelov":13898,"omanes":13899,"ĠEmbrik":13900,"Ġstream":13901,"eptide":13902,"Rhynch":13903,"ĠWestminster":13904,"Schiz":13905,"ĠYoutube":13906,"ĠAiry":13907,"ĠVenice":13908,"ĠMonten":13909,"appen":13910,"ĠGalaxy":13911,"ĠAntioch":13912,"ĠxoÃ¡":13913,"ĠJulia":13914,"therhood":13915,"ĠMeteor":13916,"sault":13917,"ĠTVB":13918,"orizon":13919,"kovÃ¡":13920,"ĠNaruto":13921,"Å¾ek":13922,"ocephala":13923,"ĠCharente":13924,"Mahan":13925,"chtenstein":13926,"ĠMozart":13927,"ðŁĴ":13928,"ĠNSF":13929,"ĠLeptodactylidae":13930,"ĠClarkson":13931,"ospermum":13932,"Hydr":13933,"building":13934,"ĠSaxon":13935,"ĠGarden":13936,"HÄĲND":13937,"ĠMohammed":13938,"ophonotus":13939,"Turner":13940,"agalur":13941,"ordeaux":13942,"ĠBiaÅĤ":13943,"Mordellistena":13944,"ĠPublic":13945,"ĠMatsum":13946,"Ġdopamine":13947,"Diospyros":13948,"enshevik":13949,"ĠInstitute":13950,"ĠStanisÅĤaw":13951,"Salmon":13952,"ĠMehmed":13953,"Neolophonotus":13954,"ĠBamboo":13955,"ĠMitchell":13956,"ĠJorge":13957,"ĠDiyarbakÄ±r":13958,"ÃŃguez":13959,"Cousinia":13960,"ĠWanderers":13961,"ĠOerlikon":13962,"-\"":13963,"Ben":13964,"Bis":13965,"Bern":13966,"DÃ£y":13967,"Ec":13968,"Eu":13969,"Ficus":13970,"Hex":13971,"Hend":13972,"Isch":13973,"Jo":13974,"LG":13975,"Los":13976,"Lox":13977,"MR":13978,"Miá»ģn":13979,"Ná»ģn":13980,"National":13981,"Om":13982,"Oph":13983,"Rem":13984,"Sing":13985,"Sax":13986,"Tá»Ľi":13987,"Tunes":13988,"Zero":13989,"baz":13990,"gun":13991,"gie":13992,"gow":13993,"hl":13994,"hop":13995,"ls":13996,"lao":13997,"less":13998,"lÃ¨s":13999,"nÃ³":14000,"nov":14001,"táº¥t":14002,"táºŃp":14003,"xa":14004,"zia":14005,"Ø±":14006,"áł":14007,"æī":14008,"æŀ":14009,"ç´":14010,"Ġáº£i":14011,"Ġapp":14012,"įng":14013,"Ġváº¿":14014,"ĠliÃªm":14015,"Ġlá»ĳp":14016,"Ġhem":14017,"ĠhÃ²ng":14018,"ĠmÃ¢m":14019,"ĠmÃºi":14020,"ĠchÆ°á»Łng":14021,"ĠchiÃªng":14022,"Ġsl":14023,"Ã³s":14024,"ĠdÃ¬":14025,"Ġdisco":14026,"phÃºt":14027,"Ġgal":14028,"ĠTas":14029,"ĠTáº¡o":14030,"ĠTetragn":14031,"anic":14032,"qui":14033,"quá»ĳc":14034,"ĠCz":14035,"ĠCry":14036,"ĠCyrus":14037,"ĠNao":14038,"ĠNile":14039,"ĠLom":14040,"ĠLag":14041,"ĠHum":14042,"ĠHod":14043,"ĠgiÃ²n":14044,"Ġres":14045,"ĠxiÃªn":14046,"ĠBomb":14047,"ĠByron":14048,"ĠMW":14049,"ĠMÃ¡t":14050,"ĠMenshevik":14051,"ĠSter":14052,"ĠSá»¹":14053,"ĠSAR":14054,"amar":14055,"amed":14056,"Ġthá»«ng":14057,"ĠPax":14058,"ĠThebes":14059,"ĠViz":14060,"ĠVys":14061,"ĠKang":14062,"ĠAis":14063,"ĠAustin":14064,"alea":14065,"ĠGekk":14066,"idon":14067,"idius":14068,"ĠChá»Ń":14069,"ĠChun":14070,"ĠChiba":14071,"ĠPhe":14072,"ĠPhÃŃ":14073,"ĠPhÃ¬":14074,"eling":14075,"elma":14076,"eoc":14077,"ĠNgá»į":14078,"ĠQuáº¯n":14079,"ĠRur":14080,"ĠRend":14081,"ĠRural":14082,"icalis":14083,"asm":14084,"urs":14085,"etan":14086,"omic":14087,"Ġxuá»ĵng":14088,"Ġ1816":14089,"ĠFiss":14090,"ĠFish":14091,"hiza":14092,"adio":14093,"thiÃªn":14094,"ĠWomen":14095,"ĠWHO":14096,"ĠWeimar":14097,"akan":14098,"ĠUeda":14099,"oce":14100,"oven":14101,"1963":14102,"1973":14103,"ief":14104,"ipzig":14105,"obu":14106,"ivil":14107,"okawa":14108,"ĠAlm":14109,"utell":14110,"Ġ155":14111,"allia":14112,"alletti":14113,"ache":14114,"ĠBruss":14115,"Äĳá»ĭnh":14116,"awara":14117,"ĠSham":14118,"ĠInv":14119,"Ġint":14120,"isto":14121,"ohen":14122,"mania":14123,"assidae":14124,"ortal":14125,"ĠElgar":14126,"ypt":14127,"Ġwe":14128,"Ġ225":14129,"arnais":14130,"ĠAsahara":14131,"oyono":14132,"Ġ280":14133,"ĠManisa":14134,"ĠMancha":14135,"ĠClar":14136,"ĠCarey":14137,"ĠghÃª":14138,"ĠKhuÃ´ng":14139,"ĠRech":14140,"ĠAndhra":14141,"ĠSteam":14142,"ĠStewart":14143,"isha":14144,"ĠPolyg":14145,"ĠPolotsk":14146,"LeitÃ£o":14147,"ĠSmol":14148,"ĠNeu":14149,"enze":14150,"arpa":14151,"ĠDeath":14152,"ticulidae":14153,"ihon":14154,"International":14155,"ÅŁa":14156,"yphl":14157,"ĠEmilia":14158,"ckÃ½":14159,"Äģn":14160,"eptor":14161,"Ð°Ð»":14162,"entry":14163,"Scot":14164,"Ġoxi":14165,"Ð¾ÑĢ":14166,"Ġhuá»³nh":14167,"ĠBosch":14168,"ATA":14169,"flu":14170,"ĠMiq":14171,"1951":14172,"Ġ1794":14173,"Erica":14174,"ĠâĤ¬":14175,"ĠCasablanca":14176,"ĠZhang":14177,"å¤©":14178,"Ð¾Ð»":14179,"ĠSait":14180,"head":14181,"iewicz":14182,"Ġderby":14183,"islava":14184,"ĠDevlet":14185,"unctata":14186,"Ä±rÄ±":14187,"ĠBudjak":14188,"ĠÎ±":14189,"Ġfrig":14190,"ismund":14191,"ference":14192,"urbitaceae":14193,"ĠNepticulidae":14194,"ĠÂ£":14195,"ĠhiÄĳrÃ´":14196,"ĠÃįch":14197,"ĠKraenzl":14198,"omething":14199,"ĠJefferson":14200,"ĠRonaldo":14201,"Ġlá»ģu":14202,"ĠAndrÃ©":14203,"ĠBrooklyn":14204,"ĠConstantinople":14205,"ĠFourier":14206,"Desm":14207,"ĠHughes":14208,"ocaulaceae":14209,"ĠRetina":14210,"ĠÆ¯ng":14211,"ĠCÃ¢ndido":14212,"ä¾¯":14213,"ĠLagrange":14214,"ĠGaming":14215,"ĠDnies":14216,"ĠGrimmiaceae":14217,"ĠScandinavia":14218,"ĠMountain":14219,"Ġhydroxide":14220,"ĠMiguel":14221,"ĠCucurbitaceae":14222,"udhoyono":14223,"ĠEriocaulaceae":14224,"ygdalin":14225,"ĠAlgarve":14226,"szatek":14227,"ĠPskov":14228,"ĠTetragnathidae":14229,"ĠGekkonidae":14230,"\"'":14231,".\".":14232,"Az":14233,"BÃ¡ch":14234,"Cass":14235,"Dáº¥u":14236,"Et":14237,"Fiss":14238,"GB":14239,"Gard":14240,"Gold":14241,"HÃ´n":14242,"Hero":14243,"Kan":14244,"KÃŃch":14245,"KÃ½":14246,"Lin":14247,"LÃ¢m":14248,"Má»Ł":14249,"May":14250,"Máº¡ng":14251,"Mess":14252,"NáºŃm":14253,"Old":14254,"Piper":14255,"Ric":14256,"Sac":14257,"Tin":14258,"Ten":14259,"Tá»Ń":14260,"Tim":14261,"Tiber":14262,"VI":14263,"VÄ©nh":14264,"Xe":14265,"báº±ng":14266,"buri":14267,"htt":14268,"mingham":14269,"myeon":14270,"null":14271,"pis":14272,"rÅį":14273,"tÃ¡c":14274,"tan":14275,"tin":14276,"tae":14277,"vo":14278,"wy":14279,"water":14280,"wait":14281,"xicÃ´":14282,"yre":14283,"zek":14284,"ÈĽ":14285,"Ð·":14286,"à¼":14287,"Ġec":14288,"ĠÃ³c":14289,"ĠãĤ":14290,"Ġibn":14291,"Ġtiá»ħu":14292,"Ġcá»įc":14293,"Ġcard":14294,"Ġcáº±n":14295,"ĠÄĳáº½":14296,"Ġváº¯t":14297,"Ġvul":14298,"Ġlá»ĭ":14299,"ĠmÃ¡ng":14300,"ĠmÆ°Æ¡ng":14301,"Ġmáº¯m":14302,"Ġtrip":14303,"Ġbá»ī":14304,"ĠbÃ¬m":14305,"Ġbá»Ľi":14306,"Ġnáº¡c":14307,"Ġchá»ım":14308,"Ġsi":14309,"ĠsÃłnh":14310,"ĠsÃºp":14311,"Ġnháº¡o":14312,"ĠdÃło":14313,"ĠCi":14314,"ĠCÃ¹":14315,"ĠCopa":14316,"ĠCypr":14317,"Ġqui":14318,"ĠNau":14319,"ĠLáº§u":14320,"ĠLamb":14321,"ĠLast":14322,"ĠLike":14323,"ĠHr":14324,"ĠHá»ģ":14325,"ĠHim":14326,"ĠHector":14327,"Ġrá»£":14328,"chus":14329,"ĠxÃ¡t":14330,"ĠBav":14331,"ĠBordeaux":14332,"ĠMong":14333,"ĠMit":14334,"ĠMog":14335,"ĠMID":14336,"ĠSV":14337,"ĠSed":14338,"aran":14339,"ĠPuy":14340,"ĠPus":14341,"ĠPul":14342,"ĠVáºŃy":14343,"ĠVoss":14344,"ĠVald":14345,"ĠKushiro":14346,"enus":14347,"ĠAin":14348,"ĠAmm":14349,"Ġ204":14350,"alop":14351,"alie":14352,"alya":14353,"ĠDia":14354,"ĠDion":14355,"ĠDort":14356,"orax":14357,"Ġngháº½n":14358,"ĠGad":14359,"ĠGda":14360,"ĠGulb":14361,"ĠGambia":14362,"idal":14363,"ĠChá»§ng":14364,"isk":14365,"elai":14366,"Quáº§n":14367,"imoto":14368,"ĠRas":14369,"ĠRab":14370,"ĠRush":14371,"icle":14372,"assky":14373,"asci":14374,"ĠEuph":14375,"ĠFet":14376,"ĠFate":14377,"Ġ480":14378,"ĠJenn":14379,"adan":14380,"adin":14381,"adena":14382,"ĠWoo":14383,"ThÃ¡c":14384,"ĠkhuÃ´ng":14385,"rej":14386,"ages":14387,"agement":14388,"ÄĲa":14389,"ĠOri":14390,"trile":14391,"Trans":14392,"Ġ102":14393,"edom":14394,"ĠYudhoyono":14395,"1969":14396,"1961":14397,"neby":14398,"ichen":14399,"Ã©tico":14400,"ivo":14401,"PhÃ¡o":14402,"enti":14403,"iani":14404,"ĠMariana":14405,"ĠStore":14406,"ĠStade":14407,"ĠStockh":14408,"Ġ1783":14409,"ĠAlp":14410,"ifascia":14411,"Ġ154":14412,"iox":14413,"acha":14414,"ĠBraun":14415,"ĠBremek":14416,"ersachsen":14417,"Ġ1471":14418,"Äĳáº¿n":14419,"epler":14420,"ophil":14421,"...]":14422,"ĠPrince":14423,"ĠCons":14424,"KhÃ¡c":14425,"Ã¼t":14426,"ickel":14427,"ĠgÃ³t":14428,"ochrys":14429,"ochika":14430,"Ġbá»Ŀm":14431,"ostigma":14432,"ĠCleopatra":14433,"ĠClaude":14434,"ĠLuther":14435,"ĠMadh":14436,"yllus":14437,"siloc":14438,"ĠSteven":14439,"atty":14440,"ĠYorkshire":14441,"ĠAdiant":14442,"ashta":14443,"ĠOrange":14444,"ĠPolyc":14445,"ĠRobinson":14446,"house":14447,"ĠPalau":14448,"ĠHenr":14449,"ĠDead":14450,"ĠRhodes":14451,"ihar":14452,"Ã¤r":14453,"Ġiod":14454,"ĠScotia":14455,"rates":14456,"ĠCastel":14457,"imbart":14458,"Blake":14459,"CAF":14460,"1958":14461,"aghetti":14462,"Ġ1795":14463,"ĠProf":14464,"unning":14465,"agrostis":14466,"ĠHolttum":14467,"organ":14468,"ĠSmithson":14469,"ĠRomanovich":14470,"ĠWarren":14471,"ĠBuenos":14472,"ĠNavarre":14473,"ĠHowe":14474,"iculatus":14475,"ĠSaber":14476,"Philipp":14477,"Chuáº©n":14478,"Steph":14479,"ĠLimited":14480,"ĠBilly":14481,"ĠEss":14482,"Ġrobust":14483,"Ġdaimyo":14484,"ĠWestern":14485,"ĠBluehole":14486,"ĠBirmingham":14487,"ĠDjoser":14488,"ĠRostov":14489,"ĠAtlantic":14490,"ĠAtlÃ©tico":14491,"ĠMasters":14492,"Galium":14493,"ä»ģ":14494,"åĮº":14495,"ĠRossi":14496,"ĠTodd":14497,"åľĭ":14498,"ĠNiedersachsen":14499,"etskov":14500,"ĠShipbuilding":14501,"ĠCEO":14502,"ĠLisbon":14503,"ĠRodrÃŃguez":14504,"ĠSintashta":14505,"Wilson":14506,"American":14507,"ĠIgorevich":14508,"ĠLÃªnin":14509,"Venez":14510,"ĠLizardon":14511,"ĠSigismund":14512,"æµ·":14513,"ĠBezos":14514,"ĠJisoo":14515,"ĠAssociation":14516,"Williams":14517,"ĠSoftware":14518,"Nomada":14519,"ĠKannada":14520,"ĠSeleukos":14521,"ĠPeckham":14522,"ĠJÃ©rÃ´me":14523,"ĠCalderÃ³n":14524,"ĠBleuets":14525,"ĠHelsinki":14526,"ĠRÃ©gimbart":14527,"ĠMontenegro":14528,"ĠMeteoriaceae":14529,"ĠPolygalaceae":14530,"ĠDortmund":14531,"ĠAdiantaceae":14532,"?\".":14533,"Asia":14534,"Bang":14535,"Best":14536,"Cá»ķ":14537,"Cord":14538,"City":14539,"Dan":14540,"Del":14541,"Dry":14542,"Euxoa":14543,"Háº¡":14544,"Ke":14545,"Lang":14546,"Liv":14547,"MÆ°á»Ŀi":14548,"Neu":14549,"Prom":14550,"Poaceae":14551,"Ray":14552,"Song":14553,"Something":14554,"TE":14555,"Tetr":14556,"USA":14557,"WÃ¼rttemberg":14558,"bas":14559,"bred":14560,"court":14561,"dur":14562,"die":14563,"fil":14564,"gam":14565,"hat":14566,"iw":14567,"jÅį":14568,"jima":14569,"kÃ¶y":14570,"loa":14571,"lid":14572,"misch":14573,"nor":14574,"neri":14575,"ress":14576,"side":14577,"tur":14578,"tá»±a":14579,"tora":14580,"uber":14581,"vice":14582,"wall":14583,"xu":14584,"yia":14585,"yÅ«":14586,"Çİ":14587,"å»":14588,"åĨ":14589,"åĭ":14590,"é»":14591,"éĢ":14592,"éĸ":14593,"Ġ%":14594,"ĠĊ":14595,"ĠÃª":14596,"ĠÃ¡ch":14597,"Ġteen":14598,"Ġcos":14599,"ĠcÃºi":14600,"ĠvÆ°á»Ľng":14601,"Ġvirg":14602,"Ġláº©n":14603,"Ã¡l":14604,"ĠhÃ³t":14605,"Ġmas":14606,"ĠtrÃ²ng":14607,"Ġná»¥":14608,"Ġnagar":14609,"ĠnÃºm":14610,"ĠchÃ³c":14611,"Ġsáº¥u":14612,"Ġnhá»©c":14613,"Ġdig":14614,"phon":14615,"phyl":14616,"ĠTac":14617,"ĠphÃ´ng":14618,"ĠphÃłn":14619,"Ġphá»Ľt":14620,"quin":14621,"ĠCá»§":14622,"ĠCá»ĳi":14623,"ĠCob":14624,"Ġquark":14625,"ĠND":14626,"ĠNebr":14627,"ĠLeo":14628,"ĠLiá»ĩu":14629,"ĠLuke":14630,"ĠHÃ¡t":14631,"ĠHub":14632,"ĠHrad":14633,"Ġrá»§":14634,"Ġráº¡ng":14635,"Ġrot":14636,"chon":14637,"ĠBau":14638,"ĠBuc":14639,"ĠBÃ£o":14640,"erta":14641,"ĠMett":14642,"ĠManga":14643,"ĠÄĲáº¡":14644,"ĠÄĲÃ¡nh":14645,"ĠÄĲÄ©nh":14646,"ĠSr":14647,"ĠSey":14648,"amor":14649,"Ġ('":14650,"Ġ\"...":14651,"arv":14652,"ĠPand":14653,"ĠPLA":14654,"ĠKÃª":14655,"ĠKin":14656,"ĠKod":14657,"ĠKuk":14658,"ĠKoz":14659,"ĠKiel":14660,"ause":14661,"ayi":14662,"ĠTra":14663,"ĠTrÃ¡ng":14664,"ĠTrab":14665,"angensis":14666,"ĠDyn":14667,"ĠDuck":14668,"ĠChalle":14669,"esun":14670,"ĠPhÃ³ng":14671,"ĠPholc":14672,"atae":14673,"usia":14674,"ĠQuÃ¡i":14675,"ĠNhiÃªn":14676,"Ġbá»ĭp":14677,"Ġbá»ĭt":14678,"ĠRut":14679,"ĠRivers":14680,"icosa":14681,"iton":14682,"itol":14683,"itrium":14684,"ĠICA":14685,"emum":14686,"ĠFat":14687,"thr":14688,"ĠWu":14689,"ĠWer":14690,"ĠWard":14691,"Ġdoáº¡":14692,"Thal":14693,"ĠXÃ¡c":14694,"agidae":14695,"ĠKhal":14696,"ĠkhoÃ¡t":14697,"Trá»ĭnh":14698,"igami":14699,"Ġpixel":14700,"Ngá»įc":14701,"1960":14702,"1953":14703,"1968":14704,"1976":14705,"ellum":14706,"ichum":14707,"ĠLancelot":14708,"iei":14709,"enty":14710,"ĠMarch":14711,"Ġ1758":14712,"ĠAlc":14713,"ĠAless":14714,"ĠAliadiÃ¨re":14715,"ĠAri":14716,"alla":14717,"allis":14718,"skh":14719,"ĠGiacÃ´":14720,"ĠLepid":14721,"ĠLeipzig":14722,"ĠZag":14723,"Ġ1600":14724,"azine":14725,"ega":14726,"ĠShr":14727,"Ġ136":14728,"ohyd":14729,"iera":14730,"essler":14731,"ĠProm":14732,"indo":14733,"astus":14734,"ortic":14735,"ĠQuyáº¿n":14736,"icks":14737,"Åįjin":14738,"ĠSpec":14739,"ĠSpace":14740,"Stelis":14741,"ĠMalat":14742,"ittatus":14743,"Prod":14744,"lyuch":14745,"Ġacum":14746,"ĠHarms":14747,"ĠAbraham":14748,"ĠBoys":14749,"ĠIron":14750,"ĠMeuse":14751,"yphus":14752,"yphantes":14753,"ĠOpera":14754,"Anhalt":14755,"escu":14756,"ĠRichards":14757,"Spr":14758,"Ġoxit":14759,"oshilov":14760,"ĠTurridae":14761,"ĠMedina":14762,"geria":14763,"ĠiTunes":14764,"Ġå¤":14765,"Ġonline":14766,"ÐµÐ½":14767,"robiidae":14768,"ĠCapablanca":14769,"ĠWeekly":14770,"ĠSantos":14771,"ythia":14772,"eolus":14773,"eolata":14774,"1959":14775,"ergic":14776,"ĠThiem":14777,"iffin":14778,"ĠObserv":14779,"ĠFabaceae":14780,"ĠZhu":14781,"Ġcracking":14782,"Allium":14783,"ĠBuÃ´n":14784,"ĠKeith":14785,"Coryd":14786,"ĠDevelop":14787,"ĠGreenland":14788,"Ġminor":14789,"ĠDublin":14790,"ĠYamag":14791,"ĠGolden":14792,"auharnais":14793,"Ġliu":14794,"ĠEvil":14795,"ĠBabylon":14796,"ĠBird":14797,"amanca":14798,"Ġphosphat":14799,"Cyrtandra":14800,"NHH":14801,"ĠKosovo":14802,"ĠMagnus":14803,"McCartney":14804,"Phyllanthus":14805,"æŃ¦":14806,"Music":14807,"ĠSparassidae":14808,"ĠÅģÃ³d":14809,"ĠChamberlin":14810,"Ġgranit":14811,"ĠDiamandis":14812,"ĠMysore":14813,"ĠVsevolodovich":14814,"evchenko":14815,"ĠRÃ´man":14816,"ĠPickard":14817,"ĠPozna":14818,"ĠGordon":14819,"ĠPalearctic":14820,"Ġhydrocarbon":14821,"ehalose":14822,"ĠGdaÅĦsk":14823,"ĠNebraska":14824,"ĠPholcidae":14825,"ĠÅģÃ³dÅº":14826,"BÃŃ":14827,"Bá»©c":14828,"Biá»ĥn":14829,"Brid":14830,"Cry":14831,"Cyp":14832,"Crep":14833,"Esc":14834,"Gro":14835,"Glen":14836,"HT":14837,"Hir":14838,"IU":14839,"Kon":14840,"Máº¹":14841,"Manga":14842,"NÃºi":14843,"ON":14844,"OP":14845,"Ob":14846,"Rock":14847,"SiÃªu":14848,"SÃºng":14849,"Sir":14850,"TÆ°á»Ľng":14851,"Tmar":14852,"Vorpommern":14853,"Wu":14854,"Xáº¿p":14855,"beck":14856,"dáº·m":14857,"fish":14858,"gat":14859,"gers":14860,"germe":14861,"há»ĩ":14862,"hito":14863,"kÃ½":14864,"lim":14865,"lot":14866,"lock":14867,"mia":14868,"mail":14869,"nan":14870,"nidae":14871,"not":14872,"nagar":14873,"rag":14874,"tis":14875,"uther":14876,"zie":14877,"zano":14878,"¯į":14879,"ÙĨ":14880,"ç§":14881,"éŃ":14882,"Ġact":14883,"Ġtá»§a":14884,"Ġcá»ĵng":14885,"Ġcoll":14886,"Ġclient":14887,"nhower":14888,"Ġvol":14889,"Ġváº±n":14890,"Ġlay":14891,"ĠliÃªu":14892,"Ġláº©u":14893,"ĠlÆ°á»Ľt":14894,"Ġthá»ĳn":14895,"Ġhat":14896,"ĠhÃºy":14897,"Ġmir":14898,"Ġmex":14899,"Ġtrá»į":14900,"ĠtrÃªu":14901,"Ġbol":14902,"Ġcháº£":14903,"Ġsand":14904,"Ġseri":14905,"Ġdub":14906,"Ġgel":14907,"Ġgá»įng":14908,"ĠTÆ¡":14909,"ĠTá»ĳt":14910,"ĠTuyá»ĩt":14911,"ĠToshi":14912,"ĠTEM":14913,"Ġphenol":14914,"anp":14915,"ĠCJ":14916,"ĠCM":14917,"ĠCT":14918,"ĠCang":14919,"ĠCoppa":14920,"ĠCá»įp":14921,"ĠNC":14922,"ĠNá»Ńa":14923,"ĠNull":14924,"ÃŃk":14925,"ÃŃs":14926,"ĠLiá»ħn":14927,"ĠLug":14928,"ĠLoáº¡t":14929,"ĠHS":14930,"ĠHiÃªn":14931,"ĠHern":14932,"ĠHama":14933,"ĠHamm":14934,"cháº¥t":14935,"chiáº¿m":14936,"ĠBR":14937,"ĠBÃ²":14938,"ĠBÆ°á»Ľc":14939,"ĠBá»©a":14940,"ĠBeg":14941,"ĠBott":14942,"ĠÄĲáº§m":14943,"ĠÄĲuÃ´i":14944,"ĠSE":14945,"ĠSentai":14946,"ĠSviat":14947,"amia":14948,"Ġ(?":14949,"Ġthá»Ľ":14950,"ĠPeople":14951,"ĠTher":14952,"ĠVá»¹":14953,"ĠVá»ĳn":14954,"ĠKel":14955,"ĠKul":14956,"ĠKak":14957,"ĠKob":14958,"ĠAne":14959,"ayan":14960,"ĠDolin":14961,"ĠGin":14962,"ĠGle":14963,"isb":14964,"isar":14965,"Ġgiá»Ĺ":14966,"eola":14967,"ĠNgÃłnh":14968,"Ã©a":14969,"ĠRel":14970,"ĠRosa":14971,"Ã¡ndez":14972,"itrich":14973,"ĠIBM":14974,"ĠIRS":14975,"acidae":14976,"ĠFant":14977,"ĠFLC":14978,"ĠForbes":14979,"hich":14980,"ĠJub":14981,"ĠJournal":14982,"adn":14983,"adian":14984,"thor":14985,"ThÆ°á»Ŀng":14986,"Tháº£m":14987,"Thá»¥y":14988,"opet":14989,"lech":14990,"ulz":14991,"ulifera":14992,"Ġ650":14993,"otan":14994,"ÄĲá»ģn":14995,"odle":14996,"ĠOman":14997,"ĠUszatek":14998,"iris":14999,"ocos":15000,"igov":15001,"igata":15002,"Ġpac":15003,"Ġpost":15004,"Ġ123":15005,"aval":15006,"abar":15007,"aburi":15008,"1921":15009,"1964":15010,"ellulidae":15011,"neyland":15012,"Ġ111":15013,"Chr":15014,"Chuyá»ĩn":15015,"ogan":15016,"ograd":15017,"obasis":15018,"ryx":15019,"ivar":15020,"inek":15021,"ianth":15022,"ĠMaryland":15023,"ĠSten":15024,"ĠStation":15025,"Ġ172":15026,"ifica":15027,"ĠBani":15028,"Ġáº¤p":15029,"udo":15030,"ĠLeb":15031,"ĠLeone":15032,"ĠZarag":15033,"acher":15034,"Äĳi":15035,"awesi":15036,"ĠShad":15037,"Ġalp":15038,"ycosa":15039,"epend":15040,"estion":15041,"Ġinf":15042,"Ġintegr":15043,"ukyu":15044,"izer":15045,"izen":15046,"ĠCrunchyroll":15047,"ende":15048,"Ġ213":15049,"ehyde":15050,"ansa":15051,"ĠAstr":15052,"Ġ235":15053,"ĠHye":15054,"seng":15055,"ĠSpassky":15056,"ĠBeauharnais":15057,"ĠAderidae":15058,"ĠAdelai":15059,"ĠOlom":15060,"ĠCorinn":15061,"ĠMcC":15062,"ĠNees":15063,"ĠPhanxicÃ´":15064,"ĠâĢľ\"":15065,"ĠBrotherhood":15066,"Ġ1807":15067,"iÄĻ":15068,"ĠEmmanuel":15069,"isenhower":15070,"lington":15071,"ĠViolet":15072,"ereus":15073,"ĠTuring":15074,"uire":15075,"Elizabeth":15076,"refox":15077,"ĠGenoa":15078,"ĠGlenn":15079,"ĠDelta":15080,"Ġarea":15081,"Ent":15082,"agrion":15083,"IAA":15084,"scope":15085,"ĠCasc":15086,"ĠSaipan":15087,"ĠLibellulidae":15088,"ĠTiberian":15089,"ĠEurope":15090,"Ġngoáº·c":15091,"uttatus":15092,"ÃŁe":15093,"iculatum":15094,"abrera":15095,"ĠKamen":15096,"åĲĽ":15097,"Ä±kesir":15098,"ĠKenneth":15099,"ĠBusan":15100,"ĠAhmed":15101,"æľĥ":15102,"ĠBruno":15103,"ĠPedley":15104,"ĠGolgi":15105,"Ġsimilis":15106,"Pterolophia":15107,"ognatha":15108,"Ġmetal":15109,"ä¹ĭ":15110,"ĠPurple":15111,"ĠLiechtenstein":15112,"Ptil":15113,"ĠSevilla":15114,"thesaban":15115,"ĠToday":15116,"utskoy":15117,"ĠAugustus":15118,"ĠSystems":15119,"ĠMstislavich":15120,"åĽ½":15121,"ÑģÐºÐ¸Ð¹":15122,"ĠDiamond":15123,"ittee":15124,"ĠJared":15125,"ĠVincent":15126,"Oxyopes":15127,"entropodidae":15128,"ĠCountry":15129,"ĠFermi":15130,"ĠBelgaum":15131,"ĠBeauty":15132,"ĠPhraya":15133,"ĠColumbus":15134,"Primulina":15135,"å¦ĥ":15136,"ĠKrishna":15137,"Lowry":15138,"Joseph":15139,"Ġestrogen":15140,"ĠOctavius":15141,"unjab":15142,"ĠArmstrong":15143,"Festuca":15144,"utthaya":15145,"Ġvá»©t":15146,"ĠGulbarga":15147,"ĠStockholm":15148,"ĠPolycentropodidae":15149,"ĠGiacÃ´bÃª":15150,"Tmarus":15151,"germeister":15152,"ĠZaragoza":15153,"ĠAdelaide":15154,"ĠCorinnidae":15155,"\"/":15156,"1000":15157,"118":15158,";\"":15159,"Bá»Łi":15160,"BÃ³ng":15161,"Born":15162,"Cot":15163,"Cav":15164,"Cosm":15165,"Cyath":15166,"DL":15167,"Gyn":15168,"Germ":15169,"HÃłm":15170,"Hull":15171,"Jack":15172,"Kur":15173,"Kem":15174,"Myrm":15175,"Nat":15176,"Natri":15177,"Och":15178,"Res":15179,
[...]
